{
  "version": "1.0",
  "truncation": null,
  "padding": null,
  "added_tokens": [
    {
      "id": 0,
      "content": "<unk>",
      "single_word": false,
      "lstrip": false,
      "rstrip": false,
      "normalized": false,
      "special": true
    },
    {
      "id": 1,
      "content": "<s>",
      "single_word": false,
      "lstrip": false,
      "rstrip": false,
      "normalized": false,
      "special": true
    },
    {
      "id": 2,
      "content": "</s>",
      "single_word": false,
      "lstrip": false,
      "rstrip": false,
      "normalized": false,
      "special": true
    }
  ],
  "normalizer": {
    "type": "Sequence",
    "normalizers": []
  },
  "pre_tokenizer": {
    "type": "Split",
    "pattern": {
      "Regex": "\\s*\\w+|\\s*[^\\w\\s]+|\\s+"
    },
    "behavior": "Isolated",
    "invert": false
  },
  "post_processor": {
    "type": "TemplateProcessing",
    "single": [
      {
        "SpecialToken": {
          "id": "<s>",
          "type_id": 0
        }
      },
      {
        "Sequence": {
          "id": "A",
          "type_id": 0
        }
      }
    ],
    "pair": [
      {
        "SpecialToken": {
          "id": "<s>",
          "type_id": 0
        }
      },
      {
        "Sequence": {
          "id": "A",
          "type_id": 0
        }
      },
      {
        "SpecialToken": {
          "id": "<s>",
          "type_id": 1
        }
      },
      {
        "Sequence": {
          "id": "B",
          "type_id": 1
        }
      }
    ],
    "special_tokens": {
      "<s>": {
        "id": "<s>",
        "ids": [
          1
        ],
        "tokens": [
          "<s>"
        ]
      }
    }
  },
  "decoder": {
    "type": "Sequence",
    "decoders": [
      {
        "type": "ByteFallback"
      },
      {
        "type": "Fuse"
      }
    ]
  },
  "model": {
    "type": "BPE",
    "dropout": null,
    "unk_token": "<unk>",
    "continuing_subword_prefix": null,
    "end_of_word_suffix": null,
    "fuse_unk": true,
    "byte_fallback": true,
    "ignore_merges": false,
    "vocab": {
      "<unk>": 0,
      "<s>": 1,
      "</s>": 2,
      "<0x00>": 3,
      "<0x01>": 4,
      "<0x02>": 5,
      "<0x03>": 6,
      "<0x04>": 7,
      "<0x05>": 8,
      "<0x06>": 9,
      "<0x07>": 10,
      "<0x08>": 11,
      "<0x09>": 12,
      "<0x0A>": 13,
      "<0x0B>": 14,
      "<0x0C>": 15,
      "<0x0D>": 16,
      "<0x0E>": 17,
      "<0x0F>": 18,
      "<0x10>": 19,
      "<0x11>": 20,
      "<0x12>": 21,
      "<0x13>": 22,
      "<0x14>": 23,
      "<0x15>": 24,
      "<0x16>": 25,
      "<0x17>": 26,
      "<0x18>": 27,
      "<0x19>": 28,
      "<0x1A>": 29,
      "<0x1B>": 30,
      "<0x1C>": 31,
      "<0x1D>": 32,
      "<0x1E>": 33,
      "<0x1F>": 34,
      "<0x20>": 35,
      "<0x21>": 36,
      "<0x22>": 37,
      "<0x23>": 38,
      "<0x24>": 39,
      "<0x25>": 40,
      "<0x26>": 41,
      "<0x27>": 42,
      "<0x28>": 43,
      "<0x29>": 44,
      "<0x2A>": 45,
      "<0x2B>": 46,
      "<0x2C>": 47,
      "<0x2D>": 48,
      "<0x2E>": 49,
      "<0x2F>": 50,
      "<0x30>": 51,
      "<0x31>": 52,
      "<0x32>": 53,
      "<0x33>": 54,
      "<0x34>": 55,
      "<0x35>": 56,
      "<0x36>": 57,
      "<0x37>": 58,
      "<0x38>": 59,
      "<0x39>": 60,
      "<0x3A>": 61,
      "<0x3B>": 62,
      "<0x3C>": 63,
      "<0x3D>": 64,
      "<0x3E>": 65,
      "<0x3F>": 66,
      "<0x40>": 67,
      "<0x41>": 68,
      "<0x42>": 69,
      "<0x43>": 70,
      "<0x44>": 71,
      "<0x45>": 72,
      "<0x46>": 73,
      "<0x47>": 74,
      "<0x48>": 75,
      "<0x49>": 76,
      "<0x4A>": 77,
      "<0x4B>": 78,
      "<0x4C>": 79,
      "<0x4D>": 80,
      "<0x4E>": 81,
      "<0x4F>": 82,
      "<0x50>": 83,
      "<0x51>": 84,
      "<0x52>": 85,
      "<0x53>": 86,
      "<0x54>": 87,
      "<0x55>": 88,
      "<0x56>": 89,
      "<0x57>": 90,
      "<0x58>": 91,
      "<0x59>": 92,
      "<0x5A>": 93,
      "<0x5B>": 94,
      "<0x5C>": 95,
      "<0x5D>": 96,
      "<0x5E>": 97,
      "<0x5F>": 98,
      "<0x60>": 99,
      "<0x61>": 100,
      "<0x62>": 101,
      "<0x63>": 102,
      "<0x64>": 103,
      "<0x65>": 104,
      "<0x66>": 105,
      "<0x67>": 106,
      "<0x68>": 107,
      "<0x69>": 108,
      "<0x6A>": 109,
      "<0x6B>": 110,
      "<0x6C>": 111,
      "<0x6D>": 112,
      "<0x6E>": 113,
      "<0x6F>": 114,
      "<0x70>": 115,
      "<0x71>": 116,
      "<0x72>": 117,
      "<0x73>": 118,
      "<0x74>": 119,
      "<0x75>": 120,
      "<0x76>": 121,
      "<0x77>": 122,
      "<0x78>": 123,
      "<0x79>": 124,
      "<0x7A>": 125,
      "<0x7B>": 126,
      "<0x7C>": 127,
      "<0x7D>": 128,
      "<0x7E>": 129,
      "<0x7F>": 130,
      "<0x80>": 131,
      "<0x81>": 132,
      "<0x82>": 133,
      "<0x83>": 134,
      "<0x84>": 135,
      "<0x85>": 136,
      "<0x86>": 137,
      "<0x87>": 138,
      "<0x88>": 139,
      "<0x89>": 140,
      "<0x8A>": 141,
      "<0x8B>": 142,
      "<0x8C>": 143,
      "<0x8D>": 144,
      "<0x8E>": 145,
      "<0x8F>": 146,
      "<0x90>": 147,
      "<0x91>": 148,
      "<0x92>": 149,
      "<0x93>": 150,
      "<0x94>": 151,
      "<0x95>": 152,
      "<0x96>": 153,
      "<0x97>": 154,
      "<0x98>": 155,
      "<0x99>": 156,
      "<0x9A>": 157,
      "<0x9B>": 158,
      "<0x9C>": 159,
      "<0x9D>": 160,
      "<0x9E>": 161,
      "<0x9F>": 162,
      "<0xA0>": 163,
      "<0xA1>": 164,
      "<0xA2>": 165,
      "<0xA3>": 166,
      "<0xA4>": 167,
      "<0xA5>": 168,
      "<0xA6>": 169,
      "<0xA7>": 170,
      "<0xA8>": 171,
      "<0xA9>": 172,
      "<0xAA>": 173,
      "<0xAB>": 174,
      "<0xAC>": 175,
      "<0xAD>": 176,
      "<0xAE>": 177,
      "<0xAF>": 178,
      "<0xB0>": 179,
      "<0xB1>": 180,
      "<0xB2>": 181,
      "<0xB3>": 182,
      "<0xB4>": 183,
      "<0xB5>": 184,
      "<0xB6>": 185,
      "<0xB7>": 186,
      "<0xB8>": 187,
      "<0xB9>": 188,
      "<0xBA>": 189,
      "<0xBB>": 190,
      "<0xBC>": 191,
      "<0xBD>": 192,
      "<0xBE>": 193,
      "<0xBF>": 194,
      "<0xC0>": 195,
      "<0xC1>": 196,
      "<0xC2>": 197,
      "<0xC3>": 198,
      "<0xC4>": 199,
      "<0xC5>": 200,
      "<0xC6>": 201,
      "<0xC7>": 202,
      "<0xC8>": 203,
      "<0xC9>": 204,
      "<0xCA>": 205,
      "<0xCB>": 206,
      "<0xCC>": 207,
      "<0xCD>": 208,
      "<0xCE>": 209,
      "<0xCF>": 210,
      "<0xD0>": 211,
      "<0xD1>": 212,
      "<0xD2>": 213,
      "<0xD3>": 214,
      "<0xD4>": 215,
      "<0xD5>": 216,
      "<0xD6>": 217,
      "<0xD7>": 218,
      "<0xD8>": 219,
      "<0xD9>": 220,
      "<0xDA>": 221,
      "<0xDB>": 222,
      "<0xDC>": 223,
      "<0xDD>": 224,
      "<0xDE>": 225,
      "<0xDF>": 226,
      "<0xE0>": 227,
      "<0xE1>": 228,
      "<0xE2>": 229,
      "<0xE3>": 230,
      "<0xE4>": 231,
      "<0xE5>": 232,
      "<0xE6>": 233,
      "<0xE7>": 234,
      "<0xE8>": 235,
      "<0xE9>": 236,
      "<0xEA>": 237,
      "<0xEB>": 238,
      "<0xEC>": 239,
      "<0xED>": 240,
      "<0xEE>": 241,
      "<0xEF>": 242,
      "<0xF0>": 243,
      "<0xF1>": 244,
      "<0xF2>": 245,
      "<0xF3>": 246,
      "<0xF4>": 247,
      "<0xF5>": 248,
      "<0xF6>": 249,
      "<0xF7>": 250,
      "<0xF8>": 251,
      "<0xF9>": 252,
      "<0xFA>": 253,
      "<0xFB>": 254,
      "<0xFC>": 255,
      "<0xFD>": 256,
      "<0xFE>": 257,
      "<0xFF>": 258,
      "\u0000": 259,
      "\u0001": 260,
      "\u0002": 261,
      "\u0003": 262,
      "\u0004": 263,
      "\u0005": 264,
      "\u0006": 265,
      "\u0007": 266,
      "\b": 267,
      "\t": 268,
      "\n": 269,
      "\u000b": 270,
      "\f": 271,
      "\r": 272,
      "\u000e": 273,
      "\u000f": 274,
      "\u0010": 275,
      "\u0011": 276,
      "\u0012": 277,
      "\u0013": 278,
      "\u0014": 279,
      "\u0015": 280,
      "\u0016": 281,
      "\u0017": 282,
      "\u0018": 283,
      "\u0019": 284,
      "\u001a": 285,
      "\u001b": 286,
      "\u001c": 287,
      "\u001d": 288,
      "\u001e": 289,
      "\u001f": 290,
      " ": 291,
      "!": 292,
      "\"": 293,
      "#": 294,
      "$": 295,
      "%": 296,
      "&": 297,
      "'": 298,
      "(": 299,
      ")": 300,
      "*": 301,
      "+": 302,
      ",": 303,
      "-": 304,
      ".": 305,
      "/": 306,
      "0": 307,
      "1": 308,
      "2": 309,
      "3": 310,
      "4": 311,
      "5": 312,
      "6": 313,
      "7": 314,
      "8": 315,
      "9": 316,
      ":": 317,
      ";": 318,
      "<": 319,
      "=": 320,
      ">": 321,
      "?": 322,
      "@": 323,
      "A": 324,
      "B": 325,
      "C": 326,
      "D": 327,
      "E": 328,
      "F": 329,
      "G": 330,
      "H": 331,
      "I": 332,
      "J": 333,
      "K": 334,
      "L": 335,
      "M": 336,
      "N": 337,
      "O": 338,
      "P": 339,
      "Q": 340,
      "R": 341,
      "S": 342,
      "T": 343,
      "U": 344,
      "V": 345,
      "W": 346,
      "X": 347,
      "Y": 348,
      "Z": 349,
      "[": 350,
      "\\": 351,
      "]": 352,
      "^": 353,
      "_": 354,
      "`": 355,
      "a": 356,
      "b": 357,
      "c": 358,
      "d": 359,
      "e": 360,
      "f": 361,
      "g": 362,
      "h": 363,
      "i": 364,
      "j": 365,
      "k": 366,
      "l": 367,
      "m": 368,
      "n": 369,
      "o": 370,
      "p": 371,
      "q": 372,
      "r": 373,
      "s": 374,
      "t": 375,
      "u": 376,
      "v": 377,
      "w": 378,
      "x": 379,
      "y": 380,
      "z": 381,
      "{": 382,
      "|": 383,
      "}": 384,
      "~": 385,
      "": 386,
      "": 387,
      "": 388,
      "": 389,
      "": 390,
      "": 391,
      "": 392,
      "": 393,
      "": 394,
      "": 395,
      "": 396,
      "": 397,
      "": 398,
      "": 399,
      "": 400,
      "": 401,
      "": 402,
      "": 403,
      "": 404,
      "": 405,
      "": 406,
      "": 407,
      "": 408,
      "": 409,
      "": 410,
      "": 411,
      "": 412,
      "": 413,
      "": 414,
      "": 415,
      "": 416,
      "": 417,
      "": 418,
      " ": 419,
      "¡": 420,
      "¢": 421,
      "£": 422,
      "¤": 423,
      "¥": 424,
      "¦": 425,
      "§": 426,
      "¨": 427,
      "©": 428,
      "ª": 429,
      "«": 430,
      "¬": 431,
      "­": 432,
      "®": 433,
      "¯": 434,
      "°": 435,
      "±": 436,
      "²": 437,
      "³": 438,
      "´": 439,
      "µ": 440,
      "¶": 441,
      "·": 442,
      "¸": 443,
      "¹": 444,
      "º": 445,
      "»": 446,
      "¼": 447,
      "½": 448,
      "¾": 449,
      "¿": 450,
      "À": 451,
      "Á": 452,
      "Â": 453,
      "Ã": 454,
      "Ä": 455,
      "Å": 456,
      "Æ": 457,
      "Ç": 458,
      "È": 459,
      "É": 460,
      "Ê": 461,
      "Ë": 462,
      "Ì": 463,
      "Í": 464,
      "Î": 465,
      "Ï": 466,
      "Ð": 467,
      "Ñ": 468,
      "Ò": 469,
      "Ó": 470,
      "Ô": 471,
      "Õ": 472,
      "Ö": 473,
      "×": 474,
      "Ø": 475,
      "Ù": 476,
      "Ú": 477,
      "Û": 478,
      "Ü": 479,
      "Ý": 480,
      "Þ": 481,
      "ß": 482,
      "à": 483,
      "á": 484,
      "â": 485,
      "ã": 486,
      "ä": 487,
      "å": 488,
      "æ": 489,
      "ç": 490,
      "è": 491,
      "é": 492,
      "ê": 493,
      "ë": 494,
      "ì": 495,
      "í": 496,
      "î": 497,
      "ï": 498,
      "ð": 499,
      "ñ": 500,
      "ò": 501,
      "ó": 502,
      "ô": 503,
      "õ": 504,
      "ö": 505,
      "÷": 506,
      "ø": 507,
      "ù": 508,
      "ú": 509,
      "û": 510,
      "ü": 511,
      "ý": 512,
      "þ": 513,
      "ÿ": 514,
      "Ā": 515,
      "ā": 516,
      "Ă": 517,
      "ă": 518,
      "Ą": 519,
      "ą": 520,
      "Ć": 521,
      "ć": 522,
      "Ĉ": 523,
      "ĉ": 524,
      "ċ": 525,
      "Č": 526,
      "č": 527,
      "Ď": 528,
      "ď": 529,
      "Đ": 530,
      "đ": 531,
      "Ē": 532,
      "ē": 533,
      "ĕ": 534,
      "ė": 535,
      "Ę": 536,
      "ę": 537,
      "Ě": 538,
      "ě": 539,
      "Ĝ": 540,
      "ĝ": 541,
      "Ğ": 542,
      "ğ": 543,
      "Ġ": 544,
      "ġ": 545,
      "ģ": 546,
      "Ĥ": 547,
      "ĥ": 548,
      "ħ": 549,
      "ĩ": 550,
      "Ī": 551,
      "ī": 552,
      "ĭ": 553,
      "Į": 554,
      "į": 555,
      "İ": 556,
      "ı": 557,
      "ĵ": 558,
      "ķ": 559,
      "Ĺ": 560,
      "ĺ": 561,
      "Ļ": 562,
      "ļ": 563,
      "Ľ": 564,
      "ľ": 565,
      "Ł": 566,
      "ł": 567,
      "Ń": 568,
      "ń": 569,
      "ņ": 570,
      "Ň": 571,
      "ň": 572,
      "ŉ": 573,
      "Ŋ": 574,
      "ŋ": 575,
      "Ō": 576,
      "ō": 577,
      "ŏ": 578,
      "Ő": 579,
      "ő": 580,
      "Œ": 581,
      "œ": 582,
      "Ŕ": 583,
      "ŕ": 584,
      "Ř": 585,
      "ř": 586,
      "Ś": 587,
      "ś": 588,
      "ŝ": 589,
      "Ş": 590,
      "ş": 591,
      "Š": 592,
      "š": 593,
      "Ţ": 594,
      "ţ": 595,
      "Ť": 596,
      "ť": 597,
      "Ŧ": 598,
      "ũ": 599,
      "Ū": 600,
      "ū": 601,
      "Ŭ": 602,
      "ŭ": 603,
      "Ů": 604,
      "ů": 605,
      "Ű": 606,
      "ű": 607,
      "ų": 608,
      "ŵ": 609,
      "ŷ": 610,
      "Ÿ": 611,
      "Ź": 612,
      "ź": 613,
      "Ż": 614,
      "ż": 615,
      "Ž": 616,
      "ž": 617,
      "ƀ": 618,
      "Ɓ": 619,
      "Ƃ": 620,
      "Ɔ": 621,
      "ƒ": 622,
      "Ɠ": 623,
      "ƚ": 624,
      "Ơ": 625,
      "ơ": 626,
      "Ƨ": 627,
      "ƨ": 628,
      "Ư": 629,
      "ư": 630,
      "Ʋ": 631,
      "ǂ": 632,
      "ǎ": 633,
      "ǐ": 634,
      "ǒ": 635,
      "ǔ": 636,
      "ǘ": 637,
      "ǝ": 638,
      "Ǣ": 639,
      "ǣ": 640,
      "Ǩ": 641,
      "ǵ": 642,
      "ǽ": 643,
      "ȁ": 644,
      "Ȃ": 645,
      "ȇ": 646,
      "Ș": 647,
      "ș": 648,
      "Ț": 649,
      "ț": 650,
      "Ƞ": 651,
      "Ȣ": 652,
      "Ȩ": 653,
      "ȩ": 654,
      "Ȭ": 655,
      "ɂ": 656,
      "Ʉ": 657,
      "ɐ": 658,
      "ɑ": 659,
      "ɒ": 660,
      "ɔ": 661,
      "ɕ": 662,
      "ɖ": 663,
      "ɘ": 664,
      "ə": 665,
      "ɚ": 666,
      "ɛ": 667,
      "ɜ": 668,
      "ɞ": 669,
      "ɡ": 670,
      "ɢ": 671,
      "ɣ": 672,
      "ɥ": 673,
      "ɦ": 674,
      "ɨ": 675,
      "ɪ": 676,
      "ɬ": 677,
      "ɭ": 678,
      "ɯ": 679,
      "ɳ": 680,
      "ɵ": 681,
      "ɶ": 682,
      "ɻ": 683,
      "ɾ": 684,
      "ʀ": 685,
      "ʁ": 686,
      "ʃ": 687,
      "ʇ": 688,
      "ʊ": 689,
      "ʋ": 690,
      "ʌ": 691,
      "ʏ": 692,
      "ʒ": 693,
      "ʓ": 694,
      "ʔ": 695,
      "ʕ": 696,
      "ʖ": 697,
      "ʝ": 698,
      "ʠ": 699,
      "ʦ": 700,
      "ʧ": 701,
      "ʰ": 702,
      "ʲ": 703,
      "ʳ": 704,
      "ʷ": 705,
      "ʸ": 706,
      "ʹ": 707,
      "ʺ": 708,
      "ʼ": 709,
      "ʿ": 710,
      "ˁ": 711,
      "˄": 712,
      "˅": 713,
      "ˆ": 714,
      "ˇ": 715,
      "ˈ": 716,
      "ˉ": 717,
      "ˋ": 718,
      "ˌ": 719,
      "ː": 720,
      "˘": 721,
      "˙": 722,
      "˚": 723,
      "˛": 724,
      "˜": 725,
      "˝": 726,
      "˞": 727,
      "ˡ": 728,
      "ˢ": 729,
      "ˣ": 730,
      "˧": 731,
      "˨": 732,
      "˩": 733,
      "˹": 734,
      "˺": 735,
      "̀": 736,
      "́": 737,
      "̂": 738,
      "̃": 739,
      "̄": 740,
      "̅": 741,
      "̆": 742,
      "̇": 743,
      "̈": 744,
      "̉": 745,
      "̊": 746,
      "̋": 747,
      "̌": 748,
      "̍": 749,
      "̎": 750,
      "̏": 751,
      "̐": 752,
      "̑": 753,
      "̒": 754,
      "̓": 755,
      "̔": 756,
      "̕": 757,
      "̖": 758,
      "̗": 759,
      "̘": 760,
      "̙": 761,
      "̚": 762,
      "̛": 763,
      "̜": 764,
      "̝": 765,
      "̞": 766,
      "̟": 767,
      "̠": 768,
      "̡": 769,
      "̢": 770,
      "̣": 771,
      "̤": 772,
      "̥": 773,
      "̦": 774,
      "̧": 775,
      "̨": 776,
      "̩": 777,
      "̪": 778,
      "̫": 779,
      "̬": 780,
      "̭": 781,
      "̮": 782,
      "̯": 783,
      "̱": 784,
      "̲": 785,
      "̳": 786,
      "̴": 787,
      "̵": 788,
      "̶": 789,
      "̷": 790,
      "̸": 791,
      "̹": 792,
      "̺": 793,
      "̻": 794,
      "̼": 795,
      "̽": 796,
      "̾": 797,
      "̿": 798,
      "̀": 799,
      "́": 800,
      "͂": 801,
      "̓": 802,
      "̈́": 803,
      "ͅ": 804,
      "͆": 805,
      "͇": 806,
      "͈": 807,
      "͉": 808,
      "͊": 809,
      "͋": 810,
      "͌": 811,
      "͍": 812,
      "͎": 813,
      "͐": 814,
      "͑": 815,
      "͒": 816,
      "͓": 817,
      "͔": 818,
      "͕": 819,
      "͖": 820,
      "͗": 821,
      "͘": 822,
      "͙": 823,
      "͚": 824,
      "͛": 825,
      "͜": 826,
      "͝": 827,
      "͟": 828,
      "͠": 829,
      "͡": 830,
      "Ͷ": 831,
      ";": 832,
      "΄": 833,
      "Ά": 834,
      "·": 835,
      "Έ": 836,
      "Ή": 837,
      "Ί": 838,
      "Ό": 839,
      "ΐ": 840,
      "Α": 841,
      "Β": 842,
      "Γ": 843,
      "Δ": 844,
      "Ε": 845,
      "Ζ": 846,
      "Η": 847,
      "Θ": 848,
      "Ι": 849,
      "Κ": 850,
      "Λ": 851,
      "Μ": 852,
      "Ν": 853,
      "Ξ": 854,
      "Ο": 855,
      "Π": 856,
      "Ρ": 857,
      "Σ": 858,
      "Τ": 859,
      "Υ": 860,
      "Φ": 861,
      "Χ": 862,
      "Ψ": 863,
      "Ω": 864,
      "Ϋ": 865,
      "ά": 866,
      "έ": 867,
      "ή": 868,
      "ί": 869,
      "α": 870,
      "β": 871,
      "γ": 872,
      "δ": 873,
      "ε": 874,
      "ζ": 875,
      "η": 876,
      "θ": 877,
      "ι": 878,
      "κ": 879,
      "λ": 880,
      "μ": 881,
      "ν": 882,
      "ξ": 883,
      "ο": 884,
      "π": 885,
      "ρ": 886,
      "ς": 887,
      "σ": 888,
      "τ": 889,
      "υ": 890,
      "φ": 891,
      "χ": 892,
      "ψ": 893,
      "ω": 894,
      "ϊ": 895,
      "ϋ": 896,
      "ό": 897,
      "ύ": 898,
      "ώ": 899,
      "ϕ": 900,
      "Ϟ": 901,
      "ϣ": 902,
      "ϰ": 903,
      "ϲ": 904,
      "ϴ": 905,
      "ϵ": 906,
      "Ϸ": 907,
      "ϸ": 908,
      "Ё": 909,
      "Ђ": 910,
      "Є": 911,
      "Ѕ": 912,
      "І": 913,
      "Ї": 914,
      "Ј": 915,
      "Њ": 916,
      "Ћ": 917,
      "Ќ": 918,
      "Ў": 919,
      "Џ": 920,
      "А": 921,
      "Б": 922,
      "В": 923,
      "Г": 924,
      "Д": 925,
      "Е": 926,
      "Ж": 927,
      "З": 928,
      "И": 929,
      "Й": 930,
      "К": 931,
      "Л": 932,
      "М": 933,
      "Н": 934,
      "О": 935,
      "П": 936,
      "Р": 937,
      "С": 938,
      "Т": 939,
      "У": 940,
      "Ф": 941,
      "Х": 942,
      "Ц": 943,
      "Ч": 944,
      "Ш": 945,
      "Щ": 946,
      "Ъ": 947,
      "Ы": 948,
      "Ь": 949,
      "Э": 950,
      "Ю": 951,
      "Я": 952,
      "а": 953,
      "б": 954,
      "в": 955,
      "г": 956,
      "д": 957,
      "е": 958,
      "ж": 959,
      "з": 960,
      "и": 961,
      "й": 962,
      "к": 963,
      "л": 964,
      "м": 965,
      "н": 966,
      "о": 967,
      "п": 968,
      "р": 969,
      "с": 970,
      "т": 971,
      "у": 972,
      "ф": 973,
      "х": 974,
      "ц": 975,
      "ч": 976,
      "ш": 977,
      "щ": 978,
      "ъ": 979,
      "ы": 980,
      "ь": 981,
      "э": 982,
      "ю": 983,
      "я": 984,
      "ѐ": 985,
      "ё": 986,
      "ђ": 987,
      "ѓ": 988,
      "є": 989,
      "ѕ": 990,
      "і": 991,
      "ї": 992,
      "ј": 993,
      "љ": 994,
      "њ": 995,
      "ћ": 996,
      "ќ": 997,
      "ѝ": 998,
      "ў": 999,
      "џ": 1000,
      "Ѡ": 1001,
      "ѡ": 1002,
      "Ѣ": 1003,
      "ѣ": 1004,
      "Ѥ": 1005,
      "ѥ": 1006,
      "Ѧ": 1007,
      "ѧ": 1008,
      "Ѩ": 1009,
      "ѩ": 1010,
      "Ѫ": 1011,
      "ѫ": 1012,
      "Ѭ": 1013,
      "ѭ": 1014,
      "Ѯ": 1015,
      "ѯ": 1016,
      "Ѱ": 1017,
      "ѱ": 1018,
      "Ѳ": 1019,
      "ѳ": 1020,
      "Ѵ": 1021,
      "ѵ": 1022,
      "Ѹ": 1023,
      "Ѿ": 1024,
      "ѿ": 1025,
      "Ҁ": 1026,
      "ҁ": 1027,
      "҂": 1028,
      "҆": 1029,
      "҇": 1030,
      "Ґ": 1031,
      "ґ": 1032,
      "Ғ": 1033,
      "ғ": 1034,
      "Қ": 1035,
      "қ": 1036,
      "ң": 1037,
      "ү": 1038,
      "ұ": 1039,
      "ҳ": 1040,
      "ҷ": 1041,
      "Ӏ": 1042,
      "Ӆ": 1043,
      "ӏ": 1044,
      "ә": 1045,
      "ө": 1046,
      "Ӻ": 1047,
      "ԃ": 1048,
      "ԅ": 1049,
      "ԏ": 1050,
      "ԛ": 1051,
      "ԝ": 1052,
      "Բ": 1053,
      "Դ": 1054,
      "Հ": 1055,
      "Մ": 1056,
      "Ո": 1057,
      "Ջ": 1058,
      "Ս": 1059,
      "Տ": 1060,
      "Ք": 1061,
      "՜": 1062,
      "՝": 1063,
      "՞": 1064,
      "ա": 1065,
      "բ": 1066,
      "գ": 1067,
      "դ": 1068,
      "ե": 1069,
      "զ": 1070,
      "է": 1071,
      "ը": 1072,
      "թ": 1073,
      "ի": 1074,
      "լ": 1075,
      "ծ": 1076,
      "կ": 1077,
      "հ": 1078,
      "ձ": 1079,
      "ղ": 1080,
      "ճ": 1081,
      "մ": 1082,
      "յ": 1083,
      "ն": 1084,
      "շ": 1085,
      "ո": 1086,
      "չ": 1087,
      "պ": 1088,
      "ջ": 1089,
      "ռ": 1090,
      "ս": 1091,
      "վ": 1092,
      "տ": 1093,
      "ր": 1094,
      "ց": 1095,
      "ւ": 1096,
      "ք": 1097,
      "և": 1098,
      "։": 1099,
      "֍": 1100,
      "֑": 1101,
      "֒": 1102,
      "֔": 1103,
      "֖": 1104,
      "֗": 1105,
      "֘": 1106,
      "֙": 1107,
      "֚": 1108,
      "֛": 1109,
      "֜": 1110,
      "֞": 1111,
      "֡": 1112,
      "֣": 1113,
      "֤": 1114,
      "֥": 1115,
      "֦": 1116,
      "֧": 1117,
      "֨": 1118,
      "֩": 1119,
      "֬": 1120,
      "ְ": 1121,
      "ֱ": 1122,
      "ֲ": 1123,
      "ִ": 1124,
      "ֵ": 1125,
      "ֶ": 1126,
      "ַ": 1127,
      "ָ": 1128,
      "ֹ": 1129,
      "ֻ": 1130,
      "ּ": 1131,
      "ֽ": 1132,
      "־": 1133,
      "׀": 1134,
      "ׁ": 1135,
      "ׂ": 1136,
      "א": 1137,
      "ב": 1138,
      "ג": 1139,
      "ד": 1140,
      "ה": 1141,
      "ו": 1142,
      "ז": 1143,
      "ח": 1144,
      "ט": 1145,
      "י": 1146,
      "ך": 1147,
      "כ": 1148,
      "ל": 1149,
      "ם": 1150,
      "מ": 1151,
      "ן": 1152,
      "נ": 1153,
      "ס": 1154,
      "ע": 1155,
      "ף": 1156,
      "פ": 1157,
      "ץ": 1158,
      "צ": 1159,
      "ק": 1160,
      "ר": 1161,
      "ש": 1162,
      "ת": 1163,
      "׫": 1164,
      "׳": 1165,
      "״": 1166,
      "،": 1167,
      "؛": 1168,
      "؟": 1169,
      "ء": 1170,
      "آ": 1171,
      "أ": 1172,
      "ؤ": 1173,
      "إ": 1174,
      "ئ": 1175,
      "ا": 1176,
      "ب": 1177,
      "ة": 1178,
      "ت": 1179,
      "ث": 1180,
      "ج": 1181,
      "ح": 1182,
      "خ": 1183,
      "د": 1184,
      "ذ": 1185,
      "ر": 1186,
      "ز": 1187,
      "س": 1188,
      "ش": 1189,
      "ص": 1190,
      "ض": 1191,
      "ط": 1192,
      "ظ": 1193,
      "ع": 1194,
      "غ": 1195,
      "ـ": 1196,
      "ف": 1197,
      "ق": 1198,
      "ك": 1199,
      "ل": 1200,
      "م": 1201,
      "ن": 1202,
      "ه": 1203,
      "و": 1204,
      "ى": 1205,
      "ي": 1206,
      "ً": 1207,
      "ٌ": 1208,
      "ٍ": 1209,
      "َ": 1210,
      "ُ": 1211,
      "ِ": 1212,
      "ّ": 1213,
      "ْ": 1214,
      "ٓ": 1215,
      "ٔ": 1216,
      "٠": 1217,
      "١": 1218,
      "٢": 1219,
      "٣": 1220,
      "٤": 1221,
      "٥": 1222,
      "٦": 1223,
      "٨": 1224,
      "٩": 1225,
      "٪": 1226,
      "٬": 1227,
      "ٰ": 1228,
      "ٱ": 1229,
      "ٹ": 1230,
      "ٺ": 1231,
      "ٻ": 1232,
      "ټ": 1233,
      "پ": 1234,
      "ٿ": 1235,
      "چ": 1236,
      "ڈ": 1237,
      "ڑ": 1238,
      "ژ": 1239,
      "ک": 1240,
      "ڪ": 1241,
      "ڭ": 1242,
      "گ": 1243,
      "ڵ": 1244,
      "ڶ": 1245,
      "ں": 1246,
      "ھ": 1247,
      "ہ": 1248,
      "ۅ": 1249,
      "ۆ": 1250,
      "ۇ": 1251,
      "ۈ": 1252,
      "ی": 1253,
      "ې": 1254,
      "ے": 1255,
      "۔": 1256,
      "ە": 1257,
      "ۗ": 1258,
      "۞": 1259,
      "۟": 1260,
      "ۡ": 1261,
      "ۢ": 1262,
      "ۤ": 1263,
      "ۥ": 1264,
      "ۦ": 1265,
      "۩": 1266,
      "ۭ": 1267,
      "۰": 1268,
      "۱": 1269,
      "۲": 1270,
      "۳": 1271,
      "۴": 1272,
      "۵": 1273,
      "۶": 1274,
      "۷": 1275,
      "۸": 1276,
      "۹": 1277,
      "ۻ": 1278,
      "܁": 1279,
      "܂": 1280,
      "ܐ": 1281,
      "ܒ": 1282,
      "ܘ": 1283,
      "ܝ": 1284,
      "ܠ": 1285,
      "ܡ": 1286,
      "ܢ": 1287,
      "ܦ": 1288,
      "ܬ": 1289,
      "ܷ": 1290,
      "݊": 1291,
      "ݕ": 1292,
      "ݜ": 1293,
      "ݢ": 1294,
      "ݮ": 1295,
      "ݶ": 1296,
      "ހ": 1297,
      "ރ": 1298,
      "ކ": 1299,
      "އ": 1300,
      "ވ": 1301,
      "މ": 1302,
      "ދ": 1303,
      "ލ": 1304,
      "ސ": 1305,
      "ޓ": 1306,
      "ޔ": 1307,
      "ޖ": 1308,
      "ޙ": 1309,
      "ޚ": 1310,
      "ޞ": 1311,
      "ަ": 1312,
      "ާ": 1313,
      "ި": 1314,
      "ު": 1315,
      "ެ": 1316,
      "ޭ": 1317,
      "ޮ": 1318,
      "ޯ": 1319,
      "ް": 1320,
      "޲": 1321,
      "߂": 1322,
      "ߒ": 1323,
      "ߪ": 1324,
      "ँ": 1325,
      "ं": 1326,
      "ः": 1327,
      "अ": 1328,
      "आ": 1329,
      "इ": 1330,
      "ई": 1331,
      "उ": 1332,
      "ऊ": 1333,
      "ऋ": 1334,
      "ऍ": 1335,
      "ए": 1336,
      "ऐ": 1337,
      "ओ": 1338,
      "औ": 1339,
      "क": 1340,
      "ख": 1341,
      "ग": 1342,
      "घ": 1343,
      "ङ": 1344,
      "च": 1345,
      "छ": 1346,
      "ज": 1347,
      "झ": 1348,
      "ञ": 1349,
      "ट": 1350,
      "ठ": 1351,
      "ड": 1352,
      "ढ": 1353,
      "ण": 1354,
      "त": 1355,
      "थ": 1356,
      "द": 1357,
      "ध": 1358,
      "न": 1359,
      "प": 1360,
      "फ": 1361,
      "ब": 1362,
      "भ": 1363,
      "म": 1364,
      "य": 1365,
      "र": 1366,
      "ऱ": 1367,
      "ल": 1368,
      "ळ": 1369,
      "व": 1370,
      "श": 1371,
      "ष": 1372,
      "स": 1373,
      "ह": 1374,
      "़": 1375,
      "ऽ": 1376,
      "ा": 1377,
      "ि": 1378,
      "ी": 1379,
      "ु": 1380,
      "ू": 1381,
      "ृ": 1382,
      "ॅ": 1383,
      "ॆ": 1384,
      "े": 1385,
      "ै": 1386,
      "ॉ": 1387,
      "ॊ": 1388,
      "ो": 1389,
      "ौ": 1390,
      "्": 1391,
      "ॐ": 1392,
      "ख़": 1393,
      "ज़": 1394,
      "ड़": 1395,
      "ढ़": 1396,
      "फ़": 1397,
      "।": 1398,
      "॥": 1399,
      "०": 1400,
      "१": 1401,
      "२": 1402,
      "३": 1403,
      "४": 1404,
      "५": 1405,
      "६": 1406,
      "७": 1407,
      "८": 1408,
      "९": 1409,
      "ঁ": 1410,
      "ং": 1411,
      "ঃ": 1412,
      "অ": 1413,
      "আ": 1414,
      "ই": 1415,
      "ঈ": 1416,
      "উ": 1417,
      "এ": 1418,
      "ঐ": 1419,
      "ও": 1420,
      "ঔ": 1421,
      "ক": 1422,
      "খ": 1423,
      "গ": 1424,
      "ঘ": 1425,
      "ঙ": 1426,
      "চ": 1427,
      "ছ": 1428,
      "জ": 1429,
      "ঝ": 1430,
      "ঞ": 1431,
      "ট": 1432,
      "ঠ": 1433,
      "ড": 1434,
      "ঢ": 1435,
      "ণ": 1436,
      "ত": 1437,
      "থ": 1438,
      "দ": 1439,
      "ধ": 1440,
      "ন": 1441,
      "প": 1442,
      "ফ": 1443,
      "ব": 1444,
      "ভ": 1445,
      "ম": 1446,
      "য": 1447,
      "র": 1448,
      "ল": 1449,
      "শ": 1450,
      "ষ": 1451,
      "স": 1452,
      "হ": 1453,
      "়": 1454,
      "া": 1455,
      "ি": 1456,
      "ী": 1457,
      "ু": 1458,
      "ূ": 1459,
      "ৃ": 1460,
      "ে": 1461,
      "ৈ": 1462,
      "ো": 1463,
      "ৌ": 1464,
      "্": 1465,
      "ৎ": 1466,
      "ড়": 1467,
      "য়": 1468,
      "০": 1469,
      "১": 1470,
      "২": 1471,
      "৪": 1472,
      "৫": 1473,
      "৬": 1474,
      "৭": 1475,
      "৯": 1476,
      "৷": 1477,
      "ਂ": 1478,
      "ਅ": 1479,
      "ਆ": 1480,
      "ਇ": 1481,
      "ਈ": 1482,
      "ਉ": 1483,
      "ਊ": 1484,
      "ਏ": 1485,
      "ਐ": 1486,
      "ਕ": 1487,
      "ਖ": 1488,
      "ਗ": 1489,
      "ਘ": 1490,
      "ਚ": 1491,
      "ਛ": 1492,
      "ਜ": 1493,
      "ਝ": 1494,
      "ਟ": 1495,
      "ਡ": 1496,
      "ਢ": 1497,
      "ਣ": 1498,
      "ਤ": 1499,
      "ਥ": 1500,
      "ਦ": 1501,
      "ਧ": 1502,
      "ਨ": 1503,
      "ਪ": 1504,
      "ਫ": 1505,
      "ਬ": 1506,
      "ਭ": 1507,
      "ਮ": 1508,
      "ਯ": 1509,
      "ਰ": 1510,
      "ਲ": 1511,
      "ਵ": 1512,
      "ਸ": 1513,
      "ਹ": 1514,
      "਼": 1515,
      "ਾ": 1516,
      "ਿ": 1517,
      "ੀ": 1518,
      "ੁ": 1519,
      "ੂ": 1520,
      "ੇ": 1521,
      "ੈ": 1522,
      "ੋ": 1523,
      "ੌ": 1524,
      "੍": 1525,
      "ੜ": 1526,
      "ੰ": 1527,
      "ੱ": 1528,
      "ં": 1529,
      "અ": 1530,
      "ક": 1531,
      "ગ": 1532,
      "છ": 1533,
      "જ": 1534,
      "ટ": 1535,
      "ડ": 1536,
      "ન": 1537,
      "બ": 1538,
      "ભ": 1539,
      "મ": 1540,
      "ય": 1541,
      "ર": 1542,
      "લ": 1543,
      "વ": 1544,
      "સ": 1545,
      "હ": 1546,
      "ા": 1547,
      "િ": 1548,
      "ી": 1549,
      "ુ": 1550,
      "ૂ": 1551,
      "ે": 1552,
      "ો": 1553,
      "્": 1554,
      "ଅ": 1555,
      "କ": 1556,
      "ଖ": 1557,
      "ଛ": 1558,
      "ଣ": 1559,
      "ତ": 1560,
      "ଦ": 1561,
      "ନ": 1562,
      "ବ": 1563,
      "ଭ": 1564,
      "ମ": 1565,
      "ଯ": 1566,
      "ର": 1567,
      "ଲ": 1568,
      "ଶ": 1569,
      "ହ": 1570,
      "ା": 1571,
      "ି": 1572,
      "ୀ": 1573,
      "ୁ": 1574,
      "େ": 1575,
      "୍": 1576,
      "ୟ": 1577,
      "ୱ": 1578,
      "ஂ": 1579,
      "ஃ": 1580,
      "அ": 1581,
      "ஆ": 1582,
      "இ": 1583,
      "உ": 1584,
      "எ": 1585,
      "ஒ": 1586,
      "க": 1587,
      "ங": 1588,
      "ச": 1589,
      "ஜ": 1590,
      "ட": 1591,
      "ண": 1592,
      "த": 1593,
      "ந": 1594,
      "ன": 1595,
      "ப": 1596,
      "ம": 1597,
      "ய": 1598,
      "ர": 1599,
      "ற": 1600,
      "ல": 1601,
      "ள": 1602,
      "ழ": 1603,
      "வ": 1604,
      "ா": 1605,
      "ி": 1606,
      "ீ": 1607,
      "ு": 1608,
      "ூ": 1609,
      "ெ": 1610,
      "ே": 1611,
      "ை": 1612,
      "ொ": 1613,
      "ோ": 1614,
      "்": 1615,
      "ం": 1616,
      "అ": 1617,
      "ఇ": 1618,
      "ఉ": 1619,
      "ఒ": 1620,
      "క": 1621,
      "గ": 1622,
      "చ": 1623,
      "ట": 1624,
      "డ": 1625,
      "త": 1626,
      "థ": 1627,
      "ద": 1628,
      "ధ": 1629,
      "న": 1630,
      "ప": 1631,
      "బ": 1632,
      "మ": 1633,
      "య": 1634,
      "ర": 1635,
      "ల": 1636,
      "వ": 1637,
      "స": 1638,
      "ా": 1639,
      "ి": 1640,
      "ు": 1641,
      "ూ": 1642,
      "ె": 1643,
      "ే": 1644,
      "ో": 1645,
      "్": 1646,
      "ಂ": 1647,
      "ಅ": 1648,
      "ಆ": 1649,
      "ಇ": 1650,
      "ಈ": 1651,
      "ಉ": 1652,
      "ಎ": 1653,
      "ಓ": 1654,
      "ಕ": 1655,
      "ಖ": 1656,
      "ಗ": 1657,
      "ಘ": 1658,
      "ಚ": 1659,
      "ಜ": 1660,
      "ಟ": 1661,
      "ಠ": 1662,
      "ಡ": 1663,
      "ಣ": 1664,
      "ತ": 1665,
      "ದ": 1666,
      "ಧ": 1667,
      "ನ": 1668,
      "ಪ": 1669,
      "ಬ": 1670,
      "ಮ": 1671,
      "ಯ": 1672,
      "ರ": 1673,
      "ಲ": 1674,
      "ಳ": 1675,
      "ವ": 1676,
      "ಶ": 1677,
      "ಷ": 1678,
      "ಸ": 1679,
      "ಹ": 1680,
      "ಾ": 1681,
      "ಿ": 1682,
      "ೀ": 1683,
      "ು": 1684,
      "ೂ": 1685,
      "ೃ": 1686,
      "ೆ": 1687,
      "ೇ": 1688,
      "ೊ": 1689,
      "ೋ": 1690,
      "್": 1691,
      "ം": 1692,
      "അ": 1693,
      "ആ": 1694,
      "ഇ": 1695,
      "എ": 1696,
      "ക": 1697,
      "ഗ": 1698,
      "ങ": 1699,
      "ച": 1700,
      "ട": 1701,
      "ണ": 1702,
      "ത": 1703,
      "ന": 1704,
      "പ": 1705,
      "മ": 1706,
      "യ": 1707,
      "ര": 1708,
      "റ": 1709,
      "ല": 1710,
      "ള": 1711,
      "വ": 1712,
      "ശ": 1713,
      "ഷ": 1714,
      "സ": 1715,
      "ഹ": 1716,
      "ാ": 1717,
      "ി": 1718,
      "ു": 1719,
      "െ": 1720,
      "േ": 1721,
      "ൊ": 1722,
      "ോ": 1723,
      "്": 1724,
      "ൻ": 1725,
      "ൽ": 1726,
      "ං": 1727,
      "අ": 1728,
      "ඇ": 1729,
      "ඉ": 1730,
      "ඊ": 1731,
      "ඒ": 1732,
      "ඔ": 1733,
      "ක": 1734,
      "ග": 1735,
      "ච": 1736,
      "ජ": 1737,
      "ට": 1738,
      "ත": 1739,
      "ද": 1740,
      "න": 1741,
      "ඳ": 1742,
      "ප": 1743,
      "බ": 1744,
      "භ": 1745,
      "ම": 1746,
      "ය": 1747,
      "ර": 1748,
      "ල": 1749,
      "ව": 1750,
      "ශ": 1751,
      "ස": 1752,
      "හ": 1753,
      "ළ": 1754,
      "්": 1755,
      "ා": 1756,
      "ැ": 1757,
      "ෑ": 1758,
      "ි": 1759,
      "ී": 1760,
      "ු": 1761,
      "ෘ": 1762,
      "ෙ": 1763,
      "ේ": 1764,
      "ො": 1765,
      "ෝ": 1766,
      "ෞ": 1767,
      "ก": 1768,
      "ข": 1769,
      "ค": 1770,
      "ฅ": 1771,
      "ฆ": 1772,
      "ง": 1773,
      "จ": 1774,
      "ฉ": 1775,
      "ช": 1776,
      "ซ": 1777,
      "ญ": 1778,
      "ฎ": 1779,
      "ฏ": 1780,
      "ฐ": 1781,
      "ฑ": 1782,
      "ฒ": 1783,
      "ณ": 1784,
      "ด": 1785,
      "ต": 1786,
      "ถ": 1787,
      "ท": 1788,
      "ธ": 1789,
      "น": 1790,
      "บ": 1791,
      "ป": 1792,
      "ผ": 1793,
      "ฝ": 1794,
      "พ": 1795,
      "ฟ": 1796,
      "ภ": 1797,
      "ม": 1798,
      "ย": 1799,
      "ร": 1800,
      "ฤ": 1801,
      "ล": 1802,
      "ฦ": 1803,
      "ว": 1804,
      "ศ": 1805,
      "ษ": 1806,
      "ส": 1807,
      "ห": 1808,
      "ฬ": 1809,
      "อ": 1810,
      "ฮ": 1811,
      "ฯ": 1812,
      "ะ": 1813,
      "ั": 1814,
      "า": 1815,
      "ำ": 1816,
      "ิ": 1817,
      "ี": 1818,
      "ึ": 1819,
      "ื": 1820,
      "ุ": 1821,
      "ู": 1822,
      "฿": 1823,
      "เ": 1824,
      "แ": 1825,
      "โ": 1826,
      "ใ": 1827,
      "ไ": 1828,
      "ๆ": 1829,
      "็": 1830,
      "่": 1831,
      "้": 1832,
      "๊": 1833,
      "๋": 1834,
      "์": 1835,
      "๏": 1836,
      "๑": 1837,
      "ກ": 1838,
      "ຂ": 1839,
      "ຄ": 1840,
      "ງ": 1841,
      "ຈ": 1842,
      "ຊ": 1843,
      "ຍ": 1844,
      "ດ": 1845,
      "ທ": 1846,
      "ນ": 1847,
      "ບ": 1848,
      "ປ": 1849,
      "ຜ": 1850,
      "ພ": 1851,
      "ມ": 1852,
      "ລ": 1853,
      "ວ": 1854,
      "ສ": 1855,
      "ຫ": 1856,
      "ອ": 1857,
      "ຮ": 1858,
      "ະ": 1859,
      "ັ": 1860,
      "າ": 1861,
      "ີ": 1862,
      "ຶ": 1863,
      "ື": 1864,
      "ູ": 1865,
      "ົ": 1866,
      "ຽ": 1867,
      "ເ": 1868,
      "ແ": 1869,
      "ໃ": 1870,
      "ໄ": 1871,
      "່": 1872,
      "້": 1873,
      "ໍ": 1874,
      "ໝ": 1875,
      "་": 1876,
      "།": 1877,
      "༼": 1878,
      "༽": 1879,
      "ཁ": 1880,
      "ག": 1881,
      "ང": 1882,
      "ཅ": 1883,
      "ཆ": 1884,
      "ཇ": 1885,
      "ཉ": 1886,
      "ཐ": 1887,
      "ད": 1888,
      "ན": 1889,
      "པ": 1890,
      "ཕ": 1891,
      "བ": 1892,
      "མ": 1893,
      "ཝ": 1894,
      "འ": 1895,
      "ར": 1896,
      "ལ": 1897,
      "ཤ": 1898,
      "ས": 1899,
      "ཨ": 1900,
      "ི": 1901,
      "ུ": 1902,
      "ེ": 1903,
      "ོ": 1904,
      "ྒ": 1905,
      "ྟ": 1906,
      "ྱ": 1907,
      "ྲ": 1908,
      "ྷ": 1909,
      "က": 1910,
      "ခ": 1911,
      "င": 1912,
      "စ": 1913,
      "ည": 1914,
      "တ": 1915,
      "န": 1916,
      "ပ": 1917,
      "မ": 1918,
      "ယ": 1919,
      "ရ": 1920,
      "လ": 1921,
      "သ": 1922,
      "ာ": 1923,
      "ိ": 1924,
      "ီ": 1925,
      "ု": 1926,
      "ေ": 1927,
      "ံ": 1928,
      "း": 1929,
      "်": 1930,
      "ျ": 1931,
      "ြ": 1932,
      "Ⴀ": 1933,
      "Ⴆ": 1934,
      "Ⴎ": 1935,
      "ა": 1936,
      "ბ": 1937,
      "გ": 1938,
      "დ": 1939,
      "ე": 1940,
      "ვ": 1941,
      "ზ": 1942,
      "თ": 1943,
      "ი": 1944,
      "კ": 1945,
      "ლ": 1946,
      "მ": 1947,
      "ნ": 1948,
      "ო": 1949,
      "პ": 1950,
      "რ": 1951,
      "ს": 1952,
      "ტ": 1953,
      "უ": 1954,
      "ფ": 1955,
      "ქ": 1956,
      "ღ": 1957,
      "შ": 1958,
      "ჩ": 1959,
      "ც": 1960,
      "ძ": 1961,
      "წ": 1962,
      "ჯ": 1963,
      "ᄀ": 1964,
      "ᄂ": 1965,
      "ᄃ": 1966,
      "ᄅ": 1967,
      "ᄆ": 1968,
      "ᄇ": 1969,
      "ᄉ": 1970,
      "ᄊ": 1971,
      "ᄋ": 1972,
      "ᄌ": 1973,
      "ᄐ": 1974,
      "ᄒ": 1975,
      "ᅡ": 1976,
      "ᅥ": 1977,
      "ᅦ": 1978,
      "ᅧ": 1979,
      "ᅩ": 1980,
      "ᅮ": 1981,
      "ᅲ": 1982,
      "ᅳ": 1983,
      "ᅴ": 1984,
      "ᅵ": 1985,
      "ᆨ": 1986,
      "ᆫ": 1987,
      "ᆯ": 1988,
      "ᆷ": 1989,
      "ᆸ": 1990,
      "ᆼ": 1991,
      "ᇀ": 1992,
      "ሀ": 1993,
      "ሁ": 1994,
      "ሃ": 1995,
      "ህ": 1996,
      "ሆ": 1997,
      "ለ": 1998,
      "ሉ": 1999,
      "ሊ": 2000,
      "ላ": 2001,
      "ሌ": 2002,
      "ል": 2003,
      "ሎ": 2004,
      "ሐ": 2005,
      "ሔ": 2006,
      "ሕ": 2007,
      "መ": 2008,
      "ሙ": 2009,
      "ሚ": 2010,
      "ማ": 2011,
      "ሜ": 2012,
      "ም": 2013,
      "ሞ": 2014,
      "ሠ": 2015,
      "ሣ": 2016,
      "ሥ": 2017,
      "ረ": 2018,
      "ሩ": 2019,
      "ሪ": 2020,
      "ራ": 2021,
      "ሬ": 2022,
      "ር": 2023,
      "ሮ": 2024,
      "ሰ": 2025,
      "ሱ": 2026,
      "ሲ": 2027,
      "ሳ": 2028,
      "ስ": 2029,
      "ሶ": 2030,
      "ሽ": 2031,
      "ሾ": 2032,
      "ቀ": 2033,
      "ቁ": 2034,
      "ቂ": 2035,
      "ቃ": 2036,
      "ቅ": 2037,
      "ቆ": 2038,
      "በ": 2039,
      "ቡ": 2040,
      "ቢ": 2041,
      "ባ": 2042,
      "ቤ": 2043,
      "ብ": 2044,
      "ቦ": 2045,
      "ተ": 2046,
      "ቱ": 2047,
      "ቲ": 2048,
      "ታ": 2049,
      "ቴ": 2050,
      "ት": 2051,
      "ቶ": 2052,
      "ቸ": 2053,
      "ቹ": 2054,
      "ቺ": 2055,
      "ች": 2056,
      "ኋ": 2057,
      "ነ": 2058,
      "ኑ": 2059,
      "ና": 2060,
      "ኔ": 2061,
      "ን": 2062,
      "ኖ": 2063,
      "ኘ": 2064,
      "ኛ": 2065,
      "ኝ": 2066,
      "ኞ": 2067,
      "አ": 2068,
      "ኢ": 2069,
      "ኤ": 2070,
      "እ": 2071,
      "ከ": 2072,
      "ኩ": 2073,
      "ኪ": 2074,
      "ካ": 2075,
      "ክ": 2076,
      "ኮ": 2077,
      "ኳ": 2078,
      "ወ": 2079,
      "ዊ": 2080,
      "ዋ": 2081,
      "ው": 2082,
      "ዎ": 2083,
      "ዓ": 2084,
      "ዕ": 2085,
      "ዘ": 2086,
      "ዙ": 2087,
      "ዚ": 2088,
      "ዛ": 2089,
      "ዜ": 2090,
      "ዝ": 2091,
      "ዞ": 2092,
      "የ": 2093,
      "ያ": 2094,
      "ይ": 2095,
      "ዮ": 2096,
      "ደ": 2097,
      "ዱ": 2098,
      "ዲ": 2099,
      "ዳ": 2100,
      "ዴ": 2101,
      "ድ": 2102,
      "ዶ": 2103,
      "ጀ": 2104,
      "ጅ": 2105,
      "ገ": 2106,
      "ጉ": 2107,
      "ጊ": 2108,
      "ጋ": 2109,
      "ጌ": 2110,
      "ግ": 2111,
      "ጠ": 2112,
      "ጡ": 2113,
      "ጣ": 2114,
      "ጥ": 2115,
      "ጨ": 2116,
      "ጭ": 2117,
      "ጵ": 2118,
      "ጻ": 2119,
      "ጽ": 2120,
      "ፁ": 2121,
      "ፃ": 2122,
      "ፈ": 2123,
      "ፉ": 2124,
      "ፋ": 2125,
      "ፌ": 2126,
      "ፍ": 2127,
      "ፎ": 2128,
      "ፕ": 2129,
      "፡": 2130,
      "።": 2131,
      "፣": 2132,
      "፤": 2133,
      "፪": 2134,
      "፲": 2135,
      "Ꭰ": 2136,
      "Ꭱ": 2137,
      "Ꭺ": 2138,
      "Ꭼ": 2139,
      "Ꮇ": 2140,
      "Ꮋ": 2141,
      "Ꮍ": 2142,
      "Ꮖ": 2143,
      "Ꮤ": 2144,
      "Ꮩ": 2145,
      "Ꮮ": 2146,
      "Ꮯ": 2147,
      "Ꮲ": 2148,
      "Ꮶ": 2149,
      "Ᏼ": 2150,
      "ᐛ": 2151,
      "ᓚ": 2152,
      "ᕕ": 2153,
      "ᕗ": 2154,
      "ᕼ": 2155,
      "ᗢ": 2156,
      "ᗩ": 2157,
      "ᘏ": 2158,
      "ក": 2159,
      "ខ": 2160,
      "គ": 2161,
      "ឃ": 2162,
      "ង": 2163,
      "ច": 2164,
      "ជ": 2165,
      "ញ": 2166,
      "ដ": 2167,
      "ណ": 2168,
      "ត": 2169,
      "ថ": 2170,
      "ទ": 2171,
      "ន": 2172,
      "ប": 2173,
      "ព": 2174,
      "ម": 2175,
      "យ": 2176,
      "រ": 2177,
      "ល": 2178,
      "វ": 2179,
      "ស": 2180,
      "ហ": 2181,
      "អ": 2182,
      "ា": 2183,
      "ិ": 2184,
      "ី": 2185,
      "ុ": 2186,
      "ូ": 2187,
      "ួ": 2188,
      "ើ": 2189,
      "េ": 2190,
      "ែ": 2191,
      "ៃ": 2192,
      "ៅ": 2193,
      "ំ": 2194,
      "ះ": 2195,
      "៉": 2196,
      "់": 2197,
      "៍": 2198,
      "៎": 2199,
      "្": 2200,
      "Ა": 2201,
      "ᴀ": 2202,
      "ᴄ": 2203,
      "ᴉ": 2204,
      "ᴍ": 2205,
      "ᴎ": 2206,
      "ᴗ": 2207,
      "ᴛ": 2208,
      "ᴜ": 2209,
      "ᴥ": 2210,
      "ᴨ": 2211,
      "ᴩ": 2212,
      "ᴬ": 2213,
      "ᴱ": 2214,
      "ᴳ": 2215,
      "ᴴ": 2216,
      "ᴵ": 2217,
      "ᴷ": 2218,
      "ᴹ": 2219,
      "ᴺ": 2220,
      "ᴿ": 2221,
      "ᵀ": 2222,
      "ᵂ": 2223,
      "ᵃ": 2224,
      "ᵅ": 2225,
      "ᵇ": 2226,
      "ᵈ": 2227,
      "ᵉ": 2228,
      "ᵍ": 2229,
      "ᵏ": 2230,
      "ᵐ": 2231,
      "ᵒ": 2232,
      "ᵖ": 2233,
      "ᵗ": 2234,
      "ᵘ": 2235,
      "ᵛ": 2236,
      "ᶜ": 2237,
      "ᶠ": 2238,
      "ḃ": 2239,
      "ḉ": 2240,
      "ḋ": 2241,
      "ḍ": 2242,
      "ḣ": 2243,
      "ḥ": 2244,
      "ḷ": 2245,
      "ṁ": 2246,
      "ṃ": 2247,
      "ṅ": 2248,
      "ṇ": 2249,
      "ṓ": 2250,
      "ṛ": 2251,
      "ṣ": 2252,
      "Ṭ": 2253,
      "ṭ": 2254,
      "ṯ": 2255,
      "Ẁ": 2256,
      "ẓ": 2257,
      "ẞ": 2258,
      "Ạ": 2259,
      "ạ": 2260,
      "Ả": 2261,
      "ả": 2262,
      "Ấ": 2263,
      "ấ": 2264,
      "Ầ": 2265,
      "ầ": 2266,
      "Ẩ": 2267,
      "ẩ": 2268,
      "Ẫ": 2269,
      "ẫ": 2270,
      "Ậ": 2271,
      "ậ": 2272,
      "ắ": 2273,
      "ằ": 2274,
      "ẳ": 2275,
      "ẵ": 2276,
      "Ặ": 2277,
      "ặ": 2278,
      "ẹ": 2279,
      "ẻ": 2280,
      "ẽ": 2281,
      "Ế": 2282,
      "ế": 2283,
      "Ề": 2284,
      "ề": 2285,
      "Ể": 2286,
      "ể": 2287,
      "Ễ": 2288,
      "ễ": 2289,
      "Ệ": 2290,
      "ệ": 2291,
      "Ỉ": 2292,
      "ỉ": 2293,
      "Ị": 2294,
      "ị": 2295,
      "Ọ": 2296,
      "ọ": 2297,
      "Ỏ": 2298,
      "ỏ": 2299,
      "Ố": 2300,
      "ố": 2301,
      "Ồ": 2302,
      "ồ": 2303,
      "Ổ": 2304,
      "ổ": 2305,
      "ỗ": 2306,
      "Ộ": 2307,
      "ộ": 2308,
      "Ớ": 2309,
      "ớ": 2310,
      "Ờ": 2311,
      "ờ": 2312,
      "Ở": 2313,
      "ở": 2314,
      "ỡ": 2315,
      "Ợ": 2316,
      "ợ": 2317,
      "Ụ": 2318,
      "ụ": 2319,
      "Ủ": 2320,
      "ủ": 2321,
      "Ứ": 2322,
      "ứ": 2323,
      "ừ": 2324,
      "ử": 2325,
      "ữ": 2326,
      "Ự": 2327,
      "ự": 2328,
      "ỳ": 2329,
      "ỷ": 2330,
      "Ỹ": 2331,
      "ỹ": 2332,
      "ἀ": 2333,
      "ἂ": 2334,
      "ἄ": 2335,
      "Ἀ": 2336,
      "Ἄ": 2337,
      "Ἅ": 2338,
      "ἐ": 2339,
      "ἑ": 2340,
      "ἓ": 2341,
      "ἔ": 2342,
      "ἕ": 2343,
      "Ἐ": 2344,
      "Ἑ": 2345,
      "ἠ": 2346,
      "ἡ": 2347,
      "ἤ": 2348,
      "ἦ": 2349,
      "ἧ": 2350,
      "Ἡ": 2351,
      "ἰ": 2352,
      "ἱ": 2353,
      "ἴ": 2354,
      "ἵ": 2355,
      "ἶ": 2356,
      "Ἱ": 2357,
      "ὀ": 2358,
      "ὁ": 2359,
      "ὃ": 2360,
      "ὅ": 2361,
      "ὐ": 2362,
      "ὑ": 2363,
      "ὔ": 2364,
      "ὕ": 2365,
      "ὖ": 2366,
      "ὗ": 2367,
      "ὠ": 2368,
      "ὡ": 2369,
      "ὥ": 2370,
      "Ὠ": 2371,
      "Ὡ": 2372,
      "Ὤ": 2373,
      "Ὥ": 2374,
      "Ὦ": 2375,
      "ὰ": 2376,
      "ά": 2377,
      "ὲ": 2378,
      "ὴ": 2379,
      "ή": 2380,
      "ὶ": 2381,
      "ί": 2382,
      "ὸ": 2383,
      "ό": 2384,
      "ὺ": 2385,
      "ύ": 2386,
      "ὼ": 2387,
      "ᾂ": 2388,
      "ᾃ": 2389,
      "ᾅ": 2390,
      "ᾆ": 2391,
      "ᾉ": 2392,
      "ᾊ": 2393,
      "ᾌ": 2394,
      "ᾍ": 2395,
      "ᾐ": 2396,
      "ᾓ": 2397,
      "ᾔ": 2398,
      "ᾖ": 2399,
      "ᾡ": 2400,
      "ᾢ": 2401,
      "ᾣ": 2402,
      "ᾤ": 2403,
      "ᾥ": 2404,
      "ᾦ": 2405,
      "ᾧ": 2406,
      "ᾨ": 2407,
      "ᾩ": 2408,
      "ᾪ": 2409,
      "ᾫ": 2410,
      "ᾬ": 2411,
      "ᾭ": 2412,
      "ᾮ": 2413,
      "ᾯ": 2414,
      "ᾰ": 2415,
      "ᾱ": 2416,
      "ᾲ": 2417,
      "ᾳ": 2418,
      "ᾴ": 2419,
      "᾵": 2420,
      "ᾶ": 2421,
      "ᾷ": 2422,
      "Ᾱ": 2423,
      "᾽": 2424,
      "᾿": 2425,
      "ῃ": 2426,
      "ῆ": 2427,
      "ῇ": 2428,
      "ῖ": 2429,
      "ῥ": 2430,
      "ῦ": 2431,
      "ῳ": 2432,
      "ῴ": 2433,
      "ῶ": 2434,
      "ῷ": 2435,
      " ": 2436,
      " ": 2437,
      " ": 2438,
      " ": 2439,
      " ": 2440,
      " ": 2441,
      " ": 2442,
      " ": 2443,
      "​": 2444,
      "‌": 2445,
      "‍": 2446,
      "‎": 2447,
      "‏": 2448,
      "‐": 2449,
      "‑": 2450,
      "‒": 2451,
      "–": 2452,
      "—": 2453,
      "―": 2454,
      "‖": 2455,
      "‘": 2456,
      "’": 2457,
      "‚": 2458,
      "“": 2459,
      "”": 2460,
      "„": 2461,
      "‟": 2462,
      "†": 2463,
      "‡": 2464,
      "•": 2465,
      "‣": 2466,
      "‥": 2467,
      "…": 2468,
      "‧": 2469,
      " ": 2470,
      " ": 2471,
      "‪": 2472,
      "‫": 2473,
      "‬": 2474,
      "‭": 2475,
      " ": 2476,
      "‰": 2477,
      "‱": 2478,
      "′": 2479,
      "″": 2480,
      "‹": 2481,
      "›": 2482,
      "※": 2483,
      "‼": 2484,
      "‽": 2485,
      "‿": 2486,
      "⁃": 2487,
      "⁄": 2488,
      "⁇": 2489,
      "⁉": 2490,
      "⁜": 2491,
      "⁞": 2492,
      " ": 2493,
      "⁠": 2494,
      "⁡": 2495,
      "⁦": 2496,
      "⁩": 2497,
      "⁰": 2498,
      "ⁱ": 2499,
      "⁴": 2500,
      "⁵": 2501,
      "⁶": 2502,
      "⁷": 2503,
      "⁸": 2504,
      "⁹": 2505,
      "⁺": 2506,
      "⁻": 2507,
      "ⁿ": 2508,
      "₀": 2509,
      "₁": 2510,
      "₂": 2511,
      "₃": 2512,
      "₄": 2513,
      "₅": 2514,
      "₆": 2515,
      "₇": 2516,
      "₈": 2517,
      "₉": 2518,
      "₊": 2519,
      "ₗ": 2520,
      "ₙ": 2521,
      "₠": 2522,
      "₡": 2523,
      "₢": 2524,
      "₣": 2525,
      "₤": 2526,
      "₥": 2527,
      "₦": 2528,
      "₧": 2529,
      "₩": 2530,
      "₪": 2531,
      "₫": 2532,
      "€": 2533,
      "₭": 2534,
      "₮": 2535,
      "₯": 2536,
      "₱": 2537,
      "₲": 2538,
      "₳": 2539,
      "₴": 2540,
      "₵": 2541,
      "₶": 2542,
      "₷": 2543,
      "₸": 2544,
      "₹": 2545,
      "₺": 2546,
      "₼": 2547,
      "₽": 2548,
      "₿": 2549,
      "⃗": 2550,
      "⃝": 2551,
      "⃣": 2552,
      "ℂ": 2553,
      "℃": 2554,
      "℅": 2555,
      "℉": 2556,
      "ℊ": 2557,
      "ℋ": 2558,
      "ℌ": 2559,
      "ℍ": 2560,
      "ℎ": 2561,
      "ℐ": 2562,
      "ℑ": 2563,
      "ℒ": 2564,
      "ℓ": 2565,
      "ℕ": 2566,
      "№": 2567,
      "ℙ": 2568,
      "ℝ": 2569,
      "™": 2570,
      "ℤ": 2571,
      "Ω": 2572,
      "Å": 2573,
      "℮": 2574,
      "ℯ": 2575,
      "ℴ": 2576,
      "ℵ": 2577,
      "ℹ": 2578,
      "⅁": 2579,
      "⅓": 2580,
      "⅔": 2581,
      "⅛": 2582,
      "⅜": 2583,
      "⅝": 2584,
      "⅞": 2585,
      "Ⅰ": 2586,
      "Ⅱ": 2587,
      "Ⅲ": 2588,
      "Ⅳ": 2589,
      "ⅴ": 2590,
      "ⅹ": 2591,
      "ⅼ": 2592,
      "ⅿ": 2593,
      "←": 2594,
      "↑": 2595,
      "→": 2596,
      "↓": 2597,
      "↔": 2598,
      "↕": 2599,
      "↗": 2600,
      "↦": 2601,
      "↩": 2602,
      "↪": 2603,
      "↯": 2604,
      "↳": 2605,
      "↵": 2606,
      "⇌": 2607,
      "⇐": 2608,
      "⇑": 2609,
      "⇒": 2610,
      "⇔": 2611,
      "⇡": 2612,
      "⇥": 2613,
      "⇨": 2614,
      "∀": 2615,
      "∂": 2616,
      "∃": 2617,
      "∄": 2618,
      "∅": 2619,
      "∆": 2620,
      "∇": 2621,
      "∈": 2622,
      "∉": 2623,
      "∋": 2624,
      "∌": 2625,
      "∎": 2626,
      "∑": 2627,
      "−": 2628,
      "∕": 2629,
      "∗": 2630,
      "∘": 2631,
      "∙": 2632,
      "√": 2633,
      "∝": 2634,
      "∞": 2635,
      "∠": 2636,
      "∣": 2637,
      "∥": 2638,
      "∧": 2639,
      "∨": 2640,
      "∩": 2641,
      "∪": 2642,
      "∫": 2643,
      "∴": 2644,
      "∶": 2645,
      "∼": 2646,
      "≃": 2647,
      "≅": 2648,
      "≈": 2649,
      "≠": 2650,
      "≡": 2651,
      "≢": 2652,
      "≤": 2653,
      "≥": 2654,
      "≦": 2655,
      "≧": 2656,
      "≪": 2657,
      "≫": 2658,
      "⊂": 2659,
      "⊃": 2660,
      "⊆": 2661,
      "⊕": 2662,
      "⊙": 2663,
      "⊢": 2664,
      "⊤": 2665,
      "⊥": 2666,
      "⊹": 2667,
      "⋀": 2668,
      "⋁": 2669,
      "⋂": 2670,
      "⋄": 2671,
      "⋅": 2672,
      "⋆": 2673,
      "⋐": 2674,
      "⋑": 2675,
      "⋯": 2676,
      "⌈": 2677,
      "⌉": 2678,
      "⌊": 2679,
      "⌋": 2680,
      "⌐": 2681,
      "⌓": 2682,
      "⌘": 2683,
      "⌛": 2684,
      "⌧": 2685,
      "⌨": 2686,
      "〈": 2687,
      "〉": 2688,
      "⍳": 2689,
      "⍴": 2690,
      "⍵": 2691,
      "⍺": 2692,
      "⎕": 2693,
      "⎛": 2694,
      "⎜": 2695,
      "⎝": 2696,
      "⎞": 2697,
      "⎟": 2698,
      "⎠": 2699,
      "⎡": 2700,
      "⎢": 2701,
      "⎣": 2702,
      "⎤": 2703,
      "⎥": 2704,
      "⎦": 2705,
      "⏤": 2706,
      "⏩": 2707,
      "⏰": 2708,
      "⏱": 2709,
      "⏳": 2710,
      "⏸": 2711,
      "⏹": 2712,
      "⑊": 2713,
      "①": 2714,
      "②": 2715,
      "③": 2716,
      "④": 2717,
      "⑤": 2718,
      "⑥": 2719,
      "⑦": 2720,
      "Ⓐ": 2721,
      "Ⓑ": 2722,
      "Ⓒ": 2723,
      "Ⓓ": 2724,
      "Ⓜ": 2725,
      "ⓒ": 2726,
      "ⓛ": 2727,
      "─": 2728,
      "━": 2729,
      "│": 2730,
      "┃": 2731,
      "┈": 2732,
      "┏": 2733,
      "┐": 2734,
      "└": 2735,
      "┗": 2736,
      "┘": 2737,
      "├": 2738,
      "┣": 2739,
      "┤": 2740,
      "┫": 2741,
      "┬": 2742,
      "┻": 2743,
      "┼": 2744,
      "═": 2745,
      "║": 2746,
      "╒": 2747,
      "╓": 2748,
      "╔": 2749,
      "╕": 2750,
      "╗": 2751,
      "╚": 2752,
      "╝": 2753,
      "╞": 2754,
      "╡": 2755,
      "╣": 2756,
      "╤": 2757,
      "╨": 2758,
      "╪": 2759,
      "╭": 2760,
      "╮": 2761,
      "╯": 2762,
      "╰": 2763,
      "╲": 2764,
      "▀": 2765,
      "▁": 2766,
      "▂": 2767,
      "▄": 2768,
      "█": 2769,
      "▌": 2770,
      "▎": 2771,
      "▏": 2772,
      "░": 2773,
      "▒": 2774,
      "▓": 2775,
      "■": 2776,
      "□": 2777,
      "▢": 2778,
      "▪": 2779,
      "▬": 2780,
      "▲": 2781,
      "△": 2782,
      "▶": 2783,
      "▷": 2784,
      "▸": 2785,
      "►": 2786,
      "▼": 2787,
      "▽": 2788,
      "▾": 2789,
      "◀": 2790,
      "◂": 2791,
      "◆": 2792,
      "◇": 2793,
      "◈": 2794,
      "◉": 2795,
      "◊": 2796,
      "○": 2797,
      "◍": 2798,
      "●": 2799,
      "◕": 2800,
      "◜": 2801,
      "◝": 2802,
      "◠": 2803,
      "◡": 2804,
      "◦": 2805,
      "◯": 2806,
      "◻": 2807,
      "◾": 2808,
      "☀": 2809,
      "☁": 2810,
      "☂": 2811,
      "☄": 2812,
      "★": 2813,
      "☆": 2814,
      "☇": 2815,
      "☉": 2816,
      "☎": 2817,
      "☏": 2818,
      "☐": 2819,
      "☑": 2820,
      "☒": 2821,
      "☔": 2822,
      "☕": 2823,
      "☘": 2824,
      "☝": 2825,
      "☞": 2826,
      "☠": 2827,
      "☢": 2828,
      "☬": 2829,
      "☮": 2830,
      "☰": 2831,
      "☹": 2832,
      "☺": 2833,
      "☼": 2834,
      "♀": 2835,
      "♁": 2836,
      "♂": 2837,
      "♉": 2838,
      "♌": 2839,
      "♒": 2840,
      "♔": 2841,
      "♕": 2842,
      "♖": 2843,
      "♗": 2844,
      "♘": 2845,
      "♙": 2846,
      "♚": 2847,
      "♛": 2848,
      "♜": 2849,
      "♝": 2850,
      "♞": 2851,
      "♟": 2852,
      "♡": 2853,
      "♥": 2854,
      "♦": 2855,
      "♩": 2856,
      "♪": 2857,
      "♫": 2858,
      "♻": 2859,
      "♾": 2860,
      "⚃": 2861,
      "⚄": 2862,
      "⚅": 2863,
      "⚔": 2864,
      "⚕": 2865,
      "⚖": 2866,
      "⚗": 2867,
      "⚙": 2868,
      "⚛": 2869,
      "⚜": 2870,
      "⚠": 2871,
      "⚡": 2872,
      "⚪": 2873,
      "⚫": 2874,
      "⚽": 2875,
      "⛄": 2876,
      "⛏": 2877,
      "⛓": 2878,
      "⛔": 2879,
      "⛩": 2880,
      "⛰": 2881,
      "⛱": 2882,
      "⛵": 2883,
      "⛹": 2884,
      "⛽": 2885,
      "✂": 2886,
      "✅": 2887,
      "✈": 2888,
      "✉": 2889,
      "✊": 2890,
      "✋": 2891,
      "✌": 2892,
      "✍": 2893,
      "✎": 2894,
      "✏": 2895,
      "✐": 2896,
      "✒": 2897,
      "✓": 2898,
      "✔": 2899,
      "✕": 2900,
      "✖": 2901,
      "✗": 2902,
      "✘": 2903,
      "✝": 2904,
      "✡": 2905,
      "✥": 2906,
      "✦": 2907,
      "✧": 2908,
      "✨": 2909,
      "✩": 2910,
      "✰": 2911,
      "✴": 2912,
      "✹": 2913,
      "✼": 2914,
      "✿": 2915,
      "❁": 2916,
      "❃": 2917,
      "❄": 2918,
      "❆": 2919,
      "❌": 2920,
      "❍": 2921,
      "❎": 2922,
      "❑": 2923,
      "❒": 2924,
      "❓": 2925,
      "❕": 2926,
      "❖": 2927,
      "❗": 2928,
      "❜": 2929,
      "❣": 2930,
      "❤": 2931,
      "❥": 2932,
      "❦": 2933,
      "❯": 2934,
      "❱": 2935,
      "❶": 2936,
      "❷": 2937,
      "➔": 2938,
      "➕": 2939,
      "➖": 2940,
      "➜": 2941,
      "➞": 2942,
      "➡": 2943,
      "➢": 2944,
      "➤": 2945,
      "➥": 2946,
      "⟨": 2947,
      "⟩": 2948,
      "⟪": 2949,
      "⟶": 2950,
      "⠀": 2951,
      "⠁": 2952,
      "⠂": 2953,
      "⠃": 2954,
      "⠄": 2955,
      "⠅": 2956,
      "⠆": 2957,
      "⠇": 2958,
      "⠈": 2959,
      "⠉": 2960,
      "⠊": 2961,
      "⠋": 2962,
      "⠐": 2963,
      "⠑": 2964,
      "⠒": 2965,
      "⠓": 2966,
      "⠔": 2967,
      "⠕": 2968,
      "⠙": 2969,
      "⠚": 2970,
      "⠛": 2971,
      "⠝": 2972,
      "⠞": 2973,
      "⠟": 2974,
      "⠠": 2975,
      "⠥": 2976,
      "⠦": 2977,
      "⠪": 2978,
      "⠫": 2979,
      "⠭": 2980,
      "⠲": 2981,
      "⠳": 2982,
      "⠴": 2983,
      "⠶": 2984,
      "⠸": 2985,
      "⠹": 2986,
      "⠻": 2987,
      "⠾": 2988,
      "⠿": 2989,
      "⡀": 2990,
      "⡁": 2991,
      "⡄": 2992,
      "⡆": 2993,
      "⡇": 2994,
      "⡈": 2995,
      "⡊": 2996,
      "⡎": 2997,
      "⡒": 2998,
      "⡕": 2999,
      "⡙": 3000,
      "⡛": 3001,
      "⡞": 3002,
      "⡟": 3003,
      "⡠": 3004,
      "⡢": 3005,
      "⡣": 3006,
      "⡪": 3007,
      "⡫": 3008,
      "⡭": 3009,
      "⡮": 3010,
      "⡰": 3011,
      "⡴": 3012,
      "⡵": 3013,
      "⡹": 3014,
      "⡺": 3015,
      "⡻": 3016,
      "⡾": 3017,
      "⡿": 3018,
      "⢀": 3019,
      "⢁": 3020,
      "⢂": 3021,
      "⢄": 3022,
      "⢉": 3023,
      "⢐": 3024,
      "⢔": 3025,
      "⢕": 3026,
      "⢚": 3027,
      "⢝": 3028,
      "⢟": 3029,
      "⢠": 3030,
      "⢤": 3031,
      "⢦": 3032,
      "⢬": 3033,
      "⢴": 3034,
      "⢷": 3035,
      "⢸": 3036,
      "⢹": 3037,
      "⢻": 3038,
      "⢿": 3039,
      "⣀": 3040,
      "⣁": 3041,
      "⣄": 3042,
      "⣆": 3043,
      "⣇": 3044,
      "⣈": 3045,
      "⣊": 3046,
      "⣌": 3047,
      "⣔": 3048,
      "⣕": 3049,
      "⣗": 3050,
      "⣛": 3051,
      "⣜": 3052,
      "⣟": 3053,
      "⣠": 3054,
      "⣡": 3055,
      "⣢": 3056,
      "⣤": 3057,
      "⣥": 3058,
      "⣦": 3059,
      "⣧": 3060,
      "⣪": 3061,
      "⣬": 3062,
      "⣭": 3063,
      "⣮": 3064,
      "⣯": 3065,
      "⣰": 3066,
      "⣴": 3067,
      "⣵": 3068,
      "⣶": 3069,
      "⣷": 3070,
      "⣹": 3071,
      "⣼": 3072,
      "⣽": 3073,
      "⣾": 3074,
      "⣿": 3075,
      "⤵": 3076,
      "⥁": 3077,
      "⦁": 3078,
      "⦎": 3079,
      "⦏": 3080,
      "⦿": 3081,
      "⩽": 3082,
      "⫟": 3083,
      "⬆": 3084,
      "⬇": 3085,
      "⭐": 3086,
      "⮚": 3087,
      "ⴰ": 3088,
      "ⷭ": 3089,
      "⻨": 3090,
      "⼀": 3091,
      "⼆": 3092,
      "⼈": 3093,
      "⼠": 3094,
      "⼤": 3095,
      "⼯": 3096,
      "⽅": 3097,
      "⽣": 3098,
      "⽬": 3099,
      "⽽": 3100,
      "⾊": 3101,
      "⾏": 3102,
      "⾦": 3103,
      "⾼": 3104,
      "⿇": 3105,
      "　": 3106,
      "、": 3107,
      "。": 3108,
      "々": 3109,
      "〇": 3110,
      "〈": 3111,
      "〉": 3112,
      "《": 3113,
      "》": 3114,
      "「": 3115,
      "」": 3116,
      "『": 3117,
      "』": 3118,
      "【": 3119,
      "】": 3120,
      "〒": 3121,
      "〔": 3122,
      "〕": 3123,
      "〖": 3124,
      "〗": 3125,
      "〜": 3126,
      "ぁ": 3127,
      "あ": 3128,
      "ぃ": 3129,
      "い": 3130,
      "ぅ": 3131,
      "う": 3132,
      "ぇ": 3133,
      "え": 3134,
      "ぉ": 3135,
      "お": 3136,
      "か": 3137,
      "が": 3138,
      "き": 3139,
      "ぎ": 3140,
      "く": 3141,
      "ぐ": 3142,
      "け": 3143,
      "げ": 3144,
      "こ": 3145,
      "ご": 3146,
      "さ": 3147,
      "ざ": 3148,
      "し": 3149,
      "じ": 3150,
      "す": 3151,
      "ず": 3152,
      "せ": 3153,
      "ぜ": 3154,
      "そ": 3155,
      "ぞ": 3156,
      "た": 3157,
      "だ": 3158,
      "ち": 3159,
      "ぢ": 3160,
      "っ": 3161,
      "つ": 3162,
      "づ": 3163,
      "て": 3164,
      "で": 3165,
      "と": 3166,
      "ど": 3167,
      "な": 3168,
      "に": 3169,
      "ぬ": 3170,
      "ね": 3171,
      "の": 3172,
      "は": 3173,
      "ば": 3174,
      "ぱ": 3175,
      "ひ": 3176,
      "び": 3177,
      "ぴ": 3178,
      "ふ": 3179,
      "ぶ": 3180,
      "ぷ": 3181,
      "へ": 3182,
      "べ": 3183,
      "ぺ": 3184,
      "ほ": 3185,
      "ぼ": 3186,
      "ぽ": 3187,
      "ま": 3188,
      "み": 3189,
      "む": 3190,
      "め": 3191,
      "も": 3192,
      "ゃ": 3193,
      "や": 3194,
      "ゅ": 3195,
      "ゆ": 3196,
      "ょ": 3197,
      "よ": 3198,
      "ら": 3199,
      "り": 3200,
      "る": 3201,
      "れ": 3202,
      "ろ": 3203,
      "わ": 3204,
      "を": 3205,
      "ん": 3206,
      "ゔ": 3207,
      "ゕ": 3208,
      "゙": 3209,
      "゛": 3210,
      "ゝ": 3211,
      "ァ": 3212,
      "ア": 3213,
      "ィ": 3214,
      "イ": 3215,
      "ゥ": 3216,
      "ウ": 3217,
      "ェ": 3218,
      "エ": 3219,
      "ォ": 3220,
      "オ": 3221,
      "カ": 3222,
      "ガ": 3223,
      "キ": 3224,
      "ギ": 3225,
      "ク": 3226,
      "グ": 3227,
      "ケ": 3228,
      "ゲ": 3229,
      "コ": 3230,
      "ゴ": 3231,
      "サ": 3232,
      "ザ": 3233,
      "シ": 3234,
      "ジ": 3235,
      "ス": 3236,
      "ズ": 3237,
      "セ": 3238,
      "ゼ": 3239,
      "ソ": 3240,
      "ゾ": 3241,
      "タ": 3242,
      "ダ": 3243,
      "チ": 3244,
      "ッ": 3245,
      "ツ": 3246,
      "テ": 3247,
      "デ": 3248,
      "ト": 3249,
      "ド": 3250,
      "ナ": 3251,
      "ニ": 3252,
      "ヌ": 3253,
      "ネ": 3254,
      "ノ": 3255,
      "ハ": 3256,
      "バ": 3257,
      "パ": 3258,
      "ヒ": 3259,
      "ビ": 3260,
      "ピ": 3261,
      "フ": 3262,
      "ブ": 3263,
      "プ": 3264,
      "ヘ": 3265,
      "ベ": 3266,
      "ペ": 3267,
      "ホ": 3268,
      "ボ": 3269,
      "ポ": 3270,
      "マ": 3271,
      "ミ": 3272,
      "ム": 3273,
      "メ": 3274,
      "モ": 3275,
      "ャ": 3276,
      "ヤ": 3277,
      "ュ": 3278,
      "ユ": 3279,
      "ョ": 3280,
      "ヨ": 3281,
      "ラ": 3282,
      "リ": 3283,
      "ル": 3284,
      "レ": 3285,
      "ロ": 3286,
      "ヮ": 3287,
      "ワ": 3288,
      "ン": 3289,
      "ヴ": 3290,
      "ヶ": 3291,
      "・": 3292,
      "ー": 3293,
      "ヽ": 3294,
      "ㄐ": 3295,
      "ㄑ": 3296,
      "ㄘ": 3297,
      "ㄚ": 3298,
      "ㄨ": 3299,
      "ㄱ": 3300,
      "ㄴ": 3301,
      "ㄷ": 3302,
      "ㄹ": 3303,
      "ㄻ": 3304,
      "ㄿ": 3305,
      "ㅀ": 3306,
      "ㅁ": 3307,
      "ㅂ": 3308,
      "ㅃ": 3309,
      "ㅅ": 3310,
      "ㅆ": 3311,
      "ㅇ": 3312,
      "ㅈ": 3313,
      "ㅋ": 3314,
      "ㅍ": 3315,
      "ㅎ": 3316,
      "ㅏ": 3317,
      "ㅐ": 3318,
      "ㅑ": 3319,
      "ㅓ": 3320,
      "ㅕ": 3321,
      "ㅗ": 3322,
      "ㅙ": 3323,
      "ㅛ": 3324,
      "ㅜ": 3325,
      "ㅠ": 3326,
      "ㅡ": 3327,
      "ㅣ": 3328,
      "ㆍ": 3329,
      "㈜": 3330,
      "㈱": 3331,
      "㉠": 3332,
      "㉡": 3333,
      "㉢": 3334,
      "㎡": 3335,
      "㏊": 3336,
      "一": 3337,
      "丁": 3338,
      "七": 3339,
      "万": 3340,
      "丈": 3341,
      "三": 3342,
      "上": 3343,
      "下": 3344,
      "不": 3345,
      "与": 3346,
      "丑": 3347,
      "专": 3348,
      "且": 3349,
      "世": 3350,
      "丘": 3351,
      "丙": 3352,
      "业": 3353,
      "东": 3354,
      "丝": 3355,
      "丟": 3356,
      "両": 3357,
      "丢": 3358,
      "两": 3359,
      "严": 3360,
      "並": 3361,
      "丧": 3362,
      "丨": 3363,
      "个": 3364,
      "丫": 3365,
      "中": 3366,
      "丰": 3367,
      "串": 3368,
      "临": 3369,
      "丶": 3370,
      "丸": 3371,
      "丹": 3372,
      "为": 3373,
      "主": 3374,
      "丼": 3375,
      "丽": 3376,
      "举": 3377,
      "丿": 3378,
      "乃": 3379,
      "久": 3380,
      "么": 3381,
      "义": 3382,
      "之": 3383,
      "乌": 3384,
      "乎": 3385,
      "乏": 3386,
      "乐": 3387,
      "乔": 3388,
      "乗": 3389,
      "乘": 3390,
      "乙": 3391,
      "乜": 3392,
      "九": 3393,
      "也": 3394,
      "乡": 3395,
      "书": 3396,
      "买": 3397,
      "乱": 3398,
      "乳": 3399,
      "乾": 3400,
      "亀": 3401,
      "亂": 3402,
      "了": 3403,
      "予": 3404,
      "争": 3405,
      "事": 3406,
      "二": 3407,
      "于": 3408,
      "亏": 3409,
      "云": 3410,
      "互": 3411,
      "五": 3412,
      "井": 3413,
      "亚": 3414,
      "些": 3415,
      "亜": 3416,
      "亞": 3417,
      "亡": 3418,
      "亢": 3419,
      "交": 3420,
      "亥": 3421,
      "亦": 3422,
      "产": 3423,
      "享": 3424,
      "京": 3425,
      "亭": 3426,
      "亮": 3427,
      "亲": 3428,
      "人": 3429,
      "亿": 3430,
      "什": 3431,
      "仁": 3432,
      "仄": 3433,
      "仅": 3434,
      "仆": 3435,
      "仇": 3436,
      "今": 3437,
      "介": 3438,
      "从": 3439,
      "仏": 3440,
      "仑": 3441,
      "仓": 3442,
      "仔": 3443,
      "仕": 3444,
      "他": 3445,
      "仗": 3446,
      "付": 3447,
      "仙": 3448,
      "代": 3449,
      "以": 3450,
      "仪": 3451,
      "们": 3452,
      "仮": 3453,
      "仰": 3454,
      "仲": 3455,
      "件": 3456,
      "价": 3457,
      "任": 3458,
      "份": 3459,
      "仿": 3460,
      "企": 3461,
      "伊": 3462,
      "伍": 3463,
      "伏": 3464,
      "伐": 3465,
      "休": 3466,
      "众": 3467,
      "优": 3468,
      "伙": 3469,
      "会": 3470,
      "伝": 3471,
      "伞": 3472,
      "伟": 3473,
      "传": 3474,
      "伤": 3475,
      "伦": 3476,
      "伯": 3477,
      "估": 3478,
      "伴": 3479,
      "伶": 3480,
      "伸": 3481,
      "伺": 3482,
      "似": 3483,
      "伽": 3484,
      "但": 3485,
      "位": 3486,
      "低": 3487,
      "住": 3488,
      "佐": 3489,
      "佑": 3490,
      "体": 3491,
      "何": 3492,
      "余": 3493,
      "佛": 3494,
      "作": 3495,
      "你": 3496,
      "佢": 3497,
      "佩": 3498,
      "佬": 3499,
      "佰": 3500,
      "佳": 3501,
      "併": 3502,
      "佹": 3503,
      "使": 3504,
      "來": 3505,
      "例": 3506,
      "侍": 3507,
      "供": 3508,
      "依": 3509,
      "侠": 3510,
      "価": 3511,
      "侣": 3512,
      "侦": 3513,
      "侧": 3514,
      "侮": 3515,
      "侯": 3516,
      "侵": 3517,
      "便": 3518,
      "係": 3519,
      "促": 3520,
      "俄": 3521,
      "俊": 3522,
      "俐": 3523,
      "俗": 3524,
      "俚": 3525,
      "保": 3526,
      "俞": 3527,
      "信": 3528,
      "修": 3529,
      "俯": 3530,
      "俱": 3531,
      "俳": 3532,
      "俺": 3533,
      "俾": 3534,
      "倉": 3535,
      "個": 3536,
      "倍": 3537,
      "們": 3538,
      "倒": 3539,
      "候": 3540,
      "倚": 3541,
      "借": 3542,
      "倣": 3543,
      "値": 3544,
      "倦": 3545,
      "倩": 3546,
      "倪": 3547,
      "倫": 3548,
      "债": 3549,
      "值": 3550,
      "倾": 3551,
      "偃": 3552,
      "假": 3553,
      "偈": 3554,
      "偉": 3555,
      "偏": 3556,
      "做": 3557,
      "停": 3558,
      "健": 3559,
      "側": 3560,
      "偶": 3561,
      "偷": 3562,
      "偿": 3563,
      "傅": 3564,
      "傍": 3565,
      "傑": 3566,
      "傘": 3567,
      "備": 3568,
      "傣": 3569,
      "傦": 3570,
      "储": 3571,
      "催": 3572,
      "傲": 3573,
      "傳": 3574,
      "債": 3575,
      "傷": 3576,
      "傻": 3577,
      "傾": 3578,
      "僅": 3579,
      "働": 3580,
      "像": 3581,
      "僕": 3582,
      "僚": 3583,
      "僧": 3584,
      "僵": 3585,
      "價": 3586,
      "儀": 3587,
      "億": 3588,
      "儒": 3589,
      "儘": 3590,
      "償": 3591,
      "優": 3592,
      "儲": 3593,
      "儿": 3594,
      "允": 3595,
      "元": 3596,
      "兄": 3597,
      "充": 3598,
      "兆": 3599,
      "先": 3600,
      "光": 3601,
      "克": 3602,
      "免": 3603,
      "兎": 3604,
      "児": 3605,
      "兒": 3606,
      "兔": 3607,
      "党": 3608,
      "入": 3609,
      "內": 3610,
      "全": 3611,
      "兩": 3612,
      "八": 3613,
      "公": 3614,
      "六": 3615,
      "兮": 3616,
      "兰": 3617,
      "共": 3618,
      "关": 3619,
      "兴": 3620,
      "兵": 3621,
      "其": 3622,
      "具": 3623,
      "典": 3624,
      "兹": 3625,
      "养": 3626,
      "兼": 3627,
      "兽": 3628,
      "冀": 3629,
      "内": 3630,
      "円": 3631,
      "冇": 3632,
      "冈": 3633,
      "冊": 3634,
      "册": 3635,
      "再": 3636,
      "冒": 3637,
      "写": 3638,
      "军": 3639,
      "农": 3640,
      "冠": 3641,
      "冥": 3642,
      "冬": 3643,
      "冯": 3644,
      "冰": 3645,
      "冲": 3646,
      "决": 3647,
      "况": 3648,
      "冶": 3649,
      "冷": 3650,
      "冻": 3651,
      "净": 3652,
      "凄": 3653,
      "准": 3654,
      "凉": 3655,
      "凌": 3656,
      "凍": 3657,
      "减": 3658,
      "凑": 3659,
      "凛": 3660,
      "凝": 3661,
      "几": 3662,
      "凡": 3663,
      "凤": 3664,
      "処": 3665,
      "凪": 3666,
      "凭": 3667,
      "凯": 3668,
      "凰": 3669,
      "凳": 3670,
      "凶": 3671,
      "凸": 3672,
      "凹": 3673,
      "击": 3674,
      "函": 3675,
      "刀": 3676,
      "分": 3677,
      "切": 3678,
      "刊": 3679,
      "刐": 3680,
      "刑": 3681,
      "划": 3682,
      "列": 3683,
      "刘": 3684,
      "则": 3685,
      "刚": 3686,
      "创": 3687,
      "初": 3688,
      "删": 3689,
      "判": 3690,
      "別": 3691,
      "利": 3692,
      "别": 3693,
      "刮": 3694,
      "到": 3695,
      "制": 3696,
      "刷": 3697,
      "券": 3698,
      "刹": 3699,
      "刺": 3700,
      "刻": 3701,
      "剂": 3702,
      "剃": 3703,
      "則": 3704,
      "削": 3705,
      "前": 3706,
      "剎": 3707,
      "剑": 3708,
      "剔": 3709,
      "剖": 3710,
      "剛": 3711,
      "剝": 3712,
      "剤": 3713,
      "剧": 3714,
      "剩": 3715,
      "剪": 3716,
      "副": 3717,
      "剰": 3718,
      "割": 3719,
      "創": 3720,
      "劃": 3721,
      "劇": 3722,
      "劈": 3723,
      "劉": 3724,
      "劍": 3725,
      "劑": 3726,
      "力": 3727,
      "劝": 3728,
      "办": 3729,
      "功": 3730,
      "加": 3731,
      "务": 3732,
      "劣": 3733,
      "动": 3734,
      "助": 3735,
      "努": 3736,
      "劫": 3737,
      "励": 3738,
      "劲": 3739,
      "劳": 3740,
      "労": 3741,
      "効": 3742,
      "势": 3743,
      "勁": 3744,
      "勃": 3745,
      "勇": 3746,
      "勉": 3747,
      "勋": 3748,
      "勒": 3749,
      "動": 3750,
      "勘": 3751,
      "務": 3752,
      "勝": 3753,
      "募": 3754,
      "勢": 3755,
      "勤": 3756,
      "勧": 3757,
      "勳": 3758,
      "勻": 3759,
      "勾": 3760,
      "勿": 3761,
      "匀": 3762,
      "包": 3763,
      "化": 3764,
      "北": 3765,
      "匙": 3766,
      "匠": 3767,
      "匡": 3768,
      "匹": 3769,
      "区": 3770,
      "医": 3771,
      "匿": 3772,
      "區": 3773,
      "十": 3774,
      "千": 3775,
      "升": 3776,
      "午": 3777,
      "半": 3778,
      "华": 3779,
      "协": 3780,
      "卑": 3781,
      "卒": 3782,
      "卓": 3783,
      "協": 3784,
      "单": 3785,
      "卖": 3786,
      "南": 3787,
      "単": 3788,
      "博": 3789,
      "卜": 3790,
      "卡": 3791,
      "卢": 3792,
      "卤": 3793,
      "卦": 3794,
      "卧": 3795,
      "卫": 3796,
      "印": 3797,
      "危": 3798,
      "即": 3799,
      "却": 3800,
      "卵": 3801,
      "卷": 3802,
      "卸": 3803,
      "卻": 3804,
      "厂": 3805,
      "厄": 3806,
      "厅": 3807,
      "历": 3808,
      "厉": 3809,
      "压": 3810,
      "厌": 3811,
      "厕": 3812,
      "厘": 3813,
      "厚": 3814,
      "原": 3815,
      "厢": 3816,
      "厦": 3817,
      "厨": 3818,
      "厭": 3819,
      "厲": 3820,
      "厳": 3821,
      "去": 3822,
      "县": 3823,
      "参": 3824,
      "參": 3825,
      "又": 3826,
      "叉": 3827,
      "及": 3828,
      "友": 3829,
      "双": 3830,
      "反": 3831,
      "収": 3832,
      "发": 3833,
      "叔": 3834,
      "取": 3835,
      "受": 3836,
      "变": 3837,
      "叙": 3838,
      "叛": 3839,
      "叠": 3840,
      "口": 3841,
      "古": 3842,
      "句": 3843,
      "另": 3844,
      "叨": 3845,
      "叩": 3846,
      "只": 3847,
      "叫": 3848,
      "召": 3849,
      "叭": 3850,
      "可": 3851,
      "台": 3852,
      "叱": 3853,
      "史": 3854,
      "右": 3855,
      "叶": 3856,
      "号": 3857,
      "司": 3858,
      "叹": 3859,
      "叼": 3860,
      "吁": 3861,
      "吃": 3862,
      "各": 3863,
      "合": 3864,
      "吉": 3865,
      "吊": 3866,
      "同": 3867,
      "名": 3868,
      "后": 3869,
      "吐": 3870,
      "向": 3871,
      "吓": 3872,
      "吕": 3873,
      "吗": 3874,
      "君": 3875,
      "吞": 3876,
      "吟": 3877,
      "否": 3878,
      "吧": 3879,
      "吨": 3880,
      "含": 3881,
      "听": 3882,
      "启": 3883,
      "吴": 3884,
      "吵": 3885,
      "吸": 3886,
      "吹": 3887,
      "吻": 3888,
      "吼": 3889,
      "吾": 3890,
      "呀": 3891,
      "呂": 3892,
      "呃": 3893,
      "呆": 3894,
      "呈": 3895,
      "呉": 3896,
      "告": 3897,
      "呐": 3898,
      "呑": 3899,
      "呕": 3900,
      "呗": 3901,
      "员": 3902,
      "呜": 3903,
      "呢": 3904,
      "呤": 3905,
      "周": 3906,
      "呪": 3907,
      "味": 3908,
      "呵": 3909,
      "呻": 3910,
      "呼": 3911,
      "命": 3912,
      "咄": 3913,
      "咋": 3914,
      "和": 3915,
      "咍": 3916,
      "咎": 3917,
      "咒": 3918,
      "咕": 3919,
      "咖": 3920,
      "咗": 3921,
      "咙": 3922,
      "咨": 3923,
      "咩": 3924,
      "咪": 3925,
      "咫": 3926,
      "咬": 3927,
      "咯": 3928,
      "咲": 3929,
      "咳": 3930,
      "咸": 3931,
      "哀": 3932,
      "品": 3933,
      "哄": 3934,
      "哇": 3935,
      "哈": 3936,
      "哉": 3937,
      "哋": 3938,
      "响": 3939,
      "哑": 3940,
      "哔": 3941,
      "哟": 3942,
      "員": 3943,
      "哥": 3944,
      "哦": 3945,
      "哨": 3946,
      "哩": 3947,
      "哪": 3948,
      "哭": 3949,
      "哮": 3950,
      "哲": 3951,
      "哺": 3952,
      "哼": 3953,
      "唆": 3954,
      "唇": 3955,
      "唉": 3956,
      "唐": 3957,
      "唑": 3958,
      "唔": 3959,
      "售": 3960,
      "唯": 3961,
      "唱": 3962,
      "唾": 3963,
      "商": 3964,
      "啊": 3965,
      "問": 3966,
      "啓": 3967,
      "啕": 3968,
      "啟": 3969,
      "啡": 3970,
      "啤": 3971,
      "啥": 3972,
      "啦": 3973,
      "啪": 3974,
      "啫": 3975,
      "啰": 3976,
      "啲": 3977,
      "啸": 3978,
      "喀": 3979,
      "喂": 3980,
      "善": 3981,
      "喇": 3982,
      "喉": 3983,
      "喊": 3984,
      "喋": 3985,
      "喔": 3986,
      "喘": 3987,
      "喙": 3988,
      "喚": 3989,
      "喜": 3990,
      "喝": 3991,
      "喧": 3992,
      "喩": 3993,
      "喪": 3994,
      "喫": 3995,
      "單": 3996,
      "喱": 3997,
      "喵": 3998,
      "営": 3999,
      "喷": 4000,
      "喺": 4001,
      "喻": 4002,
      "喽": 4003,
      "嗅": 4004,
      "嗎": 4005,
      "嗓": 4006,
      "嗨": 4007,
      "嗪": 4008,
      "嗯": 4009,
      "嗷": 4010,
      "嗽": 4011,
      "嘀": 4012,
      "嘅": 4013,
      "嘆": 4014,
      "嘈": 4015,
      "嘉": 4016,
      "嘌": 4017,
      "嘎": 4018,
      "嘔": 4019,
      "嘗": 4020,
      "嘘": 4021,
      "嘛": 4022,
      "嘢": 4023,
      "嘤": 4024,
      "嘩": 4025,
      "嘿": 4026,
      "噁": 4027,
      "噂": 4028,
      "噌": 4029,
      "噏": 4030,
      "噛": 4031,
      "噢": 4032,
      "器": 4033,
      "噪": 4034,
      "噬": 4035,
      "噴": 4036,
      "噺": 4037,
      "嚎": 4038,
      "嚏": 4039,
      "嚟": 4040,
      "嚨": 4041,
      "嚴": 4042,
      "囉": 4043,
      "囊": 4044,
      "四": 4045,
      "回": 4046,
      "囟": 4047,
      "因": 4048,
      "団": 4049,
      "囤": 4050,
      "囧": 4051,
      "园": 4052,
      "困": 4053,
      "囲": 4054,
      "図": 4055,
      "围": 4056,
      "固": 4057,
      "国": 4058,
      "图": 4059,
      "圆": 4060,
      "圈": 4061,
      "國": 4062,
      "園": 4063,
      "圓": 4064,
      "圖": 4065,
      "土": 4066,
      "圡": 4067,
      "圣": 4068,
      "圧": 4069,
      "在": 4070,
      "圫": 4071,
      "地": 4072,
      "场": 4073,
      "址": 4074,
      "坂": 4075,
      "均": 4076,
      "坊": 4077,
      "坏": 4078,
      "坐": 4079,
      "坑": 4080,
      "块": 4081,
      "坚": 4082,
      "坛": 4083,
      "坝": 4084,
      "坞": 4085,
      "坠": 4086,
      "坡": 4087,
      "坤": 4088,
      "坦": 4089,
      "坩": 4090,
      "坪": 4091,
      "坯": 4092,
      "坻": 4093,
      "垂": 4094,
      "型": 4095,
      "垒": 4096,
      "垢": 4097,
      "垫": 4098,
      "垮": 4099,
      "埃": 4100,
      "埋": 4101,
      "城": 4102,
      "埔": 4103,
      "域": 4104,
      "執": 4105,
      "培": 4106,
      "基": 4107,
      "埼": 4108,
      "堀": 4109,
      "堂": 4110,
      "堅": 4111,
      "堆": 4112,
      "堕": 4113,
      "堡": 4114,
      "堪": 4115,
      "堰": 4116,
      "報": 4117,
      "場": 4118,
      "堵": 4119,
      "堽": 4120,
      "塊": 4121,
      "塌": 4122,
      "塑": 4123,
      "塒": 4124,
      "塔": 4125,
      "塗": 4126,
      "塘": 4127,
      "塚": 4128,
      "塞": 4129,
      "塩": 4130,
      "填": 4131,
      "境": 4132,
      "増": 4133,
      "墙": 4134,
      "墜": 4135,
      "增": 4136,
      "墟": 4137,
      "墨": 4138,
      "墩": 4139,
      "墮": 4140,
      "墻": 4141,
      "壁": 4142,
      "壇": 4143,
      "壊": 4144,
      "壌": 4145,
      "壓": 4146,
      "壖": 4147,
      "壞": 4148,
      "壤": 4149,
      "士": 4150,
      "壬": 4151,
      "壮": 4152,
      "壯": 4153,
      "声": 4154,
      "売": 4155,
      "壳": 4156,
      "壶": 4157,
      "壺": 4158,
      "壽": 4159,
      "处": 4160,
      "备": 4161,
      "変": 4162,
      "复": 4163,
      "夏": 4164,
      "夕": 4165,
      "外": 4166,
      "多": 4167,
      "夜": 4168,
      "够": 4169,
      "夠": 4170,
      "夢": 4171,
      "大": 4172,
      "天": 4173,
      "太": 4174,
      "夫": 4175,
      "央": 4176,
      "失": 4177,
      "头": 4178,
      "夸": 4179,
      "夹": 4180,
      "夺": 4181,
      "奇": 4182,
      "奈": 4183,
      "奉": 4184,
      "奋": 4185,
      "奏": 4186,
      "契": 4187,
      "奔": 4188,
      "奖": 4189,
      "套": 4190,
      "奘": 4191,
      "奠": 4192,
      "奥": 4193,
      "奨": 4194,
      "奪": 4195,
      "奮": 4196,
      "女": 4197,
      "奴": 4198,
      "奶": 4199,
      "奸": 4200,
      "她": 4201,
      "好": 4202,
      "如": 4203,
      "妄": 4204,
      "妆": 4205,
      "妇": 4206,
      "妈": 4207,
      "妊": 4208,
      "妓": 4209,
      "妖": 4210,
      "妙": 4211,
      "妥": 4212,
      "妨": 4213,
      "妮": 4214,
      "妳": 4215,
      "妹": 4216,
      "妻": 4217,
      "姆": 4218,
      "姉": 4219,
      "姊": 4220,
      "始": 4221,
      "姐": 4222,
      "姑": 4223,
      "姓": 4224,
      "委": 4225,
      "姚": 4226,
      "姜": 4227,
      "姥": 4228,
      "姦": 4229,
      "姨": 4230,
      "姫": 4231,
      "姹": 4232,
      "姻": 4233,
      "姿": 4234,
      "威": 4235,
      "娃": 4236,
      "娇": 4237,
      "娘": 4238,
      "娜": 4239,
      "娟": 4240,
      "娠": 4241,
      "娩": 4242,
      "娱": 4243,
      "婆": 4244,
      "婉": 4245,
      "婚": 4246,
      "婢": 4247,
      "婦": 4248,
      "婴": 4249,
      "婵": 4250,
      "婷": 4251,
      "婿": 4252,
      "媒": 4253,
      "媚": 4254,
      "媳": 4255,
      "媽": 4256,
      "嫁": 4257,
      "嫂": 4258,
      "嫃": 4259,
      "嫌": 4260,
      "嫣": 4261,
      "嬉": 4262,
      "嬌": 4263,
      "嬛": 4264,
      "嬢": 4265,
      "孋": 4266,
      "子": 4267,
      "孔": 4268,
      "孕": 4269,
      "字": 4270,
      "存": 4271,
      "孙": 4272,
      "孚": 4273,
      "孝": 4274,
      "孞": 4275,
      "孟": 4276,
      "孢": 4277,
      "季": 4278,
      "孤": 4279,
      "学": 4280,
      "孩": 4281,
      "孪": 4282,
      "孫": 4283,
      "孭": 4284,
      "孰": 4285,
      "孲": 4286,
      "孶": 4287,
      "學": 4288,
      "宁": 4289,
      "它": 4290,
      "宅": 4291,
      "宇": 4292,
      "守": 4293,
      "安": 4294,
      "宋": 4295,
      "完": 4296,
      "宏": 4297,
      "宗": 4298,
      "官": 4299,
      "宙": 4300,
      "定": 4301,
      "宛": 4302,
      "宜": 4303,
      "宝": 4304,
      "实": 4305,
      "実": 4306,
      "宠": 4307,
      "审": 4308,
      "客": 4309,
      "宣": 4310,
      "室": 4311,
      "宫": 4312,
      "宮": 4313,
      "害": 4314,
      "宴": 4315,
      "家": 4316,
      "宸": 4317,
      "容": 4318,
      "宽": 4319,
      "宾": 4320,
      "宿": 4321,
      "寂": 4322,
      "寄": 4323,
      "密": 4324,
      "寉": 4325,
      "富": 4326,
      "寐": 4327,
      "寒": 4328,
      "寓": 4329,
      "寛": 4330,
      "寝": 4331,
      "寞": 4332,
      "察": 4333,
      "寢": 4334,
      "寤": 4335,
      "實": 4336,
      "寧": 4337,
      "寨": 4338,
      "寫": 4339,
      "寮": 4340,
      "寰": 4341,
      "寵": 4342,
      "寶": 4343,
      "寸": 4344,
      "对": 4345,
      "寺": 4346,
      "寻": 4347,
      "导": 4348,
      "対": 4349,
      "寿": 4350,
      "封": 4351,
      "専": 4352,
      "射": 4353,
      "将": 4354,
      "將": 4355,
      "專": 4356,
      "尊": 4357,
      "尋": 4358,
      "對": 4359,
      "導": 4360,
      "小": 4361,
      "少": 4362,
      "尔": 4363,
      "尖": 4364,
      "尘": 4365,
      "尙": 4366,
      "尚": 4367,
      "尝": 4368,
      "尤": 4369,
      "尬": 4370,
      "就": 4371,
      "尴": 4372,
      "尸": 4373,
      "尹": 4374,
      "尺": 4375,
      "尻": 4376,
      "尼": 4377,
      "尽": 4378,
      "尾": 4379,
      "尿": 4380,
      "局": 4381,
      "屁": 4382,
      "层": 4383,
      "居": 4384,
      "屆": 4385,
      "屈": 4386,
      "届": 4387,
      "屋": 4388,
      "屌": 4389,
      "屎": 4390,
      "屏": 4391,
      "屑": 4392,
      "展": 4393,
      "属": 4394,
      "屠": 4395,
      "層": 4396,
      "履": 4397,
      "山": 4398,
      "岁": 4399,
      "岐": 4400,
      "岗": 4401,
      "岛": 4402,
      "岡": 4403,
      "岩": 4404,
      "岱": 4405,
      "岳": 4406,
      "岷": 4407,
      "岸": 4408,
      "峁": 4409,
      "峇": 4410,
      "峨": 4411,
      "峭": 4412,
      "峰": 4413,
      "島": 4414,
      "崁": 4415,
      "崇": 4416,
      "崎": 4417,
      "崔": 4418,
      "崩": 4419,
      "嵌": 4420,
      "嵐": 4421,
      "巍": 4422,
      "巖": 4423,
      "川": 4424,
      "州": 4425,
      "巡": 4426,
      "巢": 4427,
      "巣": 4428,
      "工": 4429,
      "左": 4430,
      "巧": 4431,
      "巨": 4432,
      "巩": 4433,
      "巫": 4434,
      "差": 4435,
      "己": 4436,
      "已": 4437,
      "巳": 4438,
      "巴": 4439,
      "巷": 4440,
      "巻": 4441,
      "巾": 4442,
      "币": 4443,
      "市": 4444,
      "布": 4445,
      "帅": 4446,
      "帆": 4447,
      "师": 4448,
      "希": 4449,
      "帐": 4450,
      "帕": 4451,
      "帖": 4452,
      "帘": 4453,
      "帥": 4454,
      "带": 4455,
      "帧": 4456,
      "師": 4457,
      "席": 4458,
      "帮": 4459,
      "帯": 4460,
      "帰": 4461,
      "帳": 4462,
      "帶": 4463,
      "常": 4464,
      "帽": 4465,
      "幅": 4466,
      "幌": 4467,
      "幕": 4468,
      "幡": 4469,
      "幢": 4470,
      "幣": 4471,
      "幫": 4472,
      "干": 4473,
      "平": 4474,
      "年": 4475,
      "并": 4476,
      "幸": 4477,
      "幹": 4478,
      "幻": 4479,
      "幼": 4480,
      "幽": 4481,
      "幾": 4482,
      "广": 4483,
      "庁": 4484,
      "広": 4485,
      "庄": 4486,
      "庆": 4487,
      "床": 4488,
      "序": 4489,
      "库": 4490,
      "应": 4491,
      "底": 4492,
      "店": 4493,
      "府": 4494,
      "庞": 4495,
      "废": 4496,
      "度": 4497,
      "座": 4498,
      "庫": 4499,
      "庭": 4500,
      "康": 4501,
      "庸": 4502,
      "廃": 4503,
      "廉": 4504,
      "廊": 4505,
      "廓": 4506,
      "廖": 4507,
      "廠": 4508,
      "廢": 4509,
      "廣": 4510,
      "廳": 4511,
      "延": 4512,
      "廷": 4513,
      "建": 4514,
      "开": 4515,
      "弁": 4516,
      "异": 4517,
      "弃": 4518,
      "弄": 4519,
      "弊": 4520,
      "式": 4521,
      "弓": 4522,
      "引": 4523,
      "弗": 4524,
      "弘": 4525,
      "弟": 4526,
      "张": 4527,
      "弥": 4528,
      "弦": 4529,
      "弧": 4530,
      "弯": 4531,
      "弱": 4532,
      "張": 4533,
      "強": 4534,
      "弹": 4535,
      "强": 4536,
      "弾": 4537,
      "彈": 4538,
      "彎": 4539,
      "归": 4540,
      "当": 4541,
      "录": 4542,
      "彙": 4543,
      "彡": 4544,
      "形": 4545,
      "彤": 4546,
      "彥": 4547,
      "彦": 4548,
      "彩": 4549,
      "彪": 4550,
      "彫": 4551,
      "彭": 4552,
      "彰": 4553,
      "影": 4554,
      "彷": 4555,
      "役": 4556,
      "彻": 4557,
      "彼": 4558,
      "彿": 4559,
      "往": 4560,
      "征": 4561,
      "径": 4562,
      "待": 4563,
      "很": 4564,
      "律": 4565,
      "後": 4566,
      "徐": 4567,
      "徒": 4568,
      "従": 4569,
      "得": 4570,
      "徙": 4571,
      "從": 4572,
      "御": 4573,
      "復": 4574,
      "循": 4575,
      "微": 4576,
      "徳": 4577,
      "徴": 4578,
      "徵": 4579,
      "德": 4580,
      "徹": 4581,
      "徽": 4582,
      "心": 4583,
      "必": 4584,
      "忆": 4585,
      "忌": 4586,
      "忍": 4587,
      "忖": 4588,
      "志": 4589,
      "忘": 4590,
      "忙": 4591,
      "応": 4592,
      "忠": 4593,
      "忧": 4594,
      "快": 4595,
      "念": 4596,
      "忽": 4597,
      "怀": 4598,
      "态": 4599,
      "怎": 4600,
      "怒": 4601,
      "怕": 4602,
      "怖": 4603,
      "怜": 4604,
      "思": 4605,
      "怠": 4606,
      "怡": 4607,
      "急": 4608,
      "怦": 4609,
      "性": 4610,
      "怨": 4611,
      "怪": 4612,
      "总": 4613,
      "恋": 4614,
      "恍": 4615,
      "恐": 4616,
      "恒": 4617,
      "恢": 4618,
      "恤": 4619,
      "恥": 4620,
      "恨": 4621,
      "恩": 4622,
      "恫": 4623,
      "息": 4624,
      "恰": 4625,
      "恵": 4626,
      "恶": 4627,
      "恼": 4628,
      "悉": 4629,
      "悍": 4630,
      "悔": 4631,
      "悚": 4632,
      "悟": 4633,
      "悠": 4634,
      "患": 4635,
      "悤": 4636,
      "悦": 4637,
      "您": 4638,
      "悩": 4639,
      "悪": 4640,
      "悬": 4641,
      "悲": 4642,
      "悴": 4643,
      "情": 4644,
      "惊": 4645,
      "惑": 4646,
      "惘": 4647,
      "惚": 4648,
      "惟": 4649,
      "惠": 4650,
      "惡": 4651,
      "惨": 4652,
      "惯": 4653,
      "惰": 4654,
      "想": 4655,
      "惹": 4656,
      "愁": 4657,
      "愈": 4658,
      "愉": 4659,
      "意": 4660,
      "愕": 4661,
      "愚": 4662,
      "愛": 4663,
      "感": 4664,
      "愤": 4665,
      "愿": 4666,
      "態": 4667,
      "慎": 4668,
      "慑": 4669,
      "慕": 4670,
      "慢": 4671,
      "慣": 4672,
      "慧": 4673,
      "慮": 4674,
      "慰": 4675,
      "慶": 4676,
      "憂": 4677,
      "憋": 4678,
      "憑": 4679,
      "憔": 4680,
      "憧": 4681,
      "憶": 4682,
      "憾": 4683,
      "懂": 4684,
      "懇": 4685,
      "應": 4686,
      "懒": 4687,
      "懦": 4688,
      "懸": 4689,
      "懿": 4690,
      "戈": 4691,
      "戊": 4692,
      "戏": 4693,
      "成": 4694,
      "我": 4695,
      "戒": 4696,
      "或": 4697,
      "战": 4698,
      "戚": 4699,
      "戦": 4700,
      "截": 4701,
      "戯": 4702,
      "戰": 4703,
      "戲": 4704,
      "戴": 4705,
      "戶": 4706,
      "户": 4707,
      "戸": 4708,
      "戻": 4709,
      "房": 4710,
      "所": 4711,
      "扁": 4712,
      "扇": 4713,
      "扉": 4714,
      "手": 4715,
      "才": 4716,
      "扎": 4717,
      "扑": 4718,
      "扒": 4719,
      "打": 4720,
      "払": 4721,
      "托": 4722,
      "扣": 4723,
      "执": 4724,
      "扩": 4725,
      "扫": 4726,
      "扬": 4727,
      "扭": 4728,
      "扮": 4729,
      "扯": 4730,
      "扰": 4731,
      "扱": 4732,
      "扶": 4733,
      "批": 4734,
      "找": 4735,
      "承": 4736,
      "技": 4737,
      "抄": 4738,
      "抋": 4739,
      "抑": 4740,
      "抒": 4741,
      "抓": 4742,
      "投": 4743,
      "抖": 4744,
      "抗": 4745,
      "折": 4746,
      "抚": 4747,
      "抛": 4748,
      "抜": 4749,
      "択": 4750,
      "抢": 4751,
      "护": 4752,
      "报": 4753,
      "披": 4754,
      "抬": 4755,
      "抯": 4756,
      "抱": 4757,
      "抵": 4758,
      "抹": 4759,
      "押": 4760,
      "抽": 4761,
      "拂": 4762,
      "担": 4763,
      "拉": 4764,
      "拌": 4765,
      "拍": 4766,
      "拐": 4767,
      "拒": 4768,
      "拓": 4769,
      "拔": 4770,
      "拖": 4771,
      "拗": 4772,
      "拘": 4773,
      "招": 4774,
      "拜": 4775,
      "拝": 4776,
      "拟": 4777,
      "拠": 4778,
      "拡": 4779,
      "拢": 4780,
      "拣": 4781,
      "拥": 4782,
      "拦": 4783,
      "拨": 4784,
      "择": 4785,
      "括": 4786,
      "拭": 4787,
      "拮": 4788,
      "拯": 4789,
      "拳": 4790,
      "拴": 4791,
      "拶": 4792,
      "拼": 4793,
      "拽": 4794,
      "拾": 4795,
      "拿": 4796,
      "持": 4797,
      "挂": 4798,
      "指": 4799,
      "按": 4800,
      "挑": 4801,
      "挖": 4802,
      "挙": 4803,
      "挚": 4804,
      "挟": 4805,
      "挡": 4806,
      "挣": 4807,
      "挥": 4808,
      "挨": 4809,
      "挪": 4810,
      "挭": 4811,
      "振": 4812,
      "挺": 4813,
      "挽": 4814,
      "挿": 4815,
      "捂": 4816,
      "捆": 4817,
      "捉": 4818,
      "捏": 4819,
      "捕": 4820,
      "捜": 4821,
      "捞": 4822,
      "损": 4823,
      "捡": 4824,
      "换": 4825,
      "捧": 4826,
      "捨": 4827,
      "据": 4828,
      "捲": 4829,
      "捷": 4830,
      "掃": 4831,
      "授": 4832,
      "掉": 4833,
      "掌": 4834,
      "排": 4835,
      "掘": 4836,
      "掛": 4837,
      "採": 4838,
      "探": 4839,
      "接": 4840,
      "控": 4841,
      "推": 4842,
      "掩": 4843,
      "措": 4844,
      "掭": 4845,
      "掲": 4846,
      "掴": 4847,
      "掷": 4848,
      "掺": 4849,
      "掻": 4850,
      "掾": 4851,
      "揃": 4852,
      "揄": 4853,
      "揉": 4854,
      "描": 4855,
      "提": 4856,
      "插": 4857,
      "揚": 4858,
      "換": 4859,
      "握": 4860,
      "揮": 4861,
      "援": 4862,
      "揶": 4863,
      "揺": 4864,
      "揽": 4865,
      "搅": 4866,
      "損": 4867,
      "搏": 4868,
      "搐": 4869,
      "搖": 4870,
      "搜": 4871,
      "搞": 4872,
      "搬": 4873,
      "搭": 4874,
      "携": 4875,
      "搾": 4876,
      "摂": 4877,
      "摄": 4878,
      "摆": 4879,
      "摇": 4880,
      "摊": 4881,
      "摔": 4882,
      "摘": 4883,
      "摩": 4884,
      "摸": 4885,
      "撃": 4886,
      "撅": 4887,
      "撑": 4888,
      "撒": 4889,
      "撓": 4890,
      "撕": 4891,
      "撞": 4892,
      "撤": 4893,
      "撩": 4894,
      "撫": 4895,
      "播": 4896,
      "撮": 4897,
      "撰": 4898,
      "撲": 4899,
      "撼": 4900,
      "擁": 4901,
      "擅": 4902,
      "擇": 4903,
      "擊": 4904,
      "擎": 4905,
      "據": 4906,
      "擦": 4907,
      "擬": 4908,
      "擲": 4909,
      "擴": 4910,
      "擺": 4911,
      "攀": 4912,
      "攒": 4913,
      "攜": 4914,
      "攝": 4915,
      "攤": 4916,
      "攪": 4917,
      "支": 4918,
      "收": 4919,
      "改": 4920,
      "攻": 4921,
      "放": 4922,
      "政": 4923,
      "敀": 4924,
      "敁": 4925,
      "故": 4926,
      "效": 4927,
      "敌": 4928,
      "敏": 4929,
      "救": 4930,
      "敗": 4931,
      "敘": 4932,
      "教": 4933,
      "敛": 4934,
      "敞": 4935,
      "敢": 4936,
      "散": 4937,
      "敬": 4938,
      "数": 4939,
      "敲": 4940,
      "整": 4941,
      "敵": 4942,
      "敷": 4943,
      "數": 4944,
      "文": 4945,
      "斉": 4946,
      "斋": 4947,
      "斌": 4948,
      "斐": 4949,
      "斑": 4950,
      "斓": 4951,
      "斗": 4952,
      "料": 4953,
      "斜": 4954,
      "斤": 4955,
      "斥": 4956,
      "斬": 4957,
      "断": 4958,
      "斯": 4959,
      "新": 4960,
      "斷": 4961,
      "方": 4962,
      "於": 4963,
      "施": 4964,
      "旁": 4965,
      "旅": 4966,
      "旋": 4967,
      "族": 4968,
      "旗": 4969,
      "无": 4970,
      "既": 4971,
      "日": 4972,
      "旦": 4973,
      "旧": 4974,
      "旨": 4975,
      "早": 4976,
      "旬": 4977,
      "旭": 4978,
      "旱": 4979,
      "时": 4980,
      "旺": 4981,
      "昂": 4982,
      "昆": 4983,
      "昇": 4984,
      "昊": 4985,
      "昌": 4986,
      "明": 4987,
      "昏": 4988,
      "易": 4989,
      "昔": 4990,
      "星": 4991,
      "映": 4992,
      "春": 4993,
      "昧": 4994,
      "昨": 4995,
      "昭": 4996,
      "是": 4997,
      "昼": 4998,
      "显": 4999,
      "時": 5000,
      "晋": 5001,
      "晒": 5002,
      "晓": 5003,
      "晕": 5004,
      "晖": 5005,
      "晚": 5006,
      "晣": 5007,
      "晨": 5008,
      "晩": 5009,
      "普": 5010,
      "景": 5011,
      "晰": 5012,
      "晴": 5013,
      "晶": 5014,
      "智": 5015,
      "暂": 5016,
      "暇": 5017,
      "暑": 5018,
      "暖": 5019,
      "暗": 5020,
      "暦": 5021,
      "暧": 5022,
      "暨": 5023,
      "暮": 5024,
      "暴": 5025,
      "暹": 5026,
      "曆": 5027,
      "曇": 5028,
      "曜": 5029,
      "曝": 5030,
      "曰": 5031,
      "曱": 5032,
      "曲": 5033,
      "曳": 5034,
      "更": 5035,
      "書": 5036,
      "曹": 5037,
      "曼": 5038,
      "曽": 5039,
      "曾": 5040,
      "替": 5041,
      "最": 5042,
      "會": 5043,
      "月": 5044,
      "有": 5045,
      "朋": 5046,
      "服": 5047,
      "朗": 5048,
      "望": 5049,
      "朝": 5050,
      "期": 5051,
      "木": 5052,
      "未": 5053,
      "末": 5054,
      "本": 5055,
      "札": 5056,
      "术": 5057,
      "朱": 5058,
      "朴": 5059,
      "朵": 5060,
      "机": 5061,
      "朽": 5062,
      "杀": 5063,
      "杂": 5064,
      "权": 5065,
      "杆": 5066,
      "李": 5067,
      "杏": 5068,
      "材": 5069,
      "村": 5070,
      "杖": 5071,
      "杜": 5072,
      "杞": 5073,
      "束": 5074,
      "杠": 5075,
      "条": 5076,
      "来": 5077,
      "杨": 5078,
      "杯": 5079,
      "杰": 5080,
      "東": 5081,
      "松": 5082,
      "板": 5083,
      "极": 5084,
      "构": 5085,
      "枋": 5086,
      "析": 5087,
      "枕": 5088,
      "林": 5089,
      "枚": 5090,
      "果": 5091,
      "枝": 5092,
      "枢": 5093,
      "枣": 5094,
      "枪": 5095,
      "枫": 5096,
      "枯": 5097,
      "架": 5098,
      "枸": 5099,
      "柄": 5100,
      "柏": 5101,
      "某": 5102,
      "柑": 5103,
      "染": 5104,
      "柔": 5105,
      "柜": 5106,
      "柠": 5107,
      "查": 5108,
      "柬": 5109,
      "柯": 5110,
      "柱": 5111,
      "柳": 5112,
      "柴": 5113,
      "査": 5114,
      "柿": 5115,
      "栄": 5116,
      "栅": 5117,
      "标": 5118,
      "栈": 5119,
      "栋": 5120,
      "树": 5121,
      "栓": 5122,
      "栖": 5123,
      "栗": 5124,
      "校": 5125,
      "株": 5126,
      "样": 5127,
      "核": 5128,
      "根": 5129,
      "格": 5130,
      "栽": 5131,
      "桁": 5132,
      "桂": 5133,
      "桃": 5134,
      "框": 5135,
      "案": 5136,
      "桌": 5137,
      "桐": 5138,
      "桑": 5139,
      "桔": 5140,
      "桜": 5141,
      "档": 5142,
      "桥": 5143,
      "桧": 5144,
      "桩": 5145,
      "桶": 5146,
      "梁": 5147,
      "梅": 5148,
      "梗": 5149,
      "條": 5150,
      "梦": 5151,
      "梨": 5152,
      "梭": 5153,
      "梯": 5154,
      "械": 5155,
      "梳": 5156,
      "梵": 5157,
      "检": 5158,
      "棄": 5159,
      "棉": 5160,
      "棋": 5161,
      "棍": 5162,
      "棒": 5163,
      "棕": 5164,
      "棘": 5165,
      "棚": 5166,
      "棠": 5167,
      "棤": 5168,
      "森": 5169,
      "棵": 5170,
      "棺": 5171,
      "椅": 5172,
      "植": 5173,
      "椎": 5174,
      "椒": 5175,
      "検": 5176,
      "椭": 5177,
      "楊": 5178,
      "楔": 5179,
      "楕": 5180,
      "楚": 5181,
      "楞": 5182,
      "楠": 5183,
      "業": 5184,
      "極": 5185,
      "楷": 5186,
      "楼": 5187,
      "楽": 5188,
      "榀": 5189,
      "概": 5190,
      "榈": 5191,
      "榔": 5192,
      "榕": 5193,
      "榛": 5194,
      "榜": 5195,
      "榨": 5196,
      "榮": 5197,
      "榴": 5198,
      "槇": 5199,
      "構": 5200,
      "槑": 5201,
      "様": 5202,
      "槛": 5203,
      "槟": 5204,
      "槤": 5205,
      "槽": 5206,
      "樂": 5207,
      "樊": 5208,
      "樓": 5209,
      "標": 5210,
      "模": 5211,
      "樣": 5212,
      "権": 5213,
      "横": 5214,
      "樱": 5215,
      "樹": 5216,
      "樽": 5217,
      "橋": 5218,
      "橘": 5219,
      "橙": 5220,
      "機": 5221,
      "橡": 5222,
      "橫": 5223,
      "檃": 5224,
      "檎": 5225,
      "檔": 5226,
      "檚": 5227,
      "檢": 5228,
      "檬": 5229,
      "檯": 5230,
      "櫃": 5231,
      "櫛": 5232,
      "櫥": 5233,
      "櫻": 5234,
      "權": 5235,
      "欠": 5236,
      "次": 5237,
      "欢": 5238,
      "欣": 5239,
      "欧": 5240,
      "欲": 5241,
      "欶": 5242,
      "欺": 5243,
      "款": 5244,
      "歇": 5245,
      "歉": 5246,
      "歌": 5247,
      "歎": 5248,
      "歐": 5249,
      "歓": 5250,
      "歡": 5251,
      "止": 5252,
      "正": 5253,
      "此": 5254,
      "步": 5255,
      "武": 5256,
      "歧": 5257,
      "歩": 5258,
      "歪": 5259,
      "歯": 5260,
      "歲": 5261,
      "歳": 5262,
      "歴": 5263,
      "歵": 5264,
      "歷": 5265,
      "歸": 5266,
      "歹": 5267,
      "殃": 5268,
      "殊": 5269,
      "残": 5270,
      "殖": 5271,
      "殘": 5272,
      "殴": 5273,
      "段": 5274,
      "殺": 5275,
      "殻": 5276,
      "殿": 5277,
      "毁": 5278,
      "毂": 5279,
      "毅": 5280,
      "母": 5281,
      "毎": 5282,
      "每": 5283,
      "毒": 5284,
      "毓": 5285,
      "比": 5286,
      "毕": 5287,
      "毛": 5288,
      "毡": 5289,
      "毫": 5290,
      "毯": 5291,
      "氏": 5292,
      "民": 5293,
      "气": 5294,
      "気": 5295,
      "氛": 5296,
      "氟": 5297,
      "氢": 5298,
      "氣": 5299,
      "氧": 5300,
      "氨": 5301,
      "氮": 5302,
      "氯": 5303,
      "氰": 5304,
      "水": 5305,
      "氷": 5306,
      "永": 5307,
      "氹": 5308,
      "汁": 5309,
      "求": 5310,
      "汇": 5311,
      "汉": 5312,
      "汎": 5313,
      "汐": 5314,
      "汕": 5315,
      "汗": 5316,
      "汚": 5317,
      "江": 5318,
      "池": 5319,
      "污": 5320,
      "汤": 5321,
      "汪": 5322,
      "汭": 5323,
      "汰": 5324,
      "汶": 5325,
      "決": 5326,
      "汽": 5327,
      "沁": 5328,
      "沃": 5329,
      "沈": 5330,
      "沉": 5331,
      "沐": 5332,
      "沒": 5333,
      "沖": 5334,
      "沙": 5335,
      "沚": 5336,
      "沟": 5337,
      "没": 5338,
      "沢": 5339,
      "沧": 5340,
      "沪": 5341,
      "沫": 5342,
      "沮": 5343,
      "河": 5344,
      "沸": 5345,
      "油": 5346,
      "治": 5347,
      "沼": 5348,
      "沿": 5349,
      "況": 5350,
      "泄": 5351,
      "泉": 5352,
      "泊": 5353,
      "泌": 5354,
      "泛": 5355,
      "泡": 5356,
      "波": 5357,
      "泣": 5358,
      "泥": 5359,
      "注": 5360,
      "泪": 5361,
      "泰": 5362,
      "泳": 5363,
      "泵": 5364,
      "泻": 5365,
      "泼": 5366,
      "泽": 5367,
      "洁": 5368,
      "洋": 5369,
      "洗": 5370,
      "洛": 5371,
      "洞": 5372,
      "津": 5373,
      "洩": 5374,
      "洪": 5375,
      "洲": 5376,
      "活": 5377,
      "洼": 5378,
      "洽": 5379,
      "派": 5380,
      "流": 5381,
      "浄": 5382,
      "浅": 5383,
      "浇": 5384,
      "浊": 5385,
      "测": 5386,
      "济": 5387,
      "浏": 5388,
      "浑": 5389,
      "浒": 5390,
      "浓": 5391,
      "浜": 5392,
      "浣": 5393,
      "浦": 5394,
      "浩": 5395,
      "浮": 5396,
      "浴": 5397,
      "海": 5398,
      "浸": 5399,
      "涂": 5400,
      "涅": 5401,
      "消": 5402,
      "涉": 5403,
      "涎": 5404,
      "涓": 5405,
      "涕": 5406,
      "涙": 5407,
      "涛": 5408,
      "涡": 5409,
      "涣": 5410,
      "润": 5411,
      "涨": 5412,
      "涩": 5413,
      "涯": 5414,
      "液": 5415,
      "涵": 5416,
      "涼": 5417,
      "淄": 5418,
      "淆": 5419,
      "淇": 5420,
      "淋": 5421,
      "淑": 5422,
      "淘": 5423,
      "淡": 5424,
      "淨": 5425,
      "淫": 5426,
      "淮": 5427,
      "深": 5428,
      "淳": 5429,
      "混": 5430,
      "添": 5431,
      "渃": 5432,
      "清": 5433,
      "済": 5434,
      "渉": 5435,
      "渊": 5436,
      "渋": 5437,
      "渐": 5438,
      "渔": 5439,
      "渗": 5440,
      "渚": 5441,
      "減": 5442,
      "渠": 5443,
      "渡": 5444,
      "渤": 5445,
      "測": 5446,
      "渭": 5447,
      "港": 5448,
      "渲": 5449,
      "渴": 5450,
      "游": 5451,
      "湊": 5452,
      "湖": 5453,
      "湘": 5454,
      "湛": 5455,
      "湯": 5456,
      "湾": 5457,
      "湿": 5458,
      "満": 5459,
      "溃": 5460,
      "溅": 5461,
      "溏": 5462,
      "源": 5463,
      "準": 5464,
      "溜": 5465,
      "溝": 5466,
      "溢": 5467,
      "溪": 5468,
      "溯": 5469,
      "溶": 5470,
      "溺": 5471,
      "滃": 5472,
      "滅": 5473,
      "滋": 5474,
      "滑": 5475,
      "滕": 5476,
      "滚": 5477,
      "滞": 5478,
      "满": 5479,
      "滤": 5480,
      "滨": 5481,
      "滩": 5482,
      "滯": 5483,
      "滴": 5484,
      "滾": 5485,
      "滿": 5486,
      "漁": 5487,
      "漂": 5488,
      "漆": 5489,
      "漇": 5490,
      "漏": 5491,
      "演": 5492,
      "漠": 5493,
      "漢": 5494,
      "漫": 5495,
      "漱": 5496,
      "潇": 5497,
      "潍": 5498,
      "潔": 5499,
      "潘": 5500,
      "潜": 5501,
      "潟": 5502,
      "潤": 5503,
      "潭": 5504,
      "潮": 5505,
      "潰": 5506,
      "澀": 5507,
      "澄": 5508,
      "澡": 5509,
      "澤": 5510,
      "澳": 5511,
      "激": 5512,
      "濁": 5513,
      "濃": 5514,
      "濡": 5515,
      "濯": 5516,
      "瀏": 5517,
      "瀑": 5518,
      "瀟": 5519,
      "瀤": 5520,
      "瀬": 5521,
      "灌": 5522,
      "灘": 5523,
      "灞": 5524,
      "火": 5525,
      "灭": 5526,
      "灯": 5527,
      "灰": 5528,
      "灵": 5529,
      "灶": 5530,
      "灸": 5531,
      "灼": 5532,
      "炉": 5533,
      "炊": 5534,
      "炎": 5535,
      "炒": 5536,
      "炔": 5537,
      "炙": 5538,
      "炭": 5539,
      "炯": 5540,
      "点": 5541,
      "為": 5542,
      "炼": 5543,
      "烂": 5544,
      "烈": 5545,
      "烊": 5546,
      "烏": 5547,
      "烘": 5548,
      "烙": 5549,
      "烛": 5550,
      "烟": 5551,
      "烤": 5552,
      "烦": 5553,
      "烧": 5554,
      "烫": 5555,
      "热": 5556,
      "烯": 5557,
      "烷": 5558,
      "烹": 5559,
      "焊": 5560,
      "焏": 5561,
      "焙": 5562,
      "無": 5563,
      "焦": 5564,
      "然": 5565,
      "焼": 5566,
      "煌": 5567,
      "煎": 5568,
      "煙": 5569,
      "煞": 5570,
      "煤": 5571,
      "照": 5572,
      "煩": 5573,
      "煮": 5574,
      "煲": 5575,
      "煽": 5576,
      "熊": 5577,
      "熏": 5578,
      "熔": 5579,
      "熟": 5580,
      "熬": 5581,
      "熱": 5582,
      "熵": 5583,
      "熻": 5584,
      "燃": 5585,
      "燈": 5586,
      "燎": 5587,
      "燒": 5588,
      "燕": 5589,
      "營": 5590,
      "燥": 5591,
      "燦": 5592,
      "燭": 5593,
      "爆": 5594,
      "爪": 5595,
      "爬": 5596,
      "爭": 5597,
      "爱": 5598,
      "爲": 5599,
      "父": 5600,
      "爷": 5601,
      "爸": 5602,
      "爹": 5603,
      "爺": 5604,
      "爻": 5605,
      "爽": 5606,
      "片": 5607,
      "版": 5608,
      "牌": 5609,
      "牙": 5610,
      "牛": 5611,
      "牟": 5612,
      "牡": 5613,
      "牢": 5614,
      "牧": 5615,
      "物": 5616,
      "牲": 5617,
      "特": 5618,
      "牺": 5619,
      "牽": 5620,
      "犀": 5621,
      "犊": 5622,
      "犬": 5623,
      "犯": 5624,
      "状": 5625,
      "犹": 5626,
      "狀": 5627,
      "狂": 5628,
      "狄": 5629,
      "狐": 5630,
      "狗": 5631,
      "狠": 5632,
      "狡": 5633,
      "狩": 5634,
      "独": 5635,
      "狭": 5636,
      "狮": 5637,
      "狸": 5638,
      "狼": 5639,
      "猎": 5640,
      "猖": 5641,
      "猛": 5642,
      "猜": 5643,
      "猥": 5644,
      "猪": 5645,
      "猫": 5646,
      "献": 5647,
      "猴": 5648,
      "猶": 5649,
      "猾": 5650,
      "猿": 5651,
      "獄": 5652,
      "獅": 5653,
      "獎": 5654,
      "獣": 5655,
      "獨": 5656,
      "獲": 5657,
      "獸": 5658,
      "玄": 5659,
      "率": 5660,
      "玉": 5661,
      "王": 5662,
      "玖": 5663,
      "玛": 5664,
      "玟": 5665,
      "玩": 5666,
      "玫": 5667,
      "环": 5668,
      "现": 5669,
      "玲": 5670,
      "玺": 5671,
      "玻": 5672,
      "珂": 5673,
      "珊": 5674,
      "珍": 5675,
      "珑": 5676,
      "珠": 5677,
      "班": 5678,
      "珲": 5679,
      "現": 5680,
      "球": 5681,
      "理": 5682,
      "琉": 5683,
      "琛": 5684,
      "琪": 5685,
      "琬": 5686,
      "琳": 5687,
      "琴": 5688,
      "琵": 5689,
      "琶": 5690,
      "琼": 5691,
      "瑋": 5692,
      "瑕": 5693,
      "瑚": 5694,
      "瑜": 5695,
      "瑞": 5696,
      "瑟": 5697,
      "瑠": 5698,
      "瑤": 5699,
      "瑰": 5700,
      "瑶": 5701,
      "璃": 5702,
      "環": 5703,
      "瓜": 5704,
      "瓣": 5705,
      "瓦": 5706,
      "瓶": 5707,
      "瓷": 5708,
      "甄": 5709,
      "甘": 5710,
      "甚": 5711,
      "甜": 5712,
      "生": 5713,
      "產": 5714,
      "産": 5715,
      "用": 5716,
      "甫": 5717,
      "田": 5718,
      "由": 5719,
      "甲": 5720,
      "申": 5721,
      "甴": 5722,
      "电": 5723,
      "男": 5724,
      "甸": 5725,
      "町": 5726,
      "画": 5727,
      "甾": 5728,
      "畅": 5729,
      "界": 5730,
      "畏": 5731,
      "畑": 5732,
      "畔": 5733,
      "留": 5734,
      "畜": 5735,
      "略": 5736,
      "番": 5737,
      "畫": 5738,
      "異": 5739,
      "畳": 5740,
      "畴": 5741,
      "當": 5742,
      "疆": 5743,
      "疎": 5744,
      "疏": 5745,
      "疑": 5746,
      "疗": 5747,
      "疡": 5748,
      "疤": 5749,
      "疫": 5750,
      "疮": 5751,
      "疯": 5752,
      "疱": 5753,
      "疲": 5754,
      "疵": 5755,
      "疹": 5756,
      "疼": 5757,
      "疾": 5758,
      "病": 5759,
      "症": 5760,
      "痕": 5761,
      "痘": 5762,
      "痛": 5763,
      "痢": 5764,
      "痣": 5765,
      "痤": 5766,
      "痩": 5767,
      "痫": 5768,
      "痰": 5769,
      "痴": 5770,
      "痺": 5771,
      "瘀": 5772,
      "瘊": 5773,
      "瘍": 5774,
      "瘙": 5775,
      "瘡": 5776,
      "瘢": 5777,
      "瘤": 5778,
      "瘦": 5779,
      "瘫": 5780,
      "瘾": 5781,
      "療": 5782,
      "癌": 5783,
      "癒": 5784,
      "癖": 5785,
      "癣": 5786,
      "癥": 5787,
      "癫": 5788,
      "癭": 5789,
      "発": 5790,
      "登": 5791,
      "發": 5792,
      "白": 5793,
      "百": 5794,
      "的": 5795,
      "皆": 5796,
      "皇": 5797,
      "皓": 5798,
      "皮": 5799,
      "盆": 5800,
      "盈": 5801,
      "益": 5802,
      "盐": 5803,
      "监": 5804,
      "盒": 5805,
      "盖": 5806,
      "盗": 5807,
      "盘": 5808,
      "盛": 5809,
      "盟": 5810,
      "盡": 5811,
      "監": 5812,
      "盤": 5813,
      "盥": 5814,
      "盧": 5815,
      "目": 5816,
      "盯": 5817,
      "盲": 5818,
      "直": 5819,
      "相": 5820,
      "盹": 5821,
      "盾": 5822,
      "省": 5823,
      "眂": 5824,
      "眉": 5825,
      "看": 5826,
      "県": 5827,
      "真": 5828,
      "眠": 5829,
      "眨": 5830,
      "眩": 5831,
      "眶": 5832,
      "眷": 5833,
      "眺": 5834,
      "眼": 5835,
      "眾": 5836,
      "着": 5837,
      "睁": 5838,
      "睛": 5839,
      "睡": 5840,
      "督": 5841,
      "睹": 5842,
      "睾": 5843,
      "瞅": 5844,
      "瞎": 5845,
      "瞑": 5846,
      "瞥": 5847,
      "瞧": 5848,
      "瞬": 5849,
      "瞭": 5850,
      "瞰": 5851,
      "瞳": 5852,
      "瞻": 5853,
      "瞿": 5854,
      "矛": 5855,
      "矢": 5856,
      "矣": 5857,
      "知": 5858,
      "矩": 5859,
      "短": 5860,
      "矮": 5861,
      "石": 5862,
      "矿": 5863,
      "码": 5864,
      "砂": 5865,
      "研": 5866,
      "砕": 5867,
      "砖": 5868,
      "破": 5869,
      "砸": 5870,
      "砼": 5871,
      "础": 5872,
      "硅": 5873,
      "硕": 5874,
      "硝": 5875,
      "硫": 5876,
      "硬": 5877,
      "确": 5878,
      "碋": 5879,
      "碌": 5880,
      "碍": 5881,
      "碎": 5882,
      "碑": 5883,
      "碗": 5884,
      "碘": 5885,
      "碚": 5886,
      "碧": 5887,
      "碰": 5888,
      "碱": 5889,
      "碳": 5890,
      "確": 5891,
      "碼": 5892,
      "磁": 5893,
      "磅": 5894,
      "磊": 5895,
      "磨": 5896,
      "磷": 5897,
      "礁": 5898,
      "礦": 5899,
      "示": 5900,
      "礼": 5901,
      "社": 5902,
      "祐": 5903,
      "祖": 5904,
      "祝": 5905,
      "神": 5906,
      "祥": 5907,
      "票": 5908,
      "祭": 5909,
      "祸": 5910,
      "祺": 5911,
      "禁": 5912,
      "禄": 5913,
      "禅": 5914,
      "禮": 5915,
      "离": 5916,
      "禾": 5917,
      "禿": 5918,
      "秀": 5919,
      "私": 5920,
      "秉": 5921,
      "秋": 5922,
      "种": 5923,
      "科": 5924,
      "秒": 5925,
      "秘": 5926,
      "租": 5927,
      "秦": 5928,
      "秩": 5929,
      "积": 5930,
      "称": 5931,
      "移": 5932,
      "稀": 5933,
      "稅": 5934,
      "稊": 5935,
      "程": 5936,
      "稍": 5937,
      "税": 5938,
      "稟": 5939,
      "稠": 5940,
      "種": 5941,
      "稱": 5942,
      "稳": 5943,
      "稻": 5944,
      "稼": 5945,
      "稿": 5946,
      "穂": 5947,
      "穆": 5948,
      "積": 5949,
      "穎": 5950,
      "穏": 5951,
      "穩": 5952,
      "穴": 5953,
      "究": 5954,
      "穷": 5955,
      "穹": 5956,
      "空": 5957,
      "穿": 5958,
      "突": 5959,
      "窃": 5960,
      "窄": 5961,
      "窒": 5962,
      "窓": 5963,
      "窗": 5964,
      "窝": 5965,
      "窟": 5966,
      "窥": 5967,
      "窦": 5968,
      "竇": 5969,
      "立": 5970,
      "竖": 5971,
      "站": 5972,
      "竞": 5973,
      "竟": 5974,
      "章": 5975,
      "竣": 5976,
      "童": 5977,
      "竭": 5978,
      "端": 5979,
      "競": 5980,
      "竹": 5981,
      "笑": 5982,
      "笔": 5983,
      "笥": 5984,
      "符": 5985,
      "笨": 5986,
      "第": 5987,
      "笼": 5988,
      "筆": 5989,
      "等": 5990,
      "筋": 5991,
      "筍": 5992,
      "筐": 5993,
      "筑": 5994,
      "筒": 5995,
      "答": 5996,
      "策": 5997,
      "筛": 5998,
      "筹": 5999,
      "签": 6000,
      "简": 6001,
      "箇": 6002,
      "算": 6003,
      "管": 6004,
      "箪": 6005,
      "箭": 6006,
      "箱": 6007,
      "節": 6008,
      "範": 6009,
      "篇": 6010,
      "築": 6011,
      "篩": 6012,
      "篮": 6013,
      "篱": 6014,
      "簑": 6015,
      "簡": 6016,
      "簧": 6017,
      "簽": 6018,
      "簾": 6019,
      "簿": 6020,
      "籌": 6021,
      "籍": 6022,
      "籤": 6023,
      "米": 6024,
      "类": 6025,
      "粉": 6026,
      "粋": 6027,
      "粑": 6028,
      "粒": 6029,
      "粗": 6030,
      "粘": 6031,
      "粤": 6032,
      "粧": 6033,
      "粮": 6034,
      "粱": 6035,
      "粽": 6036,
      "精": 6037,
      "糊": 6038,
      "糍": 6039,
      "糕": 6040,
      "糖": 6041,
      "糙": 6042,
      "糜": 6043,
      "糟": 6044,
      "糯": 6045,
      "糸": 6046,
      "系": 6047,
      "紀": 6048,
      "約": 6049,
      "紅": 6050,
      "紊": 6051,
      "紋": 6052,
      "納": 6053,
      "紐": 6054,
      "紓": 6055,
      "純": 6056,
      "紙": 6057,
      "級": 6058,
      "紝": 6059,
      "素": 6060,
      "索": 6061,
      "紧": 6062,
      "紫": 6063,
      "累": 6064,
      "細": 6065,
      "紹": 6066,
      "終": 6067,
      "組": 6068,
      "経": 6069,
      "結": 6070,
      "絕": 6071,
      "絞": 6072,
      "絡": 6073,
      "給": 6074,
      "統": 6075,
      "絲": 6076,
      "絵": 6077,
      "絶": 6078,
      "綁": 6079,
      "經": 6080,
      "継": 6081,
      "続": 6082,
      "綜": 6083,
      "綠": 6084,
      "維": 6085,
      "綱": 6086,
      "網": 6087,
      "綺": 6088,
      "綾": 6089,
      "綿": 6090,
      "緊": 6091,
      "緋": 6092,
      "総": 6093,
      "緑": 6094,
      "緒": 6095,
      "線": 6096,
      "締": 6097,
      "緣": 6098,
      "編": 6099,
      "緩": 6100,
      "緯": 6101,
      "練": 6102,
      "緹": 6103,
      "縁": 6104,
      "縄": 6105,
      "縛": 6106,
      "縞": 6107,
      "縣": 6108,
      "縦": 6109,
      "縮": 6110,
      "總": 6111,
      "績": 6112,
      "繁": 6113,
      "繊": 6114,
      "繋": 6115,
      "織": 6116,
      "繪": 6117,
      "繫": 6118,
      "繰": 6119,
      "繷": 6120,
      "繼": 6121,
      "續": 6122,
      "纏": 6123,
      "纜": 6124,
      "纠": 6125,
      "红": 6126,
      "纤": 6127,
      "约": 6128,
      "级": 6129,
      "纪": 6130,
      "纬": 6131,
      "纯": 6132,
      "纱": 6133,
      "纲": 6134,
      "纳": 6135,
      "纵": 6136,
      "纷": 6137,
      "纸": 6138,
      "纹": 6139,
      "纺": 6140,
      "纽": 6141,
      "线": 6142,
      "练": 6143,
      "组": 6144,
      "细": 6145,
      "织": 6146,
      "终": 6147,
      "绍": 6148,
      "绎": 6149,
      "经": 6150,
      "绑": 6151,
      "绒": 6152,
      "结": 6153,
      "绕": 6154,
      "绘": 6155,
      "给": 6156,
      "绚": 6157,
      "络": 6158,
      "绝": 6159,
      "统": 6160,
      "绢": 6161,
      "绣": 6162,
      "绥": 6163,
      "继": 6164,
      "绩": 6165,
      "绪": 6166,
      "续": 6167,
      "绳": 6168,
      "维": 6169,
      "绵": 6170,
      "综": 6171,
      "绿": 6172,
      "缀": 6173,
      "缅": 6174,
      "缓": 6175,
      "编": 6176,
      "缘": 6177,
      "缚": 6178,
      "缝": 6179,
      "缠": 6180,
      "缩": 6181,
      "缪": 6182,
      "缭": 6183,
      "缴": 6184,
      "缶": 6185,
      "缸": 6186,
      "缺": 6187,
      "罐": 6188,
      "网": 6189,
      "罔": 6190,
      "罕": 6191,
      "罗": 6192,
      "罚": 6193,
      "罩": 6194,
      "罪": 6195,
      "置": 6196,
      "罰": 6197,
      "署": 6198,
      "罹": 6199,
      "羅": 6200,
      "羊": 6201,
      "美": 6202,
      "羞": 6203,
      "羟": 6204,
      "羡": 6205,
      "群": 6206,
      "羧": 6207,
      "義": 6208,
      "羹": 6209,
      "羽": 6210,
      "翁": 6211,
      "翅": 6212,
      "翌": 6213,
      "翘": 6214,
      "翟": 6215,
      "翠": 6216,
      "翰": 6217,
      "翹": 6218,
      "翻": 6219,
      "翼": 6220,
      "耀": 6221,
      "老": 6222,
      "考": 6223,
      "者": 6224,
      "而": 6225,
      "耍": 6226,
      "耐": 6227,
      "耕": 6228,
      "耗": 6229,
      "耦": 6230,
      "耳": 6231,
      "耻": 6232,
      "聊": 6233,
      "聋": 6234,
      "职": 6235,
      "联": 6236,
      "聖": 6237,
      "聘": 6238,
      "聚": 6239,
      "聞": 6240,
      "聡": 6241,
      "聩": 6242,
      "聪": 6243,
      "聯": 6244,
      "聰": 6245,
      "聲": 6246,
      "聴": 6247,
      "職": 6248,
      "聼": 6249,
      "聽": 6250,
      "肃": 6251,
      "肉": 6252,
      "肋": 6253,
      "肌": 6254,
      "肖": 6255,
      "肚": 6256,
      "肝": 6257,
      "肟": 6258,
      "肠": 6259,
      "股": 6260,
      "肢": 6261,
      "肤": 6262,
      "肥": 6263,
      "肩": 6264,
      "肪": 6265,
      "肯": 6266,
      "育": 6267,
      "肺": 6268,
      "肽": 6269,
      "肾": 6270,
      "肿": 6271,
      "胀": 6272,
      "胁": 6273,
      "胃": 6274,
      "胆": 6275,
      "背": 6276,
      "胍": 6277,
      "胎": 6278,
      "胖": 6279,
      "胚": 6280,
      "胜": 6281,
      "胞": 6282,
      "胡": 6283,
      "胥": 6284,
      "胰": 6285,
      "胱": 6286,
      "胶": 6287,
      "胸": 6288,
      "胺": 6289,
      "能": 6290,
      "脂": 6291,
      "脅": 6292,
      "脆": 6293,
      "脈": 6294,
      "脉": 6295,
      "脊": 6296,
      "脏": 6297,
      "脐": 6298,
      "脑": 6299,
      "脓": 6300,
      "脖": 6301,
      "脚": 6302,
      "脯": 6303,
      "脱": 6304,
      "脳": 6305,
      "脸": 6306,
      "脾": 6307,
      "脿": 6308,
      "腊": 6309,
      "腎": 6310,
      "腐": 6311,
      "腓": 6312,
      "腔": 6313,
      "腕": 6314,
      "腗": 6315,
      "腟": 6316,
      "腦": 6317,
      "腩": 6318,
      "腫": 6319,
      "腰": 6320,
      "腱": 6321,
      "腳": 6322,
      "腹": 6323,
      "腺": 6324,
      "腻": 6325,
      "腾": 6326,
      "腿": 6327,
      "膀": 6328,
      "膏": 6329,
      "膚": 6330,
      "膜": 6331,
      "膝": 6332,
      "膠": 6333,
      "膣": 6334,
      "膨": 6335,
      "膳": 6336,
      "膽": 6337,
      "膿": 6338,
      "臀": 6339,
      "臂": 6340,
      "臓": 6341,
      "臟": 6342,
      "臣": 6343,
      "臨": 6344,
      "臭": 6345,
      "至": 6346,
      "致": 6347,
      "臺": 6348,
      "臼": 6349,
      "舅": 6350,
      "舆": 6351,
      "與": 6352,
      "興": 6353,
      "舉": 6354,
      "舊": 6355,
      "舌": 6356,
      "舍": 6357,
      "舎": 6358,
      "舐": 6359,
      "舒": 6360,
      "舗": 6361,
      "舞": 6362,
      "舟": 6363,
      "航": 6364,
      "般": 6365,
      "舰": 6366,
      "舵": 6367,
      "舶": 6368,
      "船": 6369,
      "舺": 6370,
      "艇": 6371,
      "艋": 6372,
      "艘": 6373,
      "艦": 6374,
      "良": 6375,
      "艱": 6376,
      "色": 6377,
      "艳": 6378,
      "艹": 6379,
      "艺": 6380,
      "艾": 6381,
      "节": 6382,
      "芍": 6383,
      "芎": 6384,
      "芒": 6385,
      "芙": 6386,
      "芜": 6387,
      "芝": 6388,
      "芦": 6389,
      "芬": 6390,
      "芭": 6391,
      "芯": 6392,
      "花": 6393,
      "芳": 6394,
      "芷": 6395,
      "芸": 6396,
      "芹": 6397,
      "芽": 6398,
      "苄": 6399,
      "苈": 6400,
      "苍": 6401,
      "苏": 6402,
      "苑": 6403,
      "苓": 6404,
      "苔": 6405,
      "苗": 6406,
      "苛": 6407,
      "苟": 6408,
      "若": 6409,
      "苦": 6410,
      "苫": 6411,
      "苯": 6412,
      "英": 6413,
      "苷": 6414,
      "苹": 6415,
      "茂": 6416,
      "范": 6417,
      "茄": 6418,
      "茅": 6419,
      "茎": 6420,
      "茜": 6421,
      "茧": 6422,
      "茨": 6423,
      "茫": 6424,
      "茭": 6425,
      "茯": 6426,
      "茵": 6427,
      "茶": 6428,
      "荆": 6429,
      "草": 6430,
      "荐": 6431,
      "荒": 6432,
      "荔": 6433,
      "荘": 6434,
      "荡": 6435,
      "荣": 6436,
      "荧": 6437,
      "药": 6438,
      "荷": 6439,
      "莉": 6440,
      "莍": 6441,
      "莎": 6442,
      "莓": 6443,
      "莞": 6444,
      "莪": 6445,
      "莫": 6446,
      "莱": 6447,
      "莲": 6448,
      "获": 6449,
      "莹": 6450,
      "菇": 6451,
      "菊": 6452,
      "菌": 6453,
      "菓": 6454,
      "菜": 6455,
      "菠": 6456,
      "華": 6457,
      "菱": 6458,
      "菲": 6459,
      "菸": 6460,
      "萃": 6461,
      "萄": 6462,
      "萌": 6463,
      "萍": 6464,
      "萎": 6465,
      "萝": 6466,
      "萤": 6467,
      "营": 6468,
      "萧": 6469,
      "萨": 6470,
      "萩": 6471,
      "萬": 6472,
      "萱": 6473,
      "落": 6474,
      "葉": 6475,
      "著": 6476,
      "葛": 6477,
      "葡": 6478,
      "董": 6479,
      "葬": 6480,
      "葱": 6481,
      "葳": 6482,
      "葵": 6483,
      "葶": 6484,
      "蒂": 6485,
      "蒋": 6486,
      "蒙": 6487,
      "蒲": 6488,
      "蒸": 6489,
      "蓄": 6490,
      "蓉": 6491,
      "蓋": 6492,
      "蓑": 6493,
      "蓝": 6494,
      "蓬": 6495,
      "蓮": 6496,
      "蔑": 6497,
      "蔚": 6498,
      "蔡": 6499,
      "蔬": 6500,
      "蔵": 6501,
      "蔻": 6502,
      "蔽": 6503,
      "蕁": 6504,
      "蕉": 6505,
      "蕊": 6506,
      "蕎": 6507,
      "蕨": 6508,
      "蕭": 6509,
      "蕾": 6510,
      "薄": 6511,
      "薇": 6512,
      "薛": 6513,
      "薦": 6514,
      "薪": 6515,
      "薬": 6516,
      "薯": 6517,
      "薰": 6518,
      "藉": 6519,
      "藏": 6520,
      "藕": 6521,
      "藜": 6522,
      "藤": 6523,
      "藥": 6524,
      "藻": 6525,
      "蘋": 6526,
      "蘑": 6527,
      "蘭": 6528,
      "虎": 6529,
      "虑": 6530,
      "處": 6531,
      "虚": 6532,
      "號": 6533,
      "虫": 6534,
      "虹": 6535,
      "虽": 6536,
      "虾": 6537,
      "蚀": 6538,
      "蚁": 6539,
      "蚊": 6540,
      "蚕": 6541,
      "蚝": 6542,
      "蚣": 6543,
      "蚪": 6544,
      "蚴": 6545,
      "蛇": 6546,
      "蛊": 6547,
      "蛋": 6548,
      "蛔": 6549,
      "蛙": 6550,
      "蛛": 6551,
      "蛭": 6552,
      "蛮": 6553,
      "蛳": 6554,
      "蜀": 6555,
      "蜂": 6556,
      "蜇": 6557,
      "蜈": 6558,
      "蜒": 6559,
      "蜓": 6560,
      "蜗": 6561,
      "蜘": 6562,
      "蜜": 6563,
      "蜡": 6564,
      "蜻": 6565,
      "蜿": 6566,
      "蝇": 6567,
      "蝉": 6568,
      "蝌": 6569,
      "蝙": 6570,
      "蝠": 6571,
      "蝦": 6572,
      "蝴": 6573,
      "蝶": 6574,
      "螃": 6575,
      "融": 6576,
      "螢": 6577,
      "螨": 6578,
      "螯": 6579,
      "螺": 6580,
      "蟲": 6581,
      "蟹": 6582,
      "蟻": 6583,
      "蠢": 6584,
      "血": 6585,
      "衆": 6586,
      "行": 6587,
      "衍": 6588,
      "術": 6589,
      "街": 6590,
      "衛": 6591,
      "衝": 6592,
      "衡": 6593,
      "衣": 6594,
      "补": 6595,
      "表": 6596,
      "衫": 6597,
      "衬": 6598,
      "衰": 6599,
      "袁": 6600,
      "袋": 6601,
      "袖": 6602,
      "袜": 6603,
      "被": 6604,
      "袭": 6605,
      "袴": 6606,
      "裁": 6607,
      "裂": 6608,
      "装": 6609,
      "裏": 6610,
      "裕": 6611,
      "裙": 6612,
      "補": 6613,
      "裝": 6614,
      "裡": 6615,
      "裤": 6616,
      "裸": 6617,
      "裹": 6618,
      "製": 6619,
      "複": 6620,
      "褐": 6621,
      "褒": 6622,
      "褥": 6623,
      "褪": 6624,
      "褶": 6625,
      "襄": 6626,
      "襟": 6627,
      "襲": 6628,
      "西": 6629,
      "要": 6630,
      "覃": 6631,
      "覅": 6632,
      "覆": 6633,
      "見": 6634,
      "規": 6635,
      "視": 6636,
      "覗": 6637,
      "覚": 6638,
      "覧": 6639,
      "親": 6640,
      "観": 6641,
      "覺": 6642,
      "覽": 6643,
      "觀": 6644,
      "见": 6645,
      "观": 6646,
      "规": 6647,
      "觅": 6648,
      "视": 6649,
      "览": 6650,
      "觉": 6651,
      "角": 6652,
      "解": 6653,
      "触": 6654,
      "言": 6655,
      "訂": 6656,
      "計": 6657,
      "訊": 6658,
      "討": 6659,
      "訓": 6660,
      "訕": 6661,
      "訖": 6662,
      "託": 6663,
      "記": 6664,
      "訣": 6665,
      "訪": 6666,
      "設": 6667,
      "許": 6668,
      "訳": 6669,
      "訴": 6670,
      "診": 6671,
      "証": 6672,
      "評": 6673,
      "詞": 6674,
      "詠": 6675,
      "詢": 6676,
      "試": 6677,
      "詩": 6678,
      "詫": 6679,
      "詰": 6680,
      "話": 6681,
      "該": 6682,
      "詳": 6683,
      "詹": 6684,
      "誉": 6685,
      "認": 6686,
      "誓": 6687,
      "誕": 6688,
      "誘": 6689,
      "語": 6690,
      "誠": 6691,
      "誤": 6692,
      "說": 6693,
      "説": 6694,
      "読": 6695,
      "誰": 6696,
      "課": 6697,
      "誹": 6698,
      "調": 6699,
      "談": 6700,
      "請": 6701,
      "論": 6702,
      "諦": 6703,
      "諺": 6704,
      "諾": 6705,
      "謀": 6706,
      "謁": 6707,
      "謂": 6708,
      "謎": 6709,
      "謗": 6710,
      "謙": 6711,
      "講": 6712,
      "謝": 6713,
      "證": 6714,
      "識": 6715,
      "譚": 6716,
      "譜": 6717,
      "警": 6718,
      "譯": 6719,
      "議": 6720,
      "譲": 6721,
      "護": 6722,
      "讀": 6723,
      "變": 6724,
      "讐": 6725,
      "讓": 6726,
      "计": 6727,
      "订": 6728,
      "认": 6729,
      "讨": 6730,
      "让": 6731,
      "讪": 6732,
      "讫": 6733,
      "训": 6734,
      "议": 6735,
      "讯": 6736,
      "记": 6737,
      "讲": 6738,
      "讶": 6739,
      "许": 6740,
      "论": 6741,
      "讽": 6742,
      "设": 6743,
      "访": 6744,
      "证": 6745,
      "诃": 6746,
      "评": 6747,
      "诅": 6748,
      "识": 6749,
      "诈": 6750,
      "诉": 6751,
      "诊": 6752,
      "诋": 6753,
      "词": 6754,
      "译": 6755,
      "试": 6756,
      "诗": 6757,
      "诚": 6758,
      "话": 6759,
      "诞": 6760,
      "询": 6761,
      "该": 6762,
      "详": 6763,
      "语": 6764,
      "误": 6765,
      "诱": 6766,
      "说": 6767,
      "诵": 6768,
      "诶": 6769,
      "请": 6770,
      "诸": 6771,
      "诺": 6772,
      "读": 6773,
      "课": 6774,
      "谁": 6775,
      "调": 6776,
      "谈": 6777,
      "谋": 6778,
      "谐": 6779,
      "谓": 6780,
      "谙": 6781,
      "谚": 6782,
      "谢": 6783,
      "谣": 6784,
      "谥": 6785,
      "谦": 6786,
      "谨": 6787,
      "谭": 6788,
      "谱": 6789,
      "谷": 6790,
      "豆": 6791,
      "豊": 6792,
      "豐": 6793,
      "豚": 6794,
      "象": 6795,
      "豪": 6796,
      "豫": 6797,
      "豬": 6798,
      "貌": 6799,
      "貓": 6800,
      "貝": 6801,
      "貞": 6802,
      "負": 6803,
      "財": 6804,
      "貢": 6805,
      "貧": 6806,
      "貨": 6807,
      "販": 6808,
      "貫": 6809,
      "責": 6810,
      "貯": 6811,
      "貰": 6812,
      "貴": 6813,
      "買": 6814,
      "貸": 6815,
      "費": 6816,
      "貼": 6817,
      "賀": 6818,
      "賃": 6819,
      "資": 6820,
      "賛": 6821,
      "賞": 6822,
      "賢": 6823,
      "賣": 6824,
      "質": 6825,
      "賺": 6826,
      "購": 6827,
      "賽": 6828,
      "贈": 6829,
      "贏": 6830,
      "贝": 6831,
      "负": 6832,
      "贡": 6833,
      "财": 6834,
      "责": 6835,
      "贤": 6836,
      "败": 6837,
      "账": 6838,
      "货": 6839,
      "质": 6840,
      "贫": 6841,
      "贬": 6842,
      "购": 6843,
      "贮": 6844,
      "贯": 6845,
      "贰": 6846,
      "贴": 6847,
      "贵": 6848,
      "贷": 6849,
      "贸": 6850,
      "费": 6851,
      "贺": 6852,
      "贾": 6853,
      "赁": 6854,
      "资": 6855,
      "赋": 6856,
      "赌": 6857,
      "赎": 6858,
      "赏": 6859,
      "赔": 6860,
      "赖": 6861,
      "赚": 6862,
      "赛": 6863,
      "赞": 6864,
      "赠": 6865,
      "赢": 6866,
      "赣": 6867,
      "赤": 6868,
      "走": 6869,
      "赴": 6870,
      "赵": 6871,
      "赶": 6872,
      "起": 6873,
      "超": 6874,
      "越": 6875,
      "趋": 6876,
      "趙": 6877,
      "趣": 6878,
      "趨": 6879,
      "足": 6880,
      "趴": 6881,
      "趾": 6882,
      "跃": 6883,
      "跌": 6884,
      "跑": 6885,
      "距": 6886,
      "跟": 6887,
      "跡": 6888,
      "跤": 6889,
      "跨": 6890,
      "跩": 6891,
      "路": 6892,
      "跳": 6893,
      "践": 6894,
      "踊": 6895,
      "踏": 6896,
      "踝": 6897,
      "踢": 6898,
      "踩": 6899,
      "踪": 6900,
      "蹄": 6901,
      "蹈": 6902,
      "蹟": 6903,
      "蹬": 6904,
      "蹴": 6905,
      "躍": 6906,
      "身": 6907,
      "躯": 6908,
      "躺": 6909,
      "車": 6910,
      "軌": 6911,
      "軒": 6912,
      "軟": 6913,
      "転": 6914,
      "軸": 6915,
      "軽": 6916,
      "較": 6917,
      "載": 6918,
      "輔": 6919,
      "輕": 6920,
      "輝": 6921,
      "輩": 6922,
      "輪": 6923,
      "輯": 6924,
      "輸": 6925,
      "轄": 6926,
      "轉": 6927,
      "车": 6928,
      "轨": 6929,
      "轩": 6930,
      "转": 6931,
      "轮": 6932,
      "软": 6933,
      "轴": 6934,
      "轻": 6935,
      "轼": 6936,
      "载": 6937,
      "轿": 6938,
      "较": 6939,
      "辅": 6940,
      "辆": 6941,
      "辇": 6942,
      "辈": 6943,
      "辉": 6944,
      "辐": 6945,
      "辑": 6946,
      "输": 6947,
      "辛": 6948,
      "辞": 6949,
      "辣": 6950,
      "辦": 6951,
      "辨": 6952,
      "辩": 6953,
      "辫": 6954,
      "辭": 6955,
      "辰": 6956,
      "辱": 6957,
      "農": 6958,
      "边": 6959,
      "辺": 6960,
      "辻": 6961,
      "込": 6962,
      "辽": 6963,
      "达": 6964,
      "迁": 6965,
      "迅": 6966,
      "过": 6967,
      "迈": 6968,
      "迎": 6969,
      "运": 6970,
      "近": 6971,
      "返": 6972,
      "还": 6973,
      "这": 6974,
      "进": 6975,
      "远": 6976,
      "违": 6977,
      "连": 6978,
      "迟": 6979,
      "迦": 6980,
      "迪": 6981,
      "迫": 6982,
      "迭": 6983,
      "述": 6984,
      "迷": 6985,
      "迹": 6986,
      "追": 6987,
      "送": 6988,
      "适": 6989,
      "逃": 6990,
      "逅": 6991,
      "逆": 6992,
      "选": 6993,
      "逊": 6994,
      "透": 6995,
      "逐": 6996,
      "递": 6997,
      "途": 6998,
      "逗": 6999,
      "這": 7000,
      "通": 7001,
      "逛": 7002,
      "逝": 7003,
      "速": 7004,
      "造": 7005,
      "連": 7006,
      "週": 7007,
      "進": 7008,
      "逸": 7009,
      "逻": 7010,
      "逾": 7011,
      "遂": 7012,
      "遅": 7013,
      "遇": 7014,
      "遊": 7015,
      "運": 7016,
      "遍": 7017,
      "過": 7018,
      "道": 7019,
      "達": 7020,
      "違": 7021,
      "遗": 7022,
      "遝": 7023,
      "遞": 7024,
      "遠": 7025,
      "遣": 7026,
      "遥": 7027,
      "適": 7028,
      "遭": 7029,
      "遮": 7030,
      "遵": 7031,
      "遷": 7032,
      "選": 7033,
      "遺": 7034,
      "避": 7035,
      "邀": 7036,
      "邂": 7037,
      "還": 7038,
      "邊": 7039,
      "邏": 7040,
      "邑": 7041,
      "邢": 7042,
      "那": 7043,
      "邦": 7044,
      "邩": 7045,
      "邪": 7046,
      "邮": 7047,
      "邱": 7048,
      "邵": 7049,
      "邸": 7050,
      "邺": 7051,
      "邻": 7052,
      "郁": 7053,
      "郊": 7054,
      "郎": 7055,
      "郑": 7056,
      "郡": 7057,
      "部": 7058,
      "郵": 7059,
      "都": 7060,
      "鄂": 7061,
      "鄉": 7062,
      "鄒": 7063,
      "鄙": 7064,
      "鄭": 7065,
      "酊": 7066,
      "酋": 7067,
      "配": 7068,
      "酐": 7069,
      "酒": 7070,
      "酗": 7071,
      "酚": 7072,
      "酢": 7073,
      "酩": 7074,
      "酪": 7075,
      "酬": 7076,
      "酮": 7077,
      "酯": 7078,
      "酰": 7079,
      "酱": 7080,
      "酵": 7081,
      "酶": 7082,
      "酷": 7083,
      "酸": 7084,
      "醇": 7085,
      "醉": 7086,
      "醋": 7087,
      "醌": 7088,
      "醒": 7089,
      "醛": 7090,
      "醤": 7091,
      "醨": 7092,
      "醩": 7093,
      "醫": 7094,
      "采": 7095,
      "釈": 7096,
      "释": 7097,
      "釋": 7098,
      "里": 7099,
      "重": 7100,
      "野": 7101,
      "量": 7102,
      "金": 7103,
      "釘": 7104,
      "針": 7105,
      "釣": 7106,
      "鈍": 7107,
      "鈥": 7108,
      "鈴": 7109,
      "鈺": 7110,
      "鉄": 7111,
      "鉛": 7112,
      "鉴": 7113,
      "鉶": 7114,
      "銀": 7115,
      "銅": 7116,
      "銆": 7117,
      "銘": 7118,
      "銬": 7119,
      "銭": 7120,
      "銷": 7121,
      "銹": 7122,
      "鋊": 7123,
      "鋑": 7124,
      "鋼": 7125,
      "錄": 7126,
      "錆": 7127,
      "錠": 7128,
      "錡": 7129,
      "錢": 7130,
      "錦": 7131,
      "錬": 7132,
      "錯": 7133,
      "録": 7134,
      "錶": 7135,
      "錽": 7136,
      "鍋": 7137,
      "鍖": 7138,
      "鍙": 7139,
      "鍛": 7140,
      "鍮": 7141,
      "鍵": 7142,
      "鍼": 7143,
      "鎌": 7144,
      "鎖": 7145,
      "鏈": 7146,
      "鏡": 7147,
      "鐘": 7148,
      "鐪": 7149,
      "鐵": 7150,
      "鑄": 7151,
      "鑑": 7152,
      "鑞": 7153,
      "鑫": 7154,
      "针": 7155,
      "钉": 7156,
      "钎": 7157,
      "钓": 7158,
      "钗": 7159,
      "钙": 7160,
      "钛": 7161,
      "钝": 7162,
      "钟": 7163,
      "钠": 7164,
      "钢": 7165,
      "钥": 7166,
      "钮": 7167,
      "钰": 7168,
      "钱": 7169,
      "钻": 7170,
      "钾": 7171,
      "铁": 7172,
      "铃": 7173,
      "铅": 7174,
      "铜": 7175,
      "铝": 7176,
      "铭": 7177,
      "铲": 7178,
      "铵": 7179,
      "银": 7180,
      "铸": 7181,
      "铺": 7182,
      "链": 7183,
      "销": 7184,
      "锁": 7185,
      "锂": 7186,
      "锄": 7187,
      "锅": 7188,
      "锈": 7189,
      "锋": 7190,
      "锌": 7191,
      "锐": 7192,
      "锕": 7193,
      "错": 7194,
      "锚": 7195,
      "锛": 7196,
      "锡": 7197,
      "锤": 7198,
      "锥": 7199,
      "锦": 7200,
      "键": 7201,
      "锻": 7202,
      "镀": 7203,
      "镁": 7204,
      "镂": 7205,
      "镇": 7206,
      "镖": 7207,
      "镜": 7208,
      "長": 7209,
      "长": 7210,
      "門": 7211,
      "閉": 7212,
      "開": 7213,
      "閎": 7214,
      "閏": 7215,
      "閑": 7216,
      "閒": 7217,
      "間": 7218,
      "閞": 7219,
      "関": 7220,
      "閣": 7221,
      "閤": 7222,
      "閬": 7223,
      "閱": 7224,
      "閲": 7225,
      "閶": 7226,
      "閿": 7227,
      "闆": 7228,
      "闘": 7229,
      "關": 7230,
      "门": 7231,
      "闪": 7232,
      "闭": 7233,
      "问": 7234,
      "闯": 7235,
      "闰": 7236,
      "闲": 7237,
      "间": 7238,
      "闵": 7239,
      "闷": 7240,
      "闸": 7241,
      "闹": 7242,
      "闺": 7243,
      "闻": 7244,
      "闽": 7245,
      "阀": 7246,
      "阁": 7247,
      "阅": 7248,
      "阈": 7249,
      "阐": 7250,
      "阔": 7251,
      "阜": 7252,
      "阪": 7253,
      "阱": 7254,
      "防": 7255,
      "阳": 7256,
      "阴": 7257,
      "阵": 7258,
      "阶": 7259,
      "阻": 7260,
      "阿": 7261,
      "陀": 7262,
      "附": 7263,
      "际": 7264,
      "陆": 7265,
      "陈": 7266,
      "陌": 7267,
      "降": 7268,
      "限": 7269,
      "陕": 7270,
      "陛": 7271,
      "陡": 7272,
      "院": 7273,
      "陣": 7274,
      "除": 7275,
      "陥": 7276,
      "陨": 7277,
      "险": 7278,
      "陪": 7279,
      "陰": 7280,
      "陳": 7281,
      "陵": 7282,
      "陶": 7283,
      "陷": 7284,
      "陸": 7285,
      "険": 7286,
      "陽": 7287,
      "隅": 7288,
      "隆": 7289,
      "階": 7290,
      "随": 7291,
      "隐": 7292,
      "隔": 7293,
      "隘": 7294,
      "隙": 7295,
      "際": 7296,
      "障": 7297,
      "隠": 7298,
      "隣": 7299,
      "隧": 7300,
      "隨": 7301,
      "險": 7302,
      "隱": 7303,
      "隻": 7304,
      "难": 7305,
      "雀": 7306,
      "雁": 7307,
      "雄": 7308,
      "雅": 7309,
      "集": 7310,
      "雇": 7311,
      "雌": 7312,
      "雑": 7313,
      "雕": 7314,
      "雖": 7315,
      "雙": 7316,
      "雛": 7317,
      "離": 7318,
      "難": 7319,
      "雨": 7320,
      "雪": 7321,
      "雯": 7322,
      "雰": 7323,
      "雲": 7324,
      "雳": 7325,
      "零": 7326,
      "雷": 7327,
      "電": 7328,
      "雾": 7329,
      "需": 7330,
      "霁": 7331,
      "霆": 7332,
      "震": 7333,
      "霉": 7334,
      "霊": 7335,
      "霍": 7336,
      "霓": 7337,
      "霜": 7338,
      "霞": 7339,
      "霧": 7340,
      "露": 7341,
      "霸": 7342,
      "霹": 7343,
      "霾": 7344,
      "靈": 7345,
      "青": 7346,
      "静": 7347,
      "靜": 7348,
      "非": 7349,
      "靠": 7350,
      "靡": 7351,
      "面": 7352,
      "革": 7353,
      "靴": 7354,
      "靶": 7355,
      "靼": 7356,
      "鞋": 7357,
      "鞍": 7358,
      "鞑": 7359,
      "鞘": 7360,
      "鞝": 7361,
      "鞭": 7362,
      "韒": 7363,
      "韓": 7364,
      "韧": 7365,
      "韩": 7366,
      "韭": 7367,
      "音": 7368,
      "韵": 7369,
      "韶": 7370,
      "韻": 7371,
      "響": 7372,
      "頁": 7373,
      "頂": 7374,
      "項": 7375,
      "順": 7376,
      "須": 7377,
      "頌": 7378,
      "預": 7379,
      "頑": 7380,
      "頓": 7381,
      "領": 7382,
      "頚": 7383,
      "頬": 7384,
      "頭": 7385,
      "頸": 7386,
      "頻": 7387,
      "頼": 7388,
      "顆": 7389,
      "題": 7390,
      "額": 7391,
      "顔": 7392,
      "顕": 7393,
      "願": 7394,
      "類": 7395,
      "顧": 7396,
      "顯": 7397,
      "页": 7398,
      "顶": 7399,
      "顷": 7400,
      "项": 7401,
      "顺": 7402,
      "须": 7403,
      "顾": 7404,
      "顿": 7405,
      "颁": 7406,
      "颂": 7407,
      "预": 7408,
      "颅": 7409,
      "领": 7410,
      "颇": 7411,
      "颈": 7412,
      "颐": 7413,
      "频": 7414,
      "颖": 7415,
      "颗": 7416,
      "题": 7417,
      "颜": 7418,
      "额": 7419,
      "颠": 7420,
      "颡": 7421,
      "風": 7422,
      "颯": 7423,
      "风": 7424,
      "飘": 7425,
      "飙": 7426,
      "飚": 7427,
      "飛": 7428,
      "飞": 7429,
      "食": 7430,
      "飯": 7431,
      "飲": 7432,
      "飼": 7433,
      "飽": 7434,
      "飾": 7435,
      "餅": 7436,
      "養": 7437,
      "餌": 7438,
      "餐": 7439,
      "館": 7440,
      "饋": 7441,
      "饒": 7442,
      "饥": 7443,
      "饪": 7444,
      "饭": 7445,
      "饮": 7446,
      "饰": 7447,
      "饱": 7448,
      "饲": 7449,
      "饶": 7450,
      "饺": 7451,
      "饼": 7452,
      "饿": 7453,
      "馃": 7454,
      "馆": 7455,
      "馈": 7456,
      "馒": 7457,
      "首": 7458,
      "香": 7459,
      "馨": 7460,
      "馬": 7461,
      "馮": 7462,
      "駄": 7463,
      "駅": 7464,
      "駆": 7465,
      "駍": 7466,
      "駐": 7467,
      "駑": 7468,
      "駒": 7469,
      "駕": 7470,
      "駝": 7471,
      "騎": 7472,
      "騒": 7473,
      "験": 7474,
      "驗": 7475,
      "驚": 7476,
      "驟": 7477,
      "马": 7478,
      "驯": 7479,
      "驰": 7480,
      "驱": 7481,
      "驳": 7482,
      "驶": 7483,
      "驻": 7484,
      "驼": 7485,
      "驾": 7486,
      "骁": 7487,
      "骂": 7488,
      "骆": 7489,
      "骋": 7490,
      "验": 7491,
      "骏": 7492,
      "骑": 7493,
      "骗": 7494,
      "骚": 7495,
      "骛": 7496,
      "骜": 7497,
      "骤": 7498,
      "骨": 7499,
      "骰": 7500,
      "骶": 7501,
      "髂": 7502,
      "髄": 7503,
      "髇": 7504,
      "髋": 7505,
      "髓": 7506,
      "體": 7507,
      "高": 7508,
      "髙": 7509,
      "髪": 7510,
      "鬆": 7511,
      "鬚": 7512,
      "鬥": 7513,
      "鬼": 7514,
      "魁": 7515,
      "魂": 7516,
      "魅": 7517,
      "魏": 7518,
      "魔": 7519,
      "魚": 7520,
      "魯": 7521,
      "鮑": 7522,
      "鮫": 7523,
      "鮮": 7524,
      "鯊": 7525,
      "鯖": 7526,
      "鯨": 7527,
      "鱼": 7528,
      "鱿": 7529,
      "鲁": 7530,
      "鲍": 7531,
      "鲜": 7532,
      "鲨": 7533,
      "鲫": 7534,
      "鲶": 7535,
      "鲸": 7536,
      "鳄": 7537,
      "鳙": 7538,
      "鳝": 7539,
      "鳞": 7540,
      "鳥": 7541,
      "鳩": 7542,
      "鳳": 7543,
      "鳴": 7544,
      "鴻": 7545,
      "鵝": 7546,
      "鶏": 7547,
      "鶴": 7548,
      "鷖": 7549,
      "鸟": 7550,
      "鸣": 7551,
      "鸦": 7552,
      "鸭": 7553,
      "鸵": 7554,
      "鸿": 7555,
      "鹂": 7556,
      "鹅": 7557,
      "鹈": 7558,
      "鹉": 7559,
      "鹜": 7560,
      "鹢": 7561,
      "鹤": 7562,
      "鹥": 7563,
      "鹦": 7564,
      "鹭": 7565,
      "鹰": 7566,
      "鹲": 7567,
      "鹸": 7568,
      "鹽": 7569,
      "鹿": 7570,
      "麊": 7571,
      "麏": 7572,
      "麐": 7573,
      "麗": 7574,
      "麘": 7575,
      "麞": 7576,
      "麡": 7577,
      "麥": 7578,
      "麦": 7579,
      "麫": 7580,
      "麳": 7581,
      "麵": 7582,
      "麹": 7583,
      "麺": 7584,
      "麻": 7585,
      "麼": 7586,
      "麽": 7587,
      "黃": 7588,
      "黄": 7589,
      "黇": 7590,
      "黎": 7591,
      "黏": 7592,
      "黑": 7593,
      "黒": 7594,
      "黓": 7595,
      "黕": 7596,
      "默": 7597,
      "黙": 7598,
      "黛": 7599,
      "點": 7600,
      "黧": 7601,
      "黮": 7602,
      "黯": 7603,
      "黱": 7604,
      "黳": 7605,
      "黷": 7606,
      "黸": 7607,
      "黽": 7608,
      "鼌": 7609,
      "鼏": 7610,
      "鼓": 7611,
      "鼚": 7612,
      "鼠": 7613,
      "鼥": 7614,
      "鼻": 7615,
      "齊": 7616,
      "齋": 7617,
      "齌": 7618,
      "齏": 7619,
      "齐": 7620,
      "齖": 7621,
      "齘": 7622,
      "齡": 7623,
      "齢": 7624,
      "齨": 7625,
      "齮": 7626,
      "齳": 7627,
      "齸": 7628,
      "齿": 7629,
      "龄": 7630,
      "龍": 7631,
      "龑": 7632,
      "龙": 7633,
      "龜": 7634,
      "龝": 7635,
      "龟": 7636,
      "龡": 7637,
      "龢": 7638,
      "ꂾ": 7639,
      "ꈍ": 7640,
      "ꑯ": 7641,
      "ꓵ": 7642,
      "Ꙁ": 7643,
      "ꙁ": 7644,
      "Ꙃ": 7645,
      "ꙃ": 7646,
      "Ꙋ": 7647,
      "ꙋ": 7648,
      "Ꙑ": 7649,
      "ꙑ": 7650,
      "ꙗ": 7651,
      "Ꜫ": 7652,
      "꞉": 7653,
      "ꟻ": 7654,
      "ꦁ": 7655,
      "ꦂ": 7656,
      "ꦒ": 7657,
      "ꦗ": 7658,
      "ꦤ": 7659,
      "ꦧ": 7660,
      "ꦩ": 7661,
      "ꦫ": 7662,
      "ꦱ": 7663,
      "ꦲ": 7664,
      "ꦴ": 7665,
      "ꦸ": 7666,
      "ꦺ": 7667,
      "ꦼ": 7668,
      "가": 7669,
      "각": 7670,
      "간": 7671,
      "갇": 7672,
      "갈": 7673,
      "감": 7674,
      "갑": 7675,
      "값": 7676,
      "갓": 7677,
      "갔": 7678,
      "강": 7679,
      "갖": 7680,
      "같": 7681,
      "갚": 7682,
      "개": 7683,
      "객": 7684,
      "갤": 7685,
      "갭": 7686,
      "갯": 7687,
      "갱": 7688,
      "갸": 7689,
      "걀": 7690,
      "걍": 7691,
      "걔": 7692,
      "걘": 7693,
      "거": 7694,
      "걱": 7695,
      "건": 7696,
      "걷": 7697,
      "걸": 7698,
      "검": 7699,
      "겁": 7700,
      "것": 7701,
      "게": 7702,
      "겐": 7703,
      "겔": 7704,
      "겟": 7705,
      "겠": 7706,
      "겧": 7707,
      "겨": 7708,
      "격": 7709,
      "겪": 7710,
      "견": 7711,
      "결": 7712,
      "겸": 7713,
      "겹": 7714,
      "겼": 7715,
      "경": 7716,
      "곁": 7717,
      "계": 7718,
      "고": 7719,
      "곡": 7720,
      "곤": 7721,
      "곧": 7722,
      "골": 7723,
      "곰": 7724,
      "곱": 7725,
      "곳": 7726,
      "공": 7727,
      "곶": 7728,
      "과": 7729,
      "곽": 7730,
      "관": 7731,
      "괄": 7732,
      "광": 7733,
      "괜": 7734,
      "괴": 7735,
      "굉": 7736,
      "교": 7737,
      "구": 7738,
      "국": 7739,
      "군": 7740,
      "굳": 7741,
      "굴": 7742,
      "굵": 7743,
      "굽": 7744,
      "굿": 7745,
      "궁": 7746,
      "궈": 7747,
      "권": 7748,
      "귀": 7749,
      "귄": 7750,
      "규": 7751,
      "균": 7752,
      "귤": 7753,
      "그": 7754,
      "극": 7755,
      "근": 7756,
      "글": 7757,
      "금": 7758,
      "급": 7759,
      "긋": 7760,
      "긍": 7761,
      "기": 7762,
      "긴": 7763,
      "길": 7764,
      "김": 7765,
      "깁": 7766,
      "깃": 7767,
      "깅": 7768,
      "깊": 7769,
      "까": 7770,
      "깍": 7771,
      "깎": 7772,
      "깐": 7773,
      "깔": 7774,
      "깜": 7775,
      "깝": 7776,
      "깨": 7777,
      "깰": 7778,
      "깹": 7779,
      "꺄": 7780,
      "꺠": 7781,
      "꺼": 7782,
      "꺾": 7783,
      "껀": 7784,
      "껄": 7785,
      "껌": 7786,
      "껍": 7787,
      "껏": 7788,
      "께": 7789,
      "껴": 7790,
      "꼈": 7791,
      "꼬": 7792,
      "꼭": 7793,
      "꼴": 7794,
      "꼼": 7795,
      "꼽": 7796,
      "꽃": 7797,
      "꽈": 7798,
      "꽉": 7799,
      "꽤": 7800,
      "꾀": 7801,
      "꾸": 7802,
      "꾼": 7803,
      "꿀": 7804,
      "꿈": 7805,
      "꿉": 7806,
      "꿔": 7807,
      "뀌": 7808,
      "뀐": 7809,
      "뀔": 7810,
      "끄": 7811,
      "끈": 7812,
      "끊": 7813,
      "끌": 7814,
      "끓": 7815,
      "끔": 7816,
      "끗": 7817,
      "끝": 7818,
      "끼": 7819,
      "낀": 7820,
      "낄": 7821,
      "낌": 7822,
      "나": 7823,
      "낙": 7824,
      "난": 7825,
      "날": 7826,
      "남": 7827,
      "납": 7828,
      "낫": 7829,
      "났": 7830,
      "낭": 7831,
      "낮": 7832,
      "낯": 7833,
      "낱": 7834,
      "내": 7835,
      "낸": 7836,
      "낼": 7837,
      "냄": 7838,
      "냅": 7839,
      "냈": 7840,
      "냉": 7841,
      "냐": 7842,
      "냥": 7843,
      "너": 7844,
      "넉": 7845,
      "넋": 7846,
      "넌": 7847,
      "널": 7848,
      "넓": 7849,
      "넘": 7850,
      "넣": 7851,
      "네": 7852,
      "넥": 7853,
      "넬": 7854,
      "넵": 7855,
      "넷": 7856,
      "녀": 7857,
      "녁": 7858,
      "년": 7859,
      "념": 7860,
      "녔": 7861,
      "녕": 7862,
      "녘": 7863,
      "노": 7864,
      "녹": 7865,
      "논": 7866,
      "놀": 7867,
      "놂": 7868,
      "놈": 7869,
      "놉": 7870,
      "농": 7871,
      "높": 7872,
      "놓": 7873,
      "놔": 7874,
      "놨": 7875,
      "뇌": 7876,
      "뇨": 7877,
      "뇽": 7878,
      "누": 7879,
      "눅": 7880,
      "눈": 7881,
      "눌": 7882,
      "눠": 7883,
      "뉘": 7884,
      "뉜": 7885,
      "뉩": 7886,
      "뉴": 7887,
      "늄": 7888,
      "늉": 7889,
      "느": 7890,
      "늑": 7891,
      "는": 7892,
      "늘": 7893,
      "늙": 7894,
      "능": 7895,
      "늦": 7896,
      "늪": 7897,
      "늬": 7898,
      "니": 7899,
      "닉": 7900,
      "닋": 7901,
      "닌": 7902,
      "닐": 7903,
      "님": 7904,
      "닙": 7905,
      "닝": 7906,
      "다": 7907,
      "닥": 7908,
      "닦": 7909,
      "단": 7910,
      "닫": 7911,
      "달": 7912,
      "닭": 7913,
      "담": 7914,
      "답": 7915,
      "당": 7916,
      "닿": 7917,
      "대": 7918,
      "댁": 7919,
      "댄": 7920,
      "댑": 7921,
      "댓": 7922,
      "댔": 7923,
      "댕": 7924,
      "댜": 7925,
      "더": 7926,
      "덕": 7927,
      "던": 7928,
      "덜": 7929,
      "덤": 7930,
      "덥": 7931,
      "덧": 7932,
      "덩": 7933,
      "덫": 7934,
      "덮": 7935,
      "덯": 7936,
      "데": 7937,
      "덱": 7938,
      "덴": 7939,
      "델": 7940,
      "뎃": 7941,
      "도": 7942,
      "독": 7943,
      "돈": 7944,
      "돋": 7945,
      "돌": 7946,
      "돔": 7947,
      "돕": 7948,
      "동": 7949,
      "돼": 7950,
      "됌": 7951,
      "됐": 7952,
      "되": 7953,
      "된": 7954,
      "될": 7955,
      "됨": 7956,
      "됩": 7957,
      "두": 7958,
      "둑": 7959,
      "둔": 7960,
      "둘": 7961,
      "둠": 7962,
      "둬": 7963,
      "뒀": 7964,
      "뒤": 7965,
      "뒷": 7966,
      "듀": 7967,
      "듈": 7968,
      "드": 7969,
      "득": 7970,
      "든": 7971,
      "듣": 7972,
      "들": 7973,
      "듬": 7974,
      "듭": 7975,
      "듯": 7976,
      "등": 7977,
      "디": 7978,
      "딕": 7979,
      "딘": 7980,
      "딜": 7981,
      "딤": 7982,
      "딥": 7983,
      "딧": 7984,
      "딨": 7985,
      "딩": 7986,
      "딪": 7987,
      "따": 7988,
      "딱": 7989,
      "딴": 7990,
      "딸": 7991,
      "땀": 7992,
      "땅": 7993,
      "때": 7994,
      "땐": 7995,
      "땜": 7996,
      "땠": 7997,
      "땡": 7998,
      "떄": 7999,
      "떠": 8000,
      "떡": 8001,
      "떢": 8002,
      "떤": 8003,
      "떨": 8004,
      "떳": 8005,
      "떵": 8006,
      "떻": 8007,
      "떼": 8008,
      "또": 8009,
      "똑": 8010,
      "똘": 8011,
      "똥": 8012,
      "뙤": 8013,
      "뚜": 8014,
      "뚝": 8015,
      "뚫": 8016,
      "뚸": 8017,
      "뛰": 8018,
      "뛸": 8019,
      "뜨": 8020,
      "뜬": 8021,
      "뜯": 8022,
      "뜰": 8023,
      "뜸": 8024,
      "뜹": 8025,
      "뜻": 8026,
      "띄": 8027,
      "띈": 8028,
      "띵": 8029,
      "라": 8030,
      "락": 8031,
      "란": 8032,
      "랄": 8033,
      "람": 8034,
      "랍": 8035,
      "랏": 8036,
      "랐": 8037,
      "랑": 8038,
      "랗": 8039,
      "래": 8040,
      "랙": 8041,
      "랜": 8042,
      "램": 8043,
      "랩": 8044,
      "랫": 8045,
      "랬": 8046,
      "랭": 8047,
      "략": 8048,
      "량": 8049,
      "러": 8050,
      "럭": 8051,
      "런": 8052,
      "럴": 8053,
      "럼": 8054,
      "럽": 8055,
      "럿": 8056,
      "렀": 8057,
      "렁": 8058,
      "렇": 8059,
      "레": 8060,
      "렉": 8061,
      "렌": 8062,
      "렐": 8063,
      "렘": 8064,
      "렛": 8065,
      "려": 8066,
      "력": 8067,
      "련": 8068,
      "렬": 8069,
      "렴": 8070,
      "렵": 8071,
      "렷": 8072,
      "렸": 8073,
      "령": 8074,
      "례": 8075,
      "로": 8076,
      "록": 8077,
      "론": 8078,
      "롤": 8079,
      "롬": 8080,
      "롭": 8081,
      "롯": 8082,
      "롱": 8083,
      "뢰": 8084,
      "료": 8085,
      "룔": 8086,
      "룡": 8087,
      "루": 8088,
      "룩": 8089,
      "룬": 8090,
      "룰": 8091,
      "룸": 8092,
      "룹": 8093,
      "룽": 8094,
      "뤄": 8095,
      "뤼": 8096,
      "류": 8097,
      "륙": 8098,
      "률": 8099,
      "륨": 8100,
      "륭": 8101,
      "르": 8102,
      "른": 8103,
      "를": 8104,
      "름": 8105,
      "릅": 8106,
      "릇": 8107,
      "릉": 8108,
      "릎": 8109,
      "리": 8110,
      "릭": 8111,
      "린": 8112,
      "릴": 8113,
      "림": 8114,
      "립": 8115,
      "릿": 8116,
      "링": 8117,
      "마": 8118,
      "막": 8119,
      "만": 8120,
      "많": 8121,
      "맏": 8122,
      "말": 8123,
      "맗": 8124,
      "맘": 8125,
      "맙": 8126,
      "맛": 8127,
      "망": 8128,
      "맞": 8129,
      "맡": 8130,
      "매": 8131,
      "맥": 8132,
      "맨": 8133,
      "맴": 8134,
      "맵": 8135,
      "맷": 8136,
      "맹": 8137,
      "맺": 8138,
      "머": 8139,
      "먹": 8140,
      "먼": 8141,
      "멀": 8142,
      "멈": 8143,
      "멋": 8144,
      "멍": 8145,
      "메": 8146,
      "멕": 8147,
      "멘": 8148,
      "멤": 8149,
      "며": 8150,
      "멱": 8151,
      "면": 8152,
      "멸": 8153,
      "명": 8154,
      "몇": 8155,
      "모": 8156,
      "목": 8157,
      "몫": 8158,
      "몬": 8159,
      "몰": 8160,
      "몸": 8161,
      "못": 8162,
      "몽": 8163,
      "묘": 8164,
      "무": 8165,
      "묵": 8166,
      "묶": 8167,
      "문": 8168,
      "묻": 8169,
      "물": 8170,
      "뭇": 8171,
      "뭉": 8172,
      "뭐": 8173,
      "뭔": 8174,
      "뭘": 8175,
      "뭣": 8176,
      "뭥": 8177,
      "뮌": 8178,
      "뮤": 8179,
      "뮬": 8180,
      "뮶": 8181,
      "므": 8182,
      "미": 8183,
      "믹": 8184,
      "민": 8185,
      "믿": 8186,
      "밀": 8187,
      "밋": 8188,
      "밌": 8189,
      "밍": 8190,
      "및": 8191,
      "밑": 8192,
      "바": 8193,
      "박": 8194,
      "밖": 8195,
      "반": 8196,
      "받": 8197,
      "발": 8198,
      "밝": 8199,
      "밤": 8200,
      "밥": 8201,
      "밧": 8202,
      "방": 8203,
      "밭": 8204,
      "배": 8205,
      "백": 8206,
      "밴": 8207,
      "밸": 8208,
      "뱃": 8209,
      "뱅": 8210,
      "버": 8211,
      "벅": 8212,
      "번": 8213,
      "벌": 8214,
      "범": 8215,
      "법": 8216,
      "벗": 8217,
      "벚": 8218,
      "벛": 8219,
      "베": 8220,
      "벡": 8221,
      "벤": 8222,
      "벨": 8223,
      "벳": 8224,
      "벼": 8225,
      "벽": 8226,
      "변": 8227,
      "별": 8228,
      "볍": 8229,
      "병": 8230,
      "볕": 8231,
      "보": 8232,
      "복": 8233,
      "볶": 8234,
      "본": 8235,
      "볼": 8236,
      "봄": 8237,
      "봅": 8238,
      "봇": 8239,
      "봉": 8240,
      "봐": 8241,
      "봤": 8242,
      "뵈": 8243,
      "부": 8244,
      "북": 8245,
      "분": 8246,
      "불": 8247,
      "붉": 8248,
      "붐": 8249,
      "붕": 8250,
      "붙": 8251,
      "뷁": 8252,
      "뷔": 8253,
      "뷰": 8254,
      "브": 8255,
      "븐": 8256,
      "블": 8257,
      "비": 8258,
      "빅": 8259,
      "빈": 8260,
      "빌": 8261,
      "빔": 8262,
      "빕": 8263,
      "빗": 8264,
      "빙": 8265,
      "빚": 8266,
      "빛": 8267,
      "빠": 8268,
      "빡": 8269,
      "빨": 8270,
      "빴": 8271,
      "빼": 8272,
      "뺏": 8273,
      "뺴": 8274,
      "뻐": 8275,
      "뻔": 8276,
      "뻗": 8277,
      "뻤": 8278,
      "뼈": 8279,
      "뽀": 8280,
      "뽁": 8281,
      "뽐": 8282,
      "뽑": 8283,
      "뽕": 8284,
      "뾰": 8285,
      "뿌": 8286,
      "뿐": 8287,
      "뿔": 8288,
      "뿜": 8289,
      "쁘": 8290,
      "쁜": 8291,
      "쁠": 8292,
      "쁨": 8293,
      "삐": 8294,
      "사": 8295,
      "삭": 8296,
      "산": 8297,
      "살": 8298,
      "삶": 8299,
      "삼": 8300,
      "삽": 8301,
      "삿": 8302,
      "샀": 8303,
      "상": 8304,
      "샅": 8305,
      "새": 8306,
      "색": 8307,
      "샌": 8308,
      "샘": 8309,
      "생": 8310,
      "샤": 8311,
      "샨": 8312,
      "샵": 8313,
      "샷": 8314,
      "샹": 8315,
      "섀": 8316,
      "서": 8317,
      "석": 8318,
      "섞": 8319,
      "선": 8320,
      "설": 8321,
      "섦": 8322,
      "섬": 8323,
      "섭": 8324,
      "섯": 8325,
      "섰": 8326,
      "성": 8327,
      "세": 8328,
      "섹": 8329,
      "센": 8330,
      "셀": 8331,
      "셈": 8332,
      "셉": 8333,
      "셋": 8334,
      "셔": 8335,
      "션": 8336,
      "셜": 8337,
      "셨": 8338,
      "셫": 8339,
      "셰": 8340,
      "소": 8341,
      "속": 8342,
      "솎": 8343,
      "손": 8344,
      "솔": 8345,
      "솜": 8346,
      "솟": 8347,
      "송": 8348,
      "솥": 8349,
      "쇄": 8350,
      "쇠": 8351,
      "쇳": 8352,
      "쇼": 8353,
      "숍": 8354,
      "수": 8355,
      "숙": 8356,
      "순": 8357,
      "술": 8358,
      "숨": 8359,
      "숫": 8360,
      "숭": 8361,
      "숲": 8362,
      "쉘": 8363,
      "쉬": 8364,
      "쉴": 8365,
      "쉼": 8366,
      "쉽": 8367,
      "쉿": 8368,
      "슈": 8369,
      "슉": 8370,
      "슐": 8371,
      "스": 8372,
      "슨": 8373,
      "슬": 8374,
      "슭": 8375,
      "슴": 8376,
      "습": 8377,
      "슷": 8378,
      "승": 8379,
      "시": 8380,
      "식": 8381,
      "신": 8382,
      "실": 8383,
      "싫": 8384,
      "심": 8385,
      "십": 8386,
      "싱": 8387,
      "싶": 8388,
      "싸": 8389,
      "싹": 8390,
      "싼": 8391,
      "쌀": 8392,
      "쌈": 8393,
      "쌉": 8394,
      "쌍": 8395,
      "쌓": 8396,
      "쌩": 8397,
      "써": 8398,
      "썩": 8399,
      "썬": 8400,
      "썰": 8401,
      "썸": 8402,
      "썹": 8403,
      "썼": 8404,
      "쎄": 8405,
      "쎈": 8406,
      "쏘": 8407,
      "쏜": 8408,
      "쏟": 8409,
      "쏠": 8410,
      "쐐": 8411,
      "쑥": 8412,
      "쓰": 8413,
      "쓴": 8414,
      "쓸": 8415,
      "씀": 8416,
      "씌": 8417,
      "씨": 8418,
      "씩": 8419,
      "씬": 8420,
      "씻": 8421,
      "아": 8422,
      "악": 8423,
      "안": 8424,
      "앉": 8425,
      "않": 8426,
      "알": 8427,
      "암": 8428,
      "압": 8429,
      "앗": 8430,
      "았": 8431,
      "앙": 8432,
      "앜": 8433,
      "앞": 8434,
      "애": 8435,
      "액": 8436,
      "앤": 8437,
      "앨": 8438,
      "앰": 8439,
      "앱": 8440,
      "앳": 8441,
      "앵": 8442,
      "야": 8443,
      "약": 8444,
      "얀": 8445,
      "얌": 8446,
      "양": 8447,
      "얗": 8448,
      "얘": 8449,
      "어": 8450,
      "억": 8451,
      "언": 8452,
      "얻": 8453,
      "얼": 8454,
      "얽": 8455,
      "엄": 8456,
      "업": 8457,
      "없": 8458,
      "엇": 8459,
      "었": 8460,
      "엉": 8461,
      "엌": 8462,
      "에": 8463,
      "엑": 8464,
      "엔": 8465,
      "엘": 8466,
      "엝": 8467,
      "엠": 8468,
      "엣": 8469,
      "엥": 8470,
      "여": 8471,
      "역": 8472,
      "연": 8473,
      "열": 8474,
      "염": 8475,
      "엽": 8476,
      "였": 8477,
      "영": 8478,
      "옆": 8479,
      "예": 8480,
      "옐": 8481,
      "옛": 8482,
      "오": 8483,
      "옥": 8484,
      "온": 8485,
      "올": 8486,
      "옮": 8487,
      "옳": 8488,
      "옴": 8489,
      "옵": 8490,
      "옷": 8491,
      "옹": 8492,
      "옻": 8493,
      "옼": 8494,
      "와": 8495,
      "왁": 8496,
      "완": 8497,
      "왑": 8498,
      "왔": 8499,
      "왕": 8500,
      "왜": 8501,
      "왠": 8502,
      "왤": 8503,
      "외": 8504,
      "왼": 8505,
      "요": 8506,
      "욕": 8507,
      "용": 8508,
      "우": 8509,
      "욱": 8510,
      "운": 8511,
      "울": 8512,
      "움": 8513,
      "웃": 8514,
      "웅": 8515,
      "워": 8516,
      "웍": 8517,
      "원": 8518,
      "월": 8519,
      "웟": 8520,
      "웠": 8521,
      "웡": 8522,
      "웨": 8523,
      "웬": 8524,
      "웰": 8525,
      "웹": 8526,
      "위": 8527,
      "윈": 8528,
      "윌": 8529,
      "윗": 8530,
      "윙": 8531,
      "유": 8532,
      "육": 8533,
      "윤": 8534,
      "율": 8535,
      "윰": 8536,
      "융": 8537,
      "으": 8538,
      "윽": 8539,
      "은": 8540,
      "을": 8541,
      "음": 8542,
      "읍": 8543,
      "응": 8544,
      "읔": 8545,
      "의": 8546,
      "이": 8547,
      "익": 8548,
      "인": 8549,
      "일": 8550,
      "읽": 8551,
      "잃": 8552,
      "임": 8553,
      "입": 8554,
      "잇": 8555,
      "있": 8556,
      "잉": 8557,
      "잊": 8558,
      "잎": 8559,
      "자": 8560,
      "작": 8561,
      "잔": 8562,
      "잖": 8563,
      "잘": 8564,
      "잠": 8565,
      "잡": 8566,
      "잣": 8567,
      "잤": 8568,
      "장": 8569,
      "잦": 8570,
      "재": 8571,
      "잭": 8572,
      "쟁": 8573,
      "쟈": 8574,
      "쟛": 8575,
      "저": 8576,
      "적": 8577,
      "전": 8578,
      "절": 8579,
      "젊": 8580,
      "점": 8581,
      "접": 8582,
      "젓": 8583,
      "정": 8584,
      "젖": 8585,
      "제": 8586,
      "젝": 8587,
      "젠": 8588,
      "젤": 8589,
      "젯": 8590,
      "져": 8591,
      "젼": 8592,
      "졋": 8593,
      "졌": 8594,
      "조": 8595,
      "족": 8596,
      "존": 8597,
      "졸": 8598,
      "좀": 8599,
      "좁": 8600,
      "종": 8601,
      "좋": 8602,
      "좌": 8603,
      "죄": 8604,
      "죋": 8605,
      "죠": 8606,
      "주": 8607,
      "죽": 8608,
      "준": 8609,
      "줄": 8610,
      "줌": 8611,
      "줍": 8612,
      "중": 8613,
      "줘": 8614,
      "줜": 8615,
      "줬": 8616,
      "줭": 8617,
      "쥐": 8618,
      "쥬": 8619,
      "쥴": 8620,
      "즈": 8621,
      "즉": 8622,
      "즌": 8623,
      "즐": 8624,
      "즘": 8625,
      "즙": 8626,
      "증": 8627,
      "지": 8628,
      "직": 8629,
      "진": 8630,
      "짇": 8631,
      "질": 8632,
      "짐": 8633,
      "집": 8634,
      "짓": 8635,
      "징": 8636,
      "짖": 8637,
      "짙": 8638,
      "짚": 8639,
      "짜": 8640,
      "짝": 8641,
      "짤": 8642,
      "짦": 8643,
      "짧": 8644,
      "짬": 8645,
      "짱": 8646,
      "째": 8647,
      "쨌": 8648,
      "쩌": 8649,
      "쩍": 8650,
      "쩔": 8651,
      "쪘": 8652,
      "쪼": 8653,
      "쪽": 8654,
      "쫇": 8655,
      "쫓": 8656,
      "쬐": 8657,
      "쭉": 8658,
      "쭤": 8659,
      "쯔": 8660,
      "쯤": 8661,
      "찌": 8662,
      "찍": 8663,
      "찐": 8664,
      "찝": 8665,
      "찢": 8666,
      "차": 8667,
      "착": 8668,
      "찬": 8669,
      "찮": 8670,
      "찰": 8671,
      "참": 8672,
      "찼": 8673,
      "창": 8674,
      "찾": 8675,
      "채": 8676,
      "책": 8677,
      "챈": 8678,
      "챌": 8679,
      "챔": 8680,
      "챕": 8681,
      "챗": 8682,
      "챙": 8683,
      "챠": 8684,
      "처": 8685,
      "척": 8686,
      "천": 8687,
      "철": 8688,
      "첨": 8689,
      "첩": 8690,
      "첫": 8691,
      "청": 8692,
      "체": 8693,
      "첼": 8694,
      "쳇": 8695,
      "쳐": 8696,
      "쳤": 8697,
      "초": 8698,
      "촉": 8699,
      "촌": 8700,
      "촛": 8701,
      "총": 8702,
      "촬": 8703,
      "최": 8704,
      "쵸": 8705,
      "추": 8706,
      "축": 8707,
      "춘": 8708,
      "출": 8709,
      "춤": 8710,
      "춥": 8711,
      "춧": 8712,
      "충": 8713,
      "춰": 8714,
      "췄": 8715,
      "취": 8716,
      "츄": 8717,
      "츠": 8718,
      "측": 8719,
      "층": 8720,
      "치": 8721,
      "칙": 8722,
      "친": 8723,
      "칠": 8724,
      "침": 8725,
      "칩": 8726,
      "칫": 8727,
      "칭": 8728,
      "카": 8729,
      "칵": 8730,
      "칸": 8731,
      "칼": 8732,
      "캄": 8733,
      "캅": 8734,
      "캉": 8735,
      "캐": 8736,
      "캔": 8737,
      "캘": 8738,
      "캠": 8739,
      "캡": 8740,
      "캣": 8741,
      "컒": 8742,
      "커": 8743,
      "컨": 8744,
      "컬": 8745,
      "컴": 8746,
      "컵": 8747,
      "컷": 8748,
      "컸": 8749,
      "케": 8750,
      "켄": 8751,
      "켓": 8752,
      "켜": 8753,
      "켠": 8754,
      "켰": 8755,
      "코": 8756,
      "콘": 8757,
      "콜": 8758,
      "콤": 8759,
      "콥": 8760,
      "콩": 8761,
      "콰": 8762,
      "쾌": 8763,
      "쾲": 8764,
      "쿄": 8765,
      "쿠": 8766,
      "쿨": 8767,
      "쿵": 8768,
      "쿼": 8769,
      "퀀": 8770,
      "퀄": 8771,
      "퀘": 8772,
      "퀴": 8773,
      "퀵": 8774,
      "퀸": 8775,
      "큇": 8776,
      "큐": 8777,
      "크": 8778,
      "큰": 8779,
      "클": 8780,
      "큼": 8781,
      "큽": 8782,
      "킄": 8783,
      "키": 8784,
      "킨": 8785,
      "킩": 8786,
      "킬": 8787,
      "킵": 8788,
      "킷": 8789,
      "킹": 8790,
      "타": 8791,
      "탁": 8792,
      "탄": 8793,
      "탈": 8794,
      "탐": 8795,
      "탑": 8796,
      "탓": 8797,
      "탕": 8798,
      "태": 8799,
      "택": 8800,
      "탠": 8801,
      "탬": 8802,
      "탭": 8803,
      "탱": 8804,
      "터": 8805,
      "턱": 8806,
      "턴": 8807,
      "털": 8808,
      "텀": 8809,
      "텅": 8810,
      "테": 8811,
      "텍": 8812,
      "텐": 8813,
      "텔": 8814,
      "템": 8815,
      "텝": 8816,
      "텟": 8817,
      "텨": 8818,
      "토": 8819,
      "톡": 8820,
      "톤": 8821,
      "톱": 8822,
      "통": 8823,
      "톻": 8824,
      "퇴": 8825,
      "투": 8826,
      "툰": 8827,
      "툴": 8828,
      "툼": 8829,
      "튀": 8830,
      "튜": 8831,
      "튬": 8832,
      "트": 8833,
      "특": 8834,
      "튼": 8835,
      "틀": 8836,
      "틈": 8837,
      "티": 8838,
      "틱": 8839,
      "틴": 8840,
      "틸": 8841,
      "팀": 8842,
      "팁": 8843,
      "팅": 8844,
      "파": 8845,
      "판": 8846,
      "팓": 8847,
      "팔": 8848,
      "팜": 8849,
      "팝": 8850,
      "팟": 8851,
      "팡": 8852,
      "패": 8853,
      "팩": 8854,
      "팬": 8855,
      "팻": 8856,
      "팽": 8857,
      "퍄": 8858,
      "퍼": 8859,
      "펀": 8860,
      "펐": 8861,
      "페": 8862,
      "펙": 8863,
      "펜": 8864,
      "펠": 8865,
      "펩": 8866,
      "펫": 8867,
      "펭": 8868,
      "펴": 8869,
      "편": 8870,
      "펼": 8871,
      "폈": 8872,
      "평": 8873,
      "폐": 8874,
      "포": 8875,
      "폭": 8876,
      "폰": 8877,
      "폴": 8878,
      "폼": 8879,
      "폿": 8880,
      "표": 8881,
      "푱": 8882,
      "푸": 8883,
      "푼": 8884,
      "풀": 8885,
      "품": 8886,
      "풍": 8887,
      "퓨": 8888,
      "퓰": 8889,
      "프": 8890,
      "픈": 8891,
      "플": 8892,
      "픔": 8893,
      "피": 8894,
      "픽": 8895,
      "핀": 8896,
      "필": 8897,
      "핑": 8898,
      "하": 8899,
      "학": 8900,
      "한": 8901,
      "할": 8902,
      "함": 8903,
      "합": 8904,
      "핫": 8905,
      "항": 8906,
      "해": 8907,
      "핵": 8908,
      "핸": 8909,
      "햇": 8910,
      "했": 8911,
      "행": 8912,
      "향": 8913,
      "허": 8914,
      "헉": 8915,
      "헌": 8916,
      "헐": 8917,
      "험": 8918,
      "헝": 8919,
      "헤": 8920,
      "헨": 8921,
      "헬": 8922,
      "헷": 8923,
      "혀": 8924,
      "혁": 8925,
      "현": 8926,
      "혈": 8927,
      "혐": 8928,
      "협": 8929,
      "혓": 8930,
      "혔": 8931,
      "형": 8932,
      "혜": 8933,
      "호": 8934,
      "혹": 8935,
      "혼": 8936,
      "홀": 8937,
      "홈": 8938,
      "홉": 8939,
      "홍": 8940,
      "화": 8941,
      "확": 8942,
      "환": 8943,
      "활": 8944,
      "황": 8945,
      "횃": 8946,
      "회": 8947,
      "획": 8948,
      "횟": 8949,
      "횡": 8950,
      "효": 8951,
      "후": 8952,
      "훅": 8953,
      "훈": 8954,
      "훋": 8955,
      "훌": 8956,
      "훔": 8957,
      "훗": 8958,
      "훨": 8959,
      "훼": 8960,
      "휘": 8961,
      "휴": 8962,
      "흉": 8963,
      "흐": 8964,
      "흑": 8965,
      "흔": 8966,
      "흘": 8967,
      "흙": 8968,
      "흠": 8969,
      "흡": 8970,
      "흥": 8971,
      "흫": 8972,
      "희": 8973,
      "흰": 8974,
      "히": 8975,
      "힌": 8976,
      "힐": 8977,
      "힘": 8978,
      "힙": 8979,
      "": 8980,
      "": 8981,
      "": 8982,
      "": 8983,
      "": 8984,
      "": 8985,
      "": 8986,
      "": 8987,
      "": 8988,
      "": 8989,
      "": 8990,
      "": 8991,
      "": 8992,
      "": 8993,
      "": 8994,
      "": 8995,
      "": 8996,
      "": 8997,
      "": 8998,
      "": 8999,
      "": 9000,
      "": 9001,
      "": 9002,
      "": 9003,
      "": 9004,
      "": 9005,
      "": 9006,
      "": 9007,
      "": 9008,
      "": 9009,
      "": 9010,
      "": 9011,
      "": 9012,
      "": 9013,
      "": 9014,
      "": 9015,
      "": 9016,
      "": 9017,
      "": 9018,
      "": 9019,
      "": 9020,
      "": 9021,
      "": 9022,
      "": 9023,
      "": 9024,
      "": 9025,
      "": 9026,
      "": 9027,
      "": 9028,
      "": 9029,
      "": 9030,
      "": 9031,
      "": 9032,
      "": 9033,
      "": 9034,
      "": 9035,
      "": 9036,
      "": 9037,
      "": 9038,
      "": 9039,
      "": 9040,
      "": 9041,
      "": 9042,
      "": 9043,
      "": 9044,
      "": 9045,
      "": 9046,
      "": 9047,
      "": 9048,
      "": 9049,
      "": 9050,
      "": 9051,
      "": 9052,
      "": 9053,
      "": 9054,
      "": 9055,
      "": 9056,
      "": 9057,
      "": 9058,
      "": 9059,
      "": 9060,
      "": 9061,
      "": 9062,
      "": 9063,
      "": 9064,
      "": 9065,
      "": 9066,
      "": 9067,
      "": 9068,
      "": 9069,
      "": 9070,
      "": 9071,
      "": 9072,
      "": 9073,
      "": 9074,
      "": 9075,
      "": 9076,
      "": 9077,
      "": 9078,
      "": 9079,
      "": 9080,
      "": 9081,
      "": 9082,
      "": 9083,
      "": 9084,
      "": 9085,
      "": 9086,
      "": 9087,
      "": 9088,
      "": 9089,
      "": 9090,
      "": 9091,
      "": 9092,
      "": 9093,
      "": 9094,
      "": 9095,
      "": 9096,
      "": 9097,
      "": 9098,
      "": 9099,
      "": 9100,
      "": 9101,
      "": 9102,
      "": 9103,
      "": 9104,
      "": 9105,
      "": 9106,
      "": 9107,
      "": 9108,
      "": 9109,
      "": 9110,
      "": 9111,
      "": 9112,
      "": 9113,
      "": 9114,
      "": 9115,
      "": 9116,
      "": 9117,
      "": 9118,
      "": 9119,
      "": 9120,
      "": 9121,
      "": 9122,
      "": 9123,
      "": 9124,
      "": 9125,
      "": 9126,
      "": 9127,
      "": 9128,
      "": 9129,
      "": 9130,
      "": 9131,
      "": 9132,
      "": 9133,
      "": 9134,
      "": 9135,
      "藍": 9136,
      "郎": 9137,
      "拾": 9138,
      "裡": 9139,
      "隣": 9140,
      "﨏": 9141,
      "﨟": 9142,
      "蘒": 9143,
      "ﬀ": 9144,
      "ﬁ": 9145,
      "ﬂ": 9146,
      "ﬃ": 9147,
      "ﯾ": 9148,
      "ﯿ": 9149,
      "﴾": 9150,
      "﴿": 9151,
      "ﷲ": 9152,
      "ﷺ": 9153,
      "﷽": 9154,
      "︀": 9155,
      "︎": 9156,
      "️": 9157,
      "︰": 9158,
      "︱": 9159,
      "︵": 9160,
      "﹁": 9161,
      "﹩": 9162,
      "﹪": 9163,
      "ﺄ": 9164,
      "ﺆ": 9165,
      "ﺈ": 9166,
      "ﺋ": 9167,
      "ﺌ": 9168,
      "ﺎ": 9169,
      "ﺐ": 9170,
      "ﺑ": 9171,
      "ﺒ": 9172,
      "ﺔ": 9173,
      "ﺗ": 9174,
      "ﺘ": 9175,
      "ﺛ": 9176,
      "ﺜ": 9177,
      "ﺟ": 9178,
      "ﺠ": 9179,
      "ﺢ": 9180,
      "ﺣ": 9181,
      "ﺤ": 9182,
      "ﺦ": 9183,
      "ﺧ": 9184,
      "ﺨ": 9185,
      "ﺪ": 9186,
      "ﺬ": 9187,
      "ﺮ": 9188,
      "ﺰ": 9189,
      "ﺲ": 9190,
      "ﺳ": 9191,
      "ﺴ": 9192,
      "ﺷ": 9193,
      "ﺸ": 9194,
      "ﺻ": 9195,
      "ﺼ": 9196,
      "ﺿ": 9197,
      "ﻀ": 9198,
      "ﻃ": 9199,
      "ﻄ": 9200,
      "ﻊ": 9201,
      "ﻋ": 9202,
      "ﻌ": 9203,
      "ﻎ": 9204,
      "ﻏ": 9205,
      "ﻒ": 9206,
      "ﻓ": 9207,
      "ﻔ": 9208,
      "ﻖ": 9209,
      "ﻗ": 9210,
      "ﻘ": 9211,
      "ﻚ": 9212,
      "ﻛ": 9213,
      "ﻜ": 9214,
      "ﻞ": 9215,
      "ﻟ": 9216,
      "ﻠ": 9217,
      "ﻢ": 9218,
      "ﻣ": 9219,
      "ﻤ": 9220,
      "ﻦ": 9221,
      "ﻧ": 9222,
      "ﻨ": 9223,
      "ﻪ": 9224,
      "ﻫ": 9225,
      "ﻬ": 9226,
      "ﻮ": 9227,
      "ﻰ": 9228,
      "ﻲ": 9229,
      "ﻵ": 9230,
      "ﻷ": 9231,
      "ﻻ": 9232,
      "ﻼ": 9233,
      "﻿": 9234,
      "！": 9235,
      "＂": 9236,
      "＃": 9237,
      "％": 9238,
      "＆": 9239,
      "（": 9240,
      "）": 9241,
      "＊": 9242,
      "＋": 9243,
      "，": 9244,
      "－": 9245,
      "．": 9246,
      "／": 9247,
      "０": 9248,
      "１": 9249,
      "２": 9250,
      "３": 9251,
      "４": 9252,
      "５": 9253,
      "６": 9254,
      "７": 9255,
      "８": 9256,
      "９": 9257,
      "：": 9258,
      "；": 9259,
      "＜": 9260,
      "＝": 9261,
      "＞": 9262,
      "？": 9263,
      "Ａ": 9264,
      "Ｃ": 9265,
      "Ｄ": 9266,
      "Ｅ": 9267,
      "Ｈ": 9268,
      "Ｉ": 9269,
      "Ｍ": 9270,
      "Ｏ": 9271,
      "Ｐ": 9272,
      "Ｓ": 9273,
      "Ｕ": 9274,
      "Ｖ": 9275,
      "Ｘ": 9276,
      "［": 9277,
      "＼": 9278,
      "］": 9279,
      "＾": 9280,
      "＿": 9281,
      "｀": 9282,
      "ａ": 9283,
      "ｂ": 9284,
      "ｃ": 9285,
      "ｄ": 9286,
      "ｅ": 9287,
      "ｆ": 9288,
      "ｇ": 9289,
      "ｈ": 9290,
      "ｉ": 9291,
      "ｊ": 9292,
      "ｋ": 9293,
      "ｌ": 9294,
      "ｍ": 9295,
      "ｎ": 9296,
      "ｏ": 9297,
      "ｐ": 9298,
      "ｒ": 9299,
      "ｓ": 9300,
      "ｔ": 9301,
      "ｕ": 9302,
      "ｖ": 9303,
      "ｗ": 9304,
      "ｘ": 9305,
      "ｙ": 9306,
      "ｚ": 9307,
      "｛": 9308,
      "｜": 9309,
      "｝": 9310,
      "～": 9311,
      "｡": 9312,
      "｢": 9313,
      "｣": 9314,
      "､": 9315,
      "･": 9316,
      "ｸ": 9317,
      "ﾄ": 9318,
      "ﾉ": 9319,
      "ﾎ": 9320,
      "ﾓ": 9321,
      "ﾘ": 9322,
      "ﾙ": 9323,
      "ﾝ": 9324,
      "ﾞ": 9325,
      "ﾟ": 9326,
      "ﾠ": 9327,
      "￡": 9328,
      "￣": 9329,
      "￥": 9330,
      "￦": 9331,
      "￼": 9332,
      "�": 9333,
      "￾": 9334,
      "￿": 9335,
      "𑱂": 9336,
      "𒋝": 9337,
      "𓃟": 9338,
      "𝄆": 9339,
      "𝄠": 9340,
      "𝅜": 9341,
      "𝅝": 9342,
      "𝅗𝅥": 9343,
      "𝅘𝅥": 9344,
      "𝅘𝅥𝅮": 9345,
      "𝅘𝅥𝅯": 9346,
      "𝅘𝅥𝅰": 9347,
      "𝐃": 9348,
      "𝐆": 9349,
      "𝐈": 9350,
      "𝐏": 9351,
      "𝐓": 9352,
      "𝐖": 9353,
      "𝐚": 9354,
      "𝐜": 9355,
      "𝐠": 9356,
      "𝐡": 9357,
      "𝐢": 9358,
      "𝐦": 9359,
      "𝐧": 9360,
      "𝐨": 9361,
      "𝐬": 9362,
      "𝐭": 9363,
      "𝐰": 9364,
      "𝐱": 9365,
      "𝐲": 9366,
      "𝐴": 9367,
      "𝐵": 9368,
      "𝐶": 9369,
      "𝐷": 9370,
      "𝐸": 9371,
      "𝐹": 9372,
      "𝐺": 9373,
      "𝐻": 9374,
      "𝐼": 9375,
      "𝐾": 9376,
      "𝐿": 9377,
      "𝑀": 9378,
      "𝑁": 9379,
      "𝑂": 9380,
      "𝑃": 9381,
      "𝑄": 9382,
      "𝑅": 9383,
      "𝑆": 9384,
      "𝑇": 9385,
      "𝑈": 9386,
      "𝑉": 9387,
      "𝑊": 9388,
      "𝑋": 9389,
      "𝑌": 9390,
      "𝑎": 9391,
      "𝑏": 9392,
      "𝑐": 9393,
      "𝑑": 9394,
      "𝑒": 9395,
      "𝑓": 9396,
      "𝑔": 9397,
      "𝑖": 9398,
      "𝑗": 9399,
      "𝑘": 9400,
      "𝑙": 9401,
      "𝑚": 9402,
      "𝑛": 9403,
      "𝑜": 9404,
      "𝑝": 9405,
      "𝑞": 9406,
      "𝑟": 9407,
      "𝑠": 9408,
      "𝑡": 9409,
      "𝑢": 9410,
      "𝑣": 9411,
      "𝑤": 9412,
      "𝑥": 9413,
      "𝑦": 9414,
      "𝑧": 9415,
      "𝑪": 9416,
      "𝑫": 9417,
      "𝑬": 9418,
      "𝑮": 9419,
      "𝑯": 9420,
      "𝑲": 9421,
      "𝑳": 9422,
      "𝑴": 9423,
      "𝑶": 9424,
      "𝑹": 9425,
      "𝒃": 9426,
      "𝒄": 9427,
      "𝒅": 9428,
      "𝒆": 9429,
      "𝒇": 9430,
      "𝒉": 9431,
      "𝒊": 9432,
      "𝒋": 9433,
      "𝒏": 9434,
      "𝒑": 9435,
      "𝒒": 9436,
      "𝒓": 9437,
      "𝒔": 9438,
      "𝒕": 9439,
      "𝒙": 9440,
      "𝒚": 9441,
      "𝒜": 9442,
      "𝒟": 9443,
      "𝒶": 9444,
      "𝒸": 9445,
      "𝒹": 9446,
      "𝒻": 9447,
      "𝒽": 9448,
      "𝒾": 9449,
      "𝓁": 9450,
      "𝓃": 9451,
      "𝓇": 9452,
      "𝓉": 9453,
      "𝓊": 9454,
      "𝓌": 9455,
      "𝓎": 9456,
      "𝓐": 9457,
      "𝓑": 9458,
      "𝓒": 9459,
      "𝓕": 9460,
      "𝓗": 9461,
      "𝓘": 9462,
      "𝓛": 9463,
      "𝓪": 9464,
      "𝓭": 9465,
      "𝓮": 9466,
      "𝓱": 9467,
      "𝓲": 9468,
      "𝓵": 9469,
      "𝓷": 9470,
      "𝓸": 9471,
      "𝓹": 9472,
      "𝓻": 9473,
      "𝓼": 9474,
      "𝓽": 9475,
      "𝓿": 9476,
      "𝔀": 9477,
      "𝔂": 9478,
      "𝔄": 9479,
      "𝔚": 9480,
      "𝔡": 9481,
      "𝔢": 9482,
      "𝔤": 9483,
      "𝔥": 9484,
      "𝔦": 9485,
      "𝔩": 9486,
      "𝔫": 9487,
      "𝔬": 9488,
      "𝔭": 9489,
      "𝔯": 9490,
      "𝔰": 9491,
      "𝔱": 9492,
      "𝔴": 9493,
      "𝔸": 9494,
      "𝔹": 9495,
      "𝔼": 9496,
      "𝕀": 9497,
      "𝕂": 9498,
      "𝕄": 9499,
      "𝕊": 9500,
      "𝕌": 9501,
      "𝕎": 9502,
      "𝕒": 9503,
      "𝕓": 9504,
      "𝕔": 9505,
      "𝕕": 9506,
      "𝕖": 9507,
      "𝕗": 9508,
      "𝕘": 9509,
      "𝕙": 9510,
      "𝕚": 9511,
      "𝕛": 9512,
      "𝕜": 9513,
      "𝕝": 9514,
      "𝕞": 9515,
      "𝕟": 9516,
      "𝕠": 9517,
      "𝕡": 9518,
      "𝕣": 9519,
      "𝕤": 9520,
      "𝕥": 9521,
      "𝕦": 9522,
      "𝕨": 9523,
      "𝕪": 9524,
      "𝕫": 9525,
      "𝖌": 9526,
      "𝗔": 9527,
      "𝗖": 9528,
      "𝗗": 9529,
      "𝗘": 9530,
      "𝗙": 9531,
      "𝗚": 9532,
      "𝗛": 9533,
      "𝗜": 9534,
      "𝗟": 9535,
      "𝗠": 9536,
      "𝗣": 9537,
      "𝗥": 9538,
      "𝗦": 9539,
      "𝗧": 9540,
      "𝗨": 9541,
      "𝗪": 9542,
      "𝗮": 9543,
      "𝗰": 9544,
      "𝗱": 9545,
      "𝗲": 9546,
      "𝗳": 9547,
      "𝗴": 9548,
      "𝗵": 9549,
      "𝗶": 9550,
      "𝗸": 9551,
      "𝗹": 9552,
      "𝗺": 9553,
      "𝗻": 9554,
      "𝗼": 9555,
      "𝗽": 9556,
      "𝗿": 9557,
      "𝘀": 9558,
      "𝘁": 9559,
      "𝘂": 9560,
      "𝘅": 9561,
      "𝘆": 9562,
      "𝙈": 9563,
      "𝙑": 9564,
      "𝙖": 9565,
      "𝙙": 9566,
      "𝙞": 9567,
      "𝙠": 9568,
      "𝙡": 9569,
      "𝙨": 9570,
      "𝙩": 9571,
      "𝙪": 9572,
      "𝙫": 9573,
      "𝙰": 9574,
      "𝙷": 9575,
      "𝙸": 9576,
      "𝙿": 9577,
      "𝚄": 9578,
      "𝚆": 9579,
      "𝚇": 9580,
      "𝚊": 9581,
      "𝚋": 9582,
      "𝚌": 9583,
      "𝚍": 9584,
      "𝚎": 9585,
      "𝚏": 9586,
      "𝚐": 9587,
      "𝚑": 9588,
      "𝚒": 9589,
      "𝚔": 9590,
      "𝚕": 9591,
      "𝚗": 9592,
      "𝚘": 9593,
      "𝚙": 9594,
      "𝚛": 9595,
      "𝚜": 9596,
      "𝚝": 9597,
      "𝚞": 9598,
      "𝚟": 9599,
      "𝚠": 9600,
      "𝚢": 9601,
      "𝚫": 9602,
      "𝛼": 9603,
      "𝛽": 9604,
      "𝜀": 9605,
      "𝜂": 9606,
      "𝜃": 9607,
      "𝜇": 9608,
      "𝜉": 9609,
      "𝜋": 9610,
      "𝜌": 9611,
      "𝜎": 9612,
      "𝜏": 9613,
      "𝜓": 9614,
      "𝜔": 9615,
      "𝝐": 9616,
      "𝝰": 9617,
      "𝟎": 9618,
      "𝟏": 9619,
      "𝟐": 9620,
      "𝟑": 9621,
      "𝟒": 9622,
      "𝟓": 9623,
      "𝟔": 9624,
      "𝟕": 9625,
      "𝟖": 9626,
      "𝟗": 9627,
      "𝟘": 9628,
      "𝟙": 9629,
      "𝟛": 9630,
      "𝟝": 9631,
      "𝟞": 9632,
      "𝟟": 9633,
      "𝟡": 9634,
      "🃏": 9635,
      "🄰": 9636,
      "🄲": 9637,
      "🄴": 9638,
      "🄶": 9639,
      "🄷": 9640,
      "🄸": 9641,
      "🄻": 9642,
      "🄽": 9643,
      "🄾": 9644,
      "🄿": 9645,
      "🅁": 9646,
      "🅂": 9647,
      "🅃": 9648,
      "🅄": 9649,
      "🅈": 9650,
      "🅰": 9651,
      "🆇": 9652,
      "🆎": 9653,
      "🆓": 9654,
      "🆔": 9655,
      "🆕": 9656,
      "🆗": 9657,
      "🆘": 9658,
      "🆙": 9659,
      "🆚": 9660,
      "🇦": 9661,
      "🇧": 9662,
      "🇨": 9663,
      "🇩": 9664,
      "🇪": 9665,
      "🇫": 9666,
      "🇬": 9667,
      "🇭": 9668,
      "🇮": 9669,
      "🇰": 9670,
      "🇱": 9671,
      "🇲": 9672,
      "🇳": 9673,
      "🇴": 9674,
      "🇵": 9675,
      "🇷": 9676,
      "🇸": 9677,
      "🇹": 9678,
      "🇺": 9679,
      "🇻": 9680,
      "🇾": 9681,
      "🇿": 9682,
      "🉑": 9683,
      "🌀": 9684,
      "🌅": 9685,
      "🌆": 9686,
      "🌈": 9687,
      "🌊": 9688,
      "🌋": 9689,
      "🌌": 9690,
      "🌍": 9691,
      "🌎": 9692,
      "🌏": 9693,
      "🌐": 9694,
      "🌑": 9695,
      "🌙": 9696,
      "🌚": 9697,
      "🌝": 9698,
      "🌞": 9699,
      "🌟": 9700,
      "🌠": 9701,
      "🌡": 9702,
      "🌤": 9703,
      "🌥": 9704,
      "🌧": 9705,
      "🌩": 9706,
      "🌪": 9707,
      "🌫": 9708,
      "🌭": 9709,
      "🌮": 9710,
      "🌱": 9711,
      "🌲": 9712,
      "🌳": 9713,
      "🌴": 9714,
      "🌵": 9715,
      "🌶": 9716,
      "🌷": 9717,
      "🌸": 9718,
      "🌹": 9719,
      "🌺": 9720,
      "🌻": 9721,
      "🌼": 9722,
      "🌽": 9723,
      "🌾": 9724,
      "🌿": 9725,
      "🍀": 9726,
      "🍁": 9727,
      "🍂": 9728,
      "🍃": 9729,
      "🍄": 9730,
      "🍅": 9731,
      "🍆": 9732,
      "🍉": 9733,
      "🍊": 9734,
      "🍋": 9735,
      "🍍": 9736,
      "🍎": 9737,
      "🍑": 9738,
      "🍒": 9739,
      "🍓": 9740,
      "🍔": 9741,
      "🍕": 9742,
      "🍖": 9743,
      "🍞": 9744,
      "🍟": 9745,
      "🍦": 9746,
      "🍫": 9747,
      "🍬": 9748,
      "🍯": 9749,
      "🍰": 9750,
      "🍲": 9751,
      "🍳": 9752,
      "🍴": 9753,
      "🍵": 9754,
      "🍶": 9755,
      "🍷": 9756,
      "🍸": 9757,
      "🍹": 9758,
      "🍺": 9759,
      "🍻": 9760,
      "🍽": 9761,
      "🍾": 9762,
      "🍿": 9763,
      "🎀": 9764,
      "🎁": 9765,
      "🎂": 9766,
      "🎃": 9767,
      "🎄": 9768,
      "🎆": 9769,
      "🎇": 9770,
      "🎈": 9771,
      "🎉": 9772,
      "🎊": 9773,
      "🎓": 9774,
      "🎖": 9775,
      "🎗": 9776,
      "🎙": 9777,
      "🎛": 9778,
      "🎟": 9779,
      "🎤": 9780,
      "🎥": 9781,
      "🎧": 9782,
      "🎨": 9783,
      "🎩": 9784,
      "🎬": 9785,
      "🎭": 9786,
      "🎮": 9787,
      "🎯": 9788,
      "🎱": 9789,
      "🎲": 9790,
      "🎴": 9791,
      "🎵": 9792,
      "🎶": 9793,
      "🎸": 9794,
      "🎻": 9795,
      "🎾": 9796,
      "🏀": 9797,
      "🏁": 9798,
      "🏂": 9799,
      "🏃": 9800,
      "🏅": 9801,
      "🏆": 9802,
      "🏊": 9803,
      "🏋": 9804,
      "🏍": 9805,
      "🏐": 9806,
      "🏒": 9807,
      "🏓": 9808,
      "🏔": 9809,
      "🏖": 9810,
      "🏙": 9811,
      "🏚": 9812,
      "🏛": 9813,
      "🏜": 9814,
      "🏝": 9815,
      "🏞": 9816,
      "🏠": 9817,
      "🏡": 9818,
      "🏣": 9819,
      "🏥": 9820,
      "🏦": 9821,
      "🏪": 9822,
      "🏫": 9823,
      "🏭": 9824,
      "🏰": 9825,
      "🏳": 9826,
      "🏷": 9827,
      "🏻": 9828,
      "🏼": 9829,
      "🏽": 9830,
      "🏾": 9831,
      "🏿": 9832,
      "🐀": 9833,
      "🐂": 9834,
      "🐄": 9835,
      "🐅": 9836,
      "🐆": 9837,
      "🐇": 9838,
      "🐈": 9839,
      "🐉": 9840,
      "🐋": 9841,
      "🐎": 9842,
      "🐒": 9843,
      "🐓": 9844,
      "🐔": 9845,
      "🐕": 9846,
      "🐘": 9847,
      "🐙": 9848,
      "🐛": 9849,
      "🐜": 9850,
      "🐝": 9851,
      "🐞": 9852,
      "🐟": 9853,
      "🐠": 9854,
      "🐢": 9855,
      "🐣": 9856,
      "🐤": 9857,
      "🐥": 9858,
      "🐦": 9859,
      "🐧": 9860,
      "🐨": 9861,
      "🐩": 9862,
      "🐫": 9863,
      "🐬": 9864,
      "🐭": 9865,
      "🐮": 9866,
      "🐰": 9867,
      "🐱": 9868,
      "🐳": 9869,
      "🐵": 9870,
      "🐶": 9871,
      "🐷": 9872,
      "🐸": 9873,
      "🐺": 9874,
      "🐻": 9875,
      "🐾": 9876,
      "🐿": 9877,
      "👀": 9878,
      "👁": 9879,
      "👂": 9880,
      "👃": 9881,
      "👄": 9882,
      "👅": 9883,
      "👇": 9884,
      "👈": 9885,
      "👉": 9886,
      "👊": 9887,
      "👋": 9888,
      "👌": 9889,
      "👍": 9890,
      "👎": 9891,
      "👏": 9892,
      "👑": 9893,
      "👒": 9894,
      "👓": 9895,
      "👕": 9896,
      "👗": 9897,
      "👙": 9898,
      "👠": 9899,
      "👣": 9900,
      "👤": 9901,
      "👥": 9902,
      "👦": 9903,
      "👧": 9904,
      "👨": 9905,
      "👩": 9906,
      "👪": 9907,
      "👫": 9908,
      "👬": 9909,
      "👭": 9910,
      "👮": 9911,
      "👰": 9912,
      "👱": 9913,
      "👴": 9914,
      "👶": 9915,
      "👷": 9916,
      "👹": 9917,
      "👺": 9918,
      "👻": 9919,
      "👼": 9920,
      "👽": 9921,
      "👾": 9922,
      "👿": 9923,
      "💀": 9924,
      "💁": 9925,
      "💂": 9926,
      "💃": 9927,
      "💄": 9928,
      "💅": 9929,
      "💆": 9930,
      "💇": 9931,
      "💉": 9932,
      "💊": 9933,
      "💋": 9934,
      "💌": 9935,
      "💍": 9936,
      "💎": 9937,
      "💏": 9938,
      "💐": 9939,
      "💑": 9940,
      "💓": 9941,
      "💔": 9942,
      "💕": 9943,
      "💖": 9944,
      "💗": 9945,
      "💘": 9946,
      "💙": 9947,
      "💚": 9948,
      "💛": 9949,
      "💜": 9950,
      "💝": 9951,
      "💞": 9952,
      "💟": 9953,
      "💠": 9954,
      "💡": 9955,
      "💢": 9956,
      "💣": 9957,
      "💤": 9958,
      "💥": 9959,
      "💦": 9960,
      "💧": 9961,
      "💨": 9962,
      "💩": 9963,
      "💪": 9964,
      "💫": 9965,
      "💬": 9966,
      "💭": 9967,
      "💯": 9968,
      "💰": 9969,
      "💳": 9970,
      "💵": 9971,
      "💸": 9972,
      "💻": 9973,
      "💼": 9974,
      "💾": 9975,
      "📁": 9976,
      "📂": 9977,
      "📃": 9978,
      "📄": 9979,
      "📅": 9980,
      "📆": 9981,
      "📈": 9982,
      "📉": 9983,
      "📊": 9984,
      "📋": 9985,
      "📌": 9986,
      "📍": 9987,
      "📎": 9988,
      "📏": 9989,
      "📐": 9990,
      "📑": 9991,
      "📔": 9992,
      "📕": 9993,
      "📖": 9994,
      "📗": 9995,
      "📘": 9996,
      "📚": 9997,
      "📛": 9998,
      "📜": 9999,
      "📝": 10000,
      "📞": 10001,
      "📟": 10002,
      "📡": 10003,
      "📢": 10004,
      "📣": 10005,
      "📤": 10006,
      "📥": 10007,
      "📦": 10008,
      "📧": 10009,
      "📨": 10010,
      "📩": 10011,
      "📬": 10012,
      "📭": 10013,
      "📯": 10014,
      "📱": 10015,
      "📲": 10016,
      "📶": 10017,
      "📷": 10018,
      "📸": 10019,
      "📹": 10020,
      "📺": 10021,
      "🔀": 10022,
      "🔁": 10023,
      "🔄": 10024,
      "🔅": 10025,
      "🔊": 10026,
      "🔋": 10027,
      "🔍": 10028,
      "🔎": 10029,
      "🔏": 10030,
      "🔐": 10031,
      "🔑": 10032,
      "🔒": 10033,
      "🔓": 10034,
      "🔔": 10035,
      "🔕": 10036,
      "🔖": 10037,
      "🔗": 10038,
      "🔘": 10039,
      "🔚": 10040,
      "🔜": 10041,
      "🔝": 10042,
      "🔞": 10043,
      "🔟": 10044,
      "🔠": 10045,
      "🔡": 10046,
      "🔢": 10047,
      "🔥": 10048,
      "🔦": 10049,
      "🔧": 10050,
      "🔨": 10051,
      "🔩": 10052,
      "🔪": 10053,
      "🔫": 10054,
      "🔬": 10055,
      "🔮": 10056,
      "🔳": 10057,
      "🔴": 10058,
      "🔵": 10059,
      "🔶": 10060,
      "🔷": 10061,
      "🔸": 10062,
      "🔹": 10063,
      "🔺": 10064,
      "🔻": 10065,
      "🕊": 10066,
      "🕒": 10067,
      "🕖": 10068,
      "🕙": 10069,
      "🕯": 10070,
      "🕰": 10071,
      "🕳": 10072,
      "🕵": 10073,
      "🕸": 10074,
      "🕹": 10075,
      "🖊": 10076,
      "🖋": 10077,
      "🖍": 10078,
      "🖐": 10079,
      "🖕": 10080,
      "🖤": 10081,
      "🖥": 10082,
      "🖱": 10083,
      "🖼": 10084,
      "🗂": 10085,
      "🗃": 10086,
      "🗑": 10087,
      "🗓": 10088,
      "🗝": 10089,
      "🗡": 10090,
      "🗣": 10091,
      "🗨": 10092,
      "🗺": 10093,
      "🗽": 10094,
      "🗿": 10095,
      "😀": 10096,
      "😁": 10097,
      "😂": 10098,
      "😃": 10099,
      "😄": 10100,
      "😅": 10101,
      "😆": 10102,
      "😇": 10103,
      "😈": 10104,
      "😉": 10105,
      "😊": 10106,
      "😋": 10107,
      "😌": 10108,
      "😍": 10109,
      "😎": 10110,
      "😏": 10111,
      "😐": 10112,
      "😑": 10113,
      "😒": 10114,
      "😓": 10115,
      "😔": 10116,
      "😕": 10117,
      "😗": 10118,
      "😘": 10119,
      "😙": 10120,
      "😚": 10121,
      "😛": 10122,
      "😜": 10123,
      "😝": 10124,
      "😞": 10125,
      "😟": 10126,
      "😠": 10127,
      "😡": 10128,
      "😢": 10129,
      "😣": 10130,
      "😤": 10131,
      "😥": 10132,
      "😨": 10133,
      "😩": 10134,
      "😪": 10135,
      "😫": 10136,
      "😬": 10137,
      "😭": 10138,
      "😮": 10139,
      "😰": 10140,
      "😱": 10141,
      "😲": 10142,
      "😳": 10143,
      "😴": 10144,
      "😵": 10145,
      "😶": 10146,
      "😷": 10147,
      "😹": 10148,
      "😺": 10149,
      "😻": 10150,
      "😼": 10151,
      "🙀": 10152,
      "🙁": 10153,
      "🙂": 10154,
      "🙃": 10155,
      "🙄": 10156,
      "🙅": 10157,
      "🙆": 10158,
      "🙇": 10159,
      "🙈": 10160,
      "🙊": 10161,
      "🙋": 10162,
      "🙌": 10163,
      "🙎": 10164,
      "🙏": 10165,
      "🙦": 10166,
      "🚀": 10167,
      "🚂": 10168,
      "🚄": 10169,
      "🚏": 10170,
      "🚑": 10171,
      "🚗": 10172,
      "🚙": 10173,
      "🚚": 10174,
      "🚛": 10175,
      "🚜": 10176,
      "🚠": 10177,
      "🚢": 10178,
      "🚧": 10179,
      "🚨": 10180,
      "🚩": 10181,
      "🚪": 10182,
      "🚫": 10183,
      "🚬": 10184,
      "🚮": 10185,
      "🚰": 10186,
      "🚴": 10187,
      "🚶": 10188,
      "🚷": 10189,
      "🚼": 10190,
      "🚿": 10191,
      "🛀": 10192,
      "🛁": 10193,
      "🛋": 10194,
      "🛌": 10195,
      "🛍": 10196,
      "🛑": 10197,
      "🛠": 10198,
      "🛡": 10199,
      "🛢": 10200,
      "🛫": 10201,
      "🛰": 10202,
      "🛵": 10203,
      "🛹": 10204,
      "🟠": 10205,
      "🟡": 10206,
      "🟢": 10207,
      "🟣": 10208,
      "🟥": 10209,
      "🟦": 10210,
      "🟩": 10211,
      "🡪": 10212,
      "🤌": 10213,
      "🤍": 10214,
      "🤐": 10215,
      "🤑": 10216,
      "🤓": 10217,
      "🤔": 10218,
      "🤕": 10219,
      "🤖": 10220,
      "🤗": 10221,
      "🤘": 10222,
      "🤙": 10223,
      "🤚": 10224,
      "🤝": 10225,
      "🤞": 10226,
      "🤟": 10227,
      "🤠": 10228,
      "🤡": 10229,
      "🤢": 10230,
      "🤣": 10231,
      "🤤": 10232,
      "🤥": 10233,
      "🤦": 10234,
      "🤨": 10235,
      "🤩": 10236,
      "🤪": 10237,
      "🤫": 10238,
      "🤬": 10239,
      "🤭": 10240,
      "🤮": 10241,
      "🤯": 10242,
      "🤰": 10243,
      "🤱": 10244,
      "🤲": 10245,
      "🤴": 10246,
      "🤵": 10247,
      "🤷": 10248,
      "🤸": 10249,
      "🤼": 10250,
      "🤿": 10251,
      "🥀": 10252,
      "🥁": 10253,
      "🥂": 10254,
      "🥃": 10255,
      "🥇": 10256,
      "🥈": 10257,
      "🥉": 10258,
      "🥊": 10259,
      "🥔": 10260,
      "🥗": 10261,
      "🥜": 10262,
      "🥞": 10263,
      "🥣": 10264,
      "🥤": 10265,
      "🥩": 10266,
      "🥭": 10267,
      "🥰": 10268,
      "🥱": 10269,
      "🥲": 10270,
      "🥳": 10271,
      "🥴": 10272,
      "🥵": 10273,
      "🥶": 10274,
      "🥸": 10275,
      "🥹": 10276,
      "🥺": 10277,
      "🦁": 10278,
      "🦄": 10279,
      "🦆": 10280,
      "🦇": 10281,
      "🦈": 10282,
      "🦉": 10283,
      "🦊": 10284,
      "🦋": 10285,
      "🦌": 10286,
      "🦎": 10287,
      "🦑": 10288,
      "🦙": 10289,
      "🦜": 10290,
      "🦠": 10291,
      "🦤": 10292,
      "🦩": 10293,
      "🦯": 10294,
      "🦰": 10295,
      "🦳": 10296,
      "🦴": 10297,
      "🦶": 10298,
      "🦷": 10299,
      "🦹": 10300,
      "🧀": 10301,
      "🧅": 10302,
      "🧊": 10303,
      "🧐": 10304,
      "🧑": 10305,
      "🧖": 10306,
      "🧗": 10307,
      "🧘": 10308,
      "🧙": 10309,
      "🧚": 10310,
      "🧛": 10311,
      "🧜": 10312,
      "🧟": 10313,
      "🧠": 10314,
      "🧡": 10315,
      "🧢": 10316,
      "🧤": 10317,
      "🧦": 10318,
      "🧨": 10319,
      "🧩": 10320,
      "🧪": 10321,
      "🧬": 10322,
      "🧭": 10323,
      "🧲": 10324,
      "🧵": 10325,
      "🧶": 10326,
      "🧸": 10327,
      "🧼": 10328,
      "🧽": 10329,
      "🧿": 10330,
      "🩲": 10331,
      "🩵": 10332,
      "🩸": 10333,
      "🪄": 10334,
      "🪅": 10335,
      "🪐": 10336,
      "🪑": 10337,
      "🪖": 10338,
      "🪙": 10339,
      "🪛": 10340,
      "🪢": 10341,
      "🪧": 10342,
      "🪨": 10343,
      "🪩": 10344,
      "🪬": 10345,
      "🪵": 10346,
      "🪶": 10347,
      "🫠": 10348,
      "🫡": 10349,
      "🫢": 10350,
      "🫣": 10351,
      "🫦": 10352,
      "🫧": 10353,
      "🫰": 10354,
      "🫶": 10355,
      "𣌷": 10356,
      "𤢖": 10357,
      "񂾁": 10358,
      "􀀀": 10359,
      "􀀃": 10360,
      "􀀊": 10361,
      "􀀋": 10362,
      "􀀌": 10363,
      "􀀏": 10364,
      "􀀐": 10365,
      "􀀕": 10366,
      "􀀗": 10367,
      "􀀞": 10368,
      "􀀟": 10369,
      "􀀠": 10370,
      "􀀡": 10371,
      "􀀢": 10372,
      "􀀤": 10373,
      "􀀥": 10374,
      "􀀦": 10375,
      "􀀩": 10376,
      "􀀫": 10377,
      "􀀬": 10378,
      "􀀯": 10379,
      "􀀰": 10380,
      "􀀱": 10381,
      "􀀲": 10382,
      "􀀶": 10383,
      "􀀸": 10384,
      "􀁄": 10385,
      "􀁅": 10386,
      "􀁆": 10387,
      "􀁇": 10388,
      "􀁈": 10389,
      "􀁉": 10390,
      "􀁊": 10391,
      "􀁋": 10392,
      "􀁌": 10393,
      "􀁏": 10394,
      "􀁐": 10395,
      "􀁑": 10396,
      "􀁒": 10397,
      "􀁓": 10398,
      "􀁔": 10399,
      "􀁕": 10400,
      "􀁖": 10401,
      "􀁗": 10402,
      "􀁘": 10403,
      "􀁙": 10404,
      "􀁛": 10405,
      "􀁜": 10406,
      "􀁪": 10407,
      "􀁰": 10408,
      "􀁱": 10409,
      "􀂌": 10410,
      "􀂷": 10411,
      "􀋔": 10412,
      "􀋗": 10413,
      "􀋘": 10414,
      "􀋚": 10415,
      "􀋜": 10416,
      "􀋟": 10417,
      "􀋠": 10418,
      "􀋡": 10419,
      "􀋣": 10420,
      "􀋤": 10421,
      "􀋥": 10422,
      "􀋦": 10423,
      "􀋧": 10424,
      "􀋨": 10425,
      "􀏠": 10426,
      "􏰄": 10427,
      "􏰅": 10428,
      "􏰊": 10429,
      "􏿿": 10430,
      " t": 10431,
      " a": 10432,
      "in": 10433,
      "he": 10434,
      "on": 10435,
      "  ": 10436,
      "re": 10437,
      "er": 10438,
      " s": 10439,
      "en": 10440,
      "at": 10441,
      " the": 10442,
      " c": 10443,
      "or": 10444,
      "ou": 10445,
      "es": 10446,
      " w": 10447,
      "an": 10448,
      "it": 10449,
      "is": 10450,
      " p": 10451,
      " d": 10452,
      " an": 10453,
      " m": 10454,
      " f": 10455,
      "ing": 10456,
      " b": 10457,
      "al": 10458,
      " in": 10459,
      "le": 10460,
      " o": 10461,
      "ar": 10462,
      "ion": 10463,
      "    ": 10464,
      " to": 10465,
      "ic": 10466,
      "as": 10467,
      "ed": 10468,
      "om": 10469,
      " and": 10470,
      "ent": 10471,
      " n": 10472,
      " e": 10473,
      " of": 10474,
      "st": 10475,
      " y": 10476,
      " h": 10477,
      "ct": 10478,
      " l": 10479,
      "el": 10480,
      " re": 10481,
      "ro": 10482,
      " you": 10483,
      " th": 10484,
      "ME": 10485,
      "NA": 10486,
      "NAME": 10487,
      "NAME_": 10488,
      "et": 10489,
      "ow": 10490,
      "ve": 10491,
      " u": 10492,
      "il": 10493,
      " g": 10494,
      " is": 10495,
      "am": 10496,
      " I": 10497,
      " NAME_": 10498,
      "ot": 10499,
      "id": 10500,
      "ol": 10501,
      "im": 10502,
      "\n\n": 10503,
      "ut": 10504,
      " on": 10505,
      " for": 10506,
      "ay": 10507,
      "ch": 10508,
      "se": 10509,
      "ly": 10510,
      " A": 10511,
      "qu": 10512,
      "ith": 10513,
      " \"": 10514,
      "ation": 10515,
      "        ": 10516,
      "ad": 10517,
      "ce": 10518,
      " st": 10519,
      "ri": 10520,
      " T": 10521,
      "od": 10522,
      " with": 10523,
      " be": 10524,
      "um": 10525,
      " con": 10526,
      " de": 10527,
      " as": 10528,
      "ist": 10529,
      "ver": 10530,
      " S": 10531,
      "ra": 10532,
      "est": 10533,
      "ate": 10534,
      " com": 10535,
      " C": 10536,
      "ig": 10537,
      "if": 10538,
      "ag": 10539,
      "em": 10540,
      "ul": 10541,
      "ir": 10542,
      "ant": 10543,
      "out": 10544,
      "ur": 10545,
      " wh": 10546,
      " 1": 10547,
      " that": 10548,
      " pro": 10549,
      "os": 10550,
      " he": 10551,
      " are": 10552,
      " ex": 10553,
      "pe": 10554,
      " it": 10555,
      " al": 10556,
      "un": 10557,
      "ke": 10558,
      " (": 10559,
      "pt": 10560,
      " v": 10561,
      " NAME_1": 10562,
      "00": 10563,
      "ive": 10564,
      "ers": 10565,
      "pl": 10566,
      "ex": 10567,
      " do": 10568,
      " or": 10569,
      "sw": 10570,
      " me": 10571,
      "us": 10572,
      "ld": 10573,
      "ab": 10574,
      " 2": 10575,
      "ction": 10576,
      "rom": 10577,
      " qu": 10578,
      " P": 10579,
      "ple": 10580,
      "ter": 10581,
      " un": 10582,
      "swer": 10583,
      "ust": 10584,
      "ess": 10585,
      "ac": 10586,
      " D": 10587,
      "res": 10588,
      " W": 10589,
      "th": 10590,
      "ill": 10591,
      "ame": 10592,
      "and": 10593,
      "end": 10594,
      " sh": 10595,
      "ite": 10596,
      " ha": 10597,
      " ab": 10598,
      "ore": 10599,
      "iv": 10600,
      " se": 10601,
      " answer": 10602,
      " your": 10603,
      " not": 10604,
      " ch": 10605,
      " M": 10606,
      " wor": 10607,
      "our": 10608,
      "ext": 10609,
      " ne": 10610,
      "oc": 10611,
      "her": 10612,
      " can": 10613,
      "ould": 10614,
      " H": 10615,
      " su": 10616,
      "low": 10617,
      "ort": 10618,
      " B": 10619,
      "ain": 10620,
      "ru": 10621,
      "ment": 10622,
      "ere": 10623,
      "nt": 10624,
      " E": 10625,
      " le": 10626,
      "art": 10627,
      "ht": 10628,
      " The": 10629,
      "ity": 10630,
      "ell": 10631,
      "--": 10632,
      "ine": 10633,
      "per": 10634,
      "ie": 10635,
      "age": 10636,
      " k": 10637,
      " from": 10638,
      " us": 10639,
      "ds": 10640,
      " have": 10641,
      " at": 10642,
      " this": 10643,
      " r": 10644,
      " R": 10645,
      "You": 10646,
      "ase": 10647,
      " en": 10648,
      " F": 10649,
      "pp": 10650,
      " j": 10651,
      "\n        ": 10652,
      "act": 10653,
      " N": 10654,
      " cont": 10655,
      "orm": 10656,
      " by": 10657,
      "ang": 10658,
      "iz": 10659,
      " res": 10660,
      " about": 10661,
      "hat": 10662,
      " L": 10663,
      " int": 10664,
      "put": 10665,
      "ies": 10666,
      "rite": 10667,
      "ud": 10668,
      "nd": 10669,
      "ure": 10670,
      "sist": 10671,
      "og": 10672,
      "ide": 10673,
      "ial": 10674,
      " will": 10675,
      " NAME_2": 10676,
      " =": 10677,
      "ical": 10678,
      "cri": 10679,
      " G": 10680,
      " des": 10681,
      "..": 10682,
      "hen": 10683,
      " O": 10684,
      " we": 10685,
      "\n    ": 10686,
      " ma": 10687,
      " im": 10688,
      " what": 10689,
      " pl": 10690,
      " '": 10691,
      "ect": 10692,
      "ue": 10693,
      " ar": 10694,
      " som": 10695,
      "\",": 10696,
      " п": 10697,
      "ich": 10698,
      "pon": 10699,
      "are": 10700,
      " was": 10701,
      "ions": 10702,
      "form": 10703,
      " out": 10704,
      "all": 10705,
      " her": 10706,
      " fol": 10707,
      "ia": 10708,
      " my": 10709,
      " 3": 10710,
      " li": 10711,
      " -": 10712,
      "du": 10713,
      " only": 10714,
      "ry": 10715,
      "op": 10716,
      "ile": 10717,
      " follow": 10718,
      "able": 10719,
      " ad": 10720,
      "ost": 10721,
      "ep": 10722,
      "ual": 10723,
      " say": 10724,
      " 5": 10725,
      " go": 10726,
      "ind": 10727,
      "ary": 10728,
      "king": 10729,
      "ast": 10730,
      " comple": 10731,
      " cl": 10732,
      " any": 10733,
      "yst": 10734,
      "ence": 10735,
      " \n": 10736,
      "ans": 10737,
      "ode": 10738,
      " U": 10739,
      "ст": 10740,
      "cl": 10741,
      "ire": 10742,
      " text": 10743,
      "\":": 10744,
      "ased": 10745,
      "stru": 10746,
      "ice": 10747,
      "ks": 10748,
      "ctions": 10749,
      "der": 10750,
      " if": 10751,
      " complet": 10752,
      "ass": 10753,
      "ystem": 10754,
      " mod": 10755,
      "ther": 10756,
      " more": 10757,
      "ory": 10758,
      "ib": 10759,
      " words": 10760,
      "sistant": 10761,
      "cc": 10762,
      " la": 10763,
      " no": 10764,
      "one": 10765,
      "ong": 10766,
      "ach": 10767,
      " so": 10768,
      " all": 10769,
      "oo": 10770,
      " has": 10771,
      "ult": 10772,
      "ip": 10773,
      " but": 10774,
      "ces": 10775,
      "ack": 10776,
      " should": 10777,
      "ight": 10778,
      " sent": 10779,
      "ge": 10780,
      "ime": 10781,
      " You": 10782,
      "ous": 10783,
      "int": 10784,
      " following": 10785,
      "ber": 10786,
      "con": 10787,
      "ated": 10788,
      " с": 10789,
      " per": 10790,
      "ap": 10791,
      "ff": 10792,
      " comp": 10793,
      " в": 10794,
      "lease": 10795,
      "ear": 10796,
      "cript": 10797,
      "ens": 10798,
      " em": 10799,
      " [": 10800,
      "на": 10801,
      " how": 10802,
      "ance": 10803,
      " like": 10804,
      " par": 10805,
      " man": 10806,
      " In": 10807,
      " i": 10808,
      "now": 10809,
      " one": 10810,
      " must": 10811,
      "ations": 10812,
      "ни": 10813,
      "estion": 10814,
      " system": 10815,
      "eth": 10816,
      " que": 10817,
      "ak": 10818,
      "com": 10819,
      " pre": 10820,
      "ail": 10821,
      "port": 10822,
      "ener": 10823,
      " ro": 10824,
      " based": 10825,
      " when": 10826,
      "ard": 10827,
      " sc": 10828,
      "ata": 10829,
      " same": 10830,
      "vel": 10831,
      "но": 10832,
      " bel": 10833,
      "\t\t": 10834,
      "ating": 10835,
      " 20": 10836,
      " tr": 10837,
      "NAME_1": 10838,
      " up": 10839,
      "The": 10840,
      " instru": 10841,
      "ра": 10842,
      "ient": 10843,
      "yth": 10844,
      "av": 10845,
      " model": 10846,
      "ress": 10847,
      " 0": 10848,
      " respon": 10849,
      "umm": 10850,
      "то": 10851,
      "ро": 10852,
      "ument": 10853,
      " te": 10854,
      "so": 10855,
      " 4": 10856,
      " che": 10857,
      "ign": 10858,
      "ound": 10859,
      "ко": 10860,
      " which": 10861,
      "elf": 10862,
      " than": 10863,
      "##": 10864,
      "oug": 10865,
      " am": 10866,
      " prov": 10867,
      " det": 10868,
      " fe": 10869,
      " ver": 10870,
      "20": 10871,
      " know": 10872,
      " и": 10873,
      " ev": 10874,
      "',": 10875,
      " J": 10876,
      "ject": 10877,
      " use": 10878,
      " some": 10879,
      " dis": 10880,
      " other": 10881,
      " their": 10882,
      " spe": 10883,
      " want": 10884,
      "ont": 10885,
      " his": 10886,
      "erson": 10887,
      "ount": 10888,
      "gr": 10889,
      "ub": 10890,
      " form": 10891,
      " о": 10892,
      " {": 10893,
      " they": 10894,
      "ll": 10895,
      " NAME_3": 10896,
      " she": 10897,
      "ace": 10898,
      " instructions": 10899,
      " who": 10900,
      " assistant": 10901,
      " code": 10902,
      " exam": 10903,
      "ific": 10904,
      "ython": 10905,
      " V": 10906,
      " need": 10907,
      "----": 10908,
      "ne": 10909,
      "ove": 10910,
      " inform": 10911,
      "ely": 10912,
      " expl": 10913,
      "au": 10914,
      " cre": 10915,
      " ind": 10916,
      " would": 10917,
      " pr": 10918,
      "we": 10919,
      " |": 10920,
      "ition": 10921,
      "te": 10922,
      " el": 10923,
      "\nA": 10924,
      "erm": 10925,
      "io": 10926,
      "here": 10927,
      " make": 10928,
      " ag": 10929,
      " ser": 10930,
      ".\"": 10931,
      " repe": 10932,
      "be": 10933,
      " part": 10934,
      "ph": 10935,
      " new": 10936,
      "ings": 10937,
      "urn": 10938,
      "de": 10939,
      " acc": 10940,
      " over": 10941,
      " bet": 10942,
      " pos": 10943,
      " them": 10944,
      "ft": 10945,
      " num": 10946,
      "tic": 10947,
      "ake": 10948,
      "ck": 10949,
      "led": 10950,
      " comm": 10951,
      " below": 10952,
      "ict": 10953,
      " What": 10954,
      "                ": 10955,
      " time": 10956,
      " sp": 10957,
      "ob": 10958,
      " ap": 10959,
      "fere": 10960,
      "irst": 10961,
      " there": 10962,
      "000": 10963,
      "vers": 10964,
      "ays": 10965,
      "clud": 10966,
      "ord": 10967,
      " K": 10968,
      "ree": 10969,
      " person": 10970,
      " char": 10971,
      " es": 10972,
      "ка": 10973,
      "ão": 10974,
      "ize": 10975,
      "ет": 10976,
      "ng": 10977,
      " completion": 10978,
      "ov": 10979,
      " tw": 10980,
      " bl": 10981,
      " д": 10982,
      " Y": 10983,
      " St": 10984,
      " act": 10985,
      "ative": 10986,
      " into": 10987,
      " get": 10988,
      "self": 10989,
      " pe": 10990,
      " :": 10991,
      " Th": 10992,
      "ful": 10993,
      " fun": 10994,
      "ish": 10995,
      " по": 10996,
      "ys": 10997,
      "cre": 10998,
      " col": 10999,
      "ink": 11000,
      " ent": 11001,
      "Write": 11002,
      " tra": 11003,
      "ре": 11004,
      "ON": 11005,
      " list": 11006,
      " output": 11007,
      " gr": 11008,
      " gener": 11009,
      "),": 11010,
      "rit": 11011,
      " 10": 11012,
      " inter": 11013,
      "lp": 11014,
      "\n-": 11015,
      " question": 11016,
      " year": 11017,
      "iven": 11018,
      " .": 11019,
      " di": 11020,
      "In": 11021,
      "ething": 11022,
      " name": 11023,
      "ences": 11024,
      "ummary": 11025,
      "cess": 11026,
      " give": 11027,
      " ke": 11028,
      "\n  ": 11029,
      " something": 11030,
      "ER": 11031,
      " python": 11032,
      "те": 11033,
      " est": 11034,
      "ри": 11035,
      " val": 11036,
      " po": 11037,
      " um": 11038,
      " information": 11039,
      " data": 11040,
      "ль": 11041,
      " sa": 11042,
      " add": 11043,
      "\n1": 11044,
      " 6": 11045,
      "ough": 11046,
      " rel": 11047,
      "any": 11048,
      " write": 11049,
      "23": 11050,
      " doc": 11051,
      " each": 11052,
      " ,": 11053,
      " dif": 11054,
      "ose": 11055,
      " also": 11056,
      " just": 11057,
      "ci": 11058,
      "oy": 11059,
      "ва": 11060,
      " ob": 11061,
      "Qu": 11062,
      "pect": 11063,
      " str": 11064,
      "ale": 11065,
      " help": 11066,
      "ser": 11067,
      "ise": 11068,
      "ian": 11069,
      "не": 11070,
      "ning": 11071,
      " two": 11072,
      " AI": 11073,
      " на": 11074,
      " document": 11075,
      " first": 11076,
      "ples": 11077,
      "duct": 11078,
      "ors": 11079,
      "ark": 11080,
      "ade": 11081,
      " ph": 11082,
      "ли": 11083,
      " off": 11084,
      "ates": 11085,
      " app": 11086,
      "ick": 11087,
      "ype": 11088,
      "ract": 11089,
      "ild": 11090,
      " using": 11091,
      "get": 11092,
      "\nC": 11093,
      " charact": 11094,
      " user": 11095,
      " does": 11096,
      " It": 11097,
      " under": 11098,
      "ents": 11099,
      "pro": 11100,
      ").": 11101,
      "inal": 11102,
      "rig": 11103,
      " spec": 11104,
      " then": 11105,
      "ood": 11106,
      "ater": 11107,
      " descript": 11108,
      " prom": 11109,
      " don": 11110,
      "no": 11111,
      " story": 11112,
      " allow": 11113,
      "angu": 11114,
      "ть": 11115,
      " fact": 11116,
      " requ": 11117,
      " м": 11118,
      "lect": 11119,
      "\nS": 11120,
      "го": 11121,
      "che": 11122,
      " includ": 11123,
      "own": 11124,
      "10": 11125,
      " play": 11126,
      "ook": 11127,
      " z": 11128,
      "AN": 11129,
      "__": 11130,
      "les": 11131,
      "iss": 11132,
      "ually": 11133,
      " How": 11134,
      " hum": 11135,
      "What": 11136,
      "ible": 11137,
      " now": 11138,
      "fter": 11139,
      "ments": 11140,
      "ting": 11141,
      "ho": 11142,
      " cor": 11143,
      "ange": 11144,
      " sentences": 11145,
      "PT": 11146,
      " most": 11147,
      " start": 11148,
      "anguage": 11149,
      "ung": 11150,
      "\n            ": 11151,
      "to": 11152,
      "igh": 11153,
      "mical": 11154,
      " real": 11155,
      "ен": 11156,
      "ask": 11157,
      " trans": 11158,
      " sim": 11159,
      "ople": 11160,
      " para": 11161,
      "ath": 11162,
      "ween": 11163,
      " ever": 11164,
      "ble": 11165,
      "olog": 11166,
      " ?": 11167,
      " Re": 11168,
      " sm": 11169,
      " ext": 11170,
      " let": 11171,
      "az": 11172,
      "up": 11173,
      "IN": 11174,
      " 8": 11175,
      " co": 11176,
      " between": 11177,
      " 50": 11178,
      "row": 11179,
      "iew": 11180,
      " were": 11181,
      " been": 11182,
      " where": 11183,
      "pen": 11184,
      " att": 11185,
      "ident": 11186,
      "ock": 11187,
      "ics": 11188,
      " ra": 11189,
      "``": 11190,
      " provide": 11191,
      "ome": 11192,
      " its": 11193,
      " opt": 11194,
      " Ch": 11195,
      " NAME_4": 11196,
      " send": 11197,
      " He": 11198,
      "ны": 11199,
      " work": 11200,
      ");": 11201,
      " cons": 11202,
      "user": 11203,
      " del": 11204,
      " sol": 11205,
      "enc": 11206,
      " If": 11207,
      " rem": 11208,
      " et": 11209,
      " people": 11210,
      " 7": 11211,
      " rec": 11212,
      " number": 11213,
      "ities": 11214,
      "==": 11215,
      " sub": 11216,
      "ug": 11217,
      "ause": 11218,
      "ier": 11219,
      "gram": 11220,
      " our": 11221,
      " summary": 11222,
      " good": 11223,
      " ass": 11224,
      "ious": 11225,
      " $": 11226,
      "//": 11227,
      " language": 11228,
      " him": 11229,
      "turn": 11230,
      " \n\n": 11231,
      " rep": 11232,
      " step": 11233,
      "во": 11234,
      " fl": 11235,
      "riend": 11236,
      "ec": 11237,
      " Pro": 11238,
      " chemical": 11239,
      " complete": 11240,
      "ло": 11241,
      "urre": 11242,
      " bu": 11243,
      " way": 11244,
      " exper": 11245,
      " er": 11246,
      "resent": 11247,
      " An": 11248,
      "arch": 11249,
      " thing": 11250,
      "ility": 11251,
      "ene": 11252,
      " company": 11253,
      " sentence": 11254,
      " inv": 11255,
      " artic": 11256,
      " response": 11257,
      "за": 11258,
      " format": 11259,
      " set": 11260,
      "ices": 11261,
      " very": 11262,
      "\".": 11263,
      "ла": 11264,
      " tell": 11265,
      "та": 11266,
      "que": 11267,
      " differe": 11268,
      "ле": 11269,
      " had": 11270,
      " This": 11271,
      " allowed": 11272,
      "your": 11273,
      " long": 11274,
      "day": 11275,
      "**": 11276,
      "If": 11277,
      "ss": 11278,
      "ix": 11279,
      "wor": 11280,
      "ST": 11281,
      "ines": 11282,
      " prompt": 11283,
      "...": 11284,
      "ional": 11285,
      "pr": 11286,
      "right": 11287,
      "anc": 11288,
      "ps": 11289,
      " gu": 11290,
      " could": 11291,
      " +": 11292,
      "oth": 11293,
      " б": 11294,
      "its": 11295,
      " back": 11296,
      "plic": 11297,
      " proper": 11298,
      "uch": 11299,
      "ner": 11300,
      "AT": 11301,
      "ied": 11302,
      " pol": 11303,
      " <": 11304,
      "ado": 11305,
      " input": 11306,
      " examples": 11307,
      " please": 11308,
      " import": 11309,
      " repeat": 11310,
      " used": 11311,
      "ify": 11312,
      "ues": 11313,
      " after": 11314,
      " car": 11315,
      " character": 11316,
      " reg": 11317,
      "estions": 11318,
      "=\"": 11319,
      "22": 11320,
      " product": 11321,
      "raph": 11322,
      "vice": 11323,
      "don": 11324,
      " these": 11325,
      "old": 11326,
      "pos": 11327,
      "cept": 11328,
      "\nP": 11329,
      "ons": 11330,
      " article": 11331,
      "\nT": 11332,
      "sistent": 11333,
      " poss": 11334,
      "ten": 11335,
      " see": 11336,
      "ways": 11337,
      " program": 11338,
      "fore": 11339,
      " being": 11340,
      " ac": 11341,
      " 9": 11342,
      "yp": 11343,
      " end": 11344,
      "lic": 11345,
      "arm": 11346,
      " may": 11347,
      " content": 11348,
      "()": 11349,
      " such": 11350,
      "rodu": 11351,
      " cal": 11352,
      "ustom": 11353,
      "irl": 11354,
      "ки": 11355,
      "ement": 11356,
      "ures": 11357,
      " conf": 11358,
      "ateg": 11359,
      " class": 11360,
      "ature": 11361,
      "chn": 11362,
      " ко": 11363,
      "ery": 11364,
      "RE": 11365,
      " think": 11366,
      "\n2": 11367,
      " contin": 11368,
      "ull": 11369,
      " stud": 11370,
      "ert": 11371,
      " She": 11372,
      " Ex": 11373,
      "ção": 11374,
      " av": 11375,
      "ited": 11376,
      " nam": 11377,
      "11": 11378,
      " example": 11379,
      "\nNAME_": 11380,
      "uss": 11381,
      " ca": 11382,
      "ower": 11383,
      "reat": 11384,
      "other": 11385,
      " provid": 11386,
      "eng": 11387,
      " ask": 11388,
      " “": 11389,
      "ages": 11390,
      "itt": 11391,
      " sex": 11392,
[...]
