{
  "version": "1.0",
  "truncation": null,
  "padding": null,
  "added_tokens": [
    {
      "id": 0,
      "content": "<unk>",
      "single_word": false,
      "lstrip": false,
      "rstrip": false,
      "normalized": false,
      "special": true
    },
    {
      "id": 1,
      "content": "<s>",
      "single_word": false,
      "lstrip": false,
      "rstrip": false,
      "normalized": false,
      "special": true
    },
    {
      "id": 2,
      "content": "</s>",
      "single_word": false,
      "lstrip": false,
      "rstrip": false,
      "normalized": false,
      "special": true
    }
  ],
  "normalizer": {
    "type": "Sequence",
    "normalizers": []
  },
  "pre_tokenizer": {
    "type": "Sequence",
    "pretokenizers": [
      {
        "type": "Whitespace"
      },
      {
        "type": "Metaspace",
        "replacement": "▁",
        "prepend_scheme": "always",
        "split": true
      }
    ]
  },
  "post_processor": {
    "type": "TemplateProcessing",
    "single": [
      {
        "SpecialToken": {
          "id": "<s>",
          "type_id": 0
        }
      },
      {
        "Sequence": {
          "id": "A",
          "type_id": 0
        }
      }
    ],
    "pair": [
      {
        "SpecialToken": {
          "id": "<s>",
          "type_id": 0
        }
      },
      {
        "Sequence": {
          "id": "A",
          "type_id": 0
        }
      },
      {
        "SpecialToken": {
          "id": "<s>",
          "type_id": 1
        }
      },
      {
        "Sequence": {
          "id": "B",
          "type_id": 1
        }
      }
    ],
    "special_tokens": {
      "<s>": {
        "id": "<s>",
        "ids": [
          1
        ],
        "tokens": [
          "<s>"
        ]
      }
    }
  },
  "decoder": {
    "type": "Sequence",
    "decoders": [
      {
        "type": "Replace",
        "pattern": {
          "String": "▁"
        },
        "content": " "
      },
      {
        "type": "ByteFallback"
      },
      {
        "type": "Fuse"
      },
      {
        "type": "Strip",
        "content": " ",
        "start": 1,
        "stop": 0
      }
    ]
  },
  "model": {
    "type": "BPE",
    "dropout": null,
    "unk_token": "<unk>",
    "continuing_subword_prefix": null,
    "end_of_word_suffix": null,
    "fuse_unk": true,
    "byte_fallback": true,
    "ignore_merges": false,
    "vocab": {
      "<unk>": 0,
      "<s>": 1,
      "</s>": 2,
      "\u0000": 3,
      "\u0001": 4,
      "\u0002": 5,
      "\u0003": 6,
      "\u0004": 7,
      "\u0005": 8,
      "\u0006": 9,
      "\u0007": 10,
      "\b": 11,
      "\u000e": 12,
      "\u000f": 13,
      "\u0010": 14,
      "\u0011": 15,
      "\u0012": 16,
      "\u0013": 17,
      "\u0014": 18,
      "\u0015": 19,
      "\u0016": 20,
      "\u0017": 21,
      "\u0018": 22,
      "\u0019": 23,
      "\u001a": 24,
      "\u001b": 25,
      "\u001c": 26,
      "\u001d": 27,
      "\u001e": 28,
      "\u001f": 29,
      "!": 30,
      "\"": 31,
      "#": 32,
      "$": 33,
      "%": 34,
      "&": 35,
      "'": 36,
      "(": 37,
      ")": 38,
      "*": 39,
      "+": 40,
      ",": 41,
      "-": 42,
      ".": 43,
      "/": 44,
      "0": 45,
      "1": 46,
      "2": 47,
      "3": 48,
      "4": 49,
      "5": 50,
      "6": 51,
      "7": 52,
      "8": 53,
      "9": 54,
      ":": 55,
      ";": 56,
      "<": 57,
      "=": 58,
      ">": 59,
      "?": 60,
      "@": 61,
      "A": 62,
      "B": 63,
      "C": 64,
      "D": 65,
      "E": 66,
      "F": 67,
      "G": 68,
      "H": 69,
      "I": 70,
      "J": 71,
      "K": 72,
      "L": 73,
      "M": 74,
      "N": 75,
      "O": 76,
      "P": 77,
      "Q": 78,
      "R": 79,
      "S": 80,
      "T": 81,
      "U": 82,
      "V": 83,
      "W": 84,
      "X": 85,
      "Y": 86,
      "Z": 87,
      "[": 88,
      "\\": 89,
      "]": 90,
      "^": 91,
      "_": 92,
      "`": 93,
      "a": 94,
      "b": 95,
      "c": 96,
      "d": 97,
      "e": 98,
      "f": 99,
      "g": 100,
      "h": 101,
      "i": 102,
      "j": 103,
      "k": 104,
      "l": 105,
      "m": 106,
      "n": 107,
      "o": 108,
      "p": 109,
      "q": 110,
      "r": 111,
      "s": 112,
      "t": 113,
      "u": 114,
      "v": 115,
      "w": 116,
      "x": 117,
      "y": 118,
      "z": 119,
      "{": 120,
      "|": 121,
      "}": 122,
      "~": 123,
      "": 124,
      "": 125,
      "": 126,
      "": 127,
      "": 128,
      "": 129,
      "": 130,
      "": 131,
      "": 132,
      "": 133,
      "": 134,
      "": 135,
      "": 136,
      "": 137,
      "": 138,
      "": 139,
      "": 140,
      "": 141,
      "": 142,
      "": 143,
      "": 144,
      "": 145,
      "": 146,
      "": 147,
      "": 148,
      "": 149,
      "": 150,
      "": 151,
      "": 152,
      "": 153,
      "": 154,
      "": 155,
      "¡": 156,
      "¢": 157,
      "£": 158,
      "¤": 159,
      "¥": 160,
      "¦": 161,
      "§": 162,
      "¨": 163,
      "©": 164,
      "ª": 165,
      "«": 166,
      "¬": 167,
      "­": 168,
      "®": 169,
      "¯": 170,
      "°": 171,
      "±": 172,
      "²": 173,
      "³": 174,
      "´": 175,
      "µ": 176,
      "¶": 177,
      "·": 178,
      "¸": 179,
      "¹": 180,
      "º": 181,
      "»": 182,
      "¼": 183,
      "½": 184,
      "¾": 185,
      "¿": 186,
      "À": 187,
      "Á": 188,
      "Â": 189,
      "Ã": 190,
      "Ä": 191,
      "Å": 192,
      "Æ": 193,
      "Ç": 194,
      "È": 195,
      "É": 196,
      "Ê": 197,
      "Ë": 198,
      "Ì": 199,
      "Í": 200,
      "Î": 201,
      "Ï": 202,
      "Ð": 203,
      "Ñ": 204,
      "Ò": 205,
      "Ó": 206,
      "Ô": 207,
      "Õ": 208,
      "Ö": 209,
      "×": 210,
      "Ø": 211,
      "Ù": 212,
      "Ú": 213,
      "Û": 214,
      "Ü": 215,
      "Ý": 216,
      "Þ": 217,
      "ß": 218,
      "à": 219,
      "á": 220,
      "â": 221,
      "ã": 222,
      "ä": 223,
      "å": 224,
      "æ": 225,
      "ç": 226,
      "è": 227,
      "é": 228,
      "ê": 229,
      "ë": 230,
      "ì": 231,
      "í": 232,
      "î": 233,
      "ï": 234,
      "ð": 235,
      "ñ": 236,
      "ò": 237,
      "ó": 238,
      "ô": 239,
      "õ": 240,
      "ö": 241,
      "÷": 242,
      "ø": 243,
      "ù": 244,
      "ú": 245,
      "û": 246,
      "ü": 247,
      "ý": 248,
      "þ": 249,
      "ÿ": 250,
      "Ā": 251,
      "ā": 252,
      "Ă": 253,
      "ă": 254,
      "Ą": 255,
      "ą": 256,
      "Ć": 257,
      "ć": 258,
      "Ĉ": 259,
      "ĉ": 260,
      "ċ": 261,
      "Č": 262,
      "č": 263,
      "Ď": 264,
      "ď": 265,
      "Đ": 266,
      "đ": 267,
      "Ē": 268,
      "ē": 269,
      "ĕ": 270,
      "ė": 271,
      "Ę": 272,
      "ę": 273,
      "Ě": 274,
      "ě": 275,
      "Ĝ": 276,
      "ĝ": 277,
      "Ğ": 278,
      "ğ": 279,
      "Ġ": 280,
      "ġ": 281,
      "ģ": 282,
      "Ĥ": 283,
      "ĥ": 284,
      "ħ": 285,
      "ĩ": 286,
      "Ī": 287,
      "ī": 288,
      "ĭ": 289,
      "Į": 290,
      "į": 291,
      "İ": 292,
      "ı": 293,
      "ĵ": 294,
      "ķ": 295,
      "Ĺ": 296,
      "ĺ": 297,
      "Ļ": 298,
      "ļ": 299,
      "Ľ": 300,
      "ľ": 301,
      "Ł": 302,
      "ł": 303,
      "Ń": 304,
      "ń": 305,
      "ņ": 306,
      "Ň": 307,
      "ň": 308,
      "ŉ": 309,
      "Ŋ": 310,
      "ŋ": 311,
      "Ō": 312,
      "ō": 313,
      "ŏ": 314,
      "Ő": 315,
      "ő": 316,
      "Œ": 317,
      "œ": 318,
      "Ŕ": 319,
      "ŕ": 320,
      "Ř": 321,
      "ř": 322,
      "Ś": 323,
      "ś": 324,
      "ŝ": 325,
      "Ş": 326,
      "ş": 327,
      "Š": 328,
      "š": 329,
      "Ţ": 330,
      "ţ": 331,
      "Ť": 332,
      "ť": 333,
      "Ŧ": 334,
      "ũ": 335,
      "Ū": 336,
      "ū": 337,
      "Ŭ": 338,
      "ŭ": 339,
      "Ů": 340,
      "ů": 341,
      "Ű": 342,
      "ű": 343,
      "ų": 344,
      "ŵ": 345,
      "ŷ": 346,
      "Ÿ": 347,
      "Ź": 348,
      "ź": 349,
      "Ż": 350,
      "ż": 351,
      "Ž": 352,
      "ž": 353,
      "ƀ": 354,
      "Ɓ": 355,
      "Ƃ": 356,
      "Ɔ": 357,
      "ƒ": 358,
      "Ɠ": 359,
      "ƚ": 360,
      "Ơ": 361,
      "ơ": 362,
      "Ƨ": 363,
      "ƨ": 364,
      "Ư": 365,
      "ư": 366,
      "Ʋ": 367,
      "ǂ": 368,
      "ǎ": 369,
      "ǐ": 370,
      "ǒ": 371,
      "ǔ": 372,
      "ǘ": 373,
      "ǝ": 374,
      "Ǣ": 375,
      "ǣ": 376,
      "Ǩ": 377,
      "ǵ": 378,
      "ǽ": 379,
      "ȁ": 380,
      "Ȃ": 381,
      "ȇ": 382,
      "Ș": 383,
      "ș": 384,
      "Ț": 385,
      "ț": 386,
      "Ƞ": 387,
      "Ȣ": 388,
      "Ȩ": 389,
      "ȩ": 390,
      "Ȭ": 391,
      "ɂ": 392,
      "Ʉ": 393,
      "ɐ": 394,
      "ɑ": 395,
      "ɒ": 396,
      "ɔ": 397,
      "ɕ": 398,
      "ɖ": 399,
      "ɘ": 400,
      "ə": 401,
      "ɚ": 402,
      "ɛ": 403,
      "ɜ": 404,
      "ɞ": 405,
      "ɡ": 406,
      "ɢ": 407,
      "ɣ": 408,
      "ɥ": 409,
      "ɦ": 410,
      "ɨ": 411,
      "ɪ": 412,
      "ɬ": 413,
      "ɭ": 414,
      "ɯ": 415,
      "ɳ": 416,
      "ɵ": 417,
      "ɶ": 418,
      "ɻ": 419,
      "ɾ": 420,
      "ʀ": 421,
      "ʁ": 422,
      "ʃ": 423,
      "ʇ": 424,
      "ʊ": 425,
      "ʋ": 426,
      "ʌ": 427,
      "ʏ": 428,
      "ʒ": 429,
      "ʓ": 430,
      "ʔ": 431,
      "ʕ": 432,
      "ʖ": 433,
      "ʝ": 434,
      "ʠ": 435,
      "ʦ": 436,
      "ʧ": 437,
      "ʰ": 438,
      "ʲ": 439,
      "ʳ": 440,
      "ʷ": 441,
      "ʸ": 442,
      "ʹ": 443,
      "ʺ": 444,
      "ʼ": 445,
      "ʿ": 446,
      "ˁ": 447,
      "˄": 448,
      "˅": 449,
      "ˆ": 450,
      "ˇ": 451,
      "ˈ": 452,
      "ˉ": 453,
      "ˋ": 454,
      "ˌ": 455,
      "ː": 456,
      "˘": 457,
      "˙": 458,
      "˚": 459,
      "˛": 460,
      "˜": 461,
      "˝": 462,
      "˞": 463,
      "ˡ": 464,
      "ˢ": 465,
      "ˣ": 466,
      "˧": 467,
      "˨": 468,
      "˩": 469,
      "˹": 470,
      "˺": 471,
      "̀": 472,
      "́": 473,
      "̂": 474,
      "̃": 475,
      "̄": 476,
      "̅": 477,
      "̆": 478,
      "̇": 479,
      "̈": 480,
      "̉": 481,
      "̊": 482,
      "̋": 483,
      "̌": 484,
      "̍": 485,
      "̎": 486,
      "̏": 487,
      "̐": 488,
      "̑": 489,
      "̒": 490,
      "̓": 491,
      "̔": 492,
      "̕": 493,
      "̖": 494,
      "̗": 495,
      "̘": 496,
      "̙": 497,
      "̚": 498,
      "̛": 499,
      "̜": 500,
      "̝": 501,
      "̞": 502,
      "̟": 503,
      "̠": 504,
      "̡": 505,
      "̢": 506,
      "̣": 507,
      "̤": 508,
      "̥": 509,
      "̦": 510,
      "̧": 511,
      "̨": 512,
      "̩": 513,
      "̪": 514,
      "̫": 515,
      "̬": 516,
      "̭": 517,
      "̮": 518,
      "̯": 519,
      "̱": 520,
      "̲": 521,
      "̳": 522,
      "̴": 523,
      "̵": 524,
      "̶": 525,
      "̷": 526,
      "̸": 527,
      "̹": 528,
      "̺": 529,
      "̻": 530,
      "̼": 531,
      "̽": 532,
      "̾": 533,
      "̿": 534,
      "̀": 535,
      "́": 536,
      "͂": 537,
      "̓": 538,
      "̈́": 539,
      "ͅ": 540,
      "͆": 541,
      "͇": 542,
      "͈": 543,
      "͉": 544,
      "͊": 545,
      "͋": 546,
      "͌": 547,
      "͍": 548,
      "͎": 549,
      "͐": 550,
      "͑": 551,
      "͒": 552,
      "͓": 553,
      "͔": 554,
      "͕": 555,
      "͖": 556,
      "͗": 557,
      "͘": 558,
      "͙": 559,
      "͚": 560,
      "͛": 561,
      "͜": 562,
      "͝": 563,
      "͟": 564,
      "͠": 565,
      "͡": 566,
      "Ͷ": 567,
      ";": 568,
      "΄": 569,
      "Ά": 570,
      "·": 571,
      "Έ": 572,
      "Ή": 573,
      "Ί": 574,
      "Ό": 575,
      "ΐ": 576,
      "Α": 577,
      "Β": 578,
      "Γ": 579,
      "Δ": 580,
      "Ε": 581,
      "Ζ": 582,
      "Η": 583,
      "Θ": 584,
      "Ι": 585,
      "Κ": 586,
      "Λ": 587,
      "Μ": 588,
      "Ν": 589,
      "Ξ": 590,
      "Ο": 591,
      "Π": 592,
      "Ρ": 593,
      "Σ": 594,
      "Τ": 595,
      "Υ": 596,
      "Φ": 597,
      "Χ": 598,
      "Ψ": 599,
      "Ω": 600,
      "Ϋ": 601,
      "ά": 602,
      "έ": 603,
      "ή": 604,
      "ί": 605,
      "α": 606,
      "β": 607,
      "γ": 608,
      "δ": 609,
      "ε": 610,
      "ζ": 611,
      "η": 612,
      "θ": 613,
      "ι": 614,
      "κ": 615,
      "λ": 616,
      "μ": 617,
      "ν": 618,
      "ξ": 619,
      "ο": 620,
      "π": 621,
      "ρ": 622,
      "ς": 623,
      "σ": 624,
      "τ": 625,
      "υ": 626,
      "φ": 627,
      "χ": 628,
      "ψ": 629,
      "ω": 630,
      "ϊ": 631,
      "ϋ": 632,
      "ό": 633,
      "ύ": 634,
      "ώ": 635,
      "ϕ": 636,
      "Ϟ": 637,
      "ϣ": 638,
      "ϰ": 639,
      "ϲ": 640,
      "ϴ": 641,
      "ϵ": 642,
      "Ϸ": 643,
      "ϸ": 644,
      "Ё": 645,
      "Ђ": 646,
      "Є": 647,
      "Ѕ": 648,
      "І": 649,
      "Ї": 650,
      "Ј": 651,
      "Њ": 652,
      "Ћ": 653,
      "Ќ": 654,
      "Ў": 655,
      "Џ": 656,
      "А": 657,
      "Б": 658,
      "В": 659,
      "Г": 660,
      "Д": 661,
      "Е": 662,
      "Ж": 663,
      "З": 664,
      "И": 665,
      "Й": 666,
      "К": 667,
      "Л": 668,
      "М": 669,
      "Н": 670,
      "О": 671,
      "П": 672,
      "Р": 673,
      "С": 674,
      "Т": 675,
      "У": 676,
      "Ф": 677,
      "Х": 678,
      "Ц": 679,
      "Ч": 680,
      "Ш": 681,
      "Щ": 682,
      "Ъ": 683,
      "Ы": 684,
      "Ь": 685,
      "Э": 686,
      "Ю": 687,
      "Я": 688,
      "а": 689,
      "б": 690,
      "в": 691,
      "г": 692,
      "д": 693,
      "е": 694,
      "ж": 695,
      "з": 696,
      "и": 697,
      "й": 698,
      "к": 699,
      "л": 700,
      "м": 701,
      "н": 702,
      "о": 703,
      "п": 704,
      "р": 705,
      "с": 706,
      "т": 707,
      "у": 708,
      "ф": 709,
      "х": 710,
      "ц": 711,
      "ч": 712,
      "ш": 713,
      "щ": 714,
      "ъ": 715,
      "ы": 716,
      "ь": 717,
      "э": 718,
      "ю": 719,
      "я": 720,
      "ѐ": 721,
      "ё": 722,
      "ђ": 723,
      "ѓ": 724,
      "є": 725,
      "ѕ": 726,
      "і": 727,
      "ї": 728,
      "ј": 729,
      "љ": 730,
      "њ": 731,
      "ћ": 732,
      "ќ": 733,
      "ѝ": 734,
      "ў": 735,
      "џ": 736,
      "Ѡ": 737,
      "ѡ": 738,
      "Ѣ": 739,
      "ѣ": 740,
      "Ѥ": 741,
      "ѥ": 742,
      "Ѧ": 743,
      "ѧ": 744,
      "Ѩ": 745,
      "ѩ": 746,
      "Ѫ": 747,
      "ѫ": 748,
      "Ѭ": 749,
      "ѭ": 750,
      "Ѯ": 751,
      "ѯ": 752,
      "Ѱ": 753,
      "ѱ": 754,
      "Ѳ": 755,
      "ѳ": 756,
      "Ѵ": 757,
      "ѵ": 758,
      "Ѹ": 759,
      "Ѿ": 760,
      "ѿ": 761,
      "Ҁ": 762,
      "ҁ": 763,
      "҂": 764,
      "҆": 765,
      "҇": 766,
      "Ґ": 767,
      "ґ": 768,
      "Ғ": 769,
      "ғ": 770,
      "Қ": 771,
      "қ": 772,
      "ң": 773,
      "ү": 774,
      "ұ": 775,
      "ҳ": 776,
      "ҷ": 777,
      "Ӏ": 778,
      "Ӆ": 779,
      "ӏ": 780,
      "ә": 781,
      "ө": 782,
      "Ӻ": 783,
      "ԃ": 784,
      "ԅ": 785,
      "ԏ": 786,
      "ԛ": 787,
      "ԝ": 788,
      "Բ": 789,
      "Դ": 790,
      "Հ": 791,
      "Մ": 792,
      "Ո": 793,
      "Ջ": 794,
      "Ս": 795,
      "Տ": 796,
      "Ք": 797,
      "՜": 798,
      "՝": 799,
      "՞": 800,
      "ա": 801,
      "բ": 802,
      "գ": 803,
      "դ": 804,
      "ե": 805,
      "զ": 806,
      "է": 807,
      "ը": 808,
      "թ": 809,
      "ի": 810,
      "լ": 811,
      "ծ": 812,
      "կ": 813,
      "հ": 814,
      "ձ": 815,
      "ղ": 816,
      "ճ": 817,
      "մ": 818,
      "յ": 819,
      "ն": 820,
      "շ": 821,
      "ո": 822,
      "չ": 823,
      "պ": 824,
      "ջ": 825,
      "ռ": 826,
      "ս": 827,
      "վ": 828,
      "տ": 829,
      "ր": 830,
      "ց": 831,
      "ւ": 832,
      "ք": 833,
      "և": 834,
      "։": 835,
      "֍": 836,
      "֑": 837,
      "֒": 838,
      "֔": 839,
      "֖": 840,
      "֗": 841,
      "֘": 842,
      "֙": 843,
      "֚": 844,
      "֛": 845,
      "֜": 846,
      "֞": 847,
      "֡": 848,
      "֣": 849,
      "֤": 850,
      "֥": 851,
      "֦": 852,
      "֧": 853,
      "֨": 854,
      "֩": 855,
      "֬": 856,
      "ְ": 857,
      "ֱ": 858,
      "ֲ": 859,
      "ִ": 860,
      "ֵ": 861,
      "ֶ": 862,
      "ַ": 863,
      "ָ": 864,
      "ֹ": 865,
      "ֻ": 866,
      "ּ": 867,
      "ֽ": 868,
      "־": 869,
      "׀": 870,
      "ׁ": 871,
      "ׂ": 872,
      "א": 873,
      "ב": 874,
      "ג": 875,
      "ד": 876,
      "ה": 877,
      "ו": 878,
      "ז": 879,
      "ח": 880,
      "ט": 881,
      "י": 882,
      "ך": 883,
      "כ": 884,
      "ל": 885,
      "ם": 886,
      "מ": 887,
      "ן": 888,
      "נ": 889,
      "ס": 890,
      "ע": 891,
      "ף": 892,
      "פ": 893,
      "ץ": 894,
      "צ": 895,
      "ק": 896,
      "ר": 897,
      "ש": 898,
      "ת": 899,
      "׫": 900,
      "׳": 901,
      "״": 902,
      "،": 903,
      "؛": 904,
      "؟": 905,
      "ء": 906,
      "آ": 907,
      "أ": 908,
      "ؤ": 909,
      "إ": 910,
      "ئ": 911,
      "ا": 912,
      "ب": 913,
      "ة": 914,
      "ت": 915,
      "ث": 916,
      "ج": 917,
      "ح": 918,
      "خ": 919,
      "د": 920,
      "ذ": 921,
      "ر": 922,
      "ز": 923,
      "س": 924,
      "ش": 925,
      "ص": 926,
      "ض": 927,
      "ط": 928,
      "ظ": 929,
      "ع": 930,
      "غ": 931,
      "ـ": 932,
      "ف": 933,
      "ق": 934,
      "ك": 935,
      "ل": 936,
      "م": 937,
      "ن": 938,
      "ه": 939,
      "و": 940,
      "ى": 941,
      "ي": 942,
      "ً": 943,
      "ٌ": 944,
      "ٍ": 945,
      "َ": 946,
      "ُ": 947,
      "ِ": 948,
      "ّ": 949,
      "ْ": 950,
      "ٓ": 951,
      "ٔ": 952,
      "٠": 953,
      "١": 954,
      "٢": 955,
      "٣": 956,
      "٤": 957,
      "٥": 958,
      "٦": 959,
      "٨": 960,
      "٩": 961,
      "٪": 962,
      "٬": 963,
      "ٰ": 964,
      "ٱ": 965,
      "ٹ": 966,
      "ٺ": 967,
      "ٻ": 968,
      "ټ": 969,
      "پ": 970,
      "ٿ": 971,
      "چ": 972,
      "ڈ": 973,
      "ڑ": 974,
      "ژ": 975,
      "ک": 976,
      "ڪ": 977,
      "ڭ": 978,
      "گ": 979,
      "ڵ": 980,
      "ڶ": 981,
      "ں": 982,
      "ھ": 983,
      "ہ": 984,
      "ۅ": 985,
      "ۆ": 986,
      "ۇ": 987,
      "ۈ": 988,
      "ی": 989,
      "ې": 990,
      "ے": 991,
      "۔": 992,
      "ە": 993,
      "ۗ": 994,
      "۞": 995,
      "۟": 996,
      "ۡ": 997,
      "ۢ": 998,
      "ۤ": 999,
      "ۥ": 1000,
      "ۦ": 1001,
      "۩": 1002,
      "ۭ": 1003,
      "۰": 1004,
      "۱": 1005,
      "۲": 1006,
      "۳": 1007,
      "۴": 1008,
      "۵": 1009,
      "۶": 1010,
      "۷": 1011,
      "۸": 1012,
      "۹": 1013,
      "ۻ": 1014,
      "܁": 1015,
      "܂": 1016,
      "ܐ": 1017,
      "ܒ": 1018,
      "ܘ": 1019,
      "ܝ": 1020,
      "ܠ": 1021,
      "ܡ": 1022,
      "ܢ": 1023,
      "ܦ": 1024,
      "ܬ": 1025,
      "ܷ": 1026,
      "݊": 1027,
      "ݕ": 1028,
      "ݜ": 1029,
      "ݢ": 1030,
      "ݮ": 1031,
      "ݶ": 1032,
      "ހ": 1033,
      "ރ": 1034,
      "ކ": 1035,
      "އ": 1036,
      "ވ": 1037,
      "މ": 1038,
      "ދ": 1039,
      "ލ": 1040,
      "ސ": 1041,
      "ޓ": 1042,
      "ޔ": 1043,
      "ޖ": 1044,
      "ޙ": 1045,
      "ޚ": 1046,
      "ޞ": 1047,
      "ަ": 1048,
      "ާ": 1049,
      "ި": 1050,
      "ު": 1051,
      "ެ": 1052,
      "ޭ": 1053,
      "ޮ": 1054,
      "ޯ": 1055,
      "ް": 1056,
      "޲": 1057,
      "߂": 1058,
      "ߒ": 1059,
      "ߪ": 1060,
      "ँ": 1061,
      "ं": 1062,
      "ः": 1063,
      "अ": 1064,
      "आ": 1065,
      "इ": 1066,
      "ई": 1067,
      "उ": 1068,
      "ऊ": 1069,
      "ऋ": 1070,
      "ऍ": 1071,
      "ए": 1072,
      "ऐ": 1073,
      "ओ": 1074,
      "औ": 1075,
      "क": 1076,
      "ख": 1077,
      "ग": 1078,
      "घ": 1079,
      "ङ": 1080,
      "च": 1081,
      "छ": 1082,
      "ज": 1083,
      "झ": 1084,
      "ञ": 1085,
      "ट": 1086,
      "ठ": 1087,
      "ड": 1088,
      "ढ": 1089,
      "ण": 1090,
      "त": 1091,
      "थ": 1092,
      "द": 1093,
      "ध": 1094,
      "न": 1095,
      "प": 1096,
      "फ": 1097,
      "ब": 1098,
      "भ": 1099,
      "म": 1100,
      "य": 1101,
      "र": 1102,
      "ऱ": 1103,
      "ल": 1104,
      "ळ": 1105,
      "व": 1106,
      "श": 1107,
      "ष": 1108,
      "स": 1109,
      "ह": 1110,
      "़": 1111,
      "ऽ": 1112,
      "ा": 1113,
      "ि": 1114,
      "ी": 1115,
      "ु": 1116,
      "ू": 1117,
      "ृ": 1118,
      "ॅ": 1119,
      "ॆ": 1120,
      "े": 1121,
      "ै": 1122,
      "ॉ": 1123,
      "ॊ": 1124,
      "ो": 1125,
      "ौ": 1126,
      "्": 1127,
      "ॐ": 1128,
      "ख़": 1129,
      "ज़": 1130,
      "ड़": 1131,
      "ढ़": 1132,
      "फ़": 1133,
      "।": 1134,
      "॥": 1135,
      "०": 1136,
      "१": 1137,
      "२": 1138,
      "३": 1139,
      "४": 1140,
      "५": 1141,
      "६": 1142,
      "७": 1143,
      "८": 1144,
      "९": 1145,
      "ঁ": 1146,
      "ং": 1147,
      "ঃ": 1148,
      "অ": 1149,
      "আ": 1150,
      "ই": 1151,
      "ঈ": 1152,
      "উ": 1153,
      "এ": 1154,
      "ঐ": 1155,
      "ও": 1156,
      "ঔ": 1157,
      "ক": 1158,
      "খ": 1159,
      "গ": 1160,
      "ঘ": 1161,
      "ঙ": 1162,
      "চ": 1163,
      "ছ": 1164,
      "জ": 1165,
      "ঝ": 1166,
      "ঞ": 1167,
      "ট": 1168,
      "ঠ": 1169,
      "ড": 1170,
      "ঢ": 1171,
      "ণ": 1172,
      "ত": 1173,
      "থ": 1174,
      "দ": 1175,
      "ধ": 1176,
      "ন": 1177,
      "প": 1178,
      "ফ": 1179,
      "ব": 1180,
      "ভ": 1181,
      "ম": 1182,
      "য": 1183,
      "র": 1184,
      "ল": 1185,
      "শ": 1186,
      "ষ": 1187,
      "স": 1188,
      "হ": 1189,
      "়": 1190,
      "া": 1191,
      "ি": 1192,
      "ী": 1193,
      "ু": 1194,
      "ূ": 1195,
      "ৃ": 1196,
      "ে": 1197,
      "ৈ": 1198,
      "ো": 1199,
      "ৌ": 1200,
      "্": 1201,
      "ৎ": 1202,
      "ড়": 1203,
      "য়": 1204,
      "০": 1205,
      "১": 1206,
      "২": 1207,
      "৪": 1208,
      "৫": 1209,
      "৬": 1210,
      "৭": 1211,
      "৯": 1212,
      "৷": 1213,
      "ਂ": 1214,
      "ਅ": 1215,
      "ਆ": 1216,
      "ਇ": 1217,
      "ਈ": 1218,
      "ਉ": 1219,
      "ਊ": 1220,
      "ਏ": 1221,
      "ਐ": 1222,
      "ਕ": 1223,
      "ਖ": 1224,
      "ਗ": 1225,
      "ਘ": 1226,
      "ਚ": 1227,
      "ਛ": 1228,
      "ਜ": 1229,
      "ਝ": 1230,
      "ਟ": 1231,
      "ਡ": 1232,
      "ਢ": 1233,
      "ਣ": 1234,
      "ਤ": 1235,
      "ਥ": 1236,
      "ਦ": 1237,
      "ਧ": 1238,
      "ਨ": 1239,
      "ਪ": 1240,
      "ਫ": 1241,
      "ਬ": 1242,
      "ਭ": 1243,
      "ਮ": 1244,
      "ਯ": 1245,
      "ਰ": 1246,
      "ਲ": 1247,
      "ਵ": 1248,
      "ਸ": 1249,
      "ਹ": 1250,
      "਼": 1251,
      "ਾ": 1252,
      "ਿ": 1253,
      "ੀ": 1254,
      "ੁ": 1255,
      "ੂ": 1256,
      "ੇ": 1257,
      "ੈ": 1258,
      "ੋ": 1259,
      "ੌ": 1260,
      "੍": 1261,
      "ੜ": 1262,
      "ੰ": 1263,
      "ੱ": 1264,
      "ં": 1265,
      "અ": 1266,
      "ક": 1267,
      "ગ": 1268,
      "છ": 1269,
      "જ": 1270,
      "ટ": 1271,
      "ડ": 1272,
      "ન": 1273,
      "બ": 1274,
      "ભ": 1275,
      "મ": 1276,
      "ય": 1277,
      "ર": 1278,
      "લ": 1279,
      "વ": 1280,
      "સ": 1281,
      "હ": 1282,
      "ા": 1283,
      "િ": 1284,
      "ી": 1285,
      "ુ": 1286,
      "ૂ": 1287,
      "ે": 1288,
      "ો": 1289,
      "્": 1290,
      "ଅ": 1291,
      "କ": 1292,
      "ଖ": 1293,
      "ଛ": 1294,
      "ଣ": 1295,
      "ତ": 1296,
      "ଦ": 1297,
      "ନ": 1298,
      "ବ": 1299,
      "ଭ": 1300,
      "ମ": 1301,
      "ଯ": 1302,
      "ର": 1303,
      "ଲ": 1304,
      "ଶ": 1305,
      "ହ": 1306,
      "ା": 1307,
      "ି": 1308,
      "ୀ": 1309,
      "ୁ": 1310,
      "େ": 1311,
      "୍": 1312,
      "ୟ": 1313,
      "ୱ": 1314,
      "ஂ": 1315,
      "ஃ": 1316,
      "அ": 1317,
      "ஆ": 1318,
      "இ": 1319,
      "உ": 1320,
      "எ": 1321,
      "ஒ": 1322,
      "க": 1323,
      "ங": 1324,
      "ச": 1325,
      "ஜ": 1326,
      "ட": 1327,
      "ண": 1328,
      "த": 1329,
      "ந": 1330,
      "ன": 1331,
      "ப": 1332,
      "ம": 1333,
      "ய": 1334,
      "ர": 1335,
      "ற": 1336,
      "ல": 1337,
      "ள": 1338,
      "ழ": 1339,
      "வ": 1340,
      "ா": 1341,
      "ி": 1342,
      "ீ": 1343,
      "ு": 1344,
      "ூ": 1345,
      "ெ": 1346,
      "ே": 1347,
      "ை": 1348,
      "ொ": 1349,
      "ோ": 1350,
      "்": 1351,
      "ం": 1352,
      "అ": 1353,
      "ఇ": 1354,
      "ఉ": 1355,
      "ఒ": 1356,
      "క": 1357,
      "గ": 1358,
      "చ": 1359,
      "ట": 1360,
      "డ": 1361,
      "త": 1362,
      "థ": 1363,
      "ద": 1364,
      "ధ": 1365,
      "న": 1366,
      "ప": 1367,
      "బ": 1368,
      "మ": 1369,
      "య": 1370,
      "ర": 1371,
      "ల": 1372,
      "వ": 1373,
      "స": 1374,
      "ా": 1375,
      "ి": 1376,
      "ు": 1377,
      "ూ": 1378,
      "ె": 1379,
      "ే": 1380,
      "ో": 1381,
      "్": 1382,
      "ಂ": 1383,
      "ಅ": 1384,
      "ಆ": 1385,
      "ಇ": 1386,
      "ಈ": 1387,
      "ಉ": 1388,
      "ಎ": 1389,
      "ಓ": 1390,
      "ಕ": 1391,
      "ಖ": 1392,
      "ಗ": 1393,
      "ಘ": 1394,
      "ಚ": 1395,
      "ಜ": 1396,
      "ಟ": 1397,
      "ಠ": 1398,
      "ಡ": 1399,
      "ಣ": 1400,
      "ತ": 1401,
      "ದ": 1402,
      "ಧ": 1403,
      "ನ": 1404,
      "ಪ": 1405,
      "ಬ": 1406,
      "ಮ": 1407,
      "ಯ": 1408,
      "ರ": 1409,
      "ಲ": 1410,
      "ಳ": 1411,
      "ವ": 1412,
      "ಶ": 1413,
      "ಷ": 1414,
      "ಸ": 1415,
      "ಹ": 1416,
      "ಾ": 1417,
      "ಿ": 1418,
      "ೀ": 1419,
      "ು": 1420,
      "ೂ": 1421,
      "ೃ": 1422,
      "ೆ": 1423,
      "ೇ": 1424,
      "ೊ": 1425,
      "ೋ": 1426,
      "್": 1427,
      "ം": 1428,
      "അ": 1429,
      "ആ": 1430,
      "ഇ": 1431,
      "എ": 1432,
      "ക": 1433,
      "ഗ": 1434,
      "ങ": 1435,
      "ച": 1436,
      "ട": 1437,
      "ണ": 1438,
      "ത": 1439,
      "ന": 1440,
      "പ": 1441,
      "മ": 1442,
      "യ": 1443,
      "ര": 1444,
      "റ": 1445,
      "ല": 1446,
      "ള": 1447,
      "വ": 1448,
      "ശ": 1449,
      "ഷ": 1450,
      "സ": 1451,
      "ഹ": 1452,
      "ാ": 1453,
      "ി": 1454,
      "ു": 1455,
      "െ": 1456,
      "േ": 1457,
      "ൊ": 1458,
      "ോ": 1459,
      "്": 1460,
      "ൻ": 1461,
      "ൽ": 1462,
      "ං": 1463,
      "අ": 1464,
      "ඇ": 1465,
      "ඉ": 1466,
      "ඊ": 1467,
      "ඒ": 1468,
      "ඔ": 1469,
      "ක": 1470,
      "ග": 1471,
      "ච": 1472,
      "ජ": 1473,
      "ට": 1474,
      "ත": 1475,
      "ද": 1476,
      "න": 1477,
      "ඳ": 1478,
      "ප": 1479,
      "බ": 1480,
      "භ": 1481,
      "ම": 1482,
      "ය": 1483,
      "ර": 1484,
      "ල": 1485,
      "ව": 1486,
      "ශ": 1487,
      "ස": 1488,
      "හ": 1489,
      "ළ": 1490,
      "්": 1491,
      "ා": 1492,
      "ැ": 1493,
      "ෑ": 1494,
      "ි": 1495,
      "ී": 1496,
      "ු": 1497,
      "ෘ": 1498,
      "ෙ": 1499,
      "ේ": 1500,
      "ො": 1501,
      "ෝ": 1502,
      "ෞ": 1503,
      "ก": 1504,
      "ข": 1505,
      "ค": 1506,
      "ฅ": 1507,
      "ฆ": 1508,
      "ง": 1509,
      "จ": 1510,
      "ฉ": 1511,
      "ช": 1512,
      "ซ": 1513,
      "ญ": 1514,
      "ฎ": 1515,
      "ฏ": 1516,
      "ฐ": 1517,
      "ฑ": 1518,
      "ฒ": 1519,
      "ณ": 1520,
      "ด": 1521,
      "ต": 1522,
      "ถ": 1523,
      "ท": 1524,
      "ธ": 1525,
      "น": 1526,
      "บ": 1527,
      "ป": 1528,
      "ผ": 1529,
      "ฝ": 1530,
      "พ": 1531,
      "ฟ": 1532,
      "ภ": 1533,
      "ม": 1534,
      "ย": 1535,
      "ร": 1536,
      "ฤ": 1537,
      "ล": 1538,
      "ฦ": 1539,
      "ว": 1540,
      "ศ": 1541,
      "ษ": 1542,
      "ส": 1543,
      "ห": 1544,
      "ฬ": 1545,
      "อ": 1546,
      "ฮ": 1547,
      "ฯ": 1548,
      "ะ": 1549,
      "ั": 1550,
      "า": 1551,
      "ำ": 1552,
      "ิ": 1553,
      "ี": 1554,
      "ึ": 1555,
      "ื": 1556,
      "ุ": 1557,
      "ู": 1558,
      "฿": 1559,
      "เ": 1560,
      "แ": 1561,
      "โ": 1562,
      "ใ": 1563,
      "ไ": 1564,
      "ๆ": 1565,
      "็": 1566,
      "่": 1567,
      "้": 1568,
      "๊": 1569,
      "๋": 1570,
      "์": 1571,
      "๏": 1572,
      "๑": 1573,
      "ກ": 1574,
      "ຂ": 1575,
      "ຄ": 1576,
      "ງ": 1577,
      "ຈ": 1578,
      "ຊ": 1579,
      "ຍ": 1580,
      "ດ": 1581,
      "ທ": 1582,
      "ນ": 1583,
      "ບ": 1584,
      "ປ": 1585,
      "ຜ": 1586,
      "ພ": 1587,
      "ມ": 1588,
      "ລ": 1589,
      "ວ": 1590,
      "ສ": 1591,
      "ຫ": 1592,
      "ອ": 1593,
      "ຮ": 1594,
      "ະ": 1595,
      "ັ": 1596,
      "າ": 1597,
      "ີ": 1598,
      "ຶ": 1599,
      "ື": 1600,
      "ູ": 1601,
      "ົ": 1602,
      "ຽ": 1603,
      "ເ": 1604,
      "ແ": 1605,
      "ໃ": 1606,
      "ໄ": 1607,
      "່": 1608,
      "້": 1609,
      "ໍ": 1610,
      "ໝ": 1611,
      "་": 1612,
      "།": 1613,
      "༼": 1614,
      "༽": 1615,
      "ཁ": 1616,
      "ག": 1617,
      "ང": 1618,
      "ཅ": 1619,
      "ཆ": 1620,
      "ཇ": 1621,
      "ཉ": 1622,
      "ཐ": 1623,
      "ད": 1624,
      "ན": 1625,
      "པ": 1626,
      "ཕ": 1627,
      "བ": 1628,
      "མ": 1629,
      "ཝ": 1630,
      "འ": 1631,
      "ར": 1632,
      "ལ": 1633,
      "ཤ": 1634,
      "ས": 1635,
      "ཨ": 1636,
      "ི": 1637,
      "ུ": 1638,
      "ེ": 1639,
      "ོ": 1640,
      "ྒ": 1641,
      "ྟ": 1642,
      "ྱ": 1643,
      "ྲ": 1644,
      "ྷ": 1645,
      "က": 1646,
      "ခ": 1647,
      "င": 1648,
      "စ": 1649,
      "ည": 1650,
      "တ": 1651,
      "န": 1652,
      "ပ": 1653,
      "မ": 1654,
      "ယ": 1655,
      "ရ": 1656,
      "လ": 1657,
      "သ": 1658,
      "ာ": 1659,
      "ိ": 1660,
      "ီ": 1661,
      "ု": 1662,
      "ေ": 1663,
      "ံ": 1664,
      "း": 1665,
      "်": 1666,
      "ျ": 1667,
      "ြ": 1668,
      "Ⴀ": 1669,
      "Ⴆ": 1670,
      "Ⴎ": 1671,
      "ა": 1672,
      "ბ": 1673,
      "გ": 1674,
      "დ": 1675,
      "ე": 1676,
      "ვ": 1677,
      "ზ": 1678,
      "თ": 1679,
      "ი": 1680,
      "კ": 1681,
      "ლ": 1682,
      "მ": 1683,
      "ნ": 1684,
      "ო": 1685,
      "პ": 1686,
      "რ": 1687,
      "ს": 1688,
      "ტ": 1689,
      "უ": 1690,
      "ფ": 1691,
      "ქ": 1692,
      "ღ": 1693,
      "შ": 1694,
      "ჩ": 1695,
      "ც": 1696,
      "ძ": 1697,
      "წ": 1698,
      "ჯ": 1699,
      "ᄀ": 1700,
      "ᄂ": 1701,
      "ᄃ": 1702,
      "ᄅ": 1703,
      "ᄆ": 1704,
      "ᄇ": 1705,
      "ᄉ": 1706,
      "ᄊ": 1707,
      "ᄋ": 1708,
      "ᄌ": 1709,
      "ᄐ": 1710,
      "ᄒ": 1711,
      "ᅡ": 1712,
      "ᅥ": 1713,
      "ᅦ": 1714,
      "ᅧ": 1715,
      "ᅩ": 1716,
      "ᅮ": 1717,
      "ᅲ": 1718,
      "ᅳ": 1719,
      "ᅴ": 1720,
      "ᅵ": 1721,
      "ᆨ": 1722,
      "ᆫ": 1723,
      "ᆯ": 1724,
      "ᆷ": 1725,
      "ᆸ": 1726,
      "ᆼ": 1727,
      "ᇀ": 1728,
      "ሀ": 1729,
      "ሁ": 1730,
      "ሃ": 1731,
      "ህ": 1732,
      "ሆ": 1733,
      "ለ": 1734,
      "ሉ": 1735,
      "ሊ": 1736,
      "ላ": 1737,
      "ሌ": 1738,
      "ል": 1739,
      "ሎ": 1740,
      "ሐ": 1741,
      "ሔ": 1742,
      "ሕ": 1743,
      "መ": 1744,
      "ሙ": 1745,
      "ሚ": 1746,
      "ማ": 1747,
      "ሜ": 1748,
      "ም": 1749,
      "ሞ": 1750,
      "ሠ": 1751,
      "ሣ": 1752,
      "ሥ": 1753,
      "ረ": 1754,
      "ሩ": 1755,
      "ሪ": 1756,
      "ራ": 1757,
      "ሬ": 1758,
      "ር": 1759,
      "ሮ": 1760,
      "ሰ": 1761,
      "ሱ": 1762,
      "ሲ": 1763,
      "ሳ": 1764,
      "ስ": 1765,
      "ሶ": 1766,
      "ሽ": 1767,
      "ሾ": 1768,
      "ቀ": 1769,
      "ቁ": 1770,
      "ቂ": 1771,
      "ቃ": 1772,
      "ቅ": 1773,
      "ቆ": 1774,
      "በ": 1775,
      "ቡ": 1776,
      "ቢ": 1777,
      "ባ": 1778,
      "ቤ": 1779,
      "ብ": 1780,
      "ቦ": 1781,
      "ተ": 1782,
      "ቱ": 1783,
      "ቲ": 1784,
      "ታ": 1785,
      "ቴ": 1786,
      "ት": 1787,
      "ቶ": 1788,
      "ቸ": 1789,
      "ቹ": 1790,
      "ቺ": 1791,
      "ች": 1792,
      "ኋ": 1793,
      "ነ": 1794,
      "ኑ": 1795,
      "ና": 1796,
      "ኔ": 1797,
      "ን": 1798,
      "ኖ": 1799,
      "ኘ": 1800,
      "ኛ": 1801,
      "ኝ": 1802,
      "ኞ": 1803,
      "አ": 1804,
      "ኢ": 1805,
      "ኤ": 1806,
      "እ": 1807,
      "ከ": 1808,
      "ኩ": 1809,
      "ኪ": 1810,
      "ካ": 1811,
      "ክ": 1812,
      "ኮ": 1813,
      "ኳ": 1814,
      "ወ": 1815,
      "ዊ": 1816,
      "ዋ": 1817,
      "ው": 1818,
      "ዎ": 1819,
      "ዓ": 1820,
      "ዕ": 1821,
      "ዘ": 1822,
      "ዙ": 1823,
      "ዚ": 1824,
      "ዛ": 1825,
      "ዜ": 1826,
      "ዝ": 1827,
      "ዞ": 1828,
      "የ": 1829,
      "ያ": 1830,
      "ይ": 1831,
      "ዮ": 1832,
      "ደ": 1833,
      "ዱ": 1834,
      "ዲ": 1835,
      "ዳ": 1836,
      "ዴ": 1837,
      "ድ": 1838,
      "ዶ": 1839,
      "ጀ": 1840,
      "ጅ": 1841,
      "ገ": 1842,
      "ጉ": 1843,
      "ጊ": 1844,
      "ጋ": 1845,
      "ጌ": 1846,
      "ግ": 1847,
      "ጠ": 1848,
      "ጡ": 1849,
      "ጣ": 1850,
      "ጥ": 1851,
      "ጨ": 1852,
      "ጭ": 1853,
      "ጵ": 1854,
      "ጻ": 1855,
      "ጽ": 1856,
      "ፁ": 1857,
      "ፃ": 1858,
      "ፈ": 1859,
      "ፉ": 1860,
      "ፋ": 1861,
      "ፌ": 1862,
      "ፍ": 1863,
      "ፎ": 1864,
      "ፕ": 1865,
      "፡": 1866,
      "።": 1867,
      "፣": 1868,
      "፤": 1869,
      "፪": 1870,
      "፲": 1871,
      "Ꭰ": 1872,
      "Ꭱ": 1873,
      "Ꭺ": 1874,
      "Ꭼ": 1875,
      "Ꮇ": 1876,
      "Ꮋ": 1877,
      "Ꮍ": 1878,
      "Ꮖ": 1879,
      "Ꮤ": 1880,
      "Ꮩ": 1881,
      "Ꮮ": 1882,
      "Ꮯ": 1883,
      "Ꮲ": 1884,
      "Ꮶ": 1885,
      "Ᏼ": 1886,
      "ᐛ": 1887,
      "ᓚ": 1888,
      "ᕕ": 1889,
      "ᕗ": 1890,
      "ᕼ": 1891,
      "ᗢ": 1892,
      "ᗩ": 1893,
      "ᘏ": 1894,
      "ក": 1895,
      "ខ": 1896,
      "គ": 1897,
      "ឃ": 1898,
      "ង": 1899,
      "ច": 1900,
      "ជ": 1901,
      "ញ": 1902,
      "ដ": 1903,
      "ណ": 1904,
      "ត": 1905,
      "ថ": 1906,
      "ទ": 1907,
      "ន": 1908,
      "ប": 1909,
      "ព": 1910,
      "ម": 1911,
      "យ": 1912,
      "រ": 1913,
      "ល": 1914,
      "វ": 1915,
      "ស": 1916,
      "ហ": 1917,
      "អ": 1918,
      "ា": 1919,
      "ិ": 1920,
      "ី": 1921,
      "ុ": 1922,
      "ូ": 1923,
      "ួ": 1924,
      "ើ": 1925,
      "េ": 1926,
      "ែ": 1927,
      "ៃ": 1928,
      "ៅ": 1929,
      "ំ": 1930,
      "ះ": 1931,
      "៉": 1932,
      "់": 1933,
      "៍": 1934,
      "៎": 1935,
      "្": 1936,
      "Ა": 1937,
      "ᴀ": 1938,
      "ᴄ": 1939,
      "ᴉ": 1940,
      "ᴍ": 1941,
      "ᴎ": 1942,
      "ᴗ": 1943,
      "ᴛ": 1944,
      "ᴜ": 1945,
      "ᴥ": 1946,
      "ᴨ": 1947,
      "ᴩ": 1948,
      "ᴬ": 1949,
      "ᴱ": 1950,
      "ᴳ": 1951,
      "ᴴ": 1952,
      "ᴵ": 1953,
      "ᴷ": 1954,
      "ᴹ": 1955,
      "ᴺ": 1956,
      "ᴿ": 1957,
      "ᵀ": 1958,
      "ᵂ": 1959,
      "ᵃ": 1960,
      "ᵅ": 1961,
      "ᵇ": 1962,
      "ᵈ": 1963,
      "ᵉ": 1964,
      "ᵍ": 1965,
      "ᵏ": 1966,
      "ᵐ": 1967,
      "ᵒ": 1968,
      "ᵖ": 1969,
      "ᵗ": 1970,
      "ᵘ": 1971,
      "ᵛ": 1972,
      "ᶜ": 1973,
      "ᶠ": 1974,
      "ḃ": 1975,
      "ḉ": 1976,
      "ḋ": 1977,
      "ḍ": 1978,
      "ḣ": 1979,
      "ḥ": 1980,
      "ḷ": 1981,
      "ṁ": 1982,
      "ṃ": 1983,
      "ṅ": 1984,
      "ṇ": 1985,
      "ṓ": 1986,
      "ṛ": 1987,
      "ṣ": 1988,
      "Ṭ": 1989,
      "ṭ": 1990,
      "ṯ": 1991,
      "Ẁ": 1992,
      "ẓ": 1993,
      "ẞ": 1994,
      "Ạ": 1995,
      "ạ": 1996,
      "Ả": 1997,
      "ả": 1998,
      "Ấ": 1999,
      "ấ": 2000,
      "Ầ": 2001,
      "ầ": 2002,
      "Ẩ": 2003,
      "ẩ": 2004,
      "Ẫ": 2005,
      "ẫ": 2006,
      "Ậ": 2007,
      "ậ": 2008,
      "ắ": 2009,
      "ằ": 2010,
      "ẳ": 2011,
      "ẵ": 2012,
      "Ặ": 2013,
      "ặ": 2014,
      "ẹ": 2015,
      "ẻ": 2016,
      "ẽ": 2017,
      "Ế": 2018,
      "ế": 2019,
      "Ề": 2020,
      "ề": 2021,
      "Ể": 2022,
      "ể": 2023,
      "Ễ": 2024,
      "ễ": 2025,
      "Ệ": 2026,
      "ệ": 2027,
      "Ỉ": 2028,
      "ỉ": 2029,
      "Ị": 2030,
      "ị": 2031,
      "Ọ": 2032,
      "ọ": 2033,
      "Ỏ": 2034,
      "ỏ": 2035,
      "Ố": 2036,
      "ố": 2037,
      "Ồ": 2038,
      "ồ": 2039,
      "Ổ": 2040,
      "ổ": 2041,
      "ỗ": 2042,
      "Ộ": 2043,
      "ộ": 2044,
      "Ớ": 2045,
      "ớ": 2046,
      "Ờ": 2047,
      "ờ": 2048,
      "Ở": 2049,
      "ở": 2050,
      "ỡ": 2051,
      "Ợ": 2052,
      "ợ": 2053,
      "Ụ": 2054,
      "ụ": 2055,
      "Ủ": 2056,
      "ủ": 2057,
      "Ứ": 2058,
      "ứ": 2059,
      "ừ": 2060,
      "ử": 2061,
      "ữ": 2062,
      "Ự": 2063,
      "ự": 2064,
      "ỳ": 2065,
      "ỷ": 2066,
      "Ỹ": 2067,
      "ỹ": 2068,
      "ἀ": 2069,
      "ἂ": 2070,
      "ἄ": 2071,
      "Ἀ": 2072,
      "Ἄ": 2073,
      "Ἅ": 2074,
      "ἐ": 2075,
      "ἑ": 2076,
      "ἓ": 2077,
      "ἔ": 2078,
      "ἕ": 2079,
      "Ἐ": 2080,
      "Ἑ": 2081,
      "ἠ": 2082,
      "ἡ": 2083,
      "ἤ": 2084,
      "ἦ": 2085,
      "ἧ": 2086,
      "Ἡ": 2087,
      "ἰ": 2088,
      "ἱ": 2089,
      "ἴ": 2090,
      "ἵ": 2091,
      "ἶ": 2092,
      "Ἱ": 2093,
      "ὀ": 2094,
      "ὁ": 2095,
      "ὃ": 2096,
      "ὅ": 2097,
      "ὐ": 2098,
      "ὑ": 2099,
      "ὔ": 2100,
      "ὕ": 2101,
      "ὖ": 2102,
      "ὗ": 2103,
      "ὠ": 2104,
      "ὡ": 2105,
      "ὥ": 2106,
      "Ὠ": 2107,
      "Ὡ": 2108,
      "Ὤ": 2109,
      "Ὥ": 2110,
      "Ὦ": 2111,
      "ὰ": 2112,
      "ά": 2113,
      "ὲ": 2114,
      "ὴ": 2115,
      "ή": 2116,
      "ὶ": 2117,
      "ί": 2118,
      "ὸ": 2119,
      "ό": 2120,
      "ὺ": 2121,
      "ύ": 2122,
      "ὼ": 2123,
      "ᾂ": 2124,
      "ᾃ": 2125,
      "ᾅ": 2126,
      "ᾆ": 2127,
      "ᾉ": 2128,
      "ᾊ": 2129,
      "ᾌ": 2130,
      "ᾍ": 2131,
      "ᾐ": 2132,
      "ᾓ": 2133,
      "ᾔ": 2134,
      "ᾖ": 2135,
      "ᾡ": 2136,
      "ᾢ": 2137,
      "ᾣ": 2138,
      "ᾤ": 2139,
      "ᾥ": 2140,
      "ᾦ": 2141,
      "ᾧ": 2142,
      "ᾨ": 2143,
      "ᾩ": 2144,
      "ᾪ": 2145,
      "ᾫ": 2146,
      "ᾬ": 2147,
      "ᾭ": 2148,
      "ᾮ": 2149,
      "ᾯ": 2150,
      "ᾰ": 2151,
      "ᾱ": 2152,
      "ᾲ": 2153,
      "ᾳ": 2154,
      "ᾴ": 2155,
      "᾵": 2156,
      "ᾶ": 2157,
      "ᾷ": 2158,
      "Ᾱ": 2159,
      "᾽": 2160,
      "᾿": 2161,
      "ῃ": 2162,
      "ῆ": 2163,
      "ῇ": 2164,
      "ῖ": 2165,
      "ῥ": 2166,
      "ῦ": 2167,
      "ῳ": 2168,
      "ῴ": 2169,
      "ῶ": 2170,
      "ῷ": 2171,
      "​": 2172,
      "‌": 2173,
      "‍": 2174,
      "‎": 2175,
      "‏": 2176,
      "‐": 2177,
      "‑": 2178,
      "‒": 2179,
      "–": 2180,
      "—": 2181,
      "―": 2182,
      "‖": 2183,
      "‘": 2184,
      "’": 2185,
      "‚": 2186,
      "“": 2187,
      "”": 2188,
      "„": 2189,
      "‟": 2190,
      "†": 2191,
      "‡": 2192,
      "•": 2193,
      "‣": 2194,
      "‥": 2195,
      "…": 2196,
      "‧": 2197,
      "‪": 2198,
      "‫": 2199,
      "‬": 2200,
      "‭": 2201,
      "‰": 2202,
      "‱": 2203,
      "′": 2204,
      "″": 2205,
      "‹": 2206,
      "›": 2207,
      "※": 2208,
      "‼": 2209,
      "‽": 2210,
      "‿": 2211,
      "⁃": 2212,
      "⁄": 2213,
      "⁇": 2214,
      "⁉": 2215,
      "⁜": 2216,
      "⁞": 2217,
      "⁠": 2218,
      "⁡": 2219,
      "⁦": 2220,
      "⁩": 2221,
      "⁰": 2222,
      "ⁱ": 2223,
      "⁴": 2224,
      "⁵": 2225,
      "⁶": 2226,
      "⁷": 2227,
      "⁸": 2228,
      "⁹": 2229,
      "⁺": 2230,
      "⁻": 2231,
      "ⁿ": 2232,
      "₀": 2233,
      "₁": 2234,
      "₂": 2235,
      "₃": 2236,
      "₄": 2237,
      "₅": 2238,
      "₆": 2239,
      "₇": 2240,
      "₈": 2241,
      "₉": 2242,
      "₊": 2243,
      "ₗ": 2244,
      "ₙ": 2245,
      "₠": 2246,
      "₡": 2247,
      "₢": 2248,
      "₣": 2249,
      "₤": 2250,
      "₥": 2251,
      "₦": 2252,
      "₧": 2253,
      "₩": 2254,
      "₪": 2255,
      "₫": 2256,
      "€": 2257,
      "₭": 2258,
      "₮": 2259,
      "₯": 2260,
      "₱": 2261,
      "₲": 2262,
      "₳": 2263,
      "₴": 2264,
      "₵": 2265,
      "₶": 2266,
      "₷": 2267,
      "₸": 2268,
      "₹": 2269,
      "₺": 2270,
      "₼": 2271,
      "₽": 2272,
      "₿": 2273,
      "⃗": 2274,
      "⃝": 2275,
      "⃣": 2276,
      "ℂ": 2277,
      "℃": 2278,
      "℅": 2279,
      "℉": 2280,
      "ℊ": 2281,
      "ℋ": 2282,
      "ℌ": 2283,
      "ℍ": 2284,
      "ℎ": 2285,
      "ℐ": 2286,
      "ℑ": 2287,
      "ℒ": 2288,
      "ℓ": 2289,
      "ℕ": 2290,
      "№": 2291,
      "ℙ": 2292,
      "ℝ": 2293,
      "™": 2294,
      "ℤ": 2295,
      "Ω": 2296,
      "Å": 2297,
      "℮": 2298,
      "ℯ": 2299,
      "ℴ": 2300,
      "ℵ": 2301,
      "ℹ": 2302,
      "⅁": 2303,
      "⅓": 2304,
      "⅔": 2305,
      "⅛": 2306,
      "⅜": 2307,
      "⅝": 2308,
      "⅞": 2309,
      "Ⅰ": 2310,
      "Ⅱ": 2311,
      "Ⅲ": 2312,
      "Ⅳ": 2313,
      "ⅴ": 2314,
      "ⅹ": 2315,
      "ⅼ": 2316,
      "ⅿ": 2317,
      "←": 2318,
      "↑": 2319,
      "→": 2320,
      "↓": 2321,
      "↔": 2322,
      "↕": 2323,
      "↗": 2324,
      "↦": 2325,
      "↩": 2326,
      "↪": 2327,
      "↯": 2328,
      "↳": 2329,
      "↵": 2330,
      "⇌": 2331,
      "⇐": 2332,
      "⇑": 2333,
      "⇒": 2334,
      "⇔": 2335,
      "⇡": 2336,
      "⇥": 2337,
      "⇨": 2338,
      "∀": 2339,
      "∂": 2340,
      "∃": 2341,
      "∄": 2342,
      "∅": 2343,
      "∆": 2344,
      "∇": 2345,
      "∈": 2346,
      "∉": 2347,
      "∋": 2348,
      "∌": 2349,
      "∎": 2350,
      "∑": 2351,
      "−": 2352,
      "∕": 2353,
      "∗": 2354,
      "∘": 2355,
      "∙": 2356,
      "√": 2357,
      "∝": 2358,
      "∞": 2359,
      "∠": 2360,
      "∣": 2361,
      "∥": 2362,
      "∧": 2363,
      "∨": 2364,
      "∩": 2365,
      "∪": 2366,
      "∫": 2367,
      "∴": 2368,
      "∶": 2369,
      "∼": 2370,
      "≃": 2371,
      "≅": 2372,
      "≈": 2373,
      "≠": 2374,
      "≡": 2375,
      "≢": 2376,
      "≤": 2377,
      "≥": 2378,
      "≦": 2379,
      "≧": 2380,
      "≪": 2381,
      "≫": 2382,
      "⊂": 2383,
      "⊃": 2384,
      "⊆": 2385,
      "⊕": 2386,
      "⊙": 2387,
      "⊢": 2388,
      "⊤": 2389,
      "⊥": 2390,
      "⊹": 2391,
      "⋀": 2392,
      "⋁": 2393,
      "⋂": 2394,
      "⋄": 2395,
      "⋅": 2396,
      "⋆": 2397,
      "⋐": 2398,
      "⋑": 2399,
      "⋯": 2400,
      "⌈": 2401,
      "⌉": 2402,
      "⌊": 2403,
      "⌋": 2404,
      "⌐": 2405,
      "⌓": 2406,
      "⌘": 2407,
      "⌛": 2408,
      "⌧": 2409,
      "⌨": 2410,
      "〈": 2411,
      "〉": 2412,
      "⍳": 2413,
      "⍴": 2414,
      "⍵": 2415,
      "⍺": 2416,
      "⎕": 2417,
      "⎛": 2418,
      "⎜": 2419,
      "⎝": 2420,
      "⎞": 2421,
      "⎟": 2422,
      "⎠": 2423,
      "⎡": 2424,
      "⎢": 2425,
      "⎣": 2426,
      "⎤": 2427,
      "⎥": 2428,
      "⎦": 2429,
      "⏤": 2430,
      "⏩": 2431,
      "⏰": 2432,
      "⏱": 2433,
      "⏳": 2434,
      "⏸": 2435,
      "⏹": 2436,
      "⑊": 2437,
      "①": 2438,
      "②": 2439,
      "③": 2440,
      "④": 2441,
      "⑤": 2442,
      "⑥": 2443,
      "⑦": 2444,
      "Ⓐ": 2445,
      "Ⓑ": 2446,
      "Ⓒ": 2447,
      "Ⓓ": 2448,
      "Ⓜ": 2449,
      "ⓒ": 2450,
      "ⓛ": 2451,
      "─": 2452,
      "━": 2453,
      "│": 2454,
      "┃": 2455,
      "┈": 2456,
      "┏": 2457,
      "┐": 2458,
      "└": 2459,
      "┗": 2460,
      "┘": 2461,
      "├": 2462,
      "┣": 2463,
      "┤": 2464,
      "┫": 2465,
      "┬": 2466,
      "┻": 2467,
      "┼": 2468,
      "═": 2469,
      "║": 2470,
      "╒": 2471,
      "╓": 2472,
      "╔": 2473,
      "╕": 2474,
      "╗": 2475,
      "╚": 2476,
      "╝": 2477,
      "╞": 2478,
      "╡": 2479,
      "╣": 2480,
      "╤": 2481,
      "╨": 2482,
      "╪": 2483,
      "╭": 2484,
      "╮": 2485,
      "╯": 2486,
      "╰": 2487,
      "╲": 2488,
      "▀": 2489,
      "▁": 2490,
      "▂": 2491,
      "▄": 2492,
      "█": 2493,
      "▌": 2494,
      "▎": 2495,
      "▏": 2496,
      "░": 2497,
      "▒": 2498,
      "▓": 2499,
      "■": 2500,
      "□": 2501,
      "▢": 2502,
      "▪": 2503,
      "▬": 2504,
      "▲": 2505,
      "△": 2506,
      "▶": 2507,
      "▷": 2508,
      "▸": 2509,
      "►": 2510,
      "▼": 2511,
      "▽": 2512,
      "▾": 2513,
      "◀": 2514,
      "◂": 2515,
      "◆": 2516,
      "◇": 2517,
      "◈": 2518,
      "◉": 2519,
      "◊": 2520,
      "○": 2521,
      "◍": 2522,
      "●": 2523,
      "◕": 2524,
      "◜": 2525,
      "◝": 2526,
      "◠": 2527,
      "◡": 2528,
      "◦": 2529,
      "◯": 2530,
      "◻": 2531,
      "◾": 2532,
      "☀": 2533,
      "☁": 2534,
      "☂": 2535,
      "☄": 2536,
      "★": 2537,
      "☆": 2538,
      "☇": 2539,
      "☉": 2540,
      "☎": 2541,
      "☏": 2542,
      "☐": 2543,
      "☑": 2544,
      "☒": 2545,
      "☔": 2546,
      "☕": 2547,
      "☘": 2548,
      "☝": 2549,
      "☞": 2550,
      "☠": 2551,
      "☢": 2552,
      "☬": 2553,
      "☮": 2554,
      "☰": 2555,
      "☹": 2556,
      "☺": 2557,
      "☼": 2558,
      "♀": 2559,
      "♁": 2560,
      "♂": 2561,
      "♉": 2562,
      "♌": 2563,
      "♒": 2564,
      "♔": 2565,
      "♕": 2566,
      "♖": 2567,
      "♗": 2568,
      "♘": 2569,
      "♙": 2570,
      "♚": 2571,
      "♛": 2572,
      "♜": 2573,
      "♝": 2574,
      "♞": 2575,
      "♟": 2576,
      "♡": 2577,
      "♥": 2578,
      "♦": 2579,
      "♩": 2580,
      "♪": 2581,
      "♫": 2582,
      "♻": 2583,
      "♾": 2584,
      "⚃": 2585,
      "⚄": 2586,
      "⚅": 2587,
      "⚔": 2588,
      "⚕": 2589,
      "⚖": 2590,
      "⚗": 2591,
      "⚙": 2592,
      "⚛": 2593,
      "⚜": 2594,
      "⚠": 2595,
      "⚡": 2596,
      "⚪": 2597,
      "⚫": 2598,
      "⚽": 2599,
      "⛄": 2600,
      "⛏": 2601,
      "⛓": 2602,
      "⛔": 2603,
      "⛩": 2604,
      "⛰": 2605,
      "⛱": 2606,
      "⛵": 2607,
      "⛹": 2608,
      "⛽": 2609,
      "✂": 2610,
      "✅": 2611,
      "✈": 2612,
      "✉": 2613,
      "✊": 2614,
      "✋": 2615,
      "✌": 2616,
      "✍": 2617,
      "✎": 2618,
      "✏": 2619,
      "✐": 2620,
      "✒": 2621,
      "✓": 2622,
      "✔": 2623,
      "✕": 2624,
      "✖": 2625,
      "✗": 2626,
      "✘": 2627,
      "✝": 2628,
      "✡": 2629,
      "✥": 2630,
      "✦": 2631,
      "✧": 2632,
      "✨": 2633,
      "✩": 2634,
      "✰": 2635,
      "✴": 2636,
      "✹": 2637,
      "✼": 2638,
      "✿": 2639,
      "❁": 2640,
      "❃": 2641,
      "❄": 2642,
      "❆": 2643,
      "❌": 2644,
      "❍": 2645,
      "❎": 2646,
      "❑": 2647,
      "❒": 2648,
      "❓": 2649,
      "❕": 2650,
      "❖": 2651,
      "❗": 2652,
      "❜": 2653,
      "❣": 2654,
      "❤": 2655,
      "❥": 2656,
      "❦": 2657,
      "❯": 2658,
      "❱": 2659,
      "❶": 2660,
      "❷": 2661,
      "➔": 2662,
      "➕": 2663,
      "➖": 2664,
      "➜": 2665,
      "➞": 2666,
      "➡": 2667,
      "➢": 2668,
      "➤": 2669,
      "➥": 2670,
      "⟨": 2671,
      "⟩": 2672,
      "⟪": 2673,
      "⟶": 2674,
      "⠀": 2675,
      "⠁": 2676,
      "⠂": 2677,
      "⠃": 2678,
      "⠄": 2679,
      "⠅": 2680,
      "⠆": 2681,
      "⠇": 2682,
      "⠈": 2683,
      "⠉": 2684,
      "⠊": 2685,
      "⠋": 2686,
      "⠐": 2687,
      "⠑": 2688,
      "⠒": 2689,
      "⠓": 2690,
      "⠔": 2691,
      "⠕": 2692,
      "⠙": 2693,
      "⠚": 2694,
      "⠛": 2695,
      "⠝": 2696,
      "⠞": 2697,
      "⠟": 2698,
      "⠠": 2699,
      "⠥": 2700,
      "⠦": 2701,
      "⠪": 2702,
      "⠫": 2703,
      "⠭": 2704,
      "⠲": 2705,
      "⠳": 2706,
      "⠴": 2707,
      "⠶": 2708,
      "⠸": 2709,
      "⠹": 2710,
      "⠻": 2711,
      "⠾": 2712,
      "⠿": 2713,
      "⡀": 2714,
      "⡁": 2715,
      "⡄": 2716,
      "⡆": 2717,
      "⡇": 2718,
      "⡈": 2719,
      "⡊": 2720,
      "⡎": 2721,
      "⡒": 2722,
      "⡕": 2723,
      "⡙": 2724,
      "⡛": 2725,
      "⡞": 2726,
      "⡟": 2727,
      "⡠": 2728,
      "⡢": 2729,
      "⡣": 2730,
      "⡪": 2731,
      "⡫": 2732,
      "⡭": 2733,
      "⡮": 2734,
      "⡰": 2735,
      "⡴": 2736,
      "⡵": 2737,
      "⡹": 2738,
      "⡺": 2739,
      "⡻": 2740,
      "⡾": 2741,
      "⡿": 2742,
      "⢀": 2743,
      "⢁": 2744,
      "⢂": 2745,
      "⢄": 2746,
      "⢉": 2747,
      "⢐": 2748,
      "⢔": 2749,
      "⢕": 2750,
      "⢚": 2751,
      "⢝": 2752,
      "⢟": 2753,
      "⢠": 2754,
      "⢤": 2755,
      "⢦": 2756,
      "⢬": 2757,
      "⢴": 2758,
      "⢷": 2759,
      "⢸": 2760,
      "⢹": 2761,
      "⢻": 2762,
      "⢿": 2763,
      "⣀": 2764,
      "⣁": 2765,
      "⣄": 2766,
      "⣆": 2767,
      "⣇": 2768,
      "⣈": 2769,
      "⣊": 2770,
      "⣌": 2771,
      "⣔": 2772,
      "⣕": 2773,
      "⣗": 2774,
      "⣛": 2775,
      "⣜": 2776,
      "⣟": 2777,
      "⣠": 2778,
      "⣡": 2779,
      "⣢": 2780,
      "⣤": 2781,
      "⣥": 2782,
      "⣦": 2783,
      "⣧": 2784,
      "⣪": 2785,
      "⣬": 2786,
      "⣭": 2787,
      "⣮": 2788,
      "⣯": 2789,
      "⣰": 2790,
      "⣴": 2791,
      "⣵": 2792,
      "⣶": 2793,
      "⣷": 2794,
      "⣹": 2795,
      "⣼": 2796,
      "⣽": 2797,
      "⣾": 2798,
      "⣿": 2799,
      "⤵": 2800,
      "⥁": 2801,
      "⦁": 2802,
      "⦎": 2803,
      "⦏": 2804,
      "⦿": 2805,
      "⩽": 2806,
      "⫟": 2807,
      "⬆": 2808,
      "⬇": 2809,
      "⭐": 2810,
      "⮚": 2811,
      "ⴰ": 2812,
      "ⷭ": 2813,
      "⻨": 2814,
      "⼀": 2815,
      "⼆": 2816,
      "⼈": 2817,
      "⼠": 2818,
      "⼤": 2819,
      "⼯": 2820,
      "⽅": 2821,
      "⽣": 2822,
      "⽬": 2823,
      "⽽": 2824,
      "⾊": 2825,
      "⾏": 2826,
      "⾦": 2827,
      "⾼": 2828,
      "⿇": 2829,
      "、": 2830,
      "。": 2831,
      "々": 2832,
      "〇": 2833,
      "〈": 2834,
      "〉": 2835,
      "《": 2836,
      "》": 2837,
      "「": 2838,
      "」": 2839,
      "『": 2840,
      "』": 2841,
      "【": 2842,
      "】": 2843,
      "〒": 2844,
      "〔": 2845,
      "〕": 2846,
      "〖": 2847,
      "〗": 2848,
      "〜": 2849,
      "ぁ": 2850,
      "あ": 2851,
      "ぃ": 2852,
      "い": 2853,
      "ぅ": 2854,
      "う": 2855,
      "ぇ": 2856,
      "え": 2857,
      "ぉ": 2858,
      "お": 2859,
      "か": 2860,
      "が": 2861,
      "き": 2862,
      "ぎ": 2863,
      "く": 2864,
      "ぐ": 2865,
      "け": 2866,
      "げ": 2867,
      "こ": 2868,
      "ご": 2869,
      "さ": 2870,
      "ざ": 2871,
      "し": 2872,
      "じ": 2873,
      "す": 2874,
      "ず": 2875,
      "せ": 2876,
      "ぜ": 2877,
      "そ": 2878,
      "ぞ": 2879,
      "た": 2880,
      "だ": 2881,
      "ち": 2882,
      "ぢ": 2883,
      "っ": 2884,
      "つ": 2885,
      "づ": 2886,
      "て": 2887,
      "で": 2888,
      "と": 2889,
      "ど": 2890,
      "な": 2891,
      "に": 2892,
      "ぬ": 2893,
      "ね": 2894,
      "の": 2895,
      "は": 2896,
      "ば": 2897,
      "ぱ": 2898,
      "ひ": 2899,
      "び": 2900,
      "ぴ": 2901,
      "ふ": 2902,
      "ぶ": 2903,
      "ぷ": 2904,
      "へ": 2905,
      "べ": 2906,
      "ぺ": 2907,
      "ほ": 2908,
      "ぼ": 2909,
      "ぽ": 2910,
      "ま": 2911,
      "み": 2912,
      "む": 2913,
      "め": 2914,
      "も": 2915,
      "ゃ": 2916,
      "や": 2917,
      "ゅ": 2918,
      "ゆ": 2919,
      "ょ": 2920,
      "よ": 2921,
      "ら": 2922,
      "り": 2923,
      "る": 2924,
      "れ": 2925,
      "ろ": 2926,
      "わ": 2927,
      "を": 2928,
      "ん": 2929,
      "ゔ": 2930,
      "ゕ": 2931,
      "゙": 2932,
      "゛": 2933,
      "ゝ": 2934,
      "ァ": 2935,
      "ア": 2936,
      "ィ": 2937,
      "イ": 2938,
      "ゥ": 2939,
      "ウ": 2940,
      "ェ": 2941,
      "エ": 2942,
      "ォ": 2943,
      "オ": 2944,
      "カ": 2945,
      "ガ": 2946,
      "キ": 2947,
      "ギ": 2948,
      "ク": 2949,
      "グ": 2950,
      "ケ": 2951,
      "ゲ": 2952,
      "コ": 2953,
      "ゴ": 2954,
      "サ": 2955,
      "ザ": 2956,
      "シ": 2957,
      "ジ": 2958,
      "ス": 2959,
      "ズ": 2960,
      "セ": 2961,
      "ゼ": 2962,
      "ソ": 2963,
      "ゾ": 2964,
      "タ": 2965,
      "ダ": 2966,
      "チ": 2967,
      "ッ": 2968,
      "ツ": 2969,
      "テ": 2970,
      "デ": 2971,
      "ト": 2972,
      "ド": 2973,
      "ナ": 2974,
      "ニ": 2975,
      "ヌ": 2976,
      "ネ": 2977,
      "ノ": 2978,
      "ハ": 2979,
      "バ": 2980,
      "パ": 2981,
      "ヒ": 2982,
      "ビ": 2983,
      "ピ": 2984,
      "フ": 2985,
      "ブ": 2986,
      "プ": 2987,
      "ヘ": 2988,
      "ベ": 2989,
      "ペ": 2990,
      "ホ": 2991,
      "ボ": 2992,
      "ポ": 2993,
      "マ": 2994,
      "ミ": 2995,
      "ム": 2996,
      "メ": 2997,
      "モ": 2998,
      "ャ": 2999,
      "ヤ": 3000,
      "ュ": 3001,
      "ユ": 3002,
      "ョ": 3003,
      "ヨ": 3004,
      "ラ": 3005,
      "リ": 3006,
      "ル": 3007,
      "レ": 3008,
      "ロ": 3009,
      "ヮ": 3010,
      "ワ": 3011,
      "ン": 3012,
      "ヴ": 3013,
      "ヶ": 3014,
      "・": 3015,
      "ー": 3016,
      "ヽ": 3017,
      "ㄐ": 3018,
      "ㄑ": 3019,
      "ㄘ": 3020,
      "ㄚ": 3021,
      "ㄨ": 3022,
      "ㄱ": 3023,
      "ㄴ": 3024,
      "ㄷ": 3025,
      "ㄹ": 3026,
      "ㄻ": 3027,
      "ㄿ": 3028,
      "ㅀ": 3029,
      "ㅁ": 3030,
      "ㅂ": 3031,
      "ㅃ": 3032,
      "ㅅ": 3033,
      "ㅆ": 3034,
      "ㅇ": 3035,
      "ㅈ": 3036,
      "ㅋ": 3037,
      "ㅍ": 3038,
      "ㅎ": 3039,
      "ㅏ": 3040,
      "ㅐ": 3041,
      "ㅑ": 3042,
      "ㅓ": 3043,
      "ㅕ": 3044,
      "ㅗ": 3045,
      "ㅙ": 3046,
      "ㅛ": 3047,
      "ㅜ": 3048,
      "ㅠ": 3049,
      "ㅡ": 3050,
      "ㅣ": 3051,
      "ㆍ": 3052,
      "㈜": 3053,
      "㈱": 3054,
      "㉠": 3055,
      "㉡": 3056,
      "㉢": 3057,
      "㎡": 3058,
      "㏊": 3059,
      "一": 3060,
      "丁": 3061,
      "七": 3062,
      "万": 3063,
      "丈": 3064,
      "三": 3065,
      "上": 3066,
      "下": 3067,
      "不": 3068,
      "与": 3069,
      "丑": 3070,
      "专": 3071,
      "且": 3072,
      "世": 3073,
      "丘": 3074,
      "丙": 3075,
      "业": 3076,
      "东": 3077,
      "丝": 3078,
      "丟": 3079,
      "両": 3080,
      "丢": 3081,
      "两": 3082,
      "严": 3083,
      "並": 3084,
      "丧": 3085,
      "丨": 3086,
      "个": 3087,
      "丫": 3088,
      "中": 3089,
      "丰": 3090,
      "串": 3091,
      "临": 3092,
      "丶": 3093,
      "丸": 3094,
      "丹": 3095,
      "为": 3096,
      "主": 3097,
      "丼": 3098,
      "丽": 3099,
      "举": 3100,
      "丿": 3101,
      "乃": 3102,
      "久": 3103,
      "么": 3104,
      "义": 3105,
      "之": 3106,
      "乌": 3107,
      "乎": 3108,
      "乏": 3109,
      "乐": 3110,
      "乔": 3111,
      "乗": 3112,
      "乘": 3113,
      "乙": 3114,
      "乜": 3115,
      "九": 3116,
      "也": 3117,
      "乡": 3118,
      "书": 3119,
      "买": 3120,
      "乱": 3121,
      "乳": 3122,
      "乾": 3123,
      "亀": 3124,
      "亂": 3125,
      "了": 3126,
      "予": 3127,
      "争": 3128,
      "事": 3129,
      "二": 3130,
      "于": 3131,
      "亏": 3132,
      "云": 3133,
      "互": 3134,
      "五": 3135,
      "井": 3136,
      "亚": 3137,
      "些": 3138,
      "亜": 3139,
      "亞": 3140,
      "亡": 3141,
      "亢": 3142,
      "交": 3143,
      "亥": 3144,
      "亦": 3145,
      "产": 3146,
      "享": 3147,
      "京": 3148,
      "亭": 3149,
      "亮": 3150,
      "亲": 3151,
      "人": 3152,
      "亿": 3153,
      "什": 3154,
      "仁": 3155,
      "仄": 3156,
      "仅": 3157,
      "仆": 3158,
      "仇": 3159,
      "今": 3160,
      "介": 3161,
      "从": 3162,
      "仏": 3163,
      "仑": 3164,
      "仓": 3165,
      "仔": 3166,
      "仕": 3167,
      "他": 3168,
      "仗": 3169,
      "付": 3170,
      "仙": 3171,
      "代": 3172,
      "以": 3173,
      "仪": 3174,
      "们": 3175,
      "仮": 3176,
      "仰": 3177,
      "仲": 3178,
      "件": 3179,
      "价": 3180,
      "任": 3181,
      "份": 3182,
      "仿": 3183,
      "企": 3184,
      "伊": 3185,
      "伍": 3186,
      "伏": 3187,
      "伐": 3188,
      "休": 3189,
      "众": 3190,
      "优": 3191,
      "伙": 3192,
      "会": 3193,
      "伝": 3194,
      "伞": 3195,
      "伟": 3196,
      "传": 3197,
      "伤": 3198,
      "伦": 3199,
      "伯": 3200,
      "估": 3201,
      "伴": 3202,
      "伶": 3203,
      "伸": 3204,
      "伺": 3205,
      "似": 3206,
      "伽": 3207,
      "但": 3208,
      "位": 3209,
      "低": 3210,
      "住": 3211,
      "佐": 3212,
      "佑": 3213,
      "体": 3214,
      "何": 3215,
      "余": 3216,
      "佛": 3217,
      "作": 3218,
      "你": 3219,
      "佢": 3220,
      "佩": 3221,
      "佬": 3222,
      "佰": 3223,
      "佳": 3224,
      "併": 3225,
      "佹": 3226,
      "使": 3227,
      "來": 3228,
      "例": 3229,
      "侍": 3230,
      "供": 3231,
      "依": 3232,
      "侠": 3233,
      "価": 3234,
      "侣": 3235,
      "侦": 3236,
      "侧": 3237,
      "侮": 3238,
      "侯": 3239,
      "侵": 3240,
      "便": 3241,
      "係": 3242,
      "促": 3243,
      "俄": 3244,
      "俊": 3245,
      "俐": 3246,
      "俗": 3247,
      "俚": 3248,
      "保": 3249,
      "俞": 3250,
      "信": 3251,
      "修": 3252,
      "俯": 3253,
      "俱": 3254,
      "俳": 3255,
      "俺": 3256,
      "俾": 3257,
      "倉": 3258,
      "個": 3259,
      "倍": 3260,
      "們": 3261,
      "倒": 3262,
      "候": 3263,
      "倚": 3264,
      "借": 3265,
      "倣": 3266,
      "値": 3267,
      "倦": 3268,
      "倩": 3269,
      "倪": 3270,
      "倫": 3271,
      "债": 3272,
      "值": 3273,
      "倾": 3274,
      "偃": 3275,
      "假": 3276,
      "偈": 3277,
      "偉": 3278,
      "偏": 3279,
      "做": 3280,
      "停": 3281,
      "健": 3282,
      "側": 3283,
      "偶": 3284,
      "偷": 3285,
      "偿": 3286,
      "傅": 3287,
      "傍": 3288,
      "傑": 3289,
      "傘": 3290,
      "備": 3291,
      "傣": 3292,
      "傦": 3293,
      "储": 3294,
      "催": 3295,
      "傲": 3296,
      "傳": 3297,
      "債": 3298,
      "傷": 3299,
      "傻": 3300,
      "傾": 3301,
      "僅": 3302,
      "働": 3303,
      "像": 3304,
      "僕": 3305,
      "僚": 3306,
      "僧": 3307,
      "僵": 3308,
      "價": 3309,
      "儀": 3310,
      "億": 3311,
      "儒": 3312,
      "儘": 3313,
      "償": 3314,
      "優": 3315,
      "儲": 3316,
      "儿": 3317,
      "允": 3318,
      "元": 3319,
      "兄": 3320,
      "充": 3321,
      "兆": 3322,
      "先": 3323,
      "光": 3324,
      "克": 3325,
      "免": 3326,
      "兎": 3327,
      "児": 3328,
      "兒": 3329,
      "兔": 3330,
      "党": 3331,
      "入": 3332,
      "內": 3333,
      "全": 3334,
      "兩": 3335,
      "八": 3336,
      "公": 3337,
      "六": 3338,
      "兮": 3339,
      "兰": 3340,
      "共": 3341,
      "关": 3342,
      "兴": 3343,
      "兵": 3344,
      "其": 3345,
      "具": 3346,
      "典": 3347,
      "兹": 3348,
      "养": 3349,
      "兼": 3350,
      "兽": 3351,
      "冀": 3352,
      "内": 3353,
      "円": 3354,
      "冇": 3355,
      "冈": 3356,
      "冊": 3357,
      "册": 3358,
      "再": 3359,
      "冒": 3360,
      "写": 3361,
      "军": 3362,
      "农": 3363,
      "冠": 3364,
      "冥": 3365,
      "冬": 3366,
      "冯": 3367,
      "冰": 3368,
      "冲": 3369,
      "决": 3370,
      "况": 3371,
      "冶": 3372,
      "冷": 3373,
      "冻": 3374,
      "净": 3375,
      "凄": 3376,
      "准": 3377,
      "凉": 3378,
      "凌": 3379,
      "凍": 3380,
      "减": 3381,
      "凑": 3382,
      "凛": 3383,
      "凝": 3384,
      "几": 3385,
      "凡": 3386,
      "凤": 3387,
      "処": 3388,
      "凪": 3389,
      "凭": 3390,
      "凯": 3391,
      "凰": 3392,
      "凳": 3393,
      "凶": 3394,
      "凸": 3395,
      "凹": 3396,
      "击": 3397,
      "函": 3398,
      "刀": 3399,
      "分": 3400,
      "切": 3401,
      "刊": 3402,
      "刐": 3403,
      "刑": 3404,
      "划": 3405,
      "列": 3406,
      "刘": 3407,
      "则": 3408,
      "刚": 3409,
      "创": 3410,
      "初": 3411,
      "删": 3412,
      "判": 3413,
      "別": 3414,
      "利": 3415,
      "别": 3416,
      "刮": 3417,
      "到": 3418,
      "制": 3419,
      "刷": 3420,
      "券": 3421,
      "刹": 3422,
      "刺": 3423,
      "刻": 3424,
      "剂": 3425,
      "剃": 3426,
      "則": 3427,
      "削": 3428,
      "前": 3429,
      "剎": 3430,
      "剑": 3431,
      "剔": 3432,
      "剖": 3433,
      "剛": 3434,
      "剝": 3435,
      "剤": 3436,
      "剧": 3437,
      "剩": 3438,
      "剪": 3439,
      "副": 3440,
      "剰": 3441,
      "割": 3442,
      "創": 3443,
      "劃": 3444,
      "劇": 3445,
      "劈": 3446,
      "劉": 3447,
      "劍": 3448,
      "劑": 3449,
      "力": 3450,
      "劝": 3451,
      "办": 3452,
      "功": 3453,
      "加": 3454,
      "务": 3455,
      "劣": 3456,
      "动": 3457,
      "助": 3458,
      "努": 3459,
      "劫": 3460,
      "励": 3461,
      "劲": 3462,
      "劳": 3463,
      "労": 3464,
      "効": 3465,
      "势": 3466,
      "勁": 3467,
      "勃": 3468,
      "勇": 3469,
      "勉": 3470,
      "勋": 3471,
      "勒": 3472,
      "動": 3473,
      "勘": 3474,
      "務": 3475,
      "勝": 3476,
      "募": 3477,
      "勢": 3478,
      "勤": 3479,
      "勧": 3480,
      "勳": 3481,
      "勻": 3482,
      "勾": 3483,
      "勿": 3484,
      "匀": 3485,
      "包": 3486,
      "化": 3487,
      "北": 3488,
      "匙": 3489,
      "匠": 3490,
      "匡": 3491,
      "匹": 3492,
      "区": 3493,
      "医": 3494,
      "匿": 3495,
      "區": 3496,
      "十": 3497,
      "千": 3498,
      "升": 3499,
      "午": 3500,
      "半": 3501,
      "华": 3502,
      "协": 3503,
      "卑": 3504,
      "卒": 3505,
      "卓": 3506,
      "協": 3507,
      "单": 3508,
      "卖": 3509,
      "南": 3510,
      "単": 3511,
      "博": 3512,
      "卜": 3513,
      "卡": 3514,
      "卢": 3515,
      "卤": 3516,
      "卦": 3517,
      "卧": 3518,
      "卫": 3519,
      "印": 3520,
      "危": 3521,
      "即": 3522,
      "却": 3523,
      "卵": 3524,
      "卷": 3525,
      "卸": 3526,
      "卻": 3527,
      "厂": 3528,
      "厄": 3529,
      "厅": 3530,
      "历": 3531,
      "厉": 3532,
      "压": 3533,
      "厌": 3534,
      "厕": 3535,
      "厘": 3536,
      "厚": 3537,
      "原": 3538,
      "厢": 3539,
      "厦": 3540,
      "厨": 3541,
      "厭": 3542,
      "厲": 3543,
      "厳": 3544,
      "去": 3545,
      "县": 3546,
      "参": 3547,
      "參": 3548,
      "又": 3549,
      "叉": 3550,
      "及": 3551,
      "友": 3552,
      "双": 3553,
      "反": 3554,
      "収": 3555,
      "发": 3556,
      "叔": 3557,
      "取": 3558,
      "受": 3559,
      "变": 3560,
      "叙": 3561,
      "叛": 3562,
      "叠": 3563,
      "口": 3564,
      "古": 3565,
      "句": 3566,
      "另": 3567,
      "叨": 3568,
      "叩": 3569,
      "只": 3570,
      "叫": 3571,
      "召": 3572,
      "叭": 3573,
      "可": 3574,
      "台": 3575,
      "叱": 3576,
      "史": 3577,
      "右": 3578,
      "叶": 3579,
      "号": 3580,
      "司": 3581,
      "叹": 3582,
      "叼": 3583,
      "吁": 3584,
      "吃": 3585,
      "各": 3586,
      "合": 3587,
      "吉": 3588,
      "吊": 3589,
      "同": 3590,
      "名": 3591,
      "后": 3592,
      "吐": 3593,
      "向": 3594,
      "吓": 3595,
      "吕": 3596,
      "吗": 3597,
      "君": 3598,
      "吞": 3599,
      "吟": 3600,
      "否": 3601,
      "吧": 3602,
      "吨": 3603,
      "含": 3604,
      "听": 3605,
      "启": 3606,
      "吴": 3607,
      "吵": 3608,
      "吸": 3609,
      "吹": 3610,
      "吻": 3611,
      "吼": 3612,
      "吾": 3613,
      "呀": 3614,
      "呂": 3615,
      "呃": 3616,
      "呆": 3617,
      "呈": 3618,
      "呉": 3619,
      "告": 3620,
      "呐": 3621,
      "呑": 3622,
      "呕": 3623,
      "呗": 3624,
      "员": 3625,
      "呜": 3626,
      "呢": 3627,
      "呤": 3628,
      "周": 3629,
      "呪": 3630,
      "味": 3631,
      "呵": 3632,
      "呻": 3633,
      "呼": 3634,
      "命": 3635,
      "咄": 3636,
      "咋": 3637,
      "和": 3638,
      "咍": 3639,
      "咎": 3640,
      "咒": 3641,
      "咕": 3642,
      "咖": 3643,
      "咗": 3644,
      "咙": 3645,
      "咨": 3646,
      "咩": 3647,
      "咪": 3648,
      "咫": 3649,
      "咬": 3650,
      "咯": 3651,
      "咲": 3652,
      "咳": 3653,
      "咸": 3654,
      "哀": 3655,
      "品": 3656,
      "哄": 3657,
      "哇": 3658,
      "哈": 3659,
      "哉": 3660,
      "哋": 3661,
      "响": 3662,
      "哑": 3663,
      "哔": 3664,
      "哟": 3665,
      "員": 3666,
      "哥": 3667,
      "哦": 3668,
      "哨": 3669,
      "哩": 3670,
      "哪": 3671,
      "哭": 3672,
      "哮": 3673,
      "哲": 3674,
      "哺": 3675,
      "哼": 3676,
      "唆": 3677,
      "唇": 3678,
      "唉": 3679,
      "唐": 3680,
      "唑": 3681,
      "唔": 3682,
      "售": 3683,
      "唯": 3684,
      "唱": 3685,
      "唾": 3686,
      "商": 3687,
      "啊": 3688,
      "問": 3689,
      "啓": 3690,
      "啕": 3691,
      "啟": 3692,
      "啡": 3693,
      "啤": 3694,
      "啥": 3695,
      "啦": 3696,
      "啪": 3697,
      "啫": 3698,
      "啰": 3699,
      "啲": 3700,
      "啸": 3701,
      "喀": 3702,
      "喂": 3703,
      "善": 3704,
      "喇": 3705,
      "喉": 3706,
      "喊": 3707,
      "喋": 3708,
      "喔": 3709,
      "喘": 3710,
      "喙": 3711,
      "喚": 3712,
      "喜": 3713,
      "喝": 3714,
      "喧": 3715,
      "喩": 3716,
      "喪": 3717,
      "喫": 3718,
      "單": 3719,
      "喱": 3720,
      "喵": 3721,
      "営": 3722,
      "喷": 3723,
      "喺": 3724,
      "喻": 3725,
      "喽": 3726,
      "嗅": 3727,
      "嗎": 3728,
      "嗓": 3729,
      "嗨": 3730,
      "嗪": 3731,
      "嗯": 3732,
      "嗷": 3733,
      "嗽": 3734,
      "嘀": 3735,
      "嘅": 3736,
      "嘆": 3737,
      "嘈": 3738,
      "嘉": 3739,
      "嘌": 3740,
      "嘎": 3741,
      "嘔": 3742,
      "嘗": 3743,
      "嘘": 3744,
      "嘛": 3745,
      "嘢": 3746,
      "嘤": 3747,
      "嘩": 3748,
      "嘿": 3749,
      "噁": 3750,
      "噂": 3751,
      "噌": 3752,
      "噏": 3753,
      "噛": 3754,
      "噢": 3755,
      "器": 3756,
      "噪": 3757,
      "噬": 3758,
      "噴": 3759,
      "噺": 3760,
      "嚎": 3761,
      "嚏": 3762,
      "嚟": 3763,
      "嚨": 3764,
      "嚴": 3765,
      "囉": 3766,
      "囊": 3767,
      "四": 3768,
      "回": 3769,
      "囟": 3770,
      "因": 3771,
      "団": 3772,
      "囤": 3773,
      "囧": 3774,
      "园": 3775,
      "困": 3776,
      "囲": 3777,
      "図": 3778,
      "围": 3779,
      "固": 3780,
      "国": 3781,
      "图": 3782,
      "圆": 3783,
      "圈": 3784,
      "國": 3785,
      "園": 3786,
      "圓": 3787,
      "圖": 3788,
      "土": 3789,
      "圡": 3790,
      "圣": 3791,
      "圧": 3792,
      "在": 3793,
      "圫": 3794,
      "地": 3795,
      "场": 3796,
      "址": 3797,
      "坂": 3798,
      "均": 3799,
      "坊": 3800,
      "坏": 3801,
      "坐": 3802,
      "坑": 3803,
      "块": 3804,
      "坚": 3805,
      "坛": 3806,
      "坝": 3807,
      "坞": 3808,
      "坠": 3809,
      "坡": 3810,
      "坤": 3811,
      "坦": 3812,
      "坩": 3813,
      "坪": 3814,
      "坯": 3815,
      "坻": 3816,
      "垂": 3817,
      "型": 3818,
      "垒": 3819,
      "垢": 3820,
      "垫": 3821,
      "垮": 3822,
      "埃": 3823,
      "埋": 3824,
      "城": 3825,
      "埔": 3826,
      "域": 3827,
      "執": 3828,
      "培": 3829,
      "基": 3830,
      "埼": 3831,
      "堀": 3832,
      "堂": 3833,
      "堅": 3834,
      "堆": 3835,
      "堕": 3836,
      "堡": 3837,
      "堪": 3838,
      "堰": 3839,
      "報": 3840,
      "場": 3841,
      "堵": 3842,
      "堽": 3843,
      "塊": 3844,
      "塌": 3845,
      "塑": 3846,
      "塒": 3847,
      "塔": 3848,
      "塗": 3849,
      "塘": 3850,
      "塚": 3851,
      "塞": 3852,
      "塩": 3853,
      "填": 3854,
      "境": 3855,
      "増": 3856,
      "墙": 3857,
      "墜": 3858,
      "增": 3859,
      "墟": 3860,
      "墨": 3861,
      "墩": 3862,
      "墮": 3863,
      "墻": 3864,
      "壁": 3865,
      "壇": 3866,
      "壊": 3867,
      "壌": 3868,
      "壓": 3869,
      "壖": 3870,
      "壞": 3871,
      "壤": 3872,
      "士": 3873,
      "壬": 3874,
      "壮": 3875,
      "壯": 3876,
      "声": 3877,
      "売": 3878,
      "壳": 3879,
      "壶": 3880,
      "壺": 3881,
      "壽": 3882,
      "处": 3883,
      "备": 3884,
      "変": 3885,
      "复": 3886,
      "夏": 3887,
      "夕": 3888,
      "外": 3889,
      "多": 3890,
      "夜": 3891,
      "够": 3892,
      "夠": 3893,
      "夢": 3894,
      "大": 3895,
      "天": 3896,
      "太": 3897,
      "夫": 3898,
      "央": 3899,
      "失": 3900,
      "头": 3901,
      "夸": 3902,
      "夹": 3903,
      "夺": 3904,
      "奇": 3905,
      "奈": 3906,
      "奉": 3907,
      "奋": 3908,
      "奏": 3909,
      "契": 3910,
      "奔": 3911,
      "奖": 3912,
      "套": 3913,
      "奘": 3914,
      "奠": 3915,
      "奥": 3916,
      "奨": 3917,
      "奪": 3918,
      "奮": 3919,
      "女": 3920,
      "奴": 3921,
      "奶": 3922,
      "奸": 3923,
      "她": 3924,
      "好": 3925,
      "如": 3926,
      "妄": 3927,
      "妆": 3928,
      "妇": 3929,
      "妈": 3930,
      "妊": 3931,
      "妓": 3932,
      "妖": 3933,
      "妙": 3934,
      "妥": 3935,
      "妨": 3936,
      "妮": 3937,
      "妳": 3938,
      "妹": 3939,
      "妻": 3940,
      "姆": 3941,
      "姉": 3942,
      "姊": 3943,
      "始": 3944,
      "姐": 3945,
      "姑": 3946,
      "姓": 3947,
      "委": 3948,
      "姚": 3949,
      "姜": 3950,
      "姥": 3951,
      "姦": 3952,
      "姨": 3953,
      "姫": 3954,
      "姹": 3955,
      "姻": 3956,
      "姿": 3957,
      "威": 3958,
      "娃": 3959,
      "娇": 3960,
      "娘": 3961,
      "娜": 3962,
      "娟": 3963,
      "娠": 3964,
      "娩": 3965,
      "娱": 3966,
      "婆": 3967,
      "婉": 3968,
      "婚": 3969,
      "婢": 3970,
      "婦": 3971,
      "婴": 3972,
      "婵": 3973,
      "婷": 3974,
      "婿": 3975,
      "媒": 3976,
      "媚": 3977,
      "媳": 3978,
      "媽": 3979,
      "嫁": 3980,
      "嫂": 3981,
      "嫃": 3982,
      "嫌": 3983,
      "嫣": 3984,
      "嬉": 3985,
      "嬌": 3986,
      "嬛": 3987,
      "嬢": 3988,
      "孋": 3989,
      "子": 3990,
      "孔": 3991,
      "孕": 3992,
      "字": 3993,
      "存": 3994,
      "孙": 3995,
      "孚": 3996,
      "孝": 3997,
      "孞": 3998,
      "孟": 3999,
      "孢": 4000,
      "季": 4001,
      "孤": 4002,
      "学": 4003,
      "孩": 4004,
      "孪": 4005,
      "孫": 4006,
      "孭": 4007,
      "孰": 4008,
      "孲": 4009,
      "孶": 4010,
      "學": 4011,
      "宁": 4012,
      "它": 4013,
      "宅": 4014,
      "宇": 4015,
      "守": 4016,
      "安": 4017,
      "宋": 4018,
      "完": 4019,
      "宏": 4020,
      "宗": 4021,
      "官": 4022,
      "宙": 4023,
      "定": 4024,
      "宛": 4025,
      "宜": 4026,
      "宝": 4027,
      "实": 4028,
      "実": 4029,
      "宠": 4030,
      "审": 4031,
      "客": 4032,
      "宣": 4033,
      "室": 4034,
      "宫": 4035,
      "宮": 4036,
      "害": 4037,
      "宴": 4038,
      "家": 4039,
      "宸": 4040,
      "容": 4041,
      "宽": 4042,
      "宾": 4043,
      "宿": 4044,
      "寂": 4045,
      "寄": 4046,
      "密": 4047,
      "寉": 4048,
      "富": 4049,
      "寐": 4050,
      "寒": 4051,
      "寓": 4052,
      "寛": 4053,
      "寝": 4054,
      "寞": 4055,
      "察": 4056,
      "寢": 4057,
      "寤": 4058,
      "實": 4059,
      "寧": 4060,
      "寨": 4061,
      "寫": 4062,
      "寮": 4063,
      "寰": 4064,
      "寵": 4065,
      "寶": 4066,
      "寸": 4067,
      "对": 4068,
      "寺": 4069,
      "寻": 4070,
      "导": 4071,
      "対": 4072,
      "寿": 4073,
      "封": 4074,
      "専": 4075,
      "射": 4076,
      "将": 4077,
      "將": 4078,
      "專": 4079,
      "尊": 4080,
      "尋": 4081,
      "對": 4082,
      "導": 4083,
      "小": 4084,
      "少": 4085,
      "尔": 4086,
      "尖": 4087,
      "尘": 4088,
      "尙": 4089,
      "尚": 4090,
      "尝": 4091,
      "尤": 4092,
      "尬": 4093,
      "就": 4094,
      "尴": 4095,
      "尸": 4096,
      "尹": 4097,
      "尺": 4098,
      "尻": 4099,
      "尼": 4100,
      "尽": 4101,
      "尾": 4102,
      "尿": 4103,
      "局": 4104,
      "屁": 4105,
      "层": 4106,
      "居": 4107,
      "屆": 4108,
      "屈": 4109,
      "届": 4110,
      "屋": 4111,
      "屌": 4112,
      "屎": 4113,
      "屏": 4114,
      "屑": 4115,
      "展": 4116,
      "属": 4117,
      "屠": 4118,
      "層": 4119,
      "履": 4120,
      "山": 4121,
      "岁": 4122,
      "岐": 4123,
      "岗": 4124,
      "岛": 4125,
      "岡": 4126,
      "岩": 4127,
      "岱": 4128,
      "岳": 4129,
      "岷": 4130,
      "岸": 4131,
      "峁": 4132,
      "峇": 4133,
      "峨": 4134,
      "峭": 4135,
      "峰": 4136,
      "島": 4137,
      "崁": 4138,
      "崇": 4139,
      "崎": 4140,
      "崔": 4141,
      "崩": 4142,
      "嵌": 4143,
      "嵐": 4144,
      "巍": 4145,
      "巖": 4146,
      "川": 4147,
      "州": 4148,
      "巡": 4149,
      "巢": 4150,
      "巣": 4151,
      "工": 4152,
      "左": 4153,
      "巧": 4154,
      "巨": 4155,
      "巩": 4156,
      "巫": 4157,
      "差": 4158,
      "己": 4159,
      "已": 4160,
      "巳": 4161,
      "巴": 4162,
      "巷": 4163,
      "巻": 4164,
      "巾": 4165,
      "币": 4166,
      "市": 4167,
      "布": 4168,
      "帅": 4169,
      "帆": 4170,
      "师": 4171,
      "希": 4172,
      "帐": 4173,
      "帕": 4174,
      "帖": 4175,
      "帘": 4176,
      "帥": 4177,
      "带": 4178,
      "帧": 4179,
      "師": 4180,
      "席": 4181,
      "帮": 4182,
      "帯": 4183,
      "帰": 4184,
      "帳": 4185,
      "帶": 4186,
      "常": 4187,
      "帽": 4188,
      "幅": 4189,
      "幌": 4190,
      "幕": 4191,
      "幡": 4192,
      "幢": 4193,
      "幣": 4194,
      "幫": 4195,
      "干": 4196,
      "平": 4197,
      "年": 4198,
      "并": 4199,
      "幸": 4200,
      "幹": 4201,
      "幻": 4202,
      "幼": 4203,
      "幽": 4204,
      "幾": 4205,
      "广": 4206,
      "庁": 4207,
      "広": 4208,
      "庄": 4209,
      "庆": 4210,
      "床": 4211,
      "序": 4212,
      "库": 4213,
      "应": 4214,
      "底": 4215,
      "店": 4216,
      "府": 4217,
      "庞": 4218,
      "废": 4219,
      "度": 4220,
      "座": 4221,
      "庫": 4222,
      "庭": 4223,
      "康": 4224,
      "庸": 4225,
      "廃": 4226,
      "廉": 4227,
      "廊": 4228,
      "廓": 4229,
      "廖": 4230,
      "廠": 4231,
      "廢": 4232,
      "廣": 4233,
      "廳": 4234,
      "延": 4235,
      "廷": 4236,
      "建": 4237,
      "开": 4238,
      "弁": 4239,
      "异": 4240,
      "弃": 4241,
      "弄": 4242,
      "弊": 4243,
      "式": 4244,
      "弓": 4245,
      "引": 4246,
      "弗": 4247,
      "弘": 4248,
      "弟": 4249,
      "张": 4250,
      "弥": 4251,
      "弦": 4252,
      "弧": 4253,
      "弯": 4254,
      "弱": 4255,
      "張": 4256,
      "強": 4257,
      "弹": 4258,
      "强": 4259,
      "弾": 4260,
      "彈": 4261,
      "彎": 4262,
      "归": 4263,
      "当": 4264,
      "录": 4265,
      "彙": 4266,
      "彡": 4267,
      "形": 4268,
      "彤": 4269,
      "彥": 4270,
      "彦": 4271,
      "彩": 4272,
      "彪": 4273,
      "彫": 4274,
      "彭": 4275,
      "彰": 4276,
      "影": 4277,
      "彷": 4278,
      "役": 4279,
      "彻": 4280,
      "彼": 4281,
      "彿": 4282,
      "往": 4283,
      "征": 4284,
      "径": 4285,
      "待": 4286,
      "很": 4287,
      "律": 4288,
      "後": 4289,
      "徐": 4290,
      "徒": 4291,
      "従": 4292,
      "得": 4293,
      "徙": 4294,
      "從": 4295,
      "御": 4296,
      "復": 4297,
      "循": 4298,
      "微": 4299,
      "徳": 4300,
      "徴": 4301,
      "徵": 4302,
      "德": 4303,
      "徹": 4304,
      "徽": 4305,
      "心": 4306,
      "必": 4307,
      "忆": 4308,
      "忌": 4309,
      "忍": 4310,
      "忖": 4311,
      "志": 4312,
      "忘": 4313,
      "忙": 4314,
      "応": 4315,
      "忠": 4316,
      "忧": 4317,
      "快": 4318,
      "念": 4319,
      "忽": 4320,
      "怀": 4321,
      "态": 4322,
      "怎": 4323,
      "怒": 4324,
      "怕": 4325,
      "怖": 4326,
      "怜": 4327,
      "思": 4328,
      "怠": 4329,
      "怡": 4330,
      "急": 4331,
      "怦": 4332,
      "性": 4333,
      "怨": 4334,
      "怪": 4335,
      "总": 4336,
      "恋": 4337,
      "恍": 4338,
      "恐": 4339,
      "恒": 4340,
      "恢": 4341,
      "恤": 4342,
      "恥": 4343,
      "恨": 4344,
      "恩": 4345,
      "恫": 4346,
      "息": 4347,
      "恰": 4348,
      "恵": 4349,
      "恶": 4350,
      "恼": 4351,
      "悉": 4352,
      "悍": 4353,
      "悔": 4354,
      "悚": 4355,
      "悟": 4356,
      "悠": 4357,
      "患": 4358,
      "悤": 4359,
      "悦": 4360,
      "您": 4361,
      "悩": 4362,
      "悪": 4363,
      "悬": 4364,
      "悲": 4365,
      "悴": 4366,
      "情": 4367,
      "惊": 4368,
      "惑": 4369,
      "惘": 4370,
      "惚": 4371,
      "惟": 4372,
      "惠": 4373,
      "惡": 4374,
      "惨": 4375,
      "惯": 4376,
      "惰": 4377,
      "想": 4378,
      "惹": 4379,
      "愁": 4380,
      "愈": 4381,
      "愉": 4382,
      "意": 4383,
      "愕": 4384,
      "愚": 4385,
      "愛": 4386,
      "感": 4387,
      "愤": 4388,
      "愿": 4389,
      "態": 4390,
      "慎": 4391,
      "慑": 4392,
      "慕": 4393,
      "慢": 4394,
      "慣": 4395,
      "慧": 4396,
      "慮": 4397,
      "慰": 4398,
      "慶": 4399,
      "憂": 4400,
      "憋": 4401,
      "憑": 4402,
      "憔": 4403,
      "憧": 4404,
      "憶": 4405,
      "憾": 4406,
      "懂": 4407,
      "懇": 4408,
      "應": 4409,
      "懒": 4410,
      "懦": 4411,
      "懸": 4412,
      "懿": 4413,
      "戈": 4414,
      "戊": 4415,
      "戏": 4416,
      "成": 4417,
      "我": 4418,
      "戒": 4419,
      "或": 4420,
      "战": 4421,
      "戚": 4422,
      "戦": 4423,
      "截": 4424,
      "戯": 4425,
      "戰": 4426,
      "戲": 4427,
      "戴": 4428,
      "戶": 4429,
      "户": 4430,
      "戸": 4431,
      "戻": 4432,
      "房": 4433,
      "所": 4434,
      "扁": 4435,
      "扇": 4436,
      "扉": 4437,
      "手": 4438,
      "才": 4439,
      "扎": 4440,
      "扑": 4441,
      "扒": 4442,
      "打": 4443,
      "払": 4444,
      "托": 4445,
      "扣": 4446,
      "执": 4447,
      "扩": 4448,
      "扫": 4449,
      "扬": 4450,
      "扭": 4451,
      "扮": 4452,
      "扯": 4453,
      "扰": 4454,
      "扱": 4455,
      "扶": 4456,
      "批": 4457,
      "找": 4458,
      "承": 4459,
      "技": 4460,
      "抄": 4461,
      "抋": 4462,
      "抑": 4463,
      "抒": 4464,
      "抓": 4465,
      "投": 4466,
      "抖": 4467,
      "抗": 4468,
      "折": 4469,
      "抚": 4470,
      "抛": 4471,
      "抜": 4472,
      "択": 4473,
      "抢": 4474,
      "护": 4475,
      "报": 4476,
      "披": 4477,
      "抬": 4478,
      "抯": 4479,
      "抱": 4480,
      "抵": 4481,
      "抹": 4482,
      "押": 4483,
      "抽": 4484,
      "拂": 4485,
      "担": 4486,
      "拉": 4487,
      "拌": 4488,
      "拍": 4489,
      "拐": 4490,
      "拒": 4491,
      "拓": 4492,
      "拔": 4493,
      "拖": 4494,
      "拗": 4495,
      "拘": 4496,
      "招": 4497,
      "拜": 4498,
      "拝": 4499,
      "拟": 4500,
      "拠": 4501,
      "拡": 4502,
      "拢": 4503,
      "拣": 4504,
      "拥": 4505,
      "拦": 4506,
      "拨": 4507,
      "择": 4508,
      "括": 4509,
      "拭": 4510,
      "拮": 4511,
      "拯": 4512,
      "拳": 4513,
      "拴": 4514,
      "拶": 4515,
      "拼": 4516,
      "拽": 4517,
      "拾": 4518,
      "拿": 4519,
      "持": 4520,
      "挂": 4521,
      "指": 4522,
      "按": 4523,
      "挑": 4524,
      "挖": 4525,
      "挙": 4526,
      "挚": 4527,
      "挟": 4528,
      "挡": 4529,
      "挣": 4530,
      "挥": 4531,
      "挨": 4532,
      "挪": 4533,
      "挭": 4534,
      "振": 4535,
      "挺": 4536,
      "挽": 4537,
      "挿": 4538,
      "捂": 4539,
      "捆": 4540,
      "捉": 4541,
      "捏": 4542,
      "捕": 4543,
      "捜": 4544,
      "捞": 4545,
      "损": 4546,
      "捡": 4547,
      "换": 4548,
      "捧": 4549,
      "捨": 4550,
      "据": 4551,
      "捲": 4552,
      "捷": 4553,
      "掃": 4554,
      "授": 4555,
      "掉": 4556,
      "掌": 4557,
      "排": 4558,
      "掘": 4559,
      "掛": 4560,
      "採": 4561,
      "探": 4562,
      "接": 4563,
      "控": 4564,
      "推": 4565,
      "掩": 4566,
      "措": 4567,
      "掭": 4568,
      "掲": 4569,
      "掴": 4570,
      "掷": 4571,
      "掺": 4572,
      "掻": 4573,
      "掾": 4574,
      "揃": 4575,
      "揄": 4576,
      "揉": 4577,
      "描": 4578,
      "提": 4579,
      "插": 4580,
      "揚": 4581,
      "換": 4582,
      "握": 4583,
      "揮": 4584,
      "援": 4585,
      "揶": 4586,
      "揺": 4587,
      "揽": 4588,
      "搅": 4589,
      "損": 4590,
      "搏": 4591,
      "搐": 4592,
      "搖": 4593,
      "搜": 4594,
      "搞": 4595,
      "搬": 4596,
      "搭": 4597,
      "携": 4598,
      "搾": 4599,
      "摂": 4600,
      "摄": 4601,
      "摆": 4602,
      "摇": 4603,
      "摊": 4604,
      "摔": 4605,
      "摘": 4606,
      "摩": 4607,
      "摸": 4608,
      "撃": 4609,
      "撅": 4610,
      "撑": 4611,
      "撒": 4612,
      "撓": 4613,
      "撕": 4614,
      "撞": 4615,
      "撤": 4616,
      "撩": 4617,
      "撫": 4618,
      "播": 4619,
      "撮": 4620,
      "撰": 4621,
      "撲": 4622,
      "撼": 4623,
      "擁": 4624,
      "擅": 4625,
      "擇": 4626,
      "擊": 4627,
      "擎": 4628,
      "據": 4629,
      "擦": 4630,
      "擬": 4631,
      "擲": 4632,
      "擴": 4633,
      "擺": 4634,
      "攀": 4635,
      "攒": 4636,
      "攜": 4637,
      "攝": 4638,
      "攤": 4639,
      "攪": 4640,
      "支": 4641,
      "收": 4642,
      "改": 4643,
      "攻": 4644,
      "放": 4645,
      "政": 4646,
      "敀": 4647,
      "敁": 4648,
      "故": 4649,
      "效": 4650,
      "敌": 4651,
      "敏": 4652,
      "救": 4653,
      "敗": 4654,
      "敘": 4655,
      "教": 4656,
      "敛": 4657,
      "敞": 4658,
      "敢": 4659,
      "散": 4660,
      "敬": 4661,
      "数": 4662,
      "敲": 4663,
      "整": 4664,
      "敵": 4665,
      "敷": 4666,
      "數": 4667,
      "文": 4668,
      "斉": 4669,
      "斋": 4670,
      "斌": 4671,
      "斐": 4672,
      "斑": 4673,
      "斓": 4674,
      "斗": 4675,
      "料": 4676,
      "斜": 4677,
      "斤": 4678,
      "斥": 4679,
      "斬": 4680,
      "断": 4681,
      "斯": 4682,
      "新": 4683,
      "斷": 4684,
      "方": 4685,
      "於": 4686,
      "施": 4687,
      "旁": 4688,
      "旅": 4689,
      "旋": 4690,
      "族": 4691,
      "旗": 4692,
      "无": 4693,
      "既": 4694,
      "日": 4695,
      "旦": 4696,
      "旧": 4697,
      "旨": 4698,
      "早": 4699,
      "旬": 4700,
      "旭": 4701,
      "旱": 4702,
      "时": 4703,
      "旺": 4704,
      "昂": 4705,
      "昆": 4706,
      "昇": 4707,
      "昊": 4708,
      "昌": 4709,
      "明": 4710,
      "昏": 4711,
      "易": 4712,
      "昔": 4713,
      "星": 4714,
      "映": 4715,
      "春": 4716,
      "昧": 4717,
      "昨": 4718,
      "昭": 4719,
      "是": 4720,
      "昼": 4721,
      "显": 4722,
      "時": 4723,
      "晋": 4724,
      "晒": 4725,
      "晓": 4726,
      "晕": 4727,
      "晖": 4728,
      "晚": 4729,
      "晣": 4730,
      "晨": 4731,
      "晩": 4732,
      "普": 4733,
      "景": 4734,
      "晰": 4735,
      "晴": 4736,
      "晶": 4737,
      "智": 4738,
      "暂": 4739,
      "暇": 4740,
      "暑": 4741,
      "暖": 4742,
      "暗": 4743,
      "暦": 4744,
      "暧": 4745,
      "暨": 4746,
      "暮": 4747,
      "暴": 4748,
      "暹": 4749,
      "曆": 4750,
      "曇": 4751,
      "曜": 4752,
      "曝": 4753,
      "曰": 4754,
      "曱": 4755,
      "曲": 4756,
      "曳": 4757,
      "更": 4758,
      "書": 4759,
      "曹": 4760,
      "曼": 4761,
      "曽": 4762,
      "曾": 4763,
      "替": 4764,
      "最": 4765,
      "會": 4766,
      "月": 4767,
      "有": 4768,
      "朋": 4769,
      "服": 4770,
      "朗": 4771,
      "望": 4772,
      "朝": 4773,
      "期": 4774,
      "木": 4775,
      "未": 4776,
      "末": 4777,
      "本": 4778,
      "札": 4779,
      "术": 4780,
      "朱": 4781,
      "朴": 4782,
      "朵": 4783,
      "机": 4784,
      "朽": 4785,
      "杀": 4786,
      "杂": 4787,
      "权": 4788,
      "杆": 4789,
      "李": 4790,
      "杏": 4791,
      "材": 4792,
      "村": 4793,
      "杖": 4794,
      "杜": 4795,
      "杞": 4796,
      "束": 4797,
      "杠": 4798,
      "条": 4799,
      "来": 4800,
      "杨": 4801,
      "杯": 4802,
      "杰": 4803,
      "東": 4804,
      "松": 4805,
      "板": 4806,
      "极": 4807,
      "构": 4808,
      "枋": 4809,
      "析": 4810,
      "枕": 4811,
      "林": 4812,
      "枚": 4813,
      "果": 4814,
      "枝": 4815,
      "枢": 4816,
      "枣": 4817,
      "枪": 4818,
      "枫": 4819,
      "枯": 4820,
      "架": 4821,
      "枸": 4822,
      "柄": 4823,
      "柏": 4824,
      "某": 4825,
      "柑": 4826,
      "染": 4827,
      "柔": 4828,
      "柜": 4829,
      "柠": 4830,
      "查": 4831,
      "柬": 4832,
      "柯": 4833,
      "柱": 4834,
      "柳": 4835,
      "柴": 4836,
      "査": 4837,
      "柿": 4838,
      "栄": 4839,
      "栅": 4840,
      "标": 4841,
      "栈": 4842,
      "栋": 4843,
      "树": 4844,
      "栓": 4845,
      "栖": 4846,
      "栗": 4847,
      "校": 4848,
      "株": 4849,
      "样": 4850,
      "核": 4851,
      "根": 4852,
      "格": 4853,
      "栽": 4854,
      "桁": 4855,
      "桂": 4856,
      "桃": 4857,
      "框": 4858,
      "案": 4859,
      "桌": 4860,
      "桐": 4861,
      "桑": 4862,
      "桔": 4863,
      "桜": 4864,
      "档": 4865,
      "桥": 4866,
      "桧": 4867,
      "桩": 4868,
      "桶": 4869,
      "梁": 4870,
      "梅": 4871,
      "梗": 4872,
      "條": 4873,
      "梦": 4874,
      "梨": 4875,
      "梭": 4876,
      "梯": 4877,
      "械": 4878,
      "梳": 4879,
      "梵": 4880,
      "检": 4881,
      "棄": 4882,
      "棉": 4883,
      "棋": 4884,
      "棍": 4885,
      "棒": 4886,
      "棕": 4887,
      "棘": 4888,
      "棚": 4889,
      "棠": 4890,
      "棤": 4891,
      "森": 4892,
      "棵": 4893,
      "棺": 4894,
      "椅": 4895,
      "植": 4896,
      "椎": 4897,
      "椒": 4898,
      "検": 4899,
      "椭": 4900,
      "楊": 4901,
      "楔": 4902,
      "楕": 4903,
      "楚": 4904,
      "楞": 4905,
      "楠": 4906,
      "業": 4907,
      "極": 4908,
      "楷": 4909,
      "楼": 4910,
      "楽": 4911,
      "榀": 4912,
      "概": 4913,
      "榈": 4914,
      "榔": 4915,
      "榕": 4916,
      "榛": 4917,
      "榜": 4918,
      "榨": 4919,
      "榮": 4920,
      "榴": 4921,
      "槇": 4922,
      "構": 4923,
      "槑": 4924,
      "様": 4925,
      "槛": 4926,
      "槟": 4927,
      "槤": 4928,
      "槽": 4929,
      "樂": 4930,
      "樊": 4931,
      "樓": 4932,
      "標": 4933,
      "模": 4934,
      "樣": 4935,
      "権": 4936,
      "横": 4937,
      "樱": 4938,
      "樹": 4939,
      "樽": 4940,
      "橋": 4941,
      "橘": 4942,
      "橙": 4943,
      "機": 4944,
      "橡": 4945,
      "橫": 4946,
      "檃": 4947,
      "檎": 4948,
      "檔": 4949,
      "檚": 4950,
      "檢": 4951,
      "檬": 4952,
      "檯": 4953,
      "櫃": 4954,
      "櫛": 4955,
      "櫥": 4956,
      "櫻": 4957,
      "權": 4958,
      "欠": 4959,
      "次": 4960,
      "欢": 4961,
      "欣": 4962,
      "欧": 4963,
      "欲": 4964,
      "欶": 4965,
      "欺": 4966,
      "款": 4967,
      "歇": 4968,
      "歉": 4969,
      "歌": 4970,
      "歎": 4971,
      "歐": 4972,
      "歓": 4973,
      "歡": 4974,
      "止": 4975,
      "正": 4976,
      "此": 4977,
      "步": 4978,
      "武": 4979,
      "歧": 4980,
      "歩": 4981,
      "歪": 4982,
      "歯": 4983,
      "歲": 4984,
      "歳": 4985,
      "歴": 4986,
      "歵": 4987,
      "歷": 4988,
      "歸": 4989,
      "歹": 4990,
      "殃": 4991,
      "殊": 4992,
      "残": 4993,
      "殖": 4994,
      "殘": 4995,
      "殴": 4996,
      "段": 4997,
      "殺": 4998,
      "殻": 4999,
      "殿": 5000,
      "毁": 5001,
      "毂": 5002,
      "毅": 5003,
      "母": 5004,
      "毎": 5005,
      "每": 5006,
      "毒": 5007,
      "毓": 5008,
      "比": 5009,
      "毕": 5010,
      "毛": 5011,
      "毡": 5012,
      "毫": 5013,
      "毯": 5014,
      "氏": 5015,
      "民": 5016,
      "气": 5017,
      "気": 5018,
      "氛": 5019,
      "氟": 5020,
      "氢": 5021,
      "氣": 5022,
      "氧": 5023,
      "氨": 5024,
      "氮": 5025,
      "氯": 5026,
      "氰": 5027,
      "水": 5028,
      "氷": 5029,
      "永": 5030,
      "氹": 5031,
      "汁": 5032,
      "求": 5033,
      "汇": 5034,
      "汉": 5035,
      "汎": 5036,
      "汐": 5037,
      "汕": 5038,
      "汗": 5039,
      "汚": 5040,
      "江": 5041,
      "池": 5042,
      "污": 5043,
      "汤": 5044,
      "汪": 5045,
      "汭": 5046,
      "汰": 5047,
      "汶": 5048,
      "決": 5049,
      "汽": 5050,
      "沁": 5051,
      "沃": 5052,
      "沈": 5053,
      "沉": 5054,
      "沐": 5055,
      "沒": 5056,
      "沖": 5057,
      "沙": 5058,
      "沚": 5059,
      "沟": 5060,
      "没": 5061,
      "沢": 5062,
      "沧": 5063,
      "沪": 5064,
      "沫": 5065,
      "沮": 5066,
      "河": 5067,
      "沸": 5068,
      "油": 5069,
      "治": 5070,
      "沼": 5071,
      "沿": 5072,
      "況": 5073,
      "泄": 5074,
      "泉": 5075,
      "泊": 5076,
      "泌": 5077,
      "泛": 5078,
      "泡": 5079,
      "波": 5080,
      "泣": 5081,
      "泥": 5082,
      "注": 5083,
      "泪": 5084,
      "泰": 5085,
      "泳": 5086,
      "泵": 5087,
      "泻": 5088,
      "泼": 5089,
      "泽": 5090,
      "洁": 5091,
      "洋": 5092,
      "洗": 5093,
      "洛": 5094,
      "洞": 5095,
      "津": 5096,
      "洩": 5097,
      "洪": 5098,
      "洲": 5099,
      "活": 5100,
      "洼": 5101,
      "洽": 5102,
      "派": 5103,
      "流": 5104,
      "浄": 5105,
      "浅": 5106,
      "浇": 5107,
      "浊": 5108,
      "测": 5109,
      "济": 5110,
      "浏": 5111,
      "浑": 5112,
      "浒": 5113,
      "浓": 5114,
      "浜": 5115,
      "浣": 5116,
      "浦": 5117,
      "浩": 5118,
      "浮": 5119,
      "浴": 5120,
      "海": 5121,
      "浸": 5122,
      "涂": 5123,
      "涅": 5124,
      "消": 5125,
      "涉": 5126,
      "涎": 5127,
      "涓": 5128,
      "涕": 5129,
      "涙": 5130,
      "涛": 5131,
      "涡": 5132,
      "涣": 5133,
      "润": 5134,
      "涨": 5135,
      "涩": 5136,
      "涯": 5137,
      "液": 5138,
      "涵": 5139,
      "涼": 5140,
      "淄": 5141,
      "淆": 5142,
      "淇": 5143,
      "淋": 5144,
      "淑": 5145,
      "淘": 5146,
      "淡": 5147,
      "淨": 5148,
      "淫": 5149,
      "淮": 5150,
      "深": 5151,
      "淳": 5152,
      "混": 5153,
      "添": 5154,
      "渃": 5155,
      "清": 5156,
      "済": 5157,
      "渉": 5158,
      "渊": 5159,
      "渋": 5160,
      "渐": 5161,
      "渔": 5162,
      "渗": 5163,
      "渚": 5164,
      "減": 5165,
      "渠": 5166,
      "渡": 5167,
      "渤": 5168,
      "測": 5169,
      "渭": 5170,
      "港": 5171,
      "渲": 5172,
      "渴": 5173,
      "游": 5174,
      "湊": 5175,
      "湖": 5176,
      "湘": 5177,
      "湛": 5178,
      "湯": 5179,
      "湾": 5180,
      "湿": 5181,
      "満": 5182,
      "溃": 5183,
      "溅": 5184,
      "溏": 5185,
      "源": 5186,
      "準": 5187,
      "溜": 5188,
      "溝": 5189,
      "溢": 5190,
      "溪": 5191,
      "溯": 5192,
      "溶": 5193,
      "溺": 5194,
      "滃": 5195,
      "滅": 5196,
      "滋": 5197,
      "滑": 5198,
      "滕": 5199,
      "滚": 5200,
      "滞": 5201,
      "满": 5202,
      "滤": 5203,
      "滨": 5204,
      "滩": 5205,
      "滯": 5206,
      "滴": 5207,
      "滾": 5208,
      "滿": 5209,
      "漁": 5210,
      "漂": 5211,
      "漆": 5212,
      "漇": 5213,
      "漏": 5214,
      "演": 5215,
      "漠": 5216,
      "漢": 5217,
      "漫": 5218,
      "漱": 5219,
      "潇": 5220,
      "潍": 5221,
      "潔": 5222,
      "潘": 5223,
      "潜": 5224,
      "潟": 5225,
      "潤": 5226,
      "潭": 5227,
      "潮": 5228,
      "潰": 5229,
      "澀": 5230,
      "澄": 5231,
      "澡": 5232,
      "澤": 5233,
      "澳": 5234,
      "激": 5235,
      "濁": 5236,
      "濃": 5237,
      "濡": 5238,
      "濯": 5239,
      "瀏": 5240,
      "瀑": 5241,
      "瀟": 5242,
      "瀤": 5243,
      "瀬": 5244,
      "灌": 5245,
      "灘": 5246,
      "灞": 5247,
      "火": 5248,
      "灭": 5249,
      "灯": 5250,
      "灰": 5251,
      "灵": 5252,
      "灶": 5253,
      "灸": 5254,
      "灼": 5255,
      "炉": 5256,
      "炊": 5257,
      "炎": 5258,
      "炒": 5259,
      "炔": 5260,
      "炙": 5261,
      "炭": 5262,
      "炯": 5263,
      "点": 5264,
      "為": 5265,
      "炼": 5266,
      "烂": 5267,
      "烈": 5268,
      "烊": 5269,
      "烏": 5270,
      "烘": 5271,
      "烙": 5272,
      "烛": 5273,
      "烟": 5274,
      "烤": 5275,
      "烦": 5276,
      "烧": 5277,
      "烫": 5278,
      "热": 5279,
      "烯": 5280,
      "烷": 5281,
      "烹": 5282,
      "焊": 5283,
      "焏": 5284,
      "焙": 5285,
      "無": 5286,
      "焦": 5287,
      "然": 5288,
      "焼": 5289,
      "煌": 5290,
      "煎": 5291,
      "煙": 5292,
      "煞": 5293,
      "煤": 5294,
      "照": 5295,
      "煩": 5296,
      "煮": 5297,
      "煲": 5298,
      "煽": 5299,
      "熊": 5300,
      "熏": 5301,
      "熔": 5302,
      "熟": 5303,
      "熬": 5304,
      "熱": 5305,
      "熵": 5306,
      "熻": 5307,
      "燃": 5308,
      "燈": 5309,
      "燎": 5310,
      "燒": 5311,
      "燕": 5312,
      "營": 5313,
      "燥": 5314,
      "燦": 5315,
      "燭": 5316,
      "爆": 5317,
      "爪": 5318,
      "爬": 5319,
      "爭": 5320,
      "爱": 5321,
      "爲": 5322,
      "父": 5323,
      "爷": 5324,
      "爸": 5325,
      "爹": 5326,
      "爺": 5327,
      "爻": 5328,
      "爽": 5329,
      "片": 5330,
      "版": 5331,
      "牌": 5332,
      "牙": 5333,
      "牛": 5334,
      "牟": 5335,
      "牡": 5336,
      "牢": 5337,
      "牧": 5338,
      "物": 5339,
      "牲": 5340,
      "特": 5341,
      "牺": 5342,
      "牽": 5343,
      "犀": 5344,
      "犊": 5345,
      "犬": 5346,
      "犯": 5347,
      "状": 5348,
      "犹": 5349,
      "狀": 5350,
      "狂": 5351,
      "狄": 5352,
      "狐": 5353,
      "狗": 5354,
      "狠": 5355,
      "狡": 5356,
      "狩": 5357,
      "独": 5358,
      "狭": 5359,
      "狮": 5360,
      "狸": 5361,
      "狼": 5362,
      "猎": 5363,
      "猖": 5364,
      "猛": 5365,
      "猜": 5366,
      "猥": 5367,
      "猪": 5368,
      "猫": 5369,
      "献": 5370,
      "猴": 5371,
      "猶": 5372,
      "猾": 5373,
      "猿": 5374,
      "獄": 5375,
      "獅": 5376,
      "獎": 5377,
      "獣": 5378,
      "獨": 5379,
      "獲": 5380,
      "獸": 5381,
      "玄": 5382,
      "率": 5383,
      "玉": 5384,
      "王": 5385,
      "玖": 5386,
      "玛": 5387,
      "玟": 5388,
      "玩": 5389,
      "玫": 5390,
      "环": 5391,
      "现": 5392,
      "玲": 5393,
      "玺": 5394,
      "玻": 5395,
      "珂": 5396,
      "珊": 5397,
      "珍": 5398,
      "珑": 5399,
      "珠": 5400,
      "班": 5401,
      "珲": 5402,
      "現": 5403,
      "球": 5404,
      "理": 5405,
      "琉": 5406,
      "琛": 5407,
      "琪": 5408,
      "琬": 5409,
      "琳": 5410,
      "琴": 5411,
      "琵": 5412,
      "琶": 5413,
      "琼": 5414,
      "瑋": 5415,
      "瑕": 5416,
      "瑚": 5417,
      "瑜": 5418,
      "瑞": 5419,
      "瑟": 5420,
      "瑠": 5421,
      "瑤": 5422,
      "瑰": 5423,
      "瑶": 5424,
      "璃": 5425,
      "環": 5426,
      "瓜": 5427,
      "瓣": 5428,
      "瓦": 5429,
      "瓶": 5430,
      "瓷": 5431,
      "甄": 5432,
      "甘": 5433,
      "甚": 5434,
      "甜": 5435,
      "生": 5436,
      "產": 5437,
      "産": 5438,
      "用": 5439,
      "甫": 5440,
      "田": 5441,
      "由": 5442,
      "甲": 5443,
      "申": 5444,
      "甴": 5445,
      "电": 5446,
      "男": 5447,
      "甸": 5448,
      "町": 5449,
      "画": 5450,
      "甾": 5451,
      "畅": 5452,
      "界": 5453,
      "畏": 5454,
      "畑": 5455,
      "畔": 5456,
      "留": 5457,
      "畜": 5458,
      "略": 5459,
      "番": 5460,
      "畫": 5461,
      "異": 5462,
      "畳": 5463,
      "畴": 5464,
      "當": 5465,
      "疆": 5466,
      "疎": 5467,
      "疏": 5468,
      "疑": 5469,
      "疗": 5470,
      "疡": 5471,
      "疤": 5472,
      "疫": 5473,
      "疮": 5474,
      "疯": 5475,
      "疱": 5476,
      "疲": 5477,
      "疵": 5478,
      "疹": 5479,
      "疼": 5480,
      "疾": 5481,
      "病": 5482,
      "症": 5483,
      "痕": 5484,
      "痘": 5485,
      "痛": 5486,
      "痢": 5487,
      "痣": 5488,
      "痤": 5489,
      "痩": 5490,
      "痫": 5491,
      "痰": 5492,
      "痴": 5493,
      "痺": 5494,
      "瘀": 5495,
      "瘊": 5496,
      "瘍": 5497,
      "瘙": 5498,
      "瘡": 5499,
      "瘢": 5500,
      "瘤": 5501,
      "瘦": 5502,
      "瘫": 5503,
      "瘾": 5504,
      "療": 5505,
      "癌": 5506,
      "癒": 5507,
      "癖": 5508,
      "癣": 5509,
      "癥": 5510,
      "癫": 5511,
      "癭": 5512,
      "発": 5513,
      "登": 5514,
      "發": 5515,
      "白": 5516,
      "百": 5517,
      "的": 5518,
      "皆": 5519,
      "皇": 5520,
      "皓": 5521,
      "皮": 5522,
      "盆": 5523,
      "盈": 5524,
      "益": 5525,
      "盐": 5526,
      "监": 5527,
      "盒": 5528,
      "盖": 5529,
      "盗": 5530,
      "盘": 5531,
      "盛": 5532,
      "盟": 5533,
      "盡": 5534,
      "監": 5535,
      "盤": 5536,
      "盥": 5537,
      "盧": 5538,
      "目": 5539,
      "盯": 5540,
      "盲": 5541,
      "直": 5542,
      "相": 5543,
      "盹": 5544,
      "盾": 5545,
      "省": 5546,
      "眂": 5547,
      "眉": 5548,
      "看": 5549,
      "県": 5550,
      "真": 5551,
      "眠": 5552,
      "眨": 5553,
      "眩": 5554,
      "眶": 5555,
      "眷": 5556,
      "眺": 5557,
      "眼": 5558,
      "眾": 5559,
      "着": 5560,
      "睁": 5561,
      "睛": 5562,
      "睡": 5563,
      "督": 5564,
      "睹": 5565,
      "睾": 5566,
      "瞅": 5567,
      "瞎": 5568,
      "瞑": 5569,
      "瞥": 5570,
      "瞧": 5571,
      "瞬": 5572,
      "瞭": 5573,
      "瞰": 5574,
      "瞳": 5575,
      "瞻": 5576,
      "瞿": 5577,
      "矛": 5578,
      "矢": 5579,
      "矣": 5580,
      "知": 5581,
      "矩": 5582,
      "短": 5583,
      "矮": 5584,
      "石": 5585,
      "矿": 5586,
      "码": 5587,
      "砂": 5588,
      "研": 5589,
      "砕": 5590,
      "砖": 5591,
      "破": 5592,
      "砸": 5593,
      "砼": 5594,
      "础": 5595,
      "硅": 5596,
      "硕": 5597,
      "硝": 5598,
      "硫": 5599,
      "硬": 5600,
      "确": 5601,
      "碋": 5602,
      "碌": 5603,
      "碍": 5604,
      "碎": 5605,
      "碑": 5606,
      "碗": 5607,
      "碘": 5608,
      "碚": 5609,
      "碧": 5610,
      "碰": 5611,
      "碱": 5612,
      "碳": 5613,
      "確": 5614,
      "碼": 5615,
      "磁": 5616,
      "磅": 5617,
      "磊": 5618,
      "磨": 5619,
      "磷": 5620,
      "礁": 5621,
      "礦": 5622,
      "示": 5623,
      "礼": 5624,
      "社": 5625,
      "祐": 5626,
      "祖": 5627,
      "祝": 5628,
      "神": 5629,
      "祥": 5630,
      "票": 5631,
      "祭": 5632,
      "祸": 5633,
      "祺": 5634,
      "禁": 5635,
      "禄": 5636,
      "禅": 5637,
      "禮": 5638,
      "离": 5639,
      "禾": 5640,
      "禿": 5641,
      "秀": 5642,
      "私": 5643,
      "秉": 5644,
      "秋": 5645,
      "种": 5646,
      "科": 5647,
      "秒": 5648,
      "秘": 5649,
      "租": 5650,
      "秦": 5651,
      "秩": 5652,
      "积": 5653,
      "称": 5654,
      "移": 5655,
      "稀": 5656,
      "稅": 5657,
      "稊": 5658,
      "程": 5659,
      "稍": 5660,
      "税": 5661,
      "稟": 5662,
      "稠": 5663,
      "種": 5664,
      "稱": 5665,
      "稳": 5666,
      "稻": 5667,
      "稼": 5668,
      "稿": 5669,
      "穂": 5670,
      "穆": 5671,
      "積": 5672,
      "穎": 5673,
      "穏": 5674,
      "穩": 5675,
      "穴": 5676,
      "究": 5677,
      "穷": 5678,
      "穹": 5679,
      "空": 5680,
      "穿": 5681,
      "突": 5682,
      "窃": 5683,
      "窄": 5684,
      "窒": 5685,
      "窓": 5686,
      "窗": 5687,
      "窝": 5688,
      "窟": 5689,
      "窥": 5690,
      "窦": 5691,
      "竇": 5692,
      "立": 5693,
      "竖": 5694,
      "站": 5695,
      "竞": 5696,
      "竟": 5697,
      "章": 5698,
      "竣": 5699,
      "童": 5700,
      "竭": 5701,
      "端": 5702,
      "競": 5703,
      "竹": 5704,
      "笑": 5705,
      "笔": 5706,
      "笥": 5707,
      "符": 5708,
      "笨": 5709,
      "第": 5710,
      "笼": 5711,
      "筆": 5712,
      "等": 5713,
      "筋": 5714,
      "筍": 5715,
      "筐": 5716,
      "筑": 5717,
      "筒": 5718,
      "答": 5719,
      "策": 5720,
      "筛": 5721,
      "筹": 5722,
      "签": 5723,
      "简": 5724,
      "箇": 5725,
      "算": 5726,
      "管": 5727,
      "箪": 5728,
      "箭": 5729,
      "箱": 5730,
      "節": 5731,
      "範": 5732,
      "篇": 5733,
      "築": 5734,
      "篩": 5735,
      "篮": 5736,
      "篱": 5737,
      "簑": 5738,
      "簡": 5739,
      "簧": 5740,
      "簽": 5741,
      "簾": 5742,
      "簿": 5743,
      "籌": 5744,
      "籍": 5745,
      "籤": 5746,
      "米": 5747,
      "类": 5748,
      "粉": 5749,
      "粋": 5750,
      "粑": 5751,
      "粒": 5752,
      "粗": 5753,
      "粘": 5754,
      "粤": 5755,
      "粧": 5756,
      "粮": 5757,
      "粱": 5758,
      "粽": 5759,
      "精": 5760,
      "糊": 5761,
      "糍": 5762,
      "糕": 5763,
      "糖": 5764,
      "糙": 5765,
      "糜": 5766,
      "糟": 5767,
      "糯": 5768,
      "糸": 5769,
      "系": 5770,
      "紀": 5771,
      "約": 5772,
      "紅": 5773,
      "紊": 5774,
      "紋": 5775,
      "納": 5776,
      "紐": 5777,
      "紓": 5778,
      "純": 5779,
      "紙": 5780,
      "級": 5781,
      "紝": 5782,
      "素": 5783,
      "索": 5784,
      "紧": 5785,
      "紫": 5786,
      "累": 5787,
      "細": 5788,
      "紹": 5789,
      "終": 5790,
      "組": 5791,
      "経": 5792,
      "結": 5793,
      "絕": 5794,
      "絞": 5795,
      "絡": 5796,
      "給": 5797,
      "統": 5798,
      "絲": 5799,
      "絵": 5800,
      "絶": 5801,
      "綁": 5802,
      "經": 5803,
      "継": 5804,
      "続": 5805,
      "綜": 5806,
      "綠": 5807,
      "維": 5808,
      "綱": 5809,
      "網": 5810,
      "綺": 5811,
      "綾": 5812,
      "綿": 5813,
      "緊": 5814,
      "緋": 5815,
      "総": 5816,
      "緑": 5817,
      "緒": 5818,
      "線": 5819,
      "締": 5820,
      "緣": 5821,
      "編": 5822,
      "緩": 5823,
      "緯": 5824,
      "練": 5825,
      "緹": 5826,
      "縁": 5827,
      "縄": 5828,
      "縛": 5829,
      "縞": 5830,
      "縣": 5831,
      "縦": 5832,
      "縮": 5833,
      "總": 5834,
      "績": 5835,
      "繁": 5836,
      "繊": 5837,
      "繋": 5838,
      "織": 5839,
      "繪": 5840,
      "繫": 5841,
      "繰": 5842,
      "繷": 5843,
      "繼": 5844,
      "續": 5845,
      "纏": 5846,
      "纜": 5847,
      "纠": 5848,
      "红": 5849,
      "纤": 5850,
      "约": 5851,
      "级": 5852,
      "纪": 5853,
      "纬": 5854,
      "纯": 5855,
      "纱": 5856,
      "纲": 5857,
      "纳": 5858,
      "纵": 5859,
      "纷": 5860,
      "纸": 5861,
      "纹": 5862,
      "纺": 5863,
      "纽": 5864,
      "线": 5865,
      "练": 5866,
      "组": 5867,
      "细": 5868,
      "织": 5869,
      "终": 5870,
      "绍": 5871,
      "绎": 5872,
      "经": 5873,
      "绑": 5874,
      "绒": 5875,
      "结": 5876,
      "绕": 5877,
      "绘": 5878,
      "给": 5879,
      "绚": 5880,
      "络": 5881,
      "绝": 5882,
      "统": 5883,
      "绢": 5884,
      "绣": 5885,
      "绥": 5886,
      "继": 5887,
      "绩": 5888,
      "绪": 5889,
      "续": 5890,
      "绳": 5891,
      "维": 5892,
      "绵": 5893,
      "综": 5894,
      "绿": 5895,
      "缀": 5896,
      "缅": 5897,
      "缓": 5898,
      "编": 5899,
      "缘": 5900,
      "缚": 5901,
      "缝": 5902,
      "缠": 5903,
      "缩": 5904,
      "缪": 5905,
      "缭": 5906,
      "缴": 5907,
      "缶": 5908,
      "缸": 5909,
      "缺": 5910,
      "罐": 5911,
      "网": 5912,
      "罔": 5913,
      "罕": 5914,
      "罗": 5915,
      "罚": 5916,
      "罩": 5917,
      "罪": 5918,
      "置": 5919,
      "罰": 5920,
      "署": 5921,
      "罹": 5922,
      "羅": 5923,
      "羊": 5924,
      "美": 5925,
      "羞": 5926,
      "羟": 5927,
      "羡": 5928,
      "群": 5929,
      "羧": 5930,
      "義": 5931,
      "羹": 5932,
      "羽": 5933,
      "翁": 5934,
      "翅": 5935,
      "翌": 5936,
      "翘": 5937,
      "翟": 5938,
      "翠": 5939,
      "翰": 5940,
      "翹": 5941,
      "翻": 5942,
      "翼": 5943,
      "耀": 5944,
      "老": 5945,
      "考": 5946,
      "者": 5947,
      "而": 5948,
      "耍": 5949,
      "耐": 5950,
      "耕": 5951,
      "耗": 5952,
      "耦": 5953,
      "耳": 5954,
      "耻": 5955,
      "聊": 5956,
      "聋": 5957,
      "职": 5958,
      "联": 5959,
      "聖": 5960,
      "聘": 5961,
      "聚": 5962,
      "聞": 5963,
      "聡": 5964,
      "聩": 5965,
      "聪": 5966,
      "聯": 5967,
      "聰": 5968,
      "聲": 5969,
      "聴": 5970,
      "職": 5971,
      "聼": 5972,
      "聽": 5973,
      "肃": 5974,
      "肉": 5975,
      "肋": 5976,
      "肌": 5977,
      "肖": 5978,
      "肚": 5979,
      "肝": 5980,
      "肟": 5981,
      "肠": 5982,
      "股": 5983,
      "肢": 5984,
      "肤": 5985,
      "肥": 5986,
      "肩": 5987,
      "肪": 5988,
      "肯": 5989,
      "育": 5990,
      "肺": 5991,
      "肽": 5992,
      "肾": 5993,
      "肿": 5994,
      "胀": 5995,
      "胁": 5996,
      "胃": 5997,
      "胆": 5998,
      "背": 5999,
      "胍": 6000,
      "胎": 6001,
      "胖": 6002,
      "胚": 6003,
      "胜": 6004,
      "胞": 6005,
      "胡": 6006,
      "胥": 6007,
      "胰": 6008,
      "胱": 6009,
      "胶": 6010,
      "胸": 6011,
      "胺": 6012,
      "能": 6013,
      "脂": 6014,
      "脅": 6015,
      "脆": 6016,
      "脈": 6017,
      "脉": 6018,
      "脊": 6019,
      "脏": 6020,
      "脐": 6021,
      "脑": 6022,
      "脓": 6023,
      "脖": 6024,
      "脚": 6025,
      "脯": 6026,
      "脱": 6027,
      "脳": 6028,
      "脸": 6029,
      "脾": 6030,
      "脿": 6031,
      "腊": 6032,
      "腎": 6033,
      "腐": 6034,
      "腓": 6035,
      "腔": 6036,
      "腕": 6037,
      "腗": 6038,
      "腟": 6039,
      "腦": 6040,
      "腩": 6041,
      "腫": 6042,
      "腰": 6043,
      "腱": 6044,
      "腳": 6045,
      "腹": 6046,
      "腺": 6047,
      "腻": 6048,
      "腾": 6049,
      "腿": 6050,
      "膀": 6051,
      "膏": 6052,
      "膚": 6053,
      "膜": 6054,
      "膝": 6055,
      "膠": 6056,
      "膣": 6057,
      "膨": 6058,
      "膳": 6059,
      "膽": 6060,
      "膿": 6061,
      "臀": 6062,
      "臂": 6063,
      "臓": 6064,
      "臟": 6065,
      "臣": 6066,
      "臨": 6067,
      "臭": 6068,
      "至": 6069,
      "致": 6070,
      "臺": 6071,
      "臼": 6072,
      "舅": 6073,
      "舆": 6074,
      "與": 6075,
      "興": 6076,
      "舉": 6077,
      "舊": 6078,
      "舌": 6079,
      "舍": 6080,
      "舎": 6081,
      "舐": 6082,
      "舒": 6083,
      "舗": 6084,
      "舞": 6085,
      "舟": 6086,
      "航": 6087,
      "般": 6088,
      "舰": 6089,
      "舵": 6090,
      "舶": 6091,
      "船": 6092,
      "舺": 6093,
      "艇": 6094,
      "艋": 6095,
      "艘": 6096,
      "艦": 6097,
      "良": 6098,
      "艱": 6099,
      "色": 6100,
      "艳": 6101,
      "艹": 6102,
      "艺": 6103,
      "艾": 6104,
      "节": 6105,
      "芍": 6106,
      "芎": 6107,
      "芒": 6108,
      "芙": 6109,
      "芜": 6110,
      "芝": 6111,
      "芦": 6112,
      "芬": 6113,
      "芭": 6114,
      "芯": 6115,
      "花": 6116,
      "芳": 6117,
      "芷": 6118,
      "芸": 6119,
      "芹": 6120,
      "芽": 6121,
      "苄": 6122,
      "苈": 6123,
      "苍": 6124,
      "苏": 6125,
      "苑": 6126,
      "苓": 6127,
      "苔": 6128,
      "苗": 6129,
      "苛": 6130,
      "苟": 6131,
      "若": 6132,
      "苦": 6133,
      "苫": 6134,
      "苯": 6135,
      "英": 6136,
      "苷": 6137,
      "苹": 6138,
      "茂": 6139,
      "范": 6140,
      "茄": 6141,
      "茅": 6142,
      "茎": 6143,
      "茜": 6144,
      "茧": 6145,
      "茨": 6146,
      "茫": 6147,
      "茭": 6148,
      "茯": 6149,
      "茵": 6150,
      "茶": 6151,
      "荆": 6152,
      "草": 6153,
      "荐": 6154,
      "荒": 6155,
      "荔": 6156,
      "荘": 6157,
      "荡": 6158,
      "荣": 6159,
      "荧": 6160,
      "药": 6161,
      "荷": 6162,
      "莉": 6163,
      "莍": 6164,
      "莎": 6165,
      "莓": 6166,
      "莞": 6167,
      "莪": 6168,
      "莫": 6169,
      "莱": 6170,
      "莲": 6171,
      "获": 6172,
      "莹": 6173,
      "菇": 6174,
      "菊": 6175,
      "菌": 6176,
      "菓": 6177,
      "菜": 6178,
      "菠": 6179,
      "華": 6180,
      "菱": 6181,
      "菲": 6182,
      "菸": 6183,
      "萃": 6184,
      "萄": 6185,
      "萌": 6186,
      "萍": 6187,
      "萎": 6188,
      "萝": 6189,
      "萤": 6190,
      "营": 6191,
      "萧": 6192,
      "萨": 6193,
      "萩": 6194,
      "萬": 6195,
      "萱": 6196,
      "落": 6197,
      "葉": 6198,
      "著": 6199,
      "葛": 6200,
      "葡": 6201,
      "董": 6202,
      "葬": 6203,
      "葱": 6204,
      "葳": 6205,
      "葵": 6206,
      "葶": 6207,
      "蒂": 6208,
      "蒋": 6209,
      "蒙": 6210,
      "蒲": 6211,
      "蒸": 6212,
      "蓄": 6213,
      "蓉": 6214,
      "蓋": 6215,
      "蓑": 6216,
      "蓝": 6217,
      "蓬": 6218,
      "蓮": 6219,
      "蔑": 6220,
      "蔚": 6221,
      "蔡": 6222,
      "蔬": 6223,
      "蔵": 6224,
      "蔻": 6225,
      "蔽": 6226,
      "蕁": 6227,
      "蕉": 6228,
      "蕊": 6229,
      "蕎": 6230,
      "蕨": 6231,
      "蕭": 6232,
      "蕾": 6233,
      "薄": 6234,
      "薇": 6235,
      "薛": 6236,
      "薦": 6237,
      "薪": 6238,
      "薬": 6239,
      "薯": 6240,
      "薰": 6241,
      "藉": 6242,
      "藏": 6243,
      "藕": 6244,
      "藜": 6245,
      "藤": 6246,
      "藥": 6247,
      "藻": 6248,
      "蘋": 6249,
      "蘑": 6250,
      "蘭": 6251,
      "虎": 6252,
      "虑": 6253,
      "處": 6254,
      "虚": 6255,
      "號": 6256,
      "虫": 6257,
      "虹": 6258,
      "虽": 6259,
      "虾": 6260,
      "蚀": 6261,
      "蚁": 6262,
      "蚊": 6263,
      "蚕": 6264,
      "蚝": 6265,
      "蚣": 6266,
      "蚪": 6267,
      "蚴": 6268,
      "蛇": 6269,
      "蛊": 6270,
      "蛋": 6271,
      "蛔": 6272,
      "蛙": 6273,
      "蛛": 6274,
      "蛭": 6275,
      "蛮": 6276,
      "蛳": 6277,
      "蜀": 6278,
      "蜂": 6279,
      "蜇": 6280,
      "蜈": 6281,
      "蜒": 6282,
      "蜓": 6283,
      "蜗": 6284,
      "蜘": 6285,
      "蜜": 6286,
      "蜡": 6287,
      "蜻": 6288,
      "蜿": 6289,
      "蝇": 6290,
      "蝉": 6291,
      "蝌": 6292,
      "蝙": 6293,
      "蝠": 6294,
      "蝦": 6295,
      "蝴": 6296,
      "蝶": 6297,
      "螃": 6298,
      "融": 6299,
      "螢": 6300,
      "螨": 6301,
      "螯": 6302,
      "螺": 6303,
      "蟲": 6304,
      "蟹": 6305,
      "蟻": 6306,
      "蠢": 6307,
      "血": 6308,
      "衆": 6309,
      "行": 6310,
      "衍": 6311,
      "術": 6312,
      "街": 6313,
      "衛": 6314,
      "衝": 6315,
      "衡": 6316,
      "衣": 6317,
      "补": 6318,
      "表": 6319,
      "衫": 6320,
      "衬": 6321,
      "衰": 6322,
      "袁": 6323,
      "袋": 6324,
      "袖": 6325,
      "袜": 6326,
      "被": 6327,
      "袭": 6328,
      "袴": 6329,
      "裁": 6330,
      "裂": 6331,
      "装": 6332,
      "裏": 6333,
      "裕": 6334,
      "裙": 6335,
      "補": 6336,
      "裝": 6337,
      "裡": 6338,
      "裤": 6339,
      "裸": 6340,
      "裹": 6341,
      "製": 6342,
      "複": 6343,
      "褐": 6344,
      "褒": 6345,
      "褥": 6346,
      "褪": 6347,
      "褶": 6348,
      "襄": 6349,
      "襟": 6350,
      "襲": 6351,
      "西": 6352,
      "要": 6353,
      "覃": 6354,
      "覅": 6355,
      "覆": 6356,
      "見": 6357,
      "規": 6358,
      "視": 6359,
      "覗": 6360,
      "覚": 6361,
      "覧": 6362,
      "親": 6363,
      "観": 6364,
      "覺": 6365,
      "覽": 6366,
      "觀": 6367,
      "见": 6368,
      "观": 6369,
      "规": 6370,
      "觅": 6371,
      "视": 6372,
      "览": 6373,
      "觉": 6374,
      "角": 6375,
      "解": 6376,
      "触": 6377,
      "言": 6378,
      "訂": 6379,
      "計": 6380,
      "訊": 6381,
      "討": 6382,
      "訓": 6383,
      "訕": 6384,
      "訖": 6385,
      "託": 6386,
      "記": 6387,
      "訣": 6388,
      "訪": 6389,
      "設": 6390,
      "許": 6391,
      "訳": 6392,
      "訴": 6393,
      "診": 6394,
      "証": 6395,
      "評": 6396,
      "詞": 6397,
      "詠": 6398,
      "詢": 6399,
      "試": 6400,
      "詩": 6401,
      "詫": 6402,
      "詰": 6403,
      "話": 6404,
      "該": 6405,
      "詳": 6406,
      "詹": 6407,
      "誉": 6408,
      "認": 6409,
      "誓": 6410,
      "誕": 6411,
      "誘": 6412,
      "語": 6413,
      "誠": 6414,
      "誤": 6415,
      "說": 6416,
      "説": 6417,
      "読": 6418,
      "誰": 6419,
      "課": 6420,
      "誹": 6421,
      "調": 6422,
      "談": 6423,
      "請": 6424,
      "論": 6425,
      "諦": 6426,
      "諺": 6427,
      "諾": 6428,
      "謀": 6429,
      "謁": 6430,
      "謂": 6431,
      "謎": 6432,
      "謗": 6433,
      "謙": 6434,
      "講": 6435,
      "謝": 6436,
      "證": 6437,
      "識": 6438,
      "譚": 6439,
      "譜": 6440,
      "警": 6441,
      "譯": 6442,
      "議": 6443,
      "譲": 6444,
      "護": 6445,
      "讀": 6446,
      "變": 6447,
      "讐": 6448,
      "讓": 6449,
      "计": 6450,
      "订": 6451,
      "认": 6452,
      "讨": 6453,
      "让": 6454,
      "讪": 6455,
      "讫": 6456,
      "训": 6457,
      "议": 6458,
      "讯": 6459,
      "记": 6460,
      "讲": 6461,
      "讶": 6462,
      "许": 6463,
      "论": 6464,
      "讽": 6465,
      "设": 6466,
      "访": 6467,
      "证": 6468,
      "诃": 6469,
      "评": 6470,
      "诅": 6471,
      "识": 6472,
      "诈": 6473,
      "诉": 6474,
      "诊": 6475,
      "诋": 6476,
      "词": 6477,
      "译": 6478,
      "试": 6479,
      "诗": 6480,
      "诚": 6481,
      "话": 6482,
      "诞": 6483,
      "询": 6484,
      "该": 6485,
      "详": 6486,
      "语": 6487,
      "误": 6488,
      "诱": 6489,
      "说": 6490,
      "诵": 6491,
      "诶": 6492,
      "请": 6493,
      "诸": 6494,
      "诺": 6495,
      "读": 6496,
      "课": 6497,
      "谁": 6498,
      "调": 6499,
      "谈": 6500,
      "谋": 6501,
      "谐": 6502,
      "谓": 6503,
      "谙": 6504,
      "谚": 6505,
      "谢": 6506,
      "谣": 6507,
      "谥": 6508,
      "谦": 6509,
      "谨": 6510,
      "谭": 6511,
      "谱": 6512,
      "谷": 6513,
      "豆": 6514,
      "豊": 6515,
      "豐": 6516,
      "豚": 6517,
      "象": 6518,
      "豪": 6519,
      "豫": 6520,
      "豬": 6521,
      "貌": 6522,
      "貓": 6523,
      "貝": 6524,
      "貞": 6525,
      "負": 6526,
      "財": 6527,
      "貢": 6528,
      "貧": 6529,
      "貨": 6530,
      "販": 6531,
      "貫": 6532,
      "責": 6533,
      "貯": 6534,
      "貰": 6535,
      "貴": 6536,
      "買": 6537,
      "貸": 6538,
      "費": 6539,
      "貼": 6540,
      "賀": 6541,
      "賃": 6542,
      "資": 6543,
      "賛": 6544,
      "賞": 6545,
      "賢": 6546,
      "賣": 6547,
      "質": 6548,
      "賺": 6549,
      "購": 6550,
      "賽": 6551,
      "贈": 6552,
      "贏": 6553,
      "贝": 6554,
      "负": 6555,
      "贡": 6556,
      "财": 6557,
      "责": 6558,
      "贤": 6559,
      "败": 6560,
      "账": 6561,
      "货": 6562,
      "质": 6563,
      "贫": 6564,
      "贬": 6565,
      "购": 6566,
      "贮": 6567,
      "贯": 6568,
      "贰": 6569,
      "贴": 6570,
      "贵": 6571,
      "贷": 6572,
      "贸": 6573,
      "费": 6574,
      "贺": 6575,
      "贾": 6576,
      "赁": 6577,
      "资": 6578,
      "赋": 6579,
      "赌": 6580,
      "赎": 6581,
      "赏": 6582,
      "赔": 6583,
      "赖": 6584,
      "赚": 6585,
      "赛": 6586,
      "赞": 6587,
      "赠": 6588,
      "赢": 6589,
      "赣": 6590,
      "赤": 6591,
      "走": 6592,
      "赴": 6593,
      "赵": 6594,
      "赶": 6595,
      "起": 6596,
      "超": 6597,
      "越": 6598,
      "趋": 6599,
      "趙": 6600,
      "趣": 6601,
      "趨": 6602,
      "足": 6603,
      "趴": 6604,
      "趾": 6605,
      "跃": 6606,
      "跌": 6607,
      "跑": 6608,
      "距": 6609,
      "跟": 6610,
      "跡": 6611,
      "跤": 6612,
      "跨": 6613,
      "跩": 6614,
      "路": 6615,
      "跳": 6616,
      "践": 6617,
      "踊": 6618,
      "踏": 6619,
      "踝": 6620,
      "踢": 6621,
      "踩": 6622,
      "踪": 6623,
      "蹄": 6624,
      "蹈": 6625,
      "蹟": 6626,
      "蹬": 6627,
      "蹴": 6628,
      "躍": 6629,
      "身": 6630,
      "躯": 6631,
      "躺": 6632,
      "車": 6633,
      "軌": 6634,
      "軒": 6635,
      "軟": 6636,
      "転": 6637,
      "軸": 6638,
      "軽": 6639,
      "較": 6640,
      "載": 6641,
      "輔": 6642,
      "輕": 6643,
      "輝": 6644,
      "輩": 6645,
      "輪": 6646,
      "輯": 6647,
      "輸": 6648,
      "轄": 6649,
      "轉": 6650,
      "车": 6651,
      "轨": 6652,
      "轩": 6653,
      "转": 6654,
      "轮": 6655,
      "软": 6656,
      "轴": 6657,
      "轻": 6658,
      "轼": 6659,
      "载": 6660,
      "轿": 6661,
      "较": 6662,
      "辅": 6663,
      "辆": 6664,
      "辇": 6665,
      "辈": 6666,
      "辉": 6667,
      "辐": 6668,
      "辑": 6669,
      "输": 6670,
      "辛": 6671,
      "辞": 6672,
      "辣": 6673,
      "辦": 6674,
      "辨": 6675,
      "辩": 6676,
      "辫": 6677,
      "辭": 6678,
      "辰": 6679,
      "辱": 6680,
      "農": 6681,
      "边": 6682,
      "辺": 6683,
      "辻": 6684,
      "込": 6685,
      "辽": 6686,
      "达": 6687,
      "迁": 6688,
      "迅": 6689,
      "过": 6690,
      "迈": 6691,
      "迎": 6692,
      "运": 6693,
      "近": 6694,
      "返": 6695,
      "还": 6696,
      "这": 6697,
      "进": 6698,
      "远": 6699,
      "违": 6700,
      "连": 6701,
      "迟": 6702,
      "迦": 6703,
      "迪": 6704,
      "迫": 6705,
      "迭": 6706,
      "述": 6707,
      "迷": 6708,
      "迹": 6709,
      "追": 6710,
      "送": 6711,
      "适": 6712,
      "逃": 6713,
      "逅": 6714,
      "逆": 6715,
      "选": 6716,
      "逊": 6717,
      "透": 6718,
      "逐": 6719,
      "递": 6720,
      "途": 6721,
      "逗": 6722,
      "這": 6723,
      "通": 6724,
      "逛": 6725,
      "逝": 6726,
      "速": 6727,
      "造": 6728,
      "連": 6729,
      "週": 6730,
      "進": 6731,
      "逸": 6732,
      "逻": 6733,
      "逾": 6734,
      "遂": 6735,
      "遅": 6736,
      "遇": 6737,
      "遊": 6738,
      "運": 6739,
      "遍": 6740,
      "過": 6741,
      "道": 6742,
      "達": 6743,
      "違": 6744,
      "遗": 6745,
      "遝": 6746,
      "遞": 6747,
      "遠": 6748,
      "遣": 6749,
      "遥": 6750,
      "適": 6751,
      "遭": 6752,
      "遮": 6753,
      "遵": 6754,
      "遷": 6755,
      "選": 6756,
      "遺": 6757,
      "避": 6758,
      "邀": 6759,
      "邂": 6760,
      "還": 6761,
      "邊": 6762,
      "邏": 6763,
      "邑": 6764,
      "邢": 6765,
      "那": 6766,
      "邦": 6767,
      "邩": 6768,
      "邪": 6769,
      "邮": 6770,
      "邱": 6771,
      "邵": 6772,
      "邸": 6773,
      "邺": 6774,
      "邻": 6775,
      "郁": 6776,
      "郊": 6777,
      "郎": 6778,
      "郑": 6779,
      "郡": 6780,
      "部": 6781,
      "郵": 6782,
      "都": 6783,
      "鄂": 6784,
      "鄉": 6785,
      "鄒": 6786,
      "鄙": 6787,
      "鄭": 6788,
      "酊": 6789,
      "酋": 6790,
      "配": 6791,
      "酐": 6792,
      "酒": 6793,
      "酗": 6794,
      "酚": 6795,
      "酢": 6796,
      "酩": 6797,
      "酪": 6798,
      "酬": 6799,
      "酮": 6800,
      "酯": 6801,
      "酰": 6802,
      "酱": 6803,
      "酵": 6804,
      "酶": 6805,
      "酷": 6806,
      "酸": 6807,
      "醇": 6808,
      "醉": 6809,
      "醋": 6810,
      "醌": 6811,
      "醒": 6812,
      "醛": 6813,
      "醤": 6814,
      "醨": 6815,
      "醩": 6816,
      "醫": 6817,
      "采": 6818,
      "釈": 6819,
      "释": 6820,
      "釋": 6821,
      "里": 6822,
      "重": 6823,
      "野": 6824,
      "量": 6825,
      "金": 6826,
      "釘": 6827,
      "針": 6828,
      "釣": 6829,
      "鈍": 6830,
      "鈥": 6831,
      "鈴": 6832,
      "鈺": 6833,
      "鉄": 6834,
      "鉛": 6835,
      "鉴": 6836,
      "鉶": 6837,
      "銀": 6838,
      "銅": 6839,
      "銆": 6840,
      "銘": 6841,
      "銬": 6842,
      "銭": 6843,
      "銷": 6844,
      "銹": 6845,
      "鋊": 6846,
      "鋑": 6847,
      "鋼": 6848,
      "錄": 6849,
      "錆": 6850,
      "錠": 6851,
      "錡": 6852,
      "錢": 6853,
      "錦": 6854,
      "錬": 6855,
      "錯": 6856,
      "録": 6857,
      "錶": 6858,
      "錽": 6859,
      "鍋": 6860,
      "鍖": 6861,
      "鍙": 6862,
      "鍛": 6863,
      "鍮": 6864,
      "鍵": 6865,
      "鍼": 6866,
      "鎌": 6867,
      "鎖": 6868,
      "鏈": 6869,
      "鏡": 6870,
      "鐘": 6871,
      "鐪": 6872,
      "鐵": 6873,
      "鑄": 6874,
      "鑑": 6875,
      "鑞": 6876,
      "鑫": 6877,
      "针": 6878,
      "钉": 6879,
      "钎": 6880,
      "钓": 6881,
      "钗": 6882,
      "钙": 6883,
      "钛": 6884,
      "钝": 6885,
      "钟": 6886,
      "钠": 6887,
      "钢": 6888,
      "钥": 6889,
      "钮": 6890,
      "钰": 6891,
      "钱": 6892,
      "钻": 6893,
      "钾": 6894,
      "铁": 6895,
      "铃": 6896,
      "铅": 6897,
      "铜": 6898,
      "铝": 6899,
      "铭": 6900,
      "铲": 6901,
      "铵": 6902,
      "银": 6903,
      "铸": 6904,
      "铺": 6905,
      "链": 6906,
      "销": 6907,
      "锁": 6908,
      "锂": 6909,
      "锄": 6910,
      "锅": 6911,
      "锈": 6912,
      "锋": 6913,
      "锌": 6914,
      "锐": 6915,
      "锕": 6916,
      "错": 6917,
      "锚": 6918,
      "锛": 6919,
      "锡": 6920,
      "锤": 6921,
      "锥": 6922,
      "锦": 6923,
      "键": 6924,
      "锻": 6925,
      "镀": 6926,
      "镁": 6927,
      "镂": 6928,
      "镇": 6929,
      "镖": 6930,
      "镜": 6931,
      "長": 6932,
      "长": 6933,
      "門": 6934,
      "閉": 6935,
      "開": 6936,
      "閎": 6937,
      "閏": 6938,
      "閑": 6939,
      "閒": 6940,
      "間": 6941,
      "閞": 6942,
      "関": 6943,
      "閣": 6944,
      "閤": 6945,
      "閬": 6946,
      "閱": 6947,
      "閲": 6948,
      "閶": 6949,
      "閿": 6950,
      "闆": 6951,
      "闘": 6952,
      "關": 6953,
      "门": 6954,
      "闪": 6955,
      "闭": 6956,
      "问": 6957,
      "闯": 6958,
      "闰": 6959,
      "闲": 6960,
      "间": 6961,
      "闵": 6962,
      "闷": 6963,
      "闸": 6964,
      "闹": 6965,
      "闺": 6966,
      "闻": 6967,
      "闽": 6968,
      "阀": 6969,
      "阁": 6970,
      "阅": 6971,
      "阈": 6972,
      "阐": 6973,
      "阔": 6974,
      "阜": 6975,
      "阪": 6976,
      "阱": 6977,
      "防": 6978,
      "阳": 6979,
      "阴": 6980,
      "阵": 6981,
      "阶": 6982,
      "阻": 6983,
      "阿": 6984,
      "陀": 6985,
      "附": 6986,
      "际": 6987,
      "陆": 6988,
      "陈": 6989,
      "陌": 6990,
      "降": 6991,
      "限": 6992,
      "陕": 6993,
      "陛": 6994,
      "陡": 6995,
      "院": 6996,
      "陣": 6997,
      "除": 6998,
      "陥": 6999,
      "陨": 7000,
      "险": 7001,
      "陪": 7002,
      "陰": 7003,
      "陳": 7004,
      "陵": 7005,
      "陶": 7006,
      "陷": 7007,
      "陸": 7008,
      "険": 7009,
      "陽": 7010,
      "隅": 7011,
      "隆": 7012,
      "階": 7013,
      "随": 7014,
      "隐": 7015,
      "隔": 7016,
      "隘": 7017,
      "隙": 7018,
      "際": 7019,
      "障": 7020,
      "隠": 7021,
      "隣": 7022,
      "隧": 7023,
      "隨": 7024,
      "險": 7025,
      "隱": 7026,
      "隻": 7027,
      "难": 7028,
      "雀": 7029,
      "雁": 7030,
      "雄": 7031,
      "雅": 7032,
      "集": 7033,
      "雇": 7034,
      "雌": 7035,
      "雑": 7036,
      "雕": 7037,
      "雖": 7038,
      "雙": 7039,
      "雛": 7040,
      "離": 7041,
      "難": 7042,
      "雨": 7043,
      "雪": 7044,
      "雯": 7045,
      "雰": 7046,
      "雲": 7047,
      "雳": 7048,
      "零": 7049,
      "雷": 7050,
      "電": 7051,
      "雾": 7052,
      "需": 7053,
      "霁": 7054,
      "霆": 7055,
      "震": 7056,
      "霉": 7057,
      "霊": 7058,
      "霍": 7059,
      "霓": 7060,
      "霜": 7061,
      "霞": 7062,
      "霧": 7063,
      "露": 7064,
      "霸": 7065,
      "霹": 7066,
      "霾": 7067,
      "靈": 7068,
      "青": 7069,
      "静": 7070,
      "靜": 7071,
      "非": 7072,
      "靠": 7073,
      "靡": 7074,
      "面": 7075,
      "革": 7076,
      "靴": 7077,
      "靶": 7078,
      "靼": 7079,
      "鞋": 7080,
      "鞍": 7081,
      "鞑": 7082,
      "鞘": 7083,
      "鞝": 7084,
      "鞭": 7085,
      "韒": 7086,
      "韓": 7087,
      "韧": 7088,
      "韩": 7089,
      "韭": 7090,
      "音": 7091,
      "韵": 7092,
      "韶": 7093,
      "韻": 7094,
      "響": 7095,
      "頁": 7096,
      "頂": 7097,
      "項": 7098,
      "順": 7099,
      "須": 7100,
      "頌": 7101,
      "預": 7102,
      "頑": 7103,
      "頓": 7104,
      "領": 7105,
      "頚": 7106,
      "頬": 7107,
      "頭": 7108,
      "頸": 7109,
      "頻": 7110,
      "頼": 7111,
      "顆": 7112,
      "題": 7113,
      "額": 7114,
      "顔": 7115,
      "顕": 7116,
      "願": 7117,
      "類": 7118,
      "顧": 7119,
      "顯": 7120,
      "页": 7121,
      "顶": 7122,
      "顷": 7123,
      "项": 7124,
      "顺": 7125,
      "须": 7126,
      "顾": 7127,
      "顿": 7128,
      "颁": 7129,
      "颂": 7130,
      "预": 7131,
      "颅": 7132,
      "领": 7133,
      "颇": 7134,
      "颈": 7135,
      "颐": 7136,
      "频": 7137,
      "颖": 7138,
      "颗": 7139,
      "题": 7140,
      "颜": 7141,
      "额": 7142,
      "颠": 7143,
      "颡": 7144,
      "風": 7145,
      "颯": 7146,
      "风": 7147,
      "飘": 7148,
      "飙": 7149,
      "飚": 7150,
      "飛": 7151,
      "飞": 7152,
      "食": 7153,
      "飯": 7154,
      "飲": 7155,
      "飼": 7156,
      "飽": 7157,
      "飾": 7158,
      "餅": 7159,
      "養": 7160,
      "餌": 7161,
      "餐": 7162,
      "館": 7163,
      "饋": 7164,
      "饒": 7165,
      "饥": 7166,
      "饪": 7167,
      "饭": 7168,
      "饮": 7169,
      "饰": 7170,
      "饱": 7171,
      "饲": 7172,
      "饶": 7173,
      "饺": 7174,
      "饼": 7175,
      "饿": 7176,
      "馃": 7177,
      "馆": 7178,
      "馈": 7179,
      "馒": 7180,
      "首": 7181,
      "香": 7182,
      "馨": 7183,
      "馬": 7184,
      "馮": 7185,
      "駄": 7186,
      "駅": 7187,
      "駆": 7188,
      "駍": 7189,
      "駐": 7190,
      "駑": 7191,
      "駒": 7192,
      "駕": 7193,
      "駝": 7194,
      "騎": 7195,
      "騒": 7196,
      "験": 7197,
      "驗": 7198,
      "驚": 7199,
      "驟": 7200,
      "马": 7201,
      "驯": 7202,
      "驰": 7203,
      "驱": 7204,
      "驳": 7205,
      "驶": 7206,
      "驻": 7207,
      "驼": 7208,
      "驾": 7209,
      "骁": 7210,
      "骂": 7211,
      "骆": 7212,
      "骋": 7213,
      "验": 7214,
      "骏": 7215,
      "骑": 7216,
      "骗": 7217,
      "骚": 7218,
      "骛": 7219,
      "骜": 7220,
      "骤": 7221,
      "骨": 7222,
      "骰": 7223,
      "骶": 7224,
      "髂": 7225,
      "髄": 7226,
      "髇": 7227,
      "髋": 7228,
      "髓": 7229,
      "體": 7230,
      "高": 7231,
      "髙": 7232,
      "髪": 7233,
      "鬆": 7234,
      "鬚": 7235,
      "鬥": 7236,
      "鬼": 7237,
      "魁": 7238,
      "魂": 7239,
      "魅": 7240,
      "魏": 7241,
      "魔": 7242,
      "魚": 7243,
      "魯": 7244,
      "鮑": 7245,
      "鮫": 7246,
      "鮮": 7247,
      "鯊": 7248,
      "鯖": 7249,
      "鯨": 7250,
      "鱼": 7251,
      "鱿": 7252,
      "鲁": 7253,
      "鲍": 7254,
      "鲜": 7255,
      "鲨": 7256,
      "鲫": 7257,
      "鲶": 7258,
      "鲸": 7259,
      "鳄": 7260,
      "鳙": 7261,
      "鳝": 7262,
      "鳞": 7263,
      "鳥": 7264,
      "鳩": 7265,
      "鳳": 7266,
      "鳴": 7267,
      "鴻": 7268,
      "鵝": 7269,
      "鶏": 7270,
      "鶴": 7271,
      "鷖": 7272,
      "鸟": 7273,
      "鸣": 7274,
      "鸦": 7275,
      "鸭": 7276,
      "鸵": 7277,
      "鸿": 7278,
      "鹂": 7279,
      "鹅": 7280,
      "鹈": 7281,
      "鹉": 7282,
      "鹜": 7283,
      "鹢": 7284,
      "鹤": 7285,
      "鹥": 7286,
      "鹦": 7287,
      "鹭": 7288,
      "鹰": 7289,
      "鹲": 7290,
      "鹸": 7291,
      "鹽": 7292,
      "鹿": 7293,
      "麊": 7294,
      "麏": 7295,
      "麐": 7296,
      "麗": 7297,
      "麘": 7298,
      "麞": 7299,
      "麡": 7300,
      "麥": 7301,
      "麦": 7302,
      "麫": 7303,
      "麳": 7304,
      "麵": 7305,
      "麹": 7306,
      "麺": 7307,
      "麻": 7308,
      "麼": 7309,
      "麽": 7310,
      "黃": 7311,
      "黄": 7312,
      "黇": 7313,
      "黎": 7314,
      "黏": 7315,
      "黑": 7316,
      "黒": 7317,
      "黓": 7318,
      "黕": 7319,
      "默": 7320,
      "黙": 7321,
      "黛": 7322,
      "點": 7323,
      "黧": 7324,
      "黮": 7325,
      "黯": 7326,
      "黱": 7327,
      "黳": 7328,
      "黷": 7329,
      "黸": 7330,
      "黽": 7331,
      "鼌": 7332,
      "鼏": 7333,
      "鼓": 7334,
      "鼚": 7335,
      "鼠": 7336,
      "鼥": 7337,
      "鼻": 7338,
      "齊": 7339,
      "齋": 7340,
      "齌": 7341,
      "齏": 7342,
      "齐": 7343,
      "齖": 7344,
      "齘": 7345,
      "齡": 7346,
      "齢": 7347,
      "齨": 7348,
      "齮": 7349,
      "齳": 7350,
      "齸": 7351,
      "齿": 7352,
      "龄": 7353,
      "龍": 7354,
      "龑": 7355,
      "龙": 7356,
      "龜": 7357,
      "龝": 7358,
      "龟": 7359,
      "龡": 7360,
      "龢": 7361,
      "ꂾ": 7362,
      "ꈍ": 7363,
      "ꑯ": 7364,
      "ꓵ": 7365,
      "Ꙁ": 7366,
      "ꙁ": 7367,
      "Ꙃ": 7368,
      "ꙃ": 7369,
      "Ꙋ": 7370,
      "ꙋ": 7371,
      "Ꙑ": 7372,
      "ꙑ": 7373,
      "ꙗ": 7374,
      "Ꜫ": 7375,
      "꞉": 7376,
      "ꟻ": 7377,
      "ꦁ": 7378,
      "ꦂ": 7379,
      "ꦒ": 7380,
      "ꦗ": 7381,
      "ꦤ": 7382,
      "ꦧ": 7383,
      "ꦩ": 7384,
      "ꦫ": 7385,
      "ꦱ": 7386,
      "ꦲ": 7387,
      "ꦴ": 7388,
      "ꦸ": 7389,
      "ꦺ": 7390,
      "ꦼ": 7391,
      "가": 7392,
      "각": 7393,
      "간": 7394,
      "갇": 7395,
      "갈": 7396,
      "감": 7397,
      "갑": 7398,
      "값": 7399,
      "갓": 7400,
      "갔": 7401,
      "강": 7402,
      "갖": 7403,
      "같": 7404,
      "갚": 7405,
      "개": 7406,
      "객": 7407,
      "갤": 7408,
      "갭": 7409,
      "갯": 7410,
      "갱": 7411,
      "갸": 7412,
      "걀": 7413,
      "걍": 7414,
      "걔": 7415,
      "걘": 7416,
      "거": 7417,
      "걱": 7418,
      "건": 7419,
      "걷": 7420,
      "걸": 7421,
      "검": 7422,
      "겁": 7423,
      "것": 7424,
      "게": 7425,
      "겐": 7426,
      "겔": 7427,
      "겟": 7428,
      "겠": 7429,
      "겧": 7430,
      "겨": 7431,
      "격": 7432,
      "겪": 7433,
      "견": 7434,
      "결": 7435,
      "겸": 7436,
      "겹": 7437,
      "겼": 7438,
      "경": 7439,
      "곁": 7440,
      "계": 7441,
      "고": 7442,
      "곡": 7443,
      "곤": 7444,
      "곧": 7445,
      "골": 7446,
      "곰": 7447,
      "곱": 7448,
      "곳": 7449,
      "공": 7450,
      "곶": 7451,
      "과": 7452,
      "곽": 7453,
      "관": 7454,
      "괄": 7455,
      "광": 7456,
      "괜": 7457,
      "괴": 7458,
      "굉": 7459,
      "교": 7460,
      "구": 7461,
      "국": 7462,
      "군": 7463,
      "굳": 7464,
      "굴": 7465,
      "굵": 7466,
      "굽": 7467,
      "굿": 7468,
      "궁": 7469,
      "궈": 7470,
      "권": 7471,
      "귀": 7472,
      "귄": 7473,
      "규": 7474,
      "균": 7475,
      "귤": 7476,
      "그": 7477,
      "극": 7478,
      "근": 7479,
      "글": 7480,
      "금": 7481,
      "급": 7482,
      "긋": 7483,
      "긍": 7484,
      "기": 7485,
      "긴": 7486,
      "길": 7487,
      "김": 7488,
      "깁": 7489,
      "깃": 7490,
      "깅": 7491,
      "깊": 7492,
      "까": 7493,
      "깍": 7494,
      "깎": 7495,
      "깐": 7496,
      "깔": 7497,
      "깜": 7498,
      "깝": 7499,
      "깨": 7500,
      "깰": 7501,
      "깹": 7502,
      "꺄": 7503,
      "꺠": 7504,
      "꺼": 7505,
      "꺾": 7506,
      "껀": 7507,
      "껄": 7508,
      "껌": 7509,
      "껍": 7510,
      "껏": 7511,
      "께": 7512,
      "껴": 7513,
      "꼈": 7514,
      "꼬": 7515,
      "꼭": 7516,
      "꼴": 7517,
      "꼼": 7518,
      "꼽": 7519,
      "꽃": 7520,
      "꽈": 7521,
      "꽉": 7522,
      "꽤": 7523,
      "꾀": 7524,
      "꾸": 7525,
      "꾼": 7526,
      "꿀": 7527,
      "꿈": 7528,
      "꿉": 7529,
      "꿔": 7530,
      "뀌": 7531,
      "뀐": 7532,
      "뀔": 7533,
      "끄": 7534,
      "끈": 7535,
      "끊": 7536,
      "끌": 7537,
      "끓": 7538,
      "끔": 7539,
      "끗": 7540,
      "끝": 7541,
      "끼": 7542,
      "낀": 7543,
      "낄": 7544,
      "낌": 7545,
      "나": 7546,
      "낙": 7547,
      "난": 7548,
      "날": 7549,
      "남": 7550,
      "납": 7551,
      "낫": 7552,
      "났": 7553,
      "낭": 7554,
      "낮": 7555,
      "낯": 7556,
      "낱": 7557,
      "내": 7558,
      "낸": 7559,
      "낼": 7560,
      "냄": 7561,
      "냅": 7562,
      "냈": 7563,
      "냉": 7564,
      "냐": 7565,
      "냥": 7566,
      "너": 7567,
      "넉": 7568,
      "넋": 7569,
      "넌": 7570,
      "널": 7571,
      "넓": 7572,
      "넘": 7573,
      "넣": 7574,
      "네": 7575,
      "넥": 7576,
      "넬": 7577,
      "넵": 7578,
      "넷": 7579,
      "녀": 7580,
      "녁": 7581,
      "년": 7582,
      "념": 7583,
      "녔": 7584,
      "녕": 7585,
      "녘": 7586,
      "노": 7587,
      "녹": 7588,
      "논": 7589,
      "놀": 7590,
      "놂": 7591,
      "놈": 7592,
      "놉": 7593,
      "농": 7594,
      "높": 7595,
      "놓": 7596,
      "놔": 7597,
      "놨": 7598,
      "뇌": 7599,
      "뇨": 7600,
      "뇽": 7601,
      "누": 7602,
      "눅": 7603,
      "눈": 7604,
      "눌": 7605,
      "눠": 7606,
      "뉘": 7607,
      "뉜": 7608,
      "뉩": 7609,
      "뉴": 7610,
      "늄": 7611,
      "늉": 7612,
      "느": 7613,
      "늑": 7614,
      "는": 7615,
      "늘": 7616,
      "늙": 7617,
      "능": 7618,
      "늦": 7619,
      "늪": 7620,
      "늬": 7621,
      "니": 7622,
      "닉": 7623,
      "닋": 7624,
      "닌": 7625,
      "닐": 7626,
      "님": 7627,
      "닙": 7628,
      "닝": 7629,
      "다": 7630,
      "닥": 7631,
      "닦": 7632,
      "단": 7633,
      "닫": 7634,
      "달": 7635,
      "닭": 7636,
      "담": 7637,
      "답": 7638,
      "당": 7639,
      "닿": 7640,
      "대": 7641,
      "댁": 7642,
      "댄": 7643,
      "댑": 7644,
      "댓": 7645,
      "댔": 7646,
      "댕": 7647,
      "댜": 7648,
      "더": 7649,
      "덕": 7650,
      "던": 7651,
      "덜": 7652,
      "덤": 7653,
      "덥": 7654,
      "덧": 7655,
      "덩": 7656,
      "덫": 7657,
      "덮": 7658,
      "덯": 7659,
      "데": 7660,
      "덱": 7661,
      "덴": 7662,
      "델": 7663,
      "뎃": 7664,
      "도": 7665,
      "독": 7666,
      "돈": 7667,
      "돋": 7668,
      "돌": 7669,
      "돔": 7670,
      "돕": 7671,
      "동": 7672,
      "돼": 7673,
      "됌": 7674,
      "됐": 7675,
      "되": 7676,
      "된": 7677,
      "될": 7678,
      "됨": 7679,
      "됩": 7680,
      "두": 7681,
      "둑": 7682,
      "둔": 7683,
      "둘": 7684,
      "둠": 7685,
      "둬": 7686,
      "뒀": 7687,
      "뒤": 7688,
      "뒷": 7689,
      "듀": 7690,
      "듈": 7691,
      "드": 7692,
      "득": 7693,
      "든": 7694,
      "듣": 7695,
      "들": 7696,
      "듬": 7697,
      "듭": 7698,
      "듯": 7699,
      "등": 7700,
      "디": 7701,
      "딕": 7702,
      "딘": 7703,
      "딜": 7704,
      "딤": 7705,
      "딥": 7706,
      "딧": 7707,
      "딨": 7708,
      "딩": 7709,
      "딪": 7710,
      "따": 7711,
      "딱": 7712,
      "딴": 7713,
      "딸": 7714,
      "땀": 7715,
      "땅": 7716,
      "때": 7717,
      "땐": 7718,
      "땜": 7719,
      "땠": 7720,
      "땡": 7721,
      "떄": 7722,
      "떠": 7723,
      "떡": 7724,
      "떢": 7725,
      "떤": 7726,
      "떨": 7727,
      "떳": 7728,
      "떵": 7729,
      "떻": 7730,
      "떼": 7731,
      "또": 7732,
      "똑": 7733,
      "똘": 7734,
      "똥": 7735,
      "뙤": 7736,
      "뚜": 7737,
      "뚝": 7738,
      "뚫": 7739,
      "뚸": 7740,
      "뛰": 7741,
      "뛸": 7742,
      "뜨": 7743,
      "뜬": 7744,
      "뜯": 7745,
      "뜰": 7746,
      "뜸": 7747,
      "뜹": 7748,
      "뜻": 7749,
      "띄": 7750,
      "띈": 7751,
      "띵": 7752,
      "라": 7753,
      "락": 7754,
      "란": 7755,
      "랄": 7756,
      "람": 7757,
      "랍": 7758,
      "랏": 7759,
      "랐": 7760,
      "랑": 7761,
      "랗": 7762,
      "래": 7763,
      "랙": 7764,
      "랜": 7765,
      "램": 7766,
      "랩": 7767,
      "랫": 7768,
      "랬": 7769,
      "랭": 7770,
      "략": 7771,
      "량": 7772,
      "러": 7773,
      "럭": 7774,
      "런": 7775,
      "럴": 7776,
      "럼": 7777,
      "럽": 7778,
      "럿": 7779,
      "렀": 7780,
      "렁": 7781,
      "렇": 7782,
      "레": 7783,
      "렉": 7784,
      "렌": 7785,
      "렐": 7786,
      "렘": 7787,
      "렛": 7788,
      "려": 7789,
      "력": 7790,
      "련": 7791,
      "렬": 7792,
      "렴": 7793,
      "렵": 7794,
      "렷": 7795,
      "렸": 7796,
      "령": 7797,
      "례": 7798,
      "로": 7799,
      "록": 7800,
      "론": 7801,
      "롤": 7802,
      "롬": 7803,
      "롭": 7804,
      "롯": 7805,
      "롱": 7806,
      "뢰": 7807,
      "료": 7808,
      "룔": 7809,
      "룡": 7810,
      "루": 7811,
      "룩": 7812,
      "룬": 7813,
      "룰": 7814,
      "룸": 7815,
      "룹": 7816,
      "룽": 7817,
      "뤄": 7818,
      "뤼": 7819,
      "류": 7820,
      "륙": 7821,
      "률": 7822,
      "륨": 7823,
      "륭": 7824,
      "르": 7825,
      "른": 7826,
      "를": 7827,
      "름": 7828,
      "릅": 7829,
      "릇": 7830,
      "릉": 7831,
      "릎": 7832,
      "리": 7833,
      "릭": 7834,
      "린": 7835,
      "릴": 7836,
      "림": 7837,
      "립": 7838,
      "릿": 7839,
      "링": 7840,
      "마": 7841,
      "막": 7842,
      "만": 7843,
      "많": 7844,
      "맏": 7845,
      "말": 7846,
      "맗": 7847,
      "맘": 7848,
      "맙": 7849,
      "맛": 7850,
      "망": 7851,
      "맞": 7852,
      "맡": 7853,
      "매": 7854,
      "맥": 7855,
      "맨": 7856,
      "맴": 7857,
      "맵": 7858,
      "맷": 7859,
      "맹": 7860,
      "맺": 7861,
      "머": 7862,
      "먹": 7863,
      "먼": 7864,
      "멀": 7865,
      "멈": 7866,
      "멋": 7867,
      "멍": 7868,
      "메": 7869,
      "멕": 7870,
      "멘": 7871,
      "멤": 7872,
      "며": 7873,
      "멱": 7874,
      "면": 7875,
      "멸": 7876,
      "명": 7877,
      "몇": 7878,
      "모": 7879,
      "목": 7880,
      "몫": 7881,
      "몬": 7882,
      "몰": 7883,
      "몸": 7884,
      "못": 7885,
      "몽": 7886,
      "묘": 7887,
      "무": 7888,
      "묵": 7889,
      "묶": 7890,
      "문": 7891,
      "묻": 7892,
      "물": 7893,
      "뭇": 7894,
      "뭉": 7895,
      "뭐": 7896,
      "뭔": 7897,
      "뭘": 7898,
      "뭣": 7899,
      "뭥": 7900,
      "뮌": 7901,
      "뮤": 7902,
      "뮬": 7903,
      "뮶": 7904,
      "므": 7905,
      "미": 7906,
      "믹": 7907,
      "민": 7908,
      "믿": 7909,
      "밀": 7910,
      "밋": 7911,
      "밌": 7912,
      "밍": 7913,
      "및": 7914,
      "밑": 7915,
      "바": 7916,
      "박": 7917,
      "밖": 7918,
      "반": 7919,
      "받": 7920,
      "발": 7921,
      "밝": 7922,
      "밤": 7923,
      "밥": 7924,
      "밧": 7925,
      "방": 7926,
      "밭": 7927,
      "배": 7928,
      "백": 7929,
      "밴": 7930,
      "밸": 7931,
      "뱃": 7932,
      "뱅": 7933,
      "버": 7934,
      "벅": 7935,
      "번": 7936,
      "벌": 7937,
      "범": 7938,
      "법": 7939,
      "벗": 7940,
      "벚": 7941,
      "벛": 7942,
      "베": 7943,
      "벡": 7944,
      "벤": 7945,
      "벨": 7946,
      "벳": 7947,
      "벼": 7948,
      "벽": 7949,
      "변": 7950,
      "별": 7951,
      "볍": 7952,
      "병": 7953,
      "볕": 7954,
      "보": 7955,
      "복": 7956,
      "볶": 7957,
      "본": 7958,
      "볼": 7959,
      "봄": 7960,
      "봅": 7961,
      "봇": 7962,
      "봉": 7963,
      "봐": 7964,
      "봤": 7965,
      "뵈": 7966,
      "부": 7967,
      "북": 7968,
      "분": 7969,
      "불": 7970,
      "붉": 7971,
      "붐": 7972,
      "붕": 7973,
      "붙": 7974,
      "뷁": 7975,
      "뷔": 7976,
      "뷰": 7977,
      "브": 7978,
      "븐": 7979,
      "블": 7980,
      "비": 7981,
      "빅": 7982,
      "빈": 7983,
      "빌": 7984,
      "빔": 7985,
      "빕": 7986,
      "빗": 7987,
      "빙": 7988,
      "빚": 7989,
      "빛": 7990,
      "빠": 7991,
      "빡": 7992,
      "빨": 7993,
      "빴": 7994,
      "빼": 7995,
      "뺏": 7996,
      "뺴": 7997,
      "뻐": 7998,
      "뻔": 7999,
      "뻗": 8000,
      "뻤": 8001,
      "뼈": 8002,
      "뽀": 8003,
      "뽁": 8004,
      "뽐": 8005,
      "뽑": 8006,
      "뽕": 8007,
      "뾰": 8008,
      "뿌": 8009,
      "뿐": 8010,
      "뿔": 8011,
      "뿜": 8012,
      "쁘": 8013,
      "쁜": 8014,
      "쁠": 8015,
      "쁨": 8016,
      "삐": 8017,
      "사": 8018,
      "삭": 8019,
      "산": 8020,
      "살": 8021,
      "삶": 8022,
      "삼": 8023,
      "삽": 8024,
      "삿": 8025,
      "샀": 8026,
      "상": 8027,
      "샅": 8028,
      "새": 8029,
      "색": 8030,
      "샌": 8031,
      "샘": 8032,
      "생": 8033,
      "샤": 8034,
      "샨": 8035,
      "샵": 8036,
      "샷": 8037,
      "샹": 8038,
      "섀": 8039,
      "서": 8040,
      "석": 8041,
      "섞": 8042,
      "선": 8043,
      "설": 8044,
      "섦": 8045,
      "섬": 8046,
      "섭": 8047,
      "섯": 8048,
      "섰": 8049,
      "성": 8050,
      "세": 8051,
      "섹": 8052,
      "센": 8053,
      "셀": 8054,
      "셈": 8055,
      "셉": 8056,
      "셋": 8057,
      "셔": 8058,
      "션": 8059,
      "셜": 8060,
      "셨": 8061,
      "셫": 8062,
      "셰": 8063,
      "소": 8064,
      "속": 8065,
      "솎": 8066,
      "손": 8067,
      "솔": 8068,
      "솜": 8069,
      "솟": 8070,
      "송": 8071,
      "솥": 8072,
      "쇄": 8073,
      "쇠": 8074,
      "쇳": 8075,
      "쇼": 8076,
      "숍": 8077,
      "수": 8078,
      "숙": 8079,
      "순": 8080,
      "술": 8081,
      "숨": 8082,
      "숫": 8083,
      "숭": 8084,
      "숲": 8085,
      "쉘": 8086,
      "쉬": 8087,
      "쉴": 8088,
      "쉼": 8089,
      "쉽": 8090,
      "쉿": 8091,
      "슈": 8092,
      "슉": 8093,
      "슐": 8094,
      "스": 8095,
      "슨": 8096,
      "슬": 8097,
      "슭": 8098,
      "슴": 8099,
      "습": 8100,
      "슷": 8101,
      "승": 8102,
      "시": 8103,
      "식": 8104,
      "신": 8105,
      "실": 8106,
      "싫": 8107,
      "심": 8108,
      "십": 8109,
      "싱": 8110,
      "싶": 8111,
      "싸": 8112,
      "싹": 8113,
      "싼": 8114,
      "쌀": 8115,
      "쌈": 8116,
      "쌉": 8117,
      "쌍": 8118,
      "쌓": 8119,
      "쌩": 8120,
      "써": 8121,
      "썩": 8122,
      "썬": 8123,
      "썰": 8124,
      "썸": 8125,
      "썹": 8126,
      "썼": 8127,
      "쎄": 8128,
      "쎈": 8129,
      "쏘": 8130,
      "쏜": 8131,
      "쏟": 8132,
      "쏠": 8133,
      "쐐": 8134,
      "쑥": 8135,
      "쓰": 8136,
      "쓴": 8137,
      "쓸": 8138,
      "씀": 8139,
      "씌": 8140,
      "씨": 8141,
      "씩": 8142,
      "씬": 8143,
      "씻": 8144,
      "아": 8145,
      "악": 8146,
      "안": 8147,
      "앉": 8148,
      "않": 8149,
      "알": 8150,
      "암": 8151,
      "압": 8152,
      "앗": 8153,
      "았": 8154,
      "앙": 8155,
      "앜": 8156,
      "앞": 8157,
      "애": 8158,
      "액": 8159,
      "앤": 8160,
      "앨": 8161,
      "앰": 8162,
      "앱": 8163,
      "앳": 8164,
      "앵": 8165,
      "야": 8166,
      "약": 8167,
      "얀": 8168,
      "얌": 8169,
      "양": 8170,
      "얗": 8171,
      "얘": 8172,
      "어": 8173,
      "억": 8174,
      "언": 8175,
      "얻": 8176,
      "얼": 8177,
      "얽": 8178,
      "엄": 8179,
      "업": 8180,
      "없": 8181,
      "엇": 8182,
      "었": 8183,
      "엉": 8184,
      "엌": 8185,
      "에": 8186,
      "엑": 8187,
      "엔": 8188,
      "엘": 8189,
      "엝": 8190,
      "엠": 8191,
      "엣": 8192,
      "엥": 8193,
      "여": 8194,
      "역": 8195,
      "연": 8196,
      "열": 8197,
      "염": 8198,
      "엽": 8199,
      "였": 8200,
      "영": 8201,
      "옆": 8202,
      "예": 8203,
      "옐": 8204,
      "옛": 8205,
      "오": 8206,
      "옥": 8207,
      "온": 8208,
      "올": 8209,
      "옮": 8210,
      "옳": 8211,
      "옴": 8212,
      "옵": 8213,
      "옷": 8214,
      "옹": 8215,
      "옻": 8216,
      "옼": 8217,
      "와": 8218,
      "왁": 8219,
      "완": 8220,
      "왑": 8221,
      "왔": 8222,
      "왕": 8223,
      "왜": 8224,
      "왠": 8225,
      "왤": 8226,
      "외": 8227,
      "왼": 8228,
      "요": 8229,
      "욕": 8230,
      "용": 8231,
      "우": 8232,
      "욱": 8233,
      "운": 8234,
      "울": 8235,
      "움": 8236,
      "웃": 8237,
      "웅": 8238,
      "워": 8239,
      "웍": 8240,
      "원": 8241,
      "월": 8242,
      "웟": 8243,
      "웠": 8244,
      "웡": 8245,
      "웨": 8246,
      "웬": 8247,
      "웰": 8248,
      "웹": 8249,
      "위": 8250,
      "윈": 8251,
      "윌": 8252,
      "윗": 8253,
      "윙": 8254,
      "유": 8255,
      "육": 8256,
      "윤": 8257,
      "율": 8258,
      "윰": 8259,
      "융": 8260,
      "으": 8261,
      "윽": 8262,
      "은": 8263,
      "을": 8264,
      "음": 8265,
      "읍": 8266,
      "응": 8267,
      "읔": 8268,
      "의": 8269,
      "이": 8270,
      "익": 8271,
      "인": 8272,
      "일": 8273,
      "읽": 8274,
      "잃": 8275,
      "임": 8276,
      "입": 8277,
      "잇": 8278,
      "있": 8279,
      "잉": 8280,
      "잊": 8281,
      "잎": 8282,
      "자": 8283,
      "작": 8284,
      "잔": 8285,
      "잖": 8286,
      "잘": 8287,
      "잠": 8288,
      "잡": 8289,
      "잣": 8290,
      "잤": 8291,
      "장": 8292,
      "잦": 8293,
      "재": 8294,
      "잭": 8295,
      "쟁": 8296,
      "쟈": 8297,
      "쟛": 8298,
      "저": 8299,
      "적": 8300,
      "전": 8301,
      "절": 8302,
      "젊": 8303,
      "점": 8304,
      "접": 8305,
      "젓": 8306,
      "정": 8307,
      "젖": 8308,
      "제": 8309,
      "젝": 8310,
      "젠": 8311,
      "젤": 8312,
      "젯": 8313,
      "져": 8314,
      "젼": 8315,
      "졋": 8316,
      "졌": 8317,
      "조": 8318,
      "족": 8319,
      "존": 8320,
      "졸": 8321,
      "좀": 8322,
      "좁": 8323,
      "종": 8324,
      "좋": 8325,
      "좌": 8326,
      "죄": 8327,
      "죋": 8328,
      "죠": 8329,
      "주": 8330,
      "죽": 8331,
      "준": 8332,
      "줄": 8333,
      "줌": 8334,
      "줍": 8335,
      "중": 8336,
      "줘": 8337,
      "줜": 8338,
      "줬": 8339,
      "줭": 8340,
      "쥐": 8341,
      "쥬": 8342,
      "쥴": 8343,
      "즈": 8344,
      "즉": 8345,
      "즌": 8346,
      "즐": 8347,
      "즘": 8348,
      "즙": 8349,
      "증": 8350,
      "지": 8351,
      "직": 8352,
      "진": 8353,
      "짇": 8354,
      "질": 8355,
      "짐": 8356,
      "집": 8357,
      "짓": 8358,
      "징": 8359,
      "짖": 8360,
      "짙": 8361,
      "짚": 8362,
      "짜": 8363,
      "짝": 8364,
      "짤": 8365,
      "짦": 8366,
      "짧": 8367,
      "짬": 8368,
      "짱": 8369,
      "째": 8370,
      "쨌": 8371,
      "쩌": 8372,
      "쩍": 8373,
      "쩔": 8374,
      "쪘": 8375,
      "쪼": 8376,
      "쪽": 8377,
      "쫇": 8378,
      "쫓": 8379,
      "쬐": 8380,
      "쭉": 8381,
      "쭤": 8382,
      "쯔": 8383,
      "쯤": 8384,
      "찌": 8385,
      "찍": 8386,
      "찐": 8387,
      "찝": 8388,
      "찢": 8389,
      "차": 8390,
      "착": 8391,
      "찬": 8392,
      "찮": 8393,
      "찰": 8394,
      "참": 8395,
      "찼": 8396,
      "창": 8397,
      "찾": 8398,
      "채": 8399,
      "책": 8400,
      "챈": 8401,
      "챌": 8402,
      "챔": 8403,
      "챕": 8404,
      "챗": 8405,
      "챙": 8406,
      "챠": 8407,
      "처": 8408,
      "척": 8409,
      "천": 8410,
      "철": 8411,
      "첨": 8412,
      "첩": 8413,
      "첫": 8414,
      "청": 8415,
      "체": 8416,
      "첼": 8417,
      "쳇": 8418,
      "쳐": 8419,
      "쳤": 8420,
      "초": 8421,
      "촉": 8422,
      "촌": 8423,
      "촛": 8424,
      "총": 8425,
      "촬": 8426,
      "최": 8427,
      "쵸": 8428,
      "추": 8429,
      "축": 8430,
      "춘": 8431,
      "출": 8432,
      "춤": 8433,
      "춥": 8434,
      "춧": 8435,
      "충": 8436,
      "춰": 8437,
      "췄": 8438,
      "취": 8439,
      "츄": 8440,
      "츠": 8441,
      "측": 8442,
      "층": 8443,
      "치": 8444,
      "칙": 8445,
      "친": 8446,
      "칠": 8447,
      "침": 8448,
      "칩": 8449,
      "칫": 8450,
      "칭": 8451,
      "카": 8452,
      "칵": 8453,
      "칸": 8454,
      "칼": 8455,
      "캄": 8456,
      "캅": 8457,
      "캉": 8458,
      "캐": 8459,
      "캔": 8460,
      "캘": 8461,
      "캠": 8462,
      "캡": 8463,
      "캣": 8464,
      "컒": 8465,
      "커": 8466,
      "컨": 8467,
      "컬": 8468,
      "컴": 8469,
      "컵": 8470,
      "컷": 8471,
      "컸": 8472,
      "케": 8473,
      "켄": 8474,
      "켓": 8475,
      "켜": 8476,
      "켠": 8477,
      "켰": 8478,
      "코": 8479,
      "콘": 8480,
      "콜": 8481,
      "콤": 8482,
      "콥": 8483,
      "콩": 8484,
      "콰": 8485,
      "쾌": 8486,
      "쾲": 8487,
      "쿄": 8488,
      "쿠": 8489,
      "쿨": 8490,
      "쿵": 8491,
      "쿼": 8492,
      "퀀": 8493,
      "퀄": 8494,
      "퀘": 8495,
      "퀴": 8496,
      "퀵": 8497,
      "퀸": 8498,
      "큇": 8499,
      "큐": 8500,
      "크": 8501,
      "큰": 8502,
      "클": 8503,
      "큼": 8504,
      "큽": 8505,
      "킄": 8506,
      "키": 8507,
      "킨": 8508,
      "킩": 8509,
      "킬": 8510,
      "킵": 8511,
      "킷": 8512,
      "킹": 8513,
      "타": 8514,
      "탁": 8515,
      "탄": 8516,
      "탈": 8517,
      "탐": 8518,
      "탑": 8519,
      "탓": 8520,
      "탕": 8521,
      "태": 8522,
      "택": 8523,
      "탠": 8524,
      "탬": 8525,
      "탭": 8526,
      "탱": 8527,
      "터": 8528,
      "턱": 8529,
      "턴": 8530,
      "털": 8531,
      "텀": 8532,
      "텅": 8533,
      "테": 8534,
      "텍": 8535,
      "텐": 8536,
      "텔": 8537,
      "템": 8538,
      "텝": 8539,
      "텟": 8540,
      "텨": 8541,
      "토": 8542,
      "톡": 8543,
      "톤": 8544,
      "톱": 8545,
      "통": 8546,
      "톻": 8547,
      "퇴": 8548,
      "투": 8549,
      "툰": 8550,
      "툴": 8551,
      "툼": 8552,
      "튀": 8553,
      "튜": 8554,
      "튬": 8555,
      "트": 8556,
      "특": 8557,
      "튼": 8558,
      "틀": 8559,
      "틈": 8560,
      "티": 8561,
      "틱": 8562,
      "틴": 8563,
      "틸": 8564,
      "팀": 8565,
      "팁": 8566,
      "팅": 8567,
      "파": 8568,
      "판": 8569,
      "팓": 8570,
      "팔": 8571,
      "팜": 8572,
      "팝": 8573,
      "팟": 8574,
      "팡": 8575,
      "패": 8576,
      "팩": 8577,
      "팬": 8578,
      "팻": 8579,
      "팽": 8580,
      "퍄": 8581,
      "퍼": 8582,
      "펀": 8583,
      "펐": 8584,
      "페": 8585,
      "펙": 8586,
      "펜": 8587,
      "펠": 8588,
      "펩": 8589,
      "펫": 8590,
      "펭": 8591,
      "펴": 8592,
      "편": 8593,
      "펼": 8594,
      "폈": 8595,
      "평": 8596,
      "폐": 8597,
      "포": 8598,
      "폭": 8599,
      "폰": 8600,
      "폴": 8601,
      "폼": 8602,
      "폿": 8603,
      "표": 8604,
      "푱": 8605,
      "푸": 8606,
      "푼": 8607,
      "풀": 8608,
      "품": 8609,
      "풍": 8610,
      "퓨": 8611,
      "퓰": 8612,
      "프": 8613,
      "픈": 8614,
      "플": 8615,
      "픔": 8616,
      "피": 8617,
      "픽": 8618,
      "핀": 8619,
      "필": 8620,
      "핑": 8621,
      "하": 8622,
      "학": 8623,
      "한": 8624,
      "할": 8625,
      "함": 8626,
      "합": 8627,
      "핫": 8628,
      "항": 8629,
      "해": 8630,
      "핵": 8631,
      "핸": 8632,
      "햇": 8633,
      "했": 8634,
      "행": 8635,
      "향": 8636,
      "허": 8637,
      "헉": 8638,
      "헌": 8639,
      "헐": 8640,
      "험": 8641,
      "헝": 8642,
      "헤": 8643,
      "헨": 8644,
      "헬": 8645,
      "헷": 8646,
      "혀": 8647,
      "혁": 8648,
      "현": 8649,
      "혈": 8650,
      "혐": 8651,
      "협": 8652,
      "혓": 8653,
      "혔": 8654,
      "형": 8655,
      "혜": 8656,
      "호": 8657,
      "혹": 8658,
      "혼": 8659,
      "홀": 8660,
      "홈": 8661,
      "홉": 8662,
      "홍": 8663,
      "화": 8664,
      "확": 8665,
      "환": 8666,
      "활": 8667,
      "황": 8668,
      "횃": 8669,
      "회": 8670,
      "획": 8671,
      "횟": 8672,
      "횡": 8673,
      "효": 8674,
      "후": 8675,
      "훅": 8676,
      "훈": 8677,
      "훋": 8678,
      "훌": 8679,
      "훔": 8680,
      "훗": 8681,
      "훨": 8682,
      "훼": 8683,
      "휘": 8684,
      "휴": 8685,
      "흉": 8686,
      "흐": 8687,
      "흑": 8688,
      "흔": 8689,
      "흘": 8690,
      "흙": 8691,
      "흠": 8692,
      "흡": 8693,
      "흥": 8694,
      "흫": 8695,
      "희": 8696,
      "흰": 8697,
      "히": 8698,
      "힌": 8699,
      "힐": 8700,
      "힘": 8701,
      "힙": 8702,
      "": 8703,
      "": 8704,
      "": 8705,
      "": 8706,
      "": 8707,
      "": 8708,
      "": 8709,
      "": 8710,
      "": 8711,
      "": 8712,
      "": 8713,
      "": 8714,
      "": 8715,
      "": 8716,
      "": 8717,
      "": 8718,
      "": 8719,
      "": 8720,
      "": 8721,
      "": 8722,
      "": 8723,
      "": 8724,
      "": 8725,
      "": 8726,
      "": 8727,
      "": 8728,
      "": 8729,
      "": 8730,
      "": 8731,
      "": 8732,
      "": 8733,
      "": 8734,
      "": 8735,
      "": 8736,
      "": 8737,
      "": 8738,
      "": 8739,
      "": 8740,
      "": 8741,
      "": 8742,
      "": 8743,
      "": 8744,
      "": 8745,
      "": 8746,
      "": 8747,
      "": 8748,
      "": 8749,
      "": 8750,
      "": 8751,
      "": 8752,
      "": 8753,
      "": 8754,
      "": 8755,
      "": 8756,
      "": 8757,
      "": 8758,
      "": 8759,
      "": 8760,
      "": 8761,
      "": 8762,
      "": 8763,
      "": 8764,
      "": 8765,
      "": 8766,
      "": 8767,
      "": 8768,
      "": 8769,
      "": 8770,
      "": 8771,
      "": 8772,
      "": 8773,
      "": 8774,
      "": 8775,
      "": 8776,
      "": 8777,
      "": 8778,
      "": 8779,
      "": 8780,
      "": 8781,
      "": 8782,
      "": 8783,
      "": 8784,
      "": 8785,
      "": 8786,
      "": 8787,
      "": 8788,
      "": 8789,
      "": 8790,
      "": 8791,
      "": 8792,
      "": 8793,
      "": 8794,
      "": 8795,
      "": 8796,
      "": 8797,
      "": 8798,
      "": 8799,
      "": 8800,
      "": 8801,
      "": 8802,
      "": 8803,
      "": 8804,
      "": 8805,
      "": 8806,
      "": 8807,
      "": 8808,
      "": 8809,
      "": 8810,
      "": 8811,
      "": 8812,
      "": 8813,
      "": 8814,
      "": 8815,
      "": 8816,
      "": 8817,
      "": 8818,
      "": 8819,
      "": 8820,
      "": 8821,
      "": 8822,
      "": 8823,
      "": 8824,
      "": 8825,
      "": 8826,
      "": 8827,
      "": 8828,
      "": 8829,
      "": 8830,
      "": 8831,
      "": 8832,
      "": 8833,
      "": 8834,
      "": 8835,
      "": 8836,
      "": 8837,
      "": 8838,
      "": 8839,
      "": 8840,
      "": 8841,
      "": 8842,
      "": 8843,
      "": 8844,
      "": 8845,
      "": 8846,
      "": 8847,
      "": 8848,
      "": 8849,
      "": 8850,
      "": 8851,
      "": 8852,
      "": 8853,
      "": 8854,
      "": 8855,
      "": 8856,
      "": 8857,
      "": 8858,
      "藍": 8859,
      "郎": 8860,
      "拾": 8861,
      "裡": 8862,
      "隣": 8863,
      "﨏": 8864,
      "﨟": 8865,
      "蘒": 8866,
      "ﬀ": 8867,
      "ﬁ": 8868,
      "ﬂ": 8869,
      "ﬃ": 8870,
      "ﯾ": 8871,
      "ﯿ": 8872,
      "﴾": 8873,
      "﴿": 8874,
      "ﷲ": 8875,
      "ﷺ": 8876,
      "﷽": 8877,
      "︀": 8878,
      "︎": 8879,
      "️": 8880,
      "︰": 8881,
      "︱": 8882,
      "︵": 8883,
      "﹁": 8884,
      "﹩": 8885,
      "﹪": 8886,
      "ﺄ": 8887,
      "ﺆ": 8888,
      "ﺈ": 8889,
      "ﺋ": 8890,
      "ﺌ": 8891,
      "ﺎ": 8892,
      "ﺐ": 8893,
      "ﺑ": 8894,
      "ﺒ": 8895,
      "ﺔ": 8896,
      "ﺗ": 8897,
      "ﺘ": 8898,
      "ﺛ": 8899,
      "ﺜ": 8900,
      "ﺟ": 8901,
      "ﺠ": 8902,
      "ﺢ": 8903,
      "ﺣ": 8904,
      "ﺤ": 8905,
      "ﺦ": 8906,
      "ﺧ": 8907,
      "ﺨ": 8908,
      "ﺪ": 8909,
      "ﺬ": 8910,
      "ﺮ": 8911,
      "ﺰ": 8912,
      "ﺲ": 8913,
      "ﺳ": 8914,
      "ﺴ": 8915,
      "ﺷ": 8916,
      "ﺸ": 8917,
      "ﺻ": 8918,
      "ﺼ": 8919,
      "ﺿ": 8920,
      "ﻀ": 8921,
      "ﻃ": 8922,
      "ﻄ": 8923,
      "ﻊ": 8924,
      "ﻋ": 8925,
      "ﻌ": 8926,
      "ﻎ": 8927,
      "ﻏ": 8928,
      "ﻒ": 8929,
      "ﻓ": 8930,
      "ﻔ": 8931,
      "ﻖ": 8932,
      "ﻗ": 8933,
      "ﻘ": 8934,
      "ﻚ": 8935,
      "ﻛ": 8936,
      "ﻜ": 8937,
      "ﻞ": 8938,
      "ﻟ": 8939,
      "ﻠ": 8940,
      "ﻢ": 8941,
      "ﻣ": 8942,
      "ﻤ": 8943,
      "ﻦ": 8944,
      "ﻧ": 8945,
      "ﻨ": 8946,
      "ﻪ": 8947,
      "ﻫ": 8948,
      "ﻬ": 8949,
      "ﻮ": 8950,
      "ﻰ": 8951,
      "ﻲ": 8952,
      "ﻵ": 8953,
      "ﻷ": 8954,
      "ﻻ": 8955,
      "ﻼ": 8956,
      "﻿": 8957,
      "！": 8958,
      "＂": 8959,
      "＃": 8960,
      "％": 8961,
      "＆": 8962,
      "（": 8963,
      "）": 8964,
      "＊": 8965,
      "＋": 8966,
      "，": 8967,
      "－": 8968,
      "．": 8969,
      "／": 8970,
      "０": 8971,
      "１": 8972,
      "２": 8973,
      "３": 8974,
      "４": 8975,
      "５": 8976,
      "６": 8977,
      "７": 8978,
      "８": 8979,
      "９": 8980,
      "：": 8981,
      "；": 8982,
      "＜": 8983,
      "＝": 8984,
      "＞": 8985,
      "？": 8986,
      "Ａ": 8987,
      "Ｃ": 8988,
      "Ｄ": 8989,
      "Ｅ": 8990,
      "Ｈ": 8991,
      "Ｉ": 8992,
      "Ｍ": 8993,
      "Ｏ": 8994,
      "Ｐ": 8995,
      "Ｓ": 8996,
      "Ｕ": 8997,
      "Ｖ": 8998,
      "Ｘ": 8999,
      "［": 9000,
      "＼": 9001,
      "］": 9002,
      "＾": 9003,
      "＿": 9004,
      "｀": 9005,
      "ａ": 9006,
      "ｂ": 9007,
      "ｃ": 9008,
      "ｄ": 9009,
      "ｅ": 9010,
      "ｆ": 9011,
      "ｇ": 9012,
      "ｈ": 9013,
      "ｉ": 9014,
      "ｊ": 9015,
      "ｋ": 9016,
      "ｌ": 9017,
      "ｍ": 9018,
      "ｎ": 9019,
      "ｏ": 9020,
      "ｐ": 9021,
      "ｒ": 9022,
      "ｓ": 9023,
      "ｔ": 9024,
      "ｕ": 9025,
      "ｖ": 9026,
      "ｗ": 9027,
      "ｘ": 9028,
      "ｙ": 9029,
      "ｚ": 9030,
      "｛": 9031,
      "｜": 9032,
      "｝": 9033,
      "～": 9034,
      "｡": 9035,
      "｢": 9036,
      "｣": 9037,
      "､": 9038,
      "･": 9039,
      "ｸ": 9040,
      "ﾄ": 9041,
      "ﾉ": 9042,
      "ﾎ": 9043,
      "ﾓ": 9044,
      "ﾘ": 9045,
      "ﾙ": 9046,
      "ﾝ": 9047,
      "ﾞ": 9048,
      "ﾟ": 9049,
      "ﾠ": 9050,
      "￡": 9051,
      "￣": 9052,
      "￥": 9053,
      "￦": 9054,
      "￼": 9055,
      "�": 9056,
      "￾": 9057,
      "￿": 9058,
      "𑱂": 9059,
      "𒋝": 9060,
      "𓃟": 9061,
      "𝄆": 9062,
      "𝄠": 9063,
      "𝅜": 9064,
      "𝅝": 9065,
      "𝅗𝅥": 9066,
      "𝅘𝅥": 9067,
      "𝅘𝅥𝅮": 9068,
      "𝅘𝅥𝅯": 9069,
      "𝅘𝅥𝅰": 9070,
      "𝐃": 9071,
      "𝐆": 9072,
      "𝐈": 9073,
      "𝐏": 9074,
      "𝐓": 9075,
      "𝐖": 9076,
      "𝐚": 9077,
      "𝐜": 9078,
      "𝐠": 9079,
      "𝐡": 9080,
      "𝐢": 9081,
      "𝐦": 9082,
      "𝐧": 9083,
      "𝐨": 9084,
      "𝐬": 9085,
      "𝐭": 9086,
      "𝐰": 9087,
      "𝐱": 9088,
      "𝐲": 9089,
      "𝐴": 9090,
      "𝐵": 9091,
      "𝐶": 9092,
      "𝐷": 9093,
      "𝐸": 9094,
      "𝐹": 9095,
      "𝐺": 9096,
      "𝐻": 9097,
      "𝐼": 9098,
      "𝐾": 9099,
      "𝐿": 9100,
      "𝑀": 9101,
      "𝑁": 9102,
      "𝑂": 9103,
      "𝑃": 9104,
      "𝑄": 9105,
      "𝑅": 9106,
      "𝑆": 9107,
      "𝑇": 9108,
      "𝑈": 9109,
      "𝑉": 9110,
      "𝑊": 9111,
      "𝑋": 9112,
      "𝑌": 9113,
      "𝑎": 9114,
      "𝑏": 9115,
      "𝑐": 9116,
      "𝑑": 9117,
      "𝑒": 9118,
      "𝑓": 9119,
      "𝑔": 9120,
      "𝑖": 9121,
      "𝑗": 9122,
      "𝑘": 9123,
      "𝑙": 9124,
      "𝑚": 9125,
      "𝑛": 9126,
      "𝑜": 9127,
      "𝑝": 9128,
      "𝑞": 9129,
      "𝑟": 9130,
      "𝑠": 9131,
      "𝑡": 9132,
      "𝑢": 9133,
      "𝑣": 9134,
      "𝑤": 9135,
      "𝑥": 9136,
      "𝑦": 9137,
      "𝑧": 9138,
      "𝑪": 9139,
      "𝑫": 9140,
      "𝑬": 9141,
      "𝑮": 9142,
      "𝑯": 9143,
      "𝑲": 9144,
      "𝑳": 9145,
      "𝑴": 9146,
      "𝑶": 9147,
      "𝑹": 9148,
      "𝒃": 9149,
      "𝒄": 9150,
      "𝒅": 9151,
      "𝒆": 9152,
      "𝒇": 9153,
      "𝒉": 9154,
      "𝒊": 9155,
      "𝒋": 9156,
      "𝒏": 9157,
      "𝒑": 9158,
      "𝒒": 9159,
      "𝒓": 9160,
      "𝒔": 9161,
      "𝒕": 9162,
      "𝒙": 9163,
      "𝒚": 9164,
      "𝒜": 9165,
      "𝒟": 9166,
      "𝒶": 9167,
      "𝒸": 9168,
      "𝒹": 9169,
      "𝒻": 9170,
      "𝒽": 9171,
      "𝒾": 9172,
      "𝓁": 9173,
      "𝓃": 9174,
      "𝓇": 9175,
      "𝓉": 9176,
      "𝓊": 9177,
      "𝓌": 9178,
      "𝓎": 9179,
      "𝓐": 9180,
      "𝓑": 9181,
      "𝓒": 9182,
      "𝓕": 9183,
      "𝓗": 9184,
      "𝓘": 9185,
      "𝓛": 9186,
      "𝓪": 9187,
      "𝓭": 9188,
      "𝓮": 9189,
      "𝓱": 9190,
      "𝓲": 9191,
      "𝓵": 9192,
      "𝓷": 9193,
      "𝓸": 9194,
      "𝓹": 9195,
      "𝓻": 9196,
      "𝓼": 9197,
      "𝓽": 9198,
      "𝓿": 9199,
      "𝔀": 9200,
      "𝔂": 9201,
      "𝔄": 9202,
      "𝔚": 9203,
      "𝔡": 9204,
      "𝔢": 9205,
      "𝔤": 9206,
      "𝔥": 9207,
      "𝔦": 9208,
      "𝔩": 9209,
      "𝔫": 9210,
      "𝔬": 9211,
      "𝔭": 9212,
      "𝔯": 9213,
      "𝔰": 9214,
      "𝔱": 9215,
      "𝔴": 9216,
      "𝔸": 9217,
      "𝔹": 9218,
      "𝔼": 9219,
      "𝕀": 9220,
      "𝕂": 9221,
      "𝕄": 9222,
      "𝕊": 9223,
      "𝕌": 9224,
      "𝕎": 9225,
      "𝕒": 9226,
      "𝕓": 9227,
      "𝕔": 9228,
      "𝕕": 9229,
      "𝕖": 9230,
      "𝕗": 9231,
      "𝕘": 9232,
      "𝕙": 9233,
      "𝕚": 9234,
      "𝕛": 9235,
      "𝕜": 9236,
      "𝕝": 9237,
      "𝕞": 9238,
      "𝕟": 9239,
      "𝕠": 9240,
      "𝕡": 9241,
      "𝕣": 9242,
      "𝕤": 9243,
      "𝕥": 9244,
      "𝕦": 9245,
      "𝕨": 9246,
      "𝕪": 9247,
      "𝕫": 9248,
      "𝖌": 9249,
      "𝗔": 9250,
      "𝗖": 9251,
      "𝗗": 9252,
      "𝗘": 9253,
      "𝗙": 9254,
      "𝗚": 9255,
      "𝗛": 9256,
      "𝗜": 9257,
      "𝗟": 9258,
      "𝗠": 9259,
      "𝗣": 9260,
      "𝗥": 9261,
      "𝗦": 9262,
      "𝗧": 9263,
      "𝗨": 9264,
      "𝗪": 9265,
      "𝗮": 9266,
      "𝗰": 9267,
      "𝗱": 9268,
      "𝗲": 9269,
      "𝗳": 9270,
      "𝗴": 9271,
      "𝗵": 9272,
      "𝗶": 9273,
      "𝗸": 9274,
      "𝗹": 9275,
      "𝗺": 9276,
      "𝗻": 9277,
      "𝗼": 9278,
      "𝗽": 9279,
      "𝗿": 9280,
      "𝘀": 9281,
      "𝘁": 9282,
      "𝘂": 9283,
      "𝘅": 9284,
      "𝘆": 9285,
      "𝙈": 9286,
      "𝙑": 9287,
      "𝙖": 9288,
      "𝙙": 9289,
      "𝙞": 9290,
      "𝙠": 9291,
      "𝙡": 9292,
      "𝙨": 9293,
      "𝙩": 9294,
      "𝙪": 9295,
      "𝙫": 9296,
      "𝙰": 9297,
      "𝙷": 9298,
      "𝙸": 9299,
      "𝙿": 9300,
      "𝚄": 9301,
      "𝚆": 9302,
      "𝚇": 9303,
      "𝚊": 9304,
      "𝚋": 9305,
      "𝚌": 9306,
      "𝚍": 9307,
      "𝚎": 9308,
      "𝚏": 9309,
      "𝚐": 9310,
      "𝚑": 9311,
      "𝚒": 9312,
      "𝚔": 9313,
      "𝚕": 9314,
      "𝚗": 9315,
      "𝚘": 9316,
      "𝚙": 9317,
      "𝚛": 9318,
      "𝚜": 9319,
      "𝚝": 9320,
      "𝚞": 9321,
      "𝚟": 9322,
      "𝚠": 9323,
      "𝚢": 9324,
      "𝚫": 9325,
      "𝛼": 9326,
      "𝛽": 9327,
      "𝜀": 9328,
      "𝜂": 9329,
      "𝜃": 9330,
      "𝜇": 9331,
      "𝜉": 9332,
      "𝜋": 9333,
      "𝜌": 9334,
      "𝜎": 9335,
      "𝜏": 9336,
      "𝜓": 9337,
      "𝜔": 9338,
      "𝝐": 9339,
      "𝝰": 9340,
      "𝟎": 9341,
      "𝟏": 9342,
      "𝟐": 9343,
      "𝟑": 9344,
      "𝟒": 9345,
      "𝟓": 9346,
      "𝟔": 9347,
      "𝟕": 9348,
      "𝟖": 9349,
      "𝟗": 9350,
      "𝟘": 9351,
      "𝟙": 9352,
      "𝟛": 9353,
      "𝟝": 9354,
      "𝟞": 9355,
      "𝟟": 9356,
      "𝟡": 9357,
      "🃏": 9358,
      "🄰": 9359,
      "🄲": 9360,
      "🄴": 9361,
      "🄶": 9362,
      "🄷": 9363,
      "🄸": 9364,
      "🄻": 9365,
      "🄽": 9366,
      "🄾": 9367,
      "🄿": 9368,
      "🅁": 9369,
      "🅂": 9370,
      "🅃": 9371,
      "🅄": 9372,
      "🅈": 9373,
      "🅰": 9374,
      "🆇": 9375,
      "🆎": 9376,
      "🆓": 9377,
      "🆔": 9378,
      "🆕": 9379,
      "🆗": 9380,
      "🆘": 9381,
      "🆙": 9382,
      "🆚": 9383,
      "🇦": 9384,
      "🇧": 9385,
      "🇨": 9386,
      "🇩": 9387,
      "🇪": 9388,
      "🇫": 9389,
      "🇬": 9390,
      "🇭": 9391,
      "🇮": 9392,
      "🇰": 9393,
      "🇱": 9394,
      "🇲": 9395,
      "🇳": 9396,
      "🇴": 9397,
      "🇵": 9398,
      "🇷": 9399,
      "🇸": 9400,
      "🇹": 9401,
      "🇺": 9402,
      "🇻": 9403,
      "🇾": 9404,
      "🇿": 9405,
      "🉑": 9406,
      "🌀": 9407,
      "🌅": 9408,
      "🌆": 9409,
      "🌈": 9410,
      "🌊": 9411,
      "🌋": 9412,
      "🌌": 9413,
      "🌍": 9414,
      "🌎": 9415,
      "🌏": 9416,
      "🌐": 9417,
      "🌑": 9418,
      "🌙": 9419,
      "🌚": 9420,
      "🌝": 9421,
      "🌞": 9422,
      "🌟": 9423,
      "🌠": 9424,
      "🌡": 9425,
      "🌤": 9426,
      "🌥": 9427,
      "🌧": 9428,
      "🌩": 9429,
      "🌪": 9430,
      "🌫": 9431,
      "🌭": 9432,
      "🌮": 9433,
      "🌱": 9434,
      "🌲": 9435,
      "🌳": 9436,
      "🌴": 9437,
      "🌵": 9438,
      "🌶": 9439,
      "🌷": 9440,
      "🌸": 9441,
      "🌹": 9442,
      "🌺": 9443,
      "🌻": 9444,
      "🌼": 9445,
      "🌽": 9446,
      "🌾": 9447,
      "🌿": 9448,
      "🍀": 9449,
      "🍁": 9450,
      "🍂": 9451,
      "🍃": 9452,
      "🍄": 9453,
      "🍅": 9454,
      "🍆": 9455,
      "🍉": 9456,
      "🍊": 9457,
      "🍋": 9458,
      "🍍": 9459,
      "🍎": 9460,
      "🍑": 9461,
      "🍒": 9462,
      "🍓": 9463,
      "🍔": 9464,
      "🍕": 9465,
      "🍖": 9466,
      "🍞": 9467,
      "🍟": 9468,
      "🍦": 9469,
      "🍫": 9470,
      "🍬": 9471,
      "🍯": 9472,
      "🍰": 9473,
      "🍲": 9474,
      "🍳": 9475,
      "🍴": 9476,
      "🍵": 9477,
      "🍶": 9478,
      "🍷": 9479,
      "🍸": 9480,
      "🍹": 9481,
      "🍺": 9482,
      "🍻": 9483,
      "🍽": 9484,
      "🍾": 9485,
      "🍿": 9486,
      "🎀": 9487,
      "🎁": 9488,
      "🎂": 9489,
      "🎃": 9490,
      "🎄": 9491,
      "🎆": 9492,
      "🎇": 9493,
      "🎈": 9494,
      "🎉": 9495,
      "🎊": 9496,
      "🎓": 9497,
      "🎖": 9498,
      "🎗": 9499,
      "🎙": 9500,
      "🎛": 9501,
      "🎟": 9502,
      "🎤": 9503,
      "🎥": 9504,
      "🎧": 9505,
      "🎨": 9506,
      "🎩": 9507,
      "🎬": 9508,
      "🎭": 9509,
      "🎮": 9510,
      "🎯": 9511,
      "🎱": 9512,
      "🎲": 9513,
      "🎴": 9514,
      "🎵": 9515,
      "🎶": 9516,
      "🎸": 9517,
      "🎻": 9518,
      "🎾": 9519,
      "🏀": 9520,
      "🏁": 9521,
      "🏂": 9522,
      "🏃": 9523,
      "🏅": 9524,
      "🏆": 9525,
      "🏊": 9526,
      "🏋": 9527,
      "🏍": 9528,
      "🏐": 9529,
      "🏒": 9530,
      "🏓": 9531,
      "🏔": 9532,
      "🏖": 9533,
      "🏙": 9534,
      "🏚": 9535,
      "🏛": 9536,
      "🏜": 9537,
      "🏝": 9538,
      "🏞": 9539,
      "🏠": 9540,
      "🏡": 9541,
      "🏣": 9542,
      "🏥": 9543,
      "🏦": 9544,
      "🏪": 9545,
      "🏫": 9546,
      "🏭": 9547,
      "🏰": 9548,
      "🏳": 9549,
      "🏷": 9550,
      "🏻": 9551,
      "🏼": 9552,
      "🏽": 9553,
      "🏾": 9554,
      "🏿": 9555,
      "🐀": 9556,
      "🐂": 9557,
      "🐄": 9558,
      "🐅": 9559,
      "🐆": 9560,
      "🐇": 9561,
      "🐈": 9562,
      "🐉": 9563,
      "🐋": 9564,
      "🐎": 9565,
      "🐒": 9566,
      "🐓": 9567,
      "🐔": 9568,
      "🐕": 9569,
      "🐘": 9570,
      "🐙": 9571,
      "🐛": 9572,
      "🐜": 9573,
      "🐝": 9574,
      "🐞": 9575,
      "🐟": 9576,
      "🐠": 9577,
      "🐢": 9578,
      "🐣": 9579,
      "🐤": 9580,
      "🐥": 9581,
      "🐦": 9582,
      "🐧": 9583,
      "🐨": 9584,
      "🐩": 9585,
      "🐫": 9586,
      "🐬": 9587,
      "🐭": 9588,
      "🐮": 9589,
      "🐰": 9590,
      "🐱": 9591,
      "🐳": 9592,
      "🐵": 9593,
      "🐶": 9594,
      "🐷": 9595,
      "🐸": 9596,
      "🐺": 9597,
      "🐻": 9598,
      "🐾": 9599,
      "🐿": 9600,
      "👀": 9601,
      "👁": 9602,
      "👂": 9603,
      "👃": 9604,
      "👄": 9605,
      "👅": 9606,
      "👇": 9607,
      "👈": 9608,
      "👉": 9609,
      "👊": 9610,
      "👋": 9611,
      "👌": 9612,
      "👍": 9613,
      "👎": 9614,
      "👏": 9615,
      "👑": 9616,
      "👒": 9617,
      "👓": 9618,
      "👕": 9619,
      "👗": 9620,
      "👙": 9621,
      "👠": 9622,
      "👣": 9623,
      "👤": 9624,
      "👥": 9625,
      "👦": 9626,
      "👧": 9627,
      "👨": 9628,
      "👩": 9629,
      "👪": 9630,
      "👫": 9631,
      "👬": 9632,
      "👭": 9633,
      "👮": 9634,
      "👰": 9635,
      "👱": 9636,
      "👴": 9637,
      "👶": 9638,
      "👷": 9639,
      "👹": 9640,
      "👺": 9641,
      "👻": 9642,
      "👼": 9643,
      "👽": 9644,
      "👾": 9645,
      "👿": 9646,
      "💀": 9647,
      "💁": 9648,
      "💂": 9649,
      "💃": 9650,
      "💄": 9651,
      "💅": 9652,
      "💆": 9653,
      "💇": 9654,
      "💉": 9655,
      "💊": 9656,
      "💋": 9657,
      "💌": 9658,
      "💍": 9659,
      "💎": 9660,
      "💏": 9661,
      "💐": 9662,
      "💑": 9663,
      "💓": 9664,
      "💔": 9665,
      "💕": 9666,
      "💖": 9667,
      "💗": 9668,
      "💘": 9669,
      "💙": 9670,
      "💚": 9671,
      "💛": 9672,
      "💜": 9673,
      "💝": 9674,
      "💞": 9675,
      "💟": 9676,
      "💠": 9677,
      "💡": 9678,
      "💢": 9679,
      "💣": 9680,
      "💤": 9681,
      "💥": 9682,
      "💦": 9683,
      "💧": 9684,
      "💨": 9685,
      "💩": 9686,
      "💪": 9687,
      "💫": 9688,
      "💬": 9689,
      "💭": 9690,
      "💯": 9691,
      "💰": 9692,
      "💳": 9693,
      "💵": 9694,
      "💸": 9695,
      "💻": 9696,
      "💼": 9697,
      "💾": 9698,
      "📁": 9699,
      "📂": 9700,
      "📃": 9701,
      "📄": 9702,
      "📅": 9703,
      "📆": 9704,
      "📈": 9705,
      "📉": 9706,
      "📊": 9707,
      "📋": 9708,
      "📌": 9709,
      "📍": 9710,
      "📎": 9711,
      "📏": 9712,
      "📐": 9713,
      "📑": 9714,
      "📔": 9715,
      "📕": 9716,
      "📖": 9717,
      "📗": 9718,
      "📘": 9719,
      "📚": 9720,
      "📛": 9721,
      "📜": 9722,
      "📝": 9723,
      "📞": 9724,
      "📟": 9725,
      "📡": 9726,
      "📢": 9727,
      "📣": 9728,
      "📤": 9729,
      "📥": 9730,
      "📦": 9731,
      "📧": 9732,
      "📨": 9733,
      "📩": 9734,
      "📬": 9735,
      "📭": 9736,
      "📯": 9737,
      "📱": 9738,
      "📲": 9739,
      "📶": 9740,
      "📷": 9741,
      "📸": 9742,
      "📹": 9743,
      "📺": 9744,
      "🔀": 9745,
      "🔁": 9746,
      "🔄": 9747,
      "🔅": 9748,
      "🔊": 9749,
      "🔋": 9750,
      "🔍": 9751,
      "🔎": 9752,
      "🔏": 9753,
      "🔐": 9754,
      "🔑": 9755,
      "🔒": 9756,
      "🔓": 9757,
      "🔔": 9758,
      "🔕": 9759,
      "🔖": 9760,
      "🔗": 9761,
      "🔘": 9762,
      "🔚": 9763,
      "🔜": 9764,
      "🔝": 9765,
      "🔞": 9766,
      "🔟": 9767,
      "🔠": 9768,
      "🔡": 9769,
      "🔢": 9770,
      "🔥": 9771,
      "🔦": 9772,
      "🔧": 9773,
      "🔨": 9774,
      "🔩": 9775,
      "🔪": 9776,
      "🔫": 9777,
      "🔬": 9778,
      "🔮": 9779,
      "🔳": 9780,
      "🔴": 9781,
      "🔵": 9782,
      "🔶": 9783,
      "🔷": 9784,
      "🔸": 9785,
      "🔹": 9786,
      "🔺": 9787,
      "🔻": 9788,
      "🕊": 9789,
      "🕒": 9790,
      "🕖": 9791,
      "🕙": 9792,
      "🕯": 9793,
      "🕰": 9794,
      "🕳": 9795,
      "🕵": 9796,
      "🕸": 9797,
      "🕹": 9798,
      "🖊": 9799,
      "🖋": 9800,
      "🖍": 9801,
      "🖐": 9802,
      "🖕": 9803,
      "🖤": 9804,
      "🖥": 9805,
      "🖱": 9806,
      "🖼": 9807,
      "🗂": 9808,
      "🗃": 9809,
      "🗑": 9810,
      "🗓": 9811,
      "🗝": 9812,
      "🗡": 9813,
      "🗣": 9814,
      "🗨": 9815,
      "🗺": 9816,
      "🗽": 9817,
      "🗿": 9818,
      "😀": 9819,
      "😁": 9820,
      "😂": 9821,
      "😃": 9822,
      "😄": 9823,
      "😅": 9824,
      "😆": 9825,
      "😇": 9826,
      "😈": 9827,
      "😉": 9828,
      "😊": 9829,
      "😋": 9830,
      "😌": 9831,
      "😍": 9832,
      "😎": 9833,
      "😏": 9834,
      "😐": 9835,
      "😑": 9836,
      "😒": 9837,
      "😓": 9838,
      "😔": 9839,
      "😕": 9840,
      "😗": 9841,
      "😘": 9842,
      "😙": 9843,
      "😚": 9844,
      "😛": 9845,
      "😜": 9846,
      "😝": 9847,
      "😞": 9848,
      "😟": 9849,
      "😠": 9850,
      "😡": 9851,
      "😢": 9852,
      "😣": 9853,
      "😤": 9854,
      "😥": 9855,
      "😨": 9856,
      "😩": 9857,
      "😪": 9858,
      "😫": 9859,
      "😬": 9860,
      "😭": 9861,
      "😮": 9862,
      "😰": 9863,
      "😱": 9864,
      "😲": 9865,
      "😳": 9866,
      "😴": 9867,
      "😵": 9868,
      "😶": 9869,
      "😷": 9870,
      "😹": 9871,
      "😺": 9872,
      "😻": 9873,
      "😼": 9874,
      "🙀": 9875,
      "🙁": 9876,
      "🙂": 9877,
      "🙃": 9878,
      "🙄": 9879,
      "🙅": 9880,
      "🙆": 9881,
      "🙇": 9882,
      "🙈": 9883,
      "🙊": 9884,
      "🙋": 9885,
      "🙌": 9886,
      "🙎": 9887,
      "🙏": 9888,
      "🙦": 9889,
      "🚀": 9890,
      "🚂": 9891,
      "🚄": 9892,
      "🚏": 9893,
      "🚑": 9894,
      "🚗": 9895,
      "🚙": 9896,
      "🚚": 9897,
      "🚛": 9898,
      "🚜": 9899,
      "🚠": 9900,
      "🚢": 9901,
      "🚧": 9902,
      "🚨": 9903,
      "🚩": 9904,
      "🚪": 9905,
      "🚫": 9906,
      "🚬": 9907,
      "🚮": 9908,
      "🚰": 9909,
      "🚴": 9910,
      "🚶": 9911,
      "🚷": 9912,
      "🚼": 9913,
      "🚿": 9914,
      "🛀": 9915,
      "🛁": 9916,
      "🛋": 9917,
      "🛌": 9918,
      "🛍": 9919,
      "🛑": 9920,
      "🛠": 9921,
      "🛡": 9922,
      "🛢": 9923,
      "🛫": 9924,
      "🛰": 9925,
      "🛵": 9926,
      "🛹": 9927,
      "🟠": 9928,
      "🟡": 9929,
      "🟢": 9930,
      "🟣": 9931,
      "🟥": 9932,
      "🟦": 9933,
      "🟩": 9934,
      "🡪": 9935,
      "🤌": 9936,
      "🤍": 9937,
      "🤐": 9938,
      "🤑": 9939,
      "🤓": 9940,
      "🤔": 9941,
      "🤕": 9942,
      "🤖": 9943,
      "🤗": 9944,
      "🤘": 9945,
      "🤙": 9946,
      "🤚": 9947,
      "🤝": 9948,
      "🤞": 9949,
      "🤟": 9950,
      "🤠": 9951,
      "🤡": 9952,
      "🤢": 9953,
      "🤣": 9954,
      "🤤": 9955,
      "🤥": 9956,
      "🤦": 9957,
      "🤨": 9958,
      "🤩": 9959,
      "🤪": 9960,
      "🤫": 9961,
      "🤬": 9962,
      "🤭": 9963,
      "🤮": 9964,
      "🤯": 9965,
      "🤰": 9966,
      "🤱": 9967,
      "🤲": 9968,
      "🤴": 9969,
      "🤵": 9970,
      "🤷": 9971,
      "🤸": 9972,
      "🤼": 9973,
      "🤿": 9974,
      "🥀": 9975,
      "🥁": 9976,
      "🥂": 9977,
      "🥃": 9978,
      "🥇": 9979,
      "🥈": 9980,
      "🥉": 9981,
      "🥊": 9982,
      "🥔": 9983,
      "🥗": 9984,
      "🥜": 9985,
      "🥞": 9986,
      "🥣": 9987,
      "🥤": 9988,
      "🥩": 9989,
      "🥭": 9990,
      "🥰": 9991,
      "🥱": 9992,
      "🥲": 9993,
      "🥳": 9994,
      "🥴": 9995,
      "🥵": 9996,
      "🥶": 9997,
      "🥸": 9998,
      "🥹": 9999,
      "🥺": 10000,
      "🦁": 10001,
      "🦄": 10002,
      "🦆": 10003,
      "🦇": 10004,
      "🦈": 10005,
      "🦉": 10006,
      "🦊": 10007,
      "🦋": 10008,
      "🦌": 10009,
      "🦎": 10010,
      "🦑": 10011,
      "🦙": 10012,
      "🦜": 10013,
      "🦠": 10014,
      "🦤": 10015,
      "🦩": 10016,
      "🦯": 10017,
      "🦰": 10018,
      "🦳": 10019,
      "🦴": 10020,
      "🦶": 10021,
      "🦷": 10022,
      "🦹": 10023,
      "🧀": 10024,
      "🧅": 10025,
      "🧊": 10026,
      "🧐": 10027,
      "🧑": 10028,
      "🧖": 10029,
      "🧗": 10030,
      "🧘": 10031,
      "🧙": 10032,
      "🧚": 10033,
      "🧛": 10034,
      "🧜": 10035,
      "🧟": 10036,
      "🧠": 10037,
      "🧡": 10038,
      "🧢": 10039,
      "🧤": 10040,
      "🧦": 10041,
      "🧨": 10042,
      "🧩": 10043,
      "🧪": 10044,
      "🧬": 10045,
      "🧭": 10046,
      "🧲": 10047,
      "🧵": 10048,
      "🧶": 10049,
      "🧸": 10050,
      "🧼": 10051,
      "🧽": 10052,
      "🧿": 10053,
      "🩲": 10054,
      "🩵": 10055,
      "🩸": 10056,
      "🪄": 10057,
      "🪅": 10058,
      "🪐": 10059,
      "🪑": 10060,
      "🪖": 10061,
      "🪙": 10062,
      "🪛": 10063,
      "🪢": 10064,
      "🪧": 10065,
      "🪨": 10066,
      "🪩": 10067,
      "🪬": 10068,
      "🪵": 10069,
      "🪶": 10070,
      "🫠": 10071,
      "🫡": 10072,
      "🫢": 10073,
      "🫣": 10074,
      "🫦": 10075,
      "🫧": 10076,
      "🫰": 10077,
      "🫶": 10078,
      "𣌷": 10079,
      "𤢖": 10080,
      "񂾁": 10081,
      "􀀀": 10082,
      "􀀃": 10083,
      "􀀊": 10084,
      "􀀋": 10085,
      "􀀌": 10086,
      "􀀏": 10087,
      "􀀐": 10088,
      "􀀕": 10089,
      "􀀗": 10090,
      "􀀞": 10091,
      "􀀟": 10092,
      "􀀠": 10093,
      "􀀡": 10094,
      "􀀢": 10095,
      "􀀤": 10096,
      "􀀥": 10097,
      "􀀦": 10098,
      "􀀩": 10099,
      "􀀫": 10100,
      "􀀬": 10101,
      "􀀯": 10102,
      "􀀰": 10103,
      "􀀱": 10104,
      "􀀲": 10105,
      "􀀶": 10106,
      "􀀸": 10107,
      "􀁄": 10108,
      "􀁅": 10109,
      "􀁆": 10110,
      "􀁇": 10111,
      "􀁈": 10112,
      "􀁉": 10113,
      "􀁊": 10114,
      "􀁋": 10115,
      "􀁌": 10116,
      "􀁏": 10117,
      "􀁐": 10118,
      "􀁑": 10119,
      "􀁒": 10120,
      "􀁓": 10121,
      "􀁔": 10122,
      "􀁕": 10123,
      "􀁖": 10124,
      "􀁗": 10125,
      "􀁘": 10126,
      "􀁙": 10127,
      "􀁛": 10128,
      "􀁜": 10129,
      "􀁪": 10130,
      "􀁰": 10131,
      "􀁱": 10132,
      "􀂌": 10133,
      "􀂷": 10134,
      "􀋔": 10135,
      "􀋗": 10136,
      "􀋘": 10137,
      "􀋚": 10138,
      "􀋜": 10139,
      "􀋟": 10140,
      "􀋠": 10141,
      "􀋡": 10142,
      "􀋣": 10143,
      "􀋤": 10144,
      "􀋥": 10145,
      "􀋦": 10146,
      "􀋧": 10147,
      "􀋨": 10148,
      "􀏠": 10149,
      "􏰄": 10150,
      "􏰅": 10151,
      "􏰊": 10152,
      "􏿿": 10153,
      "▁t": 10154,
      "▁a": 10155,
      "in": 10156,
      "he": 10157,
      "▁s": 10158,
      "on": 10159,
      "re": 10160,
      "er": 10161,
      "▁.": 10162,
      "▁,": 10163,
      "▁c": 10164,
      "en": 10165,
      "at": 10166,
      "▁the": 10167,
      "or": 10168,
      "ou": 10169,
      "▁w": 10170,
      "es": 10171,
      "▁p": 10172,
      "▁d": 10173,
      "it": 10174,
      "an": 10175,
      "is": 10176,
      "▁m": 10177,
      "▁an": 10178,
      "▁f": 10179,
      "▁b": 10180,
      "ing": 10181,
      "▁in": 10182,
      "le": 10183,
      "▁o": 10184,
      "al": 10185,
      "ar": 10186,
      "ion": 10187,
      "▁to": 10188,
      "ic": 10189,
      "ed": 10190,
      "om": 10191,
      "as": 10192,
      "▁n": 10193,
      "▁and": 10194,
      "▁:": 10195,
      "▁e": 10196,
      "ent": 10197,
      "▁h": 10198,
      "▁y": 10199,
      "▁\"": 10200,
      "▁N": 10201,
      "▁l": 10202,
      "▁of": 10203,
      "▁re": 10204,
      "ct": 10205,
      "st": 10206,
      "el": 10207,
      "▁you": 10208,
      "ro": 10209,
      "▁I": 10210,
      "▁th": 10211,
      "▁'": 10212,
      "ME": 10213,
      "▁u": 10214,
      "▁-": 10215,
      "AME": 10216,
      "AME_": 10217,
      "▁NAME_": 10218,
      "et": 10219,
      "▁g": 10220,
      "ow": 10221,
      "ve": 10222,
      "il": 10223,
      "▁is": 10224,
      "am": 10225,
      "▁A": 10226,
      "▁T": 10227,
      "▁1": 10228,
      "▁S": 10229,
      "ot": 10230,
      "id": 10231,
      "im": 10232,
      "▁C": 10233,
      "ol": 10234,
      "▁?": 10235,
      "▁on": 10236,
      "▁(": 10237,
      "ut": 10238,
      "▁for": 10239,
      "ay": 10240,
      "▁2": 10241,
      "▁st": 10242,
      "ly": 10243,
      "ch": 10244,
      "▁)": 10245,
      "qu": 10246,
      "ith": 10247,
      "▁as": 10248,
      "se": 10249,
      "▁con": 10250,
      "▁de": 10251,
      "ation": 10252,
      "ce": 10253,
      "ri": 10254,
      "ra": 10255,
      "▁with": 10256,
      "▁be": 10257,
      "od": 10258,
      "um": 10259,
      "▁com": 10260,
      "▁v": 10261,
      "▁W": 10262,
      "ist": 10263,
      "▁P": 10264,
      "ad": 10265,
      "est": 10266,
      "ate": 10267,
      "▁wh": 10268,
      "ig": 10269,
      "▁NAME_1": 10270,
      "if": 10271,
      "▁he": 10272,
      "▁D": 10273,
      "ers": 10274,
      "ag": 10275,
      "▁pro": 10276,
      "ir": 10277,
      "ul": 10278,
      "ant": 10279,
      "em": 10280,
      "out": 10281,
      "▁ex": 10282,
      "ur": 10283,
      "▁that": 10284,
      "▁are": 10285,
      "os": 10286,
      "▁it": 10287,
      "▁al": 10288,
      "pe": 10289,
      "▁H": 10290,
      "ke": 10291,
      "pt": 10292,
      "00": 10293,
      "▁or": 10294,
      "▁do": 10295,
      "▁M": 10296,
      "un": 10297,
      "ive": 10298,
      "▁qu": 10299,
      "▁me": 10300,
      "ld": 10301,
      "sw": 10302,
      "pl": 10303,
      "▁un": 10304,
      "▁B": 10305,
      "▁E": 10306,
      "ction": 10307,
      "ab": 10308,
      "▁Y": 10309,
      "ver": 10310,
      "▁se": 10311,
      "rom": 10312,
      "▁The": 10313,
      "ter": 10314,
      "ple": 10315,
      "swer": 10316,
      "▁your": 10317,
      "▁/": 10318,
      "ust": 10319,
      "ess": 10320,
      "ac": 10321,
      "▁sh": 10322,
      "▁3": 10323,
      "▁ne": 10324,
      "ill": 10325,
      "▁R": 10326,
      "ore": 10327,
      "▁F": 10328,
      "▁=": 10329,
      "▁ch": 10330,
      "iv": 10331,
      "us": 10332,
      "ame": 10333,
      "end": 10334,
      "▁ab": 10335,
      "▁ha": 10336,
      "th": 10337,
      "ite": 10338,
      "▁not": 10339,
      "▁answer": 10340,
      "▁0": 10341,
      "and": 10342,
      "▁G": 10343,
      "▁wor": 10344,
      "xt": 10345,
      "res": 10346,
      "▁L": 10347,
      "▁us": 10348,
      "▁can": 10349,
      "▁su": 10350,
      "te": 10351,
      "▁O": 10352,
      "her": 10353,
      "ould": 10354,
      "▁5": 10355,
      "▁le": 10356,
      "oc": 10357,
      "▁You": 10358,
      "▁te": 10359,
      "▁r": 10360,
      "low": 10361,
      "ain": 10362,
      "ment": 10363,
      "ort": 10364,
      "▁k": 10365,
      "▁j": 10366,
      "ity": 10367,
      "▁from": 10368,
      "ru": 10369,
      "ie": 10370,
      "nt": 10371,
      "ell": 10372,
      "▁we": 10373,
      "art": 10374,
      "ine": 10375,
      "▁en": 10376,
      "▁at": 10377,
      "ht": 10378,
      "per": 10379,
      "▁this": 10380,
      "age": 10381,
      "ds": 10382,
      "▁have": 10383,
      "▁NAME_2": 10384,
      "▁4": 10385,
      "▁]": 10386,
      "▁res": 10387,
      "ase": 10388,
      "pp": 10389,
      "▁by": 10390,
      "▁[": 10391,
      "▁im": 10392,
      "act": 10393,
      "iz": 10394,
      "▁what": 10395,
      "▁Wh": 10396,
      "ang": 10397,
      "▁about": 10398,
      "▁ma": 10399,
      "orm": 10400,
      "▁des": 10401,
      "▁U": 10402,
      "ide": 10403,
      "ies": 10404,
      "rite": 10405,
      "ud": 10406,
      "put": 10407,
      "--": 10408,
      "▁In": 10409,
      "ure": 10410,
      "sist": 10411,
      "▁will": 10412,
      "og": 10413,
      "▁cont": 10414,
      "ial": 10415,
      "our": 10416,
      "▁pl": 10417,
      "ical": 10418,
      "cri": 10419,
      "▁ar": 10420,
      "hen": 10421,
      "▁int": 10422,
      "▁п": 10423,
      "▁no": 10424,
      "▁out": 10425,
      "ue": 10426,
      "▁som": 10427,
      "▁li": 10428,
      "nd": 10429,
      "ich": 10430,
      "▁was": 10431,
      "ect": 10432,
      "du": 10433,
      "▁ad": 10434,
      "pon": 10435,
      "ia": 10436,
      "ions": 10437,
      "▁fol": 10438,
      "▁my": 10439,
      "▁cl": 10440,
      "▁20": 10441,
      "▁her": 10442,
      "▁if": 10443,
      "are": 10444,
      "all": 10445,
      "▁only": 10446,
      "form": 10447,
      "▁text": 10448,
      "▁go": 10449,
      "ry": 10450,
      "▁follow": 10451,
      "ile": 10452,
      "able": 10453,
      "▁mod": 10454,
      "▁say": 10455,
      "ere": 10456,
      "▁sy": 10457,
      "ost": 10458,
      "ual": 10459,
      "▁comple": 10460,
      "ary": 10461,
      "▁i": 10462,
      "▁any": 10463,
      "king": 10464,
      "op": 10465,
      "▁с": 10466,
      "▁\\": 10467,
      "ence": 10468,
      "▁\",": 10469,
      "▁inst": 10470,
      "ans": 10471,
      "ind": 10472,
      "ased": 10473,
      "ep": 10474,
      "ast": 10475,
      "ire": 10476,
      "ice": 10477,
      "ks": 10478,
      "ctions": 10479,
      "der": 10480,
      "cc": 10481,
      "▁{": 10482,
      "ther": 10483,
      "▁assist": 10484,
      "▁6": 10485,
      "ode": 10486,
      "stem": 10487,
      "▁more": 10488,
      "▁la": 10489,
      "▁\":": 10490,
      "▁how": 10491,
      "▁words": 10492,
      "▁so": 10493,
      "ory": 10494,
      "ass": 10495,
      "▁all": 10496,
      "▁;": 10497,
      "▁What": 10498,
      "▁but": 10499,
      "ong": 10500,
      "▁has": 10501,
      "ach": 10502,
      "oo": 10503,
      "one": 10504,
      "▁inc": 10505,
      "ib": 10506,
      "▁|": 10507,
      "▁sent": 10508,
      "▁}": 10509,
      "▁per": 10510,
      "ult": 10511,
      "▁assistant": 10512,
      "▁should": 10513,
      "ge": 10514,
      "ces": 10515,
      "▁em": 10516,
      "ack": 10517,
      "▁comp": 10518,
      "ight": 10519,
      "lease": 10520,
      "▁par": 10521,
      "▁following": 10522,
      "ime": 10523,
      "ip": 10524,
      "ous": 10525,
      "▁в": 10526,
      "ber": 10527,
      "▁!": 10528,
      "▁system": 10529,
      "ated": 10530,
      "▁V": 10531,
      "..": 10532,
      "ст": 10533,
      "▁ro": 10534,
      "▁sc": 10535,
      "▁like": 10536,
      "cript": 10537,
      "▁#": 10538,
      "ens": 10539,
      "▁н": 10540,
      "▁pre": 10541,
      "▁J": 10542,
      "▁man": 10543,
      "▁based": 10544,
      "ear": 10545,
      "ance": 10546,
      "▁one": 10547,
      "ff": 10548,
      "▁quest": 10549,
      "ен": 10550,
      "▁up": 10551,
      "▁Th": 10552,
      "▁must": 10553,
      "▁NAME_3": 10554,
      "▁que": 10555,
      "ations": 10556,
      "▁8": 10557,
      "now": 10558,
      "▁7": 10559,
      "▁when": 10560,
      "▁>": 10561,
      "ap": 10562,
      "▁model": 10563,
      "▁imp": 10564,
      "eth": 10565,
      "ak": 10566,
      "ard": 10567,
      "ener": 10568,
      "▁’": 10569,
      "▁user": 10570,
      "ail": 10571,
      "▁same": 10572,
      "ata": 10573,
      "▁bel": 10574,
      "vel": 10575,
      "▁instru": 10576,
      "▁respon": 10577,
      "▁10": 10578,
      "ов": 10579,
      "ating": 10580,
      "tion": 10581,
      "▁che": 10582,
      "▁am": 10583,
      "int": 10584,
      "ра": 10585,
      "ient": 10586,
      "yth": 10587,
      "▁Q": 10588,
      "▁ev": 10589,
      "▁which": 10590,
      "ress": 10591,
      "umm": 10592,
      "rou": 10593,
      "ument": 10594,
      "▁St": 10595,
      "▁prov": 10596,
      "▁don": 10597,
      "▁dis": 10598,
      "av": 10599,
      "ign": 10600,
      "▁spe": 10601,
      "▁than": 10602,
      "▁fe": 10603,
      "▁use": 10604,
      "elf": 10605,
      "▁det": 10606,
      "▁9": 10607,
      "▁pr": 10608,
      "▁Write": 10609,
      "▁и": 10610,
      "▁know": 10611,
      "▁other": 10612,
      "so": 10613,
      "▁form": 10614,
      "▁<": 10615,
      "▁who": 10616,
      "то": 10617,
      "▁some": 10618,
      "▁Ch": 10619,
      "ject": 10620,
      "▁their": 10621,
      "▁cre": 10622,
      "▁к": 10623,
      "▁el": 10624,
      "▁о": 10625,
      "▁want": 10626,
      "▁tr": 10627,
      "▁she": 10628,
      "▁his": 10629,
      "▁K": 10630,
      "▁If": 10631,
      "▁code": 10632,
      "▁exam": 10633,
      "▁tra": 10634,
      "erson": 10635,
      "▁expl": 10636,
      "▁they": 10637,
      "▁ind": 10638,
      "ount": 10639,
      "▁sp": 10640,
      "ace": 10641,
      "▁instructions": 10642,
      "ific": 10643,
      "▁hel": 10644,
      "▁*": 10645,
      "ub": 10646,
      "▁inform": 10647,
      "ython": 10648,
      "▁+": 10649,
      "▁need": 10650,
      "▁ag": 10651,
      "▁write": 10652,
      "▁ser": 10653,
      "▁ap": 10654,
      "ove": 10655,
      "▁00": 10656,
      "▁An": 10657,
      "▁pos": 10658,
      "ely": 10659,
      "ery": 10660,
      "▁num": 10661,
      "▁How": 10662,
      "erm": 10663,
      "▁comm": 10664,
      "▁new": 10665,
      "▁make": 10666,
      "▁time": 10667,
      "▁get": 10668,
      "au": 10669,
      "но": 10670,
      "▁would": 10671,
      "lo": 10672,
      "----": 10673,
      "ро": 10674,
      "▁acc": 10675,
      "▁',": 10676,
      "ition": 10677,
      "ght": 10678,
      "▁name": 10679,
      "▁col": 10680,
      "▁part": 10681,
      "led": 10682,
      "▁over": 10683,
      "▁repe": 10684,
      "▁char": 10685,
      "▁bet": 10686,
      "ont": 10687,
      "▁them": 10688,
      "▁202": 10689,
      "▁Re": 10690,
      "ings": 10691,
      "urn": 10692,
      "▁art": 10693,
      "here": 10694,
      "▁es": 10695,
      "io": 10696,
      "▁tw": 10697,
      "▁person": 10698,
      "▁year": 10699,
      "▁%": 10700,
      "ound": 10701,
      "▁fun": 10702,
      "ft": 10703,
      "▁below": 10704,
      "ck": 10705,
      "▁gener": 10706,
      "gh": 10707,
      "▁output": 10708,
      "▁act": 10709,
      "▁there": 10710,
      "▁ent": 10711,
      "▁list": 10712,
      "fere": 10713,
      "▁val": 10714,
      "irst": 10715,
      "▁rep": 10716,
      "▁д": 10717,
      "▁rec": 10718,
      "lud": 10719,
      "ays": 10720,
      "ет": 10721,
      "▁.\"": 10722,
      "▁ke": 10723,
      "ov": 10724,
      "ram": 10725,
      "▁str": 10726,
      "ree": 10727,
      "ake": 10728,
      "▁It": 10729,
      "ão": 10730,
      "ne": 10731,
      "ize": 10732,
      "▁est": 10733,
      "▁pe": 10734,
      "▁data": 10735,
      "▁inter": 10736,
      "▁completion": 10737,
      "▁bl": 10738,
      "▁question": 10739,
      "ome": 10740,
      "▁give": 10741,
      "▁Please": 10742,
      "▁ob": 10743,
      "we": 10744,
      "▁add": 10745,
      "▁into": 10746,
      "ative": 10747,
      "ph": 10748,
      "▁app": 10749,
      "ord": 10750,
      "▁descript": 10751,
      "▁python": 10752,
      "ish": 10753,
      "be": 10754,
      "ink": 10755,
      "▁по": 10756,
      "ON": 10757,
      "▁summ": 10758,
      "▁sa": 10759,
      "▁200": 10760,
      "ful": 10761,
      "▁po": 10762,
      "rit": 10763,
      "oy": 10764,
      "▁rel": 10765,
      "▁doc": 10766,
      "▁$": 10767,
      "iven": 10768,
      "ng": 10769,
      "▁x": 10770,
      "ething": 10771,
      "ences": 10772,
      "▁ph": 10773,
      "▁AI": 10774,
      "▁dif": 10775,
      "▁something": 10776,
      "▁di": 10777,
      "▁each": 10778,
      "▁produ": 10779,
      "▁um": 10780,
      "▁No": 10781,
      "▁off": 10782,
      "▁information": 10783,
      "cess": 10784,
      "ри": 10785,
      "ан": 10786,
      "▁Pro": 10787,
      "ER": 10788,
      "▁на": 10789,
      "ль": 10790,
      "▁document": 10791,
      "▁just": 10792,
      "ре": 10793,
      "те": 10794,
      "▁z": 10795,
      "▁first": 10796,
      "▁help": 10797,
      "▁also": 10798,
      "▁ty": 10799,
      "▁using": 10800,
      "ick": 10801,
      "ian": 10802,
      "▁He": 10803,
      "▁two": 10804,
      "pect": 10805,
      "ise": 10806,
      "▁prom": 10807,
      "ys": 10808,
      "▁NAME_4": 10809,
      "▁ret": 10810,
      "any": 10811,
      "▁As": 10812,
      "ning": 10813,
      "▁charact": 10814,
      "▁spec": 10815,
      "ples": 10816,
      "▁12": 10817,
      "▁ra": 10818,
      "ors": 10819,
      "ли": 10820,
      "ark": 10821,
      "con": 10822,
      "▁under": 10823,
      "▁play": 10824,
      "ates": 10825,
      "ild": 10826,
      "▁does": 10827,
      "▁50": 10828,
      "▁includ": 10829,
      "▁requ": 10830,
      "▁mat": 10831,
      "ract": 10832,
      "ose": 10833,
      "▁self": 10834,
      "▁then": 10835,
      "▁м": 10836,
      "▁Qu": 10837,
      "ents": 10838,
      "▁This": 10839,
      "▁Ex": 10840,
      "les": 10841,
      "inal": 10842,
      "▁start": 10843,
      "▁fact": 10844,
      "▁story": 10845,
      "▁import": 10846,
      "▁allow": 10847,
      "lect": 10848,
      "angu": 10849,
      "ть": 10850,
      "ert": 10851,
      "▁trans": 10852,
      "▁cor": 10853,
      "▁hum": 10854,
      "▁let": 10855,
      "▁now": 10856,
      "ook": 10857,
      "▁def": 10858,
      "▁Can": 10859,
      "__": 10860,
      "▁ext": 10861,
      "AN": 10862,
      "▁its": 10863,
      "▁most": 10864,
      "own": 10865,
      "ci": 10866,
      "ting": 10867,
      "▁sm": 10868,
      "##": 10869,
      "ible": 10870,
      "ric": 10871,
      "iss": 10872,
      "▁),": 10873,
      "ob": 10874,
      "▁sub": 10875,
      "ually": 10876,
      "fter": 10877,
      "▁sentences": 10878,
      "ments": 10879,
      "ange": 10880,
      "▁tell": 10881,
      "▁sim": 10882,
      "▁real": 10883,
      "▁opt": 10884,
      "text": 10885,
      "▁ass": 10886,
      "▁cons": 10887,
      "▁op": 10888,
      "▁set": 10889,
      "▁att": 10890,
      "▁19": 10891,
      "PT": 10892,
      "de": 10893,
      "▁para": 10894,
      "anguage": 10895,
      "igh": 10896,
      "ung": 10897,
      "▁()": 10898,
      "▁where": 10899,
      "▁`": 10900,
      "icle": 10901,
      "mical": 10902,
      "▁bu": 10903,
      "▁ever": 10904,
      "▁co": 10905,
      "vers": 10906,
      "ople": 10907,
      "ween": 10908,
      "ask": 10909,
      "▁rem": 10910,
      "olog": 10911,
      "ble": 10912,
      "▁sol": 10913,
      "ale": 10914,
      "▁Al": 10915,
      "го": 10916,
      "▁step": 10917,
      "▁number": 10918,
      "▁between": 10919,
      "▁15": 10920,
      "▁provide": 10921,
      "▁et": 10922,
      "▁del": 10923,
      "▁send": 10924,
      "▁were": 10925,
      "▁work": 10926,
      "iew": 10927,
      "▁Con": 10928,
      "▁been": 10929,
      "▁Com": 10930,
      "▁er": 10931,
      "az": 10932,
      "▁Do": 10933,
      "ident": 10934,
      "ак": 10935,
      "ock": 10936,
      "▁input": 10937,
      "red": 10938,
      "▁We": 10939,
      "▁bec": 10940,
      "ood": 10941,
      "▁ri": 10942,
      "▁summary": 10943,
      "▁people": 10944,
      "▁end": 10945,
      "ade": 10946,
      "▁good": 10947,
      "gg": 10948,
      "▁language": 10949,
      "▁prog": 10950,
      "che": 10951,
      "▁11": 10952,
      "▁our": 10953,
      "ities": 10954,
      "ause": 10955,
      "▁...": 10956,
      "▁response": 10957,
      "row": 10958,
      "enc": 10959,
      "ics": 10960,
      "ны": 10961,
      "▁dec": 10962,
      "▁De": 10963,
      "▁).": 10964,
      "ious": 10965,
      "▁“": 10966,
      "▁him": 10967,
      "▁inv": 10968,
      "▁prompt": 10969,
      "▁sentence": 10970,
      "▁please": 10971,
      "get": 10972,
      "▁company": 10973,
      "▁format": 10974,
      "IN": 10975,
      "reat": 10976,
      "▁exper": 10977,
      "▁way": 10978,
      "▁class": 10979,
      "ps": 10980,
      "▁complete": 10981,
      "riend": 10982,
      "▁chemical": 10983,
      "ren": 10984,
      "▁ve": 10985,
      "▁thing": 10986,
      "resent": 10987,
      "▁long": 10988,
      "ene": 10989,
      "▁ins": 10990,
      "▁back": 10991,
      "▁She": 10992,
      "▁car": 10993,
      "ility": 10994,
      "▁very": 10995,
      "▁return": 10996,
      "arch": 10997,
      "▁differe": 10998,
      "▁Un": 10999,
      "▁100": 11000,
      "▁Yes": 11001,
      "▁cur": 11002,
      "▁had": 11003,
      "▁gu": 11004,
      "▁proper": 11005,
      "▁б": 11006,
      "▁з": 11007,
      "ices": 11008,
      "▁conf": 11009,
      "▁product": 11010,
      "▁allowed": 11011,
      "▁pol": 11012,
      "▁exp": 11013,
      "▁could": 11014,
      "▁Is": 11015,
      "▁reg": 11016,
      "▁content": 11017,
      "ines": 11018,
      "ени": 11019,
      "lic": 11020,
      "▁Your": 11021,
      "AT": 11022,
      "==": 11023,
      "▁ac": 11024,
      "ser": 11025,
      "tt": 11026,
      "ка": 11027,
      "▁Te": 11028,
      "ier": 11029,
      "▁examples": 11030,
      "rodu": 11031,
      "▁type": 11032,
      "▁after": 11033,
      "que": 11034,
      "▁av": 11035,
      "its": 11036,
      "oth": 11037,
      "▁cal": 11038,
      "▁character": 11039,
      "anc": 11040,
      "▁é": 11041,
      "ner": 11042,
      "▁mu": 11043,
      "▁&": 11044,
      "ied": 11045,
      "▁fil": 11046,
      "▁Se": 11047,
      "ath": 11048,
      "plic": 11049,
      "▁used": 11050,
      "ES": 11051,
      "day": 11052,
      "▁see": 11053,
      "▁repeat": 11054,
      "▁contin": 11055,
      "▁article": 11056,
      "▁min": 11057,
      "▁being": 11058,
      "▁aut": 11059,
      "ify": 11060,
      "ues": 11061,
      "ix": 11062,
      "▁=\"": 11063,
      "▁such": 11064,
      "▁may": 11065,
      "▁Give": 11066,
      "▁these": 11067,
      "▁old": 11068,
      "▁inte": 11069,
      "▁ca": 11070,
      "raph": 11071,
      "▁example": 11072,
      "▁program": 11073,
      "▁т": 11074,
      "vice": 11075,
      "▁ко": 11076,
      "ater": 11077,
      "ла": 11078,
      "▁poss": 11079,
      "cept": 11080,
      "▁find": 11081,
      "▁top": 11082,
      "ко": 11083,
      "▁stud": 11084,
      "▁show": 11085,
      "▁result": 11086,
      "wor": 11087,
      "ull": 11088,
      "▁consist": 11089,
      "ways": 11090,
      "ason": 11091,
      "▁nam": 11092,
      "▁For": 11093,
      "▁Answer": 11094,
      "▁sex": 11095,
      "▁state": 11096,
      "ustom": 11097,
      "▁key": 11098,
      "▁fl": 11099,
      "ateg": 11100,
      "ures": 11101,
      "на": 11102,
      "chn": 11103,
      "irl": 11104,
      "up": 11105,
      "▁mon": 11106,
      "▁think": 11107,
      "arm": 11108,
      "fore": 11109,
      "▁provid": 11110,
      "▁feel": 11111,
      "itt": 11112,
      "▁ask": 11113,
      "▁\".": 11114,
      "▁sk": 11115,
      "ção": 11116,
      "▁descri": 11117,
      "ited": 11118,
      "ни": 11119,
      "uss": 11120,
      "▁create": 11121,
      "▁given": 11122,
      "estion": 11123,
      "ер": 11124,
      "▁###": 11125,
      "ages": 11126,
      "▁best": 11127,
      "rent": 11128,
      "ement": 11129,
      "ife": 11130,
      "▁und": 11131,
      "▁var": 11132,
      "ular": 11133,
      "▁\"[": 11134,
      "▁value": 11135,
      "▁point": 11136,
      "▁med": 11137,
      "▁loc": 11138,
      "AR": 11139,
      "ody": 11140,
      "rol": 11141,
      "▁ч": 11142,
      "▁well": 11143,
      "▁2023": 11144,
      "ower": 11145,
      "iel": 11146,
      "▁201": 11147,
      "pport": 11148,
      "▁NAME_5": 11149,
      "▁chat": 11150,
      "ior": 11151,
      "▁br": 11152,
      "▁read": 11153,
      "▁]\"": 11154,
      "▁test": 11155,
      "oun": 11156,
      "▁fr": 11157,
      "▁у": 11158,
      "▁tem": 11159,
      "ten": 11160,
      "▁repeating": 11161,
      "▁13": 11162,
      "ict": 11163,
      "ah": 11164,
      "▁disc": 11165,
      "▁many": 11166,
      "eng": 11167,
      "▁conc": 11168,
      "▁indust": 11169,
      "▁eff": 11170,
      "other": 11171,
      "rough": 11172,
      "▁high": 11173,
      "▁description": 11174,
      "velop": 11175,
      "ado": 11176,
      "▁without": 11177,
      "▁short": 11178,
      "▁did": 11179,
      "ти": 11180,
      "OR": 11181,
      "rect": 11182,
      "ina": 11183,
      "▁context": 11184,
      "--------": 11185,
      "ving": 11186,
      "ón": 11187,
      "▁while": 11188,
      "▁dire": 11189,
      "ty": 11190,
      "▁wom": 11191,
      "▁function": 11192,
      "▁introdu": 11193,
      "▁bre": 11194,
      "▁18": 11195,
      "▁friend": 11196,
      "▁questions": 11197,
      "▁role": 11198,
      "als": 11199,
      "▁convers": 11200,
      "▁right": 11201,
      "ature": 11202,
      "▁una": 11203,
      "▁ref": 11204,
      "ute": 11205,
      "▁Ne": 11206,
      "ank": 11207,
      "▁Des": 11208,
      "▁lo": 11209,
      "ention": 11210,
      "▁task": 11211,
      "▁sur": 11212,
      "▁human": 11213,
      "▁always": 11214,
      "▁explain": 11215,
      "▁da": 11216,
      "stand": 11217,
      "ros": 11218,
      "▁”": 11219,
      "▁object": 11220,
      "▁word": 11221,
      "▁eng": 11222,
      "▁tal": 11223,
      "tern": 11224,
      "ug": 11225,
      "ле": 11226,
      "▁world": 11227,
      "ality": 11228,
      "ec": 11229,
      "▁take": 11230,
      "▁generate": 11231,
      "ution": 11232,
      "old": 11233,
      "▁inf": 11234,
      "▁plan": 11235,
      "ience": 11236,
      "▁25": 11237,
      "▁consistent": 11238,
      "▁count": 11239,
      "▁girl": 11240,
      "GPT": 11241,
      "hip": 11242,
      "▁through": 11243,
      "▁years": 11244,
      "ST": 11245,
      "▁Question": 11246,
      "▁different": 11247,
      "EN": 11248,
      "▁said": 11249,
      "hes": 11250,
      "▁die": 11251,
      "▁main": 11252,
      "▁prof": 11253,
      "stru": 11254,
      "wn": 11255,
      "▁30": 11256,
      "to": 11257,
      "▁every": 11258,
      "ки": 11259,
      "til": 11260,
      "▁process": 11261,
      "та": 11262,
      "▁day": 11263,
      "▁anal": 11264,
      "iness": 11265,
      "▁mess": 11266,
      "▁il": 11267,
      "xic": 11268,
      "ik": 11269,
      "ло": 11270,
      "ands": 11271,
      "▁detail": 11272,
      "▁beh": 11273,
      "ts": 11274,
      "▁game": 11275,
      "ally": 11276,
      "▁open": 11277,
      "uring": 11278,
      "▁try": 11279,
      "▁industry": 11280,
      "▁sing": 11281,
      "▁why": 11282,
      "uc": 11283,
      "▁Ad": 11284,
      "▁line": 11285,
      "ля": 11286,
      "rop": 11287,
      "ica": 11288,
      "▁again": 11289,
      "▁down": 11290,
      "iment": 11291,
      "▁fin": 11292,
      "▁file": 11293,
      "▁16": 11294,
      "rest": 11295,
      "▁der": 11296,
      "▁14": 11297,
      "ool": 11298,
      "▁writ": 11299,
      "ру": 11300,
      "▁rev": 11301,
      "▁не": 11302,
      "▁tool": 11303,
      "thing": 11304,
      "▁por": 11305,
      "ave": 11306,
      "▁much": 11307,
      "да": 11308,
      "▁even": 11309,
      "▁,\"": 11310,
      "▁factually": 11311,
      "arn": 11312,
      "ives": 11313,
      "gin": 11314,
      "▁sl": 11315,
      "▁pa": 11316,
      "▁reason": 11317,
      "▁specific": 11318,
      "▁du": 11319,
      "▁term": 11320,
      "▁because": 11321,
      "▁met": 11322,
      "во": 11323,
      "▁determ": 11324,
      "ism": 11325,
      "ets": 11326,
      "ann": 11327,
      "▁bus": 11328,
      "▁ed": 11329,
      "ся": 11330,
      "omm": 11331,
      "▁soc": 11332,
      "▁ver": 11333,
      "ily": 11334,
      "▁mem": 11335,
      "▁before": 11336,
      "▁hy": 11337,
      "▁Z": 11338,
      "▁train": 11339,
      "▁respons": 11340,
      "blem": 11341,
      "ware": 11342,
      "▁develop": 11343,
      "▁grou": 11344,
      "nce": 11345,
      "▁anything": 11346,
      "▁contain": 11347,
      "▁mark": 11348,
      "▁tri": 11349,
      "ax": 11350,
      "lish": 11351,
      "▁X": 11352,
      "▁custom": 11353,
      "ought": 11354,
      "self": 11355,
      "iled": 11356,
      "▁los": 11357,
      "▁next": 11358,
      "▁going": 11359,
      "▁mean": 11360,
      "▁understand": 11361,
      "▁про": 11362,
      "▁cap": 11363,
      "ator": 11364,
      "▁techn": 11365,
      "▁):": 11366,
      "▁vis": 11367,
      "▁ا": 11368,
      "▁П": 11369,
      "▁Be": 11370,
      "ando": 11371,
      "▁ll": 11372,
      "ada": 11373,
      "▁last": 11374,
      "▁org": 11375,
      "▁three": 11376,
      "▁require": 11377,
      "▁ele": 11378,
      "▁adv": 11379,
      "ци": 11380,
      "itive": 11381,
      "ough": 11382,
      "**": 11383,
      "▁Who": 11384,
      "▁2000": 11385,
      "▁outputs": 11386,
      "▁include": 11387,
      "▁sign": 11388,
      "▁pat": 11389,
      "ror": 11390,
      "▁toxic": 11391,
      "▁Sh": 11392,
[...]
