#version: 0.2
Ġ t
Ġ a
i n
h e
r e
o n
Ġ s
e r
Ġ c
Ġt he
a t
e n
Ġ Ġ
o r
e s
n d
Ġ p
o u
i s
Ġ d
i t
Ġ w
a n
Ġ m
Ġ f
Ġ o
a l
in g
Ġa nd
Ġ b
Ġt o
Ġ in
a r
l e
i on
i c
e d
r o
Ġo f
a s
Ġ e
en t
Ġ h
Ġ l
c t
e l
Ġ n
u s
o m
Ġ y
Ġ re
Ġt h
Ġ Ð
Ċ Ċ
ĠĠ ĠĠ
Ġ is
e t
Ġy ou
Ġ I
i l
i d
i m
Ð ¾
v e
A M
AM E
N AME
a m
Ġ g
s t
o t
o w
u t
Ġ T
Ġd e
Ð µ
o l
c h
Ġp ro
Ġf or
at ion
Ð °
u n
q u
Ġth at
Ġ NAME
r a
Ġb e
c e
Ñ Ĥ
o d
Ġc on
Ġa n
Ġ he
i g
Ð ¸
Ġs t
i f
o s
Ġa s
a d
Ġ v
u l
Ġ A
it h
Ġ on
a y
. ĊĊ
u r
u m
Ġc om
at e
Ġw ith
Ġ it
es t
er s
i r
Ġ "
g e
Ġ S
l y
Ð¾ Ð
Ġ or
Ġ us
an t
Ñ ģ
Ð ½
ĠĠ Ġ
r i
Ġc an
Ġa l
is t
. Ċ
Ñ Ģ
Ġe x
Ġ C
e m
es s
p e
a b
Ġa re
ĠT he
k e
v er
' s
Ġh a
or t
Ġw h
Ġs u
ou t
re s
Ġ qu
Ġs e
a c
m ent
i v
Ġ en
s e
ct ion
l d
p p
o c
t er
he r
e re
Ġ H
Ġ P
Ġn e
it y
us t
o re
Ġyou r
p t
il l
i z
Ġ im
Ġ le
t h
Ġ (
Ġ r
a ge
p le
Ġn ot
n t
i ve
p l
Ġ un
u re
Ġm e
a in
` `
Ð »
a nd
Ġ =
Ã ©
ic al
u d
id e
Ġ M
Ġc h
ig h
i es
ou ld
am e
Ġ u
Ġ k
or m
Ġ D
Ġa b
en d
in e
ar t
Ġha ve
i e
ou r
p er
i al
ro m
ĠĠĠĠ ĠĠĠ
d u
Ġ E
Ġ B
Ġre s
Ñ ĥ
Ġ W
Ġd o
e x
Ġs h
el l
Ġcon t
f orm
Ð° Ð
e ct
Ġb y
Ġhe r
o g
Ġm a
Ġa t
p ort
Ġ L
Ġcom p
a re
Ġw or
c l
o p
Ġ F
Ġw as
Ġin t
Ñ ı
Ñ ĭ
: Ċ
a ct
Ġp l
ic h
a g
ion s
t her
Ġw e
r y
igh t
u e
al l
Ġ j
Ġth is
ab le
Ġf rom
Ġl a
Ñ Į
Ġ R
Ġd es
i le
i b
an g
0 0
ul t
Ġa d
as s
om e
Ðµ Ð
Ġm y
Ġm od
Ġc l
as e
Ġw ill
Ġ G
in d
ex t
i re
Ġa r
c ess
s o
l ow
ou s
) Ċ
Ġf e
el f
Ġ N
- -
Ġ `
Ġan y
i a
l p
Ġb ut
Ġthe ir
at a
k ing
if ic
Ġa c
Ġ O
an s
Ġhe lp
Ġpro v
ation s
Ġo ther
ĠĠĠĠ ĠĠĠĠ
ou nd
it e
i p
r u
en ce
ĠÐ ¿
ic e
h is
Ġh as
f f
Ġc he
u al
Ġpro du
ar d
ac k
Ġ U
Ġ -
Ð¸ Ð
Ġus e
Ġp er
Ġk n
e p
Ġ Y
Ġs pe
an ce
Ġm ore
Ġm an
v el
: ĊĊ
Ġ out
Ġab out
Ġqu e
o st
in t
ĠI t
Ġ if
at ed
p on
he n
Ñģ ÑĤ
Ġe m
Ġu nd
Ġs o
Ġa pp
k s
i ent
im e
a ch
Ġp re
Ġl i
Ġt e
c es
Ġg o
Ñ ĩ
ar y
Ġs y
Ġin cl
Ġs c
Ġa m
`` `
T he
Ġt r
ig n
od e
ĠÐ ²
ĠÐ ¸
en s
Ġim port
Ġl o
Ġus ed
w er
as t
Ġp ar
Ġwh ich
Ġal so
g h
Ġin d
p ut
Ġs er
Ġmod el
Ġt ra
' t
a ce
Ġin form
Ġthe y
on g
a p
Ð º
Ã ³
Ġd is
Ġc re
ar i
res s
Ġkn ow
b er
ã ģ
f ul
â Ģ
if f
Ġ '
Ġcom m
Ġincl ud
it ion
Ġal l
ĠI n
" ,
ĠT his
on e
Ġ Ñģ
et h
s wer
a v
Ã ¡
Ġsu ch
Ġh is
Ġs he
Ðµ Ð½
or y
Ġas s
Ġit s
Ġ ro
Ġspe c
en er
2 0
; Ċ
Ġp r
c on
l ic
ou gh
Ð ²
t e
Ġqu est
iz e
Ġli ke
g r
a k
Ġu p
Ġd ata
Ġcon s
Ã §
Ġne ed
Ġe v
ĠÐ ½
Ġp os
Ġf un
Ġimport ant
n e
Ã £
st em
Ġm ay
as ed
Ġan swer
1 0
el y
Ð¾Ð ²
Ġe l
Ġwh at
Ã£ o
h at
j ect
Ġw ould
le d
Ġd iff
Ġne w
Ġs ome
Ġ |
Ġn o
Ġ est
Ġ {
a il
m ical
Ġp ers
Ġex am
Ã Ń
' m
u b
Ġ V
Ġt ext
d s
Ġd i
o k
Ġinform ation
ou nt
c ri
at ing
ĠÐ º
ĠY ou
Ġus ing
a ke
Ġres pon
Ġ es
ang u
Ġv al
an ge
Ġs a
Ġh ow
Ġthe m
Ġs elf
ĠÐ ¾
Ġf ol
il ity
Ġre l
Ġp art
Ġs p
Ġprov ide
Ġv ari
Ġp e
Ġn um
I n
Ġ J
Ġa g
ay s
. "
Ġprodu ct
Ġt ime
Ðµ ÑĤ
Ġin st
, Ċ
er m
Ġfe el
f t
" :
Ġst r
ction s
( )
Ġ i
Ġma ke
Ñ ħ
Ġl angu
Ġin ter
Ġthe re
Ġc ould
y th
c i
Ġon e
Ð ´
Ġwh o
a us
Ġd et
n ing
l l
Ġ um
Ġc ol
at er
Ġsy stem
w e
c om
Ġund er
or s
ol og
os e
pe ct
Ġfor m
ent s
an y
Ġg ener
Ġo ver
Ġ Ã
Ġfol low
Ġpers on
Ġche mical
Ġcom ple
Ġad d
g et
Ġim p
y s
Ġb et
Ġpar a
Ġ ke
Ġo b
or d
Ð ¼
Ġlangu age
ment s
Ġm o
Ġin v
Ġ [
ur n
er t
d e
e ar
Ġ ì
Ġ ra
c k
ĠA s
Ġw ant
Ġc ode
ĠÐ ´
ĠH ow
``` Ċ
ing s
it ies
Ġint o
il d
. .
l es
al ly
Ġsh ould
Ð° Ð½
Ġre qu
Ġp h
Ġex per
Ð¾Ð »
yth on
Ġpro cess
ĠÐ ¼
vel op
c ur
le ase
ic t
ib le
Ð ¿
ĠA I
at es
Ð° ÑĤ
l o
ic s
he re
ĠS t
Ġbe en
Ġt y
Ġex pl
Ġof f
s elf
i o
ow n
Ñ İ
Ġg r
Ġ Ċ
Ġh ad
c re
Ġ ent
en c
Ġc o
Ġdiff ere
Ġexam ple
o y
Ġ <
Ðµ ÑĢ
Ġspec ific
Ġat t
p h
a z
Ġw hen
Ð¾ ÑĢ
Ġon ly
Ġa ct
ar k
Ġre t
Ġfun ction
ch n
r ite
on t
ĠĠĠĠ ĠĠĠĠĠĠĠ
Ø §
Ġe ach
at h
Ġinclud ing
pt ion
Ġs ol
Ã³ n
he s
ar m
Ġ z
Ġ ÑĤ
Ġde velop
Ġcomp any
Ġb ased
Ġe ff
n g
Ġ K
ow er
at ive
ist ant
ĠH e
Ġser v
re e
Ġprov id
ad e
ro w
r it
ra ct
gr am
Ġtr ans
Ġs et
Ġ Ã©
Ġth an
Ġde f
i qu
Ġ{ Ċ
Ġthe n
le ct
Ġj ust
is s
ot h
ic es
u res
st and
pp ort
Ð¸ ÑĤ
-- --
is e
ir st
ĠÐ¿ ÑĢ
Ġw ay
ust om
Ġg et
ĠS he
Ġwor k
Ð¾Ð ¼
Ġd el
ul ar
Ġ Ñ
o ple
Ġch ar
Ġs m
d er
Ġb el
Ġb u
Ġle t
' re
r ough
al ity
od y
Ġl ist
er y
l i
Ġ +
Ġc or
Ġst art
b e
Ġh igh
Ġcon f
o od
Ġre g
ar ch
um ent
ĠI f
e ver
Ġpl ay
ic k
id ent
Ð½ Ñĭ
Ġre m
Ġh um
is h
et y
g g
Ġb l
Ġre f
Ġe t
Ð¾ ÑĤ
Ġd on
Ġa p
Ġw ere
w or
t en
Ġdiffere nt
Ġf in
u es
Ġm ust
Ġp o
Ġt w
Ġpro gram
Ġs ay
Ġte chn
Ġind ust
Ġha nd
Ġ ÑĢ
oc k
à ¸
Ġpe ople
Ġs ent
Ġh im
an c
Ġnum ber
Ġfollow ing
# #
Ġunder stand
1 2
b le
Ġa v
) ĊĊ
t o
Ã§ Ã£o
Ð¾Ð ´
Ġcre ate
Ġpos s
w n
' ,
ro p
Ġw ell
aus e
t ic
Ġquest ions
v ers
t ing
re at
Ġc ur
g an
Ġs im
Ġexper i
Ġc ustom
Ġ /
Ġth rough
Ñ Ī
Ġle ar
ad o
ĠH ere
Ġproduct s
Ġp ol
Ġthe se
Ġsu b
en e
Ġun a
Ð¾Ð ³
e c
we en
E R
Ð ·
p r
1 9
Ġpro m
en g
Ġbet ween
Ġb est
f ore
if y
Ġs k
al e
v es
Ġf il
i ous
al s
Ġse e
Ġf irst
Ġn ame
Ñ Ĩ
Ġc al
Ð°Ð º
p en
ã Ĥ
ĠC h
un g
Ġf ind
Ġret urn
Ðµ Ð»
Ġtra in
n er
i ed
> Ċ
it s
" Ċ
Ġb o
Ġde p
Ġal low
Ġwor ld
Ġre c
Ġm eth
Ġde c
in k
v ed
Ġquest ion
Ġtw o
i el
Ġ er
um m
i an
he d
Ð¸ Ñı
Ð ±
Ġs om
Ġ our
v ing
Ġm ost
ent ial
Ġ }
Ġb ack
Ġc ar
Ġwor ds
Ù Ħ
Ð½ Ð¾
Ġchar act
Ġf act
Ġdes ign
Ġdes cri
Ġst ate
Y ou
o b
Ġex p
Ġf ile
t y
Ã ª
Ġbe c
v ent
Ġre p
i x
res ent
Ġs ame
Ġres ult
Ġp ot
< /
Ð° Ð»
if e
ĠÐ ±
re nt
Ġm ed
Ġr ange
Ġ ë
iv id
er n
i Ã³n
Ġmeth od
Ġw here
r ing
ur al
ĠR e
in es
ag es
Ġac c
Ġbe ing
u p
A N
Ġcl ass
Ġe ver
Ġp ower
Ġke y
Ġcont in
ut ion
1 1
Ã ¼
Ġa ut
= "
Ġg ra
Ġy ear
ur ing
h ip
Ġt ake
Ġs ur
Ġ *
Ġ #
Ġg u
w are
Ġman y
n o
Ġle ad
Ġst ep
Ġgo od
Ġl oc
al th
ĠThe y
S T
? Ċ
Ġhe re
Ġcons id
20 2
ie w
Ã ¤
Ġen s
Ġapp lic
Ġwh ile
ĠHow ever
Ġs oc
n ess
Ġm at
= =
Ġin s
Ġag ain
Ġsu pport
Ġper form
c o
iz ed
n ot
Ġ il
Ġd a
ro s
ri end
w ays
Ġs ign
ic ult
Ġrespon s
re d
ion al
Ġre al
( "
a x
ĠÐ ·
am ent
as k
ere d
ĠÐ½ Ð°
ì Ŀ
Ġt ry
u nd
Ġus er
ere n
5 0
Ġo wn
Ġ x
ĠW hat
at ure
. s
er g
oc ument
Ġb re
ro l
Ġd own
en ces
d ition
i er
ÐµÐ ¼
t s
Ġb ody
_ _
it ed
Ġm ain
on s
re n
iqu e
y l
ter n
) ,
Ġinv ol
f ter
en se
Ġt em
re ct
ĠA d
ic a
à ¤
Ġp ass
Ġdo es
Ġen g
ri b
ĠĠĠĠĠĠĠĠ ĠĠĠĠĠĠĠĠ
eth ing
ol d
u c
Ġindust ry
it t
Ġd ire
e w
) ;Ċ
Ġin put
ĠP ro
Ġl ar
iv en
ou p
Ġin f
Ġal ways
Ġ $
Ġout put
Ġb oth
ir on
o ve
Ġl ong
Ġsa f
Ġimp ro
Ġe le
Ġval ue
Ġ ut
ru ct
Ġprodu ction
Ġpro per
Ġg ame
Ġl os
Ġen v
Ġsom ething
Ġpro f
Ġex t
d ay
Ġc ap
Ġe qu
Ġm in
Ġst ud
Ġob ject
u ed
ĠU n
ical ly
S t
u ch
b o
Ġf l
Ġ Ñĥ
Ð¸ Ðµ
Ġan al
in ess
Ġb us
Ġt est
Ð¸Ð ¼
Ġd ie
A s
, "
ab ility
Ġrequ ire
Ġ ide
âĢ Ļ
Ð ³
Ġ Ñĩ
Ġwe b
ad a
\ _
ĠD e
iz ation
Ġto p
Ġum a
Ġf r
Ġhum an
u ra
c ul
Ð°ÑĤ ÑĮ
. p
Ð¾Ð ½
w ard
Ġp ur
ÐµÐ ´
v al
x t
Ġre se
us s
it ive
Ġpl an
il y
2 00
ĠĠĠĠ Ġ
iv ers
o ice
Ġty p
olog y
ã ĥ
Ġs umm
a ve
Ġd at
pl es
Ġre ad
Ġr un
ell o
ut e
Ġinst ru
) :Ċ
Ġd ist
Ð¾Ð ¹
Ġinclud e
Ġdep end
ce pt
Ġha pp
Ġbe fore
m s
Ġhe alth
Ġen d
Ġsh ow
ark et
ĠW e
ater ial
Ġab le
iv es
s er
Ġs it
ul l
Ġcon st
Ġty pe
g in
Ð» Ñı
Ġdet erm
Ġvari ous
i or
Ġl ife
Ð¾Ð ±
oc us
1 00
Ġm em
ual ly
ÑĤ Ð¾
Ġknow n
Ġm on
Ġ Ø
Ġass ist
Ġcont ent
ion e
ot e
Ġbu ild
Ġf ound
Ġeff ect
u f
Ġpot ential
Ġcomm un
P T
Ġ ident
Ñģ Ðº
Ġ Q
ĠP ython
Ġposs ible
Ġind ivid
ĠA n
Ġac cess
Ġd er
Ġenv iron
S S
å ®
. d
) .
Ð°Ð ²
ĠC om
wor k
Ġad v
í ķ
ac iÃ³n
Ġr ight
a ction
Ġv is
Ù ħ
an k
l ine
Ð°Ð ·
Ð¾Ð ¶
' ll
Ġd ocument
Ġperson al
Ñ ī
im ent
Ġcomm and
Ġut il
Ġal g
a pp
Ġas k
Ġcont ext
ate g
and o
", Ċ
Ġens ure
Ð» Ð¸
Ġo per
ĠF or
ã Ģ
] Ċ
ot her
Ġbe h
Ġd ay
Ġres pect
Ġindivid ual
our ces
Ġl es
Ġcharact er
I t
O N
Ġw om
Ġo pt
a ut
Ġv ers
t a
- b
Ġ :
Ġr is
1 3
Ġcont rol
re am
Ġm ess
m er
Ġn ow
1 5
Ġso ft
Ġcur rent
ĠÃ ł
Ġcom o
Ġp at
c he
Ġc le
im port
Ġf ocus
Ġf riend
Ð°Ð ¼
t on
Ġrespon se
Ġin cre
Ñģ Ñı
Ġt erm
T his
in a
Ġp or
Ġse x
ĠT o
Ġcomple t
Ġdevelop ment
b ers
Ġo pen
- t
Ġto ol
Ġm aterial
in ed
Ġpro ble
Ġev en
ĠU S
Ã ¶
Ġor gan
at or
Ġs or
c ed
ï ¼
Ġenviron ment
Ð¸ Ð½
Ġar t
Ġg ive
Ġc ount
re ad
ar s
Ġpo int
as ure
p o
e g
t t
p os
u g
h o
Ġass istant
- s
Ġsu re
Ġst ory
Ù Ĭ
Ġcon c
Ġp op
Ġm ade
Ġte am
Ġact iv
r ic
Ġst and
Ġlear ning
pl ay
Ġgener ate
Ġde m
ere st
Ġrese arch
Ġp ri
Ð ¶
ĠE x
Ġ ve
Ġp lease
u x
a h
Ġc are
Ġcom e
Ġbel ie
Ġ ed
Ġh ist
in al
Ġcomp ut
Ġimpro ve
is m
ub lic
Ġf am
1 4
ation al
p s
iel d
v en
rop ri
Ð¾Ð» ÑĮ
l ing
Ġm et
3 0
Ġar ound
Ġh o
Ġwith out
Ġsm all
ri es
r or
ent ion
Ġgr oup
Ġconsid er
Ġv er
Ġcont ain
Ġever y
us er
Ġg row
as h
Ġstr ong
at her
Ġdis c
Ġm arket
Ġpart ic
/ /
ro du
et s
ra y
ÐµÐ º
Ġapp ro
b re
Ġexperi ence
Ġ âĢ
Ġsor ry
as es
y es
Ġpro ject
Ġinstru ctions
ĠÑ į
z e
at o
in ation
00 0
Ġd id
Ġab ility
Ġadd ition
." ĊĊ
am es
a king
Ġn et
Ġlo ve
ert ain
th ing
Ġm us
Ġ \
å® ĥ
Ġl ib
( )Ċ
a ir
Ã ł
Ġpr int
Ġsy nt
p ar
Ġen erg
1 6
Ġa fter
Ġbus iness
id ad
Ġint erest
n ame
Ġre du
Ġany thing
Ġv ery
at ures
Ġe in
Ġsa id
Ġh y
Ġ ĊĊ
em ent
d ate
1 8
m ed
Ġm ult
Ð ¹
Ġen c
if ied
e ad
il ities
h a
Ġcomple x
ÑģÑĤ Ð²
ĠS e
ð Ł
o id
Ġt ak
i k
ab el
Ġw ide
Ġlar ge
on d
Ġde v
a Ã§Ã£o
Ù Ī
Ġl im
our ce
; ĊĊ
Ġrel ations
Ġme an
Ġother s
Ġneed s
Ġrequ est
Ġyear s
ropri ate
Ġle g
ĠI s
at t
ä ¸
y r
I N
---- ----
1 7
ple ment
Ø§ ÙĦ
á »
Ġt al
an n
Ġma king
20 1
Ġw rite
m e
Ġsoc ial
Ġagain st
ĠThe re
um n
Ġcor rect
Ġ .
Ġle vel
p re
Ġpro t
us ion
Ã º
Ġsumm ary
in s
Ġav ail
o king
Ñ ĸ
h y
Ġ ess
at ch
Ġis s
2 5
Ġm ight
Ã µ
n c
enc y
it al
Ġdire ct
gg est
ĠA l
Ġm uch
l u
Ġp our
Ġim age
Ã ¨
Ġbet ter
Ġin c
Ġcon vers
Ãµ es
( self
z a
ant s
ë ĭ
com m
at iv
Ġpl ace
Ġel se
ä »
Ġsign ific
Ġrelations hip
Ġbec ause
Ġlo ok
Ġse ver
Ġprom pt
Ð¸Ð ²
Ġvari ety
Ġapplic ations
Ð¾ Ñģ
h or
t r
Ġph ys
Ġg iven
Ġro le
b ot
u est
I ST
Ġ ou
ir l
Ġw rit
pe c
ĉ ĉ
v iew
Ġqu ality
ĠS ure
is ion
Ġsu c
Ġserv ices
- p
t ain
Ġn on
at ural
Ġth ink
Ġt re
Ġdiff icult
Ġof ten
âĢ ¢
Ġhe ad
Ġinv est
## #
Ġsu ggest
Ġc ent
le v
Ġex c
Ġc aus
Ġst ill
Ġke ep
Ġs ense
Ġre st
Ġenerg y
ass istant
ÑĢ Ñĥ
n ce
Ġcan not
Ġsever al
Ġp res
at ely
Ġne cess
Ġo s
ic i
Ġne ver
Ġre pe
Ġne xt
d ing
Ġsit u
pl oy
Ġf ut
ĠÐ½ Ðµ
Ġc a
Ð¸Ð º
Ġz u
er c
ÐµÐ ¹
Ð¸ Ð¸
Ġt ell
Ġs ens
Ġb r
Ġto day
con d
Ġimp act
Ġw ater
t d
Ġma ch
Ġe as
Ù Ĩ
Ġtrain ing
r ame
AN T
Ġcomm on
Ġprovid ed
Ġl ine
ĠÐ¾ Ð±
Ġlear n
as ks
it ions
Ñ Ħ
i ence
Ġ/ /
- d
ĠM y
* *
Ġnot e
Ġcons ist
Ġserv ice
Ġl og
cri pt
Ġh arm
ch o
P I
Ġcustom er
Ġm ind
Ġs al
Ġavail able
Ġth ough
Ġman age
- m
' :
u le
y le
Ġch ang
Ð¾ ÑģÑĤ
Ġc ult
ic ient
Ġc am
ill s
ind ow
Ġsoft ware
( '
Ġ ê
ad os
em ber
Ġse g
ver t
Ġp ract
Ġdesign ed
i en
i um
Ġp ued
led ge
Ġ| Ċ
Ġperform ance
Ġform at
c ol
ic ation
Ġs l
r on
Ġprof ess
Ġmess age
Ġme et
pr int
Ġstr ing
Ġg reat
Ġval ues
Ġfe w
Ġutil iz
() `
Ġw id
I f
ĠN o
g o
" .
ĠÐ °
Ġd u
Ġim plement
Ñģ Ð¿
Ġar tic
Ġmo ve
l ess
d iv
Ġbel ow
Ġc ost
a it
Ġbeh av
Ġs end
Ġto get
Ġe yes
Ġtoget her
A T
Ġch all
Ġstep s
Ð° ÑĢ
Ġinter n
Ġf ree
ĠB ut
d en
ud e
Ġmodel s
a i
in ce
Ġproble m
Ø§ Ø
Ġch at
IST ANT
Ġar g
Ġp le
ĠP lease
l ish
Ð¸ÑĤ ÑĮ
} Ċ
> <
od el
ĠC on
ÐµÐ½ Ð¸Ñı
Ġch o
ĠC an
Ġor der
r al
Ġt asks
Ġ Z
ĠÐ ³
Ġs on
Ġc r
Ġ Ñı
Ġexp ress
w ay
are d
m ing
- f
Ð¾Ð³ Ð¾
c er
ra ph
Ġexam ples
Ġv oc
Ã© s
ĠÐ¾ ÑĤ
ĠC he
Ġl ight
Ġ} Ċ
Ġf ac
Ð¸Ð ¹
W hat
? ĊĊ
p ro
Ġe ar
Ġsystem s
ĠB e
a j
Ġp ublic
ri pt
ĠA nd
Ġm om
p ython
im es
ĠT h
Ġspec ial
Ġ ``
Ġrespons es
el t
ir t
Ġgo ing
.. .
L E
ĠÐ² Ñĭ
ĠĠĠĠĠĠĠĠ ĠĠĠĠĠĠĠ
d o
y stem
Ð½ Ð°
Ġrep resent
Ġwor d
Ġsh ort
ra in
Ġf ood
Ġ Â
Ġam ount
Ġfe atures
Ġn atural
g er
ĠY es
' ve
id ence
ĠI nd
ail s
Ġg re
n ect
Ġun ique
Ġmult i
_ d
Ġv ide
SS ISTANT
Ġst re
Ġne g
Ã§ Ãµes
Ð¾Ð ·
Ġtechn ology
Ġc ase
ĠT r
s p
Ġch ange
Ġsent ence
f or
cur ity
ch ie
_ t
it le
ĠA r
Ġev ent
l or
å ı
Ġcom b
er v
Ġm en
Ġt ask
m b
ĠL et
ĠA SSISTANT
ou se
ĠU se
Ġunderstand ing
A R
ile d
Ġg irl
Ġs ize
Ġinvol ves
B ut
Ġ Î
Ġs ing
e k
ĠThe se
Ġfeel ing
j oy
id o
ĠC re
Ġs i
Ġh ard
Ġth ings
dition ally
Ð° Ñģ
ĠÐ »
Ġl as
O ver
ruct ure
Ġhelp ful
Ġapp ropriate
Ġto o
Ġf ore
Ġcontin ue
itt le
ys is
con om
ct or
Ġt ri
_ s
ĠD o
T o
cur ate
Ġn a
Ġcle ar
Ġcon d
Ġfin al
Ġknow ledge
Ġp resent
er ing
ĠÐ´ Ð»Ñı
Ġus es
W rite
ĠH ello
p or
Ġcomplet ion
Ġsc ript
Ġa ff
Ġlib r
Ġcomple te
ant e
Ġc all
Ġt able
Ġ Ø§ÙĦ
Ġsuc cess
Ġex ec
Ð¾ÑĤ Ð¾ÑĢ
Ð¾Ð º
Ġcomp ound
Ã¡ s
Ġo ld
. g
Ġcl ient
ag ing
Ġcal led
E N
Ġo p
id a
Ġalg or
Ġis t
ros s
Ġcol umn
Ġt u
t il
ĠC l
Ġd uring
Ġme ans
Ġcustom ers
? "
Ġ X
it or
iqu es
Ġg l
== ==
Ġb as
i res
am ed
Ġ --
ab les
Ġf ield
a is
ic o
Ġex ist
Ġse cond
Ġfut ure
Ġmach ine
at form
Ġp ython
o f
ar ing
our s
qu e
." Ċ
il ar
. ,
Ġch ild
ar get
c c
ou n
am b
Ġp ort
Ġd ri
Ġbehav ior
] ,
Ġus ers
ĠÐ µ
ĠUS ER
" )Ċ
or n
c ing
Ġe lect
Ġprovid ing
Ð¸Ð ·
Ġche ck
Ġhapp y
og n
Ġallow s
ra nd
Ġd en
Ġli k
el s
Ð¸ Ð»
Ġprovid es
c y
Ġcal cul
am ple
Ġ ,
Ġnet work
Ġsignific ant
Ġde ep
an ces
ĠL a
Ð½Ñĭ Ñħ
ĠE ng
us h
w ord
Ġdisc uss
ell ig
ĠE n
ard s
le g
at ic
o x
Ġgener al
Ġh ome
ire d
Ġpre v
Ġen joy
Ġf ace
Ġwith in
Ġsynt hes
Ġan other
Ġc ertain
Ġd ra
Ġvoc Ãª
Ġsk ills
ri e
Ġth ree
Ġadd ress
ĠÃ ¨
P lease
Ġmaterial s
Ġf ur
le t
Ġem ot
ut ions
Ġd om
Ġcould n
ific ation
Ġl ittle
is hed
Ġpop ular
Ġv oice
Ġsc ient
ĠC o
Ġweb s
Ġth ing
ar r
ci Ã³n
Ġalgor ith
Ġho pe
Ð¸ Ñģ
ver n
Ġ ÑģÑĤ
ĠW ith
R E
Ġre ce
Ġide a
Ġ= =
Ġlo oking
Ð¸ Ñĩ
end er
Ġchall eng
f ort
O b
Ġa chie
p ose
w s
Ġartic le
ĠD es
Ð°Ð ´
ĠÐº Ð¾ÑĤÐ¾ÑĢ
Ġper m
Ġs at
Ġkn ew
Ġv i
Ġsaf ety
iv ing
or ies
Ġse arch
Ġth ose
Ġs ist
Ġe th
Ġap pe
id ade
m a
Ġcl os
c a
âĢ Ŀ
Ġfact ors
as on
Ġacc ount
Ġcol or
n a
G PT
I D
Ġl ast
Ġpri v
2 4
Ġd as
b al
ĠP l
no v
ĠI m
de f
x im
Ġbe aut
pl ic
Ġro om
am et
un a
Ġan im
d ict
Ã¼ r
Ġp a
Ġbuild ing
ä ½
st r
Ġb i
Ġ &
Ġes pec
Ġpos itive
Ġl ay
Ġres ources
Ġem b
Ġor ig
Ġphys ical
Ø ±
Ġb ene
ust ain
v ol
. c
E x
Ġconsist ent
as ter
Ð¸ Ñħ
C h
t ext
Ġtak es
Ġan t
Ġdeterm ine
Ġsome one
Ġp ode
d ro
ĠAd ditionally
comm end
Ġpl atform
ĠS h
Ġc ause
Ġpower ful
em s
Ð°Ð ¿
Ġwom an
ou d
Ġpre f
Ġsim ple
Ġt reat
Ġac id
Ġvers ion
Ġwor king
Ġd ig
Ġc u
Ġtyp ically
ir d
Ġopt ions
Ġr ate
Ġgu id
ĠIn st
Ġre lev
um e
Ġtrain ed
a ctions
Ġun e
Ø ª
Ġsaf e
ul ation
un t
c le
ight s
Ġa ud
Ġtr ue
Ġc ity
Ġe conom
ÃŃ a
Ġw ays
n um
m in
Ġfriend s
Ġc at
Ġd ate
Ġre action
ab or
Ġsent ences
Ġexpl ain
Ġp od
Ġanal ysis
ward s
Ġcomput er
Ġindividual s
Ġle ft
Ġv ol
ĠS o
Ġm ot
Ġple asure
_ f
Over all
oc i
l a
Ð¸ ÑĢ
Ð°Ð ±
Ġint e
o ks
il i
à ¦
Ġt er
Ġbec ome
Ġt urn
Ġh ab
Ġnum bers
ip s
ĠG o
Ġanal y
A n
Ġconc ern
Ġf re
\ n
pect ed
Ġpol it
im ate
u gh
Ġj o
Ġapplic ation
Ġma g
anc ial
ãĢ Ĥ
ĠA PI
Ġprot ect
Ġm ar
eng th
Ġprev ious
W e
ore d
o res
Ġp ress
Ġre d
Ġre commend
f ace
g en
Ð½Ð¾ ÑģÑĤ
Ġinclud es
Ġcharact ers
Ġf elt
Ġap olog
ent e
2 3
Ġs w
e e
Ġref er
Ġhe art
Ġchemical s
Ġinst all
ist ic
ĠÐ¼ Ð¾Ð¶
Ġmom ent
_ m
Ġbe gin
H ere
Ġs n
ĠÑĩ ÑĤÐ¾
Ġb ro
Ġs ustain
: //
Ð¾Ð»ÑĮ Ð·
Ġh ig
Ġab ove
ul es
it o
Ġstr ateg
Ġl ess
ell a
Ġnecess ary
ĠÐ± Ñĭ
Ġvide o
Ġsu per
Ġw ar
u ro
Ġin it
H ow
Ġident ify
Ġappro ach
Ġj ob
gr ound
ĠR es
Ġs em
Ð° ÑĨ
Ġallow ed
Ġsing le
Ġp ack
Ġw al
Ð¾Ð ¿
s h
Ġsitu ation
il it
Ġto t
p y
Ð°Ð ¹
Ä ±
Ġtool s
Ġwh y
O R
Ġp ay
Ġtyp es
a iled
F rame
ĠÑ Ħ
b ack
med i
ang er
s on
ist s
Ġ ?
iss ion
ÑĤ ÑĮ
Ġk ind
Ã ±
Ġl ot
Ġtry ing
Ġo ption
eren ce
Ġt k
ç ļ
y m
Ġloc al
Ġre port
ï¼ Į
ib ility
Ġrel ated
4 0
ich t
Ġcon cept
Ġb ase
Ñĥ Ñİ
Ġb it
Ġac curate
Ġp ain
al y
ĠS ome
Ġa ir
Ġt arget
i pp
C T
ĠCre ate
Ġm or
l and
Ġqu i
Ġhist ory
r am
Ġbene f
Ġfur ther
g s
Ġyour self
ut ical
Ġfam ily
anc ed
çļ Ħ
k es
Ġstate ment
Ġpr in
2 2
iv ed
arm ace
cho ol
ament e
al se
Ġj e
Ġl ow
ĠS p
Ġgo vern
- c
armace utical
Ġint rodu
Ġpos ition
ar ies
pport un
Ġresult s
Ð°Ð ¶
y n
Ġind ic
b l
al u
i ver
ĠÐº Ð°Ðº
Ġsim ilar
iv ely
Ġso bre
x ic
Ġsp ace
Ð° ÐµÑĤ
iv o
Ġse lect
ÐµÐ½ Ð¸Ðµ
uf act
Ġfil led
Ġpartic ular
Ð½Ñĭ Ðµ
Ġprogram ming
Ġmanage ment
Ġav oid
Ġ ×
ĠT e
am p
Ġn amed
er o
Ðµ Ñģ
Ġaut om
Ġcon nect
Ġeff icient
a im
ĠD ata
ut es
Ġon line
ro ll
ru ction
Ġf ul
Ð¾ Ñĩ
e y
ÐµÐ» ÑĮ
ĠW h
ĠAs s
Ġare a
Ø ¯
Ġlibr ary
Î ±
Ġcomp on
Ġc our
Ġint ellig
Ġma is
Ġf o
Ġev idence
Ġse curity
Ġsu pp
Ġs ound
Ġrespon d
Ġv on
Ġpr im
j et
ĠI nt
Ġeng ine
r as
Ġrelev ant
Ġconvers ation
pl ace
ì Ĺ
Ġv iew
is ed
v as
ĠÐ Ĵ
Ġw he
id es
Ġa ction
Ġn Ã£o
Ġiss ues
Ġapolog ize
m at
Ġdepend ing
Ġf em
ra d
er a
ne w
s s
Ġs ource
av a
m o
Ġr out
he ad
6 0
Ġfin ancial
_ l
. com
Ġd ue
un e
Ġopt im
Ġest ab
Ġs ources
iff icult
Ġhelp s
Ġele ment
y our
Ġsex ual
Ġtot al
Ġmulti ple
Ġar ch
ari o
âĢĻ s
Ġc rit
Ġris k
ion es
Ġsh are
Ġconsid ered
Ġo pportun
ë Ĭ
m y
Ġchang es
Ġpre c
ar a
ou ra
ifficult y
is f
Ġa ctions
c hes
Ġin nov
Ġexpl ore
Ġmean ing
Ġsynthes is
t ies
3 2
in ter
Ġactiv ities
ur s
Ñĥ Ñĩ
Ġconf ig
Ġn ight
ivers e
ag er
Ġprofess ional
Ġev alu
ĠC ont
A L
it er
om b
ĠL e
du ct
ĠO pen
Ġimportant e
Ġaddition al
Ð°Ð» ÑĮ
in o
R e
Ġb ot
R O
or ing
d f
Ġdescri ption
N o
Ġmain tain
j ust
Ġtem per
iz ing
qu ality
Ġcre ating
us e
Ù ĩ
Ġman ufact
ĠW or
ict ion
Ġgo als
ort h
ĠÐ¸ Ð·
f rom
Ġev ents
b r
os s
Ġredu ce
az ione
Ġar ray
g ress
á º
Ð¾Ð² Ð°Ð½
Ġlik ely
Ġt ou
Ġf ull
Ġg e
og le
ĠY our
Ġinf lu
Ġlead ing
Ġbelie ve
A I
Ġcount ry
a f
Ġpre dict
Ġp ost
Ġ >
Ġplay er
. t
Ġg en
Ġp as
Ġd est
O ne
Ġins ide
ĠÐ ŀ
Ġtal k
Ġatt ack
Ġm ix
Ġmethod s
Ġm ent
i os
à ¹
ĠW hen
Ġqu al
an e
ens ive
Ġer ror
ĠÑĢ Ð°Ð·
ĠÑĤ Ð°Ðº
Ã© m
ãģ ®
itt ed
Ġto xic
Ġc ir
åı ¯
ÐµÐ ³
Ġun til
ĠÐ Ł
b ody
' d
s ide
ĠÐ¸ ÑģÐ¿
Ġpol ic
ad d
Ġc ell
Ġem ploy
Ġsub ject
ver age
ĠÑģ Ð²
k t
Ġwebs ite
Ġpro te
ĠâĢ ľ
Ġb ig
` ,
L M
s et
ëĭ ¤
Ġra nd
Ġst ructure
re m
Ġtechn iques
Ġa way
enc ed
Ġdet ails
ĠG PT
Ġst yle
Ġrequire ments
Ġed uc
Ġn orm
Ġent re
ÐµÐ½ ÑĤ
Ã© c
lo ad
Ġe ine
ers on
h r
w w
Ã¡ ri
Ġide as
Ġhand s
as ing
} ĊĊ
re nd
one y
Ġph armaceutical
Ġser ies
Ġpar amet
0 1
Ġbo ok
Ñĥ ÑĤ
u ck
Ġch oice
are nt
ri ed
Ġdis play
Ġst at
Ġpat tern
j or
Ġp ut
Ġqu ick
: :
ac es
om s
Ġrand om
ab ase
> </
um an
ke y
Ġcomp an
Ġma kes
ne y
Ġd anger
Ġw on
Ġc e
Ġscient ific
Ġhand le
Ġbre ak
f ect
S E
2 1
m l
em pl
Ġbl ack
E n
k en
Ġwrit ing
Ġqu ery
Ġyou ng
Ġwh ite
ial og
Ġem p
ãĢ ģ
8 0
Ġrun ning
Ġ à¤
l t
Ġneed ed
i ra
out h
Ġrec ogn
Ġrem ember
Ġpat ient
Ġvari able
F or
Ġest Ã¡
Ġs ince
Ġcomp et
Ġharm ful
r ation
Ġp ast
Ð° Ñı
C om
av or
il es
Ġ í
ëĬ Ķ
ĠP r
] ĊĊ
Ġstre ng
Ġchalleng es
g es
. m
ĠE m
Ġcont rib
Ġlim it
T h
um ents
Ġm it
le ction
. l
Ġcond itions
if ul
e ction
C l
c hen
ry pt
Ġrequire d
Ġser ver
st ream
Ġha ving
-b ased
Ġoff er
Ġtr ust
Ġcomm it
Ġs chool
Ġfact ually
Ġsoc i
Ġwor ks
ar c
Ġdo ing
Ġp en
id er
Ġtrans form
Ġstud y
ig o
in it
ific ial
Ġpur pose
Ġj our
Ġdist rib
iz es
ĠÐ¸ Ð½
à ¥
Ġsat isf
. get
_ p
) :
Ġrepe at
Ġm ass
Ġass oci
ac y
Q L
con t
H ello
Ġqu ant
Ġp ath
e ch
Ġv ary
ĠC hat
.s ize
c ome
Ġmo v
in king
ul a
ion i
- quality
Ġn ames
ament o
il t
ĠE st
Ġc Ã³
Ġd one
. j
Ġsk in
Ġneg ative
Ġprocess ing
ic it
Ġg ot
C ont
Ġterm s
Ġo c
tt ps
ÐµÐ ·
ĠÐ¸ÑģÐ¿ Ð¾Ð»ÑĮÐ·
n et
å®ĥ å®ĥ
Ø ©
Ġst ay
Ġstate ments
Ġf low
Ġan s
eth yl
i od
Ġbl ock
a pt
Ġwhe ther
l am
Ġsu a
w rite
ic una
ĠO r
Ġele ments
Ġ ing
Ġfil es
k ay
Ġincre ase
ĠÐºÐ¾ÑĤÐ¾ÑĢ Ñĭ
Ġdescri be
Ġs un
{ Ċ
a u
Ġ Ï
Ġcon se
av ig
Ġfr ame
Ġhigh ly
Ġgo al
Ġorig inal
Ġp u
Ġrespect ful
Ġstart ed
o per
in ally
Ġread y
Ġh old
id ine
at s
Ġs ide
Ġto wards
3 3
Ġ â
Ġf und
A nd
Ġt aking
Ã§ a
Ġeng age
. NAME
Ġb ed
ìĿ ´
Ġequ ip
p a
ĠUn ited
ê ³
Ġloc ated
ord ing
Ðº Ð¸
le ep
2 8
Ġl and
. f
) )
Ġcon ne
Ġmon th
Ġd os
cur s
Ġpoint s
Ġall ies
ÐµÐ ²
Ġst op
[ '
Ġa uf
" ĊĊ
S o
Ġsol ution
Ġm ention
b y
Ġmin im
Ġdat as
nc ia
Ġtop ic
Ġcl aim
if t
Ġt imes
eren ces
Ġw ait
s el
Ġwom en
Ġme asure
Ġstart ing
Ġexperi ences
Ġachie ve
Ġf Ã¼r
t re
N ame
Ġup d
Ġvi ol
in put
Ð¿ ÑĢ
P ro
end o
Ġpre vent
Ġmus ic
u i
Ġd ru
\_ \_
Ġloc ation
Ob j
f s
Ġb ring
Ġdid n
sp an
ĠP h
Ġde b
Ġexper t
íķ ĺ
ĠEng lish
Ġl at
Ġfeel ings
ĠCh ina
Ġh ot
ĠL td
A d
j a
Ġst ri
Ġd ed
Ġd r
Ġbeaut iful
v a
Ġrem ain
u it
Ġre view
ĠM an
ĠÐ ļ
Ġse par
Ġgrow th
le x
ĠA pp
ÐµÐ ±
Î ¹
Ġcontain s
Ġinte gr
c ure
4 5
Ġcho ose
Ġv ous
Ġatt ention
al es
ful ly
ĠÐ¿ Ð¾
Ġcol l
Î ¿
Ġg lo
Ġstreng th
Ġthough t
c ent
uest ion
g re
Ġn ature
ĠF r
Ġindust ries
Ġval id
Y our
in ing
Ġf lo
Ġproper ties
Ġcon cl
Ġm is
Ġconcern s
Ġca pt
Ð½Ñĭ Ð¼
f er
o ad
ut put
ir m
it ect
2 6
Ñĥ Ð´
z y
st er
S ON
ì Ħ
ic ro
bo x
C on
Ġw arm
ĠChe mical
Ġre ach
f ile
Ġas pect
ill ion
Ð½Ñĭ Ð¹
l ished
Ġc as
Ġpro p
E T
M L
Ġe at
Ð½ Ð¾Ð¹
Ġcre ated
Ġeas y
Ġwid ely
Ġst ore
Ġd am
m et
ad as
Ġro ot
Ġd iv
Ðº Ð°
Ġpr ice
Ġdanger ous
Ġmed ical
19 9
Ġhy dro
it ing
res pon
Ġh ours
Ġmed ia
Ġeffect ive
Ġre ally
Ġaut hor
Ġlo op
Ġgra ph
co ver
ĠÑģ Ð»
ent ly
Ġ ðŁ
Ġintellig ence
Ġsol utions
I T
og raph
an a
Ġreg ul
en ing
ĠÐ¼ Ð¾Ð³
Ġim m
at ory
Y es
E S
b ed
ep end
5 00
on es
it es
st ring
l er
Ġcommun ication
a Ã§Ãµes
Ġha ir
ĠÐ¿ÑĢ Ð¾
``` ĊĊ
ĠB y
ìĿ Ħ
Ġd ays
Ġpres ence
Ðµ Ñĩ
' ]
ĠE s
Ġgovern ment
ĠS ie
Ġext ract
Ġcl ose
n Ã©
Ġspe ed
olog ies
val ue
Ġtrans l
Ġinc or
Ġhist or
Ġd ass
Ġn avig
Ġtop ics
Ġst e
() ĊĊ
Ġeth ical
+ +
Ġreturn s
ty pe
_ c
ol l
Ġre ason
ĠDe f
Ġcom fort
os p
Ġart ificial
ĠÐ¼Ð¾Ð¶ ÐµÑĤ
r ong
.. ..
Ġr Ã©
P U
Ġa ge
Ġsc ene
Ġare as
Ġdec ision
å Ĳ
Ġdescri pt
y pe
ab ilities
ä» ¥
ä½ ł
Ġdec is
Ġsu it
Ð° Ñİ
ĠS et
Ġf it
Ġmat ch
Ġp i
att le
Ġprodu ce
ĠÐ ¡
I C
Ġt i
Ġdat abase
pp ed
Ġbe gan
Ġse qu
an o
Ġph r
un ction
oun ter
h t
end ed
Ġd ans
ment e
A A
Ġtou ch
æ Ī
j ud
Ġm other
ĠA mer
Ðµ ÑģÑĤ
Ġiss ue
ic as
Ġget ting
Ġst ru
ĠE l
Ġalgorith m
Ġcompan ies
ãģ Ļ
Ġinit ial
Ġrespons ible
ĠO ne
Å Ĥ
en z
Ġpri or
cl ass
Ġro bot
ĠA m
Ġpart ner
Ġ" [
d ata
pp ing
ĠĠ Ċ
Ġoff ers
Ġbre ath
Ġleg al
2 7
ÑĢ Ð°
ig ure
Ġet c
Ġinst ead
ic ate
Ġ ich
Ġdes ire
Ġrelationship s
Ġsist em
iment o
Ð¸Ñĩ Ðµ
Ī ëĭ¤
Ġa ve
ĠN ew
k n
all s
qu est
Ġup date
Ġchat bot
cri ption
t he
Ġ id
dition al
Ġlo ad
Ġfore st
Ġdet ailed
Ġcon vert
Ġv ill
Ġdev ice
Ġm oney
Ġf our
Û Į
Ġw indow
Ġreg ard
Ġmem ory
Ġcap ac
it Ãł
Ġhum ans
cre t
Ġcontin u
o le
Ġcommun ity
ĠĠĠĠ Ċ
-------- --------
Ġm Ã¡s
Ġm as
Ġv irt
al ing
n en
Ġpre g
Ġem ail
ÐµÐº ÑĤ
Ġcons ult
] "
Ġtemper ature
Ġcour se
Ġaff ect
ra p
h ing
m en
a ult
Ġg ain
ĠO n
d a
Ġrem ove
ut o
Ġstud ents
Ġpl ot
Ġcons um
" )
D es
u ild
Ġfe ed
Ġdem and
Ġreg ular
ĠQ u
ul ate
Ġback ground
ad or
9 9
Ġrepe ating
b ut
Ġdevelop ed
ĠGo ogle
T r
ĠSt ates
Î µ
But ton
Ġcle an
Ġim ages
Ġinter act
ivers ity
Ġb al
ens ion
Ġres ol
Ġc y
an ation
- in
it a
ì ļ
Ġspe ak
Ġ ur
ly ing
ĠÐ Ŀ
Ã ¢
Ġd ella
Ġprocess es
ire ction
ient o
Ġemot ions
ĠS ystem
Ġobject s
Ġb ar
Ð¸ ÑģÑĤ
Ġover all
Ġper iod
iv ity
Ġw atch
Ù ģ
ĠW rite
' )
Ð½ Ð¾Ð³Ð¾
.g ame
ĠH er
idad es
Ð¾Ð² Ð°ÑĤÑĮ
Ġorgan iz
c hed
so le
æ ľ
od es
Ġac ross
Ġenvironment al
Ġmod ule
re t
leg al
Ġac cept
Ġans w
ra w
Ġì ŀ
Ù ĥ
ĠĠĠĠĠĠĠĠĠĠĠĠĠĠĠĠ ĠĠĠĠĠĠĠĠĠĠĠĠĠĠĠĠ
D e
Ġequip ment
ì ł
end ing
Ġfem ale
b s
Ġespec ial
Ġop in
G ame
ac hes
Ġsc en
ut h
ĠN ame
ĠJ SON
Ġwant ed
her s
Ġim ag
Ġwal k
ĠT hat
c ore
Ġwe ight
wor ks
oth ing
Ġtra vel
Ġoutput s
Ġchild ren
c are
ĠÐ¿ ÐµÑĢ
- to
Ġ Ùħ
Ġg as
Ø ¹
Ġcl ar
Ð¸ Ñİ
Ġd ialog
Ġintern et
Ġrequ ires
- re
he tic
Ð¸Ð ´
Ġp age
es e
Ĥ ¬
Ġad just
Ġvis ual
An swer
Ġmat ter
A l
Ġarch itect
is es
Ġproble ms
Ġs ort
c ar
d om
Ġc ateg
ĠH uman
Ġstru gg
iel ds
Ġs ays
Ġb row
Ġro w
Ġd Ã©
Ġd ark
le ment
Ġpro b
read y
Ġsc ience
il led
Ġb oy
Ġres p
Ä Ļ
Ġfr ont
yth ing
The re
Ġse cure
b on
Ġh or
it ch
ĠÑį ÑĤÐ¾
Ġpract ices
oura ge
Ġinvol ved
Ġs qu
¿ ½
Ġcommit ment
Ġt en
Ġsh o
- (
Ã© e
Ġr ules
Ġex act
Ġhig her
Ġlet ter
t ers
N ote
h ow
hen s
.d on
ĠTr ans
Ġinter medi
Ġen ough
Ð» Ñİ
ĠD is
m ate
Ġs us
z ione
y e
ĠWor ld
I ON
- st
Ġ Ñħ
Ġp un
( s
Ġexpl icit
Ġadv anced
ress ion
Ġla w
Ġsh a
enc ia
Ġo pp
Ġil legal
Ġlos s
Ġassoci ated
.p y
Ġquick ly
ĠÑį ÑĤ
ï ¿½
A C
ak es
ic ial
ill ing
ou ble
ëĭ Īëĭ¤
Ġbe com
ch an
os ed
Ġb omb
ra ft
Ġph ot
con st
Ġf avor
] .
ant o
Ġuse ful
Ġs low
ri al
ur y
Ġv ict
a a
n y
Ġask ed
Ġm iss
Ġh on
Ġcomm itted
Ġpriv ate
æ ĺ
Ġprom ote
em pt
Ġse en
ĠO nce
o ver
Ðµ ÑĪ
ê °
ur ation
ĠI N
Ġa y
Ġh ouse
mb ol
en ed
Ġdatas et
Ġcont act
Ð°Ð± Ð¾ÑĤ
Ġsc he
Ãª ncia
g ing
S e
ord er
Ġdis e
i as
u el
Ġrel i
_ name
Ġb ir
ĠB l
ÑĢ Ð°Ð½
ro ot
ac hed
ĠÐ¿ Ð¾Ð´
r ast
ë ¡
Ð¾Ð± Ñĭ
ĠAd d
ĠC al
ìĹ Ĳ
ä º
å ¥
Ġde ath
Ġjour ney
Ġcontin ued
Ã ¥
2 9
g est
Ġv ul
Ġw rong
a ur
m it
Ġbenef its
Ø ¨
Ġfun ctions
! "
O T
le ar
Ġtreat ment
c an
Ġal ready
6 4
Ġd if
Ð° ÑģÑĤ
ĠS u
Ã ´
ĠÐ¸ Ð»Ð¸
Ñħ Ð¾Ð´
Ġ ill
ç Ķ
h ic
ĠC ol
at ors
Ġb ound
Ġmin utes
T ext
s y
Ġs ong
Ġl ive
__ __
Ġtrans port
Ġl ength
l ight
Ġind ex
_ id
a w
Ġp ie
Ġl ives
= '
is on
ĠĠĠĠĠĠĠĠ Ġ
Ġbre ast
Ġactiv ity
Ġeffect s
==== ====
o int
ri a
ut ed
Ġconne ction
ĠÐ¿ Ð¾Ð¼
Ġm i
Ġarg ument
Ġl ower
) -
ĠÐ ¶
Ġpro gress
Ġg ar
Ġtak en
Ġk iss
ub e
Ġma xim
ur t
Ġ Ä
p are
Ġgr ound
Ġappe ar
ãĤ Ĵ
ì ŀ
ro om
os ition
Ġinvol ve
ol a
Ġconst ant
c ion
olog ical
Ġpl us
( x
Ġb lo
Â ł
ist ics
ĠÐ¿ Ð¾Ð»
Ġsc re
Ġ ÙĪ
w hat
Ġpers pect
åı¯ ä»¥
Ġansw ers
ĠI l
S cript
bo ard
Ġf ix
ici ency
j e
å ¤
Ġpartic ip
() ;Ċ
Ġdig ital
ĠV er
Ġp el
Ġad vent
Ġdecis ions
pre t
Ġme as
ë ¥
Ñ į
Q uestion
on o
r ig
D ata
A D
Ġcomp re
Ġseg u
Ġeconom ic
c ip
Ġincl u
ell ing
Ġoper ations
Ġ ri
Ġcent er
r im
Ġl abel
Ġfor ward
Ð¾ÑĢ Ð¼
Ġbas ic
Ð°Ð¼ Ð¸
Ġm al
Ġevery one
d es
Ġr ather
ĠH T
Ġtechn ologies
Ġcommon ly
Ġident ity
op y
r ound
3 5
Ġdirect ory
or age
Ġì Ŀ
Ġf ire
ce ption
Ġper fect
- l
sel ves
Ġth inking
v o
r ict
7 0
he ll
ĠC O
ĠWh ile
Ġbelie fs
Ġdev ices
at ter
Ġprom ot
ĠÂ ¿
Î ½
ient e
m an
Ġimport ance
uro pe
' Ċ
Ġproper ty
Ġf ra
ĠG ener
Ġsoci ety
Ġs um
å ħ
Ġris ks
Ġeff ort
Ġt ax
Ġcount ries
Ġra d
Ġorgan ization
Ġf ight
ìĿ ĺ
cri be
Ġs ch
I s
Ġfor ce
` .
in ary
Ġme chan
Ġconse qu
( f
ser v
Ġassist ance
Ġlat est
u ff
ess o
Ġnorm al
Ġlevel s
Ã ²
Ġwe ar
Ġl iving
Ġcom es
p ite
I d
Ġvirt ual
Ġman ip
u a
Ġits elf
Ġsustain ability
Ġ= >
. S
Ġc os
Å ¼
ĠÐ¿ÑĢ ÐµÐ´
re g
ĠÐº Ð¾Ð¼
Ġexperi enced
Ġw orth
b i
el ines
Ġs Ã£o
Ġcir c
' )Ċ
Ġma jor
Ð¸ÑĩÐµ ÑģÐº
h ttps
Ġa jud
ĠÐº Ð¾Ð½
Ġab s
Ġf a
E D
ung en
Ġal ong
ĠM ake
Ġa ware
ap an
red ient
Ġm el
e es
Ġit ems
Ġnavig ate
Ġconf lic
Ġm es
yn am
Ġdoes n
ĠChat GPT
l ich
Ġse em
Ġmarket ing
Ġs leep
Ġen em
bo ok
Ġint eg
w h
et t
Ġbut ton
ĠP ol
Ñĥ ÑĢ
h old
v i
pp er
Ġmon itor
ĠV icuna
Ġdes ired
iz ar
Ġinst al
Ġs we
Ġess ential
Ġg ames
I M
cl ude
ic an
Ð² ÐµÑĤ
Ã Ł
ch lor
Ġw in
Ġb ra
Ġcult ure
Ġres ist
Ġpued e
Ġful f
pl ain
H e
av es
Ġher self
Ġay ud
Ġc ard
Ġman ner
Ð¸ ÑĨ
Ġad apt
íķ ľ
Ġtest ing
Ġconcl usion
it her
Ġm ist
is ing
Ġset t
", "
Ġbl ue
Ð Ĵ
Ġever ything
od ies
ere nt
ess age
ot s
R es
Ġgra nd
Ġstud ent
Ġab ilities
, NAME
Ġpract ice
ic os
ì Ĭ
ĠJ ava
st art
Ã© r
L abel
Ġan n
ear ch
Ġglo bal
empl o
Ġlong er
Ġdra w
ĠÑ Ĩ
ad es
u k
id d
Ġt itle
Ġa f
Ġsub st
Ġin mate
ast ic
Ġtra ditional
F T
Ġbeh ind
Ġc ri
Ġplay ing
not her
Ġp arent
ĠP re
Ð°Ð ³
po int
or o
Ġwe ek
Ġf ine
L L
ess ion
Ġpass ion
er al
Ġinterest ed
Ġas king
Ġm ask
Ġfre qu
nd er
ex pected
Ġe u
id s
ativ ely
age m
Ġdem on
ì §
Ġmod ern
Ġhealth care
Ġse u
Ä ħ
Ġprec is
ac he
9 0
Ġcon dition
Ñĭ Ð²
Ġdi ag
Ġf ar
Ġson o
A S
Ġsc ore
Ġto ok
ĠS ch
O S
oc ol
Ġcult ural
ÑĢÑĥ Ð³
4 4
Ï Ħ
Ġdifficult y
y ear
Ã© n
pl it
ic ated
it Ã©
× Ļ
Ġex pect
Ġwrit ten
i j
ch ange
x y
art e
Ġref erence
Ġt im
Ġdel iver
c king
Ġpref erences
Ġdef in
Ðµ ÑģÑĤÐ²
Ġhe at
n ers
Ġcaus ing
) ;ĊĊ
Ġi h
Ġa verage
li ke
om et
Ð Ł
Ġwe aring
Ġintrodu ction
Ġrefer ring
Ġh ol
m on
ĠC ons
Ġs ample
ĠM e
Ġth ird
s ing
Ġcap able
Ġob jet
Ġst age
Ġdet ect
ãģ «
Ġalgorith ms
ough t
EN T
! ĊĊ
d igo
Ġsy m
Ġpa per
ĠE r
Ġc ock
Ġc up
m ar
at i
Ġanim als
ë¡ ľ
Ø ³
Ù Ĥ
Ġinnov ation
Ġde g
Ġexpress ion
wor ds
ag ed
Ġt amb
Ġam b
con s
Ġdec id
Ġthough ts
Ġmanufact uring
Ġcre d
Ġdiffere nce
Ġconf usion
[ i
Ġve hic
indow s
Ġp ow
ãģ Ħ
ĠCom p
Ġpro ced
Ġlim ited
Ġ %
Ġcont ract
M y
ãģ ¯
Ġgroup s
Ġvill age
um p
op h
Ġ} ĊĊ
Ġent ire
h i
Ġplan et
R A
Ð½ Ñı
C I
Ġsol ve
oc ks
Ġnew s
Ġlay er
g ed
ure d
er ia
Ġact ual
Ġset ting
Ġh ost
c al
Ġk ann
f o
Ġhealth y
Ġin j
U S
Ġf ields
ĠAss istant
Ġb ad
Ġtra ck
Ġc ou
ĠDef ine
av ing
Ġre actions
re ci
Ġpharmaceutical s
Ġun expected
. body
Ġo der
Ġsuit able
3 6
Ġon ce
I m
Ġd im
Ġwho le
iz z
Ġopportun ities
Ġarchitect ure
Ġpress ure
Ð¾Ð· Ð´
an vas
Ġst ream
Ġs ou
ĠG erm
Ġcaus ed
Ġpattern s
Ġpolit ical
Ġsequ ence
Ġs ie
Ġcalcul ate
Ġbo x
Ġconsequ ences
Ġne ar
Ġatt empt
st e
Ġvis it
Ġn p
Ġbu y
ĠA ll
but ton
Ġconf ident
Ġmed ic
3 1
' ,Ċ
Ġstart s
Ï ģ
Ġhe ight
Ġinterest s
Ġ\ *
ĠA g
Ġcomfort able
Ġfe ature
Ġparamet ers
Ġ ir
Ġ< /
Ġs ich
Ġdevelop ing
. \
Ġext ra
ok en
Ġpe ace
Ġatt ract
s v
, ,
s it
Ġsistem a
Ġsa ve
L ist
ĠE ar
Ġm Ã©
Ġc ases
Ġfe ar
Ġplay ers
C H
and as
Ġit em
in ks
Ġinter face
Ġrequest s
ci as
Ġun s
Ġfo ot
ĠcÃ³ digo
Ġk ing
ri x
c ks
d own
g ar
Ġer r
Ġf ast
ÑĤ Ð¾Ð±Ñĭ
Ġc ut
b ing
Ġoc cur
Ġcurrent ly
Ġmodel o
v ide
æĺ ¯
Ð¸ÑĤ Ðµ
Ðµ Ðµ
Ġatt rib
iz er
Ġbusiness es
ce ed
ãģ §
ĠR uss
Ġcl othing
ÐµÐ ¶
Ġsal es
Ġp al
Ġex pected
pt ions
ph as
Ġsu ff
Ġstand ards
Ġfeed back
Ġcomb ination
Ġsent iment
Ġhe av
How ever
Ġre ve
aj e
Ġf ing
Ġgo es
Ġf lex
3 4
ura cy
o i
ä» ¬
W ith
Ġess ere
Ġo kay
Ġnot hing
Ġstand ard
Ġp ub
p is
Ġpre t
Ġref ers
Ġb ank
Ġdeterm ined
ĠÑģ Ð¾
.d ifficulty
G ive
ĠØ ¨
ens or
Ġeng aging
ĠJ apan
Ġequ al
Ð½Ð¾ÑģÑĤ ÑĮ
Ġan g
Ġadv ant
ac c
ĠM odel
ĠÐ Ķ
ĠÐ¸ Ð¼
Ġre act
Ġcol lect
ĠĠĠĠ ĠĠ
) )Ċ
c ial
Ġl ing
Ġhy p
Ġb ul
Ðº Ð¾
Ġcompre hens
Ġspe ech
Ġmention ed
ĠT ra
Ġsy mbol
at ives
he st
ĠE urope
Ġle ave
Ġb odies
ĠM on
Ġdist ance
Ġd iverse
Ġd ir
. h
Ġre put
Ġlo oks
Ġrec ent
Ġref lect
ig en
ĠÑģÐ² Ð¾
C O
Ð½ Ð¸Ðº
è ¯
Ġre pl
Ġrel ig
ca pe
Ġsm o
in ate
f ol
Ġset s
.p ack
Ġment al
Ġu pon
f r
Ġst ates
im age
Ġd ress
Ġmem bers
al t
Ðº Ñĥ
art ment
L e
as y
ĠP er
ĠĠĠĠĠĠĠĠ ĠĠĠĠĠĠĠĠĠĠĠ
ĠL LM
ra z
Ġespecial ly
Ġso on
Ġform a
idd le
Ġcompon ents
Ġb rand
Ġbu ilt
Ġvul ner
S he
Ð° ÑĪ
L a
Ġbot t
ĠTr ue
Ġag re
ÑĤ Ðµ
- M
St ep
Ġlangu ages
Ġanaly ze
B y
Ġdet ail
Ġì ł
Ġresult ing
Ġguid ance
Ġe j
Ġclient s
Ġt ip
ĠP ar
Ġam ong
Ġsupport s
U R
Ġdescript ive
Ġin app
er ate
ag raph
Ġprim ary
Ġal tern
Ġspec ified
Ġsee k
Ġt ag
Ã¶ n
Ġguid elines
Ġcompon ent
Ġag ent
ÃŃ f
un ch
Ġvari ables
n ake
Ġrec ord
ĠG r
Ġc um
W hen
Ġy et
ĠV is
ĠA re
aly st
ar ia
r ight
Ġpro pos
Ġeduc ation
z en
- >
-t ime
Ġrem o
id den
Ġtal king
Ġse cret
Ġfl u
Ġtr uth
Ġpart s
f ig
enc ies
ĠG et
Ġutiliz z
Ġcor respon
Ġgre en
Ġtechn ical
Ã ¹
ib r
a ff
ap ter
Ð° Ñħ
Ġex erc
Ġcl im
Ñģ Ð»Ð¸
iv a
Ġhe sit
Ġprin ci
Ġdam age
ĠS QL
Ġmeas ures
ac ed
A r
Ġrese arc
- se
Ġ-- -
ë¥ ¼
ĠÐ ł
oc ation
Ġdirect ly
Q u
å¥ ½
ul y
ĠN e
Ġval u
min ist
et te
Ġle ast
ì ĭ
Ġcon duct
as ons
y p
Ġcap ital
D o
yr im
ĠA t
Ġcap abilities
Ð° Ñĩ
ot hes
ĠW ho
Ġb all
ĠL o
Ġhe ar
v ar
Ġutil is
Ġreg ion
Ġa o
ĠÑģ Ð¿
Ġstrateg y
Ġaud ience
ĠIn tern
K ey
f e
Ġsustain able
¸ °
ãĤ ĭ
q l
im ately
Ġinter pret
Ġsp read
Ġest e
z z
Ġpack age
ãģ ¾
Ġexpl anation
ĠÐ´ Ð°Ð½
Ġfollow s
ÑĢ Ð¾Ñģ
Ġestab lished
Ġa i
ct ive
Ġthem selves
ÐµÑĤ ÑģÑı
ro id
Ġm u
h ol
ci ous
en n
g y
Ġorganiz ations
Ġphr ase
in ux
Ġacc ording
Ġspec if
Ġp air
- B
Ġtext o
Ġeas ily
Ġcomplet ely
Ġsha pe
- P
a pon
ig e
Ġinvest ig
ure r
Ġdemon str
Ġev ol
ines e
Ð½Ð¾ÑģÑĤ Ð¸
ĠS c
3 7
port s
Ġexpl oring
Ġinapp ropriate
ãģ Ĺ
Ġle d
Ġ Ã¡
Ġg est
Ġf igure
ĠDe velop
) ,Ċ
Ġl ines
ĠChe ck
Ġst orage
Ġsm ile
Ġd ur
ĠTh ank
ĠA c
.c anvas
iv os
Ġsur round
or a
ĠÐ´ ÑĢÑĥÐ³
Ġc ru
Ġdef ine
3 8
Ġexp and
Ġf all
il ing
Ġwill ing
Ġor d
ĠM ed
Ġhim self
ĠÐ» Ñİ
Ġf alse
Ġmov ie
Ġs il
b en
Ġcar ried
Ġing redient
Ġser ious
Ġevalu ate
Ġexper iment
ĠÄ ĳ
ĠInd ia
new able
Ġoff ensive
g ame
it ude
U n
Ġdo g
b all
Ġv ot
P E
N N
Ġl ink
I S
Ġo t
Ġpolic ies
az ioni
Ġave c
Ġful ly
ĠÐ±Ñĭ ÑĤÑĮ
ĠB o
Ð ¡
Ð¸Ð ±
Ġtrans fer
Ð ŀ
em ember
Ġem phas
ic ious
D E
Ġlook ed
ond on
umm ary
Ġpl ant
ĠÐ ľ
å®ĥ ä»¬
Ġparticular ly
Ġst ruct
Ġadv ice
Ġm ale
0 5
Ġor g
ĠÃ º
× ķ
ĠÑĩ ÑĤÐ¾Ð±Ñĭ
Ġ ult
or ch
form ation
ĠR ed
Ġincre asing
Ġent er
Ġcan cer
be ing
Ġn om
p ly
el le
Ġadd ing
Ġrece ive
Ġprin cip
Ġl ater
Ġexc ited
æ ĸ
Ġp y
ac iones
ĠN one
Ġapp reci
vel oper
Ġm outh
ĠS i
Ġw er
ĠW ar
Ġ _
re l
l en
- S
A B
ist a
Ġhand ling
he mat
Ġproject s
c ular
Ġleg s
ur ance
ĠEar th
Ġintermedi ate
ÑĤ ÐµÑĢ
Î ·
ve red
Ġmot iv
ĠM ay
r ar
s ch
å Ī
In st
Ġtre nd
Ġe ither
Ã¨ re
ire ct
Ġa us
Ġd ynam
f riend
ÐµÐ ¿
it ement
res ents
() :Ċ
li er
Ġcommun icate
n ed
Ġwant s
Ġm illion
Ġre v
ĠT ext
Ð°ÑĨ Ð¸Ð¸
ĠSt art
Ġc od
) .Ċ
e ff
Ã¡ l
Ġblo od
Ġc and
Ġhig hest
et ime
Ð¶ Ðµ
i ro
ĠÐ² Ñģ
Ġo il
m odel
Ġded icated
Ð½ Ð¸
Ġclos er
Ä ĩ
Å Ľ
Ġê °
Ġeff iciency
Ġincor rect
Ġcon sole
Ġupd ated
Ġacc uracy
k a
Ġw ent
Ġto d
Ġattack s
Ġh om
Ġpotential ly
" .Ċ
Ġinstru ction
ĠF inally
r ist
íķ ´
E r
p ass
Ġsm art
t es
Ġpar agraph
Ġdistrib ution
Ġmy self
pl ot
ĠThe n
ĠData Frame
tt p
Ġimplement ation
or k
ĠA fter
Ġprofess ion
Ġc ame
Ġs ind
Ġrep resents
Ġus u
Ġexpert ise
re r
3 00
Ġinform aciÃ³n
Ġ __
um ber
Ñĥ Ñģ
Ġd oc
ĠTe chn
Ġdo or
ĠÐºÐ¾ÑĤÐ¾ÑĢÑĭ Ðµ
Ġf ive
Ġob tain
t i
ant ic
ĠD AN
Ø Ń
Ġne ural
an ks
Ġc ross
Ð°Ð½ Ð¸Ñı
ĠJava Script
Ġth r
u er
A pp
Ð¾Ð² Ñĭ
AT E
ĠL ondon
Ġfil m
tic a
Ġlar ger
Ġbec ame
ĠF e
Ġout side
Ġmem ber
Ġen able
Ġscre en
out put
ap s
pr ise
Ð»Ñİ Ñĩ
kn own
Ġvalu able
Ġm ilit
g ra
ar ge
Ġfe et
?" ĊĊ
Ġf ant
Ġn od
Ġany one
Ġrest aur
ĠÐ± ÑĥÐ´
Ġb attle
- C
Ġde i
Ġeffect ively
D F
Ġp esso
Ġbo oks
Ġgre ater
Ġcell s
so ft
j o
ĠO b
-t he
Ð¾ Ðµ
cre ate
Ġd ream
Ġre asons
ĠT est
Ġens uring
ain s
Ġar m
Ġdru gs
Ġs in
Ġshow s
Ġmaxim um
U p
w o
ĠB ased
Ġinvest ment
A nother
b it
Ġn icht
Ġpart y
Ġ !
Ġal t
Ġ @
Ġpen is
am a
Ġun iverse
ĠG od
Ġallow ing
Ġcoll abor
c n
am ine
> ĊĊ
Ġs ite
Ġsynt hetic
5 5
- of
Ġnum er
Ġreg ist
ww w
Ġ* *
ĠAmer ican
Ġbreast s
( n
Ġd iction
iven ess
ÐµÐ½ ÑĮ
] ,Ċ
Ġfeel s
Ġl ost
Ġgener ated
Ġb ab
le te
Ġcom ment
Ġn ut
em b
Ð» ÑĮ
Ġa im
Ġsa w
ud io
N D
ĉĉ ĉĉ
Ġopportun ity
Â °
Ġaspect s
ĠF l
ht ml
Ġph one
Ġth reat
Ġb es
ast e
Ġthe ory
Ġmo b
Ġt ab
Ġproper ly
1 50
Ã¶ r
Ġdel le
i us
Ãº mer
Ġre le
Ġear ly
ĠO utput
Ġ} ,Ċ
Ī ĺ
Ġsuccess ful
f low
Ġh at
Ġa plic
art y
ê³ ł
ĠThere fore
qu i
Ġadd ed
Ġco ol
Ġmo ving
Ġequ ation
Ġass ign
ĠD on
Ġh al
sy ch
ter m
k y
hell o
Ġsym pt
Ġpolic y
Ġpr ime
Ġact ually
ĠO h
um b
Ġcre ative
Ġconst ruct
erv ice
ĸ ´
Ġcolumn s
Ã¡ri o
Ġcat alyst
Ġframe work
Ġgrow ing
Ġpur ch
pon se
Ġfil ter
- being
Ġstat us
Ġla ws
Ġass um
Ġstrateg ies
ĠN et
- year
( (
Ġh ood
Ġcom un
Ġst ock
Ġd ados
al ue
en za
ak ed
.j s
Ġenem y
Ġsens itive
Ġtri ed
yr idine
am s
Ġinform aÃ§Ãµes
æĪ ĳ
E s
Ġdialog ue
Ð´ Ð°
ĠRe g
Ġright s
ĠW indows
Ġrel ax
ff ic
Ġd in
Ġl iter
il os
ĠHT ML
am os
Ġcon v
G iven
ab il
end s
Ġpol y
Ġo d
ar ily
Ġc ry
Ġreli able
Ġc ada
Ġv o
ĠP y
Ġform ula
ograph y
Ġper cent
ĠÐ ĺ
, ĊĊ
er ies
Ġlo ved
ir it
Ġdis pos
l ist
Ï Ģ
Ġmess ages
T hat
Ġw at
Ġturn ed
g i
Ġw el
Ġf az
/ s
ĠÐ ¯
Ġar ri
he nt
Ġfulf ill
C ol
Ġt ut
.s et
Ġal one
ĠCom m
Ġdecid ed
Ġl ic
ĠÐ¾ Ð¿
Ġf ill
o ff
ĠâĢ ĵ
7 5
ud o
M A
- D
Ġto ken
Ġal s
Ġra p
I nt
Ġc ert
] [
Ġen h
in i
oc al
ate ful
at en
Ġr ich
re st
Ġbeaut y
Ġcontin ues
St art
Ġass ess
e ks
E m
ì ľ
t ime
Ġpass word
Ð Ŀ
p x
r ate
I A
iv al
ĠÑ Ī
Ġdes ires
Ġs ig
ãģ ¦
ify ing
U ser
Ġn arr
ãģ ¨
Ġespec ÃŃf
å Ĭ
Ġra w
Ġne ces
Ġwh is
act er
c el
Ġdif erent
Ġexc itement
Ġp et
Ġresearc hers
Ġw ie
Ġv ar
Ġst ress
Ġ rom
Ġem erg
c in
Ġmat hemat
Ġwe ak
Ġp an
The se
Ġapp ly
t ure
Ð½Ð¾ Ðµ
ic on
Ġë °
Ġemp res
Ġwe apon
Ġtrust ed
ĠE ach
l ib
Ġprompt s
ar ize
Ġprogram s
Ġthrough out
p ath
Ġs ed
ĠCh inese
Ġde ploy
C an
Ġhon est
ï¼ Ł
on y
Ġpod em
Ġc ounter
Ġdiffere n
Ġindust rial
Ñĥ Ð¶
Ġa w
Ġn Ãºmer
ĠO ver
} ,Ċ
Ġt ree
" "
Ð¸ ÑĪ
Ġprior it
ĠÐ· Ð°
Ð¸ÑĤ ÐµÐ»ÑĮ
Ġopin ions
Ġbo ard
it ar
Ġbal ance
e ep
c ode
Ġdire ction
em p
id th
" >Ċ
w ith
Ġno vel
Ġperson ality
ot ic
Ġb rain
il s
Ġun able
ãĥ ¼
us ed
ĠE nt
ê° Ģ
Ġto ld
Ġlead er
I I
Ġpop ulation
Ġefficient ly
Ġa u
for ce
ĠÃ© t
Ġaud io
Ġe c
Ġcomprehens ive
Ġto wn
Ġse ction
Ġs av
Ġincre ased
ĠA S
Ġd ies
c ast
Ġg ender
U T
ĠC ould
! Ċ
Ġemploy ees
Ġre place
St ate
_d ata
ĠI D
Ġdom in
in st
- h
Ġcrit ical
-- -
Ġb ud
ìĿ Ģ
en ge
Ñĥ Ð½
3 9
Ġsh own
Ġg i
Ġfocus ed
Ġar r
und o
Ġins p
d ed
Ġmod e
Ġc i
F ile
Ġgener ation
Ġw ild
0 4
Ġp ush
ä ¹
tern al
Ġsim ply
j i
Ġs od
Ġp ull
ren ch
RO M
} ,
Ġli qu
Ġmo le
r at
ut ral
Ġerr ors
Ġind epend
Ġm ir
Ġh ar
Ġexist ing
op s
ĠA ct
Ġchang ing
pt y
Ġch ann
ä½ł å¥½
ve re
Ġde ad
ĠAn swer
it ation
ĠInd ust
Ġwe ather
Ġte cn
Ġsuggest s
Ñģ Ð»
Ġdri ve
Ġpos so
Ġprote ction
Ġsatisf action
ĠÐ ¢
Ġgener ating
Ġsur face
ind ex
Ġact ive
Ġexec ut
Ġsympt oms
Ġsh ared
f l
Ġelect ric
â ĸ
as m
Ġ ###
Ġon es
Ġstr ange
Ð¸Ð¼ ÐµÑĢ
ers e
ì ķ
Ï ĥ
×ķ ×
ic he
å®ĥå®ĥ å®ĥå®ĥ
Ġdef ined
Ġm ol
Ġst ar
Ġm ut
Ġconcept s
int s
res ult
Ġp d
ind o
Ġf ict
b es
Ġrout e
ï¿½ ï¿½
â Ķ
è ĥ
Ġinflu ence
ap i
t k
ĠN ow
Ġro ws
Ġm il
ron ic
Ġpolit ics
g a
Ġto m
W h
H E
ë ¦
un ta
y ing
en a
Ġfin ally
Ġmor al
icro soft
ï¼ ļ
pt h
Ġexec ution
Ġcost s
o h
l im
Ð½Ð° Ñı
Ġl if
ot al
Ñı ÑĤ
Ġes c
Ġsmall er
Ġexp os
ÃŃ s
Ġsuggest ions
Ġoper ating
Ġt ight
ad em
Ġrece ived
Ġco ver
vol ution
Ġsound s
rie f
Ġan c
u gg
Ġpro d
Ġestab lish
Ġd ivid
Ġj ud
ì§ Ģ
id os
Ġdiction ary
n al
Ġse ems
Ġimplement ed
Ġm ount
al le
Ð» ÐµÐ½
Ġposs ib
h ib
Ġm ark
s u
Ð½Ð° Ñĩ
Ġnet works
ĠL ist
az on
or g
Ġdis cover
ä¸ į
Ġcare fully
Ġìŀ Ī
in clude
ab e
\_\_ \_\_
ra ined
Ġwid th
Ġte ach
Ġemot ional
ĠN ot
( d
ĠH is
ãģ Į
Ġconnect ed
Ġf ail
s c
Ġdat os
ĠÃ ¼
i eren
Ġt end
Ġorgan ic
Ġeas ier
Ġf ont
Ġ< <
Ġregul ations
er ve
ÑģÑĤ ÑĢ
Ġco ord
à¸ ²
Ġb ur
at ur
l og
Ġret rie
Ġs ell
Ġclar ify
Ġrem ote
ĠG e
Ð¼ Ð¸
Ġext rem
cl es
U M
Ġbound aries
t itle
Ġe ye
0 2
Ġal ign
ĠJ ust
Ðµ Ñħ
ĠB uild
p et
T P
Ġpre par
col or
Ġm aster
Ġcol le
ë ĵ
Ġrecommend ed
I G
Ġsqu are
": "
Ġcl oud
Ã© es
an z
Ġsub m
Ġgu ide
Ġj son
Ġdifferen ces
Ġar ous
Ġco ok
Ġsh all
Ġwer den
Ġpued o
Ġprinci ples
" >
Ġanim al
ustom er
ugh ter
vers e
Ġk Ã¶n
Ġint el
ĠO ur
ous ly
ari os
Ġde cl
v est
ĠS E
A P
IN G
ĠÃ ª
âĢĻ t
ic ks
M S
Ġplatform s
Ġs ul
ili ar
ÑĨ Ð¸
ung s
Ġre lease
- w
Ġpl ans
ant es
Ġcar bon
Ġappear ance
ĠR E
. con
us ter
ac her
Ġform s
Ġexec ute
Ð½ Ð¾Ð²
Ġas ks
O utput
Ġparamet er
Ġinterest ing
Ġfavor ite
ÐµÐ³ Ð¾
L et
ĠÑģ Ð¾Ð·Ð´
ell ow
Ġg iving
0 6
n es
Ġlead ers
f it
Ġcom pl
ie f
Er ror
Ġus ar
Ð¾Ð» Ð¶
w here
ĠØ§ÙĦ Ø
Ġscen ario
Ġser ve
4 8
ĠT ake
ens ity
Ġmonth s
Ġdi et
Ð» Ð°
Ġcent ral
×Ļ ×
Ġb and
n i
ang le
Ñĥ Ð¼
M P
Ġpi Ã¹
Ġche st
Ġde al
Ġredu cing
Ð°Ñİ ÑĤ
Ġn u
- g
arr ass
ĠA nt
Ġfund ament
Ġdepend s
Ġcl imate
Ġcommand s
Ġat m
il le
ÑĦ Ð¾ÑĢÐ¼
Ï Ĥ
ĠÐ Ń
Ð¾Ð»ÑĮ ÐºÐ¾
ener ate
ìĦ ľ
N ow
L P
Ġdef ault
Ġpo em
v is
Ġd an
Ð³ Ð¾
Ġt our
Ġmix ture
ĠL ear
o pt
ĠÐ¼ Ð½
ĠS ub
rodu ct
Ġfing ers
Ġt all
ĠC or
Å Ł
ÐµÑĢ Ð¶
4 2
Ġl ack
Ġdru g
Ġd ell
Ġbro ther
ab ly
ĊĊ Ċ
Ġgr ateful
ĠÐ¾ Ñģ
Ġlibr aries
Ġmor ning
e ah
ic ing
Ġv ir
Ġre curs
Ġ ign
Ġsett ings
ĠÐŁ ÑĢ
Ġrem ind
Ñĥ Ð¿
ĠInst ead
L O
Ġus ually
Ġdevelop ers
i ation
Ġreput ation
ac ion
un k
Ġinst ance
Ġemb arrass
Ġpref er
ĠAr t
ĠF ra
el a
ê ²
_l ist
o o
Ġmeet ing
Ġsist er
Ġe gg
ĠI d
id ity
) .ĊĊ
ĠM in
Ġpriv acy
Ġinnov ative
ĠP erson
Ġexc ell
Ġv ida
0 3
on a
pro cess
nÃ© es
ĠÑĢ Ð°Ð±Ð¾ÑĤ
ĠÂ ¡
ĠÐ¼Ð¾Ð³ Ñĥ
ent a
ĠA ut
St ring
ĠÐºÐ¾ÑĤÐ¾ÑĢÑĭ Ð¹
Ġconstant ly
or ia
Ġre ality
Ġt ail
he t
if ier
ĠU p
In put
Ġcol ors
ific ar
ĠA b
ol o
ur b
l s
Ð ¢
Ġgener ally
Ġdiferent es
Ġling u
ÑĢ ÐµÐ¼
Ġarg uments
Ġgar ant
Ġenc ourage
Ġintern ational
Ġfict ional
Ġ{ "
Ġs ont
T ype
end e
Ġc rypt
Ġap rend
Ġse a
rast ructure
ĠÐ½ Ð°Ð¿
ĠÐ¾ Ð´
ĠL inux
Ġp sych
ãģ Ł
Ġp ict
Ġins ights
c ia
Ġa uch
Ġrep ly
Ġ- >
n is
- like
ĠH i
Ġdeterm ination
ÑĢ Ð°Ð·
eng u
7 8
Ġfind ing
Ġn uc
t est
Ð ļ
Ġest im
os is
Ġsur v
W S
Ġem pty
Ġy es
Ġdiag n
ĠPr int
Ġperspect ive
Tr ue
i ert
y ond
Ġì ķ
ĠC ar
ĠØ ª
ĠP ort
x x
Ġinstal led
Ġse ed
Ġengine ering
19 8
ãģ ª
ost a
ern ame
^ ^
Ġf ather
Ġhelp ed
å °
Ġbir th
- up
Ġim medi
ĠD et
age ment
Ï ħ
Ġgl ad
ĠM us
Ġf air
ĠR ep
Ġra ce
Ñĥ Ñī
Ġplay ed
ĠC ode
ĠU ser
ĠOr gan
èĥ ½
Ġp ac
Ġgirl s
ĠD ate
Ġph ilos
Ġtamb Ã©m
Ġjo in
ĠG u
Ġent ity
m es
Ġl abor
Ġinc ome
. add
com fort
Ġchalleng ing
D ocument
Ġint ended
Ġtra ding
Ġt one
Ġsay ing
enc ing
Ġincre d
yr id
ke it
Ġdoc uments
Ġdec ide
el ine
Ġfact or
it ter
ch ain
ĠC ent
Ġpl aces
Ġmove ment
Ġp andas
Ġn ode
- term
hen yl
Ġwon der
Ġtri p
ÑĢ Ð°Ð²
ì ĸ´
Ð°Ð½ Ð¸Ðµ
Ġtem po
ven ue
tr ans
ĠD ie
Ġsu is
ren cy
Ġregard less
Ġval or
Ġpart ners
ail y
Ġstr ings
iss ions
Ġh idden
ĠI h
Į Ģ
ar p
Ġfollow ed
im a
Ġin ac
Ġoff ice
angu age
ot es
c raft
res h
a ks
Ġfac ilities
ock et
ugh t
ĠS im
Ġdom ain
Ġp ul
Ġmet al
Ġconfig uration
et ic
ĠÐ¼Ð¾Ð³ ÑĥÑĤ
i ar
Ã¡ vel
Ġal le
Ġgr am
- n
Ð¸Ð» ÑĮ
LE CT
ra g
Ġinst it
ĠPro duct
O n
ĠÐ Ĳ
Ð¸Ð ³
er ation
à¸² à¸
Ġmag ic
Ġexact ly
Ġad minist
ar ray
Ġc ast
Ġcre ates
Ġspec ify
Ġimpro ving
Ðº Ðµ
Ġplan ning
ĠG ive
Ġ[ Ċ
ĠS w
Ġun c
ot t
Ġsp end
Ġinit i
ĠF alse
ĠR et
Ġst ored
od o
Ġsepar ate
lic k
Ġun it
Ġfam ous
å Ń
C re
Ġt a
H i
here nt
l abel
Ġdescri bed
Ġread ing
ul o
Ġautom at
ìĬ µ
en vol
un ning
Ġinter actions
Ġcharacter istics
Ġbr ight
ĠG ame
ay er
Ñ Ĭ
Ġstand ing
le vel
ĠìĿ ´
" );Ċ
Ġbecom ing
ĠIn put
ÐµÐº ÑģÑĤ
f unction
è ¿
D ate
6 5
us ing
Ġcho ices
Ġre ached
Ġg ives
er as
.... ....
ĠÐ· Ð°Ð¿
Ġintern al
ic y
.t xt
Ġbe yond
ri v
Ġsp irit
4 9
ĠA cc
Ġr ound
# include
Ġcom ing
ĠIn c
iv il
ve is
Ġprogram med
com p
Ġsu as
S ummary
P l
on na
Ġst ories
us ive
ĠJ e
Ġde ve
Ġa head
id as
4 00
ru pt
m ost
ĠB it
Ġoper ation
ĠH igh
ĠP e
an ch
l ig
ve y
ĠDes cribe
Ñį Ñį
yrim idine
Ġcont ro
ĠI T
Ġcam era
ĠÃª tre
Ġf ib
Ġt ips
Ġl ate
ĠI ch
Ġf at
Ġam az
Ġke ys
Ġinac curate
ic ed
in y
Ġcompound s
ë ı
Ġrole play
ism o
{ "
Ġadvent ure
. </
rom pt
ÃŃ vel
Ġlar gest
Ġcomp ared
Ġeconom y
Ġdise ase
Ġmod ify
Ġhe ard
im al
Ð· Ñĭ
Ġatm osp
Ġprot ocol
Ġhold ing
Ð¸Ð ¿
o v
Ġappro xim
h ood
Ġf aster
Ġsc ale
U N
b or
al ian
ado res
Ġmilit ary
Ġlearn ed
m m
Ġar qu
Ðº ÑĤ
Ġpro por
con ds
Ð»Ð¸ Ñĩ
Ð¾Ð»ÑĮ ÑĪ
Ġg low
Ġv an
Ġstr ict
Ġmy ster
Ġant i
Ð¸ÑĢ Ð¾Ð²Ð°Ð½
Ġ[ '
ĠÐ² Ð°Ð¼
ĠWe b
Ġpriorit ize
ĠÐµ Ð³Ð¾
Ð¾Ð¼ Ñĥ
Ġstud ies
ĠP ower
Ġprovid er
i am
I V
Ġf on
ĠP or
Ġtechn ique
num ber
Ġwas te
6 6
_f ile
Ġnot ing
T ime
Ġvers at
ĠÑģ Ðº
he l
ar o
Ġche m
pos ition
Ġd ouble
pos es
æ ķ
ĠIn ter
ci o
P ress
M odel
Ġdon nÃ©es
Ġvot re
Ġac cur
Ġpie ce
Ġchall enge
Ġar ms
ĠM icrosoft
Ġcontain er
Ġtest s
B e
ir ing
" )ĊĊ
Ġo ch
Ġv el
Ġwebs ites
Ġw a
_s ize
Ġtk inter
Ġbecom es
ĠS ol
Ġtransl ation
Ġê ²
ĠO ff
Ġra c
ĠF irst
S O
ĠS y
Ġdisc rim
Ġinform ative
25 5
Ġconflic t
ver y
( t
Ġdis co
am ples
r id
Ġvide os
Ġcol lection
ĠW hy
b ar
Ġconst ruction
Ġn ull
ĠCont in
al ed
Ġì Īĺ
Ġconc ise
Ġatt ra
Ġsitu ations
Y S
Ġ[ "
Ġm ission
Ġst ra
. app
ĠUn iversity
Ġto k
x i
Ġmo an
G B
: \
ch a
os it
12 3
- chlor
ad ow
ff ee
0 7
Ġoff icial
Ġtem pl
ch ar
Ġmob ile
ĠI P
Ġclass es
g u
Ġhe ld
ĠÃ¼ ber
am ing
Ġpur poses
ĠInst ruction
Ġsl ight
Ã§ o
Ġwork ers
it em
Ġwalk ed
æ Ģ
Ġtra de
e per
Ġm ac
ãģ¾ ãģĻ
Ġe pis
Ġve ctor
Ġmat rix
19 7
cur rent
p ace
Ġst ro
ĠÃ ī
Ġinteg er
âĢ ľ
ra py
ÃŃ n
Ġr ule
Ġch lor
f all
Ġc atch
Ġswe et
Ġsche du
Ġf er
Ġsom et
Ġro ad
ĠOpen AI
Ġliqu id
Ġv oid
Ð¸Ð½ Ð¸Ð½
Ġseg ment
Ġclear ly
() .
8 5
Ã¤ t
y al
Ġwatch ing
Ãª n
Ġappreci ate
Ġsupp ly
_ w
Ġh ay
v oid
Ġ+ =
Ġre nd
Ġp ad
ens ions
ativ o
Ġdown load
Ġspecif ically
Ġcand id
Ġsign al
b lic
Ġv ia
Ġaut hent
i ke
- F
Ġha z
Ġm erc
Ġbab y
A t
Ġm icro
ER T
Ġmod o
li ed
Ġpay ment
e qu
s ub
ä¸ Ģ
F inally
Ġinf rastructure
% Ċ
ĠT V
Ġcaus es
os a
Ġbud get
Ð¾ Ñı
le br
Ġqu ite
hy dro
Ġaccur ately
Ġo cc
Ġt ro
Ġp ick
orm al
ĠS S
ic her
D A
Ġsaf ely
Ġquant um
ĠÐ² Ð¾Ð·
Ġconc ent
h ost
k an
eth ical
ĠF rench
Ġbegin ning
wor ld
ry ption
Ġpre m
Ġtra ffic
un s
B C
Ġfam iliar
ĠF rom
w end
F rom
Ġme jor
or ds
ë ł
Ġcl ick
Ġpre pare
Ġpu Ã²
qu is
Î »
f rame
c ciÃ³n
Ġrespons ibility
ĠCom o
g al
Ð½ ÑĥÑİ
n ow
Ġb en
Ð² Ð»Ñı
ipp ed
" .ĊĊ
ens es
ĠId ent
Ġappe ars
Ġcontrib ute
Ġrest rict
Ġenjoy ing
Ġspec ies
Ġcon ce
Ġo m
Ġhapp en
ĠC S
ĠD E
ĠÐ¸ÑģÐ¿Ð¾Ð»ÑĮÐ· Ð¾Ð²Ð°ÑĤÑĮ
Ġsh ap
Ġelect r
az ine
ĠC ity
Ġteam s
o pe
ĠAm azon
Ġl engu
go ing
ell en
Ġmo on
Ġwom b
. C
Ġterm inal
- lo
Ġun ethical
å ¹
z ing
Ġpass ed
Ġh our
b an
Ġhard ware
Ġcorrect ly
anc ing
S h
** **
i ance
P S
in er
gr icult
i ers
Ġcorrespon ding
ĠG ood
ĠK eep
Ġjo ke
Ð¸Ð¼ Ð¸
om an
Ġfriend ly
. w
Ø ¬
Ġsmo oth
ê ¸°
Ġad ult
Ġextrem ely
Ġj og
D irection
ĠÐ ķ
Ġc ore
Ġcar ry
Ġst d
Ġp ip
Ġrecogn ize
' )ĊĊ
Ġl iv
id ing
Ġeffort s
Ġb an
a res
Ġe f
r m
- art
ĠCh rist
at us
ÑĢ ÐµÐ´
Ġn ice
çĶ ¨
ĠF in
_p ath
ìĬµ ëĭĪëĭ¤
å ľ
Ã¡ri os
ut t
m ain
ĠM et
bl ack
) ;
Ġint ent
ist ent
( [
am in
Ġb atter
Ġvehic le
C E
Ġf ru
Ġsomet imes
re f
As s
w ise
ÑģÑĤ ÑĮ
Ġenh ance
ĠP res
Ġsens ation
Ġd ry
Ġman aging
Ġpr ices
\ "
Ġad m
ou b
Ġexpl or
Ġn os
ob ject
Ġon to
Ġs ession
Ã© t
- A
Ġw et
Ġpe ut
Ġvict ory
Ġminim ize
Ġfound ed
Ġw ood
T E
end a
Ġvol ume
Ġdes envol
:ĊĊ Ċ
Ðº ÑĨ
Ġindic ate
O nce
Ġsee king
i et
. root
Ġget s
Ġhistor ical
Ġcons ent
ĠA ust
Ġë ĭ
ĠFr ance
qu ery
Ġcor re
Ġstri ve
Ġpro s
Ġreal ize
ĠB er
Ġcare er
ĠÐ· Ð°Ð´
" I
Î ¼
ĠÐ¿ÑĢ Ð¾Ð´
ĠGerm an
Ġprofession als
W hy
Ġt aste
Ġr ally
. ex
Ġtok ens
ut il
Ġsol o
Ġpercent age
ist er
de v
f Ã¼
Ð¾Ð» Ð½
Ñ ĳ
ĠÑĤÐ°Ðº Ð¶Ðµ
Ġayud arte
Ġall a
Ġve get
Ġl ived
Ġl ips
ĠE le
on om
å®ĥ åı¯ä»¥
4 6
Ġer a
H T
Ġingredient s
Ġbel ong
Ġg od
Ġtrend s
Ġm ig
. st
Ġdis pon
c her
p ress
rodu ction
Ġtecn olog
Ġw ird
ÑĢ Ð°Ð¼
Ġg old
r ics
val u
Ġt ick
ro che
Ġb rief
Ġint ense
ag s
Ġsub s
Ġrecogn ition
Ġob ser
Ġprob ability
ock ed
ĠJ ack
Ġw ife
Ġgu ess
Ġcru cial
Ġbro ad
Ġseem ed
Ġparent s
u ge
Ġrele ased
Ġsol vent
4 7
Ġpres ident
Ġpued en
Ġvis ion
Ġlog ic
Ġn erv
Ġcl othes
ra ce
ãģ ĵ
Ġcomp ar
Ġha cer
Ġcri ar
Ġle aving
Ġstand s
Ġpromot ing
ĠÐºÐ¾Ð¼ Ð¿
Ġcomput ing
ÙĬ Ø©
Ġl ÃŃ
Ð¸ ÐµÐ¼
ĠS outh
Ġlimit ations
Ġd aily
an Ã§
Ġgra v
} }
ĠRe ad
Ġprodu ced
Ġcomplex ity
ĠT ime
r is
Ġhelp ing
he c
ĠØ ¹
Ġtip o
Ġflo at
ĠPro vide
Ġmaintain ing
Ġpropor cion
ĠÐ¾ÑĤ Ð²ÐµÑĤ
av as
Ġh urt
Ġc ra
Ġfre ed
D O
qu in
H ER
Ġp ou
Ġadvant age
Ġv ast
Ġgl ass
N A
Ġo g
Ġun ivers
Ġwork ed
u en
lt imately
Ġt it
Ġo l
Ġsol d
Ġr at
Ġbegin s
Ġt on
i Ã©n
R emember
Ġc opy
Ġ ÙĦ
ate ver
Ġs en
' est
Ġthan k
Ġma p
Ġd rop
Ġconvers ations
Ġreal ized
A fter
ĠÑĤ Ñĭ
Ġm er
Ã¤ h
Ġdown stream
Ġimpro ved
Ä ĥ
Ġth ick
Ð½ÑĭÐ¼ Ð¸
Ġwe eks
Ġdocument ation
Ġw ave
Ġc ours
.d irection
col umn
' :Ċ
ÑĮ Ñİ
Ġrecommend ations
Æ °
ib ly
Ġman ager
Ġfaz er
Ġtrans action
e f
is p
Ġpredict ions
S QL
Ġsod ium
D ay
ĠÐ½ Ð¾
ĠG PU
Ġinput s
Ġutiliz ar
ci ence
ĠP art
Ġcomp are
Ġra in
Ġc it
Ġein er
Ġthem es
Ġflo or
Cont ext
Ġill ness
Ġsol id
Ġlengu aje
P C
Ġhal f
Ġn aked
w ort
LE FT
Ð´ ÐµÐ»
Ġatmosp here
Ġv ac
avas cript
âĶ Ģ
Ġre newable
Ġch ain
.l og
us iness
m p
D S
0 8
Ġsol ar
est ic
- old
] ;Ċ
re b
ĠØ§ÙĦ Ùħ
d r
con tr
riend ly
am iento
\ \
Ġinclud ed
T O
ĠE xt
j son
Ð¾Ð¿ ÑĢÐ¾Ñģ
A ction
Ġc op
ĠÐ´ Ð¾ÑģÑĤ
Ġpos itions
Ġch ance
is ms
Ġsub t
ĠÐ Ĺ
u z
à¤ ¾
Ġpreg n
Ġrout es
ra ints
ĠM ar
è ¦
ific ations
I nd
Ġincor por
g ent
ê µ
Ġro ck
Ġh ttps
ĠW ell
. b
Ġì Ħ
Ð» Ð¾
Ġmel hor
Ġd ivers
um s
Ġt ener
ĠnÃºmer o
m ore
Ġt ables
Ġro t
it ial
qu ÃŃ
Ñĭ Ðµ
Ġsn ake
å ¾
ol ine
Ã© g
Ã©c n
est er
Ġf irm
V alue
ĠF orm
Ġg er
= tk
h al
ur rent
- T
Ġex emplo
l n
ac ci
4 3
it os
im iento
Ġcateg ory
op en
Ġm iddle
Ġein en
ĠS er
Ġviol ence
Ġh it
Ðº Ð»ÑİÑĩ
ĠÑĤ ÑĢ
Ġw ind
Ã ®
rom o
Ġhum or
Ġst atic
Ġcont roll
Ð°Ñģ Ñģ
Ġg ave
Ġt ur
ist ry
Ġs ports
_ st
Ã ¬
Ġr ub
Ġsim pl
Ġde cre
() )Ċ
le ft
Ġus age
ĠØ £
r c
Ġex change
oc ial
Ġfo i
Ġstruct ures
Ġlet ters
ĠÑı Ð²Ð»Ñı
-c ar
y les
Ġcapt ure
Ġanc ient
Ġcol on
Ġconf idence
ÑĢ Ñĭ
ĠÐ»Ñİ Ð±
G et
ĠL es
Ġexpos ure
( p
Ġper o
Ġy ang
Ġver b
L T
Ġr ates
Ġne igh
Ġb orn
Ø§Ø ª
ĠL im
ìļ Ķ
l in
Ġexperi encing
fol io
Ġ ?Ċ
on ic
et ry
Ġ{ '
Ġajud ar
Ġel im
Ġopp os
Ġdynam ic
Ġex ternal
Ġsw itch
] )Ċ
4 1
b and
è ®
- a
com ing
Ġfor ced
The y
Ġcirc um
Ġpro ces
Ð°ÐµÑĤ ÑģÑı
S ystem
om en
Ñı Ð·
Ġcl ub
Ġalg um
Ġg onna
Ġsu d
im o
roche mical
Ġfrequ ency
h ou
Ġfor ne
Ob ject
plic ations
b ash
.s nake
Ġb on
Ġsn ipp
R L
ĠÐ £
Ñİ ÑĤ
Ġfind s
Ġartic les
Ġco ffee
Ġm id
Ġun cover
Ġr an
Ġdo ctor
( side
. rand
ra id
Ġf as
Ġte acher
Ġcons cious
A G
Ġc m
Ġs ix
There fore
ĠN ational
Ġh an
( Ċ
ĠE u
i i
Ġnot ice
Ġdes c
Ġmanufact urer
Ġac adem
Ġcre ation
S ub
ri ve
Ġp ig
Ġpar k
Ġce lebr
ÐµÑģ Ñģ
y ou
? "Ċ
or ial
ĠO ther
ativ ity
U LL
ĠÑĢ Ðµ
ìľ ¼
ĠÐ² Ð°ÑĪ
p ublic
Ġ Ùģ
Ġso il
n s
ĠSt ud
F F
ĠK ore
Ġcommun ities
Ġt ent
Ø§ ÙĨ
Ġadv ance
o ke
Ã¤ r
-f riendly
Ġbe ach
Ġtr uly
Ġmiss ing
C P
an Ã§a
Ġknow s
Ġs Ã©
Ġproced ures
ib t
Ġe ager
ĠC ertain
R ight
Ġsp ent
Ð°Ð» Ð°
Ġb ath
Ġexcell ent
5 6
Ġprof it
Ġcred it
Ġper g
ĠO kay
V ID
g ment
Ð¾Ð´ Ð°
co in
e vent
Ġcare ful
0 9
Ġl ie
ĠJapan ese
ĠÑı Ð·Ñĭ
" ;Ċ
Cre ate
Ġinv ent
ct ors
ĠR ec
Ð ĺ
Ġp es
ĠU nder
Ġrestaur ant
/ d
ĠIt s
ĠkÃ¶n nen
Ġlist en
Ġupd ates
E nt
Ġf ish
h as
Ġcall s
Ġversat ile
Ġex cl
Ġde eper
ĠG reat
Ġslow ly
Ġlo ves
ãĥ ³
Ġinter f
Ġsk ill
Ġg ro
Ġtr ash
Ġd ia
ÑĤ Ð¸
Ġm ath
ox y
Ġcom ments
u ce
[ "
Ġì Ĥ¬
Ġro les
im m
ĠH ave
Ġregard ing
. LEFT
Ġres ource
Ġslight ly
Ġfundament al
Ġcol d
_ b
Ġins urance
é Ĺ
ĠM arket
Ð°ÑĤ ÐµÐ»ÑĮ
id ay
Ġn ome
ĠH y
Ñĭ Ñħ
Ġpol ice
eth od
p ip
ĠP ara
z i
erc ial
init ely
1 20
Ġtra d
ĠÏ Ħ
s m
Ġes cape
p m
Ġs ull
Ġcent ury
Ġepis ode
ĠA pr
æľ ī
ativ a
rom e
Ð°Ð¶ Ð´
Ġme ets
Ġë §
Ġt Ã©cn
Ġexerc ise
Ġp ap
Ġinst r
Ġan tic
Ġm ant
Ġres um
.app end
C C
AA AA
Ġpatient s
en v
Ġimp ress
======== ========
on acci
Ġmass ive
Ġtre ated
Ġme ant
Ġqu Ã©
Ġm undo
ĠM od
ĠRuss ian
- NAME
Ġselect ed
il er
Ġaf raid
ning s
Ġtransport ation
Ġch ick
Ġve z
P h
Ñģ ÑĮ
ĠRe act
Ġmeasure ments
at ura
ĠP DF
Ġamount s
Ġsh aring
uss y
ĠA p
Ġg ent
Ġcont ra
Ġphr ases
Ð¾Ð» ÐµÐµ
ĠÐ¿ Ð¾Ñģ
b ra
] :
Ġsk y
ĠÃ©t Ã©
ÑĢ Ð°ÑĤ
Ġp ound
id ents
ĠÐ° Ð½
V iew
Ġfol der
Ġf al
ĠA WS
ĠY ork
U E
Ñĥ Ð»ÑĮ
Ġimmedi ately
-s ource
st ood
ro y
Ġì ĭ
Ġmodel ing
Ð¾Ð» Ð¾Ð³
unt as
Ġperm it
s ystem
Ġpued es
ĠðŁ ĺ
' un
up date
Tr ans
' '
Ġrel atively
M e
__ (
Ġ à¦
b a
` :
H P
u pp
ë Ĥ
Ã¤ nd
Ġrepresent ation
ĠPro cess
Ġf arm
ab et
Ġkey words
ĠÐ¸ÑģÐ¿Ð¾Ð»ÑĮÐ· Ñĥ
Ġd ot
Ġl ang
am m
Ġv ent
Ġ\ "
Ġrap id
Ġr u
ĠT ype
ĠCh o
I P
Ø ´
hold ers
Ġde pth
Ġb ond
ÑĤ Ð¾ÑĢ
ĠSt ate
Ġd yes
Ð¾Ñĩ ÑĮ
u gin
u an
.snake Obj
ĠÑĤ Ð¾
Ġaltern ative
th is
ĠÐ¸Ð½ ÑĦÐ¾ÑĢÐ¼
r an
Ġpart e
Ġcam p
Ġch air
. create
ÑĥÑİ Ñī
à §
à¥ ĩ
Ġdes e
Ġd ar
m os
Ġsk illed
Ġdis so
ri o
ĠÐ¸ Ñħ
Ġest a
Ġed ge
i Ã§Ã£o
Ãª s
' ;Ċ
å ¸
Ġnom bre
ĠIn formation
ĠCal cul
å Ľ
ĠÐ¼ Ñĭ
Ġwh atever
Ð¿ÑĢ Ð°Ð²
und er
Ġn el
ìļ ©
Ġt ien
Ad d
Ġst aff
Ä Ł
Ġf ig
Ġse us
ĠA ND
Th ank
Ð¼ Ð¾Ð¶
Ġis so
Ġmain ten
h ttp
Ġsynt ax
Ġmonitor ing
m od
Ġlet s
Ġpro jet
ĠQ ual
pon d
Ġtre es
ĠEx pl
Ġseg ur
Ġide al
Ġtrans m
å ½
Ġis ol
Ġclass ification
Ġout ros
Ġins ert
Ġpart ies
gg i
Ġanswer ing
ag ue
or row
Ġne utral
le y
Ġes p
Ġz ero
z t
/ NAME
Ġa gricult
Ġg ather
-m eth
Ġpr oud
en u
. x
19 6
f en
ĠÐ´Ð°Ð½ Ð½ÑĭÑħ
C hat
s k
Ġconf irm
Ġtod os
Ġob st
S ay
O M
Ġform ation
Ġdeg ree
Ġbl og
Ġexper ts
Ġview s
Ġn it
Ġd f
ĠÐ² Ð¾Ð¿ÑĢÐ¾Ñģ
Ġh us
Ġex ception
Ġcam pa
ĠRes earch
Ġmathemat ical
Ġst able
ateg ory
ĠN OT
ë¦ ¬
Ġb er
c ount
r ont
Ġim pl
Ġpre p
Ġfocus ing
Ð» ÐµÐ¼
Â° C
Ġdr ink
ac a
ĠÐ¾ Ð½
Ġoper ator
Ġear lier
Ġ( '
Ġsit ting
Ġmanip ulate
ĠÐ¿ÑĢ Ð¾Ð³
rain ing
Ġse ason
ĠÑĤ ÐµÐºÑģÑĤ
or al
Ġmen u
Ġcontain ing
O r
Ġch a
Ġenc ryption
O h
ÐµÐ½ Ð¸Ð¹
Ġclos ely
Ġfor get
Ġm ill
Ġse in
Ġinform ed
Ð¾ ÑĪ
Ġv ie
Ġre ag
ĠÏ Ģ
row n
ph p
ag on
Ġa x
Ġfunction ality
Ġevent ually
Ġcomp at
Ð¾ÑģÑĤ Ð°Ð²
_ n
Ġbut t
ari an
Ġcas o
Ġheav y
Ġking dom
Ġnuc lear
Ġtrans actions
igh ter
Ġdeliver y
ĠJ une
Ġg ru
Ġtra bal
ag g
Ġc ivil
ĠA tt
ë ³
ÑĢ Ð¾Ð²
Ġm ine
Ġda ughter
Ġì Ĺ
D B
X X
Ġfin ance
Ãº n
Ġlim its
ĠSystem s
Ġapp les
Ã¡ c
Î º
ra b
w rit
Ġremain s
Ġdescri bes
Cl ass
A ll
-m ethyl
ä¹ Ī
ud es
os c
Ġcur ious
Ð Ĳ
ĠÐ¿ÑĢ Ð°Ð²
Ġclos ed
Ġintel ig
Ġreal istic
ĠComp any
o in
Ġche cks
ĠG es
Ġgr at
Ġs ad
Ġj oy
.game Frame
Ġen f
ĠÐ² ÑĢÐµÐ¼
ĠPres ident
ÑĢÐ°Ð¼ Ð¼
ĠEng ine
ci pl
D D
ĠHe alth
ar g
Ġl ab
Ġse conds
Ġen contr
al i
ĠMan agement
ë ©
E lement
Ġhapp ened
ĠU k
Ġstrugg ling
ĠCons ider
Ġn one
ĠL arge
ÐµÐ» Ñı
g l
5 9
ç §
is chen
ĠM r
ĠÐ¼ ÐµÑĤ
- N
P erson
ĠCertain ly
Ġchann el
= self
Ñĸ Ð´
ĠS ing
O L
ìĿ ¸
Ġdeterm in
Ġempres a
ĠPl an
Ġperson a
ĠAl so
Ø§Ø ±
ol s
P osition
è ¡
ĠO f
r t
al k
Ġcan vas
Ġpass age
ĠW est
ĠDes ign
Ġcampa ign
re ib
Ġf resh
Ġlo yal
Ġbo ys
Ġenc oura
ĠF ace
Ġunder lying
ĠÐ¿Ð¾Ð» ÑĥÑĩ
se arch
ê³ ¼
and s
-p ro
z er
Ġgra du
en ame
Ġbott om
U I
Ġp ussy
Ð» ÐµÐ½Ð¸Ñı
Ġb in
ĠWh ich
7 7
Ġb ib
ur ch
Ġport folio
t ics
Ġhe l
ĠB attle
Ġold er
Ġj ed
Ġp ant
Ð½ Ð¾Ð¼
ä¸ Ń
ĠÐ¿Ð¾Ð¼ Ð¾ÑĩÑĮ
F orm
den ly
qu er
Ġes emp
é ĩ
Ġpurch ase
qu es
o ch
ĠÐ¿ Ð¾ÑĤ
g ust
ph one
Ġv ert
com pl
ok es
Ġra cing
N ot
Ã¨ s
Ġorg asm
Ġd ro
Ġre venue
Ġdef e
Ð¸ÑģÑĤ ÐµÐ¼
R I
å į
Ġob serv
æ Ĺ
Ġf uck
P ar
Ġoptim ize
Ġpersonal ized
Ġmyster ious
l ights
ent es
Ġì §
Ġimprove ment
r un
ĠÐ´ Ð¾Ð»Ð¶
Ġb illion
sh ine
Ġemploy ee
Ġstra ight
Ġy ield
Ġsnipp et
T H
Ġa ux
ĠIn s
' .
Ġvel oc
Ġflex ible
Ġein em
ÑĥÑĩ ÑĪ
ĠI I
Ġit er
ÑĢ Ð°Ð±Ð¾ÑĤ
ĠU sing
l ation
Ġbrow ser
Ġp ag
Ġv ibr
Ġpl ants
Ġcu enta
Ġcry st
is ation
z ie
Ġt are
Ġexpl os
Ġexplicit ly
-d im
Ġch art
ist e
w a
ĠÐ¿ Ð»
ÐµÐ± Ñı
od ing
Ġmus cles
put er
ĠK ing
s cript
Ñĥ Ð±
Ð´ Ðµ
Ġdef end
ÃŃ as
Ġdra g
Ġminim um
Ġposs ibility
ĠM ach
Ġmind ful
Ġhab en
od er
à¸ Ļ
os ing
rough t
ĠÐ¼Ð¾Ð¶ Ð½Ð¾
x ide
ĠTrans form
as se
Ġattrib ute
Ð°Ð» Ð¸Ð·
' Ã©
Ġa ument
D ifficulty
Ġn ational
Ġgrow n
Ġde veloper
ri z
Ġst ability
Ġk it
ĠJ ew
v ant
Ġapp lied
Ġent ities
ang ing
hip s
ĠApr il
ĠT ry
- level
Ð¾ Ñī
Ġconsider ing
v ents
Ġdri ver
Ġcl uster
Ã± o
b aj
Ġej emplo
Ġapproxim ately
Ġmo ved
ĠR em
anc y
. n
Ġear th
he it
Ġ AM
ot o
Ġst im
aa aa
In ter
ol f
Ġvehic les
cont ent
en as
oc Ãª
Ġmov ies
Ġla ugh
ÑģÑĤÐ² ÐµÐ½
l ar
ra f
p ers
com es
Ġstrength s
pon s
S m
ÐµÐ» Ð¸
( m
Ġstrong er
et ch
Ġg li
Des pite
ĠIntern ational
Ġro ll
Ġf ab
ĠEurope an
Ġb alls
ĠVis it
ĠÐ¸Ð¼ Ðµ
og en
ak er
ar ter
ĠEx per
ĠS T
Ġcont ents
Ġder iv
h ouse
D own
um in
du c
l os
is er
Ð´ Ñĥ
y a
Ġm Ã¶
ĠLear ning
Ñĭ Ð¹
Ġclim ax
Ð Ķ
O f
ĠS m
5 8
Ġ< =
ĠD ep
Ġwarm th
ĠÐ´ Ð¾
ĠS an
Ġus ando
Ġtempl ate
Ġpie ces
ĠÐ±ÑĥÐ´ ÐµÑĤ
ĠD u
ir ation
ĠAust ral
Ġy a
Ġgent le
Ġsal t
Ġh i
Ġsc al
Ġschedu le
Ġcos met
ĠÐ ĳ
Ġsy n
Ġagre ement
Ð°ÑĤÑĮ ÑģÑı
Ġin se
Ð² Ð¾Ð»
ëı Ħ
ĠÑģÐ» ÐµÐ´
Ġqu eries
m ber
Ġtell s
Ġchang ed
. T
Ġb ow
us hed
f il
al ysis
Ġachie ved
Ġcapac ity
= True
em per
Ġk om
_ re
uest a
( $
Ġ íķ
ĠT w
Ġf u
lic ation
Ø§ Ùħ
an ish
we ight
Ð¿ÑĢ ÐµÐ´
Ġdri ving
Ð½ Ð°Ðº
Ġdest ination
Ġdist in
ash ion
Ġ\ Ċ
Ġindic ates
ÃŃ t
Î ¯
æĸ ĩ
à¸ Ń
---------------- ----------------
ĠCS V
Ġeffect iveness
ĠÑĢÐ°Ð· Ð»Ð¸Ñĩ
Ġm m
ãĤ Ĭ
Ġs and
ĠC SS
Ġh op
F irst
R ead
Ġnerv ous
Ġcompet ition
ĠGr oup
rad a
Ġass ume
Ġa th
! "Ċ
6 8
Î ®
[ ]
Ġgood s
w hel
Ġhab il
ĠÂ «
ĠRuss ia
Ġmod ules
Ġon t
Ġquest o
HER E
Ġl lam
Ġb ien
Ġgr id
Ġmove ments
ic ion
Ġlabel s
8 00
f in
it u
ĠÐ²Ñĭ Ð¿
Ġspecial izes
Ġpret end
ex ample
iz za
C D
N ew
Ġs ab
Ġpesso as
Ġmar gin
Ġhot el
Ġpr Ã©
Ġshow ing
-s h
Ġst ake
Ú ©
Ġn ella
Ġknow ing
ra ys
P r
icht ig
ĠSt ar
S I
U se
Ġm ens
Ġn odes
.. .Ċ
M M
om a
-chlor o
ÃŃ st
box y
Ð°Ð½ Ð¾Ð²
Ġenable d
ĠCon f
ãģ ĭ
Ġsuggest ed
Ġv end
ĠL anguage
' );Ċ
Ġpr on
if orn
Ġwal king
Ġam pl
Ġexp osed
st ery
Ð» Ðµ
Ġgra b
l ines
Ġcom ando
E l
or i
Ġfor ces
Ġcomm ercial
Ġho le
Ġmist ake
st ract
- com
SE LECT
Ġw ir
ĠP C
Ġf uel
ter ior
Ġer otic
Ġt eng
Ġrat io
Ġg ard
ro t
ag ram
Ġdescript ions
Ġdis s
è¦ ģ
Ġwait ing
ĠR el
Ġcircum st
land s
ç »
ch at
ang es
. Button
Ġacadem ic
ĠCl oud
ĠÐ² Ð¸Ð´
ĠSt ay
ĠTechn ology
Ġphilos op
ĠPl ay
( b
Ġlist a
L A
ug ar
ĠP ract
Ġsho pping
ar roll
ĠB oth
Ġsh irt
ÑģÑĤÐ² Ð¾
ur ies
ri p
S A
P A
ĠH and
Ġspecial ized
gr oup
ÑĥÐ»ÑĮ ÑĤ
_t ext
Ġreason ing
l ated
Ġcon ver
Ġover whel
g t
Ġcon hec
Ġamaz ing
ĠL oad
ĠF ind
Ġprep ared
Ġdep artment
pl t
ĠN ULL
Ġover view
Ġë ĮĢ
Ġbelie ved
le ts
ĠPro gram
Ġcon j
os en
Ġev il
Ġphys ics
Ø Į
Ġle an
H ead
Ġus o
Ġag o
Ġd ance
ĉ Ċ
ĠM ax
Ġutiliz a
Ġline ar
å Ĩ
un to
erv ices
Ġm ort
stand ing
Ġcontro vers
ĠA ng
5 7
Ġcre atures
che ck
Ġass ets
et er
ĠĠ ĊĊ
ĠÑĥ Ñĩ
Ġc art
ell es
wh ite
Ġ" "
Ġexc iting
ĠÐ¸ Ð³
im ents
Ġcall ing
ĠÐ¸ÑģÐ¿Ð¾Ð»ÑĮÐ· Ð¾Ð²Ð°Ð½
è §
pl oad
Ø§Ø ³
boxy lic
y lp
Ġf iction
Ġih re
gra de
Ġ ÙĬ
ill a
ĠÑį Ðº
Ġcours es
ĠÑĦ ÑĥÐ½
Ġn as
ain t
ĠChemical s
Ġemb ed
Ġv ag
ĠÐŃ ÑĤÐ¾
Ġre in
Ġgirl friend
E vent
Ġg Ã©
Ġwor ry
ĠCho ose
z o
Ð¸ Ð¾Ð½
ĠPro du
P O
re al
ĠU K
Ġnum py
Ġcateg ories
c ale
Ġv or
ĠDis c
Ġperspect ives
5 2
Ġdet ection
Ġs ight
Ġd ent
per o
Ġc ette
Ð°Ð» Ð¸
Ġdis gust
W ho
Ġoptim ization
Ġco herent
iforn ia
Ġrun s
re et
Ġk ill
i ans
å ¼
Ġtra baj
Ġte le
Ġpro ceed
Ġin n
ĠU RL
ÑĢ Ð¸Ð¼ÐµÑĢ
Ġsumm arize
Ġadvant ages
Ġfun ciÃ³n
ĠInd ian
Ġfin ished
Ġma x
____ ____
Ġla v
à¹ Ī
Ġbehav i
ĠÐ¿ Ð¾Ð½
Ð¸ ÑģÐº
Ġb are
Ġb inary
oc o
ç ī
Ġ )
Ð¼ ÐµÐ½
Ġo k
ĠP ost
Ġappro aches
t ra
ĠÎ µ
respon se
ÑģÑĤÐ² Ð°
Ġon going
I F
ĠG it
' h
ĠT O
Â »
Ġpe e
Ġsem pre
Ġf ier
ic ide
Ġopin ion
ĠÐ ĵ
Ġsh y
ĠÐļ Ð°Ðº
t able
Ġst ood
ĠOb ject
ĠF ed
× Ķ
ah r
Ġpow ers
pe ed
Ġk ids
.game Obj
= {
Ġb rought
Ġp ure
ĠGerm any
red ict
Ġinflu enced
n el
Ġintellig ent
" ]
Ġfun ny
Ġoff ering
Ġesemp io
. read
Ġac compl
Ġmarket s
Ġantic ip
Ġwe alth
ĠL os
Ġhapp ening
Ġhy per
ĠH ouse
xi ety
Ġa st
Ġprote in
áº ¡
or gan
ĠÐº ÑĢ
it ution
id get
Ġd Ã©c
ul ated
ĠÑģÐ» Ð¾Ð²
Ġpassion ate
d it
Ġfix ed
Ġmedic ine
ock er
Ġthem e
) )ĊĊ
an ol
ac ional
Ø ®
ĠÐµ ÑģÐ»Ð¸
Ù ī
Ġdel icious
Ġc ab
Ġhigh light
Ġfreed om
Ġgre w
v il
Ġch am
Ġr ise
cl ose
Ġprodu cing
Ġimplement ing
> >
lic he
Ġmot or
Ġint rig
Ġmil k
ac ing
. org
ĠU til
Ð ł
ìľ¼ ë¡ľ
Ġst ars
Ġcomput ers
et a
Ġbenef it
Ġm ast
ÐµÑĤ ÑĮ
Ġpe u
Ġout line
Ġchar ge
Ġretrie ve
Ġcoord in
ĠAmer ica
ãģĻ ãĤĭ
ĠO ut
ci pe
n am
amb da
us es
Ġap art
Ġunc ertain
Ġun f
ect ive
i Ã¨re
ĠOrgan ization
Ã³ ria
Ġno ise
Ġro b
Ġproblem as
Ġperm ite
ĠGener ate
l ate
ec ut
Ð° ÐµÐ¼
out e
Ġenc ounter
and a
ĠYou T
est s
ut ter
p es
Le ft
ec ause
à¤ °
Ġm uit
ut os
Ã¡ tic
Ġreport s
Ġcomplet ed
. de
ce an
oc king
Ġmainten ance
al a
ĠÐ¿ Ð¾Ð·
Ex pl
Ġsepar ated
Ñ Ĺ
Ġnot es
Ġcor por
Ġt ong
/ Ċ
ĠÑĢ Ð°Ñģ
o ption
ret urn
p u
un ge
Ġhe ll
Ġbe m
Ġper ce
anc er
ĠComm un
Ġencontr ar
I l
ĠÐ± Ð¾Ð»ÑĮÑĪ
ĠB el
iz ado
Ñĥ Ð²
ĠĠĠĠĠĠĠĠ ĠĠĠĠĠ
Ġag rochemical
Ġpol ÃŃ
Ġbrow n
ìĭ ľ
ĠS k
Ġprint s
j s
ĠN ext
ĠÑĢ ÐµÑĪ
es p
Ġman e
Ġent ertain
é Ģ
j our
Ġth read
ÐµÑĪ ÑĮ
Ġcircumst ances
Ð¸Ð ¶
Ġequ ipped
Ã³ w
lic hen
Ġfam il
Ġrom antic
ĠC E
Ġse lection
Ġhapp iness
ĠÙĪ Ø§ÙĦ
Ġun its
Ġbib li
Ġtr ig
Ġresol ve
Ġinform azioni
Ġinter val
Ġatt end
Ġb ag
ĠS pec
6 7
Ġb is
Ġbe i
Ġë ³
Ġgrand e
- eff
ĠWor k
Ġavail ability
( input
ĠâĢ Ķ
Ġp ants
l ocal
Ġmat ches
- th
ĠÏ ĥ
ĠA ir
Ġpass ing
ë Ĳ
Ġaffect ed
Ġsull a
ĠApp le
Î¿ Ïħ
Ġcl in
Ġmo ves
Ġcollabor ation
âĢ ¦
H ey
Ġad vert
ĠÑģ Ð¸ÑģÑĤÐµÐ¼
Ġtransl ate
ĠI A
st d
Ġs ides
Ġconne ctions
Ġext ension
Ġcompet itive
Ġ :Ċ
ĠÐ´ Ð²
cre en
Ġp ra
Ġag ree
osit ory
Ġl en
Ġd al
ĠP M
Ġout ras
Ġfunction al
ish ment
Ġredu ction
Ġexpect ations
ĠC ap
Ġpod r
Ġg ibt
Ð² Ð¾Ð´
is is
ĠE nd
Ġabs ol
Ġin ner
be it
m ap
Ġhydro gen
Ġ ...
Ġconce al
ĠS un
Ġth or
Ġmag ical
is che
ĠM arch
ĠEn ter
éĹ ®
ha pe
Ġrestrict ions
im p
.p ause
Ġc row
ue go
Ġthr ust
Ġserv ing
ãģ Ĥ
ic king
( data
6 00
R eg
ÑĤ Ð°
Ġreve aling
6 9
ĠP at
Ġegg s
em po
Ġover come
- de
Ġd oll
Ġevalu ation
Ġe ating
ìĬ ¤
ĠAnd roid
Ġt am
Ġt un
is k
Ġan che
Ġdes arroll
ent i
her n
Ġj u
M an
Ġmot ion
` .ĊĊ
Ġvulner able
Ġl it
Ġlingu agem
Ġphot o
T e
Ġsur ge
Ġst yles
Ġpr ide
é ¢
Ġc ourage
b ru
ĠCal ifornia
un os
Ġpel o
ĠÐ± Ð¾Ð»ÐµÐµ
Ex ample
E M
ĠD ist
Ġstre t
ĠB usiness
Ġg ently
Ġco vered
ĠM any
Ġb its
Ġout come
Ġh osp
oc a
Ġdat etime
Ġhigh lights
_ string
Ġle aves
Ñ Ķ
Ġdisco vered
ĠÐ¼ Ð¾Ð´
co hol
ph r
Ġindepend ent
Ġs el
ĠÐµ ÑģÑĤÑĮ
Ġr ating
th ough
ĠÑģ Ð¼
Ġsp ark
Ġqu ando
Ġcr ime
Ġpreg unta
Ġreturn ed
Ġremo ved
_ to
act ive
Ġant es
Ġfact s
Ġmed ium
Ġcult ures
ul ations
Ġor ient
ĠU s
ĠÐ² ÐºÐ»ÑİÑĩ
h ar
Ġfac ilit
ĠIm plement
æ ī
ĠÐ± ÐµÐ·
curs or
m i
Ġfon ction
Key Press
Ġlead s
in em
re me
ĠO N
iz aÃ§Ã£o
Ġtra v
Ġm Ã¡
ä¸ º
AT ION
Ã ĥ
it ute
t ell
se qu
Ġinclu indo
ĠÐ¿ÑĢÐ¾Ð³ ÑĢÐ°Ð¼Ð¼
-t un
Ġrelig ious
Ġprodu ces
Ġcr im
O ptions
ĠN on
r ut
er ror
E X
Ġdispos it
Ġmus cle
ĠF ile
++ )
Ġcu i
t Ã³
Ġe en
Ġout comes
-t rained
Ġro ar
cess o
Ġca ught
ĠR o
Ð¾Ð³ Ð´Ð°
Ġsur pr
En ter
Ġsp ot
Ġì ľ
ĠS cience
Ġprocess o
Ġd ura
L ine
æ ł
Ġperform ed
Ð¸Ð² ÐµÑĤ
ĠRes ponse
Ġai ut
Ð ľ
net ic
Ð¾Ð² ÐµÑĢ
Ġchick en
Ġfun cion
ĠSh ow
8 8
i op
Ġm ur
ĠAl g
ar se
irect ory
ĠÐķ ÑģÐ»Ð¸
Ġscient ists
Ġti ene
Ġl uck
ĠÐ´ ÐµÐ»
ad ing
Ġra ise
S ome
_ date
Ġc ogn
Ġrec over
Ð¾ÑģÑĤ Ð¸
Ġsoci et
Ġsh akes
Ġr ough
Ġdir ty
Ġim plications
Ġpresent ed
Ġproced ure
. âĢĿ
2 50
Ġ-- >
Ġe cho
5 4
Ġpregn ant
Ġh ob
Ġposs ess
ĠM o
ä» Ģ
,, ,,
Ġstre et
Ġpract ical
æĢ §
Ġpict ure
Ġpur ification
Ġch apter
Ã³ g
ĠĠĠĠĠĠĠĠĠĠĠĠĠĠĠĠ ĠĠĠĠĠĠĠ
ol low
Ġsp ell
IN E
Ġland s
it ors
ĠCh ar
Ġpartic les
Ġcou ple
Ġst o
cl ient
æķ °
Ġsw im
Ġdur ante
Ġmod ified
x id
z ed
Ġstrugg les
Ġreport ed
ĠÐ¸Ð½ ÑĤÐµÑĢ
Ġwat ched
Ġc ual
mer ce
ĠT wo
Ġcour t
Ġspe aking
Ġemb ar
z za
ĠÃ ¤
pon ent
ĠÐ· Ð½Ð°Ñĩ
form ance
_ x
Ġn ipp
Ġfun Ã§Ã£o
Ġclean ing
p arent
Ġsh ip
ĠÑıÐ²Ð»Ñı ÐµÑĤÑģÑı
ë §
ĠÐ¼ ÐµÐ½
ðŁ Ķ
Ġtell ing
Ġw it
Ġsignificant ly
Ġsed u
qu ire
Ġhe ir
Ġr ig
Ġpa id
Ġt orch
c ss
rom etry
ĠÑĤ ÐµÐ¼
i ate
Ġconscious ness
Ġn ach
Ġre ward
ed ia
Ġcre ar
c ase
Å ¾
Ġweapon s
_ in
Ġlay ers
I O
Ð¸ÑĪ Ð¸
Ġ q
ĠÑģ ÐµÑĢ
Ġsurround ing
ĠS ocial
. e
af e
å®ĥä»¬ å®ĥä»¬
im g
Ġfant asy
Ġrel ative
Ġstro ke
. re
Ġinter view
Ġcontrol led
ha i
o ir
est e
Ġsu gar
ĠB rit
Ġb g
an ia
Ġfund s
Ġthe rapy
ud d
ĠÑģ Ð°Ð¼
Ġcr Ã©
ra ine
Ġmeaning ful
à¹ ī
ins ert
' a
Ġcomm e
íķĺ ëĬĶ
ä ¼
ĠA z
Ġtre mb
Ġexec uted
Ġcrit eria
N ext
ĠD ec
Ġfr ust
Ġn ur
he ight
comm and
Ġw all
ag ers
à¸ ģ
Ġrobot s
ple te
Ġre nt
ĠF inal
ĠPro v
ĠĠĠĠĠĠĠĠ ĠĠ
yp es
Ðº Ð¾Ð²
Ġsit es
Ġalg o
Ġsig u
ĠIn vest
Ã¡ f
Ġth ro
Ġattrib utes
ĠP ark
Ġan xiety
Ġche cking
ĠÐ· Ð°Ðº
ĠEx cel
ðŁ ĺ
k i
Ġes col
í Ļ
Ġass ert
× ľ
ul s
Ġpl ugin
Ġmod Ã¨
p ack
Ãº s
ë °
Ġremain ing
m ax
ãĤ Į
Ø µ
ĠA ug
ĠM at
Ġart ist
N et
Ġwe ights
Ġhesit ate
Ġp in
p ost
ĠU m
Ġhus band
Ġc ities
Ġarous al
F low
Ġexp ensive
Ġsp aces
Ġlist ening
Ġtal ent
Ġresol ution
Ġintegr ation
Ġo h
ĠcÃ³ mo
n ic
Ġwel come
s ql
ĠÐ¿ÑĢ Ð¸
Ġto do
ag en
Ġpl aced
al ax
" :Ċ
Ð°Ð½ ÑĤ
Ġp ages
ĠDes pite
Ġes pa
11 1
Ð¸ÑĤÑĮ ÑģÑı
Ġcont rast
Ġs plit
ra v
ĠÃ© gal
ĠContin ue
Ġtag s
Ġprincip al
Ð¸ Ð»Ð¸
Ġv it
Ġattract ive
© ëĭĪëĭ¤
- v
Ð² ÐµÑĢ
ĠÐ½ ÑĥÐ¶
c ell
Ġaccess ible
Ġp hen
ess e
Ġfit ness
ä»Ģ ä¹Ī
- H
Ġf ed
Ġl oro
Ġre b
ĠYouT ube
- date
N S
Ġse ven
ĠB i
à¹ Ģ
qu it
Ġanaly zing
Ġhe ro
Ġpl ays
ĠÐ¾Ð± ÑĬ
ìĹĲ ìĦľ
Ġy ellow
ĠÑĤ ÐµÑħ
am i
Ġdise ases
Ġcrit ic
Ġexpl o
10 1
Ġp ed
ĠJ an
at in
ĠS ervice
ar gin
Ġthor ough
ak t
Ġrecurs os
uest o
ch ing
ĠIs so
ĠÐ¿ Ð¾Ðº
in ations
âĶĢ âĶĢ
Ġlo an
' ai
u ary
Ð°ÑĨ Ð¸Ñı
ĠmÃ© t
all a
Ġdra wn
t ical
å Į
ìł ģ
Ġsee ing
\ x
Cl ient
Ġobject ive
Ġautomat ically
Ġre aches
K E
[ Your
h ab
we ar
G o
Ġf illing
Ġb low
i ere
Ġlay out
Ġindic ating
ple ase
Ad ditionally
od ay
Ġse vere
' ex
cl usion
. res
Ġì ĺ
Ġobst ac
' in
Î ¬
ë ¬
ast ics
A re
Ġs es
Ġoppos ite
ĠM aster
ha ust
ic ian
Ġnecess arily
k l
Ġplay ful
.d raw
Ã© l
Ġsur f
Ġconsum ption
å®ĥåı¯ä»¥ å®ĥåı¯ä»¥
ĠA D
art ic
Ġmach ines
Ġstake holders
Ġsupport ed
Ġsecond ary
Ġco vers
Ġk il
d is
Ġh ous
un c
Ġre ct
ans wer
( a
ĠC PU
Ã± a
Ġh ate
res pect
U s
Ġhy d
ĠRe f
Ġleaders hip
Ġnot iced
ra it
Ġrecogn ized
ĠÐ²Ñģ Ðµ
ac et
Ġfin ish
ì ĥ
t ml
Ġpe ux
ĠN umber
emper ature
Ġconfig ura
kn ow
19 4
num bers
ib les
- on
ãĤ ¹
Ġhydro chlor
-re lated
× ¨
ĠM ain
Ġtem por
Ġpur ity
h and
- r
Ġrel acion
Ġment ions
Ġweak ness
ĠÐºÐ¾ÑĤÐ¾ÑĢ Ð°Ñı
Ġsend ing
à¥ į
Ġal ive
Ġint ention
l ock
ĠM i
ï¼ ģ
.. ."
ĠÃ©gal ement
Ð¾Ñģ Ñģ
ÑģÑĤ Ð°Ð²
Ġpl astic
å º
g n
Ġpr Ã³
P er
ç Ń
ĠF ROM
Ġple as
. rect
Ġmist akes
Ġp ens
em ents
ĠÐ¾Ð± Ñī
ang ed
Se lect
Ġpropos ed
pr ing
wh ile
Ġsul f
Ã± os
Ġregular ly
ĠBl ack
ĠS te
ĠE in
Ġread er
E L
ag ine
Ġt ill
el es
-m aking
Ġpy game
Ġdata frame
Ġest imate
ĠAl Ã©m
ĠS in
Ġex cept
Ġjust ice
ĠEm p
el i
' app
Ġorig in
iz a
Ġlist s
Ð» ÐµÐºÑĤ
Ġperform ing
B o
ĠÐ½Ð° Ñĩ
ĠÐ»Ñİ Ð´
Ġbatter y
L og
ĠÐº Ð¾Ð»
g ot
at as
Ġso le
Ġun cle
ĠmÃ© d
Ġmed ication
Ð» Ð°Ð´
ĠJ uly
Ġdef ines
Ġnumer ous
Ġincred ibly
ĠSe curity
-st yle
ugg ing
Ġgame Obj
Ġkey word
Ä± n
ic ar
Ġpod er
äº º
S p
Ġaut o
Ġl ose
ãģ Ĩ
pt ember
ict ed
reb be
P or
ĠSo ft
ĠÑĥ Ð´
Ġproblem a
ĠÐ· Ð°Ð²
Ġn i
ne a
Ġst unning
" You
Ãº blic
Ġrespect ively
ĠÐ¼Ð½ Ðµ
Ø ·
ĠIm age
Ġant ib
et e
19 5
am ide
ici ans
å®ĥå®ĥå®ĥå®ĥ å®ĥå®ĥå®ĥå®ĥ
S P
Ð½ Ñĥ
oc ur
Ġpub lished
Col or
Ġelect ronic
Ã³ s
iss ive
B A
form at
k er
ë ŀ
op ic
Ġl inks
Ġre n
Ġad ds
Ġan ger
ë ²
ãĥ¼ ãĥ
ì Ĥ¬
Ġembarrass ed
Ġë Ĥ
Ġre cipe
Ġz ur
-st ep
Ġf an
Ġman era
Ġinter action
Ġ! =
Ġhum ili
pass word
ist ory
ĠL og
p i
C A
Ġag ents
P ath
9 8
Ġup stream
ÑħÐ¾Ð´ Ð¸Ð¼
Ġd ates
Ġbas is
Ġk m
ĠE nc
ì Ľ
Ġw is
am ino
c ut
id in
Ġwrit er
· ¸
as ion
ĠÐºÐ¾Ð½ ÑĤ
ÑĢ Ð¾Ðº
Ġà¤ ķ
Ġresist ance
Ġdesenvol v
p arty
ĠâĢ ĺ
ä¸ ĭ
ĠZ e
Ġmu ito
I L
Ġenviron ments
Ġagain s
Ŀ ¼
Ġsumm ar
Ġal most
Ġch arm
A PI
AR T
ĠDo ctor
Ġgraph ics
ĠS ur
Ġidentify ing
ð Ŀ
Ġne ck
Ġacc ident
Im age
hor us
Ġdin ner
Ġ ä½łå¥½
Âł Âł
æ Ŀ
Ġcalcul ated
Ġest ar
Ġ ice
Ġjob s
( c
Ġc v
Ġcomp ress
Ġfac ed
Ġpa ÃŃs
Ġturn s
if orm
5 3
Ġ( Ċ
Ġcons ume
Ġbre aking
ĠEx plain
Ã¡ n
_ g
Ġche ese
Ġdefin ition
Ġfa ire
. M
Ġap enas
Ġrepresent ing
A ct
Ġliter ature
Ġdef initely
Ġtu o
Ġdur ch
ian o
Ġinteract ive
å Ĵ
ĠÙģ ÙĬ
Ġobject ives
Ġarqu ivo
ĠSy nt
Ġphot os
ĠN orth
Y Y
Ġfac ility
ĠAg ent
Ġsubject ive
Ġdomin ant
Ġj est
Ġspeak er
Ġre write
Ġfier ce
ÃŃ cul
Ġconvert ed
ant ed
Ġspe ct
Ġrespon der
f ix
Ñĥ Ð¹
de hy
Æ° á»
Ï ī
Ġexist ence
b in
Ġd ign
Ġw ichtig
Ġcon oc
Î ¸
ĠRet urn
S c
Ġintrodu ced
Ġown er
e gr
S et
Ġdeep ly
Ġclaim s
Ġcre ativity
Ġsur prise
Ġtong ue
Ġcar s
Ðµ ÑģÐ¿
Ġcommun ic
Ġsegu ir
u per
Ġpr ison
Ġwas h
Ġkind ness
Ġfore ver
Ġstri ke
Ġclass ic
ĠD el
Ġult imately
Ġmet rics
Ġcomb ined
Ġpack ages
D is
m as
Ġ& &
C horus
Ġhard er
ĠA f
t ed
18 0
Ġt orn
£ ¼
ĠL eg
Ġed itor
Ġyour s
ĠCon st
ĠThe ir
Ġreal izar
Ġê ³
ĠDevelop ment
ass ion
des cription
Ġtamb iÃ©n
Ð°Ð¹ ÑĤÐµ
/ m
Ġpo or
ìŀ Ĳ
Ġre con
ci os
- yl
Ġident ified
Ġcontrib utions
Ġagrochemical s
Ġh ips
Ġintrodu ce
Ġn ie
ilit Ãł
u y
.f ood
ect or
Ġprof ile
ĠT ur
Ġhol ds
l ie
ĠC our
ĠF re
U P
Ġh tml
em on
ĠQ uestion
Ġpur s
ent y
force ment
Ġe p
ent ence
Ġfor n
Ġst ick
ĠP a
å ĵ
est yle
Ã¡ tica
It em
Ġpret ty
Ġgu ard
i ant
Ġsort ed
p us
Ġrepresent ed
. ",Ċ
Ġsh ot
ÐµÐ¹ ÑģÑĤÐ²
P M
Ġ ;
Ġse ctor
Ġvict im
Ġ× Ķ
Ġord ers
P re
pe red
Ġtrans ition
Ġredu ced
Ġreview s
il o
ĠD O
ĠÑĦÑĥÐ½ ÐºÑĨ
Ġmo od
Ġaccount s
Ġsh arp
Ġfore ign
m ark
Ð¸ ÑĢÑĥ
Ġhuman ity
ay out
ÑĥÑģ ÑģÐº
Ġc rop
Ġk on
Ġrec ords
Ġspirit ual
Ġcy ber
ĠÐ¾ Ð¿ÑĢÐµÐ´
f ra
ĠLim ited
Ġnarr ative
Ġpor n
j avascript
Ġ Ùĩ
Ġsignific a
Ġfac ing
Ġent ry
Ġkeep ing
ĠÐ²Ð¾Ð· Ð¼Ð¾Ð¶
Ġoff ered
ĠSt ring
Ġform er
Ġem o
Ġest Ã£o
he m
ern el
Ġloc ations
ĠOn ly
ĠO R
Ġcon vey
ĠÙħ ÙĨ
agg io
Å ¡
ON T
ĠLo ok
Ġcit iz
we et
Ċ ĠĠĠĠĊ
Ġre com
/ to
Ġcre ature
Ġobjet ivo
S ize
Ġ :ĊĊ
åľ ¨
Ġent anto
Ġdiscrim ination
N umber
Ġfl at
Ġposs ono
_m argin
Ġaut onom
ÑĢ Ð°Ð¶
Ġrec ip
áº ¿
Ġgarant ir
_ C
ig keit
Ġst ack
Ãªn cias
Ġch amp
Ġcont en
ĠCalcul ate
ĠPro ject
u ous
ĠÐº Ð¾Ð´
ĠR emember
Ġacc el
ch t
- world
Ġa ider
ĠT ell
_t ime
S ince
Ġp om
ĠE ner
à¸ £
-re newable
Ġemot ion
ĠIm pro
vent ion
Ġcir cle
Ġexplor ation
Ġarri ved
Ġform al
Ġf is
ens ation
Ġspecial ty
oc r
Ġê° Ģ
_ NAME
Ġal c
( i
Ġco oking
Ġf ashion
ĠIdent ify
ĠAn y
Ġbro ken
Ġhab it
Ġrout ine
f ast
Ġnear by
D P
Ð¾Ð± ÑħÐ¾Ð´Ð¸Ð¼
Ð°ÑĨ Ð¸Ñİ
- E
ìĦ ±
Ġal cohol
f ind
u h
in c
Ġsuccess fully
25 6
F alse
b b
Ġâ Ī
p g
Ġinteg ers
Ġsign s
Ġelect ron
st ate
ĠÐ¿ Ð¾Ð»ÑĮÐ·
gre es
ĠT itle
Ġreg ions
Ġin cons
Ġchar ges
Ġdist rict
ĠInt ellig
9 5
ĠN LP
Ġdiv is
Ġcandid ate
Ġh ier
Ġsearch ing
Ġopen ing
á» ĩ
row s
l ies
Ġsc an
ai res
_ P
Ġinstr ument
ot ec
el n
Ġcut ting
oss ible
Ġr Ã©s
Ġch osen
Ġf are
ĠĠĠĠĠĠĠĠ Ċ
v t
Ġw ish
Ġter ror
Ġsp ending
Ġh ur
ĠSp anish
dehy de
Ġsatisf ied
Ġfab ric
is co
a ws
Ġm iles
Ġconst raints
Ġgener ates
Ġê ¸°
Ġsynthes ized
ãģ į
_ button
Ġfas cin
ĠAn aly
Ġpo ol
Cont ent
ĠUn ion
Ġsm iled
ĠIntern et
_ type
( e
Ġpur ified
ÐµÐ» Ð¾Ð²
Ñı ÑĤÑĮ
ra Ã®
ri or
Ġintermedi ates
! !
Ġtr at
Ġill ust
ĠI RA
ĠG ree
p erson
Ġpos it
Ġ: =
ro g
Ġw ire
Ð½ Ñĸ
: ",
ĠÐ·Ð°Ð´ Ð°Ñĩ
Ġrac ist
æĪ Ĳ
Ġn ar
Ã§ os
a ix
. user
W here
Ġgra d
Ġsus p
at om
Ġinvest ing
r s
v ised
. A
ĠAI M
he ther
b ase
Ðº ÑĢ
ĠÐ° Ð²
Ġst ation
Ġshe ll
ĠM iss
r ateg
ãģ ķ
Ġpart ir
åĴ Į
ve z
a ire
as i
ĠMan ager
Ġthe ore
Ġ icon
Ġh uge
ri er
ib onacci
Ġserv ed
ow ered
Ġde ar
c m
Ġr ic
ë ¶
. )
er ge
: "
ĠT ensor
ax is
Ġint ensity
Ġact ing
Ġload ed
Ġdepend encies
Ð¾Ð± Ñī
-b y
Ġtien es
. update
ä ¾
Ġcon ven
. y
() ;ĊĊ
Ġbreath ing
O ption
d b
Ġblock chain
ĠT H
Ð¸ÑĢ Ð¾Ð²Ð°ÑĤÑĮ
âĸ Ī
Ġperson as
Ġstart up
Ð¾Ð² Ð¾ÑĢ
Ġtransform ation
Ñĥ ÐµÑĤ
wor king
lear n
Ġdis cipl
Ch ange
Ġd iversity
Ġat ual
Ð ķ
val ues
air s
Ġbed room
Ġlet ting
Ġvol t
Ġbehavi ors
ðŁ Ĵ
Ġneigh bor
å ĳ
' ĊĊ
" ).
w ater
Ġimag ine
ul ating
ipp ing
Ġver d
ë Ŀ¼
á» ĥ
lu or
O O
Ġun o
ĠÐ¾Ð± ÑĢÐ°Ð·
ĠÐ¾ Ñĩ
Ð°ÑĢ ÑĤ
p at
af ety
Ġcomp ly
ĠEx ample
Ð½ Ð¸Ð¼
Ġc ute
Ġpeu vent
ä ¿
quest ion
Ã¤ n
u ber
ĠP ot
ŀ ×
ĠK ey
Ġkit chen
Ġun t
Ġag gress
og a
Ġp ix
plot lib
in ner
s is
ĠÑĤ Ð¾Ð³Ð¾
. quit
D on
ĠHT TP
ĠÐ¿Ð¾Ð¼ Ð¾Ñī
Ġfl avor
ï ¸
iz ations
ica Ã§Ã£o
i endo
Ġm ic
est amp
Ġen ds
ĠD ay
ĠChrist ian
Ġreli ability
ĠUk raine
Ġcomp rom
ĠMus lim
Ġmay be
S ervice
ĠC urrent
Ġint imate
Ġembar go
Ġw aves
os o
P oint
Ġt ensor
US ER
Ġt us
Ġc ant
ĠM ag
ĠÑĦ Ð¾ÑĢÐ¼
] )
m t
Ġrec ently
Ġutiliz ando
- cons
ĠP ay
Ġdatas ets
ĠÃ¡ re
Ġfind ings
Ġf est
Ġto ler
Ġrev ised
ĠSe ptember
t hen
og raf
G enerate
ot ion
c iones
Ġcomp rend
19 2
Ġown ers
Ġt ension
pe ech
ĠĠĠĠĠĠĠĠ ĠĠĠĠ
lo at
Ġl yr
Ð¾ÑĤ Ð¾Ð²
Ġconsist s
ĠT HE
Ġthere fore
ĠP O
Ġtremb ling
Ġg ift
ÐµÑģ ÑĮ
ĠÐ¿ÑĢÐ¾ Ð¸Ð·
Ġchatbot s
Ġmedic ations
Ġk id
Ġest ud
Ġs elling
Ġla pt
Ġc ards
Ġprecis a
lo bal
Ġconst ru
Ġti empo
ia is
w ar
ĠÑĢ ÑĥÑģÑģÐº
ĠFace book
ĠVis ual
i ot
ĠÐ¼Ð¾Ð¶ÐµÑĤ Ðµ
ĠP al
Ġdis comfort
\_\_\_\_ \_\_\_\_
ĠS ales
y nc
Ġthe rap
kt op
ask et
ĠHe y
Ġcosmet ics
â Ī
1 10
od ed
Ġinte ress
ï¸ ı
ĠÐ¿ÑĢ Ð¸Ð²
Ġsim ulate
Ġarg s
Ġde grees
ĠAc cess
ĠÐ¿ÑĢÐ¾ ÑĨ
: **
Ð°Ð½ Ð´
Ġengine er
ĠE lect
Des cription
lor o
Ġmast urb
Ġr ing
ÐµÐ½ Ð¸Ð¸
ãģĵ ãģ¨
Ġeven ing
comfort able
ĠÑĤ Ð¾Ð»ÑĮÐºÐ¾
ol tre
ĠP HP
Ġfocus es
Ġtem a
Ġlik es
in ity
Ch ar
Ġa z
Ġc raft
Ġprop ri
vent ional
Ġc ash
Ġp Ã¡
ro te
ĠÐ±Ñĭ Ð»
ch i
Ġref erences
ol es
Ø§ ÛĮ
Ġf el
- con
ĠÑģÐ»ÐµÐ´ ÑĥÑİÑī
Ġdream s
cl ud
Ñĭ ÑĤ
Ġs is
ul f
Ġse cre
Ġshe et
ĠInst all
Ñĸ Ð²
raz il
Ġdes de
R ec
Ñĥ Ð³
c ule
Ġelectr ical
Ġex haust
ĠF ire
Ġoc curs
Ġsmo ke
Ġrelig ion
Ġlog in
áº £
Ġinvol ving
ĠÎ ¼
Ġco oper
Ġother wise
it i
Ġs ac
ĠS al
ĠSu per
Ġres et
? ",
Ġexist s
ord ers
F A
Ġv acc
Ġcom plain
ãģ ı
C RE
on ed
å Ģ
Ġass et
Ġport ug
Ġì ĥ
Ġs an
Ðº Ð°Ð·
Ġconf ront
Ġdire ctions
e le
Ġb old
âĢ Ķ
Ġse le
.ĊĊ Ċ
Ġpeace ful
ĠAPI s
g pt
Ġse ja
Ġhe t
Ñĥ ÑĪ
ra de
cul es
Ġfail ure
Ġme al
Ġpl astics
ĠV ocÃª
ĠB re
Ġmechan ics
Ġcert ific
ĠExt ract
el ess
Ð¸ ÑĦ
ĠÑĩ Ð°ÑģÑĤ
ient os
ĠÐµ Ðµ
Ġw ound
est ed
ĠÐº Ð»
ĠA uto
Ġch rom
ĠUS A
Ġsurround ed
ĠIndust ry
Ġwas n
G r
C R
Ġme at
Ġc erc
5 1
Ġbr anch
Ġel a
Ġmechan ism
ĠCl ass
Ð¸Ðº Ð¸
' aut
ĠS ince
ip her
ç Ľ
Ġenjoy ed
ser ver
ãĢĤ Ċ
ograph ic
Ġunder stood
Ã¼ h
n h
it as
ient es
ĠÑģÐ² ÑıÐ·
Ð¾ÑģÑĤ ÑĮ
Ġlight ing
el se
Ġfem in
Ġal ph
Ã© ri
Ġfl ight
o on
ĠÐ¾Ñģ Ð½Ð¾Ð²
e cho
ut ing
Ġun comfortable
C ode
Ġb order
ur g
Ġemb race
Ġha i
Y L
_ y
Ġvis ible
Expl anation
Ġheav ily
ĠM aterial
Ġtr ouble
ìł ķ
Ġtod as
ig g
Ġaff ord
ĠV ul
S YS
Ġabs or
ic iÃ³n
oun sel
Ġf ate
vers ion
Ġd ram
Ġm ouse
H ola
Ġapp s
6 3
Ġl ugar
ĠFr iday
F I
Ġreport ing
Ġdra ft
Ġcy cle
ĠPract ice
Ã ½
val id
åı¯ èĥ½
ĠIm port
Ġagre ed
Ġsm ell
Ġprepar ation
ÐµÐ» ÐµÐ¹
Ġclass ified
Ġpel a
E V
Ġsist ers
ĠR oman
Ġcontinu ous
ĠÑħ Ð¾ÑĤ
N O
al id
ĠÐ²Ñĭ Ð±
Ġcolle ge
âĢĻ m
li k
C ount
ÐŁ ÑĢ
Ġpul led
Ġk g
ĠÐ¿ Ð¾Ð¿
ig ital
Ġcre are
st en
Ġcustom ized
Ġas h
Ġë ¬
Ġman aged
Ġgr an
Ġsou l
ĠCl aro
Ġp Ãºblic
ÑģÑĤ Ð°Ð½Ð¾Ð²
Ġra ised
Ġdo gs
ĠÐº Ð°Ð¶Ð´
Ġaut or
Ġat om
à¸ ĩ
Ġopp on
Ġengine ers
ĠÐ½Ðµ Ð¾Ð±ÑħÐ¾Ð´Ð¸Ð¼
ĠìŀĪ ìĬµëĭĪëĭ¤
ĠIn itial
Ġgraph ic
Ġw enn
Ġsh adow
99 9
ra do
em e
Ġver wend
us ername
il ter
ĠR oad
Ġsol vents
Ġprim arily
un te
Ġvari ed
ĠM use
Ġpol l
d ir
ĠA qui
pr ice
Ġg es
ÃŃ veis
Ġreach ing
Ġot ros
Ġmet ers
åĲ Ĺ
Ġlyr ics
Ġsubst ance
Ġh ung
u j
Ġl ux
## ##
is o
Ġthan ks
Ġfra ud
Ġajud Ã¡
Ġdemonstr ates
^^ ^^
ult i
Ġcrypt ocur
all ow
Ġrep ository
Ġcal m
ãĤ ¤
âĸĪ âĸĪ
ĠC L
Ġdisplay ed
if i
Ġke pt
Î ³
Ġl in
ri ver
á» Ļ
Ġeduc ational
ĠBit coin
ì ¤
Ġd ich
ĠS ervices
ch ied
ĠB ras
ĠÐ¾ ÑĢ
ĠRe al
Ġf ert
play er
ĠB ay
ush ing
ĠB ank
iss ance
.p ath
Ġinn oc
p art
ĠÐ¿Ð¾Ð»ÑĮÐ· Ð¾Ð²
ol ving
Ġst ato
cl ick
Ð¸Ð½ Ð°
ì Ļ
Ġtw ist
ur as
Ġprevious ly
ot ing
Ġr ide
Ġact s
ĠmodÃ¨ le
h us
do or
Ġobtain ed
pl ays
Ġun known
ĠMach ine
Ä Ľ
Ã§ ar
Ġserv ers
Ġcontrol s
Ġint im
Ġcompl iance
U ltimately
l as
i ang
Ġgr in
Ġscen arios
Ġbus y
Ġdign ity
roll er
Ġsumm er
Ġgram mar
Ġmus cular
ĠÐ¼ÐµÑĤ Ð¾Ð´
7 2
Ġgu y
ata form
riv ate
Ġel if
ãĢĤ ĊĊ
IN T
Ġbath room
Ġbott le
i ences
Ġmulti pl
Ġcre am
umm arize
Ġë ª
Ġs int
Ġrepl aced
Ġhor iz
Ġt out
Ġex cess
Ġne ur
Ġassess ment
Ġtext ure
Ġaff ection
Ġdis h
ĠÐ½Ð° ÑĪ
Ġfound ation
Ġwe igh
ĠÑĩ ÐµÐ»Ð¾Ð²
âĢĿ ,
ĠÑģ Ð¾Ð±
ëĤ ĺ
Ġla unch
Ð¾ÑĢ ÑĤ
ãĤ ĵ
Ġframe works
Ð°Ñİ Ñī
Ġinstall ation
å ¦
ab ul
ib ilities
Ġbu ff
Ġfru it
Ġbul let
Ġis n
P ass
e ur
ĠB r
Ġsh ift
ĠIs lam
Ġs port
à¤ ¿
Ġk illed
Ġdest roy
Ġk an
l ife
bru ary
ic ides
Ġl Ãł
Ġst ere
Ġw ra
Ġmo ist
- ch
ĠÃ ¶
az e
r um
à¥į à¤
ith ub
alle l
c at
ĠC ount
Wh ile
ĠA G
Ġhum idity
. D
Ġcharacter ized
Ġsho es
ĠÐ Ľ
Ġmit ig
ãģ§ ãģĻ
c or
ans ion
Ġ{ {
ÑĥÑī ÐµÑģÑĤÐ²
Ġchlor ide
G ener
V erse
em Ã¡s
Ġlink ed
Ġresp ir
Ġv s
ĠØ ¯
Ġab stract
Ġgrav ity
ath y
y o
ap h
Ġinstit utions
Ġcomp act
Ġhyp ot
Ġexpress ed
/ A
Ġassign ed
ĠSt udio
Ġann ual
Ġaw ait
end ar
Ġle ur
Ġsubm issive
ĠÐ §
im er
Ġs out
ot a
Ġem issions
iron ment
Ġnipp les
Ġt or
em ple
ë© ´
Ġdiscuss ion
unt os
Ġcod ing
if ique
Ġpair s
f a
ĠCent er
Ġincreasing ly
ang ers
AB LE
Ġlif estyle
cre te
Ġauthent ication
po on
ack s
Ġrefer red
ĠLLM s
Ġec os
Ġlands cape
ï¿½ï¿½ ï¿½ï¿½
ash ing
à¸ ±
Ġenc rypt
Ġê² ĥ
12 8
at abase
ĠY ear
Ġre volution
Ġdes pite
i est
Ġn ue
and e
og ram
Ġs ke
un as
ĠÑ ĸ
amet er
Ð» ÐµÐ½Ð¸Ðµ
Ġcomp os
Ġpre d
Ġlog ical
P L
Ġfood s
Ġqui et
phr ase
ĠP o
í ĸ
Ġdep art
ant ly
Ġanaly tics
- end
. R
ĠÑĥ Ð²
Ġveget ables
r Ã©
iop hen
( NAME
Ġlabor atory
ist ical
Ġtra cking
( -
he et
ĠPar is
Ġdig it
Ġj okes
th rop
Ġad opt
Ġemphas izes
Ġstud ied
Ġcontrovers ial
w idth
ĠT er
Ġ .Ċ
Ġl oud
Ġvag ina
Ġab er
Ġlist ed
Ġ" <
f as
Ġde lete
Ġbuild ings
Ġh ide
Ġdescri bing
ament os
. B
Ġsu ck
ĠB est
ici os
ĠAcc ording
Ġad equ
-b romo
Ġu pper
ĠB razil
Ġir rit
Ġpro ve
ĠD own
r ange
oh n
Ã¨ me
ist o
ĠM al
eg er
7 9
S er
Ġcont e
Ġpl ataform
Ġestim ated
. F
Ġanticip ation
qu ier
ìŀ ¥
Ġwindow s
Ġimp ur
à¹Ģ à¸
Ġdat i
Ġe ase
p roduct
Ġes per
Ġal ta
.c sv
fr ica
Ġent ered
ag n
Ġhow ever
Ġdiag ram
Ġdiscuss ing
Ġstudy ing
ĠO k
Ġver ify
Ð½Ð°Ðº Ð¾
tern atively
Ġimpact s
Ġang le
Ġb urn
ĠI SO
00 1
Ġincl usive
Ġcateg or
Ġan Ã¡l
ĠP ok
ĠAustral ia
LM SYS
tr ue
M I
Ġof ere
Ġd ont
ff ect
ëĵ ¤
ĠÐ² ÐµÑĢ
Ġesc rit
Ðµ Ñī
Ġapp oint
con nect
Ġmus ical
Ġsc ope
Ġsens ual
Ġt ries
is i
Ġsub mit
Ġc el
In s
b enz
Î± Î¹
Ġdivid ed
r ated
Ġr id
hes is
Ġhaz ard
ist ance
Ġess a
Ġhabil idades
em ory
Ġph ase
{ '
Ġcom port
Ġsuper ior
Ġret ail
Ġsex y
( df
Ġhell o
Ġs ick
M od
Ġsong s
Ġmole cules
T orch
Ġmem ories
Ġp ink
Ġle mb
Î Ń
is ch
ĠC ustomer
- Ch
p age
ĠD iff
Ġarg ue
C L
Ġstrugg le
et her
........ ........
ens ional
Ġphys ically
Ġele g
ĠUp date
c z
Ġhapp ens
Ġex it
ach ing
y ect
ck et
Ġbl ocks
Ġëĭ ¤
Ġus ername
ĠIt alian
in ar
Ġhas h
Ġutilizz are
quin oline
le tic
6 2
Ġneg ot
ĠBuild ing
ĠÐ¾ Ð½Ð¸
Ġë ¶
Ġcogn itive
ÐµÐ½ Ð¸Ñİ
ĠSt and
ĠPe ople
Ġiniti atives
Ġsl ave
g lich
Ġhydro xide
Ġcounter party
Ġp Ã¥
Ġexp enses
Ġess ay
Ġult imate
alax y
ĠW ord
ĠÐ¿ÑĢ Ð¸Ð¼ÐµÑĢ
for ward
ĠÐ¸ ÑģÑĤ
Ġdistrib uted
z hou
Ġfilter ing
om ach
ĠBl ue
ĠDe veloper
Ġthreat s
Ġconduct ed
m ation
p ed
um ps
uc king
Ä į
ëĵ ľ
ĠBrit ish
_ h
ĠE very
/ re
Ã¢ ncia
Ġprom ise
oub les
Ġvibr ant
ĠAz ure
ĠTensor Flow
% ,
W ell
Ġcons ens
ĠCont ent
Ġv icuna
Ġag ency
ÐµÑĤ Ðµ
Ġadminist r
Ġvalid ation
Ġelectric ity
Ġsp r
Th ought
ĠE valu
G ood
an za
E st
st yle
ir ts
ĠG re
ĠJan uary
Ġo vers
ÑĨÐ¸ Ð°Ð»ÑĮ
a ux
ĠÑĢÐ°Ð· Ð²
ãģĹ ãģ¦
O U
Ġl ub
9 00
Ġp are
ĠC y
Ġk tÃ³
ag ens
an i
ĠD er
Ġcur s
Ġm ich
ru ck
Ġdec or
C S
Ġa qui
w ide
é ģ
ene w
u ciÃ³n
. *
ad ata
Ġalgum as
r ament
Ġis land
Ġgener ar
Ġserv i
Ġfor t
A cc
ĠIn cre
Ġj ak
é¢ ĺ
Ġimprove ments
Ġ ig
æ °
Ġj ug
Ġsistem as
Ġun iversity
oun ced
Ġs ale
Ġcam po
ativ os
] :Ċ
ê² Į
ent ral
ig er
Ġbibli otec
Ġfa ith
Ġprod ot
ĠpÃ¡ gin
Ġw y
Ġtransform er
Ġforne cer
Ġcompat ible
s hip
Ġb atch
Ġproduct ivity
Ġdec rypt
ĠSe lect
Ġemerg ency
Ġs izes
ĠIn f
ĠA lp
k u
ĠÐ¼ Ð¾
um es
Ġfac es
S core
i pe
Ġex port
Ġend ing
Ġst ores
omet ry
Ġdesenvolv imento
ĠÐ² Ð°Ñģ
Re quest
êµ Ń
m essage
ab s
ãĥ Ī
at z
Ġclient e
) `
è Ģ
ant i
ĠE d
Ġke ine
âĸ Į
Ġnut ri
ÑģÑĤ ÑĢÑĥ
( num
q rt
ĠFl ask
ĠF ood
ÑĦ ÑĦ
Ġh orn
æ ŀ
Ġst ocks
ĠInt roduction
Ġboy friend
Ð¾Ð²Ð°Ð½ Ð¸Ñı
Ġenem ies
Ġmem or
Ġacid s
B ased
ĠA riz
con fig
Ġcont r
Ġaim s
ĠgÃ© nÃ©
Ġrep et
Ġteng o
rand om
Ð¸Ð½Ð¸Ð½ Ð¸Ð½Ð¸Ð½
Ġn uest
Ġconsum er
Ã¼ n
Ġprotocol s
ĠR AM
Ġfl ag
ĠRe quest
ĠPh ys
ĠNet work
Ġs ÃŃ
ĊĊ ĊĊ
rid ge
ke ys
Ġcons erv
Ð¸ÑĤ ÑģÑı
ic io
Ġded ication
Ġespa Ã±
Ġinc hes
ĠFr anc
Ġform ed
ĠQ ue
Ġpresent ation
Ġ iron
ĠÐĿ Ð°Ð¿
Ġd ut
ĠN a
Ġoptim al
ĠProduct s
w ick
or ious
ĠCon nect
Ġf ÃŃs
h am
Ġre verse
Ġcapac idad
Ġteach ing
ĠRep ublic
lic ations
ĠPy Torch
Ġchann els
Ġter rit
Ġauthor ity
å ¯
Ġimpur ities
Ġlic ense
U ST
ĠA void
_t est
Ġit erate
ë Ł
Ġw ur
ek t
Ø ²
Ġb ird
ĠÐ¿ÑĢ Ð¾ÑģÑĤ
Ġsedu ctive
- [
.s how
.t itle
\ *
Ġcoordin ates
point s
Ġë ĵ
Ġplan e
Ï Į
Ġc her
el p
ig os
Ġhab e
ĠO ld
ĠÐ½Ðµ ÑģÐº
Ġfant as
Ġarous ed
Ġh Ã¡
Ġit alian
oc ate
Ġh orm
ib il
Ġobstac les
Ġpal av
Ġw alls
Ġval ores
empl ate
Ġextract ed
Ġrespon ding
Ġcur ios
Ġapp le
Ġele v
Ġsun shine
Ġaware ness
- L
Ð½ Ðµ
ĠÐ¿ÑĢ Ð¾Ð±
Ġassum ptions
Ġinform ations
Ġto ward
ĠÐ¿ Ð°ÑĢ
Ġvers ions
Ġal ert
Ġless on
Ġan ime
ĠÐ²ÑĢÐµÐ¼ Ñı
ì Ĩ
ĠCan ada
c d
Ġd od
Ġconsider ation
Ġhosp ital
| Ċ
if ies
Ġlot s
ĠÐŀ Ð½
Ġcas a
Å¼ e
Ġglow ing
Ġash amed
ĠW hether
.l ength
Ġl ust
ur ther
ĠO s
ĠR T
Ġcur ve
iv i
Ġflu id
Ġimp ossible
ĠB et
erm ine
Ġrob ust
. Data
Ġfamil ies
× ª
Ġsign als
O pen
Ġtyp ical
ym ers
Ġtom orrow
s l
Ð´ Ð½Ð°ÐºÐ¾
Ġdim ensions
Ġexpress ions
ĠÑĥ Ð¼
Ġp izza
Ġsp an
Ġn ative
ĠÎ ±
Ġstrateg ic
.res et
ĠC ert
Ġoff ic
ĠÐ¿Ð¾Ð· Ð²Ð¾Ð»
_ value
Ġsuc ceed
ĠPol ice
Ġqu arter
ĠÐ¾Ð± ÑĥÑĩ
ar Ã¡
urt le
) );Ċ
ne h
By Id
Ġn ou
Ġpre cursor
Ġ[ ]Ċ
Ġpo is
id en
ÐµÑģÑĤ Ð¸
Ġcor ret
Ġp s
Ġeng aged
ÙĦ Ùī
Ġincred ible
ÐµÐ½ Ñĭ
Ġmin ute
Ġnod ded
Ġs ido
Ġcertain ly
Ġcompar ison
à¤¾ à¤
I R
ĉĉ ĉ
ì ²
Ġt ar
ut en
ĠFe bruary
Ġn h
vant ages
qu ir
ĠR un
Ġsche ma
10 2
ĠA rab
Ġob t
Ġengage ment
Ġfriends hip
othes is
ct o
iz ard
Ġr h
ĠÑģ Ð´ÐµÐ»
ĠA us
ĠWith out
ĠÐº Ð¾ÑĢ
ĠO per
k o
Ġtu a
Ġsegu int
Ġte lev
-d ri
Ġb ill
Ġal iment
Ġgra ce
Ġcor ner
Ġmin or
ĠÐ¾ Ð½Ð°
ĠÑĢ ÐµÐ·
Ġstere ot
ĠUn ter
Ġinc ident
8 9
Ġon de
ru ption
Ġu pload
Ġprotect ive
n ement
ad er
Ġdeb ate
Ã¼ ck
bers e
Ð» Ð°ÑģÑĤ
ĠC ome
Ġaut h
Ġcollect ed
ar ante
Ġal leg
Ġcrim inal
T T
Ġconcern ed
ah l
ë ª
Ġcar acter
Ġequ ival
ibr ary
an ie
Ġth in
ĠW here
em ble
_f rame
Ġbelie f
Ġbir ds
j ob
.j son
Ġcitiz ens
and er
ind er
Ġaccept ed
T ask
an ci
Ġsupp lier
c os
Ġoper ate
epend ant
Ġmix ed
Ð¾Ð± Ð°Ð²
Ġadv is
Ġrestaur ants
Ġj ump
Ġprint ed
gr id
Ġserv es
Ġbl ank
ur l
ab ases
ĠÑĥ ÑģÐ»
Ch apter
Ġsp here
ĠIh nen
I ch
T able
ol ve
- line
M ake
ĠN ote
Ġpr icing
Ġpict ures
ÑĢ Ð¾Ð¼
ĠAug ust
Ġcomp osition
Ġcod ice
Ġspecif ies
ple x
Ġb ub
- day
ch ron
Ġexpl an
ĠÎ º
ire ctor
ut hor
ĠR est
ĠÑĤÐµÑħ Ð½
Ġreag ents
" NAME
O ut
ren ce
ĠÑĩ Ð¸Ñģ
Ġsh op
Ġelim inate
b ro
ct u
Ġqu ad
âĢ ĵ
s udo
Ġâ Ķ
Ġf ly
ut a
à¥ Ģ
Ġmal icious
8 4
n ie
ap ore
Ġder ived
' ]Ċ
ãģ Ĭ
Ġmus e
Ġrad io
Ġoper ates
Ġsn ow
ĠM ac
ĠÐ¾Ð¿ÑĢÐµÐ´ ÐµÐ»
Ġcomp assion
Ġhor se
( text
j ar
å ī
" ?
. print
Ġgre et
A K
.f ind
\ '
et o
Ġfour th
Ġtit les
ÑįÑį ÑįÑį
O ur
dev ice
Ġcomb at
Ġnew Direction
M essage
se lect
ĠV ol
Ð¸Ðº Ð°
Ġdiscuss ed
" }
Ġtut orial
Ġv ÃŃ
ĠÐ¿ Ð¾ÑģÑĤ
ĠY eah
Ġparticip ate
berse curity
Ġd il
Ġcur rency
Ġappro ached
ĠSoft ware
Ġk ernel
Ġmo ons
Ġrequest ed
ĠN ode
Ġvi ene
P N
ĠU N
Ġhead er
ĠD i
on de
Ġchem ists
ou l
Ġl ung
og ether
ĠP vt
c u
Ġsal ary
Ġachie ving
Ġpu zz
O P
! "ĊĊ
T ell
Ġg olf
Ġdis plays
ĠÃº til
Ġtom ato
Ġf Ã¶r
Ind ex
l ia
/ No
ik i
Ġb oss
Ġbut ter
Ġeth ics
Ġmis chie
ut s
Ġtemper atures
Ġobjet o
Ġdemonstr ate
Ġa le
ĠKore a
iz i
ĠEst e
Ġcur ves
Ġflex ibility
( int
Ġfig ures
Ġmut ual
å ¿
Ġproporcion ar
ĠB as
Ġel le
app ing
Ġpro yect
Ġman ual
ĠR ust
' util
ĠPro f
Ġinf lam
ĠM a
Ð¾ÑĤ ÑĢ
: </
ĠV alue
Ġìł ľ
å ·
as p
Ġre ly
. Label
is a
ric an
Ġexerc ises
Ġmole cule
ole an
Ġex hib
Ġmult ip
ĠÑĦ Ð°Ð¹
Ġprocess ed
Ġqu el
Ġfer rament
ĠÐ¿ Ð¾Ð²
um er
Ġsim ulation
Ġadvert ising
d y
Ġ Ú©
Ġf usion
Ġr ice
abul ary
Ġs am
Ġsecre ts
ĠMon itor
ĠĠĠĠĠĠĠĠĠĠĠĠĠĠĠĠĠĠĠĠĠĠĠĠĠĠĠĠĠĠĠĠ ĠĠĠĠĠĠĠĠĠĠĠĠĠĠĠĠĠĠĠĠĠĠĠĠĠĠĠĠĠĠĠĠ
Ġeff ic
Ġpig ments
N one
Ġbe ings
Ġposs ÃŃvel
ĠS earch
Ġdis hes
oun s
í Ĭ
Ġscient ist
Ġgain ed
Wh ich
Ġmu y
Ġear ned
Ġn atur
ur ar
ĠRe view
ĠBras il
à¸ µ
Ġext ensive
Ġdiv ide
olog ia
_ T
ec ute
ĠA frica
ĠS afety
Ġsur g
Ġsud denly
Ġsurpr ised
if act
ĠC at
Ġsc ores
ĠO pt
um ing
ĠÐ½ÑĥÐ¶ Ð½Ð¾
Ġbi ases
ÙĬ ÙĨ
Ġgener ator
% )
Ġth ous
Ġenvironment ally
Ġb ust
Ġo cean
ĠÑģ ÑĢÐµÐ´
bi ased
Ġfil ters
ol y
Ġlight s
C oll
Ġem erge
Ð°Ðº ÑĤ
ac le
id ge
ĠB ack
ont o
comm od
ĠO ption
Ġcult ura
Ġest ate
ĠOver all
u ct
li ers
" ><
Ġmar ried
we b
Ġt iny
ÃŃ c
Ġmat ure
Ġw o
Ġac know
ri ors
Ġprogram a
Ġaccount ing
Ġregul atory
Ġto wer
ĠÐ½ Ð¾Ð²
DS M
E E
} {
Ġst omach
Ġaccording ly
Ġat Ã©
Ġent ender
Ġgu ys
Ã¡ veis
ĠA C
em ail
Ð¾Ñģ Ð¾Ð±
Ġf ailed
Ġrepe ated
els ius
Ġn ous
Ġpain t
Ġusu Ã¡rio
ĠW as
v id
Ġ" $
ĠB Y
art i
Ġd ess
Ð¸Ð» Ð°
Ġunder ground
W idget
Ġsurv ive
Y PE
Ġc ounsel
OR T
ig a
Ġac qu
Ð°Ð½ Ð¸Ð¸
o ot
Ġtext s
Ġpromot es
ĠtÃ©cn icas
ÐµÐºÑĤ Ð¸Ð²
Ġconflic ts
ĠSt ep
Ġê µ
ĠT u
v ironment
Ġincre ases
ic ol
res se
( root
uc cess
19 3
Ð¸Ð· Ð½
ĠMuse um
( l
Ġopen ed
Ġte a
ig t
Ġcontext o
Ġb asket
Ġa qu
ÑĨ ÐµÐ½
icient e
ÑĢ Ð¾Ð½
Ġfe e
ĠCon vert
Ġem oc
Ġwin ning
( file
Ġarch ivo
Ġest Ã¡s
Ġsupport ive
ìŀ ħ
enew able
- e
íķ ł
Ġstre ets
Ã »
ul er
cript ive
mat ory
ĠÑĩÐµÐ»Ð¾Ð² ÐµÐº
Ġz um
ÅĽ ci
a fter
anc o
Ġlapt op
Ġh oy
() ,
ĠØ§ÙĦ Øª
Ġsigu iente
cha ft
Ġc ens
Ġdis p
Ġtail ored
A m
st ar
Ġinvest ors
W indow
Ð¼ ÐµÐ½ÑĤ
pl an
F ield
ĠCO VID
_ D
Ġapplic able
Ġwant ing
Ġrequire ment
ĠR ob
ĠÐ³ Ð¾ÑĢ
ĠÐ¿ÑĢÐµÐ´ Ð¾ÑģÑĤÐ°Ð²
Ġinj ury
re c
Ð Ĺ
ĠF am
Ġra pp
iz ada
ĠF un
Ġcor pus
) p
_m odel
Ġb le
Ġpack aging
ĠlÃŃ nea
7 6
à¸ §
Ġfight ing
Ġcirc uit
Ġun biased
Ġcl ock
Ġear n
Ġprob ably
Ġens ures
Ġsupport ing
è ¨
B S
Ġ" /
Ġenc ount
C ustomer
r ition
Ġthe rm
ol ic
ĠA R
Ġmejor ar
B O
ë ħ
Ġsi ÄĻ
abet es
Ġhypot het
ĠA N
ĠÐ½ Ð°Ð·
ĠGener al
ĠÐł Ð¾ÑģÑģ
_ number
ud a
Ġcomb ine
Ġher b
eren ci
f ield
ith ium
ĠD uring
Ġreg ression
h os
el come
Ġfe es
Ġrespons ibilities
7 00
in en
ent ity
Ġra re
Ġautom ation
Ġaprend er
Ġë ı
ide o
Ġcat s
ocol ate
- known
ÑĢ Ð¾
Ġmes mo
Ġbirth day
Ġcomm a
ĠÑģÑĤ ÑĢÐ°Ð½
Ĥ ¨
Ġf alls
Ġpain ting
Ġmo ans
Ġc es
Ġap resent
ĠÑĥ Ð»
Ã³ mo
Ġê ·¸
Inst ruction
Ġattempt ed
act ory
Ġk illing
ĠL ight
av ia
Ġext reme
Ġauthor ities
u Ã§Ã£o
Ġorgan ized
ĠÐĴ Ñĭ
ad der
n ormal
_ key
Ġh ang
B ot
Ġpoly mer
Ġvict orious
æ Ń
ãĤ ī
ĠSu pport
ĠÐ¼ÐµÐ½ Ñı
Ġlemb rar
ve ctor
Ġposs a
ĠW ill
Ð» Ð¸Ð²
Ġdat abases
Ñĥ Ñħ
Ġpos e
Q Q
ĠCE O
Ġcual quier
Ġmount ain
ĠÐ¿ÑĢ Ð¸Ð½
uto ff
o pp
er r
ĠC lick
enc ial
Ġset up
- per
Ġgen etic
' une
çĶ Ł
à¦ ¾
å¤ §
ĠCont rol
Ġ×Ķ ×
' ],
ri le
ĠÐ´Ð¾ÑģÑĤ ÑĥÐ¿
serv ation
- ex
Ġgard en
Ġclin ical
. P
L C
Ġv a
ìĻ Ģ
Ġbe at
Ġintegr ated
ay ers
Ġremo ving
ĠCor por
Ġwe ars
Ġcas ual
ãģ £
ĠÑĤ Ð¾Ñĩ
B est
ĠD em
Ġte en
Ġremind er
Ġvolt age
T itle
Ġse es
ing u
Ġcu is
i Ã³
ist as
ÐµÐ½ Ð¸
. start
Ø§Ø ¯
> `
ĠTw itter
Ġshow ed
. name
az i
à¸ ¡
in fo
ost en
' ent
Ġdistin ct
ÐµÐ± Ðµ
z ioni
it Ã©s
Ġdrag on
ĠB DSM
Ġmechan isms
Ġpl enty
Ġphilosop hy
L o
ĠÑĢ Ð°
Ġparticip ants
.food Obj
Ġconte Ãº
Ġout fit
Ġtur ning
Ġv om
Ġsh ut
Ġmoment o
t ag
Ġworld wide
Ġâ Ĥ¬
æ ı
Ġpr Ã©c
íķĺ ê³ł
H ub
Ġm ad
ĠH ome
ĠB ar
Ġtrans parent
ol der
Ġstar ring
Ġw rote
Ġs amples
lu oro
Com p
Ġempres as
Ġincons istent
Ġjour nal
ĠMay be
ĠM ark
Ġdel ay
Ġactiv ation
act or
ak ers
Ġecos ystem
Ġrep air
Ð¼ ÐµÑĢ
Ġweakness es
ÙĪ Ùħ
Ġprec ision
Ġpap ers
Ġsegur anÃ§a
ĠTe le
ìł ľ
Ar ray
Ġse hr
sh ow
l ass
PU T
Ġh all
Ġste el
ĠI S
Ġ` <
f ord
Ġexplan ations
um a
ĠG en
Ġwid get
Ġapp lying
Ġdeploy ment
Ġocc up
Ġst ir
Ġath letic
Ġinf er
Ġ íķľ
Ġme ine
ac king
- R
Ġsa uce
Ã¤ ng
Ġamb iente
Ġex ceed
iv as
ĠE duc
Ã§ as
ĠÃº n
Ġpro of
Ġv Ãł
ile t
ãĥ «
Ġreflect s
Ġde be
p ie
Ġrec ording
ĠÐ²ÑĭÐ¿ Ð¾Ð»Ð½
ĠÐ¼ ÐµÐ¶
Ġequ ations
Ġsex ually
Ġavoid ing
Ġaccept able
. to
Ġte ch
Ð³ Ð°Ð½
id or
Ġpar allel
Ġaddress ing
Ġt iss
ĠU I
ang o
ìĹ ¬
Ġaddress es
Ġstream ing
B ox
Ġprotect ed
Ġflow ers
à¤¿ à¤
ph ones
B M
Ġd ensity
it ems
ĠSt reet
ĠInt el
De f
Res ponse
Ġd uration
ĠW ould
Ġdiscuss ions
ĠÑģÐ¾ Ð¾Ð±Ñī
e ed
ĠD ear
ä¸ Ĭ
in ated
ĠS en
AR CH
Ġwh ose
ĠÐ± Ð»
Ġdiagn osis
ĠÃ¤ r
ĠA quÃŃ
Ġproduct ive
P G
me an
Ġjo int
Ġmag netic
Ġam or
anc he
Ġrep rodu
s ize
ì ĺ
Ġconfig ure
P y
ĠB ecause
Ġdiff Ã©
ÐµÐº Ð¾ÑĤÐ¾ÑĢ
Ġoccur red
w atch
or ient
and em
Ð¾Ð´ ÐµÑĢÐ¶
. html
Ġmathemat ics
Ġg eral
Y R
res hold
Ġpress ing
Ġselect ing
ĠS D
- al
Ġs ess
Ġc ow
ÑĤ Ð¾Ð¼
ĠBe fore
ĠÐ² Ð°Ð¶
Ġdri ven
Ġob s
Ġbre ad
Ġconv in
Ġrespect ed
unt u
Ġco verage
Ġfore cast
v ari
ĠE ast
Ġave z
ĠAut om
Ġshap es
ĠPh armaceutical
ĠÐ¼ Ð¸ÑĢ
Ñĥ Ð»Ñı
low er
-p owered
ong o
Ġpos ible
Ġenerg ia
Ġlaw y
ce mber
č Ċ
ĠÑģ ÐµÐ±Ñı
Ġresp uesta
P roduct
n atural
Ġab use
Ġrapid ly
Ġh ref
L oad
end en
ĠÐ¿ÑĢÐ¾ÑĨ ÐµÑģÑģ
ar gs
Ġun iform
_ S
re quest
Ġmin ha
om o
Ġdis rupt
at etime
hydro xy
Ġf i
Ãº de
ĠU ltimately
Ġin e
-d i
Ġstrict ly
. k
Ġdecre ase
í Ħ
W or
ro le
Ġentertain ment
Ġpou vez
E nd
Ã© d
aut ions
-in f
Ġab ord
Ġpow der
) ^
Ġdisc ount
E xt
Q U
Ġob lig
ĠEmp ire
ĠInst agram
Ġuncertain ty
ĠC a
Ġth igh
iv itÃł
_t rain
Ġsens ations
ĠV o
Ġdraw ing
Ġsuff icient
Ġt ie
Ġc utoff
Ġac commod
Ġpol ymers
Ġpar se
eng er
ag o
Ġback up
Ġcor rel
Ġdeb t
w ho
Ġ> =
éĹ® é¢ĺ
ut ure
Ðµ ÑĨ
Ġsav ed
Ġin ch
ĠÃł s
Ġprint ing
Ġmag n
Ġpreg untas
Ð Ń
ĠInt egr
Ġsocial ly
Ġt ens
Ġca ution
Ġf ell
Ġsol ving
ãĤ Ī
Ġbo ost
Ġgrad ient
m ic
Ġre nder
Qu ery
ox ide
Ġperm ission
it an
ed y
ĠL ife
8 1
un i
Ġent r
ah ren
ĠÐ²Ð¾Ð¿ÑĢÐ¾Ñģ Ñĭ
Ġs le
.de lete
Ġg aming
iz ione
Ġr ank
Ġbring ing
ĠH aw
Ġreg ards
Ġdefe at
ÐµÐ¼ Ñĥ
ĠEn s
Ġsuff ering
ĠespaÃ± ol
per ty
ĠÐ¾Ñĩ ÐµÐ½ÑĮ
Ġf le
Ġb io
8 6
ĠF ast
ĠTe am
Ġvir us
Ġwa ist
vil upp
ÐµÐ½ Ð´
ĠW ater
Ġl ocked
ind i
ĠÐ· Ð½
à ¨
Ġst ages
ÐµÑģÐ¿ ÐµÑĩ
ĠVul pis
it able
ĠS il
ific a
Ġsol l
ĠTransform er
Ġhypothet ical
Ġhe aring
Ġprot agon
. load
C he
Ġst uff
ent er
ist em
ement e
yrid azine
¹ Ħ
P ython
ĠÐ¸Ð¼Ðµ ÐµÑĤ
al ia
ĠÐ¿ÐµÑĢ ÐµÐ´
Ġdis respect
Ġn ation
Ġab and
ĠÐ¸ ÑģÐº
Ġfoot ball
Ġìĭ ľ
Ġbow l
íĬ ¸
Ġand roid
Ġcomun ic
Ass istant
Ġadvent ures
Ġevol ving
Ġlog s
Ph one
Ġayud ar
Ø§Ø³ Øª
ĠÐ³ Ð¾Ð´
ĠpolÃŃ tic
ĠM ode
Ġa pl
Ġl ift
Ġbenef icial
Ġconvers ion
j u
Ġshort er
be gin
Ġjud ge
Ġth row
ĠG iven
re ction
Ġo xy
ĠF ore
Ġconvers ational
Ġqual quer
Ġdress ed
Ġfil ms
ĠAn alysis
ex ual
Ġax is
T otal
í ĺ
on al
Ġoptim ized
at to
Ġbal anced
des criptive
Ġpesso a
Ġn an
Ġdig its
- color
O UR
l io
ĠDe v
Ġan terior
Ġal ien
Ġagricult ure
ĠF ocus
Ġìł ķ
Ġobser ved
Ġri ver
add ress
ot he
CT ION
r d
Ġf et
ĠM ia
ind ing
ĠUn ivers
ann el
un ting
eff icient
c ies
u um
anc ia
Ġt ant
ÑĥÐ»ÑĮÑĤ Ð°ÑĤ
Ġqu ote
ut sch
ĠÑĢ ÐµÐº
chn ology
or se
ĠÐ¾ Ðº
Ġexpl ored
Ã´ n
Ġvulner ability
ĠH um
Ġunder wear
ĠPort ug
T est
on th
Ġbe re
con text
Ġrel ie
ĠA nother
Â ¿
Ġc odes
pl ing
( A
ar ks
Ġbe ar
Ġmount ains
ì ¹
irt ual
Ġt anto
st ell
ç Ĳ
ĠCre ating
Ġf ond
app oint
Ġinterpret ation
c co
: descriptive
T C
Ġgreat ly
hol der
ic ip
Ġdet on
Ġcr isis
ĠQu ant
] (
Ġemphas is
Ġthe ories
Ġsh ower
Ġpot rebbe
Ġprofess or
ĠÑģ Ð¾Ð´ÐµÑĢÐ¶
Ġconsider ations
Ġresp osta
ĠM ore
Ġund ers
Ġte as
Ġrain fall
abe led
Ġconsult ing
y cl
able d
Ø £
Ġsoft ly
æ İ
Ġs ans
ĠM ens
ram ient
Ġ= ==
ÐµÐ½ Ð°
Ġg ay
ĠÑį ÑĦÑĦ
Ã¢ n
Ġwhis pered
Îµ Î¹
Ġinse ct
.Data Frame
Ã¡ri as
ÑĥÑĢ Ñģ
ĠEner gy
ĠAriz ona
. text
Ġhandle KeyPress
Ġdevelop ments
ĠÐ¸Ð· Ð¼ÐµÐ½
ĠPerson al
ĠÃ© ta
Ġgu itar
Ġf ue
ĠÐ³ Ð»
Ġsc hed
ĠCom puter
ÃŃst icas
Ġcho osing
Ġstat istical
Ġw ine
_c ount
Ġvulner abilities
ĠKore an
ign ed
' int
] p
Ġz one
Ġput ting
ĠT R
qu art
Ġdiv ision
i ene
ĠÑĩ ÐµÑĢ
P ara
Ġfun c
Ġn g
Ġha ven
Ġsol icit
ut ely
14 0
Ãª m
Ġmatch ing
Ġì ¤
ĠMarket ing
ĠmÃ¶ ch
ĠP arty
Ð» ÐµÐ´
Ġne ut
Ġein f
Ġv en
ĠIndust rial
ÑĢÑĥ Ð¿
ĠAr ch
Ġ( "
Ġdeliver ing
Ġhe x
Ġpull ing
Ġt ired
ĠB ig
ĠC ost
Ġcustom ize
ĠÐ½ Ð°Ð´
Ġsens or
b ol
Ġrel ation
n ames
Ġres ort
que e
Ġtre in
ĠÑĤ Ð¾Ð¼
g ive
h l
Ġtarget s
wh ich
" ]Ċ
Ġest er
ë³ ´
Ġn Ã©
Ġv ita
Ġinvest ments
Ġpress ed
Ġbr ighter
f its
Ġgu arante
Ġvis iting
Ġactiv ely
Ġto y
Ġevol ution
å¸ ®
Ø «
ĠF ibonacci
_ input
Ġa id
ĠE conom
åĬ ©
Ġign ore
ĠIntellig ence
ĠÐ·Ð°Ð² Ð¸Ñģ
Ġt ast
Ġminim al
Ġmotiv ated
ĠÐ¼ Ð°ÑĤ
Ġg all
ĠW i
ĠÐ¼ ÐµÑģÑĤ
ĠD om
Ġgreat est
AN D
( X
ne g
Ġinvent ory
or ig
ill er
.j pg
Ġmanip ulation
Ġdynam ics
ĠÐ¿ÑĢÐ¾Ð± Ð»ÐµÐ¼
Ġto ys
ĠD aten
Ð°Ñĩ ÐµÑģÑĤÐ²
Ġyoung er
Ġsk irt
ĠÐ ¤
7 1
ÃŃt ulo
Ġimm une
Ġd ip
\ u
Ġpl ate
Ġcam b
Ġemp athy
Com m
ĠÐ² Ð·
Ġsur ve
Ġcomp ute
ang hai
ou nc
Ġm ont
Ġmis under
Ġun ter
Ġparagraph s
et ra
ĠA v
Ġbul lets
Ġp ace
Ġcap ability
ĠÐ¿Ð¾Ð»ÑĮÐ·Ð¾Ð² Ð°ÑĤ
B l
Ġres ume
Ġfut uro
Ġusu ario
Y eah
è¯ ·
Ġcalcul ates
ir al
Ġher ramient
pre ne
ind a
Ġper pet
P P
é «
ir k
und en
ĠconteÃº do
ĠAs ia
ol ution
Ġdesign s
xx xx
--- ĊĊ
Element ById
v ious
A b
Ġa er
ru ctions
ĠÃº lt
ĠExpl ore
ĠÐ½ Ð¾Ð²Ñĭ
Ġrel ief
w as
ĠnÃºmer os
Ġsh aking
Ġconf ir
Ġelect ro
Ġdent ro
Ġin hib
Ġperiod s
Ġinclu y
Ã¼ t
Ġprojet o
ot ive
r ir
ap ital
ÃŁ en
Ġfru its
Ġread ers
Ġhist Ã³ria
ĠF ox
ÑĢÐ° Ñī
ĠpÃ¡gin a
ers ion
M ap
Ġc ere
ble m
Ġs ne
Ġqual ified
Ġpad ding
Ġtest ed
Ġm ate
Ġinf e
i ens
Ġf ake
Ġb act
-s cale
.rand int
Ġpre st
Ġang ry
A Y
Ġapp ropri
ne ction
ĠCour t
Ġint ric
á» ĳ
å¤ ļ
Ġsc ream
Ġexpl ores
ĠT re
ĠÑĤ Ð°
c s
Ġcon na
. write
Ġbr ings
ĠO F
Ġimportant es
h h
Ã ī
Ġest o
ÑĢÑĥ Ð¶
AAAA AAAA
ed ing
ĠN O
à¤ Ĥ
in ning
íĻ Ķ
Ñı ÐµÑĤ
att ed
Ġ" Ċ
ĠC H
Ġmodel os
åŃ Ĳ
-tun ing
er te
Ġme u
and om
Ġprec ise
$ {
AL U
Ġs ocket
Ġperm an
ĠìĤ¬ ìļ©
ĠProdu ction
Ġco ating
Ġall erg
ĠÐ½ Ð°Ð¹
-dri ven
or ry
Ġsu o
Ġtra pped
Res ult
Ġdi ed
Ġpossib ilities
Ġh und
ĠE X
Ġsha res
st ra
ĠM ex
Ġent hus
Ġrespir atory
Ġhydrochlor ide
Ġspecific ations
Ġviol ent
.rand om
Ġpre pa
Ġ/ >Ċ
Ġha ck
Ġpush ing
19 0
ĠS chool
ÑĢ Ð¾Ð±
Ġc ad
ÐµÑĢ Ð°ÑĤ
Ġmeth yl
Ġattract ed
are a
ĠAs k
P R
Ġbuy ing
Ġr ust
', '
ĠP os
ap es
-s olving
ĠØ ³
ĠInitial ize
ĠKing dom
Ð¾ÑĤ Ð²ÐµÑĤ
âĢĻ re
s uch
ĠD igital
Ġmerc ado
ential s
ĠL ong
ĠR enewable
Ġvisual ization
in ent
Ġf ans
Ġl unch
Ġg ut
Ġst yl
Ġl ithium
Ġsens ors
ost er
ÑĨ Ð¸Ð¸
Ġpre u
emb ly
Ġmill ions
Ġeng lish
ob ile
L Y
Ġbrow se
amet ers
10 5
Ġpsych ological
´ Ģ
Ġten ho
ĠC R
Ġent ers
Ġsu icide
Ġs ia
Ð¾ÑĢ Ð¾ÑĪ
-dim ensional
Ġr ush
Ġvol unte
V ER
Ġ ]
Ġbi ological
m ates
Ġembarrass ment
å¹ ´
b t
A tt
ĠÑįÑĤ Ð¾Ð¼
ĠV al
ativ as
é £
Ġ( -
.get ElementById
d raw
Ġac et
Ġbre aks
Ġm Ãºs
Ġvoc abulary
Ġtecnolog ia
b ir
on ym
Ġform ato
Ġaggress ive
âĢ ĭ
ĠÑģÐ²Ð¾ Ð¸
es ome
Ð» Ð¾Ð¶
Ġimm ig
Ġm ater
Ġca ress
Ġby tes
Ð £
Ġf ucking
Ġde ux
Ġad icion
pen se
w d
er ved
Ġno v
Ġa quÃŃ
re qu
Ġd ating
Ġcuis ine
ort hern
ĠDes cription
Ġintrig ue
_d ict
iz aciÃ³n
ĠS ave
ĠL ead
Ġdeterm ining
Ġg ust
Ġend ed
Ġsignific ance
æ Ħ
Ġnum ero
f ound
20 4
ou nce
ild ren
Ġin con
em por
Ġacc ord
rol og
eg o
Ex plain
Ġplan ets
ĠÑĤÐ°Ðº Ð¸Ðµ
ul ing
Ġqu otes
ĠÑģÐ¿ Ð¾ÑģÐ¾Ð±
Ġresult ado
ĠTh anks
om ethyl
ĠÑĥ Ð¿ÑĢÐ°Ð²
Ġdec imal
_c ode
Ġsol ub
Ġhazard ous
Ġm enc
Ġor al
ok ed
ĠÐ´ÑĢÑĥÐ³ Ð¸Ðµ
el d
ick ed
ä¸ ª
-m ail
Ġter r
Ġpre nd
Ġimpress ive
Ġprec autions
7 3
A H
Ġcorrespon d
Ġphilos oph
Ã¡ p
Ġinj ured
Ġbuff er
Ġprotect ing
Ġcomp art
Ã¼ ss
[ j
Ġre de
Ġcalcul ations
Ġel abor
F O
ĠP R
Ġ} );Ċ
Ġgr ass
b uild
ut i
ol ar
ĠT emperature
Ġm ild
Ġveloc ity
Ġstat istics
Ġeth nic
Ġmass age
ed s
Ġunt uk
- amino
ĠC are
Ð´ ÐµÑĢÐ¶
Ġelectron ics
atas et
ri age
Ġcurios ity
H and
Ġassum es
utt avia
ĠSing apore
Ġd alla
ort ed
in th
ag gi
Ð³ Ð¾ÑĢ
anÃ§ ais
u ent
Ġtra dition
íķ ©ëĭĪëĭ¤
Ġcontext s
( N
ĠM O
Ġcomput ational
Ġ( $
Re f
ĠOn line
Ġser ie
Ġpun ishment
iz ers
M E
e urs
m al
19 1
ĠSer ver
a o
Ġper f
UM B
Ġc ipher
ĠA gre
Ð² ÐµÑģÑĤ
_ de
ĠF ollow
Ġtransform ed
os ph
ru it
it ro
Ġtem as
j am
Ġpost s
ĠN atural
Ġwar ning
å¦ Ĥ
Ġfall ing
Ġgrat itude
Ġser ial
Ġì§ Ģ
Ġderiv ative
ors hip
į à¦
Ġ( )
Ġany more
ĠF lor
Ġmir ror
Ġdoll ars
V E
Ġt act
D R
ic ional
Ġse aled
Ġcl asse
ĠÐ¾Ð± ÐµÑģÐ¿ÐµÑĩ
-g ener
Ġclient es
ĠJ our
Ġexception al
m ake
ia ce
ãģ ł
Ġb enz
d ings
Ġvers chied
( new
Ġsimilar ity
Ġs vilupp
Ġnar row
Ġf if
à§ įà¦
ìĦ ¸
m arket
art s
c ir
C o
Ġread s
Ġsole ly
ĠP ass
å¥ ³
ìĭ ł
it ting
net es
Ġreve al
S earch
Ġtre ating
Ġart ists
Ġred es
Ġog ni
Ġin com
6 1
ĠÑģ Ñĩ
ĠCol lect
f igure
Ġfr ase
Ġpl t
Ġap artment
lo op
Ð¾Ð½ Ð¾Ð¼
inst all
as a
set t
Ġent raÃ®
G S
it ure
ap se
throp ic
ĠÐ· Ð´
Ġhistor ia
Ġz e
Ġresult ados
ĠN Ã£o
uber netes
H uman
Ġc oc
ĠP rom
Ġtra du
Ġmo i
Ġcl ay
Ġmanufact ure
ĠAf rican
co pe
L U
ĠLear n
Ġsh ock
og atory
l ocation
ìĿ ¼
b ies
æ Ĭ
Ġsp ring
Ġc res
here d
à¸ ¢
Ġs ic
al f
Ġinclu ir
Ġac ord
ĠUS D
Ġnew Head
aus ed
Ġco in
Ġtransm ission
ĠIn clude
Ġe fect
Ġ| |
Ġfin anci
Ġbig gest
ir as
ĠÐº Ð°ÑĩÐµÑģÑĤÐ²
Ġcalcul ation
m ath
ĠIt aly
yrim idin
ÑģÐº Ð¾Ð¹
Ġg one
Ġwhis per
u ction
Ġë į
Ġtri angle
Ġrece iving
Ġlang age
E ste
Ġpro port
ĠUS B
Ġperm et
ĠÑĤÐ°Ðº Ð¸Ñħ
åĲ į
ĠHaw ai
Ġun se
Ġsent ir
ĠRe port
Ġresum en
Ġsh ame
Ñĭ Ð¼
Ġprov en
Ġpe ak
lect ual
- G
Ġen ables
Ð¾Ð½ Ð°Ð»ÑĮ
gre g
ĠespecÃŃf icas
ĠIh re
Ġc ache
Ġautom ate
-com merce
ĠÑģÐ» ÑĥÑĩ
ĠÐ½ÐµÑģÐº Ð¾Ð»ÑĮÐºÐ¾
Ġto w
Ġoverwhel ming
_ se
.ĊĊ ĊĊ
er ie
ĠT rain
ĠDe ep
Ġest ado
Ġbo ot
Ġl on
hen g
ĠespecÃŃf ico
Ġoxy gen
Up date
Ġp estic
Ġp ir
ĠSp ace
Ġaccompl ish
w indow
Ñĥ Ðº
Ġì ļ
Ġpac otes
Ġinst ances
Ġed iting
Ġc sv
Ġre form
Ġre phrase
ab a
Ġsy st
ĠP en
å½ ¼
. /
el ing
Ġour selves
Ġcent uries
Ġart ifact
pec ific
Ġevalu ating
fr ont
Ġdom estic
Ġinf ection
å ĩ
Ġm ud
{ {
ĠØ ±
íĦ °
Ġk h
ĠÑıÐ·Ñĭ ÐºÐµ
Ġsurv ival
- est
Ġes cal
ed er
_ e
- off
ÑĭÐ² Ð°ÑĤÑĮ
Ġa just
Ġz w
Ġinf o
], ĊĊ
Ġalgor it
Ġsp Ã©c
Ġsoc ied
Ġdis k
Ġnarr ation
d oms
/ t
ÑĢÐ° ÑĦ
ĠE N
al dehyde
Ġgener ative
ĠC all
ÐµÐº Ñģ
.. .ĊĊ
lam matory
A c
Ñı Ð¼
Ġsymbol s
Ð¾ÑĢ Ð°
ĠR out
Ġprepa res
Ł ¥
ĠØ§ÙĦ Ø¹
ĠW HERE
ĠJ ob
u Ãªs
Ġsem antic
( key
7 4
re ly
nt e
ĠL as
Ġcl ause
Ġaud iences
Ĩ Ĵ
Ġs rc
Coll ision
ĠØ ´
ed ge
Ġg an
IG HT
Ġp il
ĠD as
Ġsubject s
Ġal ter
Ġwid er
v able
put e
à¸ Ħ
ro oms
ĠT ok
Ġsc r
Ġdiscrim in
ĠE vent
Ġfoot print
Ġp ic
Ġtrabal ho
Ġstereot ypes
Ġequival ent
D ear
Ġwhen ever
ðŁ ĳ
Ġtare fas
Ġt f
Ġë° ©
Ġdiscover y
ĠCh air
Ġë³ ´
urther more
en en
Ġpract icing
% .
iv ate
ĠMon day
ĠÐ¿Ð¾Ð½ Ð¸Ð¼
Ġn ost
ĠP rompt
Ġpre process
** :
isp iel
Ġauth ors
Ġconflic ting
ë ¯
ĠÑĢÐ°Ð· ÑĢÐ°Ð±Ð¾ÑĤ
it rile
Ġag encies
Ġs Ã³
Ġgra de
Ġte asing
ä½ ¿
or ie
Ġclass ify
à¸ ª
ĠUn ity
ÑĥÑİ ÑĤ
Ġus ado
Ġg ear
Ġat oms
Ġfing er
aaaa aaaa
ul ative
ĠÐ² Ð¾
Ġbig ger
ĠIs ra
Ġcorrect ed
Ġplataform a
ĠA bs
Ġent ren
Ġabsol ute
é« ĺ
r ink
us hes
Ġpoll ution
" ></
D ie
ĠÐŀ Ð´Ð½Ð°ÐºÐ¾
Ġbutt ons
ocr atic
Ġinnoc ent
iophen e
Ġd ol
oc ated
ĠE ss
ĠB ERT
Ġte eth
u ing
Ġt ort
sh arp
ET H
ĠT erm
Ð½ ÐµÑĢ
ia o
cto ber
Ġan atom
Ġperg untas
ê ¸
ĠF ound
ap pe
it Ã¤t
Ġmy stery
ĠApp lications
Ġsa Ãºde
ial e
ĠDe cember
Ġreput able
Ġincl us
Ġser Ã¡
E ach
Ġdis ad
Ġhor ror
Ġlib er
ĠDo es
Ġadjust ed
ĠÑĢÐµÐ· ÑĥÐ»ÑĮÑĤÐ°ÑĤ
em ale
ple t
Ġed it
Ġinter pre
Ð»Ð¸ ÑĨ
z ens
it ivity
< div
A g
ou ver
Ġinst ruct
ĠÑĢÐ°Ð±Ð¾ÑĤ Ñĭ
ĠGit Hub
ĠIn oltre
Ġtri al
Ġaplic aciÃ³n
ĠV iet
Ð¸Ð½ Ð³
Ġ ÙĨ
Ġmol to
cul o
ĠÑįÑĤ Ð¾Ð³Ð¾
å° ı
Ġpant ies
Ø °
Ġfunction ing
i at
Ġhorn y
ĠÐ¸ Ñģ
Ġcompan ions
Ġlos ing
ãĥ ª
Ġer ro
ier ung
Ð¸Ð» Ð¾Ð¶
Ġattra ction
Î ´
Ġprinci ple
Ġsc ared
Ġhaz ards
_l abel
- ÑĤÐ¾
w an
Ġal b
à ®
le an
Ġl ying
dict ion
ĠGree k
Ġj ur
Ġdies e
ĠS a
Ġno ch
ĠChe m
ĠvÃŃ de
Ġst ead
ĠB en
Con st
Ġto mar
Ġs pl
ĳ ×
ĠM er
Ġpol ite
Ġd ash
Ġap ro
' an
at ography
Ġg am
ÑģÐº Ð¸Ð¹
iv ot
45 6
Ġobt ener
i per
> ,
ĠT amb
ĠT oday
ĠD id
Ġinf lation
Ġdeg li
he lp
Ð ĵ
im ientos
Ġ× ľ
b untu
s che
9 6
Ġgu er
Å¼ y
L td
ĠÐ´ ÐµÐ¹ÑģÑĤÐ²
Ġrapp resent
ĠÐ·Ð°Ð¿ ÑĢÐ¾Ñģ
2 20
Ġv os
Ġleg end
Ġìľ Ħ
( arr
V ery
ĉ L
Ġs iento
Ġinfe ctions
EN D
Ex ception
Ġdirect or
Ġpu oi
per ties
con sole
z ip
Ġtr oubles
Ġwar nings
Ġbact eria
- Ċ
Ġb at
Ġagricult ural
T F
i u
Ġrh yth
Ġthro at
Ġdim ension
ro c
ĠT able
Ġmom ents
vert ed
- play
er os
Ġexpress ing
Ġb Ã¡s
Ġdes af
ĠN ine
Ġdi abetes
Ġkey board
ĠÐ¿ÑĢÐ¾Ð¸Ð· Ð²Ð¾Ð´
Ġs oph
Ð°Ñģ ÑĮ
ĠGes ch
ĠP ued
Ġmod ello
ier o
ĠÐĶ Ð»Ñı
F ROM
ĠMy SQL
Ð¾Ð¿ Ð°Ñģ
Ġconcent ration
ug hed
Ġsab er
Ġgram mat
Ġcarry ing
ĠmÃ©t odo
Ġele ction
Ġexc el
Ġsexual ity
Ġal can
i Ã§Ãµes
em ploy
el ta
Ġvers e
Ġhab its
M O
Ġp andem
Ġgr Ã¡f
ĠAd v
Ġstay ing
Ġchem istry
Ġrecover y
Ġy oga
ÐµÐ½ Ð¸ÐµÐ¼
C ons
Ã´ ng
Ġbes ch
ĠCh ange
.reset Game
ive red
Ġimage m
ÐµÐ½ÑĤ Ð¾Ð²
em pre
Ġder ogatory
Ġd ick
ĠÐ´ÑĢÑĥÐ³ Ð¸Ñħ
Ġdisrespect ful
qu anto
Ġcon ect
ĠD ies
les h
ë į
ë¬ ¸
Ġhous ing
Ġpropri et
Ġins ight
Ġhyp othesis
Ġp m
Ġjog o
. is
ĠP andas
ĠAd emÃ¡s
Ġpay ments
Ġhar ness
Ġdig est
Ġutilis ant
ĠSE O
Ġtherap ist
p ol
ĠM ont
Ġun less
Ġact ress
ĠĠĠĠĠĠĠĠ ĠĠĠĠĠĠ
Ġrespons Ã¡vel
B uild
Ġpur su
Ġw are
Ġre ject
Ġident ificar
Ġpen al
Ġimm oral
Ġmischie v
Ob servation
Ġpal ab
ĠC oll
Ġdiff usion
Ġgi ant
Ġuns ure
à¸ ¥
Ġp ause
ĠH istory
O K
Ġ Ùĥ
app ed
Ġinvestig ate
å Ŀ
Ġout door
Ġl ock
Ġe rect
ÐµÐ½ÑĤ Ð°
/ h
Ġt ense
Ġsub sequ
Ġed ges
ÑģÑĤÑĢ Ð¾Ð¹
v ia
Ġben ch
s en
Ġor ange
ãĥ ©
Ġwur de
Ġsu iv
ĠM ars
Ġfra gr
-eff ective
Ġfil t
rib ute
ĠOff ice
nd e
Ġm and
Ġla ughed
ĠØ Ń
Ġres il
Ġrel aÃ§Ã£o
W as
Ġwal ks
æ Į
Ġcomput ation
-inf lammatory
J ust
ĠS l
Ġ( `
Ġexpl odes
rut ura
L S
Ġperm issions
Ġinsp ired
Ġdu plic
Ġfund ing
C Ã³mo
ĠâĢ ĭ
Th anks
Ġquant ity
Ð¸ÑĢÐ¾Ð²Ð°Ð½ Ð¸Ñı
ĠG B
M ax
N e
ìŀħ ëĭĪëĭ¤
le ments
ĠG raph
ep s
an as
ĠA ction
Ġdark ness
go ogle
ĠÃ ľ
Ð°Ð» Ð°Ð»
Ġintegr ate
Ġg un
Ġentire ly
. id
Ġtw ice
Ġdep ression
Ġfr anÃ§ais
Ġse at
y y
Ġ` /
oc ra
ĠÐ¾Ð± Ð»Ð°ÑģÑĤ
Ġtreat ments
ĠIN T
ä¼ ļ
ĠAs ian
eli hood
ĠInd ones
Ġg erenci
Ġdest ruction
Ġí Ļ
Ġbon ds
è ´
atur day
ĠÐ¸Ð½ ÑĤ
Ġfulf illing
T ra
cont rol
Ġmig li
Ġs icher
Ñı Ð´
Ġbi as
UN T
E ng
ĠD NA
ĠL ink
c sharp
S im
. '
ĠÑģÐ¾ Ð¾ÑĤÐ²ÐµÑĤ
ĠC rown
ĠEn vironment
Ġcontinu ing
ARCH AR
ĠT ai
Ġtre asure
.p ng
Ġqual idade
Ð°ÑĤ Ð¸
ed ding
St ream
Ġand ere
12 5
ìĥ ģ
æ ±
am o
ĠW his
no on
kt ion
Ġhistor ic
ĠCorpor ation
ĠÐº Ð¾Ð³Ð´Ð°
' il
T hen
Ñĥ ÑģÑĤ
ap at
Ð ĳ
Ġdod ge
Ġd Ã©s
iz able
Ġun w
ĠHe ad
( my
- W
Ġc ub
Ġdesign ing
Ġmat plotlib
Ġske pt
Ġfed eral
ĠÃ© l
_ of
ĠÑģ Ð¾Ð²
nc y
Es pero
Ġgold en
Ø ¶
ĠÐ¾ÑĢ Ð³Ð°Ð½
h op
çŃ Ķ
` Ċ
E G
Ġas leep
-s ize
ĠW enn
à¸ Ķ
Ġdis appoint
ĠAn thropic
ĠEm ploy
ÑĢÑĥ Ð´
Ð¸Ñģ Ð°ÑĤÑĮ
ĠÐºÐ¾Ð» Ð¸ÑĩÐµ
ĠC ustom
ĠP oint
app y
á» ģ
Ġsend s
k g
u pt
cl aim
s um
Ġk icks
Ġdesign er
Ġattra ctions
ç «
Ġa Ã±os
os es
Ġextra ction
t here
ud ent
ff e
16 0
hr ase
? ?
Ġs quee
ĠR ace
ÑģÐº Ð°Ð·
Ġm Ã³
Ġtext iles
Ġc ort
Ġme hr
Ġprogram m
Ġdes per
ik an
ab lished
Ġenc oding
ivid ades
-f ree
Ġdr inks
port e
Ġhop ing
ed a
ĠC ore
gg ing
Ġinterf aces
ĠLe ague
Ġmem b
J ack
am l
ĠT ask
ang zhou
sp a
bl ock
Ġteas poon
it age
ĠT otal
Ġpip eline
ag ues
Ġj a
ĠÐŀ Ð±
Ġand eren
á» §
ĠMiss ing
k it
ĠÐ³ Ð´Ðµ
ĠG lobal
Î¹ Î±
Ġunder go
] )ĊĊ
Ġl ies
ch arge
Ġres erv
_ B
Ġc aut
ĠH ar
Ġsp oken
ÙĪ ÙĨ
Ġcon n
Ġintegr ity
Ġim mer
Ġur ban
Ġpy t
. out
Ġmed itation
Ġarr ange
ç İ
ag ent
ãĤ Ĥ
Ġver ificar
unt ar
Ġch ocolate
Ġpe pper
it ative
serv ice
le ading
Ġpredict ion
Ġhead quart
l at
init ial
D et
Ġswe at
T oken
Ġh ip
Ġking doms
ab ling
Ġair craft
Ġc in
Ġal m
ãĤ ¯
Ġeng ines
_w indow
ĠÐ¿ÑĢÐ¾ ÐµÐºÑĤ
ac er
Ġend point
Ð¾Ð¶ Ð°Ð»
13 0
. change
Ġrecom end
r ant
c v
oc he
Ġbus car
Ġcapac idade
Ġto ilet
Ġwid esp
ur pose
Ġwidesp read
- I
Ġtick et
clud ing
Ð¾Ñı Ð½
**** ****
Ġsen ior
r ific
Ġw ake
port un
ĠÑĤ ÐµÐ±Ñı
_ index
as c
Ġ` -
Ð¸Ñģ ÑĮ
am era
We b
k in
æ Ļ
Ġo xid
Ġid i
ìķ Ħ
ĠdiffÃ© rent
i ol
Ġlo ving
ÐµÑĤ Ð°
Ġle ans
ĠÐļ Ð¾Ð½
ĠÑĤ ÐµÐ»
Ġsegur idad
ĠÑĢÐ°Ð·Ð»Ð¸Ñĩ Ð½ÑĭÑħ
Ġ ```
he art
Ġcontroll ing
Ġintelig encia
C lick
Ġb il
ĠEng land
Î¹ Îº
Ø§Ø ¨
m ica
Ġst one
ogn ition
ìķ ¼
r ide
ĠE U
Ġs ql
ĠÐ· Ð½Ð°
Ġh int
Ġwould n
R ep
ru p
av ors
az z
Ġtax es
ĠFranc isco
Ã¤ hr
33 3
Ġstructure d
ì Īĺ
Ġdis order
is hes
Ġb ought
inter val
Ġfrequ ently
ĠÑĤÑĢ ÐµÐ±
h av
ĠM il
Ġhands ome
Ġa cess
Ġalg unos
ĠÑĤÐµÑħÐ½ Ð¾Ð»Ð¾Ð³
ĠD ifficulty
ĠÑģ ÐµÑĤ
ll a
Ĥ ¹
ant a
Ġel es
Ġajud a
tain er
A ge
if est
l ast
app le
- res
Ġra z
ĠDep artment
Ġpack ed
Ġconsum ed
l ong
í ĥ
O C
ĠS eg
_ pro
im um
Ġt ough
Ġint u
Ġpast a
ĠE ven
h ot
Ġdo zens
Ġsem en
i Ã£o
un ci
Ð¸ Ð½Ñĭ
Ġmy th
Ġcap az
p ow
ress ed
Ġoppon ent
ĠN eg
ish ing
g irl
Ġtest o
ÑĭÐ² Ð°ÐµÑĤ
im os
ĠA uf
Des cribe
o is
Ġe con
Ġportug uÃªs
Ġtra its
ĠIm p
ĠDisc uss
h u
Ġh oney
ert o
ĠÐ´ Ð¾Ð±Ð°Ð²
é Ļ
ĠL and
ĠK now
Ġwork er
ĠÐ» ÑĥÑĩÑĪ
Ġinvestig ation
Ġg ast
ĠS pring
Ġwis dom
ent ry
Ġsl ut
ĠÐ±Ñĭ Ð»Ð°
áº ¥
ĠSu pp
ĠD rive
Ġconsum ers
ac hers
Ġpun ches
Ġun us
ĠSe cond
Ġpay ing
Ġlav oro
o T
Ġdel ight
.s core
ĠS ÃŃ
Ġhesit ant
Ġtelev ision
Ġimm ers
Ġconj unto
ÙĬ Ø¯
Ð¾Ð²Ð°Ð½ Ð¸Ðµ
Ġcryptocur rency
ÐµÐ½ Ð½ÑĭÑħ
ãĤ ¢
_c sv
ĠM ost
ugh ty
ĠCom ment
_l ength
u zione
ãĤ ģ
Ġb att
ĠEx p
Ġdon de
Ġf iss
ĠH ier
ÑĢÑĥ Ð·
Ġrepresent ative
g res
ĠV e
uel le
Ġtrans mit
Ġaprend iz
trans form
Ġb ases
Y Z
Ġco ast
Ġintric ate
is ions
al ous
ĠD a
Ġatt ached
g rad
ur ning
In itial
Ð ¯
empl os
Ġr it
pr ises
Ġhyd rometry
Ġpro get
uest as
ĠÑĥÐ» ÑĥÑĩÑĪ
r ating
ch ter
ud denly
Ġ\ [
ĠÑģÐ¾Ð¾ÑĤÐ²ÐµÑĤ ÑģÑĤÐ²
og o
Ġem ails
umin um
ĠÐ¾ Ð³
Ġpen et
y nt
Ġ" ,
ind ed
Ġsche me
Ġphilosoph ical
F e
æ ¬
.d ata
ĠÐ¼ÐµÐ¶ Ð´Ñĥ
f order
j ection
Ġmas cul
g ue
ĠC i
Ġflow ing
Ġmur der
." )Ċ
ĠÐ²Ñĭ Ñģ
Ġport ray
Ġcab in
st ellen
p redict
Ġdel icate
ĠÐŀ Ð½Ð°
ĠB ro
Ġmane ira
Ġche ss
ĠMy stery
Ġpued a
less ly
ist or
Ġphen omen
å ķ
Ġg at
á» ĭ
Ġsal ud
ĠFra uen
ĠRem ove
ĠÐ¿Ð¾Ð¼ Ð¾Ð³
Ð°ÑİÑĤ ÑģÑı
Ġconven ient
ĠFlor ida
17 0
ĠWar riors
Ġex emple
Ġo portun
Ġin herent
Ġneigh b
z es
Ġf g
ĠÐ² ÑĸÐ´
è °
Us ers
> ",
ĠF ine
Ġg ost
() )
Ġpan el
em bre
ge b
Ġqu ot
ĠìĿ ¸
- V
ĠÐ¿ÑĢ Ð¾Ð²
ĠÐĴ Ð¾ÑĤ
J e
Ġbibliotec a
Ġn Ã¥
Ðº ÑĢÐ°
Ġinflam mation
Col umn
Ġalg uns
ĠprÃ³ p
à¦¾ à¦
ĠÐ¿Ð¾Ð¼Ð¾Ñī ÑĮÑİ
Ġcru el
g it
ie wer
Ġconsistent ly
Ġt ank
ĠM L
Ġarri ve
Ġd angers
ĠP RO
Ġest able
Ùĥ ÙĨ
Ġattempt s
am men
ĠS ign
Ġdis orders
r ons
ĠM A
ãģ Ī
Ġpath s
emb ered
or ph
Ġf ro
ut er
Ġcon crete
if s
ÐµÑĢ Ð¸
am en
Ġa os
ra pe
ĠB und
ÙĪ ÙĦ
' ;ĊĊ
om y
Ġe rection
Ġmotiv ation
Ġtoler ance
Ġtrav Ã©s
Ġemphas ize
.print ln
olog ist
Ġprovid ers
Ġan not
Ġf Ã¡c
Ġl u
av y
Ġinj uries
abil idade
Ġshe l
Ġexplain ed
Ġentre prene
Ġp ushed
Ġauthent ic
Ġmuit as
8 3
= (
ĠWh ite
Ġw est
fort un
_m essage
Ġcrow d
Ġh ttp
Ġsuper natural
Ġpes quis
Ġpre oc
ul as
ĠN um
ĠFed eral
[ -
ë ĮĢ
. ch
Ã¨ res
Ð¸ÑĢ Ð¾Ð²
Ð°ÑĨ Ð¸Ð¾Ð½
Ġn ail
Ġar rays
ÙĪ Ø±
gy pt
Ġdes ktop
ĠJ a
- def
Ġ ...Ċ
ìĽ Ĳ
g ithub
und a
Ġnit ro
Ġrepl ied
Ġtam per
ÐºÑĢ ÐµÑĤ
Ġa ug
Ġadjust ing
& D
Ġm ie
Ġap i
iel en
Ġcou ch
Ġirrit ation
P age
` .Ċ
ĠH a
Ġsuff ers
ab ile
Ġref lection
Ñī Ðµ
omet ers
Ġrad iation
Ġ ]Ċ
ÐµÐ½ Ð½Ð¾
Ġpublic ly
Ġcontinu ously
ĠØ§ÙĦØ £
og g
Ġhan no
ĠÐ±ÐµÐ· Ð¾Ð¿Ð°Ñģ
Ġprocess or
in formation
ĠH an
f Ã©
Ġdev ast
ĠSh anghai
Ġmeasure d
ĠÐ¿ÑĢÐ¾Ð´ Ð¾Ð»Ð¶
= f
Ġserv idor
Ġobjet ivos
vent ure
Ġscript s
Ġvac uum
hal ten
or re
Ġord ered
Ġexp ansion
pare ncy
Ġent rada
Ġswim ming
Ġcomp aring
Ġbas ics
Ġdec ides
is play
Ġusu arios
Ġtechn ological
_ ex
en o
ĠÐ° ÑĢ
def ine
Ġcertific ate
} ",
ĠSh are
Ġbit te
D ER
Ġconf used
ĠS H
Ġtem ps
Ġatt itude
ÑĪ Ð¸Ð±
rit er
Ġtro v
Ġ Ã³
Ġest ou
Ġhand led
Con clusion
Ġsubst ances
Ġcon ventional
Ġscen es
S i
Ġcre w
Ġv ivid
Ġnew found
Ġbare ly
ĠnÃ© cess
'] .
uff er
Ġus ada
_ ID
Ġbr as
H er
t op
Ġp ray
Ġst oring
Ġl ui
Ð°ÑĤ Ð°
em os
Ġgen re
Ġright ful
Ġconc aten
ĠÑĨ ÐµÐ»
p ir
Ð¸Ð¼ Ð¾ÑģÑĤÐ¸
Ġpurs ue
B T
g redient
ĠI V
Ġsw allow
Ġsud den
Ġllam a
Ġig ual
ĠB es
ĠL ib
iot ics
ol i
Ġout ra
red it
Ġcapt ured
rop y
- hydroxy
Ġautom ated
Ġnut rition
ĠÐ¿ Ð¾ÑĢ
Ġhas ta
Ġinv oice
our se
Ñĥ Ð°Ð»ÑĮ
Ġcam bi
.m odel
Ġaffect s
Ø¨ ÙĬ
w ood
' ).
ÐµÐ½ Ð½Ñı
Ġp ump
ik a
Ġth inks
Ġg alaxy
Ġaccept ance
. [
izz are
ĠÐ· Ð°Ð±
Ġess e
Ġpestic ides
ãĥ ĥ
Ġmal ware
ĠVo ici
ne cess
Ġcal idad
ST R
Ġperpet u
ĠÐ ¥
ĠB C
Ġisol ation
Ġlean ed
ote chnology
Ġcompet itors
ĠEst o
Ġcomp osed
Inter val
Ġest as
uc ks
Ġ ^
Ġenjoy able
Ġg ym
à¤ ¨
ĠE ff
Ġw Ã¼r
ĠÐ¿ÑĢ Ð¾ÑĤ
Ġclos ing
Ġod d
Ġexper iments
Ġbus ca
ĠÑĢÐ° ÑģÐ¿
-car boxylic
Ï ĩ
Ġden y
Ġac ces
Ġche eks
Ġpod cast
= False
ad y
Ġdif eren
us ammen
Ġtrabaj o
Ġmitig ate
Ġbl adder
ĠÐºÐ¾Ð½ ÐºÑĢÐµÑĤ
Ġsex ist
u is
ĠSo vi
Ġcy bersecurity
Ġdes k
Ðº Ð¾Ð¹
ĠØ ¥
EX T
Ġnuc le
H z
S l
ĠÐ¿Ð¾Ð´ Ð´ÐµÑĢÐ¶
ãģ§ ãģį
Ġmemor able
- position
C al
Q t
Ġbe g
Ġjo ined
p an
Ġsoc cer
Ġglass es
i ros
ion a
Ġwit ness
] -
ĠH ay
ĠF unction
Ġsubt ract
ĠE cco
ĠN E
Ġco efficient
ĠÐ¾ÑĤ Ð½Ð¾
ĠDet ermine
Ġpl ain
ÃŃ d
Ġwork out
Ġsubm ission
ic hen
Ġcon form
Ð½ Ð¸Ñħ
ĠF ort
A SE
Ġf ought
The ir
Ø§Ø ¹
ĠInformation en
ĠÐºÐ°Ðº Ð¸Ðµ
ĠPro te
Ġpres ents
Ġse ctions
ĠMed ical
Ġspark ling
ie urs
Ġpropos al
im pro
Ġint ens
gg ed
Ġupd ating
Ġforest s
b est
ìĿ Į
Ð°Ð½ Ð½Ñı
Ð¾ÑĢ Ð¾Ð²
ĠF und
v oice
Ġd oub
hy d
Ġregist er
Ð¸ÑĩÐµÑģÐº Ð¸Ðµ
Ġhyp not
Ġincorpor ate
Ġ ~
on te
ĠD an
Ġperson nel
ĠÐ¿ÑĢ Ð¸Ð»Ð¾Ð¶
ĠÐŀ ÑĤ
ç ´
Ġmay or
Ġchrom atography
Ġtr Ã¨s
Ġdr inking
Ġpros per
A gent
c ategory
Ġt ous
Ġs z
or are
ĠÐ½ ÐµÐ´
ĠÐ½ ÐµÐ¹
à¸²à¸ £
ĠÑģÐ²ÑıÐ· Ð°Ð½
Ġmed i
Ġlog o
Ġf ir
ĠM ount
head er
Ġ> >
Ġn orth
Ġdel ivered
ĠA L
ĠÐ² Ð½
Ùĩ Ø§
C V
Ġlight weight
he x
ĠP ers
Ġmajor ity
Ġshould er
- axis
er ves
ĠL ine
Ġamb ient
ty pes
Ġschool s
Ġhurt ful
ĠD ark
ĠO K
Ġes cre
Ġf ait
å¤ ©
Ġmuit os
é Ŀ
ĠJ iang
Ð¾ÑĢ Ð¾Ð½
Ġcar act
Ġtip os
Ġmanufacturer s
Ġfor th
ĠC r
Ð°Ð½ Ñģ
Ġmet ab
Ġafford able
aus es
ÐµÑĩ Ð½Ð¾
- value
Ġdep icted
ĠÐ± Ð°Ð·
Ġris p
ĠÐ¸Ð½ÑĦÐ¾ÑĢÐ¼ Ð°ÑĨÐ¸Ñİ
Å Ļ
Ð¸ ÐµÐ¹
Ġne u
ine craft
Ġchar ged
umm er
pos itive
Ġcorret amente
Ġaccord ance
Ġaddress ed
Ġoverwhel med
Ġtravel ing
Ð¾Ð± ÑĢÐ°Ð¶
ĠÐ¸Ð½ÑĦÐ¾ÑĢÐ¼ Ð°ÑĨÐ¸Ð¸
uthor ized
Ġdes ert
ĠS pe
om as
Ġclass ical
ëł ¤
Ġcryst al
Ġphenomen on
Ġlib ert
Ġanaly st
ent iment
ĠG l
Ġpot ato
) (
ÃŃ an
ĠfÃ¡c il
ont al
hy dr
acet ed
Ġnet working
Ð¸ÑĩÐµÑģÐº Ð¸Ñħ
Ġpodem os
ra ction
Ġar ise
Ġinitial ly
ĠM iddle
ap or
Ġcooper ation
ĠB ed
Ġinc ent
Ġn ose
Ġequ il
U LT
Ð¼ Ñĥ
b as
IM E
Ġpodr ÃŃa
Ġc ake
ÑģÐ» ÐµÐ´
ĠP our
Ġso y
ĠSt rateg
Since rely
Ġ )Ċ
_ str
.s h
Ġí Į
entral ized
w all
Ġra ges
ars h
Ġec st
Ġtext e
Ġcontain ers
umb led
Ġse i
Ð¼ Ð°
Ġchamp ions
Ġst ated
Ġtheore tical
C urrent
Ġte ars
Ġtrig ger
ren cies
yl ate
Ġsun light
ĠðŁ Ĵ
Ġresol ver
B ack
ĠT uttavia
Ġprof ound
Ġcontain ed
ĠdÃ© vel
ess er
ĠD irector
Ġt um
Ġal though
Ð¸ÑĤ Ñĥ
ĠAss oci
inst ruction
Ġmelhor ar
Ġv et
per m
ĠĠĠĠĠĠĠĠĠĠĠĠĠĠĠĠ Ġ
U D
Å Ħ
Ġbeh ave
Ġorgan ize
Ġservi Ã§os
id i
comp any
E u
H S
Ġwor ried
Ġsur vey
ĠX ML
Ġreason able
VID IA
ĠT i
ĠÑĦÐ°Ð¹ Ð»
od os
ĠA h
çĲ Ĩ
ĠReg ular
ĠespecÃŃf ica
Ġdecl ine
ĠD ocker
ia z
ĠC D
Ġmat ters
ĠrÃ© pond
ĠArt ificial
ĠPro t
Ġautom otive
â ķ
Inst ead
ĠL T
Ġnorm s
Ġkiss es
ge x
Ġuna uthorized
Ġfrequ ent
Ġnumer ical
ch ant
Ġutilis er
ëĲ ĺ
.difficulty Label
Ġen quanto
ĠÑģÐ² Ð¾Ð¹
Ġanim ation
ĠÐ¾Ð±ÑĢÐ°Ð· Ð¾Ð¼
it is
. io
ol ars
Ġv ess
Ġconnect ing
Ġachieve ments
Al ternatively
Ġgradu ally
u v
ĠF our
orient ed
Ð½ ÐµÐ¹
Ġg ases
Ġhob bies
ĠC up
Ġaccess ed
b el
Ġfun zione
Ġbo at
ë² ķ
ĠCl imate
Ġalt ri
Ġresum o
p end
Ġcor po
_d ir
ĠÑģÐ¾Ð·Ð´ Ð°Ð½Ð¸Ñı
ĠJew ish
Sm iling
Ġneighbor hood
ad s
ĠÑįÑĦÑĦ ÐµÐºÑĤÐ¸Ð²
åĲ Ī
Ġc ul
Ġle ather
ĠE S
ĠL ove
Ġna ughty
Ġmischiev ous
Ã ¸
ĠR iver
Ġmen os
Ġm im
Ġgo ogle
Ġdirect ed
Ġcontroll er
el er
ap a
Ġpound s
Ġa j
Ġton ight
Ġperce ived
ĠanÃ¡l ise
ĠCol or
è¡ ¨
W indows
ay a
reib e
çī ©
Ġc ic
und e
Ġcy cl
Ġinsp iration
D ialog
ĠG old
ìĹ ħ
Ġseed s
Ġl abeled
Ġsim ult
Ġbreak fast
ĠA ge
ĠAcc ount
ÑİÑĤ ÑģÑı
3 60
ĠD M
Ġglo ves
ä¸Ń æĸĩ
! ")Ċ
.s plit
ester day
d ers
ĠT ABLE
l ink
Ġn ails
Ġque ue
Ġsc ent
Ġemploy ment
Ġmark ed
ĠSE LECT
Ġprotagon ist
Ġprom ising
ä½ ķ
Ġmechan ical
' ):Ċ
Ĩ µ
Ġrec her
Ġì ¶
ĠÐ±Ñĭ Ð»Ð¸
-meth oxy
ĠOpt im
Ġspread ing
================ ================
Ġthorough ly
ĠSpec ial
- O
o be
Ġch ances
ap ed
ë¶ Ģ
id ed
Comp any
Ġquant o
ÐµÐ½ ÐµÑĢ
ric o
Ġcu ando
ç ¤
Ġreve aled
åĽ ŀ
Ġexplos ives
Ġìł Ħ
æ ĥ
Ġest rat
olog ie
Ġbl onde
à¸ Ĺ
Ġpriv ile
Ġy eah
Ġpro c
ĠR ad
ĠÐ³ ÑĢ
Ġwilling ness
ĠÑĤ Ð¸Ð¿
Ġdisposit ivo
a udio
ĠH R
Ġjo ining
ÑģÑĤÑĢ Ð¾
Ġb rom
el en
od ding
ell i
Ġ× Ĳ
ĠNew s
ĠÐ¾Ð´ Ð¸Ð½
ãĥ Ĺ
n ight
Ġa wards
al d
ĠS ound
Ġinterpret ed
¡ °
rig er
l it
Ġa inda
ĠT op
Ġar rest
Ð°Ð½ Ð¸Ð¹
Ġclar ity
Ġbur st
d ated
ien za
Ġf lying
Ġg aze
ĠÑģÑĤ ÑĢÐ¾Ðº
Ġconcl us
P o
br id
_ ch
arm e
Ġbomb s
Ġproces o
Ġt ire
an es
Ġn n
Ġweek end
n ode
æ ¯
Ð°ÑĢ Ð¸
Ġhom es
Ġfe at
Ġformat ting
ĠÐ½ ÐµÐ¿
Ġfl our
Ġadjust ments
ĠHe ir
Ġtu ple
è¡ Į
9 7
Ġt abel
Ġcaus al
Ġscr atch
ĠÐ½ÐµÐ¾Ð±ÑħÐ¾Ð´Ð¸Ð¼ Ð¾
Ġa cesso
Ġve ctors
Ġgru po
ĠÐ´ Ð¾Ð¿
Ġacc idents
Ã¤ d
Ġinteract ing
ĠS aturday
ess a
Ġà¤ ¸
Ġcryst all
neg ative
Ġ ul
ĠT raining
O ther
( g
Ġad hes
rest i
ge bra
Ġconfig ured
Ent ry
Ġext ens
N G
ì £¼
Ġgener ale
ĠSub ject
Ġsto pped
ĠE R
ĠSm art
o om
Ġst orm
se ction
ud ad
Ġvac ation
Ġn oss
Ġcaracter ÃŃsticas
b ow
Ã ¦
Ġintegr al
ere r
. from
ent al
ot os
ĠØ¹ ÙĦÙī
æľī ä»Ģä¹Ī
Ġa kt
Ġla un
neh men
v y
ĉ E
Ch ina
ĠGo vern
Ġì¤ ĳ
R et
Ġj Ã¡
âĢ¦ âĢ¦
ext ract
N ode
st Ã¤nd
ĠUn a
Ġb anks
ĠĠĠĠĠĠĠĠĠĠĠĠĠĠĠĠ ĠĠ
Ġconstruct ive
Ġcorpor ate
Ġadult s
Ġ Ø§Ø³Øª
or ith
Ġest ilo
ĠQ uest
Ġà¤ ¹
ĠH ot
ĠM ath
ell s
ult ure
comm on
Ġprod utos
Ġvol at
Ġconduct ing
Ġl lev
ĠE la
ber t
Ġsm iles
Ġpopular ity
per t
Ġbel ly
( result
Ġ× ©
Ġt els
Ġcontent ment
ĠM ad
ĠM ethod
Ġhouse hold
ĠD ocument
vide o
Ġot ra
c ity
t otal
Ġt id
iment os
Ġsatisf y
am ount
ĠÐ¿ÑĢÐ¾Ð´ Ñĥ
Ġeinf ach
cont in
Ġef ic
Ġanal og
Ġautom atic
-a ware
Ġvie le
Ġless ons
ĠÑĢÐ°Ð·Ð² Ð¸ÑĤ
en h
ĠT ailed
Ġcon ex
Ġsecret ly
Ġinstit ution
g os
Man ager
Ġs ag
Ġrem embered
Ġtou ched
Ġpu is
writ ten
" :ĊĊ
yr inth
× Ĳ
Ġshow c
ut z
ud i
Ġ` .
ĠR ub
Ġtarget ed
Ġsleep ing
" The
Â ³
ie res
yrid in
pr im
à¤ ķ
ON E
Ġcampaign s
Ġhob by
( Smiling
Game State
ĠSS ISTANT
Ġsulf ur
2 30
Ġg host
ĠÑĤ Ð°Ð±
-per formance
. array
back ground
ĠE th
Ġqual ities
ãĥ¼ ãĤ
th at
ĠK ubernetes
omet ric
+ y
Ġre wards
Ġf lesh
Ġmar ks
ĠÑ ī
ÑĢ ÐµÐ±
Ġfact ual
Ġd ann
ĠL ittle
ĠÑĢ ÐµÐ³
Ġaiut arti
Ġtrans cript
Ġocc asion
/ c
ach t
Ġdel im
v ision
ÑĮ Ñı
Ġsens itivity
8 7
Ġmis leading
-Ch loro
ĠD I
ilt ered
Ġenc uent
ĠMens chen
ik ip
N LP
Ð¾ÑĢ Ð¸Ð¸
Ġayud a
Ġprepar ing
r ations
ST M
Ġd ÃŃa
ĠÐ¶ Ðµ
Ġowners hip
Ġcolle agues
Ġscal able
Ġd b
ĠAd minist
Ù İ
Ġa rom
ĠSynt hetic
at ore
Ġperform s
Ġkeep s
å Ł
Ġsess ions
ĠTok yo
ĠV ARCHAR
Ġann ounced
eg u
Ġ( (
Ġatt ach
ĠB BC
Ġrelev ance
Ser ver
ri as
ĠÙĦ ÙĦ
local host
ĠÐ½Ð° Ñģ
Ġrub ber
áº¡ n
Ġdi pl
bo oks
ĠCl ient
lo ok
ãģĤ ãĤĬ
Ġconsist ency
Ġmar riage
Ġofere ce
Ġecst asy
ĠÑį Ð»ÐµÐ¼
z one
ĠW omen
Ġisol ated
Ġr Ã¡p
gre en
Ġtouch ing
d ess
ĠPl us
ĠCl ose
f ire
Ġcha os
ilit Ã©
Ġd ict
Ġn or
ĠWest ern
Ġo v
-m inded
Ġplus ieurs
Ġalleg ed
at rix
Ġpol ar
Ġterm in
G L
ĠÑı Ðº
Ġra pport
hor a
ĠOff er
. L
k om
Ġwork place
8 2
Ġnecess idades
åĪ Ĩ
Ġë ²
Ġperg unta
- int
Ġp df
ĠPat ient
Ġestrat Ã©g
Ġdef ense
=" #
U sing
ĠTh ree
Ġs arc
e ach
Ġev itar
Ġfemin ine
ĠâĶ Ĥ
Ġmin ing
Ġorient ation
Ġmeasure ment
Ã¨ mes
Ġverwend et
Ġrespect ive
) /
_ F
h aps
ĠE qu
Ġappe ared
b ility
ad ium
Ġi hr
W HERE
Ġrad ius
Ġnu o
.k eras
d ocument
Ð² Ð¾ÑĢ
Ġwork flow
Ð² ÐµÐ´
lev ant
Ġmor ality
Ġgreen house
Ġun necess
Ġj uego
ar n
Ġinf erence
Ġ"" "Ċ
Ġin quir
iv el
Ġne uro
ĠÐ» Ð¸
Ġfascin ating
Ġident ific
sc ss
× ©
Ð°Ð¹ ÑĤ
Al so
l ung
ĠÐ½ Ð°Ð²
Ġco ins
n p
ĠT ax
ly sis
az a
rend er
Ġsil ver
] }
Ġest os
Ġencrypt ed
b bing
Ġre cept
9 4
ĠL ast
Ġte achers
P RE
ĠÑĥ ÐºÐ°Ð·
è§ ģ
Ġunus ual
Ġp ier
Ġv ou
ove mber
ĠÐ¸Ð½ ÑģÑĤÑĢÑĥ
Ġco al
AT H
Ð¢ Ð°Ðº
å¾ Ī
Ġhel fen
Ġby te
Ġalg una
CI I
-position ed
o ved
us ers
ĠC e
Ġfor got
Ġres id
back s
AC K
Pl ayer
Ġquest a
å® ļ
Ġtrad itions
Ġbo olean
ent o
Ġse ine
Ġpart ial
ĠÑĩ ÐµÐ¼
Ġast ron
Ġacord o
def ault
è ª
Ġunders core
P at
_ image
ain e
Ġpar king
ion ar
ĠEx press
Com ponent
. r
Ï į
ĠE gypt
Ġrec all
íĸ ī
Ġt in
Ð½ Ð¸Ð¹
Ġserv icios
ann ed
Ġw and
ĠProf ess
Ġvis ited
ÑĤÑĮ ÑģÑı
P D
Ġw rap
ĠÑĤ ÐµÑĢ
ula res
×ķ× ª
Ġfiss ile
S u
ĠÐ´ ÐµÑĤ
Ġì Ĩ
Ġsim ples
Ġcos a
Ġattempt ing
Ġmol te
Ġsh ocked
Ġvalid ate
ĠTamb iÃ©n
Ġgovern ance
ji ang
Ġpro pose
ĠĠĠ Ċ
arch y
Ġpor que
Sm art
if ts
Ñħ ÑĢÐ°Ð½
Ġent ering
Ġdetect ed
-t une
Ġear nings
ðĿ ĳ
ĠP ack
Ġf urn
Ø³ Øª
if luor
- K
. N
Ġprincip ais
å®ĥå®ĥå®ĥå®ĥå®ĥå®ĥå®ĥå®ĥ å®ĥå®ĥå®ĥå®ĥå®ĥå®ĥå®ĥå®ĥ
Ġle ct
act ers
à¸ ´
Ġloss es
mar ks
ĠFin ancial
* ĊĊ
Ġa pt
Ġtext ile
ĠÐ´Ð°Ð½ Ð½ÑĭÐµ
Ġma ior
Ġcred entials
Ġimpl ies
Ġthous ands
or ge
ĠSovi et
Ġlo ver
Ġmet ric
Ġc ela
Ġinclu em
Ġe ars
Ġroom s
ÐµÐ½ÑĤ Ñĭ
[ :
\ ":
Ġw izard
+ Ċ
ĠÐ±Ñĭ Ð»Ð¾
} ;Ċ
Ġimag ens
in ho
ĠOr der
ĠGre en
ikip edia
Ġf etch
ĠÐ² Ð»
ĠEl le
ĠÑģÐ¿ Ðµ
II I
Ġaument ar
s w
æ Ľ
Ġl id
ĠÐ¾ ÑĪÐ¸Ð±
Ġtem p
Ġprior ity
à§ ĩ
Ġv iv
ĠV iew
ĠÐ¿ÑĢÐµÐ´ ÑģÑĤÐ°Ð²
ëª ħ
ĠN VIDIA
Ġprefer red
ro ph
ÐµÐ½ Ð½ÑĭÐµ
Ġadvance ments
ĠF ree
ĠF OR
Ġcharacter istic
Ġtal ents
9 3
ĠC ependant
Ġlo ose
Ġbr anc
ĠÐ²Ð¸Ð´ Ðµ
pr ime
Ġalg unas
_ by
r ica
ĠH ol
Ġafter noon
Ġrece ives
Ġin coming
Ġag es
Ð»Ñı ÐµÑĤ
-s u
Ġcard io
Ġth reshold
ric ks
ëł ¥
' es
con f
Ġ* /Ċ
Ġresp uestas
' inter
ĠÑĢ Ð°Ð´
Ø º
Ġcomb ines
ĠÐ²ÐºÐ»ÑİÑĩ Ð°Ñı
Ġine quality
Ġgame play
ĠAgre ement
å İ
. Game
-p arty
Ġtim estamp
it en
ĠD en
ĠB on
ĠÎ ´
ĠÑģÐ´ÐµÐ» Ð°ÑĤÑĮ
Ġqu er
it udes
im s
Ġqu iz
ĠÐ· Ð°Ð¼
ism a
Ġadvis or
Ġin h
ĠPl atform
å®ĥåı¯ä»¥å®ĥåı¯ä»¥ å®ĥåı¯ä»¥å®ĥåı¯ä»¥
Ġli ver
tic le
Ġfert il
ĠSe a
ĠM or
Ġexplain ing
ĠV PN
Ãª me
Gr oup
ĠÃ©ta it
< !
ĠS qu
pe at
Ġjed och
ì¤ ĺ
Ġa ura
Ġal uminum
ĠR ain
Ġper t
Ġcha que
Ġdesarroll o
ed nes
Ġsk learn
ÃŃn ÃŃn
b ian
en ze
Ġl ip
Ġcon ve
ab y
Ġun sett
Ġpers u
Ġi Phone
à¸ ļ
out er
ĠĠĠĠĊ ĠĠĠĠĊ
n ament
Ġr um
Ġformat s
is as
Ġd ad
ĠP et
ĠL ED
Ġcook ed
Ġtransm itted
p ad
p ower
ĠÐ² Ð¾Ð´
Ġbene ath
a ft
Ġcom pt
Ðº Ð¾Ð¼
d el
Ġde re
ert a
Ġlux ury
p rompt
Ġoper ational
Ġfour n
ĠEns ure
ex port
Ġdispos al
E Y
T R
Ġincon ven
Ġc Ã¡c
Ġf its
ort e
Ġpref ix
Ġprint f
æ µ
ator i
Ġsp in
ĠÐ· Ð°Ð³
Ã© li
lo b
Ġg ene
ut ch
Ġplan ned
istic ated
A V
Ġcoll apse
ÐµÐºÐ¾ÑĤÐ¾ÑĢ ÑĭÐµ
el led
Ġmult if
Ġvul gar
Ġantib iotics
Ġhe y
ny ch
. )Ċ
S D
ig u
Ġs outh
ĠC ur
ëĬ ¥
Cont roller
Ġintim acy
Ġt ruck
Ä± l
Ġrecord ed
ate ur
Ġstri p
Ġinflu ential
an ium
ĠM ove
Ġsh ake
Ġintel lectual
Ġintelig Ãªncia
Ġconhec imento
Ġk o
Ġ ents
ost as
Ġlub ric
æŀ ľ
Ġf ox
åĪ °
Ġconstruct or
ĠÐºÐ» Ð°ÑģÑģ
Ġn urs
ĠH ong
ĠBe ispiel
Ġspeak ers
Qu Ã©
é ľ
ĠÑįÑĤ Ð¾ÑĤ
Ġbrand s
ĠÐ°Ð½ Ð°Ð»Ð¸Ð·
Ð¸Ð² Ð°ÑĤÑĮ
Ġgen u
Ġcontrib uted
es i
Ġb aj
ĠL i
IT Y
ĠÐ¿Ð¾Ñģ Ð»ÐµÐ´
ur ous
ĠIsra el
he ast
Add ress
Ġpro bl
Ð³ Ð»
Ġb or
Ġde aling
ĠS M
Ġan os
à¸ °
.game Over
Ġclar ification
ĠAdd ress
Ġìķ Ħ
/ >Ċ
pe g
ĠDe utsch
ĠÃ¡re a
ho le
Ġlic ens
- la
HT ML
Ġunsett ling
t arget
ĠL ike
ĠÑĥ ÑģÑĤÐ°Ð½Ð¾Ð²
ĠEx amples
ìļ °
ĠÐ¿ÐµÑĢ Ð²
Ñĥ Ð»
Ġdec ades
Ã¤ lt
jo ys
z ym
Ġliv ro
Ġas eg
ust ers
Ġexist e
rem ove
ĉĉĉĉ ĉĉĉĉ
ĠBer lin
-meth ylp
ĠC ON
Ġat ra
Ð¼ ÐµÑģÑĤ
Ġkiss ed
È Ľ
Ġpo ison
Ġmin er
Ġpref erence
Ġpandem ic
ĠCh rome
Ġpi pe
ĠAp ache
Ġcant idad
Ġe ines
ĠRe place
Ġverd ade
M ed
á» ¥
we ise
Ġappreci ation
æ Ķ
Ġext ends
Ġtalk ed
ĠØ£ ÙĨ
Z E
Ġl uz
ian a
ĠSing le
S F
Ġt udo
çĶ µ
Ġunnecess ary
Ġexam ination
List ener
Ġr if
äº İ
Ġtwist ed
Ġproyect o
- te
T ok
Ġt an
Ãª t
Ġcrop s
Ġfantas ies
Ġde als
Ġal tre
ĠM en
Ġexpand ing
æı Ĳ
r Ã¤
own ed
ĠÐ³ Ð¾Ð²Ð¾ÑĢ
ren ces
Ġmet adata
s ource
} .
ĠD raw
Ġgra do
Ġsi empre
Ġì £¼
Ġsac rific
Ġt ied
Ġtarget ing
ĠMed ia
Ġs lic
äº Ĩ
Ġm g
ä¸į åı¯
Ġbrother s
Ġcandid ates
ic u
Ġwe it
Ġpers one
Ġtab oo
Ġden gan
Ġsuper f
Ġsimult ane
p ira
ĠÐ¿ÑĢ Ð¾Ð²ÐµÑĢ
Ġext ended
Ġhe ating
Ġz a
Ġshadow s
Ġg pt
Ð°Ð¶ Ð¸
ist an
Ġla ughter
Ġprim a
ĠSt ore
in ic
Ġadv ances
are st
ĠìŀĪ ëĬĶ
Ġy e
Ġstreng then
Ġseguint e
Ġsurg ery
g ers
if ting
ĠÐ¾Ð±ÑĬ ÐµÐºÑĤ
ĠT om
ĠBit B
Ġloyal ty
Ġkil ometers
Ġconf erence
t oken
ore n
Ġbelong ing
tr as
Ġelement os
ĠÐ¸Ð½ÑĤÐµÑĢ ÐµÑģ
ĠÐ¿Ð¾Ð·Ð²Ð¾Ð» ÑıÐµÑĤ
Ñĥ ÑģÐº
Ġop ens
Ġpalav ras
Ġc yl
Ġdri vers
ĠEvalu ate
Ġdisad vantages
Ġhead s
è ½
ĠS on
Ð¼ ÐµÑĤ
Ġr ude
Ġinf ect
Ġcomp ression
Ġoffic er
Ġbasket ball
Ġl ig
Ġext ent
C NN
G R
L ocation
ĠCh amp
Ġappe al
Ġposition ed
Ġemp ower
Ġtroubles ho
ednes day
Ġsupp osed
) ]Ċ
Ġref eren
Ġgovern ments
ĠÑģÐº Ð°Ð·
r Ã³
ä½ ľ
ĠÐ¿Ð» Ð°Ð½
Ġe ast
Ġh ub
Ġex ch
Ġsu p
ĠÑģ ÑĥÑīÐµÑģÑĤÐ²
Ġwat ches
Ġpo inter
Ġcaut ious
g ender
bre ak
ĠAl ways
ĠPl ace
Ġh anging
Ġres on
/ v
Ġdo is
Ġop Ã§Ã£o
à¹ ĥ
Ġofficial s
> "
Ġí Ķ
Ġcommunic ating
-b ut
Ġlog ging
Ġsch olars
Ġfrust ration
Ġf ich
s i
v als
Ġdut y
l Ã¡
Ġtechn icians
Ġpartic le
à¦ ¿
r ich
cl os
Ġcolor ful
ĠG rand
() );Ċ
ann y
opt im
. value
ê ±
Ġfl ash
ĠÎ ½
Ġnod s
g enerate
Ġg em
ard ing
ĠDis play
ä½¿ çĶ¨
Ġpub blic
Ġrelax ation
nis se
Ġcont est
Ġdepend ent
ĠÐ¾Ð¿ Ð¸Ñģ
ĠpÃºblic o
Ġc ro
ĠB u
Ġdist ingu
ĠSp ain
Ð¸ÑĨ Ð°
Ġcipher text
ë £
-------- ----
M ain
Ġfact ory
Ġaltern atives
X T
m ethyl
er k
Ġv ital
eth oxy
íķĺ ìĹ¬
Ġg el
ĠM ulti
Ġtransform ers
Ġwonder ful
K eep
O ff
Ġt weet
Ä± r
'aut res
ëŁ ¬
ch Ã©
Ġint r
ak an
E C
ĠÑĢÑĥÑģÑģÐº Ð¾Ð¼
h n
Ġten nis
Ġfib onacci
il ation
yr ight
Ġpredict ed
b st
Ð Ľ
ÐºÐ° Ñħ
ke ley
Ã¶ t
Ġc ot
ĠÑģ Ð¾ÑģÑĤ
é ¡
Ġfacilit ate
ore r
Ġac quis
is c
ĠD iv
ĠdÃ©c ou
Ġad s
ĠP rop
è¿ Ļ
( B
ĠE mb
Ġarm az
c p
Ġmonth ly
Ġmaxim ize
u u
ÑģÐº Ð¾Ð³Ð¾
ĠSch w
et zt
Ġfil ename
Ġwhe el
Ġsav ings
S ure
ĠGu ide
Ġsoph isticated
d i
ĠS A
Ð¾Ñģ ÑĮ
Ġcontract s
Inst ructions
ãģ£ ãģ¦
fortun ately
Ġf ellow
Ġsl ide
ĠBo ok
Ġst uck
ĠÐ¿ Ð¾Ñĩ
ĠV or
ck ets
ê³ µ
Ġhost ing
ĠIns ert
ĠMed ic
Ġen cont
ĠCap ital
å½¼ å¥³
ì ¶
Ġcr imes
Ġinsp ire
" ),
F P
.m ain
Ġutilizz ato
Ġexpand ed
ĠP ac
Ġ< -
.con fig
Ġb om
vent ions
Ġconvin cing
ĠmÃºs ica
Ġra ces
Ð´ Ð¸Ð½
Ġinf in
Ġ$ {
Ġlik elihood
ĠÑĩÐµÑĢ ÐµÐ·
Ġcoating s
Do es
G E
ĠrÃ© g
Ġtrans parency
Ġprof iciency
Ġparticip ant
Ġcelebr ate
ocra cy
a id
.p aused
Ġme io
ĠL ab
ol Ã³g
Ġnot able
ãģĵãģ¨ ãģĮ
Ġfor te
Ġdec entralized
Ġdiv ine
Ġsubst itute
ĠAre a
Ġconsens ual
Ġfif th
R ow
Ġret ain
Ġpix els
Ġcomple ment
Ġact ors
Ġt ender
Ġsh ipping
Ġma il
Ġque en
AG E
_ numbers
ig ma
aut hor
ĠFra gen
n ull
Ġra cial
Ġret ire
ĠS aint
Ġdom ande
ĠD at
Ġleg it
Ġpresent e
ĠCont ext
Ġger ne
. )ĊĊ
9 1
Ġe po
Ġus a
Ñį ÑĤ
Ġcons ig
raz ine
Æ°á» £
ĠBitB ake
R ob
ang a
Ġsuggest ion
ĠÐłÐ¾ÑģÑģ Ð¸Ð¸
Ġre ven
ĠG er
Ġâ ĸ
. after
Ã¤ ch
Ġport ion
Ġlaugh ing
Ġaug ment
re i
Con fig
Ġbur ning
Ã¡tic o
glich keit
U L
Ġf Ã¼h
Ġur ine
Ġn ick
ĠC ard
Ġ ÙĤ
ĠTra ding
Ġreag ent
ìĨ Į
he alth
Pro gram
æ į
Ġch ose
- oriented
Ġr hy
ë§ Į
Ġbelie ves
Ġess ence
rent e
Ġheart s
Ġsupp liers
ĠJour nal
s core
Ġ íķ´
De v
Ġpound ing
é ĥ
Ġar ts
.change Direction
Ġro se
ĠF uture
ast s
ĠÐ´ Ð¾Ðº
artic le
Ġì ĸ´
ĠSc ot
ĠO ctober
Q ue
ì ĸ
Ġb a
ir us
al og
Ġcent ers
Ġadvent urous
d rometry
ĠP rem
b ound
Ġincom plete
b les
} ;ĊĊ
Ġjud gment
ĠU buntu
Ġmoan ed
Ġusu Ã¡rios
Ġtr as
ador a
Ġdiscover ing
â Ĥ¬
Ġfac ial
ĠTh rough
ĠðŁ ¤
Ġtempor ary
_ with
Ġle ver
ĠÐ°Ð² ÑĤÐ¾Ð¼
æ ĭ
ĠExper ience
Ġad here
Ġreal ization
Ġteach ings
ĠEngine ering
D C
ient ras
Ġp ill
Ġun st
Ġest oy
Pro cess
,,,, ,,,,
' ac
Ġcomple ting
Ġimag ination
Ġgrand es
ÙĦ ÙĬ
Ġcond ensation
Ġencoura ges
b ug
Ñı Ñģ
io xid
v or
re ng
Ġreg ulation
ĠDisc ord
Ġferrament as
ç ¥
ter y
Ġsy s
Ġimp ression
×Ļ× Ŀ
æĹ ł
Ġg ri
Ġappe aling
Ġprop ag
. run
Ġt rop
Ġran king
9 2
Ġsynthes ize
Ġprom inent
ĠEn joy
Ġave re
\ ]
oc y
Ġmon do
erc a
it als
Ġw Ã¤h
F i
Ġcast le
Ġëª ¨
lik ely
Ġë¬ ¸
êµ ¬
Ġì °
ÙĬ Ø±
V C
Ġact or
å ±
Ġob j
ĠB al
Ġman agers
Ġ[ (
Ġmac ro
ow a
Ġdec ir
d d
ig ger
ãģ ¡
Ġí ĺ
å¸® åĬ©
Ġw ond
Ð¾Ð² Ð°ÑĢ
ĠPr ice
Ġtransl ated
Ġmod erate
ĠÐ»ÑİÐ´ ÐµÐ¹
Ġb aking
pl ess
ĠÐ° ÐºÑĤ
met ic
Ġpromot ion
f ont
Ġp end
qu ant
Ġef iciente
Ġhi king
Ġexam ine
Ġob ed
æľ Ģ
Ġit eration
Ġencoura ging
Ġt urtle
th al
Ñĭ Ñĩ
ÑĮ ÑĤÐµ
Ġout ro
Ġappro val
Ġas c
æĸ ¹
Ġinj ection
L OR
Ġwor se
ĠÐĺ Ð·
ĠD im
Ġdis appe
Ġmiss ed
Ġìķ Į
Ġthigh s
Ġhuman os
Ġen joys
Ġat en
Ġprogram aciÃ³n
Ġinstal ar
Ġindepend ence
Ġdefe ated
O IN
Ġinstr uments
Ġcurs or
- ins
= [
10 8
ues day
* Ċ
Ġd ense
Ġf uer
ar ial
ĠM om
ui Ã§Ã£o
ĠÐ¢ Ð°Ðº
Ġg rip
Ġag greg
Ġtri ple
Ġad vers
In fo
Ġw ings
Ġst oria
< html
r ine
Ġf art
Ġman iÃ¨re
ĠÐ¿ÑĢÐµÐ´ Ð»Ð¾Ð¶
V M
ĠEm ily
ĠÑħ Ð¾Ñĩ
- and
al g
ĠW ars
ĠSh ort
x ious
Ð §
æ ¶
Ġent Ã£o
Ġins ult
ĠÑħÐ¾ÑĤ Ð¸ÑĤÐµ
ĠwÃ¼r de
Ġdevelop s
ĠB ot
Ġutil ize
Ġwhis pers
Ġp on
ĠĠĠĠĠĠĠĠĠĠĠĠĠĠĠĠ ĠĠĠĠĠĠĠĠĠĠĠ
Ġincre ment
Ġver ific
Ġj avascript
ç§ ģ
ĠL La
ĠV ideo
vers o
-b it
ĠÐ¶ Ð¸Ð·
H I
Ġevery day
ĠBer keley
w ind
Ġnot re
ĠV irtual
Ġfib er
Ġj ew
Ġequ ality
Ġleg acy
ãĤ Ħ
ĠÐ¾ÑĢÐ³Ð°Ð½ Ð¸Ð·
/ p
ac ity
py game
(d ifficulty
h ome
ĠK on
Ġrecommend ation
Ġrele ases
. keys
Ġpr Ã©s
Ġperform ances
Ġutiliz ado
ĠV en
bo ot
Ġre vol
.s end
Ġci udad
ĠEduc ation
Ġcar ing
Ġej ecut
Ġmic ros
ĠK I
Ġdep ict
Ġmed ida
Ġ ile
ĠF a
ĠÑĥ Ð±
Ġar my
ĠPos itive
ĠP ublic
ĠN ovember
ec u
Ġcomb inations
gre SQL
ĠÐ¸ÑģÐº ÑĥÑģ
( string
ÐµÑģÑĤÐ² Ð¾
Â Ń
.g enerate
Ġpleas uring
Ġsolub le
Ġs word
ĠM ind
Ð¸Ñı ÑĤ
F inal
ĠÐ· Ð²
ĠTra de
Ġschedu led
. close
Ġevalu ated
ĠColl abor
j os
ructure d
Ġob ter
Ġfil tr
( r
c r
d em
un o
Ġrel uct
Ġtim eline
. The
ĠO S
ĠCon sole
Ġrelax ed
æ Ĥ¨
ĠÐ´ Ð¾Ð¼
ĠK o
box ylate
C or
ĠC ong
ĠR O
ĠInst itute
Ġexcell ence
ĠObject ive
Ġnutri ents
Ġj ava
Ġbe er
å· ¥
æ ¡
AR Y
M ay
ĠIn nov
c en
Ĥ °
Ñĥ Ñĥ
Ġcre ators
be c
Ð¸Ð± Ð¾
( row
om bre
Ġdet al
Ġvir gin
Ġa ward
Ġof re
Ġod or
ĠAnt wort
rag on
enc er
å¹ ³
Ġstead y
ry st
ater al
Ġbo oking
Ġexplain s
Ġaband oned
ĠÐ¶Ð¸Ð· Ð½Ð¸
ol in
ĠÃ¡re as
ĠI BM
ÐµÐ½ Ð½Ð¾Ð¹
Ġform ing
ĠÑĥ ÑĢÐ¾Ð²
AL L
ce ived
Ġz ip
ĠIslam ic
Ġrequ is
Ġsmall est
ÑĦ ÐµÑĢ
ĠÐºÐ¾ÑĤÐ¾ÑĢ Ð¾Ðµ
Ġamaz ed
im ages
art en
op yridine
Ġmyster ies
Ġbelong s
fra c
Ġg ate
ign e
ĠAS CII
w ell
ĠPh arm
ĠZe it
Ġnatur ally
Ġimmers ive
Ġsign ature
ĠÐ» ÐµÑĤ
Ġcontrib uting
Ġshap ing
Ġvari ar
à¸ ķ
Ð°Ð² Ð°ÑĤÑĮ
Ġobjet os
orig inal
cur ities
att ered
é ĸ
Ġc ust
Ġm ia
Ġvis ually
aut h
Ġindic ators
-tun ed
Ġalgum a
Ġh ug
ost o
20 3
el o
ĠJ ul
. Get
Ġm ere
Ð°ÑĤ ÐµÐ¼
av en
c ard
ĠSim ilar
u ais
Ġmag azine
Ġreplace ment
fÃ¼ hr
Ġre vers
Ġdiscuss es
ĠÐ±Ð¾Ð»ÑĮÑĪ Ðµ
ist en
Ġs our
ob j
åľ °
( D
ÑĤ ÑĢ
ĠS elf
ĠM ot
Ð°Ð½ Ð°
eng ers
Ġcal cular
Ġkiss ing
è® ®
ĠB ible
Ġsimpl ify
f loat
Ġas ync
ann a
ĠÐ²Ñĭ Ð·
anÃ§ as
Ġt s
te e
Ġë Ķ
Ġcres c
Ġo ven
ãĥ ķ
ðŁĶ ĵ
ĠfÃŃs ica
} ")Ċ
Ġmole cular
Ġ Ø§Ø
al ah
Ġma pping
Ġprem ium
im estamp
Ġcho pped
Ġste al
ĠÏĦ Î·
c up
on ia
.j oin
car bon
Ġdese ja
Ġrein forcement
ĠBund es
- ox
erm an
Æ ¡
Ġpossib ly
B ecause
o ard
Ġserious ly
Ġpartners hips
Ġg le
Ġhy dr
Ġhighlight ing
Ġsho ot
Ġtiss ue
ge re
Ġbi ke
åĬ Ľ
Ġshap ed
Ñĸ Ð½
ĠBe gin
g ments
Ġrot ation
Ġenthus i
C M
ĠV ous
Ġdirect ories
ãģĹ ãģŁ
ch l
Ġsold iers
Ġacces o
- pl
em a
ĠRout es
_ array
Ġshould ers
ĠLa w
Ġs aving
Ġup grade
Ġtutorial s
Ġmaintain ed
.b ind
Const raints
. Frame
ĠUnder standing
( y
ing er
ãģ ¤
Ġremain ed
un ter
Ġdet all
rit t
ĠSe e
ĠPued es
b u
Ġc ube
ĠM ass
Ġabs ence
Ð¼ Ð¾ÑĤÑĢ
ĠÐ° Ð»
Ġhon or
Ġdisco vers
Ġmoist ure
ay ment
Ġsupp lies
ĠHawai i
or ous
g ener
st op
az u
iel le
Ġris ing
ond a
") ;ĊĊ
Ġbra ve
Ġemerg ed
: .
p ing
ib er
ĠÑĤ ÐµÐ±Ðµ
Ġeth yl
Ġfl ask
Ġenter prise
Ġar row
Ġta ught
ì¹ ĺ
Ġte ase
Ġag ed
Ġsm iling
av al
Ġad ecu
Pro vide
Ar t
ĠtÃ©cn ica
ij n
Ġen um
Ġdemand s
et c
ivid ade
Ġrep s
Ġflow er
f irst
ĠÐĿ Ðµ
E nc
Ġel ig
Ġje alous
Ġcra ck
) "
Ġsat ell
Ġhol iday
Ġê² ½
Ġpo ver
ÃŁ e
ĠT or
Ġper ception
am ps
Ġg ior
ĠD irect
du ctor
à¥ ĭ
ĠÑĤÐ°Ð± Ð»Ð¸ÑĨ
\ ",
Ġstud io
ĠØ ¬
Ġsequ ences
ĠØ¨ Ùĩ
Ġpros pect
Ġgat hered
Ġst ations
ĠÑģÑĤ Ð¾
xim o
Ã¡ri a
Ġo tras
ol are
Ġver ified
ĠPr ime
Ġch ronic
Ġab normal
Ġutilizz ando
Ïĥ ÏĦ
Ġsand w
, âĢĿ
ĠC A
ite z
Ġimmedi ate
Ġco pe
ĠÐ¾ÑĤ Ðº
R est
ol id
ĠC NN
Ġkn ees
Ġdisposit ivos
Ġas ÃŃ
Ñİ Ñī
ĠIndones ia
ç ½
ðŁ ı
Ġess as
ÐĿ Ð°Ð¿
Ġpull s
it et
Ġit iner
Ġshow case
'] )Ċ
Ġcook ies
Ġdecl ar
Ġsubs cription
Ġhuman o
Ġstop s
gi ene
V al
ur ious
Ġcharm ing
-l ife
Ġmon ster
Ġma ps
Ġbu cket
Ġref ine
Ġacc ent
) :ĊĊ
Ġflo ating
Ġste am
Ġ" ",Ċ
Re al
Ġgrab bed
ĠEnc ourage
Ġspan king
ĉ B
az o
ik t
ĠInt rodu
ĠLe vel
Ïģ Î¿
Ġdef ining
KE Y
Ġitalian o
ÐµÐ» Ð»ÐµÐºÑĤ
Ùħ ÙĥÙĨ
Ġëĵ ±
y ch
× ĳ
ĠB ang
U DA
Ġfe ars
Ġinst ant
ĠÑį Ð»ÐµÐºÑĤ
Ñĸ Ð¹
add le
ĠÐ¿Ð¾ÑĤ ÑĢÐµÐ±
. im
D I
Ġ íķĺ
ĠÐ´ ÐµÐ½ÑĮ
ìĭ Ŀ
Ġot ro
-F i
G u
Ġde let
Ġag ua
ivid ad
ams ung
ues e
Ġd istant
und ay
ĠAnt i
ĠD r
ex p
Ġback end
ron es
Ġtalent ed
ĠÑħ Ð¾ÑĢÐ¾ÑĪ
DO CT
ĠestÃ¡ n
ĠMin ister
S hell
Ã¶ glichkeit
Ġattack er
Ġaim ed
Ġfulfill ment
: NAME
.d isplay
ur d
ĠK EY
Ġad icional
Ġvari ations
Ġcal endar
ĠÐŀ Ð½Ð¸
ĠÑģÐ²Ð¾ Ñİ
ĠUp stream
Ġc ave
Ġn un
iv ating
Ġher itage
ĠF rame
Ġbl ind
_t oken
Ð¸Ð² Ð°ÐµÑĤ
ĠcrÃ© er
- one
Ġi Ã§
Ġgener ations
ura ble
Ġaff ili
Ġpun to
ĠDown stream
Ġal iens
Ġsp at
Ġext end
_st ate
Ġtrain s
_d f
Ġnavig ation
ĠÐ²ÑĭÑģ Ð¾Ðº
Ġa ver
Ġpossib ile
Ġinvestig aciÃ³n
ĠÐ¶ Ð¸Ð²
Ġdura ble
le ge
Ġen abling
ĠR om
Ġrest art
S ty
Ġc á»§
Ġl ado
Ġtest ament
M ENT
Ġ ```Ċ
Ġper d
E ffect
P ol
il a
Ġconvers aciÃ³n
Ġcapac itÃł
Ġvisit ors
ĠÐ·Ð° Ñī
éĩ ı
Ġ× ŀ×
' am
jo in
ĠI de
pe ction
Ġdis ag
Ġco isas
Ġim per
Ġmost ly
Ġsurround ings
ĠTai wan
. ).
Ġsu i
Ġnot er
UE ST
ONT ENT
ĠÐº Ð½
Ġatt ivitÃł
ph ant
Ġbl end
ðŁ Į
W ork
ith metic
ĠG UI
Ġalb um
) \
Ġess es
Ġreal izes
Ġdomin ance
M ode
Ġad option
Ġprot est
ab en
li x
Ġrandom ly
.m ove
Ġìŀ Ĳ
ëı Ļ
connect ed
ĠÐ½Ð°Ð¹ ÑĤÐ¸
éľ Ģ
F L
m icos
ain er
Ġpac iente
ÑĥÐ¹ ÑĤÐµ
ĠÐ½ ÐµÑĤ
Ġtien en
Ġpursu ing
Ġ" .
Ġj ou
qu ina
Ġla ke
Ġman ifest
ĠÐ¸ÑģÐ¿Ð¾Ð»ÑĮÐ·Ñĥ ÐµÑĤÑģÑı
æī ĭ
ut or
Ġsp oke
ĠPl ot
izz azione
num py
ĠÐ¸Ð³ ÑĢ
ĠëĤ ´
Ġab oard
ful l
ĠìĿ ¼
Ġobserv ations
ĠWhis ky
ĠRo om
ÑĢÑĥÐ¿ Ð¿
Ġb ull
Ġbe aches
Ġun likely
Ġcá»§ a
ĠÐº Ð»ÑİÑĩ
Ð¾Ð²Ñĭ Ðµ
Ġmark down
Ġste pped
ĠE les
Ġform atted
Ġreal m
Ġdeg rad
or ation
t ail
ĠD ynam
Ġhol es
Ġintent ions
Ġpre ced
ĠCent ral
E dit
W A
Ġl ens
Ġop ciÃ³n
Pro ject
M ethod
ĠH o
m ail
ve led
ĠL ow
Ġdist ract
Sub ject
ou ch
ĠI II
Ġcontract ing
Ġinconven ience
( {Ċ
Ġh am
un ks
Ġform as
Ġbroad er
Ġpreu ve
ĠNe ural
Ġdivis ible
w i
Ġfe ather
Ġconsider ar
(' /
CRE ATE
ĠLink ed
Ġc able
ul d
ĠW ie
Ġsp ine
ĠCon fig
ĠĠĠ ĊĠĠĠĠĊ
Ġdi vert
ĠÐ¾ Ð·
ĠTr ust
Ġany where
à¸ «
Ġnorm ally
Ġicon ic
Ġch i
Ġtemper atura
App lication
Ġconf ess
.p osition
at ar
ze it
ze ug
Ġincorpor ating
ĠTer ra
Wor ld
ĠV R
Ġmer ge
ĠPost greSQL
- %
ĠL ie
an j
Ġare n
all o
Ð¾Ð¶ Ð´
Ġanaly tical
_w idth
Ġdo v
Ġg ew
ĠSt at
R ed
b ur
r ank
Ġro z
Ø§Ø ¡
g ie
ĉ C
ĠI ll
Ġprevent ing
Ġscre ens
Ġpover ty
Ġa we
ĠPer formance
ĠìĦ ¤
im i
Ġgr ant
Ġacc um
Ġbi om
D AN
o ptions
Ġt ue
_ con
å®ĥä»¬ åı¯ä»¥
aix o
è ¾
par am
Ð¾Ð½ Ð°
Ġmerc y
Ġal k
Ġgo ver
In gredient
Ġconsist ing
iv ation
Ġ| ĊĊ
Ġpers ist
Ġtensor flow
and ong
Ġco at
tic o
T S
Ġde ck
Ġp ivot
Ġdon ner
pack age
ĠÑĥÑģÐ» Ð¾Ð²
Ġup set
Ġmultif aceted
ul os
.p op
Ġdam aged
Ġvert ical
Ġalph abet
re act
Ġl ou
Ġn ave
un it
ĠS orry
. check
Ġ' /
Ġmotiv ations
est roy
Ġchat gpt
Ġrepl ies
abil idad
Ġskept ical
ul um
ĠCon duct
Ġattra verso
ĠV ector
Ġco ach
ĠÐ½Ð° ÑħÐ¾Ð´
ĠÐ¿Ð¾Ð´ ÑħÐ¾Ð´
st ers
Ġd alle
ĠAl right
Ġban ana
re w
ĠE C
Ġsign ed
a e
- form
. Ð´
Ġsu e
ĠP ress
u ir
art ial
Ġtrav ail
b orn
_t able
S ource
È Ļ
Ġappoint ment
Ġj untos
ĠÑģ Ð¸Ð¼
ĠÐ´Ð¾Ð»Ð¶ Ð½Ñĭ
Ġd apat
Ð¾Ð²Ñĭ Ñħ
Ġobserv ation
Sc ene
Ġcan cel
Ġur ge
t rain
ost ic
Ġland ing
u ar
ķ Į
Ġm eng
Ġpro xy
Ġstrong ly
Ġbr idge
Ġfeat uring
C ome
D ec
Ġsu its
ĠM inecraft
Ġunivers ities
ĠÐĿÐ°Ð¿ ÑĢÐ¸Ð¼ÐµÑĢ
Ġf oss
ĠS O
ĠL ibrary
Ġdist ances
urs day
Ð¾ÑĤ Ð°
ÏĢ Îµ
Or der
Ġw ise
ri ble
Ġmet a
ĠÐ¿ÑĢÐ¾Ð´Ñĥ ÐºÑĤ
ied er
Se cond
Ġcool ing
Ġincluy endo
Y ear
Ġsummar ization
_s core
Ġloop s
Ð½Ð¾ÑģÑĤÑĮ Ñİ
Ġlib re
ĠV ers
Ġadv oc
Ġbub ble
Ġanal ys
ÏĢ Î¿
ÑĥÐ»Ñı ÑĢ
) ),
D M
om atic
ant wort
ex as
Ġfil os
Ġ(' _
Ġha ce
ail able
ok ens
Ã¼ss en
F ood
Ġ ç
áº Ń
Ġglo b
Ġfon te
Ġnur se
á»Ļ t
Ġn ap
Ġdri ed
ta king
Start ing
ĠB ere
Ġres c
ãģ ©
| |
Ġ Å¼e
Ġad mit
ĠBe aut
ÑĥÑĢ Ñĭ
Ġs ib
-n itro
. Write
Ġíķľ êµŃ
Ġp itch
ĠU C
ĠÑĦÑĥÐ½ÐºÑĨ Ð¸Ð¸
Ï İ
Ġwor n
pec ial
Ġdiscipl ine
_ rect
-p yridine
ĠW ait
ãĢ į
Ġgar lic
ad ed
ĠÐ¼ Ð¸Ð½
Ġcorrel ation
P ort
Ġb id
Ð¾Ð» Ð¾Ð²
Ġcount s
Ġappro ved
à¹ ģ
ĠI oT
Ġdet erg
Ġgu ilt
Ġein ige
ÐĴ Ñĭ
åĵ ģ
ig m
ens itive
Ġref riger
ãĢ Į
Ġadminist ration
Ġsend o
Ġstrugg led
Ġevol ve
Ġcome Ã§ar
3 50
Ġmon et
Ġcont empor
comm un
ĠGener ative
ÅĽ Äĩ
ĠÐ¸Ð½ÑĤ ÐµÐ»Ð»ÐµÐºÑĤ
l ang
Ġtab la
Ġmultip ly
d ered
åħ ¥
Ġdivid ing
Ġpix el
âĸĪâĸĪ âĸĪâĸĪ
ĠApp lication
ĠGPU s
å ł
Ġy esterday
it ud
.s ub
ĠØ ®
Ġpast e
Ġparticip ating
u o
Ġprod uto
ĠpolÃŃ tica
Ġh Ã¶
ì Ī
ĠI r
ĠM aria
pon ents
Ã¡tic as
-su ited
B R
Ġh arsh
Ġmat r
sch aft
ĠTur key
ĠpolÃŃtic as
Ġst abil
ĠM ongo
éĢ ļ
ĠTele gram
ve ment
Ġch ips
Ġproduct os
Ġret urning
.l ayers
Ġherb icides
ĠB udd
min o
2 10
ĠG ra
M in
lo or
ĠÑĢ Ð°Ð²
ĠÐ¿Ð¾Ñģ Ð»Ðµ
Ġin her
ĠW atch
ĠDef in
Ġresol ved
-est ablished
Ġm ientras
om ial
ĠS oci
du ino
ĠL ord
Ġos c
ãģĦ ãģ¾ãģĻ
Ġej ac
Ġsubsequ ent
Ġput s
C ar
in ci
Ġst umbled
Ñĸ ÑĹ
Ġcollabor ate
o oc
s plit
Ġp se
Ġsy nc
Ġaccess ing
ĠÐºÐ¾Ð¼ Ð°Ð½Ð´
Ġfe wer
Ġë Ĳ
aur ant
Ġlaun ched
s creen
or no
are r
Ġwra pped
A CT
W elcome
ass ium
ĠÑĢÐµÐº Ð¾Ð¼
d ouble
Ġy o
Ġst ating
ad ian
ĠW H
i y
Ġm erg
ĠS n
Ġí ı
Ġdistin ctive
U B
Â° F
ĠQuant um
( {
Ġc er
Ġb reat
ak a
Ġrhyth m
Ġt ang
ĠÑģÐ» Ð¾Ð¶
ĠÐ´Ð¾Ð»Ð¶ ÐµÐ½
j ac
iz ioni
. lower
ĠV ari
Ġf ault
Ġclass room
Ġtim ely
Ġperfect ly
Ġsh ining
Ġinstall ing
Ġwin ner
is se
Ġre written
Ġpr at
Ġenf rent
Bo ok
Ġc inem
ĠS em
Ġdes em
æĹ ¥
ä¿ ¡
othe rapy
Ġg ap
Ġspe aks
Ġatt ending
LE S
Ġt el
Ġc ient
Ġint ers
Initial Position
Ġinform at
Ġhistor ique
Ġde ine
ak i
Ġhund red
Ġe ight
Ġadd iction
Ġpub lish
Ġe co
ĠÐ¿Ð¾Ðº Ð°Ð·
Ġsoc iais
IN S
ĠÐ¿ÑĢÐ°Ð² Ð¸Ð»ÑĮ
Ġaprendiz aje
Â ²
ĠT ogether
ra Ã§Ã£o
Ġìľ ł
/ or
Ġd ice
Ġres ident
Ġag ora
plic ated
Ġdies em
apital ize
ĠÐº Ð»Ð¸
Ġwire less
Ġt iver
et ing
Ġsp elling
Ġgr anted
P H
ĠSt ream
Ġrad i
g ua
Ġclaim ed
Ġdemonstr ated
ĠÐļÐ¾Ð½ ÐµÑĩÐ½Ð¾
Ġph osph
Ġbest imm
Ġcalcul ating
Ġsurf act
Ġconna issance
. assistant
Ġv ote
B ody
ĠD B
Ġoccur ring
ĠSc ient
å®ĥä»¬å®ĥä»¬ å®ĥä»¬å®ĥä»¬
Ġn orthern
Ġce ase
ĉ A
Ġprof es
ah a
Ġs ought
Ġm ul
Ġmix ing
Ġbackground s
Ġsubt le
re ne
Ġav ant
ìł Ħ
ĠQual ity
r ust
ig ue
Ġst ata
ĠrÃ©pond re
V I
Ġex h
ĠD C
ib ile
Ġse ctors
Ġexperiment al
Ġpalab ras
ĠChamp ions
Ġencount ered
Ġinter rupt
ĠÑģÐ¾ ÑĨÐ¸Ð°Ð»ÑĮ
writ er
Ġorgan isms
AT A
M T
Ġv u
Ġvo or
ĠMex ico
× ł
Ġs enza
ĠÐĶ Ð°
Ġê° ľ
ĠsÃ© cur
Ġ('_ ')
Ġm os
Ġarqu ivos
.T k
ĠÐºÐ¾Ð½ÑĤ ÑĢ
Ġautonom ous
Ġprodot to
st ore
Ġk a
ĠR ome
Ġown ed
________ ________
ĠvÃŃde o
Ġdemand ing
Ġcal ories
Ġmind s
Ġing l
Ġconfident ial
Ġcor ruption
ĠÃ¡ n
ĠM as
ĠÐ¼ Ð°ÑģÑģ
ÑĢÐ°Ð½ Ð¸Ñĩ
al o
Ð»Ñı ÑĤÑĮ
Ġant ioxid
ĠÐ¼Ð½ Ð¾Ð³
ê ¹
Ġw inter
(( ((
iam o
PO ST
DOCT YPE
Ġp ont
Ã¡ ct
Ġass embly
Ġvis ibility
d ough
en ess
ener y
Ġdeterm ines
che m
Ġemb ra
Ġmuse um
Ġcomp ren
ins i
ĠespecÃŃf icos
ÑĤ Ð¾ÑĤ
Ġê ´Ģ
Ġprem ise
Ġforn ire
Ġm uest
Ġv Ã¡rios
Ġhist Ã³
Ġdom ains
N um
ãģ Ľ
Ġbu gs
rop yl
ĠEst a
ac o
ĠB ase
Ent ity
ĠpaÃŃs es
Ġcoord inate
pons es
ak en
Ġinv alid
çļĦ åĲĹ
Ġir re
Ã¨ ne
Ġlog istics
Ġviol ation
Ġmeas uring
ï¿½ï¿½ï¿½ï¿½ ï¿½ï¿½ï¿½ï¿½
Ġc ript
th rough
Ġwor ship
Ġ} ,
') ;ĊĊ
Ġexhaust ed
Ġm io
Ġinter ior
Ġimag en
im mer
Ġav oir
Ġtight ly
Ġderiv atives
he iro
ur istic
Ġsou ha
- j
Ġd ow
Ġag enda
Ġexcess ive
ri ers
Ġim aging
Ġtoxic ity
ĠÐ¾ ÑģÑĤ
Ġpart ition
t ask
Ġop Ã§Ãµes
Ã¤h igkeit
Ġtherm al
Ġref use
ĠÐ¼Ð½ Ð¾Ð¶
Ġfib ers
Ġb ind
by e
. ]
m un
st ruct
ĠÃ© s
ĠRe volution
e ut
Ġcre ator
Ġra b
Ð°Ðº ÑĤÐ¾ÑĢ
Øª Ùħ
ĠSo il
ĠPok emon
/ L
ĠH elp
ĠN or
Ġprote ins
z ir
Ġgest ione
.pause Button
ç ®
us o
um en
ĠL abor
plic ity
ĠM S
Ġmod er
Ġleg is
Ġtempl ates
ĠS ummary
Ñı Ñī
Ġreg ret
ÑĪ Ðµ
ĠSp ra
Ġmultipl ication
in ery
Ġadapt ed
Ġsatisf ying
Ġcra zy
Ġdeton ate
ç ¨
par ation
F S
Ġus ual
ÅĤ a
Ġpuzz le
Ñı Ð²
c opy
Ġih rer
Ġbranc hes
er ic
Ġhy giene
Ġfascin ated
Ġarmaz en
ĠRE ST
Ġdal am
h ola
ĠS end
Ġse am
ĠQ uesto
P os
on i
Ġbu g
ĠAr gent
Ð½Ð¸Ðº Ð¾Ð²
Ġlawy er
é£ Ł
ç Ļ
Ð» Ð¸Ðº
-s pecific
Ġinj uring
Ġemerg ing
å¼ ı
Ġs li
Ġfe as
_ W
æ ¸
Ġsmart phones
] );Ċ
il ty
Ġsc ored
.p ush
ĠMus ic
lam a
E CT
Ġtr ick
ê° Ħ
Ġclick ed
Ġpregn ancy
Ð¸Ð½Ð¸Ð½Ð¸Ð½Ð¸Ð½ Ð¸Ð½Ð¸Ð½Ð¸Ð½Ð¸Ð½
g b
Ġres pe
Ġam ino
Ġ );Ċ
car boxylic
Ġhumor ous
Ġlab yrinth
ÃŃ da
Ġhesit ated
Ġansw ered
F unction
Ġh á»
Ð¸ÑĢÐ¾Ð²Ð°Ð½ Ð¸Ðµ
Ġalc uni
l ined
A ut
16 8
Ġsociet al
ìĦ¸ ìļĶ
C K
ol t
Ġund ress
H D
Ġevol ved
EV ALU
Ġsn acks
Ġspeed s
Ġsus pect
R T
mon th
' }Ċ
Ġdiff er
bs ite
Ġb orrow
Ġdri pping
B I
ĠM em
ĠB io
ob s
Ġnecess Ã¡rio
-B romo
^^^^ ^^^^
L es
ĠrÃ© ponse
ing e
Ġdon c
ĠAr ray
Ġcompt e
Ġrev is
unge on
Ġd ust
Ð¼ Ð¾
Ð°ÑĤ Ð¸Ð²
ĠÑĢ Ñĭ
Ġbelie ving
Ġload ing
- z
0 10
ĠY OU
ĠWord Press
ĠdÃ©vel opp
Ġs Ã»
Ð¾Ð» Ð½Ñı
Ġann i
Q ual
Ġconc ert
'ex iste
Ġs qrt
Ġoper ators
ë© °
Ġ`` ,
c out
} );Ċ
Ġt rib
Ġe igen
ĠD utch
.py plot
Ġacknow ledge
Ġtact ics
b age
Å ĳ
ĠÐ° Ð´
E mb
ĠT a
Ġro d
ĠBe ach
Ġrespond ed
Ġt es
en cias
Ð° Ðµ
if ically
ĠC ond
ĠD NS
Ġcomb ining
ä½ ĵ
' e
m us
Ġbe verage
ĠJ o
ugg ed
Ġnuest ra
Ġv ow
ĠU r
Ġer re
Ġtim er
ĠIs land
Ġsal ad
ox yp
Ġbox es
ÑĢÑĭ ÑĤ
Ġdura bility
ir s
Ġaplic aciones
_ M
nd en
ĠV i
ĠDist rict
Ġhung er
V G
.c apitalize
Ġelement o
ĠÐ¾ÑģÐ½Ð¾Ð² Ðµ
Ġtem pt
ĠPer form
Ġstret ching
ĠÐ¾Ð±Ð»Ð°ÑģÑĤ Ð¸
Ġest ruct
Ġs oup
Ġmant en
( event
ci um
Ġsub set
Ġfem me
Ġalign ed
Ġref und
Ġlearn s
mod ule
Ġcustom ization
Cl ose
Ġcup s
Ġde ix
pt ic
ÑĪ ÐµÐ½Ð¸Ñı
Ġv Ã¡rias
ĠF ull
let ter
() ;
Ġguid ed
ĠF il
ĠJ ohn
Ġgu ests
Ġmindful ness
âķ Ĳ
am ily
ĠS at
Ġprote ger
ĠÐ²ÑĢÐµÐ¼ ÐµÐ½Ð¸
Ġbust ling
B el
b et
ÑģÑĤ Ð°
Ġpr zy
Ġcalcul ator
ac i
Ġì ĸ
Ġmost rar
åŃ Ĺ
Pr ice
Smart GPT
- edge
ill ance
Ġsl ender
Ġuncle ar
Ġsimultane ously
ìķ Ī
Ġneur ons
Ġfollow ers
ĠSt able
UMB AI
( model
Ġloc ally
Ġminim izing
ounc il
op ol
Ġrobot ic
ij ing
Ġgrav it
ÑĨ Ð°
Ġinte res
column s
Ġind eed
Ġfol g
Ġban king
ĠP ur
Ñĥ Ð·
Ã© ment
Ġmake up
Ġbatter ies
ple ments
Ġtra il
Ġdev iation
Ġinter vention
Ġatt or
ĠÐ· Ð°Ð½
ĠÐ³ Ð¾ÑĤÐ¾Ð²
Ġconten ido
Ġfis cal
- image
ab ilitÃł
ĠC amp
ell t
ÐµÑĢ Ð°
Ġpop ul
F ind
Ġlist ener
Ġmeet ings
US D
Ġam mon
Ġi k
j ekt
n ext
ĠëĮĢ íķľ
ĠT ik
Ġal gebra
ãĤ ³
Ġê° Ļ
ĠÐŁÑĢ Ð¸Ð²ÐµÑĤ
ĠStand ard
ĠÐºÐ¾Ð»Ð¸ÑĩÐµ ÑģÑĤÐ²Ð¾
F C
Ġcomp elling
reng th
li ament
Ġmargin al
à¸ģ à¸²à¸£
Update Interval
Ġtest ic
ĠÐ¿Ð¾Ð»ÑĮÐ·Ð¾Ð²Ð°ÑĤ ÐµÐ»Ñı
Ġ ],Ċ
Ġp ent
Ð¾ ÑĦ
Ġpar am
Ġgra y
Ġwar rior
Ġest ava
P RO
Ġw edding
Ġab dom
> (
Ġflow s
"" "Ċ
ĠRes ult
ĠAustral ian
Ġb ist
Ġcapt ures
Ġbras ile
. query
Ġt ale
ĠN ach
cre va
36 5
Ġwound ing
e an
Ġse c
Ġint Ã©
ĠÑįÑĤ Ð¾Ð¹
Ġest rutura
Ġob ten
H igh
Ġs ir
Ġre new
Ġwor st
ym ph
Ã©m on
Ġrecip es
Ġlin ha
Ġinfin ite
( C
ĠÃ ®
ĠLLa MA
un que
Ġcan n
ĠM UMBAI
Ġcl icking
Ġrelax ing
ell er
ĠF C
gn ore
Ġfunc ional
Ġw ore
Ġ" -
Ġ` $
á» ±
ett i
Ġprior ities
sub ject
# define
_ v
Ġapp lies
Ġra ises
Ġsurf aces
Ġal to
ĠG ather
ĠÑĤ Ð²
ar ak
ĠÑĥ Ð·
ĠChat bot
Ġintu itive
Ġ` '
Ġconfig ur
g li
Ġtyp ing
Ġalg u
80 8
ï¿½ N
Ġpl ut
ĠÐ¾ ÑĨÐµÐ½
rand o
-v ous
R ew
Ġsim ul
re place
Ġc out
Ġl ick
ra cle
ĠAc adem
Ð± Ð¾Ð»ÑĮÑĪ
Ġprodot ti
Ġguarante e
è ĭ
Ġn ada
ĠS up
Ġhous es
Ġfl ir
at Ã³
ad en
ĠM id
Ġfr ames
Ġpop ulations
_f unction
ĠMet a
Chat GPT
.quit Button
Ġm og
Ġover l
il ine
Ġrel aciÃ³n
(s afe
Ġvit amin
f un
Ġser ia
az in
Ġbreak down
C u
us r
10 3
F l
iz ados
L ayout
m itt
Th rough
ĠÑĢÐ°Ð·Ð»Ð¸Ñĩ Ð½ÑĭÐµ
.main loop
ĠV ert
we i
Ġplay dough
Ð¸Ñģ Ð¾Ðº
ê³ Ħ
-h and
Ġlist e
Ġabsol utely
Ġequ ity
Ġho je
Ġhead ers
anche ster
Ġappropri ately
et en
ru nd
23 4
Ġhumili ation
Ġitiner ary
i ett
ĠÐº ÑĤÐ¾
Ġcere mon
ck er
fil ename
ist ing
Ġmin utos
Ð¸Ð¼ ÐµÐ½
Ġutilis Ã©
Ġdeploy ing
ĠCommun ication
ĠÐ¡ Ð¾Ð·Ð´
Ġaw k
-play ing
ĠD epend
Ġwas hing
Ã©t Ã©
a uc
ly mp
ru g
az ole
tr l
Ġreflect ed
Ġêµ ¬
l ab
ĠA ff
ĠF ac
ĠT es
are n
Ġpreoc up
ich te
Ġdispon ibles
ä¾ Ľ
/ w
ĠB I
s g
Ġt urb
Ġprogram aÃ§Ã£o
Ġautonom y
Ġfor ums
rom ag
Ġresil ience
ad amente
NN NN
M et
è µ
ĠHum idity
Ġethnic ity
ass en
ĠDe ploy
D uring
Ġg ute
Ġef ici
Ġmetab ol
Ġd ancing
Ġf Ã³
Ð¸ Ñī
Ġpsych ology
Ġcerc a
Ġshould n
Ã¤ re
ĠÐł Ð°Ð·
Ġtour nament
è§ £
5 12
Ġsc ar
Ġes cri
Ġhor as
R el
in f
or us
Ġan xious
Ġu h
ĠÐ½ Ð¸Ñħ
Ġstret ch
Load er
= Ċ
d et
j ango
Ġprof its
Ð¸ÑĩÐµÑģÐº Ð¾Ð¹
pu Ã©s
Ġlit ers
O kay
Ġ .ĊĊ
ne utral
Ġlar g
ĠComm ission
Ġfe ver
Ñĸ Ð·
Ġsort ing
Ġprecis o
ĠAg ency
Ġpurch asing
lic her
att ention
Ġheadquart ers
@ @
ĠG ard
Ġpre jud
** Ċ
Ġconfir med
(N odding
Ġche er
Ġ[ [
( S
M enu
Ġcri aÃ§Ã£o
aj es
Ġë° ı
Ġeleg ant
ars i
ĠProv ince
z as
as hes
ick et
ãĥ Ń
-d ich
Ġcivil ization
ãģķ ãģĦ
t elling
Ġm uss
Ġdo ve
Ð² Ð¸Ð½
Ġinf ra
Ġ× ĳ×
w ing
it arian
Ð½ Ð¾Ð¼Ñĥ
Ġal arm
à¹ Ħ
ĠFra u
ĠS che
Ġout er
Ġref used
Ġ$ \
ĠPl ant
Ġdefin itive
ir th
ĠC am
iz io
Ġbet ray
(" <
Ġmon it
j ava
Ġh unt
ĠSt rong
ier a
Ġmess aging
< ol
Ġm á»Ļt
Ġf en
an el
ĠC ivil
rit ing
Ġìĥ ģ
. Text
d river
f unc
t ons
Ġdes erve
Ġprodu cer
Ġmean ings
Ġ( !
ĠSt ock
Ġpres erv
ect s
Ġfl avors
ĠÂ £
Ġpet ite
ic ans
Ġdi am
Ðļ Ð°Ðº
E d
f alse
Ġfor am
ĠÑĩ ÑĥÐ²
ÏĦ Î±
Ġexcl usive
ĠEnvironment al
z ung
om in
ul in
ä¸ ī
Ġqu indi
Ġlib ro
ëŀ ĺ
pl o
io res
ĠCol umn
Ġneces itas
Ġm ente
ÐµÑģ ÑĥÑĢÑģ
78 9
ĠP rivate
b ag
us al
Ġlong est
Ġì ¢
bl ue
ĠÑĢÐ°Ñģ ÑģÐºÐ°Ð·
Ġt ap
Ġt Ãªm
Ġup coming
To ol
ĠÐ¾Ð± ÑĢÐ°Ð±Ð¾ÑĤ
Ġsort s
lie ÃŁ
` )
s a
Ñģ Ñĭ
ab lish
................ ................
Ð±Ð¾Ð»ÑĮÑĪ Ð±Ð¾Ð»ÑĮÑĪ
G ET
Ġsc atter
lect ric
Ġcrypt o
. ",
ÑĤ Ð²
ang an
Ġlast ing
l ings
Ġaplic ativo
åĨ ħ
è ī
ate urs
Ġin hab
Ġn ivel
ĠÐ´ Ðµ
Ġfilt ered
U V
Ï Ĩ
ģ ¬
Ġim plements
ber o
pro ject
Ġge ometry
Le vel
Ġrecip ient
Sty le
is ce
iv amente
ĠTh ink
Ġembed dings
Ġeste ja
Ġcorre ction
ĠÐºÐ¾Ð¼Ð¿ Ð°Ð½Ð¸Ð¸
ç¤ º
I X
ç º
é ħ
at al
Ġwe iter
Ġconf i
Ġexperi encia
ÐµÐ» Ð¸Ñĩ
Ġten ha
ĠLinked In
. php
Ġsh it
LE D
Ġanaly zed
Ġpig ment
Ġhydrochlor ic
Ġqu art
Ġele tt
ira ble
ÃŃcul o
Ġi OS
be i
bre vi
F R
Ġp H
Ġdis m
ĠÑģ Ð¸ÑĤÑĥ
Ġbi ology
ĠEngine er
_ num
ill ation
Ġgu ilty
n pm
Ġj ack
ĠÐ¾Ñģ Ð¾Ð±
Ġjur is
ld er
Ġsuggest ing
ĠInt eger
et ics
Ġtr an
Ġharm less
ograf ia
Ġrecher che
ure zza
iss en
Ġsever ity
âķĲ âķĲ
[ self
ĠT exas
ÃŃ cios
Ġmain ly
--- Ċ
. open
Ð¾Ð² Ð¾Ð¹
par ameters
Ð ¤
ĠB ox
ĠL O
ĠInd ex
Ġwonder ing
ĠÑģÐ¸ÑģÑĤÐµÐ¼ Ñĭ
å ŀ
Ġyou th
ĠQu ery
ĠC lean
Ġshort s
Ġ ip
Ġat rav
ÐµÑĢ Ð²
Ġref rain
ë ¹Ħ
in as
ĠM Ã¶glichkeit
Ġdist ress
Ġstream s
Ġcorre ta
Ġsu cesso
Ġtrov are
O per
Ġam Ã©li
Ġrespons ibly
Ġenv ol
ÐµÐ³ Ð´Ð°
ĠPart icip
Ġevent os
Ġv isto
ĠÐºÐ¾Ð½ ÑĦ
asy nc
G e
Ġc ough
Ġqual ifications
Ġf ato
ĠP od
Ġche ek
Ġacc used
Ġvol ta
p op
Ġ ,Ċ
Ġat e
Ġform ulation
aj or
Ð½Ð¸Ðº Ð¸
Ġremo val
Ġsyn chron
Ġdi oxide
Ġag reg
! =
( se
ur i
18 6
ĠÐµ ÑīÐµ
\_\_\_\_\_\_\_\_ \_\_\_\_\_\_\_\_
he res
ĠA ctive
Ġg igg
ĠÐ³ Ð¾Ð´Ð°
-cons uming
pie ce
h an
è Ĥ
Ġpro hib
Ġkn ee
ÐµÑĤ Ñĭ
ĠÐ´ ÐµÐ²
Ġthr ill
ol Ã©
Ġepo ch
Ïĥ Î·
ĠÎ½ Î±
ĉ V
Ġequil ib
Ġar te
Ġhel pless
Ġn il
ot ed
à¤ ®
e res
Ġte or
ĠSw ed
Ġprov ince
ĠÐºÑĢ Ð°Ñģ
Ġl Ã©g
ur re
ĠÐ¼ Ð½Ð¾Ð³Ð¾
ĠNum Py
Ġin ject
omet imes
H ope
Ġprogram as
.pause Game
æ± Ĥ
( &
( {'
P art
P rompt
ç ¯
Ġ" __
ĠÐ² Ð¾Ñģ
Ġcu id
volution al
Ġdecre ased
Ġdetermin ar
M on
Ġo xide
Ġsim plicity
Ġgest iÃ³n
- class
. insert
Ġtou ches
iz adas
ard o
Ġdis cret
Ġb anco
Ġc ater
Ġcl ase
Ġlik ed
ĠPol y
.con nect
ĠB a
Ġor bit
Ġgener ic
Ġhor a
/ *
Ġb ars
ĠM it
ĠAr beit
S M
re p
ĠC ouncil
ast ing
ĠJ up
-f luoro
ä½ł æĺ¯
Ġcollect ing
ĠProcess ing
Ġst a
ant er
Ġad ject
Ġquel ques
ĠJiang su
- app
it ical
ver ing
ĠÐ³ ÑĢÑĥÐ¿Ð¿
Ġencoura ged
ĠÑįÐº Ð¾Ð½Ð¾Ð¼
Ġalc une
Ġvis a
in ct
ĠM E
Ġro l
ï¼Į æĪĳ
ĠS nake
Ġar ithmetic
ĠApp ly
Ġalign s
Ġdram atic
j Äħ
at ta
Ġnew ly
cy cl
RO UP
Ġaccel eration
. net
n ÃŃ
Ġcont rat
Ġcons pira
Ġbl ess
Ġsent enced
ÑģÐº Ð¸Ñħ
ĠÐ¿ÐµÑĢ ÐµÐ²
Ġs v
Ġl ors
Ġv eter
ire ctions
Ġrespon ds
ĠAl though
Â ·
Ġroll ing
ĠE L
Ġcl it
Ġharm ony
ias m
. util
í Ķ
acc ount
Ġa ster
Ġc idade
ĠM ult
oc s
Ġpass words
ĠgÃ©nÃ© ral
V ar
ĠSun shine
/ lib
or ce
ĠÐ¿Ð¾ Ð¸ÑģÐº
ĠAng eles
h alt
Ñĩ Ð¸Ðº
Ġnegot i
b ind
Ġher s
St atus
Ġpron ouns
he ro
Ġf av
Ġpro st
ĠÃ Ĺ
ĠÑĤ Ð¾Ð²Ð°ÑĢ
ĠÐĿ Ð°
( image
Ġres idents
Ġsp a
12 7
Ġsuc c
Ġnote book
Ġfas c
ĠM anchester
ib e
Ġspace craft
Ġgather ing
} :
qu ence
ĠB rand
ÐµÐ½ Ð½ÑĭÐ¹
Ġterr ifying
n ia
Ñĭ ÑĪ
Ġprot ot
Ġconfirm ation
Ġscal ability
" },
ì ¦
ĠC AN
Ñı Ñħ
Ġresearc her
ĠÐ³Ð¾Ð´ Ñĥ
ĠmÃ¶ch te
Ġcompet e
Ġfra ction
ĠPac ific
j is
as tern
cl osed
ĠR ock
Ð¸ÑĨ Ñĭ
ĠBo ard
åī į
Ġalm ac
ĠP op
Ġra g
_l og
m ot
Ġm amm
ĠAl low
Ġoptim izer
Pr int
Ð¸Ð·Ð½ ÐµÑģ
_ RE
Ġv oy
ĠK ong
Ġh il
ĠA T
Ġsu ited
Ġsl ang
Ġespec ific
Hand ler
e z
ina Ã§Ã£o
Ġma i
Ġflu ctu
Ġch ied
ĠR ight
vis or
Ġcar cin
Ġcens orship
place ment
Ġnear ly
Ġho ok
Ġintention ally
ĠM emory
ĠÑĥ Ð½Ð¸Ðº
ĠÑģÑĤ Ð¾ÑĢÐ¾Ð½
ĠS ummarize
Ġstraight forward
ëĭ Ī
Ġ ÃŃ
Ġcaus a
áº §
ĠÐ¿ÐµÑĢ Ñģ
( h
Ġperman ent
[ NAME
ĠS eries
Ġexecut ive
Ġverwend en
_ IN
Ġhe ter
Ġar bit
ĠÐ¿ ÑĤ
ĠSe cret
Ġdram a
Ġnitro gen
S entence
_ {
Ġm ismo
Ġmem br
Ġnames pace
ÄĻ d
ban ana
Ġcompart il
ĠÐ¸ Ð´
Ġfal ta
ĠSm all
re q
Ġre nov
av ed
Ġrelevant es
Ġneces idades
Ġdash board
b ul
il en
Ġroot s
gen es
aa S
Ġdif ÃŃc
ĠAut hor
æ ģ
ĠÐ¼ ÐµÐ´
ĠCh urch
Ġexpect ing
ĠUk rain
c ie
f w
s ed
Ġapp end
Ġconsider ate
Ġneg Ã³
æľīä»Ģä¹Ī æĪĳ
ì Ĥ°
ow e
Ġwork load
Ġwood s
Ġdisp iace
Ġm Ãªme
ĠP resent
ber g
ÐµÐ» Ð°
Ġrest ore
Ġestablish ment
Ġtabel a
ĠT ag
Ġcl ip
Ġhol low
Ġfast est
Ġlegit imate
B B
Q A
i ac
ER S
Int roduction
ĠHy dro
ĠArab ic
plet ion
E qu
Ġcomp ile
Ġsm oking
Ġpost er
Ġrab bit
Ġn ic
Ġhe m
ĠD ES
ĠForm at
Ġgru pos
ĠEnter prise
ĠL atin
comp an
Ġh its
Ġca ption
Ġbase ball
Ġhom em
Ġstim ulate
ĠÐ½Ð°Ð· Ð²
ĠC V
Ġsyst Ã¨me
Ġc age
Ġactiv ate
ĠTh ought
yn chron
ĠÐ½Ð°Ð¿ ÑĢÐ¸Ð¼ÐµÑĢ
Ġconver ting
Ġefic az
- ,
er ving
Ġz ijn
Ġapolog ies
Ġcomprehens ion
Be fore
t res
Ġbrief ly
Ġìĥ Ŀ
- get
t x
u ul
Ġh iding
ĠK n
Ġde ce
Ġcast ing
( len
Ġut ter
Ġqual itÃ©
f ish
ach ine
ĠÐ² Ð°ÑĢÐ¸
Ġmed idas
ëĲ ľ
O s
ç ³
ad i
rop a
Ġredu ces
ĠAg ain
Ġstim ul
k k
ļ Į
ĠT rad
Ġind ica
ĠÐ¸ÑģÐ¿Ð¾Ð»ÑĮÐ·Ñĥ Ñı
.update GameState
eto oth
ĉ P
ĠÐ ¦
ĠT ower
ĠH ugging
Ġpass ions
ÙĪ Ø¯
_s et
V is
é Ľ
Ġby pass
ĠSt op
ĠS amsung
ĠG ET
ier te
ãĤĪ ãģĨ
c ient
ĠC ir
ĠCO MM
Ïģ Î±
heart ed
Ġh j
Ġkn ife
Ġgod s
Ġpap el
Ġfet ish
H y
ou ds
Ġor den
Ã¡ m
ëĭ ¨
ID INE
Ġcirc u
Ġtick ets
Ġembed ded
in os
Ġle verage
Ġphot ography
ĠÃ¡ gua
Ġelectr ons
Ġcop yright
ĠÐ½Ð° ÑģÑĤ
Ã¶ s
17 5
Ġreprodu ctive
ĠÐ¸ÑģÐºÑĥÑģ ÑģÑĤÐ²ÐµÐ½
ĠS AP
ĠM essage
Ġhas ht
ĠCh apter
Ġdist ur
Ġemb ark
Ġlow est
Ġunivers al
Ġbe ans
c rit
ĠA BC
Ġsuper vised
Ġrend ering
Ġest iver
-s ide
ĠsÃ» r
ĠC elsius
Ġfin ite
Ġexecut able
N E
Ġest Ã©
Ġsp ots
ĠÑĤ Ðµ
Ġident ifier
Ġorig inally
Ġwealth y
Ġalph a
âĢĭ Ċ
Ġmoan ing
Ġconst ante
Ġë¶ Ħ
Ġv ista
ĠC UDA
Ġsm irk
Ġaf et
ÑĮÑİ ÑĤÐµÑĢ
_ var
Ġd it
et to
ãģķ ãĤĮ
] ]
it are
am t
Ġfl irt
ĠÐ¾Ð±ÑĥÑĩ ÐµÐ½Ð¸Ñı
Pat ient
m ask
Ð² ÐµÑĩ
ord in
Ð½Ð¾ÑģÑĤ ÐµÐ¹
Ġthro bbing
ĠMongo DB
ĠC apt
Ġsu ite
ÃŃ cio
ĠSynt hesis
Ġherramient as
Ġgenu ine
Ġm Ã¼ssen
Ġn ell
ig ung
Ġdiff ic
Ġload s
ĠÑģÐ²Ð¾ ÐµÐ¹
Ġfont es
/ b
L LM
ĠC ategory
ĠÐ¼Ð¾Ð´ ÐµÐ»Ð¸
ifluor omethyl
Ġme in
ĠW ednesday
Ġco let
Ġseg undo
ä»¥ ä¸ĭ
ĠìĦ ľ
ĠT al
ĠS unday
ĠL ocation
Ġassistant s
rel ated
ÐŁÑĢ Ð¸Ð²ÐµÑĤ
Ġacknow led
Ġl Ã¤
Ġind ices
d atetime
Ġnot a
Ġres istant
ĠPro blem
ĠÐ¡ ÑĤ
ĠÐ·Ð°Ð²Ð¸Ñģ Ð¸Ð¼Ð¾ÑģÑĤÐ¸
è° ģ
ĠO lymp
Ġbra ckets
ĠP ut
ix el
Ġpers istent
ĠSt ory
âĢĿ Ċ
reib en
in n
24 0
Cont in
quire ments
Ġìĺ Ī
ĠÎº Î±Î¹
ĠEconom ic
Ġt ub
Ġan ge
out s
ĠUn it
Ġsic urezza
Ġgost aria
ĠdÃ©cou vert
A E
w est
Ġp it
ar beit
10 4
Ġimag ery
Ġfourn ir
. v
Y OUR
ĠM UST
Ġimport Ã¢ncia
Ùħ Ø§
Ġtecnolog ÃŃa
-gener ated
_ height
Ġrec ycl
Ġdead ly
ĠÐ·Ð°Ð´Ð°Ñĩ Ð¸
g on
Ġun predict
Comm and
ĠR isk
Ġbr ut
_ object
l m
Ġrespons ive
Select or
ĠArch itect
Ġc itt
Ġsent iments
11 5
ÑģÐ¿ Ð¾Ð»ÑĮÐ·
Cont rol
L AN
Å ¯
Ñĸ Ð»ÑĮ
Ð°ÑĤ Ñĭ
Ġsens ory
Ġp ets
Ġhe els
Ġunderstand able
Ġcomb ust
.ex e
Ġaccel er
z ahl
Ġpod eria
Ġarm or
Ġ" \
act ivity
ast a
rit ten
Ġge ht
. co
oc uments
ik es
ĠCons ult
Ġtower ing
ĠÐ¸Ð½ÑģÑĤÑĢÑĥ Ð¼ÐµÐ½ÑĤ
t u
âĢĿ .
ĠEr ror
Ġb ash
ie val
18 8
1 12
S PE
Ġsing ular
Ġfactor ial
-cons cious
ot lin
Ġfarm ers
ahr ung
L ength
IV E
writ ing
_ per
ĠType Script
Ġiter ates
- Z
ĉ if
Ġut ility
Ġd azu
ĠSe ek
Ġport s
Ġ ries
Ġbr ill
Ġimpress ed
Ġquad r
Ġd y
Ġsit o
rypt o
åĲ İ
Ġregist ered
Ġtoken izer
ĠÑģÐ»ÑĥÑĩ Ð°Ðµ
Ġqu ieres
Ġcr ash
AR D
Ġur l
æĺ İ
IC E
Ġgrat uit
Ġcompren s
Ġt Ã©r
Ġsched uling
Ġo Ã¹
ar am
Ġv erm
ne ys
ux uul
Ġgrow s
Ġaiut are
Ġcompress ed
ex plain
ĠOr ig
Ġsmart phone
] `
Ġr iding
Ġi od
Ġeth anol
ãģĹ ãģ¾ãģĻ
Ġsociet ies
ĠS ustain
cl oud
ap hor
Ġì ²
ĠÐ¼ Ð°ÑĢ
S al
Ġv ai
à¤ ¤
Ġport al
ÑĨ Ð¸Ñı
ĠViet nam
ĠÑĢ Ð¾Ð·
ĠTrans fer
Ġpick ed
Ġatom ic
ĠktÃ³ re
P al
ara uf
st ation
Ġro of
Ġfiltr ation
Ġatrav Ã©s
h ops
Ġsing ing
Ġoptim izing
.keys ym
åŀ ĭ
ĠH ard
Ġel Ã©
Ġcomb in
ðŁ ¤
Ġmuch os
Ġsegu ida
ĠS core
Ġaud it
Ġinvolve ment
Ġh in
Ġdis aster
Ġexcl us
Ġpare ce
Ġfun z
Ġdem ocracy
'] ,Ċ
Ġinitial ize
Ġdrop s
yr am
Ġsuc king
Ġembed ding
éľĢ è¦ģ
Ġs osten
ĠC ult
ia Ã§Ã£o
ĠU lt
ĠCom put
ĠIndust ries
ĠAnaly tics
Ġëį °
o z
om ena
Ġdi ameter
Ġfurn iture
ĠÃ¡n imo
nd rome
Ġphys ique
Ġexplo it
st atus
Ġtent acle
Ġle v
ĠWhat s
ido res
Ġluck y
ĠÐ¸Ñģ ÑģÐ»ÐµÐ´
P ost
Ġl igne
Ġse jam
Ġle urs
Ġconc er
Ġeffic acy
Ġre ass
Ġmanip ulating
Ġtare as
Ġrit ual
Ð° ÑĶ
Ġchar ging
ĠPortug uese
åŁ º
Ġb ord
Ġhuman a
( name
Ġme als
_m od
Ġn am
om er
Ä± nd
ĠT ree
Ġcom edy
Ð» Ð°Ñģ
Ġind em
Ġval ore
.p df
Ġqual itÃł
ĠÐĺ Ð½
Read er
pp ers
Ġcont a
Ð°Ðº ÑĤÐµÑĢ
ĠSe ction
Ġsav oir
ì °
Ġk ont
Ġspread s
Ġexecut ing
.con figure
æī Ģ
ĠP u
ĠÑĢ ÐµÑģÑĥÑĢÑģ
ä¾ ĭ
Ġdestroy ed
Ġsulfur ic
" ],Ċ
ber ry
Ġreact ive
Ġpad r
ĠChrist mas
Ġru led
Ġresort s
ar on
st a
Ġprodu Ã§Ã£o
ost ream
Ġval ued
Ġexecut ar
p c
y ter
il ds
Ġex ert
Ġgl uc
Ġju ice
Ġhoriz ontal
` :Ċ
Ġav anz
ĠÐ²Ð» Ð¸Ñı
c ido
ast y
Ġë°© ë²ķ
' ),
Ġtal ks
ĠSh ould
Em ploy
Ð¾Ð¶Ð°Ð» ÑĥÐ¹
Ġfir ms
ĠH old
ĠL at
Ġenerg ÃŃa
Ġsn ap
çŃ ī
Ġcomprom ise
Ext ract
par ams
Ġcam eras
Ġ Å
Ġb áº¡n
Ġprime iro
Em ail
Ġcover ing
Form at
4 50
vers ation
Ġiss ued
ĠAM D
I B
ern o
Ġtem ple
rib ution
Ġrout er
oll en
ĠðŁĺ Ĭ
Ä ģ
Ŀ i
Ġl ambda
ĠBe ing
OR M
ĠAmer icans
ĠentraÃ® nÃ©
W idth
Ġcan al
Ġgest ion
Ġthread s
ĠÃºn ica
ri an
ÑĢ Ð°ÑĤÑĮ
Ġjust ify
Ġpur ple
Ġcomput ador
Ġequip o
Ġling erie
d rop
k te
ĠC ase
P e
Ġarg ues
Ġsupp lement
uper vised
b at
ľ âĶĢâĶĢ
ers hip
ĠO racle
Ð¸Ð± Ð»Ð¸
Ġmig ration
Ġp iano
st orm
ĠT own
Ġtra va
Ġclos est
vas cular
ÑįÑĤ Ð¾Ð¼Ñĥ
ĠsÃ©cur itÃ©
' ]ĊĊ
Ġd ys
ĠC amb
ĠÑıÐ·Ñĭ Ðº
E ss
Ġcr ist
( M
a que
__ ":Ċ
ĠCom mon
ĠâĢ ¢
Ġobser ve
Ġcomm ission
ĠTransform ers
Ġcounsel or
ess ages
ĠE V
Ð¾ÑĤ ÐµÐº
De veloper
Ġbomb ings
IG N
Ġvir al
Ġpesquis a
ĠÑĥÐ½Ð¸Ðº Ð°Ð»ÑĮ
Ġs ous
ĠW ert
ĠÐ´ Ð¸
_in fo
ë¶ Ħ
- o
B re
ure th
ĠG irl
Ġquest i
Ġprecis ar
Øª ÙĪ
Ġtravel s
Ġrent al
Ġan om
Ġlas er
D an
du le
ĠB lu
âĢ ²
Ġha cking
Ġdepend e
Ġestim ates
ĠL abel
Ġhy brid
Ġà¤ ®
cons cious
Ġìł Ģ
Ġdeb ug
Ð¸ÑĪ ÑĮ
Ġcomp ensation
Ġimpact o
Ð¸ÑĩÐµÑģÐº Ð¾Ð³Ð¾
ÏĦ Î·
UR L
v ille
Ð½ Ð¸Ðµ
Ð¸Ð» ÑģÑı
à¥ ģ
Ð½Ð¸Ðº Ð°
Pass age
Ġa zi
if iers
Ġvari os
ĠCont act
ĠModel s
ĠÐ£ ÐºÑĢÐ°
å ģ
Ġl inux
F in
Ġam igos
Ġg ang
ĠÑģ Ð¿ÑĢ
ĠSt orage
Ġrelacion ados
Ġ/ *
Ġair port
ĠCor p
T ake
ĠL ack
ĠV M
Ġdistrib ute
Ġsell er
Ġ{ }
ĠÐ± Ð¸Ð·Ð½ÐµÑģ
Ġcommunic ations
Ġ æĪĳ
Ġman ually
ĠÑĤ ÐµÑģÑĤ
** ĊĊ
ÅĤ o
Ġath let
_rect angle
C ON
Ġv ig
Ġout lines
Ð°Ðº Ñģ
Ġpat ent
ĠÐ¾ÑĤ Ð¿ÑĢÐ°Ð²
Î½ Î±
ĠSte am
ĠRain fall
ĠE SP
ĠÐ²Ñģ ÐµÐ³Ð´Ð°
Ġf ract
ĠK om
ê¹ Į
n osis
Ġg ly
Ġreact ing
. instruction
ĠM el
Ġresp ostas
Im agine
ĠA lex
Ġindic ator
Ġbab ies
Ġzw ischen
en ci
Ġen forcement
-p erson
Ġeager ly
Ġcamb ios
' IA
ed e
Ġcl ues
Ġend less
_m ap
Label s
ĠTra vel
ÏĢÎµ ÏĢÎµ
it z
ĠT uesday
ĠÑģÑĤ Ð°ÑĤÑĮ
âĪ Ĵ
Ġverschied enen
Ġadhes ives
f n
on ing
ĠÐº Ð²
ĠÐº ÑĥÐ»ÑĮÑĤ
ĠAd obe
Ġc elsius
Ġpun ctu
ĠAssoci ation
W T
Ġch ip
ĠB E
Ġad alah
Ġton ed
Ġphen omena
Ġguer ra
ĠiÃ§ in
.instruction Label
ĠÐ¿ÐµÑĢ ÐµÐ¼
ĠTik Tok
Ġd arauf
_ a
Ġw ins
ÑĤ Ð¸Ð¼
Ġur anium
ĠÑģÐ¾Ð·Ð´ Ð°ÑĤÑĮ
ĠPower Shell
-------------------------------- --------------------------------
c op
Ġein z
Ġo w
Ġhe aling
Ġpat ience
Ġadvent urer
uc hen
Ġcapt uring
/ .
s pe
im id
Ġpro se
Ġco res
Ġsocial es
ĠsÃ© rie
ĠÐ¸ÑģÐ¿Ð¾Ð»ÑĮÐ·Ð¾Ð²Ð°Ð½ Ð¸Ñı
ar ÃŃa
ĠH V
Ġreg ional
Ġfo is
ÑıÑĤ ÐµÐ»ÑĮ
Ġsle ek
Ġuse State
-p ack
Ġc udd
ac on
Ġstr anger
Ġch ron
ĠL STM
Ð°Ð» Ð¾Ð³
[ Ċ
ĠMin istry
ĠL u
Ġdest ac
ĠÐºÐ¾Ð½ ÑĨ
Ġr ural
Ġadm iration
ĠImp act
h uman
Ġc iv
os i
Ġsc roll
ĠÑĤ ÑĢÐ°Ð½
Ġperm ett
Ġsem i
ĠÙħ ÛĮ
Ġsociet Ãł
ĠwÃ¤h rend
Ġbel t
ĠNet works
Ġsimpl er
er i
Ġth y
end ers
ĠR andom
Ġbl ur
-C ore
ĠArgent ina
' acc
Ġk le
à¸ ·
Ġge ben
ĠÐºÐ¾Ð¼Ð¿ ÑĮÑİÑĤÐµÑĢ
Ġcosmet ic
Æ°á»£ c
U m
d k
i ÃŁ
ĠCh all
Ð°Ð¼ ÐµÑĤ
ĠmÃ¡ quina
ĠAG I
Ġa est
og rap
ry ing
Ġ[ ]
Ġpass ive
Ð¾Ð± ÑĢÐ°Ð·
W N
on ium
Ġim g
ĠD og
ĠN SF
ÐµÐ½ Ð¾
erc ise
_d ifficulty
Ġinterf erence
Ġinsert ed
Ġstick y
ĠL ocal
Ġwrit es
Ġprogress ion
Ġbes oin
re ason
Ġf ission
ĠÑģÐ²Ð¾ Ð¸Ñħ
ĠO cean
Ġrem arks
Ð°Ð» Ð¾
Ġpass es
ĠStud y
Ð¾Ð¶Ð°Ð»ÑĥÐ¹ ÑģÑĤÐ°
. _
Ġla p
ĠSt yle
Ġrepresent ations
vo ir
R Y
Ġcl usters
Ġfr anch
H O
Ġbo ots
Ġst aring
ĠApp ro
ĠÐ¶ ÐµÐ½
S L
-m onth
ĠÐĿ Ð¾
Ġdefin itions
inst ance
ãģŁ ãĤģ
ĠKnow ledge
Ġin du
Ġconver ts
rape ut
Ð ¨
rad ius
Ġrecurs ive
Ġreward ing
v ida
Ġthe ater
ĠH ung
ĠF lex
row th
ĠÐ¾Ð³ ÑĢÐ°Ð½Ð¸Ñĩ
ĠB an
ific aciÃ³n
Ġâĸ Į
cc iones
Ġdise Ã±
Ġindepend ently
ĠInc or
Ġl ately
Ġqu ais
Ġconf id
Ġopen ly
ĠSp ark
Ġregul ate
ĠBre ak
z n
z ial
Ġs way
ar lo
Ġens emble
izz o
, China
ri os
ag ger
ut ils
ĠN ever
Ġadv ised
ĠInter face
Ġrating s
Ġconsens us
l ers
Ġsil ence
Ġcatalyst s
ç Ł¥
ÑĢÑĥ ÐºÑĤ
sh ot
ĠBo ot
Ġre vel
od ium
ri j
Ġex tern
ĠÑĥ Ð³
ØŃ Ø¯
Ġearth qu
ĠNeg ative
Ġnot ation
Ġob ey
le m
à¸Ń à¸ĩ
Ġentr ance
Ġtestic les
Ġb ah
Ġdo it
Ġj ag
Ġnu anced
Acc ount
R S
ĠAl s
ĠCl ub
Ġter rain
Ġvaried ad
\ Ċ
c ers
ĠL uc
Ġswitch ing
Ġhorm ones
ĠUnter nehmen
U nder
it ives
Ġb one
Ġli ability
Ġmant er
ĠSoci ety
n ome
Ġbe ef
ĠÐ¿ ÑĥÑĤ
Ġlo ans
Ġcomprend re
ĠPok Ã©mon
Ġwith draw
Ã¡ t
Ġhad e
Ġdepart ments
Ġexh ilar
V ocÃª
Ñĥ Ð»Ð¸
Ġmoment um
å½¼å¥³ ãģ®
Ù ¾
pe re
ìĪ ł
' }
Ġd orm
Ġk i
Ġpart es
Ġtri als
ðŁĶ Ĵ
ĠDiff erent
f ather
Ġa fect
Ġsu f
pre nd
g as
ane ous
Ġkann st
Ġhay a
N ormal
ĠÐ´ Ð°
-b rom
Ġmar ca
ĠEnt ity
Ġterrit ory
" A
à¸ ¸
Ġseg uro
Ġsurve illance
Ġpil ot
Ġmascul inity
( *
F ollow
Ġsa u
Ġstory telling
Ġdesem pen
- k
p ciÃ³n
Ġm arch
Ġsigu ientes
Ġfragr ances
Ġprogram me
Ġrec uper
IT E
è¯ ´
Ġord inary
æıĲ ä¾Ľ
O ps
ari as
Ġcontinu a
Ġdow nt
ro ad
Ġpos es
Ġnut s
æł ¼
ĠCount y
f ood
Ġgr asp
Ġcirc ular
He ight
) [
g ung
Ġs ost
Ġthe sis
ip o
ãĥ ¬
Ġsupp lements
ĠÐ»ÑĥÑĩÑĪ Ðµ
B ar
Ù ĭ
Ġt il
Ġn oun
Ġmon de
Ġvolunte er
, \"
ĠÐ ¨
ĠC rie
ĠÐ· Ð°ÑĢ
-t ext
á» Ľ
forder ungen
Ġsa ud
ĠRe write
ĠAss ess
ĠON LY
Ġadequ ate
ĠÐ¿ÑĢ Ðµ
zz o
Ð¾Ð»Ð½ Ð¸ÑĤÐµÐ»ÑĮ
Ġf res
Ġtrans f
oid s
Ġcir cul
Ġones elf
ĠConf igure
ĠÙĬ ÙħÙĥÙĨ
AK ER
ĠV it
Ġrel ativity
Ġpe er
Ġgravit ational
. in
r ical
pr Ã¼
Ġconsult a
c ap
Ġcomple to
ĠÎ ³
ĠÑĨ Ð²ÐµÑĤ
Ġclim b
Ġs ow
Ġper ÃŃ
Ãª tre
Ġpot assium
Ġëĭ ¹
ĠF Ã¤higkeit
Ġra ggi
Ġsoc ks
ĠCan adian
Ġtour ist
ãģı ãģł
ĠÐ¼ Ð°ÑĪ
iss y
Ġrom ance
Ġpan els
æĿ ¡
ëħ Ħ
Ġweit ere
- x
Ġ Ã§
ĠM P
ĠÐ¼ ÐµÑĢ
Ġinc idents
Ġcolon osc
Ġvill agers
Ġaffect ing
m other
Ġj umps
Ġinform al
wort hy
re z
Ġal unos
op henyl
Ġatt itudes
ĠÑĥ ÑģÐ¿
Ġmis information
he at
am ination
ĠS ono
ĠChar acter
b ell
c ustomer
Ġd ose
lo od
ĠBe ijing
Ġpar ad
âĢĻ ve
pre m
Ex p
epend ent
$ $
Ġ erm
Ġsc enery
ãģ Ŀ
ãĤ °
Ġmar ine
Ġtut ti
S C
n ah
Ä± m
Ġcert ification
Ġrac ism
ĠìĨ Į
U RE
j as
Ġsumm aries
mo v
ĠRequest ing
Ġelabor ate
æį ®
ĠTes la
í Į
ch os
ÐµÑĢ ÑĮ
ĠBl ock
Ġencount ers
.Write Line
l Ã¤
ĠÑĥ Ð¶Ðµ
ĠAnaly ze
s nake
Ġenv iar
Ġvisual ize
ibil idad
ĠíĮ Į
re view
ic ations
Ġperson nes
Ġ} ;Ċ
Ġchat ting
Ġwal let
Ġcritic ism
Ġsurfact ants
ody nam
Ġcor n
ĠÐ¾Ð± ÑĢÐ°ÑĤ
ãģıãģł ãģķãģĦ
ãĤ ¿
') ,Ċ
ĠHy drometry
M D
Ø± ÙĬ
Ã´ i
Ð½ÐµÑĢ Ð³
Ġdiscret ion
al ph
ie g
Ġcontra dict
ĠBas ic
Ġalcan Ã§ar
Ú ¯
Ġh iring
oc ar
Ġsc ul
12 1
ĠSS D
? ",Ċ
j in
Ùħ ÙĦ
Ġte ar
Ġevent o
ĠTe ch
Ġmol ti
p rop
ĠC ross
Ġu int
Ġrem ark
Ġpes o
Ġpermit ir
? NAME
b idden
ĠImpro ved
FA ULT
Ġadicion ar
Ð¸Ð±Ð»Ð¸ Ð¾ÑĤÐµÐº
. I
l ambda
r us
ç ľ
ĠW elt
åı Ĥ
ĠÐ¸ÑģÑĤ Ð¾ÑĢ
ÑĢ Ð°Ñģ
Ġcar atter
cul os
Ġremain der
Ġenc oder
-c ent
Ġsee ks
ef ined
Ġvictim s
r b
ĠL MS
Ġcomp r
ĠSet t
Ġfilos of
_ output
ĠIN ST
ĠOver view
Ġd are
Ġpas os
Ġsubject ed
/ C
ound ing
ĠÐ·Ð½Ð°Ñĩ ÐµÐ½Ð¸Ðµ
ĠDiff usion
c am
Ġinv iting
Ġsing er
Ġf als
Ġn ouns
Ãª te
ĠmÃ© th
Ġfuck ed
ĠJew s
Ġab brevi
eg a
Ġquant ities
ĠSimilar ly
S nake
Ġa ce
Ġre cur
ĠP rior
Ġcl ave
ĠUkrain ian
d am
Ġspec ifying
Ġweb page
ĠrÃ© ponses
Ø¹ ÙĦ
Ġcompat ibility
U ND
Ġoper acional
ator io
Ġagre es
ĠÄĳ Æ°á»£c
Ġdispon ÃŃveis
Ġproport ion
W ER
i ostream
ĠP sych
ie le
Ġj s
Ġresult ed
Ġprosper ity
o e
Ġtr ouver
âĢ į
pet to
ĠProv iding
Ġto es
Ġcomp il
Ġstruct ural
Ġquant idade
Ġpu pp
. key
ĠO ffic
Ġinform aÃ§Ã£o
Ġsl ice
ĠEst oy
ĠÐ¼Ð°ÑĤ ÐµÑĢÐ¸
Ġsp ir
.s ave
Ġprof iss
Ġcent ro
Ġstri king
Ġot ten
Ġalign ment
d t
Ġ ion
Ġa insi
Ġre pr
Ġu pp
Ġres erved
rad os
Ġdesenvol ver
Ġsad ness
åĽŀ çŃĶ
Ġth á»ĥ
Ġbl ushing
Ġpersonal ities
Ġphot ograph
GB T
Ġb acter
ER V
ĠComp an
Ġrecurs ively
Ġhe al
be at
Ġmet aphor
ì² ´
ĠS P
bre w
Ġcr ÃŃ
lig a
el ry
Ġfest iv
ĠP ub
Ġequ ally
ĠTo ol
ĠÐ¸Ð· ÑĥÑĩ
ĠI ter
Ġdis cre
-c are
Ġview ers
Ġë° ľ
Ġrect angle
clos ure
_ values
Ġauthor ization
Ġaw esome
f erence
x is
con ventional
ĠRe peat
Ġconfig urar
Ġsel on
ĠÐ²Ð°ÑĢÐ¸ Ð°Ð½ÑĤ
S uddenly
z u
Ð» Ð°Ð³
ĠW ir
.s hape
bo ards
plic it
Ġsubst itution
Ġmed io
cc cc
åĲ ĥ
ĠM obile
Ġdifferent ly
ĠTh ursday
YY YY
Ġëı Ħ
Ġscul pt
/ g
H A
es h
ric os
Ġseg ments
.t ime
ĠCol lection
ĠB ien
eth anol
Ġsol ved
Ġaccess ories
ĠÐ¿Ð¾Ð»ÑĥÑĩ Ð¸ÑĤÑĮ
ĠÑįÐº ÑģÐ¿
ĠÑģÐµÑĤ Ð¸
Ġì¶ Ķ
th yl
à¸ Ĥ
ĠÑģÐ¸Ð¼ Ð²Ð¾Ð»
] ;
Ġexplos ive
Ġ" ""
ĠÐŁ Ð¾
ĠCommun ity
ashing ton
Ġb ite
Ġexp ose
Pass word
Ġn est
ĠS ci
ac cept
Ġadv ise
ĠÐ¸Ð· Ð¾Ð±ÑĢÐ°Ð¶
So ft
cover y
Ġjog os
Ðķ ÑģÐ»Ð¸
. plot
ĠE ine
-di hydro
Ġ ____
Ġh ij
ĠÐ² Ð¾ÑĤ
Ġsp o
L D
s rc
Ġph arm
uck et
fil ter
(b g
Ġy ields
ard e
Ġref res
Ġri val
Char acter
-up s
d as
n ung
Î ²
um as
ĠH u
ĠH ola
Ġinv ers
Ch ild
For ce
Ġhydro lysis
Ġparticip ation
ĠSol utions
Ins ert
Ġm old
ĠH P
Ġmod ular
D ATE
nt en
Ġtra ce
add y
Ġsqu ir
Ġwood en
ogen ic
ĠÑģÐµÑĢ Ð²ÐµÑĢ
ĠT reat
Ġcolle ctions
ĠExper iment
ÑįÑįÑįÑį ÑįÑįÑįÑį
. on
d ist
ĠS ex
Ð¼ Ð¸Ð½
hes es
Ġë ¹Ħ
Ġident ification
Ġar c
int o
ĠÐº Ð¾Ð´Ð°
Ð¸ÑĩÐµÑģÐº Ð¸Ð¹
Ġs ar
Ġcar ro
not e
Ġneighb ors
ĠÐ´Ð¾Ðº ÑĥÐ¼
Ġcient ÃŃf
- ter
æ ´
ĠB ene
ĠSt atus
rit o
à¦ °
Ġdes p
Ġutiliz ada
Ġgod dess
Ġdesper ate
' av
Ġal Ã©m
Ġbeach ten
/ S
Ġsc ri
Ġmethod ology
Ġtim ing
Ġmet od
Ġsupp ress
Ġauthor ized
Ġsocied ade
Ġle ak
Ð¼ Ñĭ
ÐµÐ¶ Ð´
Ġwat ers
ìľ Ħ
sm iling
ĠÑģÐ»Ð¾Ð² Ð°
O H
Ġla id
Ġsc ales
ree ze
Ġshort est
Ġlif etime
Ġdepth s
unge re
Ġwis hes
ĠMaterial s
est ination
Ġhand les
Ġdifficult ies
à¥ Ī
Ġâ ī
Ġopp osition
Ġprecis as
åĽ ł
Ġcluster ing
ar ches
ich Ã©
ĠÐ²Ñģ ÐµÑħ
é ©
Ġen er
In valid
ĠÎ ¸
ĠÐ¶ ÐµÐ»
Ġadministr ative
U ID
We ek
æĥ ħ
Ġc ous
Ġp sy
Ġne arest
á» ¯
ĠSh andong
Ġsimilar ities
Ġmant ener
ĠFam ily
D as
c all
Ġpass engers
Ġop ciones
mo ving
åĮ ĸ
Ġsandw ich
Ġfeather s
ĠT en
ĠÐ² Ð½Ð¸Ð¼
Ġgl itter
AI L
ĠfÃ³ rm
Ġtra veled
Ġestab ele
ãĥķ ãĤ
Ġint ake
Ġgen es
aps ed
ë¯ ¸
Ġhas t
Ġproblem i
Ġimag in
ony ms
Ġmagn itude
Ret urn
G O
Ġrel ate
ĠF all
Ã¼n st
f re
Ġle is
cl ar
Ġno vo
Com o
Ġvie wer
å ĭ
Ġs ail
en ario
Ġf ails
ĠC lear
ac cess
ib ir
Ġcl ouds
.p re
en Ã§a
ili pp
ĠÐºÐ¾Ð¼ Ð°Ð½
ĠÐ¼Ð¾Ð´ ÐµÐ»ÑĮ
there um
Ġreluct antly
T wo
i h
Ġi o
Ġmus h
v b
Ġger ar
Ġab und
Ġconnect s
Ġregist ration
ynt hesis
Rew rite
. new
ĠG T
Ġass ass
cul pe
jour d
H ome
S ummarize
æ ³
Ġin ici
Ġhapp ily
Ġvacc ine
Ġ" #
Ġenc oded
ĠImpro ve
_ user
Ġun ion
Ġob vious
ĠCon clusion
Ġdeb en
- out
Ġm Ã£
Ġas ide
Ġat ividades
Ġform ul
Ġoff set
Ġmach inery
Ġdri ves
" name
ĠE v
ens Ã£o
Ð°Ð» Ð¸ÑģÑĤ
Ġmens agem
Ïī Î½
Ġdeath s
å° ĳ
Î¼ Î±
Ġveget able
ĠÑĤÐµÐºÑģÑĤ Ð°
ĠHay market
ĠHV AC
½ Ķ
Ġarch ivos
Ġcoll ision
ë¡ Ŀ
Ġemo jis
C all
Ġs its
Ġp yridine
ĠB us
Øª Ø±
Ġdecl ared
ĠdifÃŃc il
ad t
ific aÃ§Ã£o
ful ness
ĠSh adow
ĠDevelop ing
Ġelim in
Ġoppon ents
F urthermore
à¸ Ī
< p
w hen
vel y
Ġes igen
Ġins er
Ġpass os
ÐµÐ¹ Ñģ
ĠÑģÐ¿ Ð¸ÑģÐ¾Ðº
ĠÃľ ber
Ã¤d chen
N a
Ġbet a
Ġart istic
ĠAl ternatively
Ġcoord ination
Ġaccident ally
Ġto oth
ent ation
ol en
met a
ĠëĤ ĺ
à¸µ à¹Ī
Ġconspira cy
: '
E num
H is
ĠÑĥ Ð¿
arr ant
xim a
_f iles
ĠIntegr ation
V er
ic ism
ĠC ast
Ġall ocated
Ġimp r
aut o
ÂłÂł ÂłÂł
T oday
Ġp oco
an alysis
ra c
Ġwh om
Ġfl ames
Ġrepl acing
Ġfrust rated
ĠÑĥÑģÐ» ÑĥÐ³
if iques
se x
Reg arding
t n
Ġan k
ĠH om
s al
Ġfe cha
Ġpar l
Ġsal v
Ġmac hen
ot ica
Ġan ten
ant h
ĠG al
Ġass im
Ġra pe
Ġcal col
Ġvacc ines
( interval
Ġt ensions
cri re
Ġbeh alf
ĠFin ance
åº ¦
Ġent ries
ĠAd m
-p yrimidine
Ġadopt ed
J S
Â º
st Ã¼t
Ġpre y
Ġfu els
Ġrecycl ing
Ġmod ification
Ġgain s
åĬ ¨
Ġpron unci
ĠÐ½Ð°Ñĩ Ð¸Ð½
Ġê³ ł
B P
Ġst are
ÑĢ Ð¸ÑĤ
ĠH D
Ġch urch
Ġk l
Ġspell s
ĠÐ¿ÑĢÐ¾ÑģÑĤ Ð¾
Ġesigen ze
m ico
Ġv amos
Ġex pense
Ġcr ush
b urg
Ġw oke
Ġb anc
Ġout fits
Ġcont amin
Ġ` [
olog ÃŃa
ĠÑĦ Ð¸Ð·
Ġemp at
Ġpurch ased
Ġpurs uit
Ġf att
ĠT urn
ĠT ian
ĠC op
ĠC ela
eth ylp
13 5
Ġconsider ado
AD E
AAAAAAAA AAAAAAAA
ib ili
Ġentreprene urs
Ġalmac en
F ound
Ġat rib
Ã´ t
Ġmate m
" {
} );ĊĊ
ens ored
Ġmin i
ÙĪÙħ ÙĪÙħ
cri bed
Ġcor rupt
M R
ip ient
Ġent end
Cl aro
Ã©l Ã©
Ġcryptocur rencies
b oy
Ġin ex
Ġth us
pl ant
Ġdifferent ial
ãĥ Ĩ
ÑĢÐ°Ð² Ð½
æĦ ı
L ast
ĠÑĤ ÐµÐ¿
ÃŃst ica
M C
oc ado
de c
Ġins pect
Ġcomplex ities
Ġimag ined
ĠÐ²ÑĭÐ¿ Ð¾Ð»Ð½Ñı
z ia
Ġkn ock
Ðº Ð¸Ð¹
SI ZE
ĠÐ²ÑĭÐ± Ð¾ÑĢ
Ġsem icon
ĠEst ablish
ä¸Ģ æĹł
Ġsel bst
Re place
al so
ĠI F
Ġcompan ion
_id s
Ġfire wall
åħ ³
Ġintim id
le ctions
Ġv as
Ġver ste
med ia
Ø¯ Ùħ
Ġland marks
_ pos
× ¤
Ġtra cks
ĠrÃ©s ult
Ġsusp icious
Ġon ion
Ġk ick
Ġinst ability
Ġdisc ut
Ġë§ Į
Ġgeral mente
Ġmisunder stand
ĠÐ±ÐµÐ·Ð¾Ð¿Ð°Ñģ Ð½Ð¾ÑģÑĤÐ¸
f alls
B oth
Ġdeploy ed
- me
R em
` ĊĊ
ol ved
Ġex emplos
ex cluding
Ġcontrol ar
-t u
-def ined
ge ben
ÑĢ Ð¸
ĠW all
Ġdes cent
ass er
Ġdecid ing
O B
T op
Ġfl ame
im ation
ĠM ary
ĠK e
Ġsk ip
Ġâ ĨĴ
t w
Ġd ungeon
Ġkind s
Ġdress ing
Ġexperiment ing
ÅŁ t
Ã¬ nh
Ġillust ration
ĠÐ¾Ð· Ð½Ð°Ñĩ
Ġc ord
ĠN ative
ĠÐ± Ð¸Ð±Ð»Ð¸Ð¾ÑĤÐµÐº
ĠI Q
ĠIm agine
-eff icient
Ġv ive
Ġdepend endo
eg en
Ġt ing
im b
Ġdis put
Ø§ Ùģ
Ġvers Ã£o
ä¸ĢæĹł ä¸ĢæĹł
V icuna
ĠÃ© v
ĠÑĥ ÑģÑĤ
Ġconserv ation
INS ERT
ou st
Ġprogram mer
Ġintrodu cing
Ġhost ile
ĠTrans late
ĠCO UNT
Ġol ive
ĠÐ·Ð°Ðº Ð¾Ð½
Che ck
Ġmatr ices
em and
alle y
ĠRob ot
æ ¢
Ġth rive
Ġst up
ĠÃ Ī
æľ ª
Ġih ren
ìĸ ĳ
b ank
ign al
ĠJ oin
ut f
ĠS out
ĠdÃ© f
Ġestablish ing
Ġspat ial
Ġin i
ĠR is
Ġover head
-p urpose
< int
p as
Ġm ales
Ġbe e
Ġal p
Ġun ity
Ġk in
Ġment re
Ġherramient a
ĠP ath
Ġun lock
Ġall ocation
.f it
fol der
v elles
} \
Ġs f
Ġd ial
it ches
ĠØ¨ Ø±
Ġch ains
ðŁ İ
-aware ness
ot to
ĠS am
ĠC T
abe i
Ĵ Ī
Ġr anges
ĠÑĦ Ð°ÐºÑĤÐ¾ÑĢ
Ġflu ids
ĠFl utter
u je
ĠT arget
ety l
hic le
ê² ½
.ex ample
Ġtheore m
ĠFrame work
× Ľ
ĉ T
in ha
Ġl un
Ġhe ated
ãĥ ĩ
Ġang les
ĠÑĩÐµÐ»Ð¾Ð²ÐµÐº Ð°
Ġd Ãº
om ething
og y
ĠR ate
Ġserv icio
ĠÑħ ÑĢÐ°Ð½
Ġpalav ra
vari able
Ġrelie ve
' imp
ĳ ľ
Ġdo ors
ÑģÐº Ð¸Ðµ
tt i
ĠrÃ© al
ĠC ancer
ĠL GBT
ÑģÐº Ð¾Ð¼
pro gram
ĠEnt wick
Ġìķ Ī
ĠOther wise
Ġencuent ra
Ġan o
Ð½ ÐµÑĤ
ac ji
Ġpar ole
aus s
Ġra il
Ġcur so
cent er
dis play
Ġseguint es
Ġt we
Ġthe ft
ud ed
og no
âĢ ¨
Ġprom ised
á» ©
Ġchart s
LA SS
åĮ º
Ġpir ate
ĠÑģÐ¿Ðµ ÑĨÐ¸
_ r
tain s
Ð»Ñİ Ð»Ñİ
Ġremo ves
åĢ ¼
Ġn ine
ĠC u
ĠM ann
Ð´ Ð´
Ġcomple ta
ĠÑĥÐ¿ÑĢÐ°Ð² Ð»ÐµÐ½Ð¸Ñı
Sl ide
B u
Ð¸Ð½ Ðµ
.get UpdateInterval
Ġvo z
ĠNSF W
ast ers
Ġexplos ion
Ġnou velles
éĿ ¢
ĠT ri
os exual
Ø§Ø ¦
OR Y
Ġcontrib ution
AB C
ĠRT X
Ġr Ã³
Ð¾Ð» Ð¾Ð¶
if ie
ĠM ix
Ġprec ip
Ġartificial e
Ġpartners hip
. google
ĠO ui
ĠY o
-p henyl
Ġlawy ers
Ñģ Ð¸Ñħ
Ġne ither
Ġcl ara
å¯ ¹
ĠÑĨÐµÐ» Ð¾Ð¼
' alt
w rap
Ġsens es
ĠPort o
Ġë Ħ
~ ~
Ġs ust
Ġw ard
Ġam en
Ġvari as
.st yle
Ġb ru
ra int
ke ep
ĠE thereum
ĠRE G
Ġf t
ĠA P
Ġ" ))Ċ
ĠM T
Ã¡ genes
-d is
wend ung
ĠÑĢÐµÑĪ ÐµÐ½Ð¸Ñı
ic iones
ÑģÐº Ð°Ñı
Ġliter ary
XX XX
_ com
ãĢ ĳ
- rays
Ġyou t
ĠS and
Ġcomp ilar
à¤ ¸
Ġbr ush
Ġconnect ivity
ĠR a
Ġmed ieval
Ġworks hops
Ġb ell
am ic
Ġcom plications
Ġcor ros
Ġsent ido
-p yrid
Ġanc ora
W OR
ac as
vel ength
ens chaft
Ġnight life
, ,Ċ
3 20
ĠÑģ Ð½
.. /
Ġple ased
ĠÐ¼Ð½Ð¾Ð¶ ÐµÑģÑĤÐ²Ð¾
Ġestruct ura
iz ia
Ġes e
ĠSD K
ig ious
10 9
18 9
Ġespecial mente
Ġsuff er
Ġdin heiro
Ġplugin s
Ġd ari
ul ent
ÐµÑĢ ÐµÐ²
Ġrun time
Ġutil ise
ĠTechn ical
âĶ Ĥ
Ġlin has
icu Ã±a
J SON
he jiang
em ia
ĠN FT
met ros
Ġammon ia
C ase
C ap
S how
Ø§ ÙĤ
ĠÑģÐ¾ ÑħÑĢÐ°Ð½
ĠdÃ©s olÃ©
l ac
Ġn ested
ĠM and
åı ĸ
ĠEn h
Char acters
[ M
ol er
ĠÐ¾Ð± ÑĭÑĩ
Ġeduc aÃ§Ã£o
Ġdro pped
Ġsam pling
Ġde le
Ð½ ÐµÐµ
Ġprov ision
Ġchild hood
Ġjo ys
æľ ¬
Ġretire ment
" What
il ated
Ġì Ľ
ĠÐ¿ÑĢÐ¾ ÑĦ
æĿ ¥
D i
N on
× ĵ
Ð° Ð¸Ð¼
ĠF emale
( output
p d
Ġs ang
at ro
Ġutiliz za
ĠÐ¾ÑĤ Ð´
Ġcu er
Ġpay load
-dim ethyl
ĠØ¯ Ø±
Ġsp ray
Ġbi ased
Ġter rible
"" "
ĠÐ°ÐºÑĤ Ð¸Ð²
Ġelig ible
7 50
? )
F ilter
Ð°ÑĤ Ðµ
Ġcomplet amente
Ġbreat he
ge red
Ġland sc
å¹ ¶
æ¶ Ī
ì ħ
on ces
st ru
ĠH on
arc el
Ġpure ly
'ent raÃ®
am ment
Ġst ain
aaaaaaaa aaaaaaaa
it ious
Ġw itch
Ġn ations
Ġres s
á» Ń
Con f
Acc ording
P ause
p ot
Ġan onym
Ġle var
Ġass ault
ĠØ¨ Ø§ÙĦ
'h ui
Ð¢Ð°Ðº Ð¸Ð¼
ĠSt ation
-s ized
Ġconse cut
Ð¸ÑĨ Ñĥ
log in
Ġpolymer ization
Ġartifact s
Ġh ired
Ġre plic
Ġnot ed
Ġcomp ra
Ġunf iltered
Ġware house
iv ated
ĠÑĢ Ð°ÑģÑģ
Ġequ ipe
× ¢
par se
Ġpreg untar
Ġìŀ ĳ
ĠdÃ© t
ĠAt l
ĠÐ¾Ð¿ ÐµÑĢ
m ind
Ġìĸ´ ë
Ġconfigur ations
' att
ad v
Ġclass mates
Ġtu oi
Ġhumili ated
ĠPO ST
ĠRes pond
ìĥ Ŀ
Ġbro ke
Ġrobot ics
ç ł
ol ing
Ð¸Ñı Ñħ
ĠPre pare
M o
P od
Ñı Ð¼Ð¸
his m
ĠÑģÑĤ Ð¾Ð»
Ġsen ha
Ġecon Ã³
Ġp ays
pl ane
Ġup s
Ġperson s
Ġric erca
D U
P ER
Ġs Äħ
ra ge
ac ciÃ³n
ĠP riv
Ġg ig
ĠL ake
Ġcod igo
ĠRep resent
ÑĢÐ¾Ð¼ Ðµ
Ġet was
Al Ã©m
-sh irt
Ġener get
" ;
ver b
ĠW at
åħ ´
reb bero
Ġdivers i
S w
w hy
ãģ ĳ
con n
" ],
Ġferrament a
ĠD ur
ang ular
ĠCom mit
Ġsho ok
ì§ Ħ
áº¿ t
ĠBrazil ian
ç ©
ĠC os
out ube
ĠP i
ĠD ialog
ĠE spa
ĠW ashington
elf are
Ġpredict ing
Ġobtain ing
fÃ¼ h
ĠAng ular
Ġp ale
Ġn atura
Ġg ross
Ġcon qu
Ġpr ze
Ġexplor ar
Ġampl ia
Ġpre ven
orm on
ĠÑįÑĤ Ð¸
Ġorg ans
Ġneut rons
ë£ Į
Ġo ct
ĠG PS
ÏĦ Îµ
Ġtam an
Ġlarg ely
é ļ
Ġ" "Ċ
ï¼ģ æľīä»Ģä¹ĪæĪĳ
ĠIncre ased
Ġdom anda
ìŀ ¬
ris k
ĠW riting
AC E
Ġocc as
Ġsup uesto
or r
Ġmod ifications
get to
-p yr
bl ank
Ġmigli orare
- co
m g
Ġs lo
Ðµ Ñİ
tic os
Ġreview ing
W E
r il
× ŀ×
Ġb aix
ad min
ĠPl ayer
Ġfre ely
ĠComm and
ĠP S
Ðº Ð¸Ñħ
line ar
Ġassign ment
v in
an ari
St udent
Ġgain ing
Ġaplic ativos
t Ãł
ig are
âĢĻ ll
.d estroy
Ġbere it
on ly
Ġs igh
st ick
Ġmod ifying
cul ate
Ġdeb ugging
Ġg az
ĠS plit
Ġdi as
ĠĠĠĠĠĠĠĠĠĠĠĠĠĠĠĠ ĠĠĠĠĠ
Ġbreak through
Ġcontro le
t orch
ĠÐ» Ð¸Ñĩ
Ġ Ã§a
ĠD A
Ġemploy er
++ ;Ċ
f ill
ĠG ender
Ġrep ublic
ĠÑĢÐ°Ð· Ð¼ÐµÑĢ
Ġsepar ately
je ctions
Ġor b
az ol
Ġviol ate
I Z
Ġguid es
Ġhesit ation
Ġbroad cast
ĠL lama
ĠG DP
enc ode
Ġhead aches
ĠOpen CV
ĠÐ±ÑĥÐ´ ÑĥÑĤ
Ġdeve m
- amine
Ð°ÑĢ Ð°ÐºÑĤÐµÑĢ
Ġelect romag
ĠCong ress
Ġfin anz
Ġav ent
Ġopt ical
k m
Ġa uss
Ġl ion
Ġde ber
Ġav al
Ġmed ian
Ġpotato es
, '
Ġtra p
Ġcur se
Ġbo ol
ĠAr ticle
Ġslow er
Ġwild life
' S
f iles
Ġd irt
Ġl ush
Ġcon osc
Ġexpress es
Ġconoc imiento
ryst all
Ġat au
Ð°Ð» ÑģÑı
Ġwar ned
Ġsubm itted
Ġpunctu ation
C ategory
ic ia
ĠM aking
umm y
Ã´ le
ĠÑĪ Ð°Ð³
Ġnervous ness
Ġgerenci ar
Ġexhilar ating
= $
Ġde com
ĠN ations
Ġbel le
Ġfl aws
-s peech
Ġhab lar
- St
/ l
at os
ag a
Ġpop ulares
cip ient
Ġe ther
ĠPro ble
Ġanatom y
_ CO
Ġ( <
Ġdam aging
ĠEl astic
Ġdemand e
+ )
/ >
as ma
Ġì Ĭ
ĠÑģÐº Ð¾ÑĢ
Ġemo ji
Ġn ing
Ð¸Ñģ Ð¸Ñģ
Ġminer als
y mbol
Ġw r
ĠÐ½ Ð¸Ðº
ÛĮ Ø¯
44 4
Bel ow
y aml
ĠÑģ Ð¾ÑģÑĤÐ°Ð²
ĠÐ¼ Ð¾Ð»
Ð¸Ðº Ñĥ
Ġdu ct
Ġcheck ed
Ġwer de
Ġfoss il
) ):Ċ
- learn
ĠF urthermore
Ex per
Ġrout ing
ĠSw ift
Ġprend re
Ġathlet es
ed i
Ġr iddle
Ã© rie
ĠB ra
ĠĊĊ Ċ
ĠktÃ³ ry
ĠW ear
ĠN ight
Ġfl ux
Ġexecut ado
Ġeffic ace
ĠAdv anced
M a
ĠS uccess
Ġdocument o
ĠÐ²Ñĭ Ð²Ð¾Ð´
is en
Ñĩ Ð¸Ñģ
ĠÐ² ÐµÑī
we ek
Ġdem ean
_ V
ĠN ut
ener gy
ruct ive
Re ason
ĠNe utral
Ġdoub t
ĠëĶ °
f ox
æ ²
Ġim Ã¡genes
ĠV ict
ors es
ze ich
Ġhar ass
Ġmicro phone
sub mit
h igh
se g
ĠP ak
Ð» ÐµÑĩ
cl ip
up s
Ġthr illed
SPE AKER
iqu er
Ġgam ma
ĠS ay
Ġshe ets
Def ault
ick en
Ġworld s
Ġsw ap
ET A
ĠÑĨ ÐµÐ½
' .ĊĊ
D id
c as
Ġbuy er
Ġretrie ved
z ess
è ģ
Ġd ific
Ġinv ited
Ġav anÃ§
ĠDe us
ug s
ĠUnder stood
Ġë¶ Ģ
] .ĊĊ
ion ale
ĠÑģ Ð¸Ð»
Ġext r
ĠìĿ ĺ
ĠTest ing
Ġfich ier
S upp
ĠX YZ
Ġencourage ment
Ġdut ies
Ġperpetu ate
WA YS
D er
et erm
ìĦ ł
Ġrevolution ize
Ġmenc ion
Ð°Ð»Ð°Ð» Ð°Ð»Ð°Ð»
usal em
AR E
ĠFound ation
. V
Ñĥ ÑĤÑĮ
ï¼ Ī
ĠÑĸ Ð½
( str
P YR
Q uit
Ø ¸
ri re
Ø¨ Ø±
åį ģ
ĠÑģÐ»ÐµÐ´ÑĥÑİÑī Ð¸Ðµ
ulf on
res a
ÑĢÑĥ ÑĪ
Ġvoc al
Ġconse gu
ĠN PC
ations hip
Ġoption al
Ġe res
og r
Ġquest Ã£o
ÃŃ p
ãĥ ī
Ġmac OS
Ġhung ry
Ġun l
ĠÐ¸ Ð´Ðµ
Ġsol uc
l is
as ive
Ġl er
ĠG ar
Ġext ensions
ops is
Ġacess ar
' -
00 2
Ġbar rel
Ġgreet ing
Ġsu oi
ĠG ames
Ġunw anted
Ã³ p
ĠÐ° ÑĤ
Ġtask ed
ett ings
umb ai
Ġlux urious
ĠS leep
Ġtra it
ĠÐ¢ Ñĭ
Ġdiagn ostic
#### ####
( String
Ġt ru
Ñĥ ÑĢÐ°
Ġcur ly
Ġper haps
ĠÐº Ð°ÑĤ
be its
B ridge
w al
Ġsc rap
Ġpo etry
unt ed
osp ace
Ġplot s
% ;Ċ
Ġn ause
Ð» Ð¾Ð²
Ġsubst ant
On ly
ĠAlg orith
Ġps ic
Ġconclus ions
( \
M B
qu elle
ell schaft
ĠCol lege
Ġpropos ition
ĠUs ers
Ġtrein amento
h ang
Ġcomplet es
Ġprin cess
ĠPol icy
Ġcomun icaÃ§Ã£o
Ġconcer ning
Ġqu em
ĠH E
Ġfut anari
-d own
Ġpow dered
Ġcollect ive
66 6
Ġsqu ares
Ġconv ince
Ġëĭ¤ ìĿĮ
M arket
Ġch uck
wer t
Ġì ¡°
Ġswe ar
Ġvaried ade
Ġpuzz les
requ ency
w in
ull an
ä¸į åı¯èĥ½
Ġvit am
ìłģ ìĿ¸
Ġnou ve
ĠProte ction
Ġv aries
count ry
ĠÑĥÑĩ Ð°ÑģÑĤ
Event Listener
Ġescre ver
L embre
f u
Ġco zy
12 2
Ġorgan izing
ï¼ ī
Ġrelev ante
Ġsn ack
.l ocation
Ġhorm one
ĠÐ¿ÑĢÐ¾Ð±Ð»ÐµÐ¼ Ñĭ
G ER
ig it
Ġval ut
Ã¼ hr
Ġmes h
Î¼ Îµ
Ġfranch ise
Ġv Ã¡l
Ġfre el
ios a
s ome
ĠN avig
With out
Ġun int
æĪ ·
ĠÐ¿Ð¾Ð» ÐµÐ·
Ġmisunderstand ings
- word
ic aciÃ³n
Ġun for
Ġann ounce
Ġep ic
ĠCL I
m d
Ġ` "
Ġapp et
Ġsp ank
Ġgu est
.st atus
Ġtar jet
ĠM art
Ġj ung
Ġpr ue
ĠĠĠĠĠĠĠĠĠĠĠĠĠĠĠĠ ĠĠĠĠ
Ġillust rate
Ġma j
éĥ ¨
Ġinvest ed
Ġoccur rences
Ġassum ption
åŃ ¦
Ġc unning
om ers
ur an
ĠF it
ĠR ole
Ġversat ility
'entraÃ® nement
eng ine
ateg ories
ĠSh op
iver y
Ġtend ency
fit ting
' ag
ra ciÃ³n
Ġas ian
ĠÐ¿ Ð¾Ð³
ÐµÐ½ Ð½Ð¾Ð³Ð¾
leg en
Ġtid ak
Ġresc ue
b ere
ĠW al
umm ar
Ġart igo
Ġdeb es
Ġcyl ind
' .Ċ
Ġar rog
Ġac compan
co res
Ġassoci ation
Start ed
ĠØ¹ ÙĨ
ĠÐ¿Ð°ÑĢ Ð°Ð¼ÐµÑĤ
ĠTrad ers
- Ñģ
j er
ass word
Ġì ¹
C ity
Ġdem ocratic
ĠIN TO
ĠPol and
ĠStud ies
impro ving
s es
ol ves
th read
Ġind o
Ġprint ln
Ġred irect
ĠMat rix
Ġcabin et
i pt
ĠSS H
am an
Ġse arches
Ġbest e
Ġnecess ario
ĠÐ¾ÑĤ Ð²ÐµÑĩ
Ġspecial ist
Ã± as
ĠÑıÐ²Ð»Ñı ÑİÑĤÑģÑı
zie h
Ġchamp ion
Ġalgorit mo
ĠfÃ³rm ula
a per
Ġgr ams
ock ets
Com ment
Ġabsor b
Ġobed ient
/ B
_ at
g ic
ĠTh ings
åĲ Į
Ġacquis ition
re ds
Ġl itter
il idade
ĠÐ² Ð¼ÐµÑģÑĤ
ĠÐ¼ Ð¾Ð¼
Ġmed it
Ġcas os
ê ·¸
Ð°ÑĤ Ð¾ÑĢ
Ġguid ing
Ġbit coin
Î¯ Î½
Ġdistingu ish
F G
a ude
b n
l iv
n els
ort ion
ĠN Y
Ġcham ber
Ġpenal ty
Ġbatt les
Ġnun ca
Ġst raw
ab i
Ġr anging
Ġbra very
Ġcitt Ãł
' `
' y
Ġd ough
ĠS Ã£o
Ġsh ips
Ġpain ful
Ġgen res
clud ed
Ġprofes ional
Ġn erve
Ġmod ific
ail and
Ġsl a
++ ,
ê± °
11 6
An y
lear ning
as hed
ik u
Ġmuch as
Ġpresent ing
Go ogle
ĠFore st
D ep
m ove
Ġf ighter
Ġdep osit
Ġdu as
omb res
Ġes o
Ġinvest or
Ġutiliz an
ĠkÃ¶n nte
Ġstim ulation
.re place
oc ide
Ġcollabor ative
å¸ ¸
ĠWhats App
. Add
_ color
æ ¨
è Ħ
Ġp addle
im it
oy al
Ġbel oved
Ġbl ocking
Ġseg Ãºn
ĠÑģÐ¾Ð·Ð´ Ð°Ð½
Ġsmooth ly
ĠConst itution
ãģ§ãģį ãģ¾ãģĻ
Ġh id
ĠT CP
Ġk ur
Ġinter c
ÑĪ ÑĪ
Ġsun ny
Inst ance
Ñĸ ÑĤ
Ġsl og
ĠVer ify
start ed
Ġa Ã§Ãµes
Ġp ests
Ð¾Ð» Ð¸
Ġcomponent es
Ġdies er
-f luor
ĠÐ·Ð½Ð°Ñĩ ÐµÐ½Ð¸Ñı
( ['
Ð¾ Ñħ
ĠÐ½ Ð°Ð±
Ġco pper
æĪ ĸ
Ġcert ified
Ġfestiv als
M ore
Ġdes irable
Ġsc aling
Ġinv asion
Ġmuch o
Ġaccept ing
ĠìĹ °
å¾Ī é«ĺ
× ŀ
Ġp ok
Ġre gex
Ñĭ Ð¼Ð¸
Ġemp ire
Ġìĺ ģ
çĽ ¸
' ass
Ġsegment ation
_ col
st one
Ġexperi Ãªncia
18 1
uel a
rapeut ic
Ġrepr Ã©s
( value
æľ Ī
Ġsou vent
ĠNet her
ĠÐºÐ¾Ð½ÑĤ ÐµÐºÑģÑĤ
d ep
Ġre ck
ĠS ho
Ġmem oria
Ġgrammat ical
- name
as ant
ru its
Ġí Ĩµ
B RE
th iophene
Ġmob ility
Ġtrabal har
Ġenf erm
Ġcardio vascular
- ce
B OT
en ne
ind ust
Ġdire t
Ġgluc ose
es a
Ġw rest
Ġm un
ist ed
Ġsh ade
Ġpl acing
arch ar
Ġeconom ics
ĠÑĥÐ´ Ð°Ð»
ĠÐºÐ°Ð¶Ð´ ÑĭÐ¹
_ int
ĠD ub
ĠE ND
com o
ãĤ ·
S pe
l oc
} `
× §
> "Ċ
ou v
Ġcom enz
Ġtr icks
Ġev ident
ĠAr duino
è¨ Ģ
i otic
Ġfound er
_d es
Ġarchitect ures
ĠBes ch
l ength
Ġd udes
Ġw anna
ve c
11 4
ç ±
Ġold est
ìļ ´
ĠÑģÑĩ Ð¸ÑĤ
Ġsatell ite
S H
ÑĢ Ðµ
ern ess
Ġadv ocate
Th read
Ġdeterg ents
' al
Ġben Ã¶t
Ġch im
Ġpr Ã¡tica
ateg or
"," ","
Trans late
ĠCa ption
N T
g ood
un ior
Ġcont iene
sp ace
Ġfur ry
yn omial
Ġselect s
ĠA mb
Ġr im
Ġsh ops
op yrimidine
ĠUn fortunately
Ġrepet itive
? \
st ro
Ġmo ins
Ġjud gments
l le
ĠS ource
ĠE uro
ĠL ic
cl ub
Ġinter connected
Ġoff re
Ð± ÐµÑĢ
Ġbrow sing
MA X
Ġcorpor ation
Ġst em
ÑĢ ÐµÑģ
ĠB ild
Ġexpos ing
Ġtomato es
ĠÑģÐ¾ÑģÑĤ Ð¾ÑıÐ½
at isf
ll en
ĠPhys ical
Eng ine
g ence
j ets
Ð» ÐµÑĤ
Ġsele cc
d og
ĠB ur
Ġë ķĮ
. H
qu a
Ġoportun idades
al ine
Ġh ans
ri ving
Ñı Ð¶
Ġob ra
Ġlong o
. z
ellig ence
Ġsimpl ified
Ġfel iz
J ob
í ħ
Ġs ink
ap ing
ne um
Ġpow ered
ĠCy ber
x ml
ĠB ody
Ġcre a
ÐµÐ´ Ð¸Ð½
Ġant iv
Ġdiferent e
organ ic
Ġcompassion ate
à¦¿ à¦
it zer
Ġst rain
Ġwith stand
ĠÐ´ ÑĢ
uc ed
Ġrisk y
ë Ħ
ĠL ang
ĠF low
ĠIn form
Ġanal is
ÑĨÐ¸ Ð¾Ð½
D iv
im pl
Ġz usammen
gg y
Ġcar ries
ĠÐ¾ÑĤ Ð»Ð¸Ñĩ
ĠPre is
ĠContin u
Ġconhec ido
-de pth
ĠLeg al
) ]
è Ĭ
Ġs issy
âĢ Į
Ġag ile
Ùĩ Ùħ
Ġhonest ly
ĠGree ce
Ġfato res
_ entry
Con nection
ĠAlp aca
ĠÑĢÐµÐºÐ¾Ð¼ ÐµÐ½Ð´
. ]ĊĊ
s in
ĉ H
in als
Ġw ieder
Ġtr im
ĠÐ½Ð°Ð¿ Ð¸Ñģ
ÃŃcul os
Dev ice
B it
che ma
Ġcolor less
Ġsubst it
Ġmonit ored
å¾Īé«ĺ åħ´
: %
S peed
ĠI ran
here nce
po ons
Ġhyp nosis
åĪ ¶
Q uest
a pe
p unk
ic orn
il ename
st an
ĠÐ¼ Ð°Ð³
ĠĠĠĠĠĠĠĠĠĠĠĠĠĠĠĠ ĠĠĠĠĠĠĠĠĠĠĠĠĠĠĠ
add ed
ĠÐĺ ÑģÐ¿Ð¾Ð»ÑĮÐ·
Ġcic los
Ġdesempen ho
B D
i em
Ġp icking
Ġv in
ĠS uch
Ġmor ally
Ġextract ing
Ð°Ñİ ÑģÑĮ
Ġben ign
Trans form
ĠdÃ©velopp ement
ant en
Ġmiss ions
NN s
æĸ °
ĠSS L
ĠÐ¿ÑĢÐ¸Ð² ÐµÑģÑĤÐ¸
Ġinhab it
z ust
ĠB in
Ġla zy
Ġsc oring
Ã¼ nd
Ø± Ø¨
ĠÐºÐ°Ðº Ð¾Ð¹
UEST ION
Ġf ills
apt ers
Ä±n Ä±
ĠÐ²Ð· Ð°Ð¸Ð¼
ĠOffic er
z ar
Ġb icy
Ġk ullan
Ġtra des
ä¸ İ
ĠAr m
box aldehyde
ĠÐ¶ Ð¸Ð·Ð½
Ġfra gment
Ġsurv iv
Ġprofit able
Ġescol ha
Ġno va
Ġsor ce
oot ball
qu are
us age
Ġcur ric
cept ions
Ġmarket place
Res ume
ĠìĹ ¬
Ġinquir ies
ĠProfess ional
Ð¾Ð² Ð°Ð»
Ġstyl ish
Ð³Ð¾ÑĢ Ð¸ÑĤ
ĠV I
ĠK eras
Ġtransfer red
Ġarri val
Mod ule
' en
Ġso it
Ġest amos
Ġpurch ases
Jack son
Ġcl ic
ĠÃ ¥
Ġhead ing
.m enu
He alth
Ġclub s
âĶĢâĶĢ âĶĢâĶĢ
Ġs abe
Ġu Å¼y
ast ed
Ġver ification
ĠTrans port
ĠÐ·Ð´ Ð¾ÑĢÐ¾Ð²
áº¥ t
ĠíĶ Ħ
z ent
ç Ĺ
Ġb un
Ġincl usion
ck en
ied ad
pro of
Ġeu ros
Ġdefin ir
Ġau jourd
ol utely
Ġan us
ĠM Ã¤dchen
Ġcomp iler
Ġaccount ability
ĠRes pons
ĠStud ents
ibil idade
A Z
it led
Ġmag net
ĠÐ³Ð¾ÑĢ Ð¾Ð´
èī ²
Ð½ Ð¸ÑĤÑĮ
Ġen zym
Ġdown s
Ġaccommod ate
ĠÑī Ð¾
- ${
on itrile
ĠN am
com puter
Ð¸Ð½ Ñĥ
Ġrot ate
y ad
Ġ" )Ċ
Ġspecific he
Ġemphas izing
am ous
ĠT EXT
Ġab aixo
ĠR PG
Ġtr ong
Ġaut re
ä» ¶
ĠÐ±ÑĥÐ´ Ñĥ
Ġofre ce
e or
qu Ã©
Ġcom ent
ĠL E
Ġread ability
ĠDes culpe
ĠElect ric
Ġë¬ ´
ĠÑĩÑĥÐ² ÑģÑĤÐ²
Ġt res
Ġl y
atch ing
ĠÑĥÐ· Ð½
á»Ľ i
C ES
al and
ro d
Ġdo ctors
ĠO p
Ġimport ed
Ġsub string
ica Ã§Ãµes
Ġdocument os
Un it
åĬ ł
Ġsulf ate
Ġrequis itos
ÈĻ i
/ T
> C
ĠV AH
Ġfl amm
ĠFor ce
ĠðŁĺ Ī
Ġshowc ases
N ET
ĠF ant
Ġout standing
ĠÑģ Ð¸Ð»ÑĮ
ĠÐ¿ÑĢÐµÐ´ Ð¿
ĠGovern ment
Ġn iche
st rap
ad ent
Ġreg ime
Ġnarr atives
Ġvent ure
Ġtran qu
A nt
Ġs chn
Ġsod a
ĠCompan ies
Ġ ..
ed it
âĢ ĺ
åı ĳ
IC AL
Ġreve als
ÑĨÐ¸ Ð¾Ð½Ð°Ð»ÑĮ
Ġrisp osta
< span
ĠM ap
ib ilitÃł
ĠÃ© p
ĠÑĢ Ñĥ
Ġcap s
Ġbr ute
Ġopp osed
Ġunpredict able
æ Ł¥
ÑĤ Ñĭ
Ġread able
Ġclos et
Ġwa velength
Ġverschied ene
æĽ ´
Ġnave g
Ġprofiss ional
ĠÐ½Ð° ÑĥÑĩ
Ġchat GPT
Ġden ied
ÏĦ Î¿
im en
Ġsu jet
Ð¸Ðº Ðµ
Ġmel ting
ĠÐ¸Ð³ ÑĢÑĭ
Ġmultipl ied
ĠÑĥÐ² ÐµÐ»Ð¸Ñĩ
-[ (
Ġc Ã©l
ĠE ver
Ġ' .
10 6
Ġtable t
vol ume
Ġvol umes
f lix
ĠW elcome
ĠÑĢ ÑĥÐ±
Ġil s
Pro v
an ze
Ġcre aciÃ³n
Ġdepend ency
Ġpay ee
ĠStud ent
, S
om es
Ð¾Ð±Ñĭ ÑĤ
è¯ Ń
è´ ¨
Ġall ocate
ĠK en
bal ance
Ġmuse ums
Ġt v
al an
ĠH in
18 4
Ġattrib uted
ĠRead er
Ġhoriz on
# !
? :
R ange
Ġde uter
ĠS ometimes
Ġtre m
Ġbi otechnology
Ġvo ices
ĠBlu etooth
Ġ{ ĊĊ
Ġs perm
ĠE ffect
Ð¸ÑĤ Ð¸
Ġseg ura
Ġinterpre ter
Ġcontempor ary
< head
d ade
Ġsome what
ĠEx ecut
col i
Ġmind set
Ġoxid ation
Ġceremon y
- Jackson
Ġl uc
-w idth
Ġoh ne
Ġnatur ale
ĠÐ¿ÑĢ Ð¸Ð¼ÐµÐ½
medi ate
ç³ »
( P
t ry
t imes
ĠO m
ush i
gress ion
Ã³g ica
) ]ĊĊ
/ fix
r r
en ix
im et
Ġvari ation
Ġfo ol
ĠÐ¸Ð· Ð²ÐµÑģÑĤ
ãģĦ ãģ¦
Ġcorrespon ds
s ys
Ġhe ights
Ġcal cium
Ġeven ly
ĠSol ar
Ġmasturb ating
ĠAuf g
ĠÐ´Ð¾Ð¿ Ð¾Ð»Ð½Ð¸ÑĤÐµÐ»ÑĮ
Ġd ining
om men
Ġprodu zione
Ġcat aly
ĠPh ilipp
, N
os se
Ġconsum ing
ĠGener ation
Ġassess ments
Ġaprend izado
é© ¬
- use
Ġb inding
IT H
char acter
æĻ º
D im
ĠE T
Ġposs ession
Ġpresident ial
Ġconj unction
Ġbro ker
Ġprofit ability
Ġnue vo
Ġdigest ive
Ġs pons
Ġb ags
Ð» ÐµÐº
Ġob iett
ĠK ont
Ġpot encial
Ġê ±
Ġchange Direction
Ġparent heses
Ġhost s
Ġsib lings
r ator
he y
Ġh ire
ÃŃ o
Ġachie vable
Ġdoll ar
Ġsto pping
Ġd ual
Ġm elt
Ġb ass
Ð¾Ð» Ñı
Ġpel os
Ġfa Ã§a
.h igh
ìķ ½
Ġiniti ator
Ġsubs idi
ĠamÃ©li orer
h ist
m peg
Ġinv ite
14 1
Ġdisplay ing
.difficulty Button
Back ground
_ SIZE
v os
C ho
f old
Ġcom um
gin x
' NAME
O rig
ĠG ate
ĠperÃŃ odo
. K
Ġab y
art o
Ġtut or
ëĤ ´
Ġesp ac
Ġoblig ations
Ġlid ar
: /
r ane
Ġb end
iv it
ĠÐ½Ð° Ð¸Ð±
Ġx ml
.get Difficulty
Ġdr one
Ġestud i
Ġproyect os
Ġattor ney
, P
ç µ
ĠM ale
Ġch ief
Ġform e
Ġpo ichÃ©
Ġknowledge able
Ġamb igu
Ġlingu aggio
ĠProgram ming
/re moving
X Y
Ġc Ã¢
Ð°Ð¶ Ðµ
Ġcapt ivating
èĢ ħ
Ġc Ã¡l
ad ies
ĠW ikipedia
ĠL LC
Ã¤ ft
Ġut ile
Ðŀ Ð±
Ġvess el
_ prime
Ġn em
ĠV ir
Ġeduc ate
Ø Ł
Ġun iqu
Ġarg ued
Ġunc anny
ĠÐ½Ð°Ð² Ñĭ
ĠÐº Ð°ÑĢ
Ġing res
Ġbar riers
le z
ãĤ µ
Ġend l
Ġsuggest ive
_f rom
Ġbright ness
cell ent
Ġstartup s
xxxx xxxx
Ġextens ively
anj ing
N C
Ġdisc ord
Ġsend er
Ð¸Ð· Ð°ÑĨÐ¸Ð¸
ĠSp end
Ġcry ing
names e
ivid ual
11 7
Ð¾Ð²Ñĭ Ð¹
Ġjew elry
P reg
Ġd ens
Ġw s
Ġus ados
Ġcho ir
_d irections
ĠðŁ Į
Ġgrammat ically
v et
Ðº Ð¾Ð»
Ġret orn
Ġgraph s
Ġveloc idad
Ġkil ogram
s df
/ improving
r ans
è Ķ
Ġtra uma
Ġno ble
Ġserv izi
Ġpat ch
Qu ant
. Where
Ġle af
à¸ Ĭ
(" /
ĠAcadem y
æģ ¯
m ethod
il ic
Ġrepresent a
à¸²à¸ ¡
Ġspect rum
Ġdis able
lo x
ĠIN PUT
ĠPen is
ic ie
ĠS her
ound s
Ġplan o
Ġbaj o
Ġdiffic ile
_ rate
Ð»Ñı Ð´
Ġaccount able
ĠS ize
18 5
Ġlate x
ĠÐ²ÐµÑĢ Ñģ
ĠVen us
.generate InitialPosition
" M
Ġpr imes
Ġref lex
ĠMan ufact
ĠØ§ÙĦØ ¥
ĠUnder stand
respect ing
Ġsvilupp o
O D
S k
â Ļ
Ġwell ness
Ġregul ated
ĠPol ish
ĠÐ½Ð°Ð¿ ÑĢÐ°Ð²
Ġfer ment
Ġintrig ued
/fix ing
Ġt ube
Ġshe ep
Ġbl ame
ĠÐ¿Ð» Ð°ÑĤ
Ġtele f
Ġmedi ante
Ġcrystall ization
- control
his hing
Ġcomm od
Ġoff ense
ĠÐ¸Ð¼ ÐµÑĤÑĮ
= ['
k ers
ĠS UM
ib o
Ġimport s
Ġsub process
ny a
.n ext
/ file
Ġb ones
Ġhas n
ap ia
ÃŃ do
ĠÐ³ ÐµÐ½ÐµÑĢ
Ïģ Î¹
å¼ Ģ
uh an
or p
Ġo ce
Ġe urope
Ġfeed ing
.game Started
ìłģ ìľ¼ë¡ľ
Ġ Ù¾
ĠÐ½ Ð°Ð¼
Ð°ÑĤ Ð¾Ñĩ
ĠÑĥ ÑģÑĤÑĢÐ¾Ð¹
ĠÎ¼ Îµ
- vent
z Äħ
Ġins pection
Ġtrust worthy
Ġbis ogno
In oltre
ĠAn n
Ġport rait
Ġimm ag
Ġchlor o
Ġfamil ia
čĊ čĊ
Ġc raw
an ity
Ġal ike
Ġad min
ĠN AS
eth an
Ð² ÑĢÐ°Ñī
Ġcustom s
ĠWor ks
Ġutilis ateurs
ĠC rit
Ġë ¯
ÑģÐº Ð°Ð¶Ð¸
Ġprim er
.t imer
Ġsun set
B ase
ic ago
Ġcaus ar
Ġfut uristic
Ġrub bing
help ful
- y
Ġb ored
Ġv ra
ĠS ar
Ġrepeated ly
- ser
am y
Ġclim bing
ott om
kan nt
ĠHot el
A IN
C ould
l oss
20 5
Ġconsid Ã©r
ĠP ho
Ġad jac
Ġperce ive
Ġfeas ible
ĠH aving
Ġter ra
Ġpropriet ary
Ġa Ã§Ã£o
ĠH as
ĠG alaxy
ĠV ormon
Ġevent ual
)) )Ċ
result s
Be gin
Ġaliment os
_ cl
Ġb anter
Ġ} }
Ġdist illation
ĠÐ¿ÑĢÐ¸Ð½ Ð¸Ð¼
.ch oice
ĠAL WAYS
ĠLT D
è £
us ement
St ay
Ġdist ra
Ġed gy
Ġod pow
ĠPortug al
/ n
Ġis lands
ud ing
ĠE UR
ĠN AT
Ġsub str
ĠÐ¿ÑĢÐ¾ Ð¸Ñģ
ĠÐ¿Ð¾Ð» Ð¸ÑĤ
Ġcomunic aciÃ³n
Ġapl icaÃ§Ã£o
ĠEmploy ee
Ġmon sters
-m in
_t okens
vid ia
ĠH ub
Ġk od
ĠF est
Ġbl ast
ier ra
Ġpoint ing
str ong
Ġscen ic
lim ited
env iron
< body
_ R
ĠI DE
ir ical
ind e
ĠCh ronic
ĠÎ ²
AD AR
Ġign ition
AM L
Ġemoc ional
Ġdelet ed
ĉ return
Ġapp li
ech an
IM ARY
ĠBundes liga
s ible
Ġma ze
Ġperson ne
ts x
ĠBel grade
ĠS ort
Ġquest e
Ġdef y
Ġav ait
ĠrÃ© se
Ġcert ifications
Ġdiscount s
ĠÑģÐ¾Ð´ÐµÑĢÐ¶ Ð¸ÑĤ
( response
ĠZ one
ĠAr beits
ĠAN Y
Ġprop ried
Ġgi oco
Ġchlor ine
Ġservi Ã§o
Ġshel ter
t om
Ġc ited
ing ly
ĠÐ½ ÐµÐºÐ¾ÑĤÐ¾ÑĢÑĭÐµ
ĠÐº Ð¾
Ġperson n
Ġclass Name
Ġfant astic
alph a
" Difficulty
Ġen orm
Ġposs am
Ġrep os
iment i
Ã¶r per
Ġrelie ved
ĠS peech
Ġsh r
Ġman ages
Ġpar ser
Ùĥ ÙĦ
Ġlicens ed
ĠÐ¿ÐµÑĢÑģ Ð¾Ð½
n one
Ġb unch
ĠD ream
ĠÑĤÐ°Ðº Ð¾Ð¹
Ġsurve ys
em bed
ĠH angzhou
Ġescol her
m ut
å Ļ
ra re
Ġv id
Ġex terior
eng ono
vb net
Ġthe rapeutic
Ġcar bo
ĠÐ¸ÑģÐ¿Ð¾Ð»ÑĮÐ·Ð¾Ð²Ð°Ð½ Ð¸Ðµ
Ġhall uc
L ocal
Ġ Ø§ÛĮ
pp o
Ġne ue
tic as
Ġexp res
Ġgraph ical
k ind
ç ²
af ood
Ġoffer ings
Ġdisappoint ed
Ġcolonosc opy
k ish
Ġ iz
Ġ ib
Ġl uego
ĠÐ½ ÐµÐ¼
rad or
Ðŀ ÑĤ
Ġa an
Ġg Ã¶
Ġve c
Ġpres erve
Ġintrodu ces
( os
ĠT oken
og urt
Ġcheck Collision
ĠTe il
Ġtrad ers
_re c
Ġmort g
Ġportray ed
< NAME
_ price
Ð½ Ñİ
ĠW ild
Ġemploy ed
ĠmÃ¶ glich
Ġnoss a
Ġh unting
ch io
un known
Ġpr Ã¡ct
Ġc ocks
Ġd la
ok u
Ġsit io
Ġmet er
è¿ ĩ
Ã¤nd e
Ġallerg ic
= None
ĠT imes
ĠC reat
Ġfore front
ID TH
ĠChat G
omet er
Ġcop ies
Ġrepet ition
Ġoffic ers
s ort
Ġno vas
cur rency
ho res
Ġwid ened
_d im
Ð°Ð¹ Ð½
ua ire
Ġfall en
Ġplut onium
ĠS cript
Ġche ap
Ġpass o
hav ior
ĠNether lands
. right
Ġt ack
Ġqu iero
ÐµÑĤ ÐµÑĤ
Ð¾ÑĤ ÑĢÑĥÐ´
Ġih nen
fr ames
ĠnÃ¥ got
ĠGold en
/ python
k c
ch ts
Ġbe ating
Ġpe que
ĠÐ´ Ð¾Ð»
Ð¸Ð¼ Ð¾ÑģÑĤÑĮ
la ugh
ĠanÃ¡l isis
Ġpont os
AM P
ĠL A
ĠV oice
Ġwork force
ĠCom b
SE T
Ġproces ar
ãģĤãĤĬ ãģ¾ãģĻ
qu ired
pret rained
Ġbes o
ĠState ment
× Ĺ
Ð° ÐµÑĪÑĮ
Ġv apor
ado x
_s plit
U C
Ġf ic
ation ale
ÑĢ Ð¾ÑģÑĤ
.m p
unction al
Ð¸ÑĨ Ð¸
éĩ į
Ġd á»¥
ĠÐ² Ð¸Ðº
Ġrequ iring
---- -
ĠSp iel
.query Selector
n av
Ġd x
te en
k ed
å¾ Ĳ
ĠAdminist ration
b ird
ot ional
à¥ ¤
Ġih n
è ·
or ange
ĠV alley
Ġcol abor
Ġlist ened
ĠLim it
Ġì§ Ħ
G AN
Ġrequ er
Ġequ itable
_f older
Ġgall eries
æĦ Ł
Ġarrest ed
A p
ed ded
iss age
Ġcond one
Ġod ds
Ġarr anged
Ġaument o
F r
S ocket
Ġvers iÃ³n
Ġintegr ating
ogr Ã¡f
- cl
_ and
p andas
ĠC ette
ab ili
ĠB at
act ic
ĠÑģ Ð¾Ð±ÑĭÑĤ
ĠEx change
zy st
Ġescrit a
Ġconsig lio
ä½łæĺ¯ è°ģ
arm s
ä½ į
Ġ× ķ
ĠMe an
ĠProt ocol
h Ã¶
Ð½ Ð°Ð¿
uch t
iso quinoline
Ġcuer po
P DF
í ĴĪ
ĠS C
Ð» Ð°ÑĤ
ĠÑĦ Ð¸Ð»ÑĮ
ĠPh D
Ġur g
ï¼ļ ĊĊ
Ġíķ ł
Ġrappresent a
at io
Ġcon volutional
ĠA ud
Ġincl ui
Ġph p
Ġstru ck
ĠFra ge
Ġo ggi
Ġsc op
Ġret ention
Ġbusiness man
ĠPr in
Ġfit ting
--- +
ĠÐ¸ÑģÐ¿Ð¾Ð»ÑĮÐ·Ð¾Ð²Ð°ÑĤÑĮ ÑģÑı
Ġinterview s
Ġexcept ions
Ġconserv ative
ê¸ Ī
ĠgrÃ¡f icos
ĠMad rid
Ġseam less
g raph
ign ment
10 7
ĠÐ° Ð±
trans late
Ġrock et
ĠMag ic
ĉ G
ig ent
Ġind irect
Ġtell es
ĠPy Qt
ls x
Ġvolat ility
Ġhasht ags
' elle
. index
ĠS ec
Ð½ ÐµÐ¼
ĠP an
Ġgo bl
eng es
ĠTo chter
14 4
ĠAtt end
Ġê²ĥ ìĿ´
Ġmie ux
Ġt ela
ĠB ol
cre d
Ġclass ifier
Ġtable ts
Ġneces ario
áº¡ i
Ġinfer ior
â Ĺ
ĠÑģÑĤ ÑĢÑĥÐºÑĤ
.m essage
p rivate
Ġele phant
oura ging
Ġthous and
Ġcaract eres
S ave
(" %
Ġaspect os
Ġìķ Ĭ
Ġnause a
l ag
om ain
Ġind ul
Ġcol ores
ys ical
Ġliv re
Ġdrag ons
ĠUtil ize
Ġduplic ate
Ġelect ed
Ġemploy ers
Ġmort e
} $
ĠR io
ÃŃ r
Ġregist ro
TE XT
ĉ M
Ġcom and
Ġart work
Ġcertain ty
Up stream
Ġwo ol
( request
Ġab ide
ĠR NA
Ġmass a
Ø³ ÙĦ
Ġsquee ze
. grid
Ġnot ices
St ack
ĠÑį Ð½ÐµÑĢÐ³
Ġlength s
ĠPy game
ĠHand le
s he
Ġmod es
Des ign
Ġfal ar
Ġgradu ate
ĠDown load
L ong
v an
è ³
Ġ" ",
ĠÐ¿ ÑģÐ¸Ñħ
Ġloc ate
Ġmat t
ios o
H R
_ group
ĠC as
Ġra ced
Ð°Ðº Ð¾Ð½
Ġcar re
ĠAd just
Ġsha ft
model s
Ġexplo itation
Ġg aps
Ġha cia
Ġdri ps
iler iler
Ġhyper parameters
Ġcritic ized
s ite
is Ã©
et ta
ab is
Ġsu g
à¸ Ľ
å® ģ
Ġorgan ism
ĠÑģÑĤ ÑĢ
ĠÑħ Ð°ÑĢÐ°ÐºÑĤÐµÑĢ
Ġfest ival
Ġmasturb ate
Ġpol ynomial
Ġiniti ative
Ġspir its
S ch
e lement
em ed
ĠCh ildren
Ġaut res
-d o
-in ch
ÃŃn h
.ex ecute
Gr inning
Ġtaman ho
0 11
G C
P ower
_ KEY
ĠN ice
ff ff
Ð¼ Ðµ
Ġsent ient
ern en
Ġevery where
Ð°ÑĨ Ð¸Ð¹
") [-
Ġfat igue
Ġimmig ration
æĮ ĩ
.high Score
Ġnavig ating
Ġau ction
ĠÑĢÐµ Ð°Ð»Ð¸Ð·
ĠCount ry
} ')Ċ
Ġt Ã¢
Ġc uc
Ġb od
Ġg ag
Ðµ ÑĦ
Ġimp uls
ĠÐºÐ¾Ð¼Ð¿ Ð¾Ð½
ĠEu ropa
çī ¹
Ġpier cing
Ġw elfare
ĠSp irit
omb ia
ste in
ĠLo op
æĪĲ ä¸º
Ġdegrad ation
ic ul
ur ity
ĠO UT
äº §
Ġdiet ary
Ġobs ess
IN D
_ N
g el
n on
nd o
Ġb ak
Ġhit ting
QQ QQ
ĠÐ³Ð» Ð°Ð²
Z Z
_ start
ĠT k
Ð¾Ð² Ð°
Ġdem o
Ġtut to
ĠØ§ÙĦØ ´
DD DD
0 12
ĠA V
ĠP age
Ġmet als
tain ing
osp el
Ġp enc
Ġide ia
uk an
Ġrele asing
ĠRub y
ĠBon jour
ĠMedic ine
Ġcuid ado
Ġd ou
Ġev id
-d es
Ġcoll ar
ĠÐ¾Ð¿ ÑĤÐ¸Ð¼
Ġìĭ ¤
æŃ £
ĠÐ°Ð» Ð³Ð¾ÑĢÐ¸ÑĤ
r icht
ex pl
Ġcons olid
ament i
Ġdesc ending
ĠFa Ã§a
L I
ĠC redit
Ġnum b
Ġdel ays
Or gan
U na
y cle
Ġc av
Ġen de
Ġres ins
Ġperson agem
itu ation
Ġsout hern
Ġincent ives
b ability
ab c
Ġpre val
ĉĉ Ċ
2 80
_ H
Ġst er
ĠC HE
any a
Ġsitu aÃ§Ã£o
Ġecon Ã´
O EVALU
Ġd abei
Ġw icked
con tainer
-sh aped
Ġ ÈĻi
ĠI ron
ĠT E
ater ia
ĠTo ols
ÑħÐ¾Ð´ Ð¸ÑĤ
Ġreact or
ĠÄĳ á»ĥ
Ġb ricks
ĠW ind
ãĥ ¡
ars ha
Ð°Ð»ÑĮ Ð½ÑĭÐ¹
ii ii
ĠÏĦ Î¿Ïħ
ĠBC B
) ?
d irectory
ic ione
ol ver
ĠH el
Ġte oria
Ġz ona
Ġcle ver
17 9
ĠCl aude
ĠâĪ ļ
ĠÐ¿ÑĢÐ¾ÑĤ Ð¸Ð²
h in
j ours
Ġcom ed
Ġwh ites
Ġve ux
ik en
Ġdom est
Ð»Ñİ Ð´
Ġrestrict ed
Ġyout ube
-vent ilated
! ("
Ġn igger
un ique
ĠK ar
Ġconf ines
Ġunderstand s
Ġpack et
äº Ľ
Ġretrie val
ĠCL G
Ġsocied ad
Ġoce ans
ig uous
ĠM umbai
Ġsy ndrome
Ġover flow
Ġpredict ive
Ġdest inations
Ġgarant izar
Ð¸Ð¶ ÐµÐ½Ð¸Ñı
Ġsubstant ial
m aking
er ce
Ġg ol
Ġproduct o
Ġgra ins
Ġmess enger
Ġtent ar
ĠMonitor ing
! ",
se cond
Ġprov oc
Ġsell s
ĠÐ½Ð°Ð¿ Ð¸ÑģÐ°ÑĤÑĮ
Ġunc ensored
Ġearthqu ake
L ab
Ġm anga
ĠE TF
Ġser a
In f
ÙĬ Ùħ
ĠEx istem
ìĹ Ń
ĠEm ail
Ġdam it
ester ol
Ġren owned
Ġcom plicated
Ġen se
Ġad or
Ġrel ies
Id ent
Ġvend or
- point
? assistant
Ġm ice
ien st
Ġste aling
ott ed
_with tag
å®ĥä»¬åı¯ä»¥ å®ĥä»¬åı¯ä»¥
G en
Ġj ul
Ġel la
Ġcam inho
Ġdetect ing
Out ro
Ġpenet ration
èĶ ¡
. (
h Ã¤lt
Ġra y
Ġrec ruit
Ġí Ĭ
Ġcryst als
< ?
] .Ċ
Ġin icial
ink y
Ġaut ent
Ð³ Ð¾ÑĤÐ¾Ð²
ache lor
Ġproget t
is ons
Ġm artial
sh ort
Ġutilizz ata
ĠÑģÐ¾Ð± ÑģÑĤÐ²ÐµÐ½
Ġsu porte
Ġcl icks
Ġso ap
Ġdis abled
Ġcontinu ar
å Ĥ¨
ĠO ct
à¸ ³
tic ks
Ġcustom izable
Ġsuper hero
Ġphilosop her
ĠÃºn ico
Ġapro xim
Ingredient s
get table
Ð¿ ÐµÑĢÐ°ÑĤ
ĠTh ailand
Ġsepar ation
ĠÐľ Ñĭ
(m essage
Ġdiscrimin atory
- jud
Â ¬
id al
Ġle i
Ġwe ird
Ġmy st
ĠEn ron
Ġdeb ated
Ġoccur rence
Ġê³ µ
d iff
15 6
ĠRT GS
Ġn ive
Ġth umb
Ġap Ã³s
Ġgra f
Ġfat to
Ġaccompl ished
Ġaccommod ation
åĿ ¤
Ġcar go
-pro cess
un es
if iz
Ġme g
Pro perty
Ġstup id
" }Ċ
K S
ĠC I
ob il
Ã¨ tres
ĠQu ando
ĠMod ern
Ġterror ists
å §
Ġ` --
col o
Ġsecure ly
-S uaire
_ column
Ġ rib
ar ity
Ġent wick
Ð¾Ñģ Ð»Ðµ
Ġje ans
ĠInt erest
Ġproporcion a
åº Ķ
ĠMuslim s
Ġosc ill
t an
ĠS ite
Ġapp arent
rib utes
ĠAn na
Ġassum ed
Ġroad s
Ġproces amiento
Ð¸ÑĦ Ð¸Ðº
. type
d atabase
et et
ĠJ es
Ġdiagn ose
ĠSpec ifically
ĠÑĦÑĥÐ½ÐºÑĨ Ð¸Ñİ
/re cipient
* .
ĠC opy
ĠP T
ĠP ed
Ġ× ¢
Ġinflu ences
Ġassum ing
Ġse res
are m
ÃŃ m
ĠK it
Ġacet ate
H elp
Ġv amp
ĠA B
Ġr ational
Ġab ack
Ġ- =
Ġtra cing
Ġoccasion ally
ĠÐ´ÐµÐ² ÑĥÑĪ
- che
R un
x l
Ġqu ero
Ġdis placement
Ġdep os
Ġresearch ing
Ġcam pos
Ġneg oc
Ġport able
Ġgest Ã£o
Ġnurs ing
, y
b ens
b row
Ġs op
ĠP E
cl us
ĠIt alia
Ġprof iles
å¾Ĳ åĿ¤
èĶ¡ å¾ĲåĿ¤
2 11
l Ä±
Ġf ost
ĠB ul
åŃ ĺ
employ ment
/ D
ĠM ess
12 4
.s c
-b enz
Ġmen or
Ġing les
Ġhat te
Ð¸ÑĤÐµÐ»ÑĮ Ð½Ð¾
Ġfish ing
Ġteng a
hand le
Ġmultip lying
Ġinherent ly
Ġchied ere
f mt
Ġcon current
Ġst olen
Ġv Ã©r
Ġse ats
Ġpot resti
Ġacc eder
// //
br is
Ġgas ped
Ġbott les
Ġhe ap
ah n
empt y
Act ivity
N P
le tt
Ġfact ores
íķ Ļ
Ġprob abilities
åĨ Ļ
ĠZe aland
Ġaten ciÃ³n
( Grinning
Y ADAR
ul ator
vent ory
_m ode
Ġment or
ĠÑĤÐ°Ðº Ð¾Ðµ
Ġexhib it
etra hydro
YADAR SA
f ahren
s fw
Ġh Ã¤
Ġn ude
Ġut enti
Do ctor
Ġdeuter ide
- Ð·
Ġle mon
ĠÐ´ Ð°Ð²
Ġcond iÃ§Ãµes
" ;ĊĊ
re land
Ġqu it
Ġlist ing
PI O
Ġprote g
ĠÄ Ĳ
hold ing
Pl an
gment al
Ġcomport amento
PRE YADARSA
Ġasc ending
Ġor anges
Ġro yal
Ð¸ÑĤ ÐµÐ»Ñı
Ġconv icted
åıĤ æķ°
on in
Ġp iace
Ġbe am
ĠL ambda
Ġcl oth
Ġap are
Ġris pond
ĠÐĲ Ð½
Pre yad
Ġlou der
Preyad arsha
à ¯
Ġe lder
ter min
ĠSt an
reg ular
f ree
Ã «
Ġenv olve
Ġpublic ation
ĠRes erve
Ġstat s
Ġaccent u
ar in
Ġsp okes
Ġpot ent
Ġprin ter
ĠìĹ Ĩ
Not a
Ġgard ens
Ġobstac le
Ġlon ely
ETH YL
R U
m aster
am il
Ġsw ing
3 45
è Ī
ĠI CD
ie ce
Ġrel at
Ġprocess us
Ġconf l
ĠEx ercise
uff le
Read y
Ġentren amiento
Ġdistur bing
V ector
^ (
m nc
ed ere
Ġcl o
X YZ
Ġb reeze
Ð¾ ÑģÐº
ĠM c
Ġpar ks
ob enz
íķĺ ê¸°
ĠÐ¾Ð±Ñī ÐµÑģÑĤÐ²
ĠI R
Ġg io
zy me
Ġtransport ed
ĠSol ution
f ly
ou ve
Ġad verse
low ly
ÙĨ Ø¯
_ class
Ġ ÅŁ
it us
Ġn ud
ĠS ym
rent issage
ĠSe ven
que ue
ĠÑģÐ²Ð¾ Ð¸Ð¼Ð¸
å¹³ å¹³
ç¨ ĭ
h Ã¤ng
Ġw akes
Ġre const
st ep
Ġma ggi
Ġdesign ers
Ġfl ushed
Ã©r ica
ĠmÃ³ d
.model s
å¸®åĬ© ä½ł
itzer land
u pload
ail ability
row ave
à¦ ¨
ÐµÐ³ Ð¾Ð´
çĽ ®
íĺ ¸
ĠÐ·Ð°Ñī Ð¸ÑĤ
f act
Ã Ĺ
et he
Ġnot ification
Ġk eras
ĠZ hejiang
Ð³Ð¾ÑĢ Ð³Ð¾ÑĢ
Ġëį Ķ
_ end
b ild
ĠM AT
ĠD atabase
Ġdes puÃ©s
ĠU V
Ġbu ilds
ĠÐ½Ð°Ð¸Ð± Ð¾Ð»ÐµÐµ
. __
c ert
us a
im as
ĠV ision
Ġimp osed
Ð¾Ð± ÑĢ
po ol
ĠTechn ologies
Ġass ure
cre ase
Ġmin eral
Ġredu nd
Ġlic king
E in
av ailable
Ġprom ises
Ġris petto
Ġstream line
èĶ¡å¾ĲåĿ¤ èĶ¡å¾ĲåĿ¤
el ij
ra ding
Ġse curities
and id
Ġnum s
Ġuna ware
ric ular
Ġbot s
_ pretrained
e a
Ġfor bidden
Ġneur on
-${ -${
an os
am po
Ġg al
ĠS aaS
à¤ ª
lu gin
Ġenh anced
-ox o
( v
ab out
ĠV ery
AN S
Ġsyn onyms
Î¯ Î±
ĠÑĢÑĭ Ð½
ç ģ
uc lear
Ġcount ing
Ġclient i
Ġnature za
us c
ĠF actory
Ġreg iÃ£o
att i
ĠReg el
Ġhar vest
per form
Ġsoll te
i eme
Ġrecogn izing
ĠDec ision
' n
ĠA udio
ĠC ath
ĠF igure
Ñĸ Ñı
hent ication
Ġfair ness
Ag ain
ĠR GB
ĠÐ´ÑĢÑĥÐ³ Ð¸Ð¼Ð¸
Ġrein force
ĠEspa Ã±a
Ġp onto
Ġd ÃŃas
ĠÐ½Ð° ÑģÑĤÑĢÐ¾Ð¹
ĠÐ» ÐµÐ³
ÅĤ y
can ner
Ġemotion ally
ĠdiffÃ©rent s
Ĥ¹ é
n u
Ġj an
Ġcar pet
Ġindic ated
Ġmel ody
ĠT itan
ress ive
ĠÐ³ Ð¾Ð»
Ġcon du
Ġv ille
Ġr uler
Ã© tica
ner o
ĠRe venue
Ġactiv ated
ĠBut ton
ĠBay watch
ĠIncre ase
Ġrevers ed
Ġ Ñİ
app end
Ġaccomplish ments
Build er
Ġtroublesho oting
Ġcon he
Ġvari ant
ÐµÑĢ ÐµÐ´
ĠÑĩ Ð°Ñģ
-t raining
Ġview ed
Ġtall er
lieÃŁ lich
E W
Ġens ino
ĠÐ·Ð°Ð½ Ð¸Ð¼
_ line
ĠP A
Ġcl as
Ð± Ð¾ÑĢ
ĠAn ything
Ġoil s
Ġprime ira
Ġlie gt
Ġd or
Ġcont our
Ð² Ð°
ĠÐ¿ÑĢ Ð¸Ñĩ
But tons
Ġcontinu aciÃ³n
ĠFun ktion
Ġteen age
Ġforecast ing
ĠÐ·Ð½Ð° Ñİ
ĉ S
per or
Ġfr am
Ġaccess ibility
Ġdese as
Ġp yram
ĠT uring
Ġadd itives
Con nect
ĠAm ount
R andom
r if
st atic
ĠS exual
ĠE ther
mer cial
Ġdiet a
è¦ģ æĪĲä¸º
F ive
qu al
ord inate
Ġfl or
.l ist
æľ º
-lo oking
è¦ģæĪĲä¸º è¦ģæĪĲä¸º
res ource
Ġsl ot
cont roller
Ġcatch ing
Ġvend ors
Ġdisgust ed
L i
t emplate
or ic
ĠĠĠĠ ĠĠĊ
Ġcur v
Ġconst itution
Ġcompon ente
Ïģ Î·
Ð¾Ñı Ñī
(se gment
Ĥ¹é Ĥ¹é
Ġe fe
app lication
17 8
Ġhead line
Ġirre levant
" },Ċ
' A
µ ľ
Ġj am
ail d
ĠÐ¼Ð¾Ð¶ ÐµÐ¼
ĠÑįÑĤ Ð¸Ñħ
Ġvend as
Ġinfra est
- right
é ĺ
Ġf ot
ĠS entence
ĠE astern
Ġpun ch
Ġcook ie
ĠÏĦ Î¿
Ġges ch
< <
Ġz omb
der n
Ð°Ð»ÑĮ Ð½Ð¾Ð³Ð¾
ĠJup yter
- ended
R ole
u int
Ð¾Ð³ ÑĢÐ°ÑĦ
Ġfail ures
Ġtiss ues
ĠInnov ation
Ð¾ Ñİ
ĠW ay
Ġem pre
Ġìŀ Īëĭ¤
Ġuns upervised
e en
w ie
ç Ĥ¹
Ġd rain
ĠM alt
Ġatt ent
18 2
') )Ċ
ç§ į
Ġdepart ure
aild aild
as ures
ple ted
ord inary
Ġref ined
ĠSup reme
Resume Game
B ay
d epend
l ace
Ġre charge
Ġapproach ing
Ð¾Ð¿ ÑĢ
Ġdest in
ĠHy per
Ġtrig gered
artic ip
ç« Ļ
s ummary
Ġc tx
Ġnight club
Ġfrequ encies
ï¼ļ Ċ
Ġmaggi ore
T erm
ĵ ç¯
Ð¾Ð· Ð½
ĠÐµ Ð¼Ñĥ
cy cle
ĠÙħ Ø¹
Ġsarc asm
B usiness
F ER
ĠF A
Ð¾Ð± Ð¾Ð´
Ġnecess Ã¡rios
()` ,
Ġabs urd
Ġcou nc
Ġfuncion a
.âĢĿ Ċ
Ġenum erate
Ġp ada
is iÃ³n
Ġd av
Ġd umb
ol le
Ġcl one
Ġregard ed
Ġbar rier
Ġcomment ary
ĠBet ter
Ġdol or
Ġotten ere
c sv
Ġel as
ub us
com ed
Ġpres erving
kt ur
Ġwond ers
ĉ NAME
Ġs ore
ut ors
ĠC OR
Ġestab a
Ġmes ure
Ġl leg
Ġthick ness
ĠLMS YS
Ġbeso ins
Ġcount less
Ġcome Ã§
ĠÐ¼ÐµÑĤÐ¾Ð´ Ñĭ
m ission
ĠC iao
Ġch iam
Ġass unto
ĠÐ½Ð° ÑĢ
Ġrend imiento
Ġac quire
ĠJ ahr
Ġlar go
Ġcm d
person al
- col
Ġex pon
Ġover ly
Ġrequest ing
Ġorig ins
ĠRes ources
zust ellen
Ġro cks
Ġrev iewer
Ġhacer lo
Ġmer ch
ĠPlay ers
T ER
Ġas pir
ec ution
Ġvess els
ĠKo ala
Ġingl Ãªs
J ava
Ġp az
Ġof t
Ġn ÃŃvel
ĠS el
ĠP ri
ms g
ä» ĸ
ĠIm m
Ġnos so
Ġprobl Ã¨mes
' import
c ery
.s leep
ĠIs s
Ġpend ant
( id
Ġg ee
Ġex ports
Ġ* Ċ
27 0
ĠÐ¾Ð¿ ÑĭÑĤ
Token izer
i are
Ġa Ã±o
Ġla quelle
ĠU nt
ĠAn al
ĠÐ½Ð°Ð¿ Ð¸ÑĪÐ¸
Cons ider
i ore
ĠE t
Ġel ler
Ġris ult
14 5
ĠmÃ¶ g
Net work
Ġtrein ado
Ġr ou
ĠIt em
rop ol
Ġprevent ion
Ġmil est
Ġaer ospace
ç ¾
Ġdire ito
Ġsaf er
Cont ainer
Ġvert ices
ÑĥÐ³ ÑĥÐ³
Ġinsect icides
Ġaval iar
pt r
og ene
ĠØ§ÙĦ ØŃ
Ġgen au
isto ire
at r
Ġh ike
ĠÑģ ÑĥÐ´
Ġend urance
Ġbas a
Ġgen ocide
Ġsym met
ĠÐ¿Ð¾Ð¿ ÑĥÐ»ÑıÑĢ
Ġw arrant
il ot
Ġpe qu
ID E
Ġadministr ator
Ġlandsc apes
ĵç¯ ĵç¯
C ependant
H um
T ech
_ address
ĠB ad
te il
Ð¿ Ð¾Ð²
Ġpo op
ÑĤÐ¾ Ñĩ
Ø§Ø ¬
ĠÐ¸ÑģÐ¿Ð¾Ð»ÑĮÐ· ÑĥÑİÑĤ
uff y
-M ethyl
ĠDeutsch land
-jud gmental
ĳ Ĳ
ÃŃ lia
Ġtext os
Ġfr iction
unt ime
'h Ã©s
ĠLittle GPT
r ants
å ĸ
Ġac ron
ari ous
Ġph ones
Ġfail ing
Ac cess
Ġastron aut
u Ã§Ãµes
Ľ Ħ
on der
Ġd iz
ĠM icro
Ġpl ag
Ġve gan
ĠÐ¸ÑģÐ¿Ð¾Ð»ÑĮÐ·Ñĥ ÐµÑĤ
i ology
Ġb ou
am ientos
Ġall uring
Ġlet ra
æ° ´
Ġch apters
Ġprom over
Ġmem e
oph ie
< br
å Ħ
ĠH or
Ġg it
Ġse per
pre hens
Ġpres cription
ÃŃnÃŃn ÃŃnÃŃn
- all
H ost
_ |
Ġpr ince
ÑģÑĤÐ² Ðµ
Ġfreed oms
Ġescri bir
m id
ĠFr ont
ê° ľ
ĠÐ¢Ð°Ðº Ð¶Ðµ
Ġj aw
no ÅĽci
Ġsitu aciÃ³n
ron ics
Ġdise Ã±o
Ġchick ens
Difficulty Dialog
ÐĶ Ð»Ñı
Change DifficultyDialog
G A
Ġw orm
Ġj etzt
Ġfe ito
Ġviol ating
Ġeat en
å¤ ®
Ġprojet os
Ġabord agem
Ġinters ection
ĠìĬ ¤
id ays
ĠC ONT
oc aly
Ġent w
Ġco le
Ġcent ered
roll ing
ĠÐ´Ð¾Ð»Ð¶ Ð½Ð°
d os
her ic
Ġteam work
ÑĥÐ¶ Ð´
Ġinsp iring
Ġnegot iate
ëħ ķ
Ġunfor gettable
Ġla und
Ġrespon de
Ġstr ument
ĠĊ ĠĊ
Ġtrop ical
] ;ĊĊ
{ \
Ġo re
al led
Ġdet er
uc he
Ġscript ing
Ġdom inate
Ġtou jours
ĠComp et
Ġdispon ible
ĠdiffÃ©rent es
P rop
v icuna
ch ten
Ġche ating
Ġsp icy
ĠÙĪ Øª
ĠSw iss
ĠÐ°Ð½ Ð³Ð»
ĠPa ulo
inner HTML
Ġalgorit mos
b ia
Ġpar Ã¡
Ġra ising
Ġdecision es
zen ia
ĠExper t
a uf
Ġa hora
ĠA st
ĠÐ¼ Ð¾ÑĢ
Ġmov imento
Ġlower case
æĢ Ŀ
Ġaccel erate
} )Ċ
ê ´Ģ
ent ed
ĠĠĠ ĊĊ
ĠI reland
ĠP osition
ater n
Ġdef init
Ġplace holder
ÑĢÐ° Ñĩ
Ġsho oting
çĶ¨ æĪ·
å®ģ åı¯
ĠDev Ops
Ð°Ð½ ÑĮ
ĠCh ief
Ġmem Ã³ria
ä» Ĭ
ĠÐ¾Ð± Ð½Ð¾Ð²
conom ic
Ġthought ful
å¾ Ĺ
ĠGard en
å®ģåı¯ å®ģåı¯
L ove
ĠW in
ang les
Ã¼ ber
Ġih m
Ġre un
ce gli
ĠD ise
ĠO SI
Ġdet tag
Ġpref eren
ĠÑĢÐ°Ð· Ð´ÐµÐ»
æĹ ¶
æľª å¤®
ow s
cri vi
Ġcompet it
ĠPlan ning
ĠÐ¿Ð¾ÑĤ Ð¾Ð¼Ñĥ
æľªå¤® æľªå¤®
/ M
L os
c ision
Ġc rie
qu et
Ġmes mer
LO G
. In
_ query
ê ·
Ġmod al
ĠN ormal
Ġbound ary
Ġincorpor ates
ĠÐ²Ð½ ÑĥÑĤ
/ bin
Ġv est
ĠA gricult
Ġme iner
ĠB arcel
ĠO CR
Ð¾Ð´ ÐµÐ¹ÑģÑĤÐ²
ä¸įåı¯ è§ģ
ĠÐ½ ÐµÐ³Ð¾
ĠÐº Ð°ÑĢÑĤ
Ð¾Ð½ ÑĤ
IST ER
Ġentreprene ur
í ļĮ
ĠH al
Ġbus c
å® ¹
app ro
ÐµÑĢÐ¶ Ð´
Ġapproxim ate
ĠspÃ©c ifiques
- J
I ES
\ end
p df
ĠÑįÑĤ Ñĥ
- ass
B N
u ros
ĠZ ero
-f or
Line ar
Ġre current
erc ase
load er
Ġdiagn osed
cipl inary
ĠH il
ĠWe bsite
. go
Ġst ark
ĠÃ ĸ
Ġappreci ated
Ġvent ilation
F E
ow y
ĠN BA
ĠV ue
Ð¸ÑĤ Ð¾ÑĢ
Ġlimit ing
Ġmad re
c ke
ĠA LL
Ð» ÐµÐ¹
du ate
Ġalg Ãºn
ĠPal ace
ÑģÑĭ Ð»
ill es
and le
Ġoff line
_p red
Ġsho e
Ġconstru ir
rystall ization
/ a
Ġm ari
est ial
Ġë ©
Ġenc ore
ä» £
Ġcrit ically
Ġbibliotec as
B uffer
i ÄĻ
id ers
Ġdistrib utions
Ġaf irm
Ġutilis Ã©es
Ġíķ Ħ
Ġle ague
Ġso b
ĠJ OIN
Ġhand ler
Ġdec ade
Ġclean ed
AS K
Ġprincip ales
ĠEvalu ation
Ġse an
ĠÑģ Ð¸Ð½
Ġel astic
Ġpun ish
ĠÐľ Ð¾Ð¶
uls ion
Ġtarjet a
o ic
st ory
ist i
art a
Ġres in
Ġfun g
Ġmain land
ission ais
ĠPar liament
ĠWar ning
Ġcelebr ated
Ġcham ada
select ed
stell ung
ĠÐ´ÐµÐ¹ÑģÑĤÐ² Ð¸Ñı
Ġcous in
Ġìĸ´ë ĸ
Ġsu gest
ect ed
ĠCom plex
Ġsw elling
ĠdÃ© pend
Im port
Ġthreat ened
Ġwel comed
P Y
s orted
Ġs ant
ĠB ridge
Ġte aches
Ġ[ ]ĊĊ
Ġbu en
ĠÑĢ Ð°ÑģÑĤ
pre fix
Ġadvert is
ĠEvery one
n ym
ï »
od al
ab an
Ġref ere
ĠSp ot
rad as
Ġprogress ive
n n
Ġcon os
ĠÐ² Ð¾Ð»
ĠÐº Ð°Ð¼
Ġret ro
Ġbo obs
()` .
Down stream
ĠÐ¼Ð°ÑģÑģ Ð¸Ð²
L ear
Ġst all
Ġme ille
ĠÐŁ Ð¾Ð´
ĠEst ou
Ġfair ly
Ġtrabaj ar
Ġfolg enden
- type
Ġ ĉ
ĠF act
ath on
ĠÂ ·
Ġbegin ners
ĠÑĦ Ð¾ÑĤ
Ġentertain ing
Contin ue
Ġaff airs
Ġport a
Ġcrit ique
Ð°Ð»ÑĮ Ð½Ð¾Ð¹
Ġsett led
Ġtail or
ĠSer ial
ĠReturn s
FI LE
Ġfert ility
ĠìķĮ ëł¤
Preg unta
( ()
un ts
ĠF ilter
à¸ ¹
Ġav ons
Ġcar ga
Ġlib eral
Ġprot ests
aly se
Ġbound s
ĠÐ¼Ð¸ÑĢ Ðµ
_ response
ĠC ut
ĠP ain
Ġwhat s
å®ĥ åı¯èĥ½
Ġspecial ize
ÑĭÐ² Ð°ÐµÑĤÑģÑı
Ġlang chain
ĠëĮĢ íķ´
Ġrig orous
Å¾ e
Ġterr ified
Ġjack et
F ore
Ġl ent
ãĤ ı
Ġpot rebbero
Ġcross ed
Ġpan ic
Ġìłķ ë³´
l age
es ian
ic ode
Ġfile d
Ġdest ro
Ã¡tic os
" ))
Å º
í ģ¬
Ġad oles
Ð¾Ð³ Ð»Ð°Ñģ
Ġmat ched
yl on
.p ro
Ġdomain e
ĠÐ½Ð¾Ð²Ñĭ Ñħ
ogg le
ĠPho enix
' Ã¨
Ġb ol
Ġen com
Ġmanufact ured
Ġpun ished
ãģ« ãģ¯
Ġheav ier
ÐºÑĨ Ð¸Ð¸
ÑĤÐ² ÐµÑĢÐ¶Ð´
è Ĳ
Ġstart Game
Ġcomplex es
ump ed
She et
Ġutilizz ati
Ġpesso al
Ġcatch y
Ġmens aje
ç½ ®
Ġëĭ¹ ìĭł
ĠAdm iral
Ġenzym es
t f
he a
Ġh ue
ap hrase
Ð°Ð»ÑĮ Ð½Ð¾
ĠðŁ ĳ
Ġconsult ar
atter y
Ġreact ed
Ġpoly ureth
ĠØ§ÙĦØª ÙĬ
h ous
ĉ D
om i
ĠD ragon
ĠE lement
Ġexpl ode
Ġgarant ire
Ġtrabal h
ĠÐ¿ÑĢÐ¾Ð³ÑĢÐ°Ð¼Ð¼ Ñĭ
m Ã¤
í Ĺ
Ġm ism
ant ine
ĠG as
ip ment
Ġstr at
Ġprocess amento
Ġent ropy
Ġsl ides
-f i
Ġsus cept
ĠPur ification
Ð°ÐºÑģ Ð¸Ð¼
t xt
Ġd all
Ġout lined
Ġer stellen
Ġfl ights
do ors
Int eger
ĠÑĢÐ°Ð±Ð¾ÑĤ Ð°ÑĤÑĮ
ĠmÃ¡ ximo
Ġinsect s
Ġn at
il ly
ind rome
Ġpar sing
we g
ãĢ Ģ
ativ amente
- je
ay ing
ĠHe at
Ġdel ta
Ã¨ g
_t itle
Ġce iling
Ġthr illing
ĠNet flix
ĠmÃ©t odos
R ect
Ġag gi
Ġref iere
ĠÐ²Ñĭ ÑĢÐ°Ð¶
22 2
Ġsul le
D T
V A
[ Instruction
f ess
k at
à ¶
Ġt Ã£o
ĠM ah
Ġ' ,
ĠÑģ Ð¾ÑĤÑĢÑĥÐ´
Ġag ility
ĠÑĢ Ð¾Ð´
Ġwarm ing
ĠMed iter
Ġul terior
( user
Ġvari ance
() )ĊĊ
ĠØ ¢
å¿ ħ
Ġfro zen
ĠÐ¼Ð°ÑĤÐµÑĢÐ¸ Ð°Ð»
f ight
er ial
ib ration
gr as
rit is
mb H
Ġrad ical
Ð¸Ð¿ ÑĤ
V ersion
Ġtra ject
Ð¾Ð² Ð°ÑĤÐµÐ»ÑĮ
Ġbre ed
à¤ Ĺ
Ġstrong est
Ġsw ollen
") )Ċ
Ġlever aging
w his
le e
Ġv ant
Ġpl ug
Ġent itled
az ep
Ġz o
Ġdiv ent
åĲ ¦
ĠÐ²Ñģ ÐµÐ³Ð¾
à¥įà¤ ¯
Ġd ye
Ġfor Ã§a
ĠHealth care
ãģĭ ãĤī
ill o
Ġih rem
ÐµÐ½ÑĮ ÑĪ
ĠÐ¸ÑģÑĤ Ð¾Ñĩ
Ġlegis l
. remove
C y
Ġ ions
ĠW arm
Ð± Ñĭ
Ġsl iding
Ġreflect ing
ĠÑįÐºÑģÐ¿ ÐµÑĢ
h ire
Ġb oring
em ption
Ġqual c
Ġmention ing
het amine
ĠDies e
Ø ¦
ĠS ports
av id
Ġfac ile
Ġconfident ly
Ġelectr Ã³n
Ġrif er
> NAME
iss Ã£o
ĠÐ¸Ð½ Ð´
ĠPer fect
ĠÐ´ÑĢÑĥÐ³ Ð¾Ð¹
åł ´
- risk
Ġw ars
Ġch ol
Ġtr Ãªs
Ġtw in
ric as
Ġassoci ate
Ġsequ ential
acion ais
azi enda
. G
Ġ á
Ġse al
ag ne
ick er
ĠCom pute
Ġvan illa
Ġlav or
Ġecosystem s
ĠLGBT Q
/ bash
H ay
æ º
Ġre lying
il ia
se e
Ġbl ush
Cont act
Ġdos age
Ġattract iveness
ĠOther s
Ġmasturb ation
ĠWi Fi
Ġdelim ited
Soft ware
ÐµÐ³Ð¾Ð´ Ð½Ñı
_ i
s ur
Ġp ai
ĠM ich
ĠW el
Ġbo a
Ġcred its
ĠÐ¸Ð¼ Ñı
Ġestim ation
ĠRead ing
EG IN
D u
ĠB M
ĠK y
mer ican
ĠCont ract
ĠViet namese
ĠT our
Ġfra g
ĠëĶ° ëĿ¼
Ñĥ ÑĢÑĥ
ĠF ar
ĠF ill
Ġpe ers
com merce
ĠØ µ
18 3
tr ifluoromethyl
fo ot
Ġmerc ato
Ġvert ex
' ar
t imestamp
Ġ ),Ċ
Ġtrans c
Ġassist ente
ĠÑģÑĤ Ð°ÑĢ
Ġhistor iques
Ġë§ Ĳ
st yles
Ġde bris
20 6
Ð¼ Ð¾Ð²
Ġprocess ors
ix ed
Ġcos as
ĠEr f
ãģ¾ ãģĽ
ĠÑĪ ÑĤ
Ġconfigura Ã§Ã£o
) =
s ave
è ©
Ġt ama
Ġm und
Ġo x
Ġb ent
ĠD AY
ĠIn side
Ġreg ain
.p arse
lu a
Ġsout heast
ĠÐ¾Ð·Ð½Ð°Ñĩ Ð°ÐµÑĤ
u ilt
Ġ ä½ł
ĺ Ĳ
Ġm ock
ec d
Ġsign ing
ĠÐ§ ÑĤÐ¾
o ire
v ir
Ġche f
Ġsp am
ĠÐ¿ÑĢ Ð¸Ð³
Ġcompre ensÃ£o
Ġcut s
Ġhero es
Ġzur Ã¼ck
'util isation
Ġexhib its
Ġtum or
_ L
er ver
Ġper chÃ©
Ġequ als
Ġdeep est
board ing
O RE
Ġc arte
Ġsh ield
Ġtrans itions
Ġwhere as
Ġcir cles
Ġcas c
Ġadm ire
Ġgro ÃŁ
Ġjung le
Ġcurric ulum
Ġpro xim
Ġdivers as
å®ĥåı¯ä»¥å®ĥåı¯ä»¥å®ĥåı¯ä»¥å®ĥåı¯ä»¥ å®ĥåı¯ä»¥å®ĥåı¯ä»¥å®ĥåı¯ä»¥å®ĥåı¯ä»¥
ĠÑħÐ¾Ñĩ Ñĥ
- attention
. Print
Ġf ats
ro verted
ot inic
ra zione
ret end
-pro v
.n n
Ġhop es
Ð½Ñĥ ÑĤÑĮ
ĠG ot
Ġ} ;ĊĊ
18 7
Ġneg atively
Ġje u
ĠPr im
Ġann oy
Ġdetect ive
oh l
ĠrÃ¡p ida
- Ð»
. ',
K EN
S ection
V D
it ate
ĠU ma
Ðº Ð°Ð¼Ð¸
Ġinter ventions
ĠCo oper
amp a
Ġprim o
åħ ¬
Ġclim bed
Ġband s
2 24
T u
Â ¡
Ġra ison
Ġcost o
Ġcontrib u
Ġcontact ing
_C ONTENT
Ġconfront ation
éģ ĵ
ĠDom in
í Ĩµ
Ġf rench
Ġme gl
Ã¡ nt
.d b
Ġcommand e
Ġviol ates
ĠDE FAULT
Ġtrig gers
Ġattend ant
ç§ģ ãģ¯
Ġcircu its
) $
Ġbe z
Ġag g
Ġdu ck
Ġblock ed
Ġvom iting
ĠStrateg y
#! /
S in
r ors
å ¢
ĠT alk
Ð» Ð¾Ð¼
Ġcl itor
ĠN anjing
ost on
Ġfind en
ocus ed
-p aced
ding ding
Ġtour ism
ë° ĺ
ĠAlp ha
Ġbacter ial
- ray
ĠS oy
ĠÐ½ ÐµÐ²
Ġes f
Ġz n
ĠK ind
Ġfl ags
Ġconsist e
ĠÑįÐ»ÐµÐºÑĤ ÑĢÐ¾Ð½
m atch
el ly
ĠS entiment
ist ence
ac ious
cl usive
() ,Ċ
Ġsol uÃ§Ã£o
Ġorgan is
ĠÐ²Ð¾Ð·Ð¼Ð¾Ð¶ Ð½Ð¾ÑģÑĤÐ¸
ĠCOMM ENT
G D
el h
ĠA verage
ĠD Ã©
ĠB and
ĠCO MP
æ¢ §
( numbers
S ales
ra q
ĠF riend
ne j
aut og
ÑĢÐ° Ñħ
Ã¨re Ã¨re
á»ĩ t
Ġac ima
Ġfol ders
Ġmet eor
.c ss
Ð¸ÑģÑĤ ÑĢ
Ġaccompl ishment
ä¿¡ æģ¯
ĠÃ® n
H ttp
r ato
ĠÐ ¹
ĠV ersion
() ()
Ġprof issionais
Ġrich ied
Ġaseg ur
_ ST
k on
es is
ĠL L
ĠO wn
Ġentre prises
oche mical
Ġì¢ ĭ
ãģ¾ãģĽ ãĤĵ
Ġ ÅĽ
re lu
ce re
Ġpr z
Ġsim ulations
") ,Ċ
Ġllev ar
Cor rect
> The
T en
Ġdis pute
Ġvari Ã¡vel
Ð°Ð» Ð°ÑģÑĮ
ove re
irt i
ĠÐºÐ¾ÑĤÐ¾ÑĢ Ð¾Ð¼
Ġarchitect ural
abil idades
sequ ence
Ð¸ÑĢÑĥ Ð¹
Ġlegend ary
æ¢§ æ¢§
Ġt á»
ĠS MS
ĠV alid
Ġsay a
ze ch
Ãº rate
Ġsil ent
ĠSw itzerland
ĠRef erence
Ġbo iling
ãģĦ ãĤĭ
Ġtun ing
Ġh orses
Ġch unks
ĠR ange
ĠG mbH
Ġver bal
ĠAnd a
Ġcond ens
Ġsecond a
Ġinte resse
ĠmÃ©d ico
Ġcomplain ing
ĠPharmaceutical s
Ġnov amente
ynchron ous
ĠN orthern
Ġact ividades
Ġcent re
ĠCre ative
irm ative
Se curity
Ġrelacion adas
Ġexhaust ive
an ed
ce u
Ġun ters
ard ed
Ġca f
ÑıÑĤ ÑģÑı
Ġban anas
\ begin
s pring
qu ential
Ġ( +
vel te
Ġagre ements
Ġdiction aries
-A mino
Ġcamb io
ĠIter ate
ĠVormon at
Ġsp esso
Ġgen itals
oo oo
ĠSim ple
urch ase
-pack ages
ĠM AC
Ġam ine
Ġide ias
Ġball oon
ĠìĦ ł
ĠSa udi
? âĢĿ
un wrap
ĠL age
Ø§ Ùĩ
Ġmult im
Ġfeature d
Ġìĺ ¤
Ġhier arch
c hers
ĠP H
Ġun ch
ual e
Ġlo vely
ĠEx port
Ġlot tery
ĠStart ing
it ura
Ġu b
ult y
Ġsw ift
lt k
Ġcos Ã¬
Rob ots
, -
Ġt ons
Ġl ag
Ġse afood
ĠN azi
ĠCh ile
ĠAd venture
Ġcompet ing
ĠPh otos
Ġlat ency
Ġfa Ã§
Ġgreet ed
ĠIncor por
Ġambigu ity
Ð» Ð°Ð²
Ġprodu its
Ġer otica
Ġident ities
Ð²ÐµÑĤ Ð²ÐµÑĤ
ë¯ ¼
Ġdesaf ios
åĻ ¨
hed ral
Ð»Ð¸ Ð½
Ġenc ant
Ġmach st
Ġur gent
æľ Ł
ĠÐ´ÐµÐ» Ð°ÑĤÑĮ
Ġantib iotic
ĠÐ¿ÑĢÐ¸Ð»Ð¾Ð¶ ÐµÐ½Ð¸Ñı
ĠÐ²Ð½Ð¸Ð¼ Ð°Ð½Ð¸Ðµ
ou rier
ra is
form e
Ġfin ancing
Ġins ieme
Ġcand y
Ġportug ues
f are
v ens
il k
ĠB ud
ĠÑģ Ð°Ð¹ÑĤ
ĠÐ¼ Ð¾Ñı
ĠÑĦ Ð¸Ð½
Ġcolle ague
Ġembarrass ing
Ñĳ ÑĤ
ĠØ§Ø ²
ar an
ĠR ES
As ync
Ġdim ens
Ġvir uses
-car boxylate
ĠÐ°Ð²ÑĤÐ¾Ð¼ Ð°ÑĤ
Ġenferm ed
T arget
Ġf og
ri um
pp ings
Ġch ord
end l
Ġhum ain
Ġconstruct ed
ä¿ Ŀ
Ġcomplain t
, Model
ĠF ig
Ġ[ {"
ĠCom pl
Ġris post
Ġemoc ion
Ġle y
ĠÑĢ Ð¾ÑģÑģ
ĠRes ource
Ġë§ İ
A ctive
B E
d im
t ake
Ù Ĳ
ĉ F
Ġre cre
Ġfun Ã§Ãµes
ìĿ´ íĦ°
Ġreview ed
ĠPre paration
Ġroleplay ing
Ġplataform as
C ut
Ġin just
Ġpr atic
arm a
Ġart ific
ĠEng age
zz le
'h istoire
Ġblow job
4 80
Ġj ail
Ġsw o
Ġcrypt ography
Ġcham ado
Ġcrow ded
ĠÐĿÐ°Ð¿ Ð¸ÑĪÐ¸
Ġreject ed
d ays
Ġth rows
ari um
Ġval ve
Ġinter v
ten ance
ĠâĢ ¦
Ġbi od
P ad
Ġpro long
ĠS icher
ĠÐ¿ ÑĭÑĤ
ĠÑģ ÑĥÐ¼
P ORT
Ø ¥
id able
Ġer fol
Ð¾Ñģ ÑĥÐ´
Ġhead ache
Ġsold ier
' azienda
C ustom
Ġs are
od ule
ĠO d
Ð°Ð½ Ñĭ
AN G
Ġwrit ers
Ġbas il
Ġcoefficient s
ĠChatG LM
he nd
ator ies
ÙĨ ÙĬ
Ġnorm as
ĠÑĩÐ°ÑģÑĤ Ð¾
ALU ES
Ġarrange ment
: The
S ession
h ua
Ġsh out
Ġj ue
ĠÐ¼ Ð°Ñģ
16 5
Ġgi oc
Ġdiagram s
ĠÃºlt imo
Ġidi oma
! --
_ position
it ance
il ha
Ġend ere
ĠEst ados
Ġthrust ing
Count ry
ĠH ab
Ġquest Ãµes
Ġinv ention
ĠÙĪØ§ÙĦ Øª
R ule
] +
v it
ro z
Ġcomp ares
ĠMal ays
Ġinclus ivity
rane an
m u
Ġest rateg
Ġide ology
ä» »
ĠNa N
ĠDepend ing
. init
Ġh alt
Ġn az
ĠS ha
Ñĩ Ð¸Ð²
ne ath
Ġbre ve
Ġterm ine
-p yrimidin
Ġvot ing
ĠØª ÙĪ
Ġconven ience
Ġimmig rant
r ale
st eps
Ġal lev
ĠW alk
ĠY OUR
Ġsome where
Ø§Ø µ
Ġmush rooms
in nen
ent ing
ĠC ri
ĠL ength
Ġpr one
Ġconcl ude
éĩ ĳ
Ġsan it
V ari
ĠH ER
enc oder
Ġterm os
Ġachieve ment
Ġfuncion ando
Ġconve ys
s im
ru le
ĠÐ² Ð¾Ð¹
ĠÐ¿ÑĢ Ð¸Ð´
Ġposs ui
Ġ$ (
Ġfl aw
ze pt
Ġfarm ing
Ġconfigura ciÃ³n
áº¿ n
)p yrimidine
h re
Ġb ard
om at
ĠS Ã¬
Ġtot ally
Ġsil ly
ĠÙĩ Ø°
ĠPay ment
áº£ n
> .
_ entity
r g
Ġsystem atic
Ġverb ess
ĠÐ²ÑĭÐ¿Ð¾Ð»Ð½ ÐµÐ½Ð¸Ñı
Ġv iel
ĠS uddenly
ĠD ouble
Ġclear ing
Ġincluy en
. height
ch ildren
Ġst iff
ific ate
Ġì µľ
Ġco hes
IM IT
Ġdim in
st o
ĠT emple
Ð² Ð°ÑĤ
ÄĻ zy
Ġrelig ions
Ġdia per
ÐĿÐ°Ð¿ Ð¸ÑĪÐ¸
" S
Ġp raz
ĠT ab
Ġsp ices
ft ime
Ġca fÃ©
ĠÐ³ ÑĢÐ°ÑĦ
object s
Ġtun nel
CRE EN
Ġhund reds
Ġc ure
Ġv uel
ack age
ĠìĦ ±
ĠÑĩÐ¸Ñģ Ð»Ð¾
# :
( R
Ġd iced
Ġv ice
Ġ` @
Ġes egu
Îµ ÏĤ
ĠInvest ment
ĠìľĦ íķ´
Ġagreg ar
. O
. ai
A uth
ì ¡°
Ġas p
ĠCh icago
Ġris ol
Ġbi etet
Ġpret ending
Ġtout es
Ġch ia
Ġwas hed
Ġdis se
Ġtext ures
ced ure
å®ĥå®ĥå®ĥå®ĥå®ĥå®ĥå®ĥå®ĥå®ĥå®ĥå®ĥå®ĥå®ĥå®ĥå®ĥå®ĥ å®ĥå®ĥå®ĥå®ĥå®ĥå®ĥå®ĥå®ĥå®ĥå®ĥå®ĥå®ĥå®ĥå®ĥå®ĥå®ĥ
in ja
Ġp ine
ĠThe ory
ĠH az
ĠÐ¼ ÑĥÐ¶
lich keit
èĭ ±
b f
c ite
Ġad orn
Ġpo i
Ġredu cir
Ġdr unk
Ġdesarroll ar
g ument
er d
il let
Ġg lor
ch ild
ra cial
Ġcon ditional
ĠĠĠĠĠĠĠĠĠĠĠĠĠĠĠĠ ĠĠĠĠĠĠ
Ġpor k
.âĢĿ ĊĊ
Log in
Ġtrat ar
Ġnuo vo
m ys
y t
om ed
ac co
ĠD ans
Ġimm ense
Ġextra ordinary
Ġnipp le
Ġtroublesho ot
e ven
iss ing
ĠAnd y
Äĥ ng
ĠProgram m
Ġscan ning
Ġgover no
Ġlong ing
ĠDe ad
Ġrough ly
Ġpreu ves
Ġmegl io
í ı
ĠTh ird
ĠCo ol
åĪ «
Ġdead lines
Ġreb ell
Ġconvincing ly
C ard
Ġfor cing
00 3
Ġconst it
" We
b il
Ø§Ø Ń
Ġdr ift
can vas
Ġhier archy
V e
Ġg ifts
ÑĢ Ð¾Ð·
Ġpl asma
ĠÐ² Ð¾Ð·Ð´
Ġ' __
ĠÃ ¢
ĠÐ¿ÑĢ Ð¾Ñģ
-car bon
Ġjump ing
ĠÐºÐ°ÑĩÐµÑģÑĤÐ² Ðµ
Ġre command
Ġdire tÃ³
Ġseg unda
icht ige
Ġhonest y
æİ ¥
/ cell
_ item
m ens
ver ter
Ġma id
Ġprocess os
Ġspecific s
Ġins ulin
Ġvill ain
åħ ¶
ahren heit
Ġsacrific e
ĠS ud
Ġvers us
-s peed
Ġtables poon
ĠÐ°Ð² ÑĤÐ¾ÑĢ
. event
Ġp ond
id el
Ġg erman
ĠP ra
ĠO lÃ¡
ÐµÐ» ÐµÐ½
enz ione
Ġfu ente
Ġà¤ķ à¤°
: ',
Ġun common
velop ed
ner ner
Ã¤ che
à¤ ¹
ĠLe ben
Ġaus ge
Ġaplic ar
Ġmicro organ
ĠTk inter
Â¬ Â¬
P in
Ġs agen
Ġb ik
st off
Ġcre azione
ĠCom pare
Ġeconom ist
Ġmanip ulative
Ġpesso ais
ãģĵ ãĤĵ
Ġtempor al
Ġl ungs
am er
row ing
ĠCre a
LO C
Ġkh Ã´ng
- en
Ġto i
Ġde leg
Ġpro cure
op hen
ãģ ¿
app ly
Ġgen etics
.f ill
Ġrepl en
æķ Ļ
Ġjak o
ĠPR IMARY
ĠBeaut iful
. se
> :
s entence
Ġf oster
uch ar
âĢĻ ,
Ġpri ze
Ãł o
Ġge ometric
Ġadapt ation
nes nes
'util izzo
BO X
Ġbenz ene
Ġg room
Ġany way
Ġ{ }Ċ
Ġsp as
ĠJ ak
ĠDe ath
Ġview ing
Ġgot ten
Ġamb itious
ĠNe ed
ĠAlg uns
Ġajust ar
.check Collision
Ġest udo
St orage
Ġdecis Ãµes
Ġbound ing
ĠGu ard
Ã©ri ence
ÃŃ du
che my
-f itting
ĠÐ» Ð¾Ð³
., .,
reg ister
ĠList e
ĠDet ails
_n ames
ĠÐ´Ð² Ð°
Ġa k
Ġn iet
ĠE p
ĠW ood
Ġcall back
ĠÐ¾Ð´ Ð½Ð¸Ð¼
Ġkill er
ĠUnivers um
ĠelÃ© ct
Ġf oto
ĠR y
Ġrem ot
Ġlog ically
Ġimplement ar
ĠFe el
×Ļ× ª
Ġconstru Ã§Ã£o
-te ch
B ERT
d isf
Ġfor g
ĠÐ¼ Ñĥ
åį ķ
ĠÐ¸Ð¼Ðµ ÑİÑĤ
ĠAlg umas
eme ins
Ð°Ð½ Ð¸Ñİ
Ð³ Ð»ÑıÐ´
plit ude
å½ ¢
Ġble eding
ĠÐ°Ð²ÑĤÐ¾Ð¼ Ð¾Ð±
n em
Î ¾
ang s
_s ub
Ġanc est
ĠList en
Ġpyt tsx
Ġconcaten ate
Pol icy
ĠmÃ£ e
-min ute
Ġy ap
ĠU t
Ð¾ÑĢ Ð³
Ð¸ÑĤ ÐµÐ»ÐµÐ¹
Ð¼ÐµÐ½ÑĤ Ð°ÑĢ
Ġgerenci amento
ĠREG ISTER
Ġsh ots
ST ER
Ġdeb ido
nes ium
.w idth
) *
o led
le ich
Ġdis fr
Ġstandard ized
product s
benz ene
Ġsemicon ductor
Ġdá»¥ ng
k or
od s
Ġcol ore
Ġcam el
ĠAr my
_s um
cle ar
Ġadm itted
- este
Ġfac il
hol ds
Ġnovel s
ov ie
ãģĤ ãĤĭ
Ġmetabol ism
s end
Ġc abe
Ġex ig
Ġma gg
Ġem it
Ġì ½Ķ
ĠIns urance
ĠMat hemat
Ġbub bles
ĠHin du
( list
_ A
g ia
Ġp hishing
Ġla ce
Ġfr ut
Ġpoint ed
sub process
valu ate
Ġë³ Ģ
ĠSupp ly
Ġawk ward
Ġanten na
Ġadjac ent
Ġun like
Ġpo et
ĠX in
nÃ© e
ĠÑħÐ¾ÑĢÐ¾ÑĪ Ð¾
Ġse arc
her ing
Ñĩ Ð°Ñģ
aterial s
Ġyourself assistant
Ġverd ad
íĥ Ģ
æ¯ Ķ
ãģ¡ ãģ¯
Ġraggi ungere
Ġof icial
Ġe y
Ġund efined
Ġdis pose
ĠUn known
uss ian
á» ĵ
cript ions
arg ument
Ġdettag li
( Q
S un
U G
] ]Ċ
_ add
u id
ĠÐ´ ÑĥÐ¼
Ð¿ Ð¸Ñģ
12 9
40 4
Ġsqu ad
ãģĵ ãģ®
ĠlÃŃ ng
æ¬ ¡
Ġfertil izers
J ohn
Ġj ÄĻzy
Ġjust e
ene z
ìľ ł
-este em
G rid
× ¡
in voice
am as
ÐµÑĤ Ð¾Ð²
Ġpriv ac
Ð°Ð± Ð°ÑĤ
Ġbur den
Ġfat ty
Ġoppos ites
Ġrig id
Ãºs qu
Ġìłľ ê³µ
d m
k st
Ġcor ners
ĠÐ½Ð° ÑģÑĤÑĢÐ¾
ĠCol ombia
ĠLeg end
Ġcylind ers
ĠÐ°Ð½Ð³Ð» Ð¸Ð¹
ĠH ost
Ġdo en
Ġass hole
Ð¾Ð» ÐµÐ²
jour ney
ĠÃŃ nd
ĠdÃº vida
Ġe lic
st it
Ġexpress Ã£o
Ġtri ps
Al g
ĠÐ¿Ð¾Ð´ ÑĢÐ¾Ð±
ĠÐ»ÑİÐ´ Ð¸
spa per
health y
Ġrhy me
Ġmembr ane
A h
R ad
Ġv ic
Ġbl ouse
ĠCom plete
-m ade
Ġcell ular
@ app
b us
gg er
Ġchem otherapy
ì¶ ľ
Ġjuris diction
- content
/ Action
Ġd ib
ĠÐ² ÑģÑĤÑĢ
cont ract
Ġexperiment ation
ĠÑĢÑĥÑģÑģÐº Ð¸Ð¹
ĠEd ge
A le
ly wood
Ġharm on
Ġded ic
Ġovers ight
ĠíĻ ķ
_ json
ç Ħ
Ġ ic
ĠN ap
Ð°Ð»ÑĮ Ð½ÑĭÑħ
Ġinitial izes
ĠIl s
Ġnegot iation
'alt ra
- ol
Ġapp rend
Ġover fitting
Ġprof anity
Ġinvest imento
Ġposition ing
Ġassert ive
ĠTur kish
Ġenerget ic
: ```
M AT
z ÄĻ
ul u
pro v
iest a
z w
re prise
Ġg ama
Ġprodu cciÃ³n
ĠQ t
Ġdefend ant
Ġìļ Ķ
A v
un st
em o
Ġca ffe
Ġhab ÃŃa
? .
Ġco isa
ĠÑĢÐ°Ð· Ð½ÑĭÑħ
ĠÐºÐ¾ÑĤÐ¾ÑĢÑĭ Ñħ
met ro
Ġinterpret ations
ĠCR M
Ġn aj
st udent
ĠH ig
00 5
ĠÐ¿ Ð»Ð¾
Ġz ones
Ð°Ð» Ðµ
ãĥ ł
RE D
Ġenh ancing
Ġcivil izations
Ġenthus iasm
x ico
Å ĵ
is ci
": {"
Ġoff ices
ðŁ Ĳ
Ġpress ures
Ġbit ch
Ġpas se
Ġwel che
- Ðº
r l
Ġdes ider
Ġmod eration
Ã¡ nd
Ð¸ÑĤ ÐµÑģÑĮ
ond ere
_n ode
'app rentissage
Ser ial
.start Button
Ġ×© ×ľ
ĠÐ²Ð¸Ð´Ðµ Ð¾
Ġcot ton
ĠÐ¿ÑĢÐ¾ÑĦ ÐµÑģÑģ
Ġelectromag netic
Ġs ights
Ġd izer
Ġval eur
Ġunder neath
Ġbuild er
Ġcare ers
ĠÐ¸Ð· Ð±
ãģª ãģŁ
Ġpronunci ation
Ġflamm able
ÑĢ ÐµÐ½
ĠÐ¼ Ð°Ð»
Ġpat ches
ik it
Ġsatisf actory
ĠSc ene
-meth oxyp
std io
ë¬ ´
Ġmic rowave
UMB ER
m ay
ed or
ĠN ob
Ġback pack
11 3
Ġcap it
.p redict
ias i
Ġprecis arÃ¡
Ġaltern ate
Ġprest igious
Ä±nd a
Ġinhabit ants
. items
ort hy
ĠD rop
ĠL uego
Ġcomp iled
Ġshe er
Ġimpact ed
-f ound
ĠÐ¼Ð¾Ð¶ ÐµÑĪÑĮ
Ġdead line
Ġdisgust ing
I AL
O k
ĠM und
RA CT
. forward
ul se
Ñģ Ðµ
ac hen
ĠP ER
Ġam igo
íķ´ ì¤ĺ
Ġinquir y
Ġhydr ated
_ amount
Ġc et
ra u
Ġv ais
ĠS ir
Ġall es
Ġnew line
ÑģÐº Ð¾ÑĢ
Ġprompt ed
Ġtransform ing
Ġflu or
Ġgro cery
Ġkom men
ĠÃºlt ima
_ k
Ġem ple
Ġcol una
Ġmet odo
Ġodpow ied
e q
Ð¸Ñı Ð¼
Ð¸Ð» Ð°ÑģÑĮ
ÅĽ li
Ġphilosop hers
Ġsurpr ising
Ġrecept or
" ]ĊĊ
1 19
Ð°Ð½ Ð¾
ĠÎ Ń
ĠSu ggest
Ġbehavi our
Ġinteress ante
ĠÐ±Ð» Ð¾Ðº
Ġenvol v
y d
ĠÑģ ÐµÐ±Ðµ
ĠÐ½ Ð°Ð»
Ġrem ed
ĠSQL ite
ĠÐ²Ð°ÑĪ ÐµÐ³Ð¾
ëį °
íĹ ĺ
om orph
pl ots
ex cept
Ġprom o
Ġcu idad
_m atrix
Ġrev ise
ĠGesch ichte
ĠØ¥ ÙĦÙī
âĢ¦âĢ¦ âĢ¦âĢ¦
Ġbrill iant
ĠM echan
ĠW ow
ĠR oute
Ġmo y
hens ion
Ġdress es
Ġfacilit ates
ĠÐ²Ð¾Ð·Ð¼Ð¾Ð¶ Ð½Ð¾ÑģÑĤÑĮ
rolog ical
Ġtire lessly
D el
_ content
Ġt une
Ġel los
ĠÐ´ Ð¾ÑĢ
Ġsl im
Ġexist em
Ġ× Ľ
Ġlimit es
Ġaband on
Ġtort ure
Ġpray er
k tr
if en
ple asant
olog ists
Â» ,
Ġbicy cle
ĠCath olic
us ic
Ãł y
Ġlight ly
Ġeduc aciÃ³n
Ġgot ta
ãģĤ ãģªãģŁ
fra ge
Ġanterior mente
Ġconex iÃ³n
S ort
T B
ĠC ro
Ġag ing
amp hetamine
Ġbot Ã£o
Ġmilit ants
Ġë§ ¤
ĠÐºÐ°Ð¶Ð´ Ð¾Ð³Ð¾
Ġdiam ond
ĠÐ¶ÐµÐ½ Ñī
_ val
Ġdesign ated
Ġsur real
-b l
40 1
Ġmanip ul
Ġpropag anda
Ġadventurer s
A uthor
Ġg a
Ġpro active
Ã³ d
get s
li est
Ġíķ Ļ
Ġkid ney
[M ETA
. chat
Ġc zy
Ġre ign
un akan
Ġan ecd
Ġas ist
ĠL ive
Ġdef ects
Ġer fÃ¼
Ã¤ tt
ĠAb out
ĠestratÃ©g ia
Ġst ays
ĠL I
Ġsc attered
light en
ĠBarcel ona
Ġt ÃŃtulo
ab ilitÃ©
Ġfil le
ãĥ ŀ
ëĭ ¹
ĠCon c
Ġge f
Ġhom osexual
Ġadvance ment
[...]
