{"<|dummy_0|>":0,"<|endoftext|>":1,"<|fim_prefix|>":2,"<|fim_middle|>":3,"<|fim_suffix|>":4,"<|dummy_1|>":5,"<|dummy_2|>":6,"<|dummy_3|>":7,"<|im_start|>":8,"<|im_end|>":9,"<|im_sep|>":10,"<|dummy_4|>":11,"<|dummy_5|>":12,"<|dummy_6|>":13,"<|dummy_7|>":14,"<|dummy_8|>":15,"<|dummy_9|>":16,"<|dummy_10|>":17,"<|dummy_11|>":18,"<|dummy_12|>":19,"<|endofprompt|>":20,"<|dummy_13|>":21,"<|dummy_14|>":22,"<|dummy_15|>":23,"<|dummy_16|>":24,"<|dummy_17|>":25,"<|dummy_18|>":26,"<|dummy_19|>":27,"<|dummy_20|>":28,"<|dummy_21|>":29,"<|dummy_22|>":30,"<|dummy_23|>":31,"<|dummy_24|>":32,"<|dummy_25|>":33,"<|dummy_26|>":34,"<|dummy_27|>":35,"<|dummy_28|>":36,"<|dummy_29|>":37,"<|dummy_30|>":38,"<|dummy_31|>":39,"<|dummy_32|>":40,"<|dummy_33|>":41,"<|dummy_34|>":42,"<|dummy_35|>":43,"<|dummy_36|>":44,"<|dummy_37|>":45,"<|dummy_38|>":46,"<|dummy_39|>":47,"<|dummy_40|>":48,"<|dummy_41|>":49,"<|dummy_42|>":50,"<|dummy_43|>":51,"<|dummy_44|>":52,"<|dummy_45|>":53,"<|dummy_46|>":54,"<|dummy_47|>":55,"<|dummy_48|>":56,"<|dummy_49|>":57,"<|dummy_50|>":58,"<|dummy_51|>":59,"<|dummy_52|>":60,"<|dummy_53|>":61,"<|dummy_54|>":62,"<|dummy_55|>":63,"<|dummy_56|>":64,"<|dummy_57|>":65,"<|dummy_58|>":66,"<|dummy_59|>":67,"<|dummy_60|>":68,"<|dummy_61|>":69,"<|dummy_62|>":70,"<|dummy_63|>":71,"<|dummy_64|>":72,"<|dummy_65|>":73,"<|dummy_66|>":74,"<|dummy_67|>":75,"<|dummy_68|>":76,"<|dummy_69|>":77,"<|dummy_70|>":78,"<|dummy_71|>":79,"<|dummy_72|>":80,"<|dummy_73|>":81,"<|dummy_74|>":82,"<|dummy_75|>":83,"<|dummy_76|>":84,"<|dummy_77|>":85,"<|dummy_78|>":86,"<|dummy_79|>":87,"<|dummy_80|>":88,"<|dummy_81|>":89,"<|dummy_82|>":90,"<|dummy_83|>":91,"<|dummy_84|>":92,"<|dummy_85|>":93,"<|dummy_86|>":94,"<|dummy_87|>":95,"!":96,"\"":97,"#":98,"$":99,"%":100,"&":101,"'":102,"(":103,")":104,"*":105,"+":106,",":107,"-":108,".":109,"/":110,"0":111,"1":112,"2":113,"3":114,"4":115,"5":116,"6":117,"7":118,"8":119,"9":120,":":121,";":122,"<":123,"=":124,">":125,"?":126,"@":127,"A":128,"B":129,"C":130,"D":131,"E":132,"F":133,"G":134,"H":135,"I":136,"J":137,"K":138,"L":139,"M":140,"N":141,"O":142,"P":143,"Q":144,"R":145,"S":146,"T":147,"U":148,"V":149,"W":150,"X":151,"Y":152,"Z":153,"[":154,"\\":155,"]":156,"^":157,"_":158,"`":159,"a":160,"b":161,"c":162,"d":163,"e":164,"f":165,"g":166,"h":167,"i":168,"j":169,"k":170,"l":171,"m":172,"n":173,"o":174,"p":175,"q":176,"r":177,"s":178,"t":179,"u":180,"v":181,"w":182,"x":183,"y":184,"z":185,"{":186,"|":187,"}":188,"~":189,"¡":190,"¢":191,"£":192,"¤":193,"¥":194,"¦":195,"§":196,"¨":197,"©":198,"ª":199,"«":200,"¬":201,"®":202,"¯":203,"°":204,"±":205,"²":206,"³":207,"´":208,"µ":209,"¶":210,"·":211,"¸":212,"¹":213,"º":214,"»":215,"¼":216,"½":217,"¾":218,"¿":219,"À":220,"Á":221,"Â":222,"Ã":223,"Ä":224,"Å":225,"Æ":226,"Ç":227,"È":228,"É":229,"Ê":230,"Ë":231,"Ì":232,"Í":233,"Î":234,"Ï":235,"Ð":236,"Ñ":237,"Ò":238,"Ó":239,"Ô":240,"Õ":241,"Ö":242,"×":243,"Ø":244,"Ù":245,"Ú":246,"Û":247,"Ü":248,"Ý":249,"Þ":250,"ß":251,"à":252,"á":253,"â":254,"ã":255,"ä":256,"å":257,"æ":258,"ç":259,"è":260,"é":261,"ê":262,"ë":263,"ì":264,"í":265,"î":266,"ï":267,"ð":268,"ñ":269,"ò":270,"ó":271,"ô":272,"õ":273,"ö":274,"÷":275,"ø":276,"ù":277,"ú":278,"û":279,"ü":280,"ý":281,"þ":282,"ÿ":283,"Ā":284,"ā":285,"Ă":286,"ă":287,"Ą":288,"ą":289,"Ć":290,"ć":291,"Ĉ":292,"ĉ":293,"Ċ":294,"ċ":295,"Č":296,"č":297,"Ď":298,"ď":299,"Đ":300,"đ":301,"Ē":302,"ē":303,"Ĕ":304,"ĕ":305,"Ė":306,"ė":307,"Ę":308,"ę":309,"Ě":310,"ě":311,"Ĝ":312,"ĝ":313,"Ğ":314,"ğ":315,"Ġ":316,"ġ":317,"Ģ":318,"ģ":319,"Ĥ":320,"ĥ":321,"Ħ":322,"ħ":323,"Ĩ":324,"ĩ":325,"Ī":326,"ī":327,"Ĭ":328,"ĭ":329,"Į":330,"į":331,"İ":332,"ı":333,"Ĳ":334,"ĳ":335,"Ĵ":336,"ĵ":337,"Ķ":338,"ķ":339,"ĸ":340,"Ĺ":341,"ĺ":342,"Ļ":343,"ļ":344,"Ľ":345,"ľ":346,"Ŀ":347,"ŀ":348,"Ł":349,"ł":350,"Ń":351,"Ġt":352,"Ġa":353,"in":354,"he":355,"re":356,"on":357,"Ġs":358,"er":359,"Ġc":360,"Ġthe":361,"at":362,"en":363,"ĠĠ":364,"or":365,"es":366,"nd":367,"Ġp":368,"ou":369,"is":370,"Ġd":371,"it":372,"Ġw":373,"an":374,"Ġm":375,"Ġf":376,"Ġo":377,"al":378,"ing":379,"Ġand":380,"Ġb":381,"Ġto":382,"Ġin":383,"ar":384,"le":385,"ion":386,"ic":387,"ed":388,"ro":389,"Ġof":390,"as":391,"Ġe":392,"ent":393,"Ġh":394,"Ġl":395,"ct":396,"el":397,"Ġn":398,"us":399,"om":400,"Ġy":401,"Ġre":402,"Ġth":403,"ĠÐ":404,"ĊĊ":405,"ĠĠĠĠ":406,"Ġis":407,"et":408,"Ġyou":409,"ĠI":410,"il":411,"id":412,"im":413,"Ð¾":414,"ve":415,"AM":416,"AME":417,"NAME":418,"am":419,"Ġg":420,"st":421,"ot":422,"ow":423,"ut":424,"ĠT":425,"Ġde":426,"Ðµ":427,"ol":428,"ch":429,"Ġpro":430,"Ġfor":431,"ation":432,"Ð°":433,"un":434,"qu":435,"Ġthat":436,"ĠNAME":437,"ra":438,"Ġbe":439,"ce":440,"ÑĤ":441,"od":442,"Ġcon":443,"Ġan":444,"Ġhe":445,"ig":446,"Ð¸":447,"Ġst":448,"if":449,"os":450,"Ġas":451,"ad":452,"Ġv":453,"ul":454,"ĠA":455,"ith":456,"Ġon":457,"ay":458,".ĊĊ":459,"ur":460,"um":461,"Ġcom":462,"ate":463,"Ġwith":464,"Ġit":465,"est":466,"ers":467,"ir":468,"Ġ\"":469,"ge":470,"ĠS":471,"ly":472,"Ð¾Ð":473,"Ġor":474,"Ġus":475,"ant":476,"Ñģ":477,"Ð½":478,"ĠĠĠ":479,"ri":480,"Ġcan":481,"Ġal":482,"ist":483,".Ċ":484,"ÑĢ":485,"Ġex":486,"ĠC":487,"em":488,"ess":489,"pe":490,"ab":491,"Ġare":492,"ĠThe":493,"ke":494,"ver":495,"'s":496,"Ġha":497,"ort":498,"Ġwh":499,"Ġsu":500,"out":501,"res":502,"Ġqu":503,"Ġse":504,"ac":505,"ment":506,"iv":507,"Ġen":508,"se":509,"ction":510,"ld":511,"pp":512,"oc":513,"ter":514,"her":515,"ere":516,"ĠH":517,"ĠP":518,"Ġne":519,"ity":520,"ust":521,"ore":522,"Ġyour":523,"pt":524,"ill":525,"iz":526,"Ġim":527,"Ġle":528,"th":529,"Ġ(":530,"Ġr":531,"age":532,"ple":533,"Ġnot":534,"nt":535,"ive":536,"pl":537,"Ġun":538,"ure":539,"Ġme":540,"ain":541,"``":542,"Ð»":543,"and":544,"Ġ=":545,"Ã©":546,"ical":547,"ud":548,"ide":549,"ĠM":550,"Ġch":551,"igh":552,"ies":553,"ould":554,"ame":555,"Ġu":556,"Ġk":557,"orm":558,"ĠD":559,"Ġab":560,"end":561,"ine":562,"art":563,"Ġhave":564,"ie":565,"our":566,"per":567,"ial":568,"rom":569,"ĠĠĠĠĠĠĠ":570,"du":571,"ĠE":572,"ĠB":573,"Ġres":574,"Ñĥ":575,"ĠW":576,"Ġdo":577,"ex":578,"Ġsh":579,"ell":580,"Ġcont":581,"form":582,"Ð°Ð":583,"ect":584,"Ġby":585,"Ġher":586,"og":587,"Ġma":588,"Ġat":589,"port":590,"ĠL":591,"Ġcomp":592,"are":593,"Ġwor":594,"cl":595,"op":596,"ĠF":597,"Ġwas":598,"Ġint":599,"Ñı":600,"Ñĭ":601,":Ċ":602,"act":603,"Ġpl":604,"ich":605,"ag":606,"ions":607,"ther":608,"Ġwe":609,"ry":610,"ight":611,"ue":612,"all":613,"Ġj":614,"Ġthis":615,"able":616,"Ġfrom":617,"Ġla":618,"ÑĮ":619,"ĠR":620,"Ġdes":621,"ile":622,"ib":623,"ang":624,"00":625,"ult":626,"Ġad":627,"ass":628,"ome":629,"ÐµÐ":630,"Ġmy":631,"Ġmod":632,"Ġcl":633,"ase":634,"Ġwill":635,"ĠG":636,"ind":637,"ext":638,"ire":639,"Ġar":640,"cess":641,"so":642,"low":643,"ous":644,")Ċ":645,"Ġfe":646,"elf":647,"ĠN":648,"--":649,"Ġ`":650,"Ġany":651,"ia":652,"lp":653,"Ġbut":654,"Ġtheir":655,"ata":656,"king":657,"ific":658,"Ġac":659,"ĠO":660,"ans":661,"Ġhelp":662,"Ġprov":663,"ations":664,"Ġother":665,"ĠĠĠĠĠĠĠĠ":666,"ound":667,"ite":668,"ip":669,"ru":670,"ence":671,"ĠÐ¿":672,"ice":673,"his":674,"Ġhas":675,"ff":676,"Ġche":677,"ual":678,"Ġprodu":679,"ard":680,"ack":681,"ĠU":682,"Ġ-":683,"Ð¸Ð":684,"Ġuse":685,"Ġper":686,"Ġkn":687,"ep":688,"ĠY":689,"Ġspe":690,"ance":691,"Ġmore":692,"Ġman":693,"vel":694,":ĊĊ":695,"Ġout":696,"Ġabout":697,"Ġque":698,"ost":699,"int":700,"ĠIt":701,"Ġif":702,"ated":703,"pon":704,"hen":705,"ÑģÑĤ":706,"Ġem":707,"Ġund":708,"Ġso":709,"Ġapp":710,"ks":711,"ient":712,"ime":713,"ach":714,"Ġpre":715,"Ġli":716,"Ġte":717,"ces":718,"Ġgo":719,"Ñĩ":720,"ary":721,"Ġsy":722,"Ġincl":723,"Ġsc":724,"Ġam":725,"```":726,"The":727,"Ġtr":728,"ign":729,"ode":730,"ĠÐ²":731,"ĠÐ¸":732,"ens":733,"Ġimport":734,"Ġlo":735,"Ġused":736,"wer":737,"ast":738,"Ġpar":739,"Ġwhich":740,"Ġalso":741,"gh":742,"Ġind":743,"put":744,"Ġser":745,"Ġmodel":746,"Ġtra":747,"'t":748,"ace":749,"Ġinform":750,"Ġthey":751,"ong":752,"ap":753,"Ðº":754,"Ã³":755,"Ġdis":756,"Ġcre":757,"ari":758,"ress":759,"Ġknow":760,"ber":761,"ãģ":762,"ful":763,"âĢ":764,"iff":765,"Ġ'":766,"Ġcomm":767,"Ġinclud":768,"ition":769,"Ġall":770,"ĠIn":771,"\",":772,"ĠThis":773,"one":774,"ĠÑģ":775,"eth":776,"swer":777,"av":778,"Ã¡":779,"Ġsuch":780,"Ġhis":781,"Ġshe":782,"ÐµÐ½":783,"ory":784,"Ġass":785,"Ġits":786,"Ġro":787,"Ġspec":788,"ener":789,"20":790,";Ċ":791,"Ġpr":792,"con":793,"lic":794,"ough":795,"Ð²":796,"te":797,"Ġquest":798,"ize":799,"Ġlike":800,"gr":801,"ak":802,"Ġup":803,"Ġdata":804,"Ġcons":805,"Ã§":806,"Ġneed":807,"Ġev":808,"ĠÐ½":809,"Ġpos":810,"Ġfun":811,"Ġimportant":812,"ne":813,"Ã£":814,"stem":815,"Ġmay":816,"ased":817,"Ġanswer":818,"10":819,"ely":820,"Ð¾Ð²":821,"Ġel":822,"Ġwhat":823,"Ã£o":824,"hat":825,"ject":826,"Ġwould":827,"led":828,"Ġdiff":829,"Ġnew":830,"Ġsome":831,"Ġ|":832,"Ġno":833,"Ġest":834,"Ġ{":835,"ail":836,"mical":837,"Ġpers":838,"Ġexam":839,"ÃŃ":840,"'m":841,"ub":842,"ĠV":843,"Ġtext":844,"ds":845,"Ġdi":846,"ok":847,"Ġinformation":848,"ount":849,"cri":850,"ating":851,"ĠÐº":852,"ĠYou":853,"Ġusing":854,"ake":855,"Ġrespon":856,"Ġes":857,"angu":858,"Ġval":859,"ange":860,"Ġsa":861,"Ġhow":862,"Ġthem":863,"Ġself":864,"ĠÐ¾":865,"Ġfol":866,"ility":867,"Ġrel":868,"Ġpart":869,"Ġsp":870,"Ġprovide":871,"Ġvari":872,"Ġpe":873,"Ġnum":874,"In":875,"ĠJ":876,"Ġag":877,"ays":878,".\"":879,"Ġproduct":880,"Ġtime":881,"ÐµÑĤ":882,"Ġinst":883,",Ċ":884,"erm":885,"Ġfeel":886,"ft":887,"\":":888,"Ġstr":889,"ctions":890,"()":891,"Ġi":892,"Ġmake":893,"Ñħ":894,"Ġlangu":895,"Ġinter":896,"Ġthere":897,"Ġcould":898,"yth":899,"ci":900,"Ġone":901,"Ð´":902,"Ġwho":903,"aus":904,"Ġdet":905,"ning":906,"ll":907,"Ġum":908,"Ġcol":909,"ater":910,"Ġsystem":911,"we":912,"com":913,"Ġunder":914,"ors":915,"olog":916,"ose":917,"pect":918,"Ġform":919,"ents":920,"any":921,"Ġgener":922,"Ġover":923,"ĠÃ":924,"Ġfollow":925,"Ġperson":926,"Ġchemical":927,"Ġcomple":928,"Ġadd":929,"get":930,"Ġimp":931,"ys":932,"Ġbet":933,"Ġpara":934,"Ġke":935,"Ġob":936,"ord":937,"Ð¼":938,"Ġlanguage":939,"ments":940,"Ġmo":941,"Ġinv":942,"Ġ[":943,"urn":944,"ert":945,"de":946,"ear":947,"Ġì":948,"Ġra":949,"ck":950,"ĠAs":951,"Ġwant":952,"Ġcode":953,"ĠÐ´":954,"ĠHow":955,"```Ċ":956,"ings":957,"ities":958,"Ġinto":959,"ild":960,"..":961,"les":962,"ally":963,"Ġshould":964,"Ð°Ð½":965,"Ġrequ":966,"Ġph":967,"Ġexper":968,"Ð¾Ð»":969,"ython":970,"Ġprocess":971,"ĠÐ¼":972,"velop":973,"cur":974,"lease":975,"ict":976,"ible":977,"Ð¿":978,"ĠAI":979,"ates":980,"Ð°ÑĤ":981,"lo":982,"ics":983,"here":984,"ĠSt":985,"Ġbeen":986,"Ġty":987,"Ġexpl":988,"Ġoff":989,"self":990,"io":991,"own":992,"Ñİ":993,"Ġgr":994,"ĠĊ":995,"Ġhad":996,"cre":997,"Ġent":998,"enc":999,"Ġco":1000,"Ġdiffere":1001,"Ġexample":1002,"oy":1003,"Ġ<":1004,"ÐµÑĢ":1005,"Ġspecific":1006,"Ġatt":1007,"ph":1008,"az":1009,"Ġwhen":1010,"Ð¾ÑĢ":1011,"Ġonly":1012,"Ġact":1013,"ark":1014,"Ġret":1015,"Ġfunction":1016,"chn":1017,"rite":1018,"ont":1019,"ĠĠĠĠĠĠĠĠĠĠĠ":1020,"Ø§":1021,"Ġeach":1022,"ath":1023,"Ġincluding":1024,"ption":1025,"Ġsol":1026,"Ã³n":1027,"hes":1028,"arm":1029,"Ġz":1030,"ĠÑĤ":1031,"Ġdevelop":1032,"Ġcompany":1033,"Ġbased":1034,"Ġeff":1035,"ng":1036,"ĠK":1037,"ower":1038,"ative":1039,"istant":1040,"ĠHe":1041,"Ġserv":1042,"ree":1043,"Ġprovid":1044,"ade":1045,"row":1046,"rit":1047,"ract":1048,"gram":1049,"Ġtrans":1050,"Ġset":1051,"ĠÃ©":1052,"Ġthan":1053,"Ġdef":1054,"iqu":1055,"Ġ{Ċ":1056,"Ġthen":1057,"lect":1058,"Ġjust":1059,"iss":1060,"oth":1061,"ices":1062,"ures":1063,"stand":1064,"pport":1065,"Ð¸ÑĤ":1066,"----":1067,"ise":1068,"irst":1069,"ĠÐ¿ÑĢ":1070,"Ġway":1071,"ustom":1072,"Ġget":1073,"ĠShe":1074,"Ġwork":1075,"Ð¾Ð¼":1076,"Ġdel":1077,"ular":1078,"ĠÑ":1079,"ople":1080,"Ġchar":1081,"Ġsm":1082,"der":1083,"Ġbel":1084,"Ġbu":1085,"Ġlet":1086,"'re":1087,"rough":1088,"ality":1089,"ody":1090,"Ġlist":1091,"ery":1092,"li":1093,"Ġ+":1094,"Ġcor":1095,"Ġstart":1096,"be":1097,"Ġhigh":1098,"Ġconf":1099,"ood":1100,"Ġreg":1101,"arch":1102,"ument":1103,"ĠIf":1104,"ever":1105,"Ġplay":1106,"ick":1107,"ident":1108,"Ð½Ñĭ":1109,"Ġrem":1110,"Ġhum":1111,"ish":1112,"ety":1113,"gg":1114,"Ġbl":1115,"Ġref":1116,"Ġet":1117,"Ð¾ÑĤ":1118,"Ġdon":1119,"Ġap":1120,"Ġwere":1121,"wor":1122,"ten":1123,"Ġdifferent":1124,"Ġfin":1125,"ues":1126,"Ġmust":1127,"Ġpo":1128,"Ġtw":1129,"Ġprogram":1130,"Ġsay":1131,"Ġtechn":1132,"Ġindust":1133,"Ġhand":1134,"ĠÑĢ":1135,"ock":1136,"à¸":1137,"Ġpeople":1138,"Ġsent":1139,"Ġhim":1140,"anc":1141,"Ġnumber":1142,"Ġfollowing":1143,"##":1144,"Ġunderstand":1145,"12":1146,"ble":1147,"Ġav":1148,")ĊĊ":1149,"to":1150,"Ã§Ã£o":1151,"Ð¾Ð´":1152,"Ġcreate":1153,"Ġposs":1154,"wn":1155,"',":1156,"rop":1157,"Ġwell":1158,"ause":1159,"tic":1160,"Ġquestions":1161,"vers":1162,"ting":1163,"reat":1164,"Ġcur":1165,"gan":1166,"Ġsim":1167,"Ġexperi":1168,"Ġcustom":1169,"Ġ/":1170,"Ġthrough":1171,"ÑĪ":1172,"Ġlear":1173,"ado":1174,"ĠHere":1175,"Ġproducts":1176,"Ġpol":1177,"Ġthese":1178,"Ġsub":1179,"ene":1180,"Ġuna":1181,"Ð¾Ð³":1182,"ec":1183,"ween":1184,"ER":1185,"Ð·":1186,"pr":1187,"19":1188,"Ġprom":1189,"eng":1190,"Ġbetween":1191,"Ġbest":1192,"fore":1193,"ify":1194,"Ġsk":1195,"ale":1196,"ves":1197,"Ġfil":1198,"ious":1199,"als":1200,"Ġsee":1201,"Ġfirst":1202,"Ġname":1203,"ÑĨ":1204,"Ġcal":1205,"Ð°Ðº":1206,"pen":1207,"ãĤ":1208,"ĠCh":1209,"ung":1210,"Ġfind":1211,"Ġreturn":1212,"ÐµÐ»":1213,"Ġtrain":1214,"ner":1215,"ied":1216,">Ċ":1217,"its":1218,"\"Ċ":1219,"Ġbo":1220,"Ġdep":1221,"Ġallow":1222,"Ġworld":1223,"Ġrec":1224,"Ġmeth":1225,"Ġdec":1226,"ink":1227,"ved":1228,"Ġquestion":1229,"Ġtwo":1230,"iel":1231,"Ġer":1232,"umm":1233,"ian":1234,"hed":1235,"Ð¸Ñı":1236,"Ð±":1237,"Ġsom":1238,"Ġour":1239,"ving":1240,"Ġmost":1241,"ential":1242,"Ġ}":1243,"Ġback":1244,"Ġcar":1245,"Ġwords":1246,"ÙĦ":1247,"Ð½Ð¾":1248,"Ġcharact":1249,"Ġfact":1250,"Ġdesign":1251,"Ġdescri":1252,"Ġstate":1253,"You":1254,"ob":1255,"Ġexp":1256,"Ġfile":1257,"ty":1258,"Ãª":1259,"Ġbec":1260,"vent":1261,"Ġrep":1262,"ix":1263,"resent":1264,"Ġsame":1265,"Ġresult":1266,"Ġpot":1267,"</":1268,"Ð°Ð»":1269,"ife":1270,"ĠÐ±":1271,"rent":1272,"Ġmed":1273,"Ġrange":1274,"Ġë":1275,"ivid":1276,"ern":1277,"iÃ³n":1278,"Ġmethod":1279,"Ġwhere":1280,"ring":1281,"ural":1282,"ĠRe":1283,"ines":1284,"ages":1285,"Ġacc":1286,"Ġbeing":1287,"up":1288,"AN":1289,"Ġclass":1290,"Ġever":1291,"Ġpower":1292,"Ġkey":1293,"Ġcontin":1294,"ution":1295,"11":1296,"Ã¼":1297,"Ġaut":1298,"=\"":1299,"Ġgra":1300,"Ġyear":1301,"uring":1302,"hip":1303,"Ġtake":1304,"Ġsur":1305,"Ġ*":1306,"Ġ#":1307,"Ġgu":1308,"ware":1309,"Ġmany":1310,"no":1311,"Ġlead":1312,"Ġstep":1313,"Ġgood":1314,"Ġloc":1315,"alth":1316,"ĠThey":1317,"ST":1318,"?Ċ":1319,"Ġhere":1320,"Ġconsid":1321,"202":1322,"iew":1323,"Ã¤":1324,"Ġens":1325,"Ġapplic":1326,"Ġwhile":1327,"ĠHowever":1328,"Ġsoc":1329,"ness":1330,"Ġmat":1331,"==":1332,"Ġins":1333,"Ġagain":1334,"Ġsupport":1335,"Ġperform":1336,"co":1337,"ized":1338,"not":1339,"Ġil":1340,"Ġda":1341,"ros":1342,"riend":1343,"ways":1344,"Ġsign":1345,"icult":1346,"Ġrespons":1347,"red":1348,"ional":1349,"Ġreal":1350,"(\"":1351,"ax":1352,"ĠÐ·":1353,"ament":1354,"ask":1355,"ered":1356,"ĠÐ½Ð°":1357,"ìĿ":1358,"Ġtry":1359,"und":1360,"Ġuser":1361,"eren":1362,"50":1363,"Ġown":1364,"Ġx":1365,"ĠWhat":1366,"ature":1367,".s":1368,"erg":1369,"ocument":1370,"Ġbre":1371,"rol":1372,"Ġdown":1373,"ences":1374,"dition":1375,"ier":1376,"ÐµÐ¼":1377,"ts":1378,"Ġbody":1379,"__":1380,"ited":1381,"Ġmain":1382,"ons":1383,"ren":1384,"ique":1385,"yl":1386,"tern":1387,"),":1388,"Ġinvol":1389,"fter":1390,"ense":1391,"Ġtem":1392,"rect":1393,"ĠAd":1394,"ica":1395,"à¤":1396,"Ġpass":1397,"Ġdoes":1398,"Ġeng":1399,"rib":1400,"ĠĠĠĠĠĠĠĠĠĠĠĠĠĠĠĠ":1401,"ething":1402,"old":1403,"uc":1404,"Ġindustry":1405,"itt":1406,"Ġdire":1407,"ew":1408,");Ċ":1409,"Ġinput":1410,"ĠPro":1411,"Ġlar":1412,"iven":1413,"oup":1414,"Ġinf":1415,"Ġalways":1416,"Ġ$":1417,"Ġoutput":1418,"Ġboth":1419,"iron":1420,"ove":1421,"Ġlong":1422,"Ġsaf":1423,"Ġimpro":1424,"Ġele":1425,"Ġvalue":1426,"Ġut":1427,"ruct":1428,"Ġproduction":1429,"Ġproper":1430,"Ġgame":1431,"Ġlos":1432,"Ġenv":1433,"Ġsomething":1434,"Ġprof":1435,"Ġext":1436,"day":1437,"Ġcap":1438,"Ġequ":1439,"Ġmin":1440,"Ġstud":1441,"Ġobject":1442,"ued":1443,"ĠUn":1444,"ically":1445,"St":1446,"uch":1447,"bo":1448,"Ġfl":1449,"ĠÑĥ":1450,"Ð¸Ðµ":1451,"Ġanal":1452,"iness":1453,"Ġbus":1454,"Ġtest":1455,"Ð¸Ð¼":1456,"Ġdie":1457,"As":1458,",\"":1459,"ability":1460,"Ġrequire":1461,"Ġide":1462,"âĢĻ":1463,"Ð³":1464,"ĠÑĩ":1465,"Ġweb":1466,"ada":1467,"\\_":1468,"ĠDe":1469,"ization":1470,"Ġtop":1471,"Ġuma":1472,"Ġfr":1473,"Ġhuman":1474,"ura":1475,"cul":1476,"Ð°ÑĤÑĮ":1477,".p":1478,"Ð¾Ð½":1479,"ward":1480,"Ġpur":1481,"ÐµÐ´":1482,"val":1483,"xt":1484,"Ġrese":1485,"uss":1486,"itive":1487,"Ġplan":1488,"ily":1489,"200":1490,"ĠĠĠĠĠ":1491,"ivers":1492,"oice":1493,"Ġtyp":1494,"ology":1495,"ãĥ":1496,"Ġsumm":1497,"ave":1498,"Ġdat":1499,"ples":1500,"Ġread":1501,"Ġrun":1502,"ello":1503,"ute":1504,"Ġinstru":1505,"):Ċ":1506,"Ġdist":1507,"Ð¾Ð¹":1508,"Ġinclude":1509,"Ġdepend":1510,"cept":1511,"Ġhapp":1512,"Ġbefore":1513,"ms":1514,"Ġhealth":1515,"Ġend":1516,"Ġshow":1517,"arket":1518,"ĠWe":1519,"aterial":1520,"Ġable":1521,"ives":1522,"ser":1523,"Ġsit":1524,"ull":1525,"Ġconst":1526,"Ġtype":1527,"gin":1528,"Ð»Ñı":1529,"Ġdeterm":1530,"Ġvarious":1531,"ior":1532,"Ġlife":1533,"Ð¾Ð±":1534,"ocus":1535,"100":1536,"Ġmem":1537,"ually":1538,"ÑĤÐ¾":1539,"Ġknown":1540,"Ġmon":1541,"ĠØ":1542,"Ġassist":1543,"Ġcontent":1544,"ione":1545,"ote":1546,"Ġbuild":1547,"Ġfound":1548,"Ġeffect":1549,"uf":1550,"Ġpotential":1551,"Ġcommun":1552,"PT":1553,"Ġident":1554,"ÑģÐº":1555,"ĠQ":1556,"ĠPython":1557,"Ġpossible":1558,"Ġindivid":1559,"ĠAn":1560,"Ġaccess":1561,"Ġder":1562,"Ġenviron":1563,"SS":1564,"å®":1565,".d":1566,").":1567,"Ð°Ð²":1568,"ĠCom":1569,"work":1570,"Ġadv":1571,"íķ":1572,"aciÃ³n":1573,"Ġright":1574,"action":1575,"Ġvis":1576,"Ùħ":1577,"ank":1578,"line":1579,"Ð°Ð·":1580,"Ð¾Ð¶":1581,"'ll":1582,"Ġdocument":1583,"Ġpersonal":1584,"Ñī":1585,"iment":1586,"Ġcommand":1587,"Ġutil":1588,"Ġalg":1589,"app":1590,"Ġask":1591,"Ġcontext":1592,"ateg":1593,"ando":1594,"\",Ċ":1595,"Ġensure":1596,"Ð»Ð¸":1597,"Ġoper":1598,"ĠFor":1599,"ãĢ":1600,"]Ċ":1601,"other":1602,"Ġbeh":1603,"Ġday":1604,"Ġrespect":1605,"Ġindividual":1606,"ources":1607,"Ġles":1608,"Ġcharacter":1609,"It":1610,"ON":1611,"Ġwom":1612,"Ġopt":1613,"aut":1614,"Ġvers":1615,"ta":1616,"-b":1617,"Ġ:":1618,"Ġris":1619,"13":1620,"Ġcontrol":1621,"ream":1622,"Ġmess":1623,"mer":1624,"Ġnow":1625,"15":1626,"Ġsoft":1627,"Ġcurrent":1628,"ĠÃł":1629,"Ġcomo":1630,"Ġpat":1631,"che":1632,"Ġcle":1633,"import":1634,"Ġfocus":1635,"Ġfriend":1636,"Ð°Ð¼":1637,"ton":1638,"Ġresponse":1639,"Ġincre":1640,"ÑģÑı":1641,"Ġterm":1642,"This":1643,"ina":1644,"Ġpor":1645,"Ġsex":1646,"ĠTo":1647,"Ġcomplet":1648,"Ġdevelopment":1649,"bers":1650,"Ġopen":1651,"-t":1652,"Ġtool":1653,"Ġmaterial":1654,"ined":1655,"Ġproble":1656,"Ġeven":1657,"ĠUS":1658,"Ã¶":1659,"Ġorgan":1660,"ator":1661,"Ġsor":1662,"ced":1663,"ï¼":1664,"Ġenvironment":1665,"Ð¸Ð½":1666,"Ġart":1667,"Ġgive":1668,"Ġcount":1669,"read":1670,"ars":1671,"Ġpoint":1672,"asure":1673,"po":1674,"eg":1675,"tt":1676,"pos":1677,"ug":1678,"ho":1679,"Ġassistant":1680,"-s":1681,"Ġsure":1682,"Ġstory":1683,"ÙĬ":1684,"Ġconc":1685,"Ġpop":1686,"Ġmade":1687,"Ġteam":1688,"Ġactiv":1689,"ric":1690,"Ġstand":1691,"Ġlearning":1692,"play":1693,"Ġgenerate":1694,"Ġdem":1695,"erest":1696,"Ġresearch":1697,"Ġpri":1698,"Ð¶":1699,"ĠEx":1700,"Ġve":1701,"Ġplease":1702,"ux":1703,"ah":1704,"Ġcare":1705,"Ġcome":1706,"Ġbelie":1707,"Ġed":1708,"Ġhist":1709,"inal":1710,"Ġcomput":1711,"Ġimprove":1712,"ism":1713,"ublic":1714,"Ġfam":1715,"14":1716,"ational":1717,"ps":1718,"ield":1719,"ven":1720,"ropri":1721,"Ð¾Ð»ÑĮ":1722,"ling":1723,"Ġmet":1724,"30":1725,"Ġaround":1726,"Ġho":1727,"Ġwithout":1728,"Ġsmall":1729,"ries":1730,"ror":1731,"ention":1732,"Ġgroup":1733,"Ġconsider":1734,"Ġver":1735,"Ġcontain":1736,"Ġevery":1737,"user":1738,"Ġgrow":1739,"ash":1740,"Ġstrong":1741,"ather":1742,"Ġdisc":1743,"Ġmarket":1744,"Ġpartic":1745,"//":1746,"rodu":1747,"ets":1748,"ray":1749,"ÐµÐº":1750,"Ġappro":1751,"bre":1752,"Ġexperience":1753,"ĠâĢ":1754,"Ġsorry":1755,"ases":1756,"yes":1757,"Ġproject":1758,"Ġinstructions":1759,"ĠÑį":1760,"ze":1761,"ato":1762,"ination":1763,"000":1764,"Ġdid":1765,"Ġability":1766,"Ġaddition":1767,".\"ĊĊ":1768,"ames":1769,"aking":1770,"Ġnet":1771,"Ġlove":1772,"ertain":1773,"thing":1774,"Ġmus":1775,"Ġ\\":1776,"å®ĥ":1777,"Ġlib":1778,"()Ċ":1779,"air":1780,"Ãł":1781,"Ġprint":1782,"Ġsynt":1783,"par":1784,"Ġenerg":1785,"16":1786,"Ġafter":1787,"Ġbusiness":1788,"idad":1789,"Ġinterest":1790,"name":1791,"Ġredu":1792,"Ġanything":1793,"Ġvery":1794,"atures":1795,"Ġein":1796,"Ġsaid":1797,"Ġhy":1798,"ĠĊĊ":1799,"ement":1800,"date":1801,"18":1802,"med":1803,"Ġmult":1804,"Ð¹":1805,"Ġenc":1806,"ified":1807,"ead":1808,"ilities":1809,"ha":1810,"Ġcomplex":1811,"ÑģÑĤÐ²":1812,"ĠSe":1813,"ðŁ":1814,"oid":1815,"Ġtak":1816,"ik":1817,"abel":1818,"Ġwide":1819,"Ġlarge":1820,"ond":1821,"Ġdev":1822,"aÃ§Ã£o":1823,"ÙĪ":1824,"Ġlim":1825,"ource":1826,";ĊĊ":1827,"Ġrelations":1828,"Ġmean":1829,"Ġothers":1830,"Ġneeds":1831,"Ġrequest":1832,"Ġyears":1833,"ropriate":1834,"Ġleg":1835,"ĠIs":1836,"att":1837,"ä¸":1838,"yr":1839,"IN":1840,"--------":1841,"17":1842,"plement":1843,"Ø§ÙĦ":1844,"á»":1845,"Ġtal":1846,"ann":1847,"Ġmaking":1848,"201":1849,"Ġwrite":1850,"me":1851,"Ġsocial":1852,"Ġagainst":1853,"ĠThere":1854,"umn":1855,"Ġcorrect":1856,"Ġ.":1857,"Ġlevel":1858,"pre":1859,"Ġprot":1860,"usion":1861,"Ãº":1862,"Ġsummary":1863,"ins":1864,"Ġavail":1865,"oking":1866,"Ñĸ":1867,"hy":1868,"Ġess":1869,"atch":1870,"Ġiss":1871,"25":1872,"Ġmight":1873,"Ãµ":1874,"nc":1875,"ency":1876,"ital":1877,"Ġdirect":1878,"ggest":1879,"ĠAl":1880,"Ġmuch":1881,"lu":1882,"Ġpour":1883,"Ġimage":1884,"Ã¨":1885,"Ġbetter":1886,"Ġinc":1887,"Ġconvers":1888,"Ãµes":1889,"(self":1890,"za":1891,"ants":1892,"ëĭ":1893,"comm":1894,"ativ":1895,"Ġplace":1896,"Ġelse":1897,"ä»":1898,"Ġsignific":1899,"Ġrelationship":1900,"Ġbecause":1901,"Ġlook":1902,"Ġsever":1903,"Ġprompt":1904,"Ð¸Ð²":1905,"Ġvariety":1906,"Ġapplications":1907,"Ð¾Ñģ":1908,"hor":1909,"tr":1910,"Ġphys":1911,"Ġgiven":1912,"Ġrole":1913,"bot":1914,"uest":1915,"IST":1916,"Ġou":1917,"irl":1918,"Ġwrit":1919,"pec":1920,"ĉĉ":1921,"view":1922,"Ġquality":1923,"ĠSure":1924,"ision":1925,"Ġsuc":1926,"Ġservices":1927,"-p":1928,"tain":1929,"Ġnon":1930,"atural":1931,"Ġthink":1932,"Ġtre":1933,"Ġdifficult":1934,"Ġoften":1935,"âĢ¢":1936,"Ġhead":1937,"Ġinvest":1938,"###":1939,"Ġsuggest":1940,"Ġcent":1941,"lev":1942,"Ġexc":1943,"Ġcaus":1944,"Ġstill":1945,"Ġkeep":1946,"Ġsense":1947,"Ġrest":1948,"Ġenergy":1949,"assistant":1950,"ÑĢÑĥ":1951,"nce":1952,"Ġcannot":1953,"Ġseveral":1954,"Ġpres":1955,"ately":1956,"Ġnecess":1957,"Ġos":1958,"ici":1959,"Ġnever":1960,"Ġrepe":1961,"Ġnext":1962,"ding":1963,"Ġsitu":1964,"ploy":1965,"Ġfut":1966,"ĠÐ½Ðµ":1967,"Ġca":1968,"Ð¸Ðº":1969,"Ġzu":1970,"erc":1971,"ÐµÐ¹":1972,"Ð¸Ð¸":1973,"Ġtell":1974,"Ġsens":1975,"Ġbr":1976,"Ġtoday":1977,"cond":1978,"Ġimpact":1979,"Ġwater":1980,"td":1981,"Ġmach":1982,"Ġeas":1983,"ÙĨ":1984,"Ġtraining":1985,"rame":1986,"ANT":1987,"Ġcommon":1988,"Ġprovided":1989,"Ġline":1990,"ĠÐ¾Ð±":1991,"Ġlearn":1992,"asks":1993,"itions":1994,"ÑĦ":1995,"ience":1996,"Ġ//":1997,"-d":1998,"ĠMy":1999,"**":2000,"Ġnote":2001,"Ġconsist":2002,"Ġservice":2003,"Ġlog":2004,"cript":2005,"Ġharm":2006,"cho":2007,"PI":2008,"Ġcustomer":2009,"Ġmind":2010,"Ġsal":2011,"Ġavailable":2012,"Ġthough":2013,"Ġmanage":2014,"-m":2015,"':":2016,"ule":2017,"yle":2018,"Ġchang":2019,"Ð¾ÑģÑĤ":2020,"Ġcult":2021,"icient":2022,"Ġcam":2023,"ills":2024,"indow":2025,"Ġsoftware":2026,"('":2027,"Ġê":2028,"ados":2029,"ember":2030,"Ġseg":2031,"vert":2032,"Ġpract":2033,"Ġdesigned":2034,"ien":2035,"ium":2036,"Ġpued":2037,"ledge":2038,"Ġ|Ċ":2039,"Ġperformance":2040,"Ġformat":2041,"col":2042,"ication":2043,"Ġsl":2044,"ron":2045,"Ġprofess":2046,"Ġmessage":2047,"Ġmeet":2048,"print":2049,"Ġstring":2050,"Ġgreat":2051,"Ġvalues":2052,"Ġfew":2053,"Ġutiliz":2054,"()`":2055,"Ġwid":2056,"If":2057,"ĠNo":2058,"go":2059,"\".":2060,"ĠÐ°":2061,"Ġdu":2062,"Ġimplement":2063,"ÑģÐ¿":2064,"Ġartic":2065,"Ġmove":2066,"less":2067,"div":2068,"Ġbelow":2069,"Ġcost":2070,"ait":2071,"Ġbehav":2072,"Ġsend":2073,"Ġtoget":2074,"Ġeyes":2075,"Ġtogether":2076,"AT":2077,"Ġchall":2078,"Ġsteps":2079,"Ð°ÑĢ":2080,"Ġintern":2081,"Ġfree":2082,"ĠBut":2083,"den":2084,"ude":2085,"Ġmodels":2086,"ai":2087,"ince":2088,"Ġproblem":2089,"Ø§Ø":2090,"Ġchat":2091,"ISTANT":2092,"Ġarg":2093,"Ġple":2094,"ĠPlease":2095,"lish":2096,"Ð¸ÑĤÑĮ":2097,"}Ċ":2098,"><":2099,"odel":2100,"ĠCon":2101,"ÐµÐ½Ð¸Ñı":2102,"Ġcho":2103,"ĠCan":2104,"Ġorder":2105,"ral":2106,"Ġtasks":2107,"ĠZ":2108,"ĠÐ³":2109,"Ġson":2110,"Ġcr":2111,"ĠÑı":2112,"Ġexpress":2113,"way":2114,"ared":2115,"ming":2116,"-f":2117,"Ð¾Ð³Ð¾":2118,"cer":2119,"raph":2120,"Ġexamples":2121,"Ġvoc":2122,"Ã©s":2123,"ĠÐ¾ÑĤ":2124,"ĠChe":2125,"Ġlight":2126,"Ġ}Ċ":2127,"Ġfac":2128,"Ð¸Ð¹":2129,"What":2130,"?ĊĊ":2131,"pro":2132,"Ġear":2133,"Ġsystems":2134,"ĠBe":2135,"aj":2136,"Ġpublic":2137,"ript":2138,"ĠAnd":2139,"Ġmom":2140,"python":2141,"imes":2142,"ĠTh":2143,"Ġspecial":2144,"Ġ``":2145,"Ġresponses":2146,"elt":2147,"irt":2148,"Ġgoing":2149,"...":2150,"LE":2151,"ĠÐ²Ñĭ":2152,"ĠĠĠĠĠĠĠĠĠĠĠĠĠĠĠ":2153,"do":2154,"ystem":2155,"Ð½Ð°":2156,"Ġrepresent":2157,"Ġword":2158,"Ġshort":2159,"rain":2160,"Ġfood":2161,"ĠÂ":2162,"Ġamount":2163,"Ġfeatures":2164,"Ġnatural":2165,"ger":2166,"ĠYes":2167,"'ve":2168,"idence":2169,"ĠInd":2170,"ails":2171,"Ġgre":2172,"nect":2173,"Ġunique":2174,"Ġmulti":2175,"_d":2176,"Ġvide":2177,"SSISTANT":2178,"Ġstre":2179,"Ġneg":2180,"Ã§Ãµes":2181,"Ð¾Ð·":2182,"Ġtechnology":2183,"Ġcase":2184,"ĠTr":2185,"sp":2186,"Ġchange":2187,"Ġsentence":2188,"for":2189,"curity":2190,"chie":2191,"_t":2192,"itle":2193,"ĠAr":2194,"Ġevent":2195,"lor":2196,"åı":2197,"Ġcomb":2198,"erv":2199,"Ġmen":2200,"Ġtask":2201,"mb":2202,"ĠLet":2203,"ĠASSISTANT":2204,"ouse":2205,"ĠUse":2206,"Ġunderstanding":2207,"AR":2208,"iled":2209,"Ġgirl":2210,"Ġsize":2211,"Ġinvolves":2212,"But":2213,"ĠÎ":2214,"Ġsing":2215,"ek":2216,"ĠThese":2217,"Ġfeeling":2218,"joy":2219,"ido":2220,"ĠCre":2221,"Ġsi":2222,"Ġhard":2223,"Ġthings":2224,"ditionally":2225,"Ð°Ñģ":2226,"ĠÐ»":2227,"Ġlas":2228,"Over":2229,"ructure":2230,"Ġhelpful":2231,"Ġappropriate":2232,"Ġtoo":2233,"Ġfore":2234,"Ġcontinue":2235,"ittle":2236,"ysis":2237,"conom":2238,"ctor":2239,"Ġtri":2240,"_s":2241,"ĠDo":2242,"To":2243,"curate":2244,"Ġna":2245,"Ġclear":2246,"Ġcond":2247,"Ġfinal":2248,"Ġknowledge":2249,"Ġpresent":2250,"ering":2251,"ĠÐ´Ð»Ñı":2252,"Ġuses":2253,"Write":2254,"ĠHello":2255,"por":2256,"Ġcompletion":2257,"Ġscript":2258,"Ġaff":2259,"Ġlibr":2260,"Ġcomplete":2261,"ante":2262,"Ġcall":2263,"Ġtable":2264,"ĠØ§ÙĦ":2265,"Ġsuccess":2266,"Ġexec":2267,"Ð¾ÑĤÐ¾ÑĢ":2268,"Ð¾Ðº":2269,"Ġcompound":2270,"Ã¡s":2271,"Ġold":2272,".g":2273,"Ġclient":2274,"aging":2275,"Ġcalled":2276,"EN":2277,"Ġop":2278,"ida":2279,"Ġalgor":2280,"Ġist":2281,"ross":2282,"Ġcolumn":2283,"Ġtu":2284,"til":2285,"ĠCl":2286,"Ġduring":2287,"Ġmeans":2288,"Ġcustomers":2289,"?\"":2290,"ĠX":2291,"itor":2292,"iques":2293,"Ġgl":2294,"====":2295,"Ġbas":2296,"ires":2297,"amed":2298,"Ġ--":2299,"ables":2300,"Ġfield":2301,"ais":2302,"ico":2303,"Ġexist":2304,"Ġsecond":2305,"Ġfuture":2306,"Ġmachine":2307,"atform":2308,"Ġpython":2309,"of":2310,"aring":2311,"ours":2312,"que":2313,".\"Ċ":2314,"ilar":2315,".,":2316,"Ġchild":2317,"arget":2318,"cc":2319,"oun":2320,"amb":2321,"Ġport":2322,"Ġdri":2323,"Ġbehavior":2324,"],":2325,"Ġusers":2326,"ĠÐµ":2327,"ĠUSER":2328,"\")Ċ":2329,"orn":2330,"cing":2331,"Ġelect":2332,"Ġproviding":2333,"Ð¸Ð·":2334,"Ġcheck":2335,"Ġhappy":2336,"ogn":2337,"Ġallows":2338,"rand":2339,"Ġden":2340,"Ġlik":2341,"els":2342,"Ð¸Ð»":2343,"Ġprovides":2344,"cy":2345,"Ġcalcul":2346,"ample":2347,"Ġ,":2348,"Ġnetwork":2349,"Ġsignificant":2350,"Ġdeep":2351,"ances":2352,"ĠLa":2353,"Ð½ÑĭÑħ":2354,"ĠEng":2355,"ush":2356,"word":2357,"Ġdiscuss":2358,"ellig":2359,"ĠEn":2360,"ards":2361,"leg":2362,"atic":2363,"ox":2364,"Ġgeneral":2365,"Ġhome":2366,"ired":2367,"Ġprev":2368,"Ġenjoy":2369,"Ġface":2370,"Ġwithin":2371,"Ġsynthes":2372,"Ġanother":2373,"Ġcertain":2374,"Ġdra":2375,"ĠvocÃª":2376,"Ġskills":2377,"rie":2378,"Ġthree":2379,"Ġaddress":2380,"ĠÃ¨":2381,"Please":2382,"Ġmaterials":2383,"Ġfur":2384,"let":2385,"Ġemot":2386,"utions":2387,"Ġdom":2388,"Ġcouldn":2389,"ification":2390,"Ġlittle":2391,"ished":2392,"Ġpopular":2393,"Ġvoice":2394,"Ġscient":2395,"ĠCo":2396,"Ġwebs":2397,"Ġthing":2398,"arr":2399,"ciÃ³n":2400,"Ġalgorith":2401,"Ġhope":2402,"Ð¸Ñģ":2403,"vern":2404,"ĠÑģÑĤ":2405,"ĠWith":2406,"RE":2407,"Ġrece":2408,"Ġidea":2409,"Ġ==":2410,"Ġlooking":2411,"Ð¸Ñĩ":2412,"ender":2413,"Ġchalleng":2414,"fort":2415,"Ob":2416,"Ġachie":2417,"pose":2418,"ws":2419,"Ġarticle":2420,"ĠDes":2421,"Ð°Ð´":2422,"ĠÐºÐ¾ÑĤÐ¾ÑĢ":2423,"Ġperm":2424,"Ġsat":2425,"Ġknew":2426,"Ġvi":2427,"Ġsafety":2428,"iving":2429,"ories":2430,"Ġsearch":2431,"Ġthose":2432,"Ġsist":2433,"Ġeth":2434,"Ġappe":2435,"idade":2436,"ma":2437,"Ġclos":2438,"ca":2439,"âĢĿ":2440,"Ġfactors":2441,"ason":2442,"Ġaccount":2443,"Ġcolor":2444,"na":2445,"GPT":2446,"ID":2447,"Ġlast":2448,"Ġpriv":2449,"24":2450,"Ġdas":2451,"bal":2452,"ĠPl":2453,"nov":2454,"ĠIm":2455,"def":2456,"xim":2457,"Ġbeaut":2458,"plic":2459,"Ġroom":2460,"amet":2461,"una":2462,"Ġanim":2463,"dict":2464,"Ã¼r":2465,"Ġpa":2466,"Ġbuilding":2467,"ä½":2468,"str":2469,"Ġbi":2470,"Ġ&":2471,"Ġespec":2472,"Ġpositive":2473,"Ġlay":2474,"Ġresources":2475,"Ġemb":2476,"Ġorig":2477,"Ġphysical":2478,"Ø±":2479,"Ġbene":2480,"ustain":2481,"vol":2482,".c":2483,"Ex":2484,"Ġconsistent":2485,"aster":2486,"Ð¸Ñħ":2487,"Ch":2488,"text":2489,"Ġtakes":2490,"Ġant":2491,"Ġdetermine":2492,"Ġsomeone":2493,"Ġpode":2494,"dro":2495,"ĠAdditionally":2496,"commend":2497,"Ġplatform":2498,"ĠSh":2499,"Ġcause":2500,"Ġpowerful":2501,"ems":2502,"Ð°Ð¿":2503,"Ġwoman":2504,"oud":2505,"Ġpref":2506,"Ġsimple":2507,"Ġtreat":2508,"Ġacid":2509,"Ġversion":2510,"Ġworking":2511,"Ġdig":2512,"Ġcu":2513,"Ġtypically":2514,"ird":2515,"Ġoptions":2516,"Ġrate":2517,"Ġguid":2518,"ĠInst":2519,"Ġrelev":2520,"ume":2521,"Ġtrained":2522,"actions":2523,"Ġune":2524,"Øª":2525,"Ġsafe":2526,"ulation":2527,"unt":2528,"cle":2529,"ights":2530,"Ġaud":2531,"Ġtrue":2532,"Ġcity":2533,"Ġeconom":2534,"ÃŃa":2535,"Ġways":2536,"num":2537,"min":2538,"Ġfriends":2539,"Ġcat":2540,"Ġdate":2541,"Ġreaction":2542,"abor":2543,"Ġsentences":2544,"Ġexplain":2545,"Ġpod":2546,"Ġanalysis":2547,"wards":2548,"Ġcomputer":2549,"Ġindividuals":2550,"Ġleft":2551,"Ġvol":2552,"ĠSo":2553,"Ġmot":2554,"Ġpleasure":2555,"_f":2556,"Overall":2557,"oci":2558,"la":2559,"Ð¸ÑĢ":2560,"Ð°Ð±":2561,"Ġinte":2562,"oks":2563,"ili":2564,"à¦":2565,"Ġter":2566,"Ġbecome":2567,"Ġturn":2568,"Ġhab":2569,"Ġnumbers":2570,"ips":2571,"ĠGo":2572,"Ġanaly":2573,"An":2574,"Ġconcern":2575,"Ġfre":2576,"\\n":2577,"pected":2578,"Ġpolit":2579,"imate":2580,"ugh":2581,"Ġjo":2582,"Ġapplication":2583,"Ġmag":2584,"ancial":2585,"ãĢĤ":2586,"ĠAPI":2587,"Ġprotect":2588,"Ġmar":2589,"ength":2590,"Ġprevious":2591,"We":2592,"ored":2593,"ores":2594,"Ġpress":2595,"Ġred":2596,"Ġrecommend":2597,"face":2598,"gen":2599,"Ð½Ð¾ÑģÑĤ":2600,"Ġincludes":2601,"Ġcharacters":2602,"Ġfelt":2603,"Ġapolog":2604,"ente":2605,"23":2606,"Ġsw":2607,"ee":2608,"Ġrefer":2609,"Ġheart":2610,"Ġchemicals":2611,"Ġinstall":2612,"istic":2613,"ĠÐ¼Ð¾Ð¶":2614,"Ġmoment":2615,"_m":2616,"Ġbegin":2617,"Here":2618,"Ġsn":2619,"ĠÑĩÑĤÐ¾":2620,"Ġbro":2621,"Ġsustain":2622,"://":2623,"Ð¾Ð»ÑĮÐ·":2624,"Ġhig":2625,"Ġabove":2626,"ules":2627,"ito":2628,"Ġstrateg":2629,"Ġless":2630,"ella":2631,"Ġnecessary":2632,"ĠÐ±Ñĭ":2633,"Ġvideo":2634,"Ġsuper":2635,"Ġwar":2636,"uro":2637,"Ġinit":2638,"How":2639,"Ġidentify":2640,"Ġapproach":2641,"Ġjob":2642,"ground":2643,"ĠRes":2644,"Ġsem":2645,"Ð°ÑĨ":2646,"Ġallowed":2647,"Ġsingle":2648,"Ġpack":2649,"Ġwal":2650,"Ð¾Ð¿":2651,"sh":2652,"Ġsituation":2653,"ilit":2654,"Ġtot":2655,"py":2656,"Ð°Ð¹":2657,"Ä±":2658,"Ġtools":2659,"Ġwhy":2660,"OR":2661,"Ġpay":2662,"Ġtypes":2663,"ailed":2664,"Frame":2665,"ĠÑĦ":2666,"back":2667,"medi":2668,"anger":2669,"son":2670,"ists":2671,"Ġ?":2672,"ission":2673,"ÑĤÑĮ":2674,"Ġkind":2675,"Ã±":2676,"Ġlot":2677,"Ġtrying":2678,"Ġoption":2679,"erence":2680,"Ġtk":2681,"çļ":2682,"ym":2683,"Ġlocal":2684,"Ġreport":2685,"ï¼Į":2686,"ibility":2687,"Ġrelated":2688,"40":2689,"icht":2690,"Ġconcept":2691,"Ġbase":2692,"ÑĥÑİ":2693,"Ġbit":2694,"Ġaccurate":2695,"Ġpain":2696,"aly":2697,"ĠSome":2698,"Ġair":2699,"Ġtarget":2700,"ipp":2701,"CT":2702,"ĠCreate":2703,"Ġmor":2704,"land":2705,"Ġqui":2706,"Ġhistory":2707,"ram":2708,"Ġbenef":2709,"Ġfurther":2710,"gs":2711,"Ġyourself":2712,"utical":2713,"Ġfamily":2714,"anced":2715,"çļĦ":2716,"kes":2717,"Ġstatement":2718,"Ġprin":2719,"22":2720,"ived":2721,"armace":2722,"chool":2723,"amente":2724,"alse":2725,"Ġje":2726,"Ġlow":2727,"ĠSp":2728,"Ġgovern":2729,"-c":2730,"armaceutical":2731,"Ġintrodu":2732,"Ġposition":2733,"aries":2734,"pportun":2735,"Ġresults":2736,"Ð°Ð¶":2737,"yn":2738,"Ġindic":2739,"bl":2740,"alu":2741,"iver":2742,"ĠÐºÐ°Ðº":2743,"Ġsimilar":2744,"ively":2745,"Ġsobre":2746,"xic":2747,"Ġspace":2748,"Ð°ÐµÑĤ":2749,"ivo":2750,"Ġselect":2751,"ÐµÐ½Ð¸Ðµ":2752,"ufact":2753,"Ġfilled":2754,"Ġparticular":2755,"Ð½ÑĭÐµ":2756,"Ġprogramming":2757,"Ġmanagement":2758,"Ġavoid":2759,"Ġ×":2760,"ĠTe":2761,"amp":2762,"Ġnamed":2763,"ero":2764,"ÐµÑģ":2765,"Ġautom":2766,"Ġconnect":2767,"Ġefficient":2768,"aim":2769,"ĠData":2770,"utes":2771,"Ġonline":2772,"roll":2773,"ruction":2774,"Ġful":2775,"Ð¾Ñĩ":2776,"ey":2777,"ÐµÐ»ÑĮ":2778,"ĠWh":2779,"ĠAss":2780,"Ġarea":2781,"Ø¯":2782,"Ġlibrary":2783,"Î±":2784,"Ġcompon":2785,"Ġcour":2786,"Ġintellig":2787,"Ġmais":2788,"Ġfo":2789,"Ġevidence":2790,"Ġsecurity":2791,"Ġsupp":2792,"Ġsound":2793,"Ġrespond":2794,"Ġvon":2795,"Ġprim":2796,"jet":2797,"ĠInt":2798,"Ġengine":2799,"ras":2800,"Ġrelevant":2801,"Ġconversation":2802,"place":2803,"ìĹ":2804,"Ġview":2805,"ised":2806,"vas":2807,"ĠÐĴ":2808,"Ġwhe":2809,"ides":2810,"Ġaction":2811,"ĠnÃ£o":2812,"Ġissues":2813,"Ġapologize":2814,"mat":2815,"Ġdepending":2816,"Ġfem":2817,"rad":2818,"era":2819,"new":2820,"ss":2821,"Ġsource":2822,"ava":2823,"mo":2824,"Ġrout":2825,"head":2826,"60":2827,"Ġfinancial":2828,"_l":2829,".com":2830,"Ġdue":2831,"une":2832,"Ġoptim":2833,"Ġestab":2834,"Ġsources":2835,"ifficult":2836,"Ġhelps":2837,"Ġelement":2838,"your":2839,"Ġsexual":2840,"Ġtotal":2841,"Ġmultiple":2842,"Ġarch":2843,"ario":2844,"âĢĻs":2845,"Ġcrit":2846,"Ġrisk":2847,"iones":2848,"Ġshare":2849,"Ġconsidered":2850,"Ġopportun":2851,"ëĬ":2852,"my":2853,"Ġchanges":2854,"Ġprec":2855,"ara":2856,"oura":2857,"ifficulty":2858,"isf":2859,"Ġactions":2860,"ches":2861,"Ġinnov":2862,"Ġexplore":2863,"Ġmeaning":2864,"Ġsynthesis":2865,"ties":2866,"32":2867,"inter":2868,"Ġactivities":2869,"urs":2870,"ÑĥÑĩ":2871,"Ġconfig":2872,"Ġnight":2873,"iverse":2874,"ager":2875,"Ġprofessional":2876,"Ġevalu":2877,"ĠCont":2878,"AL":2879,"iter":2880,"omb":2881,"ĠLe":2882,"duct":2883,"ĠOpen":2884,"Ġimportante":2885,"Ġadditional":2886,"Ð°Ð»ÑĮ":2887,"ino":2888,"Re":2889,"Ġbot":2890,"RO":2891,"oring":2892,"df":2893,"Ġdescription":2894,"No":2895,"Ġmaintain":2896,"just":2897,"Ġtemper":2898,"izing":2899,"quality":2900,"Ġcreating":2901,"use":2902,"Ùĩ":2903,"Ġmanufact":2904,"ĠWor":2905,"iction":2906,"Ġgoals":2907,"orth":2908,"ĠÐ¸Ð·":2909,"from":2910,"Ġevents":2911,"br":2912,"oss":2913,"Ġreduce":2914,"azione":2915,"Ġarray":2916,"gress":2917,"áº":2918,"Ð¾Ð²Ð°Ð½":2919,"Ġlikely":2920,"Ġtou":2921,"Ġfull":2922,"Ġge":2923,"ogle":2924,"ĠYour":2925,"Ġinflu":2926,"Ġleading":2927,"Ġbelieve":2928,"AI":2929,"Ġcountry":2930,"af":2931,"Ġpredict":2932,"Ġpost":2933,"Ġ>":2934,"Ġplayer":2935,".t":2936,"Ġgen":2937,"Ġpas":2938,"Ġdest":2939,"One":2940,"Ġinside":2941,"ĠÐŀ":2942,"Ġtalk":2943,"Ġattack":2944,"Ġmix":2945,"Ġmethods":2946,"Ġment":2947,"ios":2948,"à¹":2949,"ĠWhen":2950,"Ġqual":2951,"ane":2952,"ensive":2953,"Ġerror":2954,"ĠÑĢÐ°Ð·":2955,"ĠÑĤÐ°Ðº":2956,"Ã©m":2957,"ãģ®":2958,"itted":2959,"Ġtoxic":2960,"Ġcir":2961,"åı¯":2962,"ÐµÐ³":2963,"Ġuntil":2964,"ĠÐŁ":2965,"body":2966,"'d":2967,"side":2968,"ĠÐ¸ÑģÐ¿":2969,"Ġpolic":2970,"add":2971,"Ġcell":2972,"Ġemploy":2973,"Ġsubject":2974,"verage":2975,"ĠÑģÐ²":2976,"kt":2977,"Ġwebsite":2978,"Ġprote":2979,"ĠâĢľ":2980,"Ġbig":2981,"`,":2982,"LM":2983,"set":2984,"ëĭ¤":2985,"Ġrand":2986,"Ġstructure":2987,"rem":2988,"Ġtechniques":2989,"Ġaway":2990,"enced":2991,"Ġdetails":2992,"ĠGPT":2993,"Ġstyle":2994,"Ġrequirements":2995,"Ġeduc":2996,"Ġnorm":2997,"Ġentre":2998,"ÐµÐ½ÑĤ":2999,"Ã©c":3000,"load":3001,"Ġeine":3002,"erson":3003,"hr":3004,"ww":3005,"Ã¡ri":3006,"Ġideas":3007,"Ġhands":3008,"asing":3009,"}ĊĊ":3010,"rend":3011,"oney":3012,"Ġpharmaceutical":3013,"Ġseries":3014,"Ġparamet":3015,"01":3016,"Ġbook":3017,"ÑĥÑĤ":3018,"uck":3019,"Ġchoice":3020,"arent":3021,"ried":3022,"Ġdisplay":3023,"Ġstat":3024,"Ġpattern":3025,"jor":3026,"Ġput":3027,"Ġquick":3028,"::":3029,"aces":3030,"oms":3031,"Ġrandom":3032,"abase":3033,"></":3034,"uman":3035,"key":3036,"Ġcompan":3037,"Ġmakes":3038,"ney":3039,"Ġdanger":3040,"Ġwon":3041,"Ġce":3042,"Ġscientific":3043,"Ġhandle":3044,"Ġbreak":3045,"fect":3046,"SE":3047,"21":3048,"ml":3049,"empl":3050,"Ġblack":3051,"En":3052,"ken":3053,"Ġwriting":3054,"Ġquery":3055,"Ġyoung":3056,"Ġwhite":3057,"ialog":3058,"Ġemp":3059,"ãĢģ":3060,"80":3061,"Ġrunning":3062,"Ġà¤":3063,"lt":3064,"Ġneeded":3065,"ira":3066,"outh":3067,"Ġrecogn":3068,"Ġremember":3069,"Ġpatient":3070,"Ġvariable":3071,"For":3072,"ĠestÃ¡":3073,"Ġsince":3074,"Ġcompet":3075,"Ġharmful":3076,"ration":3077,"Ġpast":3078,"Ð°Ñı":3079,"Com":3080,"avor":3081,"iles":3082,"Ġí":3083,"ëĬĶ":3084,"ĠPr":3085,"]ĊĊ":3086,"Ġstreng":3087,"Ġchallenges":3088,"ges":3089,".m":3090,"ĠEm":3091,"Ġcontrib":3092,"Ġlimit":3093,"Th":3094,"uments":3095,"Ġmit":3096,"lection":3097,".l":3098,"Ġconditions":3099,"iful":3100,"ection":3101,"Cl":3102,"chen":3103,"rypt":3104,"Ġrequired":3105,"Ġserver":3106,"stream":3107,"Ġhaving":3108,"-based":3109,"Ġoffer":3110,"Ġtrust":3111,"Ġcommit":3112,"Ġschool":3113,"Ġfactually":3114,"Ġsoci":3115,"Ġworks":3116,"arc":3117,"Ġdoing":3118,"Ġpen":3119,"ider":3120,"Ġtransform":3121,"Ġstudy":3122,"igo":3123,"init":3124,"ificial":3125,"Ġpurpose":3126,"Ġjour":3127,"Ġdistrib":3128,"izes":3129,"ĠÐ¸Ð½":3130,"à¥":3131,"Ġsatisf":3132,".get":3133,"_p":3134,"):":3135,"Ġrepeat":3136,"Ġmass":3137,"Ġassoci":3138,"acy":3139,"QL":3140,"cont":3141,"Hello":3142,"Ġquant":3143,"Ġpath":3144,"ech":3145,"Ġvary":3146,"ĠChat":3147,".size":3148,"come":3149,"Ġmov":3150,"inking":3151,"ula":3152,"ioni":3153,"-quality":3154,"Ġnames":3155,"amento":3156,"ilt":3157,"ĠEst":3158,"ĠcÃ³":3159,"Ġdone":3160,".j":3161,"Ġskin":3162,"Ġnegative":3163,"Ġprocessing":3164,"icit":3165,"Ġgot":3166,"Cont":3167,"Ġterms":3168,"Ġoc":3169,"ttps":3170,"ÐµÐ·":3171,"ĠÐ¸ÑģÐ¿Ð¾Ð»ÑĮÐ·":3172,"net":3173,"å®ĥå®ĥ":3174,"Ø©":3175,"Ġstay":3176,"Ġstatements":3177,"Ġflow":3178,"Ġans":3179,"ethyl":3180,"iod":3181,"Ġblock":3182,"apt":3183,"Ġwhether":3184,"lam":3185,"Ġsua":3186,"write":3187,"icuna":3188,"ĠOr":3189,"Ġelements":3190,"Ġing":3191,"Ġfiles":3192,"kay":3193,"Ġincrease":3194,"ĠÐºÐ¾ÑĤÐ¾ÑĢÑĭ":3195,"Ġdescribe":3196,"Ġsun":3197,"{Ċ":3198,"au":3199,"ĠÏ":3200,"Ġconse":3201,"avig":3202,"Ġframe":3203,"Ġhighly":3204,"Ġgoal":3205,"Ġoriginal":3206,"Ġpu":3207,"Ġrespectful":3208,"Ġstarted":3209,"oper":3210,"inally":3211,"Ġready":3212,"Ġhold":3213,"idine":3214,"ats":3215,"Ġside":3216,"Ġtowards":3217,"33":3218,"Ġâ":3219,"Ġfund":3220,"And":3221,"Ġtaking":3222,"Ã§a":3223,"Ġengage":3224,".NAME":3225,"Ġbed":3226,"ìĿ´":3227,"Ġequip":3228,"pa":3229,"ĠUnited":3230,"ê³":3231,"Ġlocated":3232,"ording":3233,"ÐºÐ¸":3234,"leep":3235,"28":3236,"Ġland":3237,".f":3238,"))":3239,"Ġconne":3240,"Ġmonth":3241,"Ġdos":3242,"curs":3243,"Ġpoints":3244,"Ġallies":3245,"ÐµÐ²":3246,"Ġstop":3247,"['":3248,"Ġauf":3249,"\"ĊĊ":3250,"So":3251,"Ġsolution":3252,"Ġmention":3253,"by":3254,"Ġminim":3255,"Ġdatas":3256,"ncia":3257,"Ġtopic":3258,"Ġclaim":3259,"ift":3260,"Ġtimes":3261,"erences":3262,"Ġwait":3263,"sel":3264,"Ġwomen":3265,"Ġmeasure":3266,"Ġstarting":3267,"Ġexperiences":3268,"Ġachieve":3269,"ĠfÃ¼r":3270,"tre":3271,"Name":3272,"Ġupd":3273,"Ġviol":3274,"input":3275,"Ð¿ÑĢ":3276,"Pro":3277,"endo":3278,"Ġprevent":3279,"Ġmusic":3280,"ui":3281,"Ġdru":3282,"\\_\\_":3283,"Ġlocation":3284,"Obj":3285,"fs":3286,"Ġbring":3287,"Ġdidn":3288,"span":3289,"ĠPh":3290,"Ġdeb":3291,"Ġexpert":3292,"íķĺ":3293,"ĠEnglish":3294,"Ġlat":3295,"Ġfeelings":3296,"ĠChina":3297,"Ġhot":3298,"ĠLtd":3299,"Ad":3300,"ja":3301,"Ġstri":3302,"Ġded":3303,"Ġdr":3304,"Ġbeautiful":3305,"va":3306,"Ġremain":3307,"uit":3308,"Ġreview":3309,"ĠMan":3310,"ĠÐļ":3311,"Ġsepar":3312,"Ġgrowth":3313,"lex":3314,"ĠApp":3315,"ÐµÐ±":3316,"Î¹":3317,"Ġcontains":3318,"Ġintegr":3319,"cure":3320,"45":3321,"Ġchoose":3322,"Ġvous":3323,"Ġattention":3324,"ales":3325,"fully":3326,"ĠÐ¿Ð¾":3327,"Ġcoll":3328,"Î¿":3329,"Ġglo":3330,"Ġstrength":3331,"Ġthought":3332,"cent":3333,"uestion":3334,"gre":3335,"Ġnature":3336,"ĠFr":3337,"Ġindustries":3338,"Ġvalid":3339,"Your":3340,"ining":3341,"Ġflo":3342,"Ġproperties":3343,"Ġconcl":3344,"Ġmis":3345,"Ġconcerns":3346,"Ġcapt":3347,"Ð½ÑĭÐ¼":3348,"fer":3349,"oad":3350,"utput":3351,"irm":3352,"itect":3353,"26":3354,"ÑĥÐ´":3355,"zy":3356,"ster":3357,"SON":3358,"ìĦ":3359,"icro":3360,"box":3361,"Con":3362,"Ġwarm":3363,"ĠChemical":3364,"Ġreach":3365,"file":3366,"Ġaspect":3367,"illion":3368,"Ð½ÑĭÐ¹":3369,"lished":3370,"Ġcas":3371,"Ġprop":3372,"ET":3373,"ML":3374,"Ġeat":3375,"Ð½Ð¾Ð¹":3376,"Ġcreated":3377,"Ġeasy":3378,"Ġwidely":3379,"Ġstore":3380,"Ġdam":3381,"met":3382,"adas":3383,"Ġroot":3384,"Ġdiv":3385,"ÐºÐ°":3386,"Ġprice":3387,"Ġdangerous":3388,"Ġmedical":3389,"199":3390,"Ġhydro":3391,"iting":3392,"respon":3393,"Ġhours":3394,"Ġmedia":3395,"Ġeffective":3396,"Ġreally":3397,"Ġauthor":3398,"Ġloop":3399,"Ġgraph":3400,"cover":3401,"ĠÑģÐ»":3402,"ently":3403,"ĠðŁ":3404,"Ġintelligence":3405,"Ġsolutions":3406,"IT":3407,"ograph":3408,"ana":3409,"Ġregul":3410,"ening":3411,"ĠÐ¼Ð¾Ð³":3412,"Ġimm":3413,"atory":3414,"Yes":3415,"ES":3416,"bed":3417,"epend":3418,"500":3419,"ones":3420,"ites":3421,"string":3422,"ler":3423,"Ġcommunication":3424,"aÃ§Ãµes":3425,"Ġhair":3426,"ĠÐ¿ÑĢÐ¾":3427,"```ĊĊ":3428,"ĠBy":3429,"ìĿĦ":3430,"Ġdays":3431,"Ġpresence":3432,"ÐµÑĩ":3433,"']":3434,"ĠEs":3435,"Ġgovernment":3436,"ĠSie":3437,"Ġextract":3438,"Ġclose":3439,"nÃ©":3440,"Ġspeed":3441,"ologies":3442,"value":3443,"Ġtransl":3444,"Ġincor":3445,"Ġhistor":3446,"Ġdass":3447,"Ġnavig":3448,"Ġtopics":3449,"Ġste":3450,"()ĊĊ":3451,"Ġethical":3452,"++":3453,"Ġreturns":3454,"type":3455,"_c":3456,"oll":3457,"Ġreason":3458,"ĠDef":3459,"Ġcomfort":3460,"osp":3461,"Ġartificial":3462,"ĠÐ¼Ð¾Ð¶ÐµÑĤ":3463,"rong":3464,"....":3465,"ĠrÃ©":3466,"PU":3467,"Ġage":3468,"Ġscene":3469,"Ġareas":3470,"Ġdecision":3471,"åĲ":3472,"Ġdescript":3473,"ype":3474,"abilities":3475,"ä»¥":3476,"ä½ł":3477,"Ġdecis":3478,"Ġsuit":3479,"Ð°Ñİ":3480,"ĠSet":3481,"Ġfit":3482,"Ġmatch":3483,"Ġpi":3484,"attle":3485,"Ġproduce":3486,"ĠÐ¡":3487,"IC":3488,"Ġti":3489,"Ġdatabase":3490,"pped":3491,"Ġbegan":3492,"Ġsequ":3493,"ano":3494,"Ġphr":3495,"unction":3496,"ounter":3497,"ht":3498,"ended":3499,"Ġdans":3500,"mente":3501,"AA":3502,"Ġtouch":3503,"æĪ":3504,"jud":3505,"Ġmother":3506,"ĠAmer":3507,"ÐµÑģÑĤ":3508,"Ġissue":3509,"icas":3510,"Ġgetting":3511,"Ġstru":3512,"ĠEl":3513,"Ġalgorithm":3514,"Ġcompanies":3515,"ãģĻ":3516,"Ġinitial":3517,"Ġresponsible":3518,"ĠOne":3519,"ÅĤ":3520,"enz":3521,"Ġprior":3522,"class":3523,"Ġrobot":3524,"ĠAm":3525,"Ġpartner":3526,"Ġ\"[":3527,"data":3528,"pping":3529,"ĠĠĊ":3530,"Ġoffers":3531,"Ġbreath":3532,"Ġlegal":3533,"27":3534,"ÑĢÐ°":3535,"igure":3536,"Ġetc":3537,"Ġinstead":3538,"icate":3539,"Ġich":3540,"Ġdesire":3541,"Ġrelationships":3542,"Ġsistem":3543,"imento":3544,"Ð¸ÑĩÐµ":3545,"Īëĭ¤":3546,"Ġave":3547,"ĠNew":3548,"kn":3549,"alls":3550,"quest":3551,"Ġupdate":3552,"Ġchatbot":3553,"cription":3554,"the":3555,"Ġid":3556,"ditional":3557,"Ġload":3558,"Ġforest":3559,"Ġdetailed":3560,"Ġconvert":3561,"Ġvill":3562,"Ġdevice":3563,"Ġmoney":3564,"Ġfour":3565,"ÛĮ":3566,"Ġwindow":3567,"Ġregard":3568,"Ġmemory":3569,"Ġcapac":3570,"itÃł":3571,"Ġhumans":3572,"cret":3573,"Ġcontinu":3574,"ole":3575,"Ġcommunity":3576,"ĠĠĠĠĊ":3577,"----------------":3578,"ĠmÃ¡s":3579,"Ġmas":3580,"Ġvirt":3581,"aling":3582,"nen":3583,"Ġpreg":3584,"Ġemail":3585,"ÐµÐºÑĤ":3586,"Ġconsult":3587,"]\"":3588,"Ġtemperature":3589,"Ġcourse":3590,"Ġaffect":3591,"rap":3592,"hing":3593,"men":3594,"ault":3595,"Ġgain":3596,"ĠOn":3597,"da":3598,"Ġremove":3599,"uto":3600,"Ġstudents":3601,"Ġplot":3602,"Ġconsum":3603,"\")":3604,"Des":3605,"uild":3606,"Ġfeed":3607,"Ġdemand":3608,"Ġregular":3609,"ĠQu":3610,"ulate":3611,"Ġbackground":3612,"ador":3613,"99":3614,"Ġrepeating":3615,"but":3616,"Ġdeveloped":3617,"ĠGoogle":3618,"Tr":3619,"ĠStates":3620,"Îµ":3621,"Button":3622,"Ġclean":3623,"Ġimages":3624,"Ġinteract":3625,"iversity":3626,"Ġbal":3627,"ension":3628,"Ġresol":3629,"Ġcy":3630,"anation":3631,"-in":3632,"ita":3633,"ìļ":3634,"Ġspeak":3635,"Ġur":3636,"lying":3637,"ĠÐĿ":3638,"Ã¢":3639,"Ġdella":3640,"Ġprocesses":3641,"irection":3642,"iento":3643,"Ġemotions":3644,"ĠSystem":3645,"Ġobjects":3646,"Ġbar":3647,"Ð¸ÑģÑĤ":3648,"Ġoverall":3649,"Ġperiod":3650,"ivity":3651,"Ġwatch":3652,"Ùģ":3653,"ĠWrite":3654,"')":3655,"Ð½Ð¾Ð³Ð¾":3656,".game":3657,"ĠHer":3658,"idades":3659,"Ð¾Ð²Ð°ÑĤÑĮ":3660,"Ġorganiz":3661,"ched":3662,"sole":3663,"æľ":3664,"odes":3665,"Ġacross":3666,"Ġenvironmental":3667,"Ġmodule":3668,"ret":3669,"legal":3670,"Ġaccept":3671,"Ġansw":3672,"raw":3673,"Ġìŀ":3674,"Ùĥ":3675,"ĠĠĠĠĠĠĠĠĠĠĠĠĠĠĠĠĠĠĠĠĠĠĠĠĠĠĠĠĠĠĠĠ":3676,"De":3677,"Ġequipment":3678,"ìł":3679,"ending":3680,"Ġfemale":3681,"bs":3682,"Ġespecial":3683,"Ġopin":3684,"Game":3685,"aches":3686,"Ġscen":3687,"uth":3688,"ĠName":3689,"ĠJSON":3690,"Ġwanted":3691,"hers":3692,"Ġimag":3693,"Ġwalk":3694,"ĠThat":3695,"core":3696,"Ġweight":3697,"works":3698,"othing":3699,"Ġtravel":3700,"Ġoutputs":3701,"Ġchildren":3702,"care":3703,"ĠÐ¿ÐµÑĢ":3704,"-to":3705,"ĠÙħ":3706,"Ġgas":3707,"Ø¹":3708,"Ġclar":3709,"Ð¸Ñİ":3710,"Ġdialog":3711,"Ġinternet":3712,"Ġrequires":3713,"-re":3714,"hetic":3715,"Ð¸Ð´":3716,"Ġpage":3717,"ese":3718,"Ĥ¬":3719,"Ġadjust":3720,"Ġvisual":3721,"Answer":3722,"Ġmatter":3723,"Al":3724,"Ġarchitect":3725,"ises":3726,"Ġproblems":3727,"Ġsort":3728,"car":3729,"dom":3730,"Ġcateg":3731,"ĠHuman":3732,"Ġstrugg":3733,"ields":3734,"Ġsays":3735,"Ġbrow":3736,"Ġrow":3737,"ĠdÃ©":3738,"Ġdark":3739,"lement":3740,"Ġprob":3741,"ready":3742,"Ġscience":3743,"illed":3744,"Ġboy":3745,"Ġresp":3746,"ÄĻ":3747,"Ġfront":3748,"ything":3749,"There":3750,"Ġsecure":3751,"bon":3752,"Ġhor":3753,"itch":3754,"ĠÑįÑĤÐ¾":3755,"Ġpractices":3756,"ourage":3757,"Ġinvolved":3758,"Ġsqu":3759,"¿½":3760,"Ġcommitment":3761,"Ġten":3762,"Ġsho":3763,"-(":3764,"Ã©e":3765,"Ġrules":3766,"Ġexact":3767,"Ġhigher":3768,"Ġletter":3769,"ters":3770,"Note":3771,"how":3772,"hens":3773,".don":3774,"ĠTrans":3775,"Ġintermedi":3776,"Ġenough":3777,"Ð»Ñİ":3778,"ĠDis":3779,"mate":3780,"Ġsus":3781,"zione":3782,"ye":3783,"ĠWorld":3784,"ION":3785,"-st":3786,"ĠÑħ":3787,"Ġpun":3788,"(s":3789,"Ġexplicit":3790,"Ġadvanced":3791,"ression":3792,"Ġlaw":3793,"Ġsha":3794,"encia":3795,"Ġopp":3796,"Ġillegal":3797,"Ġloss":3798,"Ġassociated":3799,".py":3800,"Ġquickly":3801,"ĠÑįÑĤ":3802,"ï¿½":3803,"AC":3804,"akes":3805,"icial":3806,"illing":3807,"ouble":3808,"ëĭĪëĭ¤":3809,"Ġbecom":3810,"chan":3811,"osed":3812,"Ġbomb":3813,"raft":3814,"Ġphot":3815,"const":3816,"Ġfavor":3817,"].":3818,"anto":3819,"Ġuseful":3820,"Ġslow":3821,"rial":3822,"ury":3823,"Ġvict":3824,"aa":3825,"ny":3826,"Ġasked":3827,"Ġmiss":3828,"Ġhon":3829,"Ġcommitted":3830,"Ġprivate":3831,"æĺ":3832,"Ġpromote":3833,"empt":3834,"Ġseen":3835,"ĠOnce":3836,"over":3837,"ÐµÑĪ":3838,"ê°":3839,"uration":3840,"ĠIN":3841,"Ġay":3842,"Ġhouse":3843,"mbol":3844,"ened":3845,"Ġdataset":3846,"Ġcontact":3847,"Ð°Ð±Ð¾ÑĤ":3848,"Ġsche":3849,"Ãªncia":3850,"ging":3851,"Se":3852,"order":3853,"Ġdise":3854,"ias":3855,"uel":3856,"Ġreli":3857,"_name":3858,"Ġbir":3859,"ĠBl":3860,"ÑĢÐ°Ð½":3861,"root":3862,"ached":3863,"ĠÐ¿Ð¾Ð´":3864,"rast":3865,"ë¡":3866,"Ð¾Ð±Ñĭ":3867,"ĠAdd":3868,"ĠCal":3869,"ìĹĲ":3870,"äº":3871,"å¥":3872,"Ġdeath":3873,"Ġjourney":3874,"Ġcontinued":3875,"Ã¥":3876,"29":3877,"gest":3878,"Ġvul":3879,"Ġwrong":3880,"aur":3881,"mit":3882,"Ġbenefits":3883,"Ø¨":3884,"Ġfunctions":3885,"!\"":3886,"OT":3887,"lear":3888,"Ġtreatment":3889,"can":3890,"Ġalready":3891,"64":3892,"Ġdif":3893,"Ð°ÑģÑĤ":3894,"ĠSu":3895,"Ã´":3896,"ĠÐ¸Ð»Ð¸":3897,"ÑħÐ¾Ð´":3898,"Ġill":3899,"çĶ":3900,"hic":3901,"ĠCol":3902,"ators":3903,"Ġbound":3904,"Ġminutes":3905,"Text":3906,"sy":3907,"Ġsong":3908,"Ġlive":3909,"____":3910,"Ġtransport":3911,"Ġlength":3912,"light":3913,"Ġindex":3914,"_id":3915,"aw":3916,"Ġpie":3917,"Ġlives":3918,"='":3919,"ison":3920,"ĠĠĠĠĠĠĠĠĠ":3921,"Ġbreast":3922,"Ġactivity":3923,"Ġeffects":3924,"========":3925,"oint":3926,"ria":3927,"uted":3928,"Ġconnection":3929,"ĠÐ¿Ð¾Ð¼":3930,"Ġmi":3931,"Ġargument":3932,"Ġlower":3933,")-":3934,"ĠÐ¶":3935,"Ġprogress":3936,"Ġgar":3937,"Ġtaken":3938,"Ġkiss":3939,"ube":3940,"Ġmaxim":3941,"urt":3942,"ĠÄ":3943,"pare":3944,"Ġground":3945,"Ġappear":3946,"ãĤĴ":3947,"ìŀ":3948,"room":3949,"osition":3950,"Ġinvolve":3951,"ola":3952,"Ġconstant":3953,"cion":3954,"ological":3955,"Ġplus":3956,"(x":3957,"Ġblo":3958,"Âł":3959,"istics":3960,"ĠÐ¿Ð¾Ð»":3961,"Ġscre":3962,"ĠÙĪ":3963,"what":3964,"Ġperspect":3965,"åı¯ä»¥":3966,"Ġanswers":3967,"ĠIl":3968,"Script":3969,"board":3970,"Ġfix":3971,"iciency":3972,"je":3973,"å¤":3974,"Ġparticip":3975,"();Ċ":3976,"Ġdigital":3977,"ĠVer":3978,"Ġpel":3979,"Ġadvent":3980,"Ġdecisions":3981,"pret":3982,"Ġmeas":3983,"ë¥":3984,"Ñį":3985,"Question":3986,"ono":3987,"rig":3988,"Data":3989,"AD":3990,"Ġcompre":3991,"Ġsegu":3992,"Ġeconomic":3993,"cip":3994,"Ġinclu":3995,"elling":3996,"Ġoperations":3997,"Ġri":3998,"Ġcenter":3999,"rim":4000,"Ġlabel":4001,"Ġforward":4002,"Ð¾ÑĢÐ¼":4003,"Ġbasic":4004,"Ð°Ð¼Ð¸":4005,"Ġmal":4006,"Ġeveryone":4007,"des":4008,"Ġrather":4009,"ĠHT":4010,"Ġtechnologies":4011,"Ġcommonly":4012,"Ġidentity":4013,"opy":4014,"round":4015,"35":4016,"Ġdirectory":4017,"orage":4018,"ĠìĿ":4019,"Ġfire":4020,"ception":4021,"Ġperfect":4022,"-l":4023,"selves":4024,"Ġthinking":4025,"vo":4026,"rict":4027,"70":4028,"hell":4029,"ĠCO":4030,"ĠWhile":4031,"Ġbeliefs":4032,"Ġdevices":4033,"atter":4034,"Ġpromot":4035,"ĠÂ¿":4036,"Î½":4037,"iente":4038,"man":4039,"Ġimportance":4040,"urope":4041,"'Ċ":4042,"Ġproperty":4043,"Ġfra":4044,"ĠGener":4045,"Ġsociety":4046,"Ġsum":4047,"åħ":4048,"Ġrisks":4049,"Ġeffort":4050,"Ġtax":4051,"Ġcountries":4052,"Ġrad":4053,"Ġorganization":4054,"Ġfight":4055,"ìĿĺ":4056,"cribe":4057,"Ġsch":4058,"Is":4059,"Ġforce":4060,"`.":4061,"inary":4062,"Ġmechan":4063,"Ġconsequ":4064,"(f":4065,"serv":4066,"Ġassistance":4067,"Ġlatest":4068,"uff":4069,"esso":4070,"Ġnormal":4071,"Ġlevels":4072,"Ã²":4073,"Ġwear":4074,"Ġliving":4075,"Ġcomes":4076,"pite":4077,"Id":4078,"Ġvirtual":4079,"Ġmanip":4080,"ua":4081,"Ġitself":4082,"Ġsustainability":4083,"Ġ=>":4084,".S":4085,"Ġcos":4086,"Å¼":4087,"ĠÐ¿ÑĢÐµÐ´":4088,"reg":4089,"ĠÐºÐ¾Ð¼":4090,"Ġexperienced":4091,"Ġworth":4092,"bi":4093,"elines":4094,"ĠsÃ£o":4095,"Ġcirc":4096,"')Ċ":4097,"Ġmajor":4098,"Ð¸ÑĩÐµÑģÐº":4099,"https":4100,"Ġajud":4101,"ĠÐºÐ¾Ð½":4102,"Ġabs":4103,"Ġfa":4104,"ED":4105,"ungen":4106,"Ġalong":4107,"ĠMake":4108,"Ġaware":4109,"apan":4110,"redient":4111,"Ġmel":4112,"ees":4113,"Ġitems":4114,"Ġnavigate":4115,"Ġconflic":4116,"Ġmes":4117,"ynam":4118,"Ġdoesn":4119,"ĠChatGPT":4120,"lich":4121,"Ġseem":4122,"Ġmarketing":4123,"Ġsleep":4124,"Ġenem":4125,"book":4126,"Ġinteg":4127,"wh":4128,"ett":4129,"Ġbutton":4130,"ĠPol":4131,"ÑĥÑĢ":4132,"hold":4133,"vi":4134,"pper":4135,"Ġmonitor":4136,"ĠVicuna":4137,"Ġdesired":4138,"izar":4139,"Ġinstal":4140,"Ġswe":4141,"Ġessential":4142,"Ġgames":4143,"IM":4144,"clude":4145,"ican":4146,"Ð²ÐµÑĤ":4147,"ÃŁ":4148,"chlor":4149,"Ġwin":4150,"Ġbra":4151,"Ġculture":4152,"Ġresist":4153,"Ġpuede":4154,"Ġfulf":4155,"plain":4156,"He":4157,"aves":4158,"Ġherself":4159,"Ġayud":4160,"Ġcard":4161,"Ġmanner":4162,"Ð¸ÑĨ":4163,"Ġadapt":4164,"íķľ":4165,"Ġtesting":4166,"Ġconclusion":4167,"ither":4168,"Ġmist":4169,"ising":4170,"Ġsett":4171,"\",\"":4172,"Ġblue":4173,"ÐĴ":4174,"Ġeverything":4175,"odies":4176,"erent":4177,"essage":4178,"ots":4179,"Res":4180,"Ġgrand":4181,"Ġstudent":4182,"Ġabilities":4183,",NAME":4184,"Ġpractice":4185,"icos":4186,"ìĬ":4187,"ĠJava":4188,"start":4189,"Ã©r":4190,"Label":4191,"Ġann":4192,"earch":4193,"Ġglobal":4194,"emplo":4195,"Ġlonger":4196,"Ġdraw":4197,"ĠÑĨ":4198,"ades":4199,"uk":4200,"idd":4201,"Ġtitle":4202,"Ġaf":4203,"Ġsubst":4204,"Ġinmate":4205,"astic":4206,"Ġtraditional":4207,"FT":4208,"Ġbehind":4209,"Ġcri":4210,"Ġplaying":4211,"nother":4212,"Ġparent":4213,"ĠPre":4214,"Ð°Ð³":4215,"point":4216,"oro":4217,"Ġweek":4218,"Ġfine":4219,"LL":4220,"ession":4221,"Ġpassion":4222,"eral":4223,"Ġinterested":4224,"Ġasking":4225,"Ġmask":4226,"Ġfrequ":4227,"nder":4228,"expected":4229,"Ġeu":4230,"ids":4231,"atively":4232,"agem":4233,"Ġdemon":4234,"ì§":4235,"Ġmodern":4236,"Ġhealthcare":4237,"Ġseu":4238,"Äħ":4239,"Ġprecis":4240,"ache":4241,"90":4242,"Ġcondition":4243,"ÑĭÐ²":4244,"Ġdiag":4245,"Ġfar":4246,"Ġsono":4247,"AS":4248,"Ġscore":4249,"Ġtook":4250,"ĠSch":4251,"OS":4252,"ocol":4253,"Ġcultural":4254,"ÑĢÑĥÐ³":4255,"44":4256,"ÏĦ":4257,"Ġdifficulty":4258,"year":4259,"Ã©n":4260,"plit":4261,"icated":4262,"itÃ©":4263,"×Ļ":4264,"Ġexpect":4265,"Ġwritten":4266,"ij":4267,"change":4268,"xy":4269,"arte":4270,"Ġreference":4271,"Ġtim":4272,"Ġdeliver":4273,"cking":4274,"Ġpreferences":4275,"Ġdefin":4276,"ÐµÑģÑĤÐ²":4277,"Ġheat":4278,"ners":4279,"Ġcausing":4280,");ĊĊ":4281,"Ġih":4282,"Ġaverage":4283,"like":4284,"omet":4285,"ÐŁ":4286,"Ġwearing":4287,"Ġintroduction":4288,"Ġreferring":4289,"Ġhol":4290,"mon":4291,"ĠCons":4292,"Ġsample":4293,"ĠMe":4294,"Ġthird":4295,"sing":4296,"Ġcapable":4297,"Ġobjet":4298,"Ġstage":4299,"Ġdetect":4300,"ãģ«":4301,"Ġalgorithms":4302,"ought":4303,"ENT":4304,"!ĊĊ":4305,"digo":4306,"Ġsym":4307,"Ġpaper":4308,"ĠEr":4309,"Ġcock":4310,"Ġcup":4311,"mar":4312,"ati":4313,"Ġanimals":4314,"ë¡ľ":4315,"Ø³":4316,"ÙĤ":4317,"Ġinnovation":4318,"Ġdeg":4319,"Ġexpression":4320,"words":4321,"aged":4322,"Ġtamb":4323,"Ġamb":4324,"cons":4325,"Ġdecid":4326,"Ġthoughts":4327,"Ġmanufacturing":4328,"Ġcred":4329,"Ġdifference":4330,"Ġconfusion":4331,"[i":4332,"Ġvehic":4333,"indows":4334,"Ġpow":4335,"ãģĦ":4336,"ĠComp":4337,"Ġproced":4338,"Ġlimited":4339,"Ġ%":4340,"Ġcontract":4341,"My":4342,"ãģ¯":4343,"Ġgroups":4344,"Ġvillage":4345,"ump":4346,"oph":4347,"Ġ}ĊĊ":4348,"Ġentire":4349,"hi":4350,"Ġplanet":4351,"RA":4352,"Ð½Ñı":4353,"CI":4354,"Ġsolve":4355,"ocks":4356,"Ġnews":4357,"Ġlayer":4358,"ged":4359,"ured":4360,"eria":4361,"Ġactual":4362,"Ġsetting":4363,"Ġhost":4364,"cal":4365,"Ġkann":4366,"fo":4367,"Ġhealthy":4368,"Ġinj":4369,"US":4370,"Ġfields":4371,"ĠAssistant":4372,"Ġbad":4373,"Ġtrack":4374,"Ġcou":4375,"ĠDefine":4376,"aving":4377,"Ġreactions":4378,"reci":4379,"Ġpharmaceuticals":4380,"Ġunexpected":4381,".body":4382,"Ġoder":4383,"Ġsuitable":4384,"36":4385,"Ġonce":4386,"Im":4387,"Ġdim":4388,"Ġwhole":4389,"izz":4390,"Ġopportunities":4391,"Ġarchitecture":4392,"Ġpressure":4393,"Ð¾Ð·Ð´":4394,"anvas":4395,"Ġstream":4396,"Ġsou":4397,"ĠGerm":4398,"Ġcaused":4399,"Ġpatterns":4400,"Ġpolitical":4401,"Ġsequence":4402,"Ġsie":4403,"Ġcalculate":4404,"Ġbox":4405,"Ġconsequences":4406,"Ġnear":4407,"Ġattempt":4408,"ste":4409,"Ġvisit":4410,"Ġnp":4411,"Ġbuy":4412,"ĠAll":4413,"button":4414,"Ġconfident":4415,"Ġmedic":4416,"31":4417,"',Ċ":4418,"Ġstarts":4419,"Ïģ":4420,"Ġheight":4421,"Ġinterests":4422,"Ġ\\*":4423,"ĠAg":4424,"Ġcomfortable":4425,"Ġfeature":4426,"Ġparameters":4427,"Ġir":4428,"Ġ</":4429,"Ġsich":4430,"Ġdeveloping":4431,".\\":4432,"Ġextra":4433,"oken":4434,"Ġpeace":4435,"Ġattract":4436,"sv":4437,",,":4438,"sit":4439,"Ġsistema":4440,"Ġsave":4441,"List":4442,"ĠEar":4443,"ĠmÃ©":4444,"Ġcases":4445,"Ġfear":4446,"Ġplayers":4447,"CH":4448,"andas":4449,"Ġitem":4450,"inks":4451,"Ġinterface":4452,"Ġrequests":4453,"cias":4454,"Ġuns":4455,"Ġfoot":4456,"ĠcÃ³digo":4457,"Ġking":4458,"rix":4459,"cks":4460,"down":4461,"gar":4462,"Ġerr":4463,"Ġfast":4464,"ÑĤÐ¾Ð±Ñĭ":4465,"Ġcut":4466,"bing":4467,"Ġoccur":4468,"Ġcurrently":4469,"Ġmodelo":4470,"vide":4471,"æĺ¯":4472,"Ð¸ÑĤÐµ":4473,"ÐµÐµ":4474,"Ġattrib":4475,"izer":4476,"Ġbusinesses":4477,"ceed":4478,"ãģ§":4479,"ĠRuss":4480,"Ġclothing":4481,"ÐµÐ¶":4482,"Ġsales":4483,"Ġpal":4484,"Ġexpected":4485,"ptions":4486,"phas":4487,"Ġsuff":4488,"Ġstandards":4489,"Ġfeedback":4490,"Ġcombination":4491,"Ġsentiment":4492,"Ġheav":4493,"However":4494,"Ġreve":4495,"aje":4496,"Ġfing":4497,"Ġgoes":4498,"Ġflex":4499,"34":4500,"uracy":4501,"oi":4502,"ä»¬":4503,"With":4504,"Ġessere":4505,"Ġokay":4506,"Ġnothing":4507,"Ġstandard":4508,"Ġpub":4509,"pis":4510,"Ġpret":4511,"Ġrefers":4512,"Ġbank":4513,"Ġdetermined":4514,"ĠÑģÐ¾":4515,".difficulty":4516,"Give":4517,"ĠØ¨":4518,"ensor":4519,"Ġengaging":4520,"ĠJapan":4521,"Ġequal":4522,"Ð½Ð¾ÑģÑĤÑĮ":4523,"Ġang":4524,"Ġadvant":4525,"acc":4526,"ĠModel":4527,"ĠÐĶ":4528,"ĠÐ¸Ð¼":4529,"Ġreact":4530,"Ġcollect":4531,"ĠĠĠĠĠĠ":4532,"))Ċ":4533,"cial":4534,"Ġling":4535,"Ġhyp":4536,"Ġbul":4537,"ÐºÐ¾":4538,"Ġcomprehens":4539,"Ġspeech":4540,"Ġmentioned":4541,"ĠTra":4542,"Ġsymbol":4543,"atives":4544,"hest":4545,"ĠEurope":4546,"Ġleave":4547,"Ġbodies":4548,"ĠMon":4549,"Ġdistance":4550,"Ġdiverse":4551,"Ġdir":4552,".h":4553,"Ġreput":4554,"Ġlooks":4555,"Ġrecent":4556,"Ġreflect":4557,"igen":4558,"ĠÑģÐ²Ð¾":4559,"CO":4560,"Ð½Ð¸Ðº":4561,"è¯":4562,"Ġrepl":4563,"Ġrelig":4564,"cape":4565,"Ġsmo":4566,"inate":4567,"fol":4568,"Ġsets":4569,".pack":4570,"Ġmental":4571,"Ġupon":4572,"fr":4573,"Ġstates":4574,"image":4575,"Ġdress":4576,"Ġmembers":4577,"alt":4578,"ÐºÑĥ":4579,"artment":4580,"Le":4581,"asy":4582,"ĠPer":4583,"ĠĠĠĠĠĠĠĠĠĠĠĠĠĠĠĠĠĠĠ":4584,"ĠLLM":4585,"raz":4586,"Ġespecially":4587,"Ġsoon":4588,"Ġforma":4589,"iddle":4590,"Ġcomponents":4591,"Ġbrand":4592,"Ġbuilt":4593,"Ġvulner":4594,"She":4595,"Ð°ÑĪ":4596,"La":4597,"Ġbott":4598,"ĠTrue":4599,"Ġagre":4600,"ÑĤÐµ":4601,"-M":4602,"Step":4603,"Ġlanguages":4604,"Ġanalyze":4605,"By":4606,"Ġdetail":4607,"Ġìł":4608,"Ġresulting":4609,"Ġguidance":4610,"Ġej":4611,"Ġclients":4612,"Ġtip":4613,"ĠPar":4614,"Ġamong":4615,"Ġsupports":4616,"UR":4617,"Ġdescriptive":4618,"Ġinapp":4619,"erate":4620,"agraph":4621,"Ġprimary":4622,"Ġaltern":4623,"Ġspecified":4624,"Ġseek":4625,"Ġtag":4626,"Ã¶n":4627,"Ġguidelines":4628,"Ġcomponent":4629,"Ġagent":4630,"ÃŃf":4631,"unch":4632,"Ġvariables":4633,"nake":4634,"Ġrecord":4635,"ĠGr":4636,"Ġcum":4637,"When":4638,"Ġyet":4639,"ĠVis":4640,"ĠAre":4641,"alyst":4642,"aria":4643,"right":4644,"Ġpropos":4645,"Ġeducation":4646,"zen":4647,"->":4648,"-time":4649,"Ġremo":4650,"idden":4651,"Ġtalking":4652,"Ġsecret":4653,"Ġflu":4654,"Ġtruth":4655,"Ġparts":4656,"fig":4657,"encies":4658,"ĠGet":4659,"Ġutilizz":4660,"Ġcorrespon":4661,"Ġgreen":4662,"Ġtechnical":4663,"Ã¹":4664,"ibr":4665,"aff":4666,"apter":4667,"Ð°Ñħ":4668,"Ġexerc":4669,"Ġclim":4670,"ÑģÐ»Ð¸":4671,"iva":4672,"Ġhesit":4673,"Ġprinci":4674,"Ġdamage":4675,"ĠSQL":4676,"Ġmeasures":4677,"aced":4678,"Ar":4679,"Ġresearc":4680,"-se":4681,"Ġ---":4682,"ë¥¼":4683,"ĠÐł":4684,"ocation":4685,"Ġdirectly":4686,"Qu":4687,"å¥½":4688,"uly":4689,"ĠNe":4690,"Ġvalu":4691,"minist":4692,"ette":4693,"Ġleast":4694,"ìĭ":4695,"Ġconduct":4696,"asons":4697,"yp":4698,"Ġcapital":4699,"Do":4700,"yrim":4701,"ĠAt":4702,"Ġcapabilities":4703,"Ð°Ñĩ":4704,"othes":4705,"ĠWho":4706,"Ġball":4707,"ĠLo":4708,"Ġhear":4709,"var":4710,"Ġutilis":4711,"Ġregion":4712,"Ġao":4713,"ĠÑģÐ¿":4714,"Ġstrategy":4715,"Ġaudience":4716,"ĠIntern":4717,"Key":4718,"fe":4719,"Ġsustainable":4720,"¸°":4721,"ãĤĭ":4722,"ql":4723,"imately":4724,"Ġinterpret":4725,"Ġspread":4726,"Ġeste":4727,"zz":4728,"Ġpackage":4729,"ãģ¾":4730,"Ġexplanation":4731,"ĠÐ´Ð°Ð½":4732,"Ġfollows":4733,"ÑĢÐ¾Ñģ":4734,"Ġestablished":4735,"Ġai":4736,"ctive":4737,"Ġthemselves":4738,"ÐµÑĤÑģÑı":4739,"roid":4740,"Ġmu":4741,"hol":4742,"cious":4743,"enn":4744,"gy":4745,"Ġorganizations":4746,"Ġphrase":4747,"inux":4748,"Ġaccording":4749,"Ġspecif":4750,"Ġpair":4751,"-B":4752,"Ġtexto":4753,"Ġeasily":4754,"Ġcompletely":4755,"Ġshape":4756,"-P":4757,"apon":4758,"ige":4759,"Ġinvestig":4760,"urer":4761,"Ġdemonstr":4762,"Ġevol":4763,"inese":4764,"Ð½Ð¾ÑģÑĤÐ¸":4765,"ĠSc":4766,"37":4767,"ports":4768,"Ġexploring":4769,"Ġinappropriate":4770,"ãģĹ":4771,"Ġled":4772,"ĠÃ¡":4773,"Ġgest":4774,"Ġfigure":4775,"ĠDevelop":4776,"),Ċ":4777,"Ġlines":4778,"ĠCheck":4779,"Ġstorage":4780,"Ġsmile":4781,"Ġdur":4782,"ĠThank":4783,"ĠAc":4784,".canvas":4785,"ivos":4786,"Ġsurround":4787,"ora":4788,"ĠÐ´ÑĢÑĥÐ³":4789,"Ġcru":4790,"Ġdefine":4791,"38":4792,"Ġexpand":4793,"Ġfall":4794,"iling":4795,"Ġwilling":4796,"Ġord":4797,"ĠMed":4798,"Ġhimself":4799,"ĠÐ»Ñİ":4800,"Ġfalse":4801,"Ġmovie":4802,"Ġsil":4803,"ben":4804,"Ġcarried":4805,"Ġingredient":4806,"Ġserious":4807,"Ġevaluate":4808,"Ġexperiment":4809,"ĠÄĳ":4810,"ĠIndia":4811,"newable":4812,"Ġoffensive":4813,"game":4814,"itude":4815,"Un":4816,"Ġdog":4817,"ball":4818,"Ġvot":4819,"PE":4820,"NN":4821,"Ġlink":4822,"IS":4823,"Ġot":4824,"Ġpolicies":4825,"azioni":4826,"Ġavec":4827,"Ġfully":4828,"ĠÐ±ÑĭÑĤÑĮ":4829,"ĠBo":4830,"Ð¡":4831,"Ð¸Ð±":4832,"Ġtransfer":4833,"Ðŀ":4834,"emember":4835,"Ġemphas":4836,"icious":4837,"DE":4838,"Ġlooked":4839,"ondon":4840,"ummary":4841,"Ġplant":4842,"ĠÐľ":4843,"å®ĥä»¬":4844,"Ġparticularly":4845,"Ġstruct":4846,"Ġadvice":4847,"Ġmale":4848,"05":4849,"Ġorg":4850,"ĠÃº":4851,"×ķ":4852,"ĠÑĩÑĤÐ¾Ð±Ñĭ":4853,"Ġult":4854,"orch":4855,"formation":4856,"ĠRed":4857,"Ġincreasing":4858,"Ġenter":4859,"Ġcancer":4860,"being":4861,"Ġnom":4862,"ply":4863,"elle":4864,"Ġadding":4865,"Ġreceive":4866,"Ġprincip":4867,"Ġlater":4868,"Ġexcited":4869,"æĸ":4870,"Ġpy":4871,"aciones":4872,"ĠNone":4873,"Ġappreci":4874,"veloper":4875,"Ġmouth":4876,"ĠSi":4877,"Ġwer":4878,"ĠWar":4879,"Ġ_":4880,"rel":4881,"len":4882,"-S":4883,"AB":4884,"ista":4885,"Ġhandling":4886,"hemat":4887,"Ġprojects":4888,"cular":4889,"Ġlegs":4890,"urance":4891,"ĠEarth":4892,"Ġintermediate":4893,"ÑĤÐµÑĢ":4894,"Î·":4895,"vered":4896,"Ġmotiv":4897,"ĠMay":4898,"rar":4899,"sch":4900,"åĪ":4901,"Inst":4902,"Ġtrend":4903,"Ġeither":4904,"Ã¨re":4905,"irect":4906,"Ġaus":4907,"Ġdynam":4908,"friend":4909,"ÐµÐ¿":4910,"itement":4911,"resents":4912,"():Ċ":4913,"lier":4914,"Ġcommunicate":4915,"ned":4916,"Ġwants":4917,"Ġmillion":4918,"Ġrev":4919,"ĠText":4920,"Ð°ÑĨÐ¸Ð¸":4921,"ĠStart":4922,"Ġcod":4923,").Ċ":4924,"eff":4925,"Ã¡l":4926,"Ġblood":4927,"Ġcand":4928,"Ġhighest":4929,"etime":4930,"Ð¶Ðµ":4931,"iro":4932,"ĠÐ²Ñģ":4933,"Ġoil":4934,"model":4935,"Ġdedicated":4936,"Ð½Ð¸":4937,"Ġcloser":4938,"Äĩ":4939,"ÅĽ":4940,"Ġê°":4941,"Ġefficiency":4942,"Ġincorrect":4943,"Ġconsole":4944,"Ġupdated":4945,"Ġaccuracy":4946,"ka":4947,"Ġwent":4948,"Ġtod":4949,"Ġattacks":4950,"Ġhom":4951,"Ġpotentially":4952,"\".Ċ":4953,"Ġinstruction":4954,"ĠFinally":4955,"rist":4956,"íķ´":4957,"Er":4958,"pass":4959,"Ġsmart":4960,"tes":4961,"Ġparagraph":4962,"Ġdistribution":4963,"Ġmyself":4964,"plot":4965,"ĠThen":4966,"ĠDataFrame":4967,"ttp":4968,"Ġimplementation":4969,"ork":4970,"ĠAfter":4971,"Ġprofession":4972,"Ġcame":4973,"Ġsind":4974,"Ġrepresents":4975,"Ġusu":4976,"Ġexpertise":4977,"rer":4978,"300":4979,"ĠinformaciÃ³n":4980,"Ġ__":4981,"umber":4982,"ÑĥÑģ":4983,"Ġdoc":4984,"ĠTechn":4985,"Ġdoor":4986,"ĠÐºÐ¾ÑĤÐ¾ÑĢÑĭÐµ":4987,"Ġfive":4988,"Ġobtain":4989,"ti":4990,"antic":4991,"ĠDAN":4992,"ØŃ":4993,"Ġneural":4994,"anks":4995,"Ġcross":4996,"Ð°Ð½Ð¸Ñı":4997,"ĠJavaScript":4998,"Ġthr":4999,"uer":5000,"App":5001,"Ð¾Ð²Ñĭ":5002,"ATE":5003,"ĠLondon":5004,"Ġfilm":5005,"tica":5006,"Ġlarger":5007,"Ġbecame":5008,"ĠFe":5009,"Ġoutside":5010,"Ġmember":5011,"Ġenable":5012,"Ġscreen":5013,"output":5014,"aps":5015,"prise":5016,"Ð»ÑİÑĩ":5017,"known":5018,"Ġvaluable":5019,"Ġmilit":5020,"gra":5021,"arge":5022,"Ġfeet":5023,"?\"ĊĊ":5024,"Ġfant":5025,"Ġnod":5026,"Ġanyone":5027,"Ġrestaur":5028,"ĠÐ±ÑĥÐ´":5029,"Ġbattle":5030,"-C":5031,"Ġdei":5032,"Ġeffectively":5033,"DF":5034,"Ġpesso":5035,"Ġbooks":5036,"Ġgreater":5037,"Ġcells":5038,"soft":5039,"jo":5040,"ĠOb":5041,"-the":5042,"Ð¾Ðµ":5043,"create":5044,"Ġdream":5045,"Ġreasons":5046,"ĠTest":5047,"Ġensuring":5048,"ains":5049,"Ġarm":5050,"Ġdrugs":5051,"Ġsin":5052,"Ġshows":5053,"Ġmaximum":5054,"Up":5055,"wo":5056,"ĠBased":5057,"Ġinvestment":5058,"Another":5059,"bit":5060,"Ġnicht":5061,"Ġparty":5062,"Ġ!":5063,"Ġalt":5064,"Ġ@":5065,"Ġpenis":5066,"ama":5067,"Ġuniverse":5068,"ĠGod":5069,"Ġallowing":5070,"Ġcollabor":5071,"cn":5072,"amine":5073,">ĊĊ":5074,"Ġsite":5075,"Ġsynthetic":5076,"55":5077,"-of":5078,"Ġnumer":5079,"Ġregist":5080,"www":5081,"Ġ**":5082,"ĠAmerican":5083,"Ġbreasts":5084,"(n":5085,"Ġdiction":5086,"iveness":5087,"ÐµÐ½ÑĮ":5088,"],Ċ":5089,"Ġfeels":5090,"Ġlost":5091,"Ġgenerated":5092,"Ġbab":5093,"lete":5094,"Ġcomment":5095,"Ġnut":5096,"emb":5097,"Ð»ÑĮ":5098,"Ġaim":5099,"Ġsaw":5100,"udio":5101,"ND":5102,"ĉĉĉĉ":5103,"Ġopportunity":5104,"Â°":5105,"Ġaspects":5106,"ĠFl":5107,"html":5108,"Ġphone":5109,"Ġthreat":5110,"Ġbes":5111,"aste":5112,"Ġtheory":5113,"Ġmob":5114,"Ġtab":5115,"Ġproperly":5116,"150":5117,"Ã¶r":5118,"Ġdelle":5119,"ius":5120,"Ãºmer":5121,"Ġrele":5122,"Ġearly":5123,"ĠOutput":5124,"Ġ},Ċ":5125,"Īĺ":5126,"Ġsuccessful":5127,"flow":5128,"Ġhat":5129,"Ġaplic":5130,"arty":5131,"ê³ł":5132,"ĠTherefore":5133,"qui":5134,"Ġadded":5135,"Ġcool":5136,"Ġmoving":5137,"Ġequation":5138,"Ġassign":5139,"ĠDon":5140,"Ġhal":5141,"sych":5142,"term":5143,"ky":5144,"hello":5145,"Ġsympt":5146,"Ġpolicy":5147,"Ġprime":5148,"Ġactually":5149,"ĠOh":5150,"umb":5151,"Ġcreative":5152,"Ġconstruct":5153,"ervice":5154,"ĸ´":5155,"Ġcolumns":5156,"Ã¡rio":5157,"Ġcatalyst":5158,"Ġframework":5159,"Ġgrowing":5160,"Ġpurch":5161,"ponse":5162,"Ġfilter":5163,"-being":5164,"Ġstatus":5165,"Ġlaws":5166,"Ġassum":5167,"Ġstrategies":5168,"ĠNet":5169,"-year":5170,"((":5171,"Ġhood":5172,"Ġcomun":5173,"Ġstock":5174,"Ġdados":5175,"alue":5176,"enza":5177,"aked":5178,".js":5179,"Ġenemy":5180,"Ġsensitive":5181,"Ġtried":5182,"yridine":5183,"ams":5184,"ĠinformaÃ§Ãµes":5185,"æĪĳ":5186,"Es":5187,"Ġdialogue":5188,"Ð´Ð°":5189,"ĠReg":5190,"Ġrights":5191,"ĠWindows":5192,"Ġrelax":5193,"ffic":5194,"Ġdin":5195,"Ġliter":5196,"ilos":5197,"ĠHTML":5198,"amos":5199,"Ġconv":5200,"Given":5201,"abil":5202,"ends":5203,"Ġpoly":5204,"Ġod":5205,"arily":5206,"Ġcry":5207,"Ġreliable":5208,"Ġcada":5209,"Ġvo":5210,"ĠPy":5211,"Ġformula":5212,"ography":5213,"Ġpercent":5214,"ĠÐĺ":5215,",ĊĊ":5216,"eries":5217,"Ġloved":5218,"irit":5219,"Ġdispos":5220,"list":5221,"ÏĢ":5222,"Ġmessages":5223,"That":5224,"Ġwat":5225,"Ġturned":5226,"gi":5227,"Ġwel":5228,"Ġfaz":5229,"/s":5230,"ĠÐ¯":5231,"Ġarri":5232,"hent":5233,"Ġfulfill":5234,"Col":5235,"Ġtut":5236,".set":5237,"Ġalone":5238,"ĠComm":5239,"Ġdecided":5240,"Ġlic":5241,"ĠÐ¾Ð¿":5242,"Ġfill":5243,"off":5244,"ĠâĢĵ":5245,"75":5246,"udo":5247,"MA":5248,"-D":5249,"Ġtoken":5250,"Ġals":5251,"Ġrap":5252,"Int":5253,"Ġcert":5254,"][":5255,"Ġenh":5256,"ini":5257,"ocal":5258,"ateful":5259,"aten":5260,"Ġrich":5261,"rest":5262,"Ġbeauty":5263,"Ġcontinues":5264,"Start":5265,"Ġassess":5266,"eks":5267,"Em":5268,"ìľ":5269,"time":5270,"Ġpassword":5271,"ÐĿ":5272,"px":5273,"rate":5274,"IA":5275,"ival":5276,"ĠÑĪ":5277,"Ġdesires":5278,"Ġsig":5279,"ãģ¦":5280,"ifying":5281,"User":5282,"Ġnarr":5283,"ãģ¨":5284,"ĠespecÃŃf":5285,"åĬ":5286,"Ġraw":5287,"Ġneces":5288,"Ġwhis":5289,"acter":5290,"cel":5291,"Ġdiferent":5292,"Ġexcitement":5293,"Ġpet":5294,"Ġresearchers":5295,"Ġwie":5296,"Ġvar":5297,"Ġstress":5298,"Ġrom":5299,"Ġemerg":5300,"cin":5301,"Ġmathemat":5302,"Ġweak":5303,"Ġpan":5304,"These":5305,"Ġapply":5306,"ture":5307,"Ð½Ð¾Ðµ":5308,"icon":5309,"Ġë°":5310,"Ġempres":5311,"Ġweapon":5312,"Ġtrusted":5313,"ĠEach":5314,"lib":5315,"Ġprompts":5316,"arize":5317,"Ġprograms":5318,"Ġthroughout":5319,"path":5320,"Ġsed":5321,"ĠChinese":5322,"Ġdeploy":5323,"Can":5324,"Ġhonest":5325,"ï¼Ł":5326,"ony":5327,"Ġpodem":5328,"Ġcounter":5329,"Ġdifferen":5330,"Ġindustrial":5331,"ÑĥÐ¶":5332,"Ġaw":5333,"ĠnÃºmer":5334,"ĠOver":5335,"},Ċ":5336,"Ġtree":5337,"\"\"":5338,"Ð¸ÑĪ":5339,"Ġpriorit":5340,"ĠÐ·Ð°":5341,"Ð¸ÑĤÐµÐ»ÑĮ":5342,"Ġopinions":5343,"Ġboard":5344,"itar":5345,"Ġbalance":5346,"eep":5347,"code":5348,"Ġdirection":5349,"emp":5350,"idth":5351,"\">Ċ":5352,"with":5353,"Ġnovel":5354,"Ġpersonality":5355,"otic":5356,"Ġbrain":5357,"ils":5358,"Ġunable":5359,"ãĥ¼":5360,"used":5361,"ĠEnt":5362,"ê°Ģ":5363,"Ġtold":5364,"Ġleader":5365,"II":5366,"Ġpopulation":5367,"Ġefficiently":5368,"Ġau":5369,"force":5370,"ĠÃ©t":5371,"Ġaudio":5372,"Ġec":5373,"Ġcomprehensive":5374,"Ġtown":5375,"Ġsection":5376,"Ġsav":5377,"Ġincreased":5378,"ĠAS":5379,"Ġdies":5380,"cast":5381,"Ġgender":5382,"UT":5383,"ĠCould":5384,"!Ċ":5385,"Ġemployees":5386,"Ġreplace":5387,"State":5388,"_data":5389,"ĠID":5390,"Ġdomin":5391,"inst":5392,"-h":5393,"Ġcritical":5394,"---":5395,"Ġbud":5396,"ìĿĢ":5397,"enge":5398,"ÑĥÐ½":5399,"39":5400,"Ġshown":5401,"Ġgi":5402,"Ġfocused":5403,"Ġarr":5404,"undo":5405,"Ġinsp":5406,"ded":5407,"Ġmode":5408,"Ġci":5409,"File":5410,"Ġgeneration":5411,"Ġwild":5412,"04":5413,"Ġpush":5414,"ä¹":5415,"ternal":5416,"Ġsimply":5417,"ji":5418,"Ġsod":5419,"Ġpull":5420,"rench":5421,"ROM":5422,"},":5423,"Ġliqu":5424,"Ġmole":5425,"rat":5426,"utral":5427,"Ġerrors":5428,"Ġindepend":5429,"Ġmir":5430,"Ġhar":5431,"Ġexisting":5432,"ops":5433,"ĠAct":5434,"Ġchanging":5435,"pty":5436,"Ġchann":5437,"ä½łå¥½":5438,"vere":5439,"Ġdead":5440,"ĠAnswer":5441,"itation":5442,"ĠIndust":5443,"Ġweather":5444,"Ġtecn":5445,"Ġsuggests":5446,"ÑģÐ»":5447,"Ġdrive":5448,"Ġposso":5449,"Ġprotection":5450,"Ġsatisfaction":5451,"ĠÐ¢":5452,"Ġgenerating":5453,"Ġsurface":5454,"index":5455,"Ġactive":5456,"Ġexecut":5457,"Ġsymptoms":5458,"Ġshared":5459,"fl":5460,"Ġelectric":5461,"âĸ":5462,"asm":5463,"Ġ###":5464,"Ġones":5465,"Ġstrange":5466,"Ð¸Ð¼ÐµÑĢ":5467,"erse":5468,"ìķ":5469,"Ïĥ":5470,"×ķ×":5471,"iche":5472,"å®ĥå®ĥå®ĥå®ĥ":5473,"Ġdefined":5474,"Ġmol":5475,"Ġstar":5476,"Ġmut":5477,"Ġconcepts":5478,"ints":5479,"result":5480,"Ġpd":5481,"indo":5482,"Ġfict":5483,"bes":5484,"Ġroute":5485,"ï¿½ï¿½":5486,"âĶ":5487,"èĥ":5488,"Ġinfluence":5489,"api":5490,"tk":5491,"ĠNow":5492,"Ġrows":5493,"Ġmil":5494,"ronic":5495,"Ġpolitics":5496,"ga":5497,"Ġtom":5498,"Wh":5499,"HE":5500,"ë¦":5501,"unta":5502,"ying":5503,"ena":5504,"Ġfinally":5505,"Ġmoral":5506,"icrosoft":5507,"ï¼ļ":5508,"pth":5509,"Ġexecution":5510,"Ġcosts":5511,"oh":5512,"lim":5513,"Ð½Ð°Ñı":5514,"Ġlif":5515,"otal":5516,"ÑıÑĤ":5517,"Ġesc":5518,"Ġsmaller":5519,"Ġexpos":5520,"ÃŃs":5521,"Ġsuggestions":5522,"Ġoperating":5523,"Ġtight":5524,"adem":5525,"Ġreceived":5526,"Ġcover":5527,"volution":5528,"Ġsounds":5529,"rief":5530,"Ġanc":5531,"ugg":5532,"Ġprod":5533,"Ġestablish":5534,"Ġdivid":5535,"Ġjud":5536,"ì§Ģ":5537,"idos":5538,"Ġdictionary":5539,"nal":5540,"Ġseems":5541,"Ġimplemented":5542,"Ġmount":5543,"alle":5544,"Ð»ÐµÐ½":5545,"Ġpossib":5546,"hib":5547,"Ġmark":5548,"su":5549,"Ð½Ð°Ñĩ":5550,"Ġnetworks":5551,"ĠList":5552,"azon":5553,"org":5554,"Ġdiscover":5555,"ä¸į":5556,"Ġcarefully":5557,"ĠìŀĪ":5558,"include":5559,"abe":5560,"\\_\\_\\_\\_":5561,"rained":5562,"Ġwidth":5563,"Ġteach":5564,"Ġemotional":5565,"ĠNot":5566,"(d":5567,"ĠHis":5568,"ãģĮ":5569,"Ġconnected":5570,"Ġfail":5571,"sc":5572,"Ġdatos":5573,"ĠÃ¼":5574,"ieren":5575,"Ġtend":5576,"Ġorganic":5577,"Ġeasier":5578,"Ġfont":5579,"Ġ<<":5580,"Ġregulations":5581,"erve":5582,"ÑģÑĤÑĢ":5583,"Ġcoord":5584,"à¸²":5585,"Ġbur":5586,"atur":5587,"log":5588,"Ġretrie":5589,"Ġsell":5590,"Ġclarify":5591,"Ġremote":5592,"ĠGe":5593,"Ð¼Ð¸":5594,"Ġextrem":5595,"cles":5596,"UM":5597,"Ġboundaries":5598,"title":5599,"Ġeye":5600,"02":5601,"Ġalign":5602,"ĠJust":5603,"ÐµÑħ":5604,"ĠBuild":5605,"pet":5606,"TP":5607,"Ġprepar":5608,"color":5609,"Ġmaster":5610,"Ġcolle":5611,"ëĵ":5612,"Ġrecommended":5613,"IG":5614,"Ġsquare":5615,"\":\"":5616,"Ġcloud":5617,"Ã©es":5618,"anz":5619,"Ġsubm":5620,"Ġguide":5621,"Ġjson":5622,"Ġdifferences":5623,"Ġarous":5624,"Ġcook":5625,"Ġshall":5626,"Ġwerden":5627,"Ġpuedo":5628,"Ġprinciples":5629,"\">":5630,"Ġanimal":5631,"ustomer":5632,"ughter":5633,"verse":5634,"ĠkÃ¶n":5635,"Ġintel":5636,"ĠOur":5637,"ously":5638,"arios":5639,"Ġdecl":5640,"vest":5641,"ĠSE":5642,"AP":5643,"ING":5644,"ĠÃª":5645,"âĢĻt":5646,"icks":5647,"MS":5648,"Ġplatforms":5649,"Ġsul":5650,"iliar":5651,"ÑĨÐ¸":5652,"ungs":5653,"Ġrelease":5654,"-w":5655,"Ġplans":5656,"antes":5657,"Ġcarbon":5658,"Ġappearance":5659,"ĠRE":5660,".con":5661,"uster":5662,"acher":5663,"Ġforms":5664,"Ġexecute":5665,"Ð½Ð¾Ð²":5666,"Ġasks":5667,"Output":5668,"Ġparameter":5669,"Ġinteresting":5670,"Ġfavorite":5671,"ÐµÐ³Ð¾":5672,"Let":5673,"ĠÑģÐ¾Ð·Ð´":5674,"ellow":5675,"Ġgiving":5676,"06":5677,"nes":5678,"Ġleaders":5679,"fit":5680,"Ġcompl":5681,"ief":5682,"Error":5683,"Ġusar":5684,"Ð¾Ð»Ð¶":5685,"where":5686,"ĠØ§ÙĦØ":5687,"Ġscenario":5688,"Ġserve":5689,"48":5690,"ĠTake":5691,"ensity":5692,"Ġmonths":5693,"Ġdiet":5694,"Ð»Ð°":5695,"Ġcentral":5696,"×Ļ×":5697,"Ġband":5698,"ni":5699,"angle":5700,"ÑĥÐ¼":5701,"MP":5702,"ĠpiÃ¹":5703,"Ġchest":5704,"Ġdeal":5705,"Ġreducing":5706,"Ð°ÑİÑĤ":5707,"Ġnu":5708,"-g":5709,"arrass":5710,"ĠAnt":5711,"Ġfundament":5712,"Ġdepends":5713,"Ġclimate":5714,"Ġcommands":5715,"Ġatm":5716,"ille":5717,"ÑĦÐ¾ÑĢÐ¼":5718,"ÏĤ":5719,"ĠÐŃ":5720,"Ð¾Ð»ÑĮÐºÐ¾":5721,"enerate":5722,"ìĦľ":5723,"Now":5724,"LP":5725,"Ġdefault":5726,"Ġpoem":5727,"vis":5728,"Ġdan":5729,"Ð³Ð¾":5730,"Ġtour":5731,"Ġmixture":5732,"ĠLear":5733,"opt":5734,"ĠÐ¼Ð½":5735,"ĠSub":5736,"roduct":5737,"Ġfingers":5738,"Ġtall":5739,"ĠCor":5740,"ÅŁ":5741,"ÐµÑĢÐ¶":5742,"42":5743,"Ġlack":5744,"Ġdrug":5745,"Ġdell":5746,"Ġbrother":5747,"ably":5748,"ĊĊĊ":5749,"Ġgrateful":5750,"ĠÐ¾Ñģ":5751,"Ġlibraries":5752,"Ġmorning":5753,"eah":5754,"icing":5755,"Ġvir":5756,"Ġrecurs":5757,"Ġign":5758,"Ġsettings":5759,"ĠÐŁÑĢ":5760,"Ġremind":5761,"ÑĥÐ¿":5762,"ĠInstead":5763,"LO":5764,"Ġusually":5765,"Ġdevelopers":5766,"iation":5767,"Ġreputation":5768,"acion":5769,"unk":5770,"Ġinstance":5771,"Ġembarrass":5772,"Ġprefer":5773,"ĠArt":5774,"ĠFra":5775,"ela":5776,"ê²":5777,"_list":5778,"oo":5779,"Ġmeeting":5780,"Ġsister":5781,"Ġegg":5782,"ĠId":5783,"idity":5784,").ĊĊ":5785,"ĠMin":5786,"Ġprivacy":5787,"Ġinnovative":5788,"ĠPerson":5789,"Ġexcell":5790,"Ġvida":5791,"03":5792,"ona":5793,"process":5794,"nÃ©es":5795,"ĠÑĢÐ°Ð±Ð¾ÑĤ":5796,"ĠÂ¡":5797,"ĠÐ¼Ð¾Ð³Ñĥ":5798,"enta":5799,"ĠAut":5800,"String":5801,"ĠÐºÐ¾ÑĤÐ¾ÑĢÑĭÐ¹":5802,"Ġconstantly":5803,"oria":5804,"Ġreality":5805,"Ġtail":5806,"het":5807,"ifier":5808,"ĠUp":5809,"Input":5810,"Ġcolors":5811,"ificar":5812,"ĠAb":5813,"olo":5814,"urb":5815,"ls":5816,"Ð¢":5817,"Ġgenerally":5818,"Ġdiferentes":5819,"Ġlingu":5820,"ÑĢÐµÐ¼":5821,"Ġarguments":5822,"Ġgarant":5823,"Ġencourage":5824,"Ġinternational":5825,"Ġfictional":5826,"Ġ{\"":5827,"Ġsont":5828,"Type":5829,"ende":5830,"Ġcrypt":5831,"Ġaprend":5832,"Ġsea":5833,"rastructure":5834,"ĠÐ½Ð°Ð¿":5835,"ĠÐ¾Ð´":5836,"ĠLinux":5837,"Ġpsych":5838,"ãģŁ":5839,"Ġpict":5840,"Ġinsights":5841,"cia":5842,"Ġauch":5843,"Ġreply":5844,"Ġ->":5845,"nis":5846,"-like":5847,"ĠHi":5848,"Ġdetermination":5849,"ÑĢÐ°Ð·":5850,"engu":5851,"78":5852,"Ġfinding":5853,"Ġnuc":5854,"test":5855,"Ðļ":5856,"Ġestim":5857,"osis":5858,"Ġsurv":5859,"WS":5860,"Ġempty":5861,"Ġyes":5862,"Ġdiagn":5863,"ĠPrint":5864,"Ġperspective":5865,"True":5866,"iert":5867,"yond":5868,"Ġìķ":5869,"ĠCar":5870,"ĠØª":5871,"ĠPort":5872,"xx":5873,"Ġinstalled":5874,"Ġseed":5875,"Ġengineering":5876,"198":5877,"ãģª":5878,"osta":5879,"ername":5880,"^^":5881,"Ġfather":5882,"Ġhelped":5883,"å°":5884,"Ġbirth":5885,"-up":5886,"Ġimmedi":5887,"ĠDet":5888,"agement":5889,"Ïħ":5890,"Ġglad":5891,"ĠMus":5892,"Ġfair":5893,"ĠRep":5894,"Ġrace":5895,"ÑĥÑī":5896,"Ġplayed":5897,"ĠCode":5898,"ĠUser":5899,"ĠOrgan":5900,"èĥ½":5901,"Ġpac":5902,"Ġgirls":5903,"ĠDate":5904,"Ġphilos":5905,"ĠtambÃ©m":5906,"Ġjoin":5907,"ĠGu":5908,"Ġentity":5909,"mes":5910,"Ġlabor":5911,"Ġincome":5912,".add":5913,"comfort":5914,"Ġchallenging":5915,"Document":5916,"Ġintended":5917,"Ġtrading":5918,"Ġtone":5919,"Ġsaying":5920,"encing":5921,"Ġincred":5922,"yrid":5923,"keit":5924,"Ġdocuments":5925,"Ġdecide":5926,"eline":5927,"Ġfactor":5928,"itter":5929,"chain":5930,"ĠCent":5931,"Ġplaces":5932,"Ġmovement":5933,"Ġpandas":5934,"Ġnode":5935,"-term":5936,"henyl":5937,"Ġwonder":5938,"Ġtrip":5939,"ÑĢÐ°Ð²":5940,"ìĸ´":5941,"Ð°Ð½Ð¸Ðµ":5942,"Ġtempo":5943,"venue":5944,"trans":5945,"ĠDie":5946,"Ġsuis":5947,"rency":5948,"Ġregardless":5949,"Ġvalor":5950,"Ġpartners":5951,"aily":5952,"Ġstrings":5953,"issions":5954,"Ġhidden":5955,"ĠIh":5956,"ĮĢ":5957,"arp":5958,"Ġfollowed":5959,"ima":5960,"Ġinac":5961,"Ġoffice":5962,"anguage":5963,"otes":5964,"craft":5965,"resh":5966,"aks":5967,"Ġfacilities":5968,"ocket":5969,"ught":5970,"ĠSim":5971,"Ġdomain":5972,"Ġpul":5973,"Ġmetal":5974,"Ġconfiguration":5975,"etic":5976,"ĠÐ¼Ð¾Ð³ÑĥÑĤ":5977,"iar":5978,"Ã¡vel":5979,"Ġalle":5980,"Ġgram":5981,"-n":5982,"Ð¸Ð»ÑĮ":5983,"LECT":5984,"rag":5985,"Ġinstit":5986,"ĠProduct":5987,"On":5988,"ĠÐĲ":5989,"Ð¸Ð³":5990,"eration":5991,"à¸²à¸":5992,"Ġmagic":5993,"Ġexactly":5994,"Ġadminist":5995,"array":5996,"Ġcast":5997,"Ġcreates":5998,"Ġspecify":5999,"Ġimproving":6000,"ÐºÐµ":6001,"Ġplanning":6002,"ĠGive":6003,"Ġ[Ċ":6004,"ĠSw":6005,"Ġunc":6006,"ott":6007,"Ġspend":6008,"Ġiniti":6009,"ĠFalse":6010,"ĠRet":6011,"Ġstored":6012,"odo":6013,"Ġseparate":6014,"lick":6015,"Ġunit":6016,"Ġfamous":6017,"åŃ":6018,"Cre":6019,"Ġta":6020,"Hi":6021,"herent":6022,"label":6023,"Ġdescribed":6024,"Ġreading":6025,"ulo":6026,"Ġautomat":6027,"ìĬµ":6028,"envol":6029,"unning":6030,"Ġinteractions":6031,"Ġcharacteristics":6032,"Ġbright":6033,"ĠGame":6034,"ayer":6035,"ÑĬ":6036,"Ġstanding":6037,"level":6038,"ĠìĿ´":6039,"\");Ċ":6040,"Ġbecoming":6041,"ĠInput":6042,"ÐµÐºÑģÑĤ":6043,"function":6044,"è¿":6045,"Date":6046,"65":6047,"using":6048,"Ġchoices":6049,"Ġreached":6050,"Ġgives":6051,"eras":6052,"........":6053,"ĠÐ·Ð°Ð¿":6054,"Ġinternal":6055,"icy":6056,".txt":6057,"Ġbeyond":6058,"riv":6059,"Ġspirit":6060,"49":6061,"ĠAcc":6062,"Ġround":6063,"#include":6064,"Ġcoming":6065,"ĠInc":6066,"ivil":6067,"veis":6068,"Ġprogrammed":6069,"comp":6070,"Ġsuas":6071,"Summary":6072,"Pl":6073,"onna":6074,"Ġstories":6075,"usive":6076,"ĠJe":6077,"Ġdeve":6078,"Ġahead":6079,"idas":6080,"400":6081,"rupt":6082,"most":6083,"ĠBit":6084,"Ġoperation":6085,"ĠHigh":6086,"ĠPe":6087,"anch":6088,"lig":6089,"vey":6090,"ĠDescribe":6091,"ÑįÑį":6092,"yrimidine":6093,"Ġcontro":6094,"ĠIT":6095,"Ġcamera":6096,"ĠÃªtre":6097,"Ġfib":6098,"Ġtips":6099,"Ġlate":6100,"ĠIch":6101,"Ġfat":6102,"Ġamaz":6103,"Ġkeys":6104,"Ġinaccurate":6105,"iced":6106,"iny":6107,"Ġcompounds":6108,"ëı":6109,"Ġroleplay":6110,"ismo":6111,"{\"":6112,"Ġadventure":6113,".</":6114,"rompt":6115,"ÃŃvel":6116,"Ġlargest":6117,"Ġcompared":6118,"Ġeconomy":6119,"Ġdisease":6120,"Ġmodify":6121,"Ġheard":6122,"imal":6123,"Ð·Ñĭ":6124,"Ġatmosp":6125,"Ġprotocol":6126,"Ġholding":6127,"Ð¸Ð¿":6128,"ov":6129,"Ġapproxim":6130,"hood":6131,"Ġfaster":6132,"Ġscale":6133,"UN":6134,"bor":6135,"alian":6136,"adores":6137,"Ġmilitary":6138,"Ġlearned":6139,"mm":6140,"Ġarqu":6141,"ÐºÑĤ":6142,"Ġpropor":6143,"conds":6144,"Ð»Ð¸Ñĩ":6145,"Ð¾Ð»ÑĮÑĪ":6146,"Ġglow":6147,"Ġvan":6148,"Ġstrict":6149,"Ġmyster":6150,"Ġanti":6151,"Ð¸ÑĢÐ¾Ð²Ð°Ð½":6152,"Ġ['":6153,"ĠÐ²Ð°Ð¼":6154,"ĠWeb":6155,"Ġprioritize":6156,"ĠÐµÐ³Ð¾":6157,"Ð¾Ð¼Ñĥ":6158,"Ġstudies":6159,"ĠPower":6160,"Ġprovider":6161,"iam":6162,"IV":6163,"Ġfon":6164,"ĠPor":6165,"Ġtechnique":6166,"number":6167,"Ġwaste":6168,"66":6169,"_file":6170,"Ġnoting":6171,"Time":6172,"Ġversat":6173,"ĠÑģÐº":6174,"hel":6175,"aro":6176,"Ġchem":6177,"position":6178,"Ġdouble":6179,"poses":6180,"æķ":6181,"ĠInter":6182,"cio":6183,"Press":6184,"Model":6185,"ĠdonnÃ©es":6186,"Ġvotre":6187,"Ġaccur":6188,"Ġpiece":6189,"Ġchallenge":6190,"Ġarms":6191,"ĠMicrosoft":6192,"Ġcontainer":6193,"Ġtests":6194,"Be":6195,"iring":6196,"\")ĊĊ":6197,"Ġoch":6198,"Ġvel":6199,"Ġwebsites":6200,"Ġwa":6201,"_size":6202,"Ġtkinter":6203,"Ġbecomes":6204,"ĠSol":6205,"Ġtranslation":6206,"Ġê²":6207,"ĠOff":6208,"Ġrac":6209,"ĠFirst":6210,"SO":6211,"ĠSy":6212,"Ġdiscrim":6213,"Ġinformative":6214,"255":6215,"Ġconflict":6216,"very":6217,"(t":6218,"Ġdisco":6219,"amples":6220,"rid":6221,"Ġvideos":6222,"Ġcollection":6223,"ĠWhy":6224,"bar":6225,"Ġconstruction":6226,"Ġnull":6227,"ĠContin":6228,"aled":6229,"ĠìĪĺ":6230,"Ġconcise":6231,"Ġattra":6232,"Ġsituations":6233,"YS":6234,"Ġ[\"":6235,"Ġmission":6236,"Ġstra":6237,".app":6238,"ĠUniversity":6239,"Ġtok":6240,"xi":6241,"Ġmoan":6242,"GB":6243,":\\":6244,"cha":6245,"osit":6246,"123":6247,"-chlor":6248,"adow":6249,"ffee":6250,"07":6251,"Ġofficial":6252,"Ġtempl":6253,"char":6254,"Ġmobile":6255,"ĠIP":6256,"Ġclasses":6257,"gu":6258,"Ġheld":6259,"ĠÃ¼ber":6260,"aming":6261,"Ġpurposes":6262,"ĠInstruction":6263,"Ġslight":6264,"Ã§o":6265,"Ġworkers":6266,"item":6267,"Ġwalked":6268,"æĢ":6269,"Ġtrade":6270,"eper":6271,"Ġmac":6272,"ãģ¾ãģĻ":6273,"Ġepis":6274,"Ġvector":6275,"Ġmatrix":6276,"197":6277,"current":6278,"pace":6279,"Ġstro":6280,"ĠÃī":6281,"Ġinteger":6282,"âĢľ":6283,"rapy":6284,"ÃŃn":6285,"Ġrule":6286,"Ġchlor":6287,"fall":6288,"Ġcatch":6289,"Ġsweet":6290,"Ġschedu":6291,"Ġfer":6292,"Ġsomet":6293,"Ġroad":6294,"ĠOpenAI":6295,"Ġliquid":6296,"Ġvoid":6297,"Ð¸Ð½Ð¸Ð½":6298,"Ġsegment":6299,"Ġclearly":6300,"().":6301,"85":6302,"Ã¤t":6303,"yal":6304,"Ġwatching":6305,"Ãªn":6306,"Ġappreciate":6307,"Ġsupply":6308,"_w":6309,"Ġhay":6310,"void":6311,"Ġ+=":6312,"Ġrend":6313,"Ġpad":6314,"ensions":6315,"ativo":6316,"Ġdownload":6317,"Ġspecifically":6318,"Ġcandid":6319,"Ġsignal":6320,"blic":6321,"Ġvia":6322,"Ġauthent":6323,"ike":6324,"-F":6325,"Ġhaz":6326,"Ġmerc":6327,"Ġbaby":6328,"At":6329,"Ġmicro":6330,"ERT":6331,"Ġmodo":6332,"lied":6333,"Ġpayment":6334,"equ":6335,"sub":6336,"ä¸Ģ":6337,"Finally":6338,"Ġinfrastructure":6339,"%Ċ":6340,"ĠTV":6341,"Ġcauses":6342,"osa":6343,"Ġbudget":6344,"Ð¾Ñı":6345,"lebr":6346,"Ġquite":6347,"hydro":6348,"Ġaccurately":6349,"Ġocc":6350,"Ġtro":6351,"Ġpick":6352,"ormal":6353,"ĠSS":6354,"icher":6355,"DA":6356,"Ġsafely":6357,"Ġquantum":6358,"ĠÐ²Ð¾Ð·":6359,"Ġconcent":6360,"host":6361,"kan":6362,"ethical":6363,"ĠFrench":6364,"Ġbeginning":6365,"world":6366,"ryption":6367,"Ġprem":6368,"Ġtraffic":6369,"uns":6370,"BC":6371,"Ġfamiliar":6372,"ĠFrom":6373,"wend":6374,"From":6375,"Ġmejor":6376,"ords":6377,"ëł":6378,"Ġclick":6379,"Ġprepare":6380,"ĠpuÃ²":6381,"quis":6382,"Î»":6383,"frame":6384,"cciÃ³n":6385,"Ġresponsibility":6386,"ĠComo":6387,"gal":6388,"Ð½ÑĥÑİ":6389,"now":6390,"Ġben":6391,"Ð²Ð»Ñı":6392,"ipped":6393,"\".ĊĊ":6394,"enses":6395,"ĠIdent":6396,"Ġappears":6397,"Ġcontribute":6398,"Ġrestrict":6399,"Ġenjoying":6400,"Ġspecies":6401,"Ġconce":6402,"Ġom":6403,"Ġhappen":6404,"ĠCS":6405,"ĠDE":6406,"ĠÐ¸ÑģÐ¿Ð¾Ð»ÑĮÐ·Ð¾Ð²Ð°ÑĤÑĮ":6407,"Ġshap":6408,"Ġelectr":6409,"azine":6410,"ĠCity":6411,"Ġteams":6412,"ope":6413,"ĠAmazon":6414,"Ġlengu":6415,"going":6416,"ellen":6417,"Ġmoon":6418,"Ġwomb":6419,".C":6420,"Ġterminal":6421,"-lo":6422,"Ġunethical":6423,"å¹":6424,"zing":6425,"Ġpassed":6426,"Ġhour":6427,"ban":6428,"Ġhardware":6429,"Ġcorrectly":6430,"ancing":6431,"Sh":6432,"****":6433,"iance":6434,"PS":6435,"iner":6436,"gricult":6437,"iers":6438,"Ġcorresponding":6439,"ĠGood":6440,"ĠKeep":6441,"Ġjoke":6442,"Ð¸Ð¼Ð¸":6443,"oman":6444,"Ġfriendly":6445,".w":6446,"Ø¬":6447,"Ġsmooth":6448,"ê¸°":6449,"Ġadult":6450,"Ġextremely":6451,"Ġjog":6452,"Direction":6453,"ĠÐķ":6454,"Ġcore":6455,"Ġcarry":6456,"Ġstd":6457,"Ġpip":6458,"Ġrecognize":6459,"')ĊĊ":6460,"Ġliv":6461,"iding":6462,"Ġefforts":6463,"Ġban":6464,"ares":6465,"Ġef":6466,"rm":6467,"-art":6468,"ĠChrist":6469,"atus":6470,"ÑĢÐµÐ´":6471,"Ġnice":6472,"çĶ¨":6473,"ĠFin":6474,"_path":6475,"ìĬµëĭĪëĭ¤":6476,"åľ":6477,"Ã¡rios":6478,"utt":6479,"main":6480,"ĠMet":6481,"black":6482,");":6483,"Ġintent":6484,"istent":6485,"([":6486,"amin":6487,"Ġbatter":6488,"Ġvehicle":6489,"CE":6490,"Ġfru":6491,"Ġsometimes":6492,"ref":6493,"Ass":6494,"wise":6495,"ÑģÑĤÑĮ":6496,"Ġenhance":6497,"ĠPres":6498,"Ġsensation":6499,"Ġdry":6500,"Ġmanaging":6501,"Ġprices":6502,"\\\"":6503,"Ġadm":6504,"oub":6505,"Ġexplor":6506,"Ġnos":6507,"object":6508,"Ġonto":6509,"Ġsession":6510,"Ã©t":6511,"-A":6512,"Ġwet":6513,"Ġpeut":6514,"Ġvictory":6515,"Ġminimize":6516,"Ġfounded":6517,"Ġwood":6518,"TE":6519,"enda":6520,"Ġvolume":6521,"Ġdesenvol":6522,":ĊĊĊ":6523,"ÐºÑĨ":6524,"Ġindicate":6525,"Once":6526,"Ġseeking":6527,"iet":6528,".root":6529,"Ġgets":6530,"Ġhistorical":6531,"Ġconsent":6532,"ĠAust":6533,"Ġëĭ":6534,"ĠFrance":6535,"query":6536,"Ġcorre":6537,"Ġstrive":6538,"Ġpros":6539,"Ġrealize":6540,"ĠBer":6541,"Ġcareer":6542,"ĠÐ·Ð°Ð´":6543,"\"I":6544,"Î¼":6545,"ĠÐ¿ÑĢÐ¾Ð´":6546,"ĠGerman":6547,"Ġprofessionals":6548,"Why":6549,"Ġtaste":6550,"Ġrally":6551,".ex":6552,"Ġtokens":6553,"util":6554,"Ġsolo":6555,"Ġpercentage":6556,"ister":6557,"dev":6558,"fÃ¼":6559,"Ð¾Ð»Ð½":6560,"Ñĳ":6561,"ĠÑĤÐ°ÐºÐ¶Ðµ":6562,"Ġayudarte":6563,"Ġalla":6564,"Ġveget":6565,"Ġlived":6566,"Ġlips":6567,"ĠEle":6568,"onom":6569,"å®ĥåı¯ä»¥":6570,"46":6571,"Ġera":6572,"HT":6573,"Ġingredients":6574,"Ġbelong":6575,"Ġgod":6576,"Ġtrends":6577,"Ġmig":6578,".st":6579,"Ġdispon":6580,"cher":6581,"press":6582,"roduction":6583,"Ġtecnolog":6584,"Ġwird":6585,"ÑĢÐ°Ð¼":6586,"Ġgold":6587,"rics":6588,"valu":6589,"Ġtick":6590,"roche":6591,"Ġbrief":6592,"Ġintense":6593,"ags":6594,"Ġsubs":6595,"Ġrecognition":6596,"Ġobser":6597,"Ġprobability":6598,"ocked":6599,"ĠJack":6600,"Ġwife":6601,"Ġguess":6602,"Ġcrucial":6603,"Ġbroad":6604,"Ġseemed":6605,"Ġparents":6606,"uge":6607,"Ġreleased":6608,"Ġsolvent":6609,"47":6610,"Ġpresident":6611,"Ġpueden":6612,"Ġvision":6613,"Ġlogic":6614,"Ġnerv":6615,"Ġclothes":6616,"race":6617,"ãģĵ":6618,"Ġcompar":6619,"Ġhacer":6620,"Ġcriar":6621,"Ġleaving":6622,"Ġstands":6623,"Ġpromoting":6624,"ĠÐºÐ¾Ð¼Ð¿":6625,"Ġcomputing":6626,"ÙĬØ©":6627,"ĠlÃŃ":6628,"Ð¸ÐµÐ¼":6629,"ĠSouth":6630,"Ġlimitations":6631,"Ġdaily":6632,"anÃ§":6633,"Ġgrav":6634,"}}":6635,"ĠRead":6636,"Ġproduced":6637,"Ġcomplexity":6638,"ĠTime":6639,"ris":6640,"Ġhelping":6641,"hec":6642,"ĠØ¹":6643,"Ġtipo":6644,"Ġfloat":6645,"ĠProvide":6646,"Ġmaintaining":6647,"Ġproporcion":6648,"ĠÐ¾ÑĤÐ²ÐµÑĤ":6649,"avas":6650,"Ġhurt":6651,"Ġcra":6652,"Ġfreed":6653,"DO":6654,"quin":6655,"HER":6656,"Ġpou":6657,"Ġadvantage":6658,"Ġvast":6659,"Ġglass":6660,"NA":6661,"Ġog":6662,"Ġunivers":6663,"Ġworked":6664,"uen":6665,"ltimately":6666,"Ġtit":6667,"Ġol":6668,"Ġsold":6669,"Ġrat":6670,"Ġbegins":6671,"Ġton":6672,"iÃ©n":6673,"Remember":6674,"Ġcopy":6675,"ĠÙĦ":6676,"atever":6677,"Ġsen":6678,"'est":6679,"Ġthank":6680,"Ġmap":6681,"Ġdrop":6682,"Ġconversations":6683,"Ġrealized":6684,"After":6685,"ĠÑĤÑĭ":6686,"Ġmer":6687,"Ã¤h":6688,"Ġdownstream":6689,"Ġimproved":6690,"Äĥ":6691,"Ġthick":6692,"Ð½ÑĭÐ¼Ð¸":6693,"Ġweeks":6694,"Ġdocumentation":6695,"Ġwave":6696,"Ġcours":6697,".direction":6698,"column":6699,"':Ċ":6700,"ÑĮÑİ":6701,"Ġrecommendations":6702,"Æ°":6703,"ibly":6704,"Ġmanager":6705,"Ġfazer":6706,"Ġtransaction":6707,"ef":6708,"isp":6709,"Ġpredictions":6710,"SQL":6711,"Ġsodium":6712,"Day":6713,"ĠÐ½Ð¾":6714,"ĠGPU":6715,"Ġinputs":6716,"Ġutilizar":6717,"cience":6718,"ĠPart":6719,"Ġcompare":6720,"Ġrain":6721,"Ġcit":6722,"Ġeiner":6723,"Ġthemes":6724,"Ġfloor":6725,"Context":6726,"Ġillness":6727,"Ġsolid":6728,"Ġlenguaje":6729,"PC":6730,"Ġhalf":6731,"Ġnaked":6732,"wort":6733,"LEFT":6734,"Ð´ÐµÐ»":6735,"Ġatmosphere":6736,"Ġvac":6737,"avascript":6738,"âĶĢ":6739,"Ġrenewable":6740,"Ġchain":6741,".log":6742,"usiness":6743,"mp":6744,"DS":6745,"08":6746,"Ġsolar":6747,"estic":6748,"-old":6749,"];Ċ":6750,"reb":6751,"ĠØ§ÙĦÙħ":6752,"dr":6753,"contr":6754,"riendly":6755,"amiento":6756,"\\\\":6757,"Ġincluded":6758,"TO":6759,"ĠExt":6760,"json":6761,"Ð¾Ð¿ÑĢÐ¾Ñģ":6762,"Action":6763,"Ġcop":6764,"ĠÐ´Ð¾ÑģÑĤ":6765,"Ġpositions":6766,"Ġchance":6767,"isms":6768,"Ġsubt":6769,"ĠÐĹ":6770,"uz":6771,"à¤¾":6772,"Ġpregn":6773,"Ġroutes":6774,"raints":6775,"ĠMar":6776,"è¦":6777,"ifications":6778,"Ind":6779,"Ġincorpor":6780,"gent":6781,"êµ":6782,"Ġrock":6783,"Ġhttps":6784,"ĠWell":6785,".b":6786,"ĠìĦ":6787,"Ð»Ð¾":6788,"Ġmelhor":6789,"Ġdivers":6790,"ums":6791,"Ġtener":6792,"ĠnÃºmero":6793,"more":6794,"Ġtables":6795,"Ġrot":6796,"itial":6797,"quÃŃ":6798,"ÑĭÐµ":6799,"Ġsnake":6800,"å¾":6801,"oline":6802,"Ã©g":6803,"Ã©cn":6804,"ester":6805,"Ġfirm":6806,"Value":6807,"ĠForm":6808,"Ġger":6809,"=tk":6810,"hal":6811,"urrent":6812,"-T":6813,"Ġexemplo":6814,"ln":6815,"acci":6816,"43":6817,"itos":6818,"imiento":6819,"Ġcategory":6820,"open":6821,"Ġmiddle":6822,"Ġeinen":6823,"ĠSer":6824,"Ġviolence":6825,"Ġhit":6826,"ÐºÐ»ÑİÑĩ":6827,"ĠÑĤÑĢ":6828,"Ġwind":6829,"Ã®":6830,"romo":6831,"Ġhumor":6832,"Ġstatic":6833,"Ġcontroll":6834,"Ð°ÑģÑģ":6835,"Ġgave":6836,"Ġtur":6837,"istry":6838,"Ġsports":6839,"_st":6840,"Ã¬":6841,"Ġrub":6842,"Ġsimpl":6843,"Ġdecre":6844,"())Ċ":6845,"left":6846,"Ġusage":6847,"ĠØ£":6848,"rc":6849,"Ġexchange":6850,"ocial":6851,"Ġfoi":6852,"Ġstructures":6853,"Ġletters":6854,"ĠÑıÐ²Ð»Ñı":6855,"-car":6856,"yles":6857,"Ġcapture":6858,"Ġancient":6859,"Ġcolon":6860,"Ġconfidence":6861,"ÑĢÑĭ":6862,"ĠÐ»ÑİÐ±":6863,"Get":6864,"ĠLes":6865,"Ġexposure":6866,"(p":6867,"Ġpero":6868,"Ġyang":6869,"Ġverb":6870,"LT":6871,"Ġrates":6872,"Ġneigh":6873,"Ġborn":6874,"Ø§Øª":6875,"ĠLim":6876,"ìļĶ":6877,"lin":6878,"Ġexperiencing":6879,"folio":6880,"Ġ?Ċ":6881,"onic":6882,"etry":6883,"Ġ{'":6884,"Ġajudar":6885,"Ġelim":6886,"Ġoppos":6887,"Ġdynamic":6888,"Ġexternal":6889,"Ġswitch":6890,"])Ċ":6891,"41":6892,"band":6893,"è®":6894,"-a":6895,"coming":6896,"Ġforced":6897,"They":6898,"Ġcircum":6899,"Ġproces":6900,"Ð°ÐµÑĤÑģÑı":6901,"System":6902,"omen":6903,"ÑıÐ·":6904,"Ġclub":6905,"Ġalgum":6906,"Ġgonna":6907,"Ġsud":6908,"imo":6909,"rochemical":6910,"Ġfrequency":6911,"hou":6912,"Ġforne":6913,"Object":6914,"plications":6915,"bash":6916,".snake":6917,"Ġbon":6918,"Ġsnipp":6919,"RL":6920,"ĠÐ£":6921,"ÑİÑĤ":6922,"Ġfinds":6923,"Ġarticles":6924,"Ġcoffee":6925,"Ġmid":6926,"Ġuncover":6927,"Ġran":6928,"Ġdoctor":6929,"(side":6930,".rand":6931,"raid":6932,"Ġfas":6933,"Ġteacher":6934,"Ġconscious":6935,"AG":6936,"Ġcm":6937,"Ġsix":6938,"Therefore":6939,"ĠNational":6940,"Ġhan":6941,"(Ċ":6942,"ĠEu":6943,"ii":6944,"Ġnotice":6945,"Ġdesc":6946,"Ġmanufacturer":6947,"Ġacadem":6948,"Ġcreation":6949,"Sub":6950,"rive":6951,"Ġpig":6952,"Ġpark":6953,"Ġcelebr":6954,"ÐµÑģÑģ":6955,"you":6956,"?\"Ċ":6957,"orial":6958,"ĠOther":6959,"ativity":6960,"ULL":6961,"ĠÑĢÐµ":6962,"ìľ¼":6963,"ĠÐ²Ð°ÑĪ":6964,"public":6965,"ĠÙģ":6966,"Ġsoil":6967,"ns":6968,"ĠStud":6969,"FF":6970,"ĠKore":6971,"Ġcommunities":6972,"Ġtent":6973,"Ø§ÙĨ":6974,"Ġadvance":6975,"oke":6976,"Ã¤r":6977,"-friendly":6978,"Ġbeach":6979,"Ġtruly":6980,"Ġmissing":6981,"CP":6982,"anÃ§a":6983,"Ġknows":6984,"ĠsÃ©":6985,"Ġprocedures":6986,"ibt":6987,"Ġeager":6988,"ĠCertain":6989,"Right":6990,"Ġspent":6991,"Ð°Ð»Ð°":6992,"Ġbath":6993,"Ġexcellent":6994,"56":6995,"Ġprofit":6996,"Ġcredit":6997,"Ġperg":6998,"ĠOkay":6999,"VID":7000,"gment":7001,"Ð¾Ð´Ð°":7002,"coin":7003,"event":7004,"Ġcareful":7005,"09":7006,"Ġlie":7007,"ĠJapanese":7008,"ĠÑıÐ·Ñĭ":7009,"\";Ċ":7010,"Create":7011,"Ġinvent":7012,"ctors":7013,"ĠRec":7014,"Ðĺ":7015,"Ġpes":7016,"ĠUnder":7017,"Ġrestaurant":7018,"/d":7019,"ĠIts":7020,"ĠkÃ¶nnen":7021,"Ġlisten":7022,"Ġupdates":7023,"Ent":7024,"Ġfish":7025,"has":7026,"Ġcalls":7027,"Ġversatile":7028,"Ġexcl":7029,"Ġdeeper":7030,"ĠGreat":7031,"Ġslowly":7032,"Ġloves":7033,"ãĥ³":7034,"Ġinterf":7035,"Ġskill":7036,"Ġgro":7037,"Ġtrash":7038,"Ġdia":7039,"ÑĤÐ¸":7040,"Ġmath":7041,"oxy":7042,"Ġcomments":7043,"uce":7044,"[\"":7045,"ĠìĤ¬":7046,"Ġroles":7047,"imm":7048,"ĠHave":7049,"Ġregarding":7050,".LEFT":7051,"Ġresource":7052,"Ġslightly":7053,"Ġfundamental":7054,"Ġcold":7055,"_b":7056,"Ġinsurance":7057,"éĹ":7058,"ĠMarket":7059,"Ð°ÑĤÐµÐ»ÑĮ":7060,"iday":7061,"Ġnome":7062,"ĠHy":7063,"ÑĭÑħ":7064,"Ġpolice":7065,"ethod":7066,"pip":7067,"ĠPara":7068,"zi":7069,"ercial":7070,"initely":7071,"120":7072,"Ġtrad":7073,"ĠÏĦ":7074,"sm":7075,"Ġescape":7076,"pm":7077,"Ġsull":7078,"Ġcentury":7079,"Ġepisode":7080,"ĠApr":7081,"æľī":7082,"ativa":7083,"rome":7084,"Ð°Ð¶Ð´":7085,"Ġmeets":7086,"Ġë§":7087,"ĠtÃ©cn":7088,"Ġexercise":7089,"Ġpap":7090,"Ġinstr":7091,"Ġantic":7092,"Ġmant":7093,"Ġresum":7094,".append":7095,"CC":7096,"AAAA":7097,"Ġpatients":7098,"env":7099,"Ġimpress":7100,"================":7101,"onacci":7102,"Ġmassive":7103,"Ġtreated":7104,"Ġmeant":7105,"ĠquÃ©":7106,"Ġmundo":7107,"ĠMod":7108,"ĠRussian":7109,"-NAME":7110,"Ġselected":7111,"iler":7112,"Ġafraid":7113,"nings":7114,"Ġtransportation":7115,"Ġchick":7116,"Ġvez":7117,"Ph":7118,"ÑģÑĮ":7119,"ĠReact":7120,"Ġmeasurements":7121,"atura":7122,"ĠPDF":7123,"Ġamounts":7124,"Ġsharing":7125,"ussy":7126,"ĠAp":7127,"Ġgent":7128,"Ġcontra":7129,"Ġphrases":7130,"Ð¾Ð»ÐµÐµ":7131,"ĠÐ¿Ð¾Ñģ":7132,"bra":7133,"]:":7134,"Ġsky":7135,"ĠÃ©tÃ©":7136,"ÑĢÐ°ÑĤ":7137,"Ġpound":7138,"idents":7139,"ĠÐ°Ð½":7140,"View":7141,"Ġfolder":7142,"Ġfal":7143,"ĠAWS":7144,"ĠYork":7145,"UE":7146,"ÑĥÐ»ÑĮ":7147,"Ġimmediately":7148,"-source":7149,"stood":7150,"roy":7151,"Ġìĭ":7152,"Ġmodeling":7153,"Ð¾Ð»Ð¾Ð³":7154,"untas":7155,"Ġpermit":7156,"system":7157,"Ġpuedes":7158,"ĠðŁĺ":7159,"'un":7160,"update":7161,"Trans":7162,"''":7163,"Ġrelatively":7164,"Me":7165,"__(":7166,"Ġà¦":7167,"ba":7168,"`:":7169,"HP":7170,"upp":7171,"ëĤ":7172,"Ã¤nd":7173,"Ġrepresentation":7174,"ĠProcess":7175,"Ġfarm":7176,"abet":7177,"Ġkeywords":7178,"ĠÐ¸ÑģÐ¿Ð¾Ð»ÑĮÐ·Ñĥ":7179,"Ġdot":7180,"Ġlang":7181,"amm":7182,"Ġvent":7183,"Ġ\\\"":7184,"Ġrapid":7185,"Ġru":7186,"ĠType":7187,"ĠCho":7188,"IP":7189,"Ø´":7190,"holders":7191,"Ġdepth":7192,"Ġbond":7193,"ÑĤÐ¾ÑĢ":7194,"ĠState":7195,"Ġdyes":7196,"Ð¾ÑĩÑĮ":7197,"ugin":7198,"uan":7199,".snakeObj":7200,"ĠÑĤÐ¾":7201,"Ġalternative":7202,"this":7203,"ĠÐ¸Ð½ÑĦÐ¾ÑĢÐ¼":7204,"ran":7205,"Ġparte":7206,"Ġcamp":7207,"Ġchair":7208,".create":7209,"ÑĥÑİÑī":7210,"à§":7211,"à¥ĩ":7212,"Ġdese":7213,"Ġdar":7214,"mos":7215,"Ġskilled":7216,"Ġdisso":7217,"rio":7218,"ĠÐ¸Ñħ":7219,"Ġesta":7220,"Ġedge":7221,"iÃ§Ã£o":7222,"Ãªs":7223,"';Ċ":7224,"å¸":7225,"Ġnombre":7226,"ĠInformation":7227,"ĠCalcul":7228,"åĽ":7229,"ĠÐ¼Ñĭ":7230,"Ġwhatever":7231,"Ð¿ÑĢÐ°Ð²":7232,"under":7233,"Ġnel":7234,"ìļ©":7235,"Ġtien":7236,"Add":7237,"Ġstaff":7238,"ÄŁ":7239,"Ġfig":7240,"Ġseus":7241,"ĠAND":7242,"Thank":7243,"Ð¼Ð¾Ð¶":7244,"Ġisso":7245,"Ġmainten":7246,"http":7247,"Ġsyntax":7248,"Ġmonitoring":7249,"mod":7250,"Ġlets":7251,"Ġprojet":7252,"ĠQual":7253,"pond":7254,"Ġtrees":7255,"ĠExpl":7256,"Ġsegur":7257,"Ġideal":7258,"Ġtransm":7259,"å½":7260,"Ġisol":7261,"Ġclassification":7262,"Ġoutros":7263,"Ġinsert":7264,"Ġparties":7265,"ggi":7266,"Ġanswering":7267,"ague":7268,"orrow":7269,"Ġneutral":7270,"ley":7271,"Ġesp":7272,"Ġzero":7273,"zt":7274,"/NAME":7275,"Ġagricult":7276,"Ġgather":7277,"-meth":7278,"Ġproud":7279,"enu":7280,".x":7281,"196":7282,"fen":7283,"ĠÐ´Ð°Ð½Ð½ÑĭÑħ":7284,"Chat":7285,"sk":7286,"Ġconfirm":7287,"Ġtodos":7288,"Ġobst":7289,"Say":7290,"OM":7291,"Ġformation":7292,"Ġdegree":7293,"Ġblog":7294,"Ġexperts":7295,"Ġviews":7296,"Ġnit":7297,"Ġdf":7298,"ĠÐ²Ð¾Ð¿ÑĢÐ¾Ñģ":7299,"Ġhus":7300,"Ġexception":7301,"Ġcampa":7302,"ĠResearch":7303,"Ġmathematical":7304,"Ġstable":7305,"ategory":7306,"ĠNOT":7307,"ë¦¬":7308,"Ġber":7309,"count":7310,"ront":7311,"Ġimpl":7312,"Ġprep":7313,"Ġfocusing":7314,"Ð»ÐµÐ¼":7315,"Â°C":7316,"Ġdrink":7317,"aca":7318,"ĠÐ¾Ð½":7319,"Ġoperator":7320,"Ġearlier":7321,"Ġ('":7322,"Ġsitting":7323,"Ġmanipulate":7324,"ĠÐ¿ÑĢÐ¾Ð³":7325,"raining":7326,"Ġseason":7327,"ĠÑĤÐµÐºÑģÑĤ":7328,"oral":7329,"Ġmenu":7330,"Ġcontaining":7331,"Or":7332,"Ġcha":7333,"Ġencryption":7334,"Oh":7335,"ÐµÐ½Ð¸Ð¹":7336,"Ġclosely":7337,"Ġforget":7338,"Ġmill":7339,"Ġsein":7340,"Ġinformed":7341,"Ð¾ÑĪ":7342,"Ġvie":7343,"Ġreag":7344,"ĠÏĢ":7345,"rown":7346,"php":7347,"agon":7348,"Ġax":7349,"Ġfunctionality":7350,"Ġeventually":7351,"Ġcompat":7352,"Ð¾ÑģÑĤÐ°Ð²":7353,"_n":7354,"Ġbutt":7355,"arian":7356,"Ġcaso":7357,"Ġheavy":7358,"Ġkingdom":7359,"Ġnuclear":7360,"Ġtransactions":7361,"ighter":7362,"Ġdelivery":7363,"ĠJune":7364,"Ġgru":7365,"Ġtrabal":7366,"agg":7367,"Ġcivil":7368,"ĠAtt":7369,"ë³":7370,"ÑĢÐ¾Ð²":7371,"Ġmine":7372,"Ġdaughter":7373,"ĠìĹ":7374,"DB":7375,"XX":7376,"Ġfinance":7377,"Ãºn":7378,"Ġlimits":7379,"ĠSystems":7380,"Ġapples":7381,"Ã¡c":7382,"Îº":7383,"rab":7384,"writ":7385,"Ġremains":7386,"Ġdescribes":7387,"Class":7388,"All":7389,"-methyl":7390,"ä¹Ī":7391,"udes":7392,"osc":7393,"Ġcurious":7394,"ÐĲ":7395,"ĠÐ¿ÑĢÐ°Ð²":7396,"Ġclosed":7397,"Ġintelig":7398,"Ġrealistic":7399,"ĠCompany":7400,"oin":7401,"Ġchecks":7402,"ĠGes":7403,"Ġgrat":7404,"Ġsad":7405,"Ġjoy":7406,".gameFrame":7407,"Ġenf":7408,"ĠÐ²ÑĢÐµÐ¼":7409,"ĠPresident":7410,"ÑĢÐ°Ð¼Ð¼":7411,"ĠEngine":7412,"cipl":7413,"DD":7414,"ĠHealth":7415,"arg":7416,"Ġlab":7417,"Ġseconds":7418,"Ġencontr":7419,"ali":7420,"ĠManagement":7421,"ë©":7422,"Element":7423,"Ġhappened":7424,"ĠUk":7425,"Ġstruggling":7426,"ĠConsider":7427,"Ġnone":7428,"ĠLarge":7429,"ÐµÐ»Ñı":7430,"gl":7431,"59":7432,"ç§":7433,"ischen":7434,"ĠMr":7435,"ĠÐ¼ÐµÑĤ":7436,"-N":7437,"Person":7438,"ĠCertainly":7439,"Ġchannel":7440,"=self":7441,"ÑĸÐ´":7442,"ĠSing":7443,"OL":7444,"ìĿ¸":7445,"Ġdetermin":7446,"Ġempresa":7447,"ĠPlan":7448,"Ġpersona":7449,"ĠAlso":7450,"Ø§Ø±":7451,"ols":7452,"Position":7453,"è¡":7454,"ĠOf":7455,"rt":7456,"alk":7457,"Ġcanvas":7458,"Ġpassage":7459,"ĠWest":7460,"ĠDesign":7461,"Ġcampaign":7462,"reib":7463,"Ġfresh":7464,"Ġloyal":7465,"Ġboys":7466,"Ġencoura":7467,"ĠFace":7468,"Ġunderlying":7469,"ĠÐ¿Ð¾Ð»ÑĥÑĩ":7470,"search":7471,"ê³¼":7472,"ands":7473,"-pro":7474,"zer":7475,"Ġgradu":7476,"ename":7477,"Ġbottom":7478,"UI":7479,"Ġpussy":7480,"Ð»ÐµÐ½Ð¸Ñı":7481,"Ġbin":7482,"ĠWhich":7483,"77":7484,"Ġbib":7485,"urch":7486,"Ġportfolio":7487,"tics":7488,"Ġhel":7489,"ĠBattle":7490,"Ġolder":7491,"Ġjed":7492,"Ġpant":7493,"Ð½Ð¾Ð¼":7494,"ä¸Ń":7495,"ĠÐ¿Ð¾Ð¼Ð¾ÑĩÑĮ":7496,"Form":7497,"denly":7498,"quer":7499,"Ġesemp":7500,"éĩ":7501,"Ġpurchase":7502,"ques":7503,"och":7504,"ĠÐ¿Ð¾ÑĤ":7505,"gust":7506,"phone":7507,"Ġvert":7508,"compl":7509,"okes":7510,"Ġracing":7511,"Not":7512,"Ã¨s":7513,"Ġorgasm":7514,"Ġdro":7515,"Ġrevenue":7516,"Ġdefe":7517,"Ð¸ÑģÑĤÐµÐ¼":7518,"RI":7519,"åį":7520,"Ġobserv":7521,"æĹ":7522,"Ġfuck":7523,"Par":7524,"Ġoptimize":7525,"Ġpersonalized":7526,"Ġmysterious":7527,"lights":7528,"entes":7529,"Ġì§":7530,"Ġimprovement":7531,"run":7532,"ĠÐ´Ð¾Ð»Ð¶":7533,"Ġbillion":7534,"shine":7535,"Ġemployee":7536,"Ġstraight":7537,"Ġyield":7538,"Ġsnippet":7539,"TH":7540,"Ġaux":7541,"ĠIns":7542,"'.":7543,"Ġveloc":7544,"Ġflexible":7545,"Ġeinem":7546,"ÑĥÑĩÑĪ":7547,"ĠII":7548,"Ġiter":7549,"ÑĢÐ°Ð±Ð¾ÑĤ":7550,"ĠUsing":7551,"lation":7552,"Ġbrowser":7553,"Ġpag":7554,"Ġvibr":7555,"Ġplants":7556,"Ġcuenta":7557,"Ġcryst":7558,"isation":7559,"zie":7560,"Ġtare":7561,"Ġexplos":7562,"Ġexplicitly":7563,"-dim":7564,"Ġchart":7565,"iste":7566,"wa":7567,"ĠÐ¿Ð»":7568,"ÐµÐ±Ñı":7569,"oding":7570,"Ġmuscles":7571,"puter":7572,"ĠKing":7573,"script":7574,"ÑĥÐ±":7575,"Ð´Ðµ":7576,"Ġdefend":7577,"ÃŃas":7578,"Ġdrag":7579,"Ġminimum":7580,"Ġpossibility":7581,"ĠMach":7582,"Ġmindful":7583,"Ġhaben":7584,"oder":7585,"à¸Ļ":7586,"osing":7587,"rought":7588,"ĠÐ¼Ð¾Ð¶Ð½Ð¾":7589,"xide":7590,"ĠTransform":7591,"asse":7592,"Ġattribute":7593,"Ð°Ð»Ð¸Ð·":7594,"'Ã©":7595,"Ġaument":7596,"Difficulty":7597,"Ġnational":7598,"Ġgrown":7599,"Ġdeveloper":7600,"riz":7601,"Ġstability":7602,"Ġkit":7603,"ĠJew":7604,"vant":7605,"Ġapplied":7606,"Ġentities":7607,"anging":7608,"hips":7609,"ĠApril":7610,"ĠTry":7611,"-level":7612,"Ð¾Ñī":7613,"Ġconsidering":7614,"vents":7615,"Ġdriver":7616,"Ġcluster":7617,"Ã±o":7618,"baj":7619,"Ġejemplo":7620,"Ġapproximately":7621,"Ġmoved":7622,"ĠRem":7623,"ancy":7624,".n":7625,"Ġearth":7626,"heit":7627,"ĠAM":7628,"oto":7629,"Ġstim":7630,"aaaa":7631,"Inter":7632,"olf":7633,"Ġvehicles":7634,"content":7635,"enas":7636,"ocÃª":7637,"Ġmovies":7638,"Ġlaugh":7639,"ÑģÑĤÐ²ÐµÐ½":7640,"lar":7641,"raf":7642,"pers":7643,"comes":7644,"Ġstrengths":7645,"pons":7646,"Sm":7647,"ÐµÐ»Ð¸":7648,"(m":7649,"Ġstronger":7650,"etch":7651,"Ġgli":7652,"Despite":7653,"ĠInternational":7654,"Ġroll":7655,"Ġfab":7656,"ĠEuropean":7657,"Ġballs":7658,"ĠVisit":7659,"ĠÐ¸Ð¼Ðµ":7660,"ogen":7661,"aker":7662,"arter":7663,"ĠExper":7664,"ĠST":7665,"Ġcontents":7666,"Ġderiv":7667,"house":7668,"Down":7669,"umin":7670,"duc":7671,"los":7672,"iser":7673,"Ð´Ñĥ":7674,"ya":7675,"ĠmÃ¶":7676,"ĠLearning":7677,"ÑĭÐ¹":7678,"Ġclimax":7679,"ÐĶ":7680,"Of":7681,"ĠSm":7682,"58":7683,"Ġ<=":7684,"ĠDep":7685,"Ġwarmth":7686,"ĠÐ´Ð¾":7687,"ĠSan":7688,"Ġusando":7689,"Ġtemplate":7690,"Ġpieces":7691,"ĠÐ±ÑĥÐ´ÐµÑĤ":7692,"ĠDu":7693,"iration":7694,"ĠAustral":7695,"Ġya":7696,"Ġgentle":7697,"Ġsalt":7698,"Ġhi":7699,"Ġscal":7700,"Ġschedule":7701,"Ġcosmet":7702,"ĠÐĳ":7703,"Ġsyn":7704,"Ġagreement":7705,"Ð°ÑĤÑĮÑģÑı":7706,"Ġinse":7707,"Ð²Ð¾Ð»":7708,"ëıĦ":7709,"ĠÑģÐ»ÐµÐ´":7710,"Ġqueries":7711,"mber":7712,"Ġtells":7713,"Ġchanged":7714,".T":7715,"Ġbow":7716,"ushed":7717,"fil":7718,"alysis":7719,"Ġachieved":7720,"Ġcapacity":7721,"=True":7722,"emper":7723,"Ġkom":7724,"_re":7725,"uesta":7726,"($":7727,"Ġíķ":7728,"ĠTw":7729,"Ġfu":7730,"lication":7731,"Ø§Ùħ":7732,"anish":7733,"weight":7734,"Ð¿ÑĢÐµÐ´":7735,"Ġdriving":7736,"Ð½Ð°Ðº":7737,"Ġdestination":7738,"Ġdistin":7739,"ashion":7740,"Ġ\\Ċ":7741,"Ġindicates":7742,"ÃŃt":7743,"Î¯":7744,"æĸĩ":7745,"à¸Ń":7746,"--------------------------------":7747,"ĠCSV":7748,"Ġeffectiveness":7749,"ĠÑĢÐ°Ð·Ð»Ð¸Ñĩ":7750,"Ġmm":7751,"ãĤĬ":7752,"Ġsand":7753,"ĠCSS":7754,"Ġhop":7755,"First":7756,"Read":7757,"Ġnervous":7758,"Ġcompetition":7759,"ĠGroup":7760,"rada":7761,"Ġassume":7762,"Ġath":7763,"!\"Ċ":7764,"68":7765,"Î®":7766,"[]":7767,"Ġgoods":7768,"whel":7769,"Ġhabil":7770,"ĠÂ«":7771,"ĠRussia":7772,"Ġmodules":7773,"Ġont":7774,"Ġquesto":7775,"HERE":7776,"Ġllam":7777,"Ġbien":7778,"Ġgrid":7779,"Ġmovements":7780,"icion":7781,"Ġlabels":7782,"800":7783,"fin":7784,"itu":7785,"ĠÐ²ÑĭÐ¿":7786,"Ġspecializes":7787,"Ġpretend":7788,"example":7789,"izza":7790,"CD":7791,"New":7792,"Ġsab":7793,"Ġpessoas":7794,"Ġmargin":7795,"Ġhotel":7796,"ĠprÃ©":7797,"Ġshowing":7798,"-sh":7799,"Ġstake":7800,"Ú©":7801,"Ġnella":7802,"Ġknowing":7803,"rays":7804,"Pr":7805,"ichtig":7806,"ĠStar":7807,"SI":7808,"Use":7809,"Ġmens":7810,"Ġnodes":7811,"...Ċ":7812,"MM":7813,"oma":7814,"-chloro":7815,"ÃŃst":7816,"boxy":7817,"Ð°Ð½Ð¾Ð²":7818,"Ġenabled":7819,"ĠConf":7820,"ãģĭ":7821,"Ġsuggested":7822,"Ġvend":7823,"ĠLanguage":7824,"');Ċ":7825,"Ġpron":7826,"iforn":7827,"Ġwalking":7828,"Ġampl":7829,"Ġexposed":7830,"stery":7831,"Ð»Ðµ":7832,"Ġgrab":7833,"lines":7834,"Ġcomando":7835,"El":7836,"ori":7837,"Ġforces":7838,"Ġcommercial":7839,"Ġhole":7840,"Ġmistake":7841,"stract":7842,"-com":7843,"SELECT":7844,"Ġwir":7845,"ĠPC":7846,"Ġfuel":7847,"terior":7848,"Ġerotic":7849,"Ġteng":7850,"Ġratio":7851,"Ġgard":7852,"rot":7853,"agram":7854,"Ġdescriptions":7855,"Ġdiss":7856,"è¦ģ":7857,"Ġwaiting":7858,"ĠRel":7859,"Ġcircumst":7860,"lands":7861,"ç»":7862,"chat":7863,"anges":7864,".Button":7865,"Ġacademic":7866,"ĠCloud":7867,"ĠÐ²Ð¸Ð´":7868,"ĠStay":7869,"ĠTechnology":7870,"Ġphilosop":7871,"ĠPlay":7872,"(b":7873,"Ġlista":7874,"LA":7875,"ugar":7876,"ĠPract":7877,"Ġshopping":7878,"arroll":7879,"ĠBoth":7880,"Ġshirt":7881,"ÑģÑĤÐ²Ð¾":7882,"uries":7883,"rip":7884,"SA":7885,"PA":7886,"ĠHand":7887,"Ġspecialized":7888,"group":7889,"ÑĥÐ»ÑĮÑĤ":7890,"_text":7891,"Ġreasoning":7892,"lated":7893,"Ġconver":7894,"Ġoverwhel":7895,"gt":7896,"Ġconhec":7897,"Ġamazing":7898,"ĠLoad":7899,"ĠFind":7900,"Ġprepared":7901,"Ġdepartment":7902,"plt":7903,"ĠNULL":7904,"Ġoverview":7905,"ĠëĮĢ":7906,"Ġbelieved":7907,"lets":7908,"ĠProgram":7909,"Ġconj":7910,"osen":7911,"Ġevil":7912,"Ġphysics":7913,"ØĮ":7914,"Ġlean":7915,"Head":7916,"Ġuso":7917,"Ġago":7918,"Ġdance":7919,"ĉĊ":7920,"ĠMax":7921,"Ġutiliza":7922,"Ġlinear":7923,"åĨ":7924,"unto":7925,"ervices":7926,"Ġmort":7927,"standing":7928,"Ġcontrovers":7929,"ĠAng":7930,"57":7931,"Ġcreatures":7932,"check":7933,"Ġassets":7934,"eter":7935,"ĠĠĊĊ":7936,"ĠÑĥÑĩ":7937,"Ġcart":7938,"elles":7939,"white":7940,"Ġ\"\"":7941,"Ġexciting":7942,"ĠÐ¸Ð³":7943,"iments":7944,"Ġcalling":7945,"ĠÐ¸ÑģÐ¿Ð¾Ð»ÑĮÐ·Ð¾Ð²Ð°Ð½":7946,"è§":7947,"pload":7948,"Ø§Ø³":7949,"boxylic":7950,"ylp":7951,"Ġfiction":7952,"Ġihre":7953,"grade":7954,"ĠÙĬ":7955,"illa":7956,"ĠÑįÐº":7957,"Ġcourses":7958,"ĠÑĦÑĥÐ½":7959,"Ġnas":7960,"aint":7961,"ĠChemicals":7962,"Ġembed":7963,"Ġvag":7964,"ĠÐŃÑĤÐ¾":7965,"Ġrein":7966,"Ġgirlfriend":7967,"Event":7968,"ĠgÃ©":7969,"Ġworry":7970,"ĠChoose":7971,"zo":7972,"Ð¸Ð¾Ð½":7973,"ĠProdu":7974,"PO":7975,"real":7976,"ĠUK":7977,"Ġnumpy":7978,"Ġcategories":7979,"cale":7980,"Ġvor":7981,"ĠDisc":7982,"Ġperspectives":7983,"52":7984,"Ġdetection":7985,"Ġsight":7986,"Ġdent":7987,"pero":7988,"Ġcette":7989,"Ð°Ð»Ð¸":7990,"Ġdisgust":7991,"Who":7992,"Ġoptimization":7993,"Ġcoherent":7994,"ifornia":7995,"Ġruns":7996,"reet":7997,"Ġkill":7998,"ians":7999,"å¼":8000,"Ġtrabaj":8001,"Ġtele":8002,"Ġproceed":8003,"Ġinn":8004,"ĠURL":8005,"ÑĢÐ¸Ð¼ÐµÑĢ":8006,"Ġsummarize":8007,"Ġadvantages":8008,"ĠfunciÃ³n":8009,"ĠIndian":8010,"Ġfinished":8011,"Ġmax":8012,"________":8013,"Ġlav":8014,"à¹Ī":8015,"Ġbehavi":8016,"ĠÐ¿Ð¾Ð½":8017,"Ð¸ÑģÐº":8018,"Ġbare":8019,"Ġbinary":8020,"oco":8021,"çī":8022,"Ġ)":8023,"Ð¼ÐµÐ½":8024,"Ġok":8025,"ĠPost":8026,"Ġapproaches":8027,"tra":8028,"ĠÎµ":8029,"response":8030,"ÑģÑĤÐ²Ð°":8031,"Ġongoing":8032,"IF":8033,"ĠGit":8034,"'h":8035,"ĠTO":8036,"Â»":8037,"Ġpee":8038,"Ġsempre":8039,"Ġfier":8040,"icide":8041,"Ġopinion":8042,"ĠÐĵ":8043,"Ġshy":8044,"ĠÐļÐ°Ðº":8045,"table":8046,"Ġstood":8047,"ĠObject":8048,"ĠFed":8049,"×Ķ":8050,"ahr":8051,"Ġpowers":8052,"peed":8053,"Ġkids":8054,".gameObj":8055,"={":8056,"Ġbrought":8057,"Ġpure":8058,"ĠGermany":8059,"redict":8060,"Ġinfluenced":8061,"nel":8062,"Ġintelligent":8063,"\"]":8064,"Ġfunny":8065,"Ġoffering":8066,"Ġesempio":8067,".read":8068,"Ġaccompl":8069,"Ġmarkets":8070,"Ġanticip":8071,"Ġwealth":8072,"ĠLos":8073,"Ġhappening":8074,"Ġhyper":8075,"ĠHouse":8076,"xiety":8077,"Ġast":8078,"Ġprotein":8079,"áº¡":8080,"organ":8081,"ĠÐºÑĢ":8082,"itution":8083,"idget":8084,"ĠdÃ©c":8085,"ulated":8086,"ĠÑģÐ»Ð¾Ð²":8087,"Ġpassionate":8088,"dit":8089,"Ġfixed":8090,"Ġmedicine":8091,"ocker":8092,"Ġtheme":8093,"))ĊĊ":8094,"anol":8095,"acional":8096,"Ø®":8097,"ĠÐµÑģÐ»Ð¸":8098,"Ùī":8099,"Ġdelicious":8100,"Ġcab":8101,"Ġhighlight":8102,"Ġfreedom":8103,"Ġgrew":8104,"vil":8105,"Ġcham":8106,"Ġrise":8107,"close":8108,"Ġproducing":8109,"Ġimplementing":8110,">>":8111,"liche":8112,"Ġmotor":8113,"Ġintrig":8114,"Ġmilk":8115,"acing":8116,".org":8117,"ĠUtil":8118,"Ðł":8119,"ìľ¼ë¡ľ":8120,"Ġstars":8121,"Ġcomputers":8122,"eta":8123,"Ġbenefit":8124,"Ġmast":8125,"ÐµÑĤÑĮ":8126,"Ġpeu":8127,"Ġoutline":8128,"Ġcharge":8129,"Ġretrieve":8130,"Ġcoordin":8131,"ĠAmerica":8132,"ãģĻãĤĭ":8133,"ĠOut":8134,"cipe":8135,"nam":8136,"ambda":8137,"uses":8138,"Ġapart":8139,"Ġuncertain":8140,"Ġunf":8141,"ective":8142,"iÃ¨re":8143,"ĠOrganization":8144,"Ã³ria":8145,"Ġnoise":8146,"Ġrob":8147,"Ġproblemas":8148,"Ġpermite":8149,"ĠGenerate":8150,"late":8151,"ecut":8152,"Ð°ÐµÐ¼":8153,"oute":8154,"Ġencounter":8155,"anda":8156,"ĠYouT":8157,"ests":8158,"utter":8159,"pes":8160,"Left":8161,"ecause":8162,"à¤°":8163,"Ġmuit":8164,"utos":8165,"Ã¡tic":8166,"Ġreports":8167,"Ġcompleted":8168,".de":8169,"cean":8170,"ocking":8171,"Ġmaintenance":8172,"ala":8173,"ĠÐ¿Ð¾Ð·":8174,"Expl":8175,"Ġseparated":8176,"ÑĹ":8177,"Ġnotes":8178,"Ġcorpor":8179,"Ġtong":8180,"/Ċ":8181,"ĠÑĢÐ°Ñģ":8182,"option":8183,"return":8184,"pu":8185,"unge":8186,"Ġhell":8187,"Ġbem":8188,"Ġperce":8189,"ancer":8190,"ĠCommun":8191,"Ġencontrar":8192,"Il":8193,"ĠÐ±Ð¾Ð»ÑĮÑĪ":8194,"ĠBel":8195,"izado":8196,"ÑĥÐ²":8197,"ĠĠĠĠĠĠĠĠĠĠĠĠĠ":8198,"Ġagrochemical":8199,"ĠpolÃŃ":8200,"Ġbrown":8201,"ìĭľ":8202,"ĠSk":8203,"Ġprints":8204,"js":8205,"ĠNext":8206,"ĠÑĢÐµÑĪ":8207,"esp":8208,"Ġmane":8209,"Ġentertain":8210,"éĢ":8211,"jour":8212,"Ġthread":8213,"ÐµÑĪÑĮ":8214,"Ġcircumstances":8215,"Ð¸Ð¶":8216,"Ġequipped":8217,"Ã³w":8218,"lichen":8219,"Ġfamil":8220,"Ġromantic":8221,"ĠCE":8222,"Ġselection":8223,"Ġhappiness":8224,"ĠÙĪØ§ÙĦ":8225,"Ġunits":8226,"Ġbibli":8227,"Ġtrig":8228,"Ġresolve":8229,"Ġinformazioni":8230,"Ġinterval":8231,"Ġattend":8232,"Ġbag":8233,"ĠSpec":8234,"67":8235,"Ġbis":8236,"Ġbei":8237,"Ġë³":8238,"Ġgrande":8239,"-eff":8240,"ĠWork":8241,"Ġavailability":8242,"(input":8243,"ĠâĢĶ":8244,"Ġpants":8245,"local":8246,"Ġmatches":8247,"-th":8248,"ĠÏĥ":8249,"ĠAir":8250,"Ġpassing":8251,"ëĲ":8252,"Ġaffected":8253,"Ġsulla":8254,"ĠApple":8255,"Î¿Ïħ":8256,"Ġclin":8257,"Ġmoves":8258,"Ġcollaboration":8259,"âĢ¦":8260,"Hey":8261,"Ġadvert":8262,"ĠÑģÐ¸ÑģÑĤÐµÐ¼":8263,"Ġtranslate":8264,"ĠIA":8265,"std":8266,"Ġsides":8267,"Ġconnections":8268,"Ġextension":8269,"Ġcompetitive":8270,"Ġ:Ċ":8271,"ĠÐ´Ð²":8272,"creen":8273,"Ġpra":8274,"Ġagree":8275,"ository":8276,"Ġlen":8277,"Ġdal":8278,"ĠPM":8279,"Ġoutras":8280,"Ġfunctional":8281,"ishment":8282,"Ġreduction":8283,"Ġexpectations":8284,"ĠCap":8285,"Ġpodr":8286,"Ġgibt":8287,"Ð²Ð¾Ð´":8288,"isis":8289,"ĠEnd":8290,"Ġabsol":8291,"Ġinner":8292,"beit":8293,"map":8294,"Ġhydrogen":8295,"Ġ...":8296,"Ġconceal":8297,"ĠSun":8298,"Ġthor":8299,"Ġmagical":8300,"ische":8301,"ĠMarch":8302,"ĠEnter":8303,"éĹ®":8304,"hape":8305,"Ġrestrictions":8306,"imp":8307,".pause":8308,"Ġcrow":8309,"uego":8310,"Ġthrust":8311,"Ġserving":8312,"ãģĤ":8313,"icking":8314,"(data":8315,"600":8316,"Reg":8317,"ÑĤÐ°":8318,"Ġrevealing":8319,"69":8320,"ĠPat":8321,"Ġeggs":8322,"empo":8323,"Ġovercome":8324,"-de":8325,"Ġdoll":8326,"Ġevaluation":8327,"Ġeating":8328,"ìĬ¤":8329,"ĠAndroid":8330,"Ġtam":8331,"Ġtun":8332,"isk":8333,"Ġanche":8334,"Ġdesarroll":8335,"enti":8336,"hern":8337,"Ġju":8338,"Man":8339,"Ġmotion":8340,"`.ĊĊ":8341,"Ġvulnerable":8342,"Ġlit":8343,"Ġlinguagem":8344,"Ġphoto":8345,"Te":8346,"Ġsurge":8347,"Ġstyles":8348,"Ġpride":8349,"é¢":8350,"Ġcourage":8351,"bru":8352,"ĠCalifornia":8353,"unos":8354,"Ġpelo":8355,"ĠÐ±Ð¾Ð»ÐµÐµ":8356,"Example":8357,"EM":8358,"ĠDist":8359,"Ġstret":8360,"ĠBusiness":8361,"Ġgently":8362,"Ġcovered":8363,"ĠMany":8364,"Ġbits":8365,"Ġoutcome":8366,"Ġhosp":8367,"oca":8368,"Ġdatetime":8369,"Ġhighlights":8370,"_string":8371,"Ġleaves":8372,"ÑĶ":8373,"Ġdiscovered":8374,"ĠÐ¼Ð¾Ð´":8375,"cohol":8376,"phr":8377,"Ġindependent":8378,"Ġsel":8379,"ĠÐµÑģÑĤÑĮ":8380,"Ġrating":8381,"though":8382,"ĠÑģÐ¼":8383,"Ġspark":8384,"Ġquando":8385,"Ġcrime":8386,"Ġpregunta":8387,"Ġreturned":8388,"Ġremoved":8389,"_to":8390,"active":8391,"Ġantes":8392,"Ġfacts":8393,"Ġmedium":8394,"Ġcultures":8395,"ulations":8396,"Ġorient":8397,"ĠUs":8398,"ĠÐ²ÐºÐ»ÑİÑĩ":8399,"har":8400,"Ġfacilit":8401,"ĠImplement":8402,"æī":8403,"ĠÐ±ÐµÐ·":8404,"cursor":8405,"mi":8406,"Ġfonction":8407,"KeyPress":8408,"Ġleads":8409,"inem":8410,"reme":8411,"ĠON":8412,"izaÃ§Ã£o":8413,"Ġtrav":8414,"ĠmÃ¡":8415,"ä¸º":8416,"ATION":8417,"Ãĥ":8418,"itute":8419,"tell":8420,"sequ":8421,"Ġincluindo":8422,"ĠÐ¿ÑĢÐ¾Ð³ÑĢÐ°Ð¼Ð¼":8423,"-tun":8424,"Ġreligious":8425,"Ġproduces":8426,"Ġcrim":8427,"Options":8428,"ĠNon":8429,"rut":8430,"error":8431,"EX":8432,"Ġdisposit":8433,"Ġmuscle":8434,"ĠFile":8435,"++)":8436,"Ġcui":8437,"tÃ³":8438,"Ġeen":8439,"Ġoutcomes":8440,"-trained":8441,"Ġroar":8442,"cesso":8443,"Ġcaught":8444,"ĠRo":8445,"Ð¾Ð³Ð´Ð°":8446,"Ġsurpr":8447,"Enter":8448,"Ġspot":8449,"Ġìľ":8450,"ĠScience":8451,"Ġprocesso":8452,"Ġdura":8453,"Line":8454,"æł":8455,"Ġperformed":8456,"Ð¸Ð²ÐµÑĤ":8457,"ĠResponse":8458,"Ġaiut":8459,"Ðľ":8460,"netic":8461,"Ð¾Ð²ÐµÑĢ":8462,"Ġchicken":8463,"Ġfuncion":8464,"ĠShow":8465,"88":8466,"iop":8467,"Ġmur":8468,"ĠAlg":8469,"arse":8470,"irectory":8471,"ĠÐķÑģÐ»Ð¸":8472,"Ġscientists":8473,"Ġtiene":8474,"Ġluck":8475,"ĠÐ´ÐµÐ»":8476,"ading":8477,"Ġraise":8478,"Some":8479,"_date":8480,"Ġcogn":8481,"Ġrecover":8482,"Ð¾ÑģÑĤÐ¸":8483,"Ġsociet":8484,"Ġshakes":8485,"Ġrough":8486,"Ġdirty":8487,"Ġimplications":8488,"Ġpresented":8489,"Ġprocedure":8490,".âĢĿ":8491,"250":8492,"Ġ-->":8493,"Ġecho":8494,"54":8495,"Ġpregnant":8496,"Ġhob":8497,"Ġpossess":8498,"ĠMo":8499,"ä»Ģ":8500,",,,,":8501,"Ġstreet":8502,"Ġpractical":8503,"æĢ§":8504,"Ġpicture":8505,"Ġpurification":8506,"Ġchapter":8507,"Ã³g":8508,"ĠĠĠĠĠĠĠĠĠĠĠĠĠĠĠĠĠĠĠĠĠĠĠ":8509,"ollow":8510,"Ġspell":8511,"INE":8512,"Ġlands":8513,"itors":8514,"ĠChar":8515,"Ġparticles":8516,"Ġcouple":8517,"Ġsto":8518,"client":8519,"æķ°":8520,"Ġswim":8521,"Ġdurante":8522,"Ġmodified":8523,"xid":8524,"zed":8525,"Ġstruggles":8526,"Ġreported":8527,"ĠÐ¸Ð½ÑĤÐµÑĢ":8528,"Ġwatched":8529,"Ġcual":8530,"merce":8531,"ĠTwo":8532,"Ġcourt":8533,"Ġspeaking":8534,"Ġembar":8535,"zza":8536,"ĠÃ¤":8537,"ponent":8538,"ĠÐ·Ð½Ð°Ñĩ":8539,"formance":8540,"_x":8541,"Ġnipp":8542,"ĠfunÃ§Ã£o":8543,"Ġcleaning":8544,"parent":8545,"Ġship":8546,"ĠÑıÐ²Ð»ÑıÐµÑĤÑģÑı":8547,"ë§":8548,"ĠÐ¼ÐµÐ½":8549,"ðŁĶ":8550,"Ġtelling":8551,"Ġwit":8552,"Ġsignificantly":8553,"Ġsedu":8554,"quire":8555,"Ġheir":8556,"Ġrig":8557,"Ġpaid":8558,"Ġtorch":8559,"css":8560,"rometry":8561,"ĠÑĤÐµÐ¼":8562,"iate":8563,"Ġconsciousness":8564,"Ġnach":8565,"Ġreward":8566,"edia":8567,"Ġcrear":8568,"case":8569,"Å¾":8570,"Ġweapons":8571,"_in":8572,"Ġlayers":8573,"IO":8574,"Ð¸ÑĪÐ¸":8575,"Ġq":8576,"ĠÑģÐµÑĢ":8577,"Ġsurrounding":8578,"ĠSocial":8579,".e":8580,"afe":8581,"å®ĥä»¬å®ĥä»¬":8582,"img":8583,"Ġfantasy":8584,"Ġrelative":8585,"Ġstroke":8586,".re":8587,"Ġinterview":8588,"Ġcontrolled":8589,"hai":8590,"oir":8591,"este":8592,"Ġsugar":8593,"ĠBrit":8594,"Ġbg":8595,"ania":8596,"Ġfunds":8597,"Ġtherapy":8598,"udd":8599,"ĠÑģÐ°Ð¼":8600,"ĠcrÃ©":8601,"raine":8602,"Ġmeaningful":8603,"à¹ī":8604,"insert":8605,"'a":8606,"Ġcomme":8607,"íķĺëĬĶ":8608,"ä¼":8609,"ĠAz":8610,"Ġtremb":8611,"Ġexecuted":8612,"Ġcriteria":8613,"Next":8614,"ĠDec":8615,"Ġfrust":8616,"Ġnur":8617,"height":8618,"command":8619,"Ġwall":8620,"agers":8621,"à¸ģ":8622,"Ġrobots":8623,"plete":8624,"Ġrent":8625,"ĠFinal":8626,"ĠProv":8627,"ĠĠĠĠĠĠĠĠĠĠ":8628,"ypes":8629,"ÐºÐ¾Ð²":8630,"Ġsites":8631,"Ġalgo":8632,"Ġsigu":8633,"ĠInvest":8634,"Ã¡f":8635,"Ġthro":8636,"Ġattributes":8637,"ĠPark":8638,"Ġanxiety":8639,"Ġchecking":8640,"ĠÐ·Ð°Ðº":8641,"ĠExcel":8642,"ðŁĺ":8643,"ki":8644,"Ġescol":8645,"íĻ":8646,"Ġassert":8647,"×ľ":8648,"uls":8649,"Ġplugin":8650,"ĠmodÃ¨":8651,"pack":8652,"Ãºs":8653,"ë°":8654,"Ġremaining":8655,"max":8656,"ãĤĮ":8657,"Øµ":8658,"ĠAug":8659,"ĠMat":8660,"Ġartist":8661,"Net":8662,"Ġweights":8663,"Ġhesitate":8664,"Ġpin":8665,"post":8666,"ĠUm":8667,"Ġhusband":8668,"Ġcities":8669,"Ġarousal":8670,"Flow":8671,"Ġexpensive":8672,"Ġspaces":8673,"Ġlistening":8674,"Ġtalent":8675,"Ġresolution":8676,"Ġintegration":8677,"Ġoh":8678,"ĠcÃ³mo":8679,"nic":8680,"Ġwelcome":8681,"sql":8682,"ĠÐ¿ÑĢÐ¸":8683,"Ġtodo":8684,"agen":8685,"Ġplaced":8686,"alax":8687,"\":Ċ":8688,"Ð°Ð½ÑĤ":8689,"Ġpages":8690,"ĠDespite":8691,"Ġespa":8692,"111":8693,"Ð¸ÑĤÑĮÑģÑı":8694,"Ġcontrast":8695,"Ġsplit":8696,"rav":8697,"ĠÃ©gal":8698,"ĠContinue":8699,"Ġtags":8700,"Ġprincipal":8701,"Ð¸Ð»Ð¸":8702,"Ġvit":8703,"Ġattractive":8704,"©ëĭĪëĭ¤":8705,"-v":8706,"Ð²ÐµÑĢ":8707,"ĠÐ½ÑĥÐ¶":8708,"cell":8709,"Ġaccessible":8710,"Ġphen":8711,"esse":8712,"Ġfitness":8713,"ä»Ģä¹Ī":8714,"-H":8715,"Ġfed":8716,"Ġloro":8717,"Ġreb":8718,"ĠYouTube":8719,"-date":8720,"NS":8721,"Ġseven":8722,"ĠBi":8723,"à¹Ģ":8724,"quit":8725,"Ġanalyzing":8726,"Ġhero":8727,"Ġplays":8728,"ĠÐ¾Ð±ÑĬ":8729,"ìĹĲìĦľ":8730,"Ġyellow":8731,"ĠÑĤÐµÑħ":8732,"ami":8733,"Ġdiseases":8734,"Ġcritic":8735,"Ġexplo":8736,"101":8737,"Ġped":8738,"ĠJan":8739,"atin":8740,"ĠService":8741,"argin":8742,"Ġthorough":8743,"akt":8744,"Ġrecursos":8745,"uesto":8746,"ching":8747,"ĠIsso":8748,"ĠÐ¿Ð¾Ðº":8749,"inations":8750,"âĶĢâĶĢ":8751,"Ġloan":8752,"'ai":8753,"uary":8754,"Ð°ÑĨÐ¸Ñı":8755,"ĠmÃ©t":8756,"alla":8757,"Ġdrawn":8758,"tical":8759,"åĮ":8760,"ìłģ":8761,"Ġseeing":8762,"\\x":8763,"Client":8764,"Ġobjective":8765,"Ġautomatically":8766,"Ġreaches":8767,"KE":8768,"[Your":8769,"hab":8770,"wear":8771,"Go":8772,"Ġfilling":8773,"Ġblow":8774,"iere":8775,"Ġlayout":8776,"Ġindicating":8777,"please":8778,"Additionally":8779,"oday":8780,"Ġsevere":8781,"'ex":8782,"clusion":8783,".res":8784,"Ġìĺ":8785,"Ġobstac":8786,"'in":8787,"Î¬":8788,"ë¬":8789,"astics":8790,"Are":8791,"Ġses":8792,"Ġopposite":8793,"ĠMaster":8794,"haust":8795,"ician":8796,"Ġnecessarily":8797,"kl":8798,"Ġplayful":8799,".draw":8800,"Ã©l":8801,"Ġsurf":8802,"Ġconsumption":8803,"å®ĥåı¯ä»¥å®ĥåı¯ä»¥":8804,"ĠAD":8805,"artic":8806,"Ġmachines":8807,"Ġstakeholders":8808,"Ġsupported":8809,"Ġsecondary":8810,"Ġcovers":8811,"Ġkil":8812,"dis":8813,"Ġhous":8814,"unc":8815,"Ġrect":8816,"answer":8817,"(a":8818,"ĠCPU":8819,"Ã±a":8820,"Ġhate":8821,"respect":8822,"Us":8823,"Ġhyd":8824,"ĠRef":8825,"Ġleadership":8826,"Ġnoticed":8827,"rait":8828,"Ġrecognized":8829,"ĠÐ²ÑģÐµ":8830,"acet":8831,"Ġfinish":8832,"ìĥ":8833,"tml":8834,"Ġpeux":8835,"ĠNumber":8836,"emperature":8837,"Ġconfigura":8838,"know":8839,"194":8840,"numbers":8841,"ibles":8842,"-on":8843,"ãĤ¹":8844,"Ġhydrochlor":8845,"-related":8846,"×¨":8847,"ĠMain":8848,"Ġtempor":8849,"Ġpurity":8850,"hand":8851,"-r":8852,"Ġrelacion":8853,"Ġmentions":8854,"Ġweakness":8855,"ĠÐºÐ¾ÑĤÐ¾ÑĢÐ°Ñı":8856,"Ġsending":8857,"à¥į":8858,"Ġalive":8859,"Ġintention":8860,"lock":8861,"ĠMi":8862,"ï¼ģ":8863,"...\"":8864,"ĠÃ©galement":8865,"Ð¾ÑģÑģ":8866,"ÑģÑĤÐ°Ð²":8867,"Ġplastic":8868,"åº":8869,"gn":8870,"ĠprÃ³":8871,"Per":8872,"çŃ":8873,"ĠFROM":8874,"Ġpleas":8875,".rect":8876,"Ġmistakes":8877,"Ġpens":8878,"ements":8879,"ĠÐ¾Ð±Ñī":8880,"anged":8881,"Select":8882,"Ġproposed":8883,"pring":8884,"while":8885,"Ġsulf":8886,"Ã±os":8887,"Ġregularly":8888,"ĠBlack":8889,"ĠSte":8890,"ĠEin":8891,"Ġreader":8892,"EL":8893,"agine":8894,"Ġtill":8895,"eles":8896,"-making":8897,"Ġpygame":8898,"Ġdataframe":8899,"Ġestimate":8900,"ĠAlÃ©m":8901,"ĠSin":8902,"Ġexcept":8903,"Ġjustice":8904,"ĠEmp":8905,"eli":8906,"'app":8907,"Ġorigin":8908,"iza":8909,"Ġlists":8910,"Ð»ÐµÐºÑĤ":8911,"Ġperforming":8912,"Bo":8913,"ĠÐ½Ð°Ñĩ":8914,"ĠÐ»ÑİÐ´":8915,"Ġbattery":8916,"Log":8917,"ĠÐºÐ¾Ð»":8918,"got":8919,"atas":8920,"Ġsole":8921,"Ġuncle":8922,"ĠmÃ©d":8923,"Ġmedication":8924,"Ð»Ð°Ð´":8925,"ĠJuly":8926,"Ġdefines":8927,"Ġnumerous":8928,"Ġincredibly":8929,"ĠSecurity":8930,"-style":8931,"ugging":8932,"ĠgameObj":8933,"Ġkeyword":8934,"Ä±n":8935,"icar":8936,"Ġpoder":8937,"äºº":8938,"Sp":8939,"Ġauto":8940,"Ġlose":8941,"ãģĨ":8942,"ptember":8943,"icted":8944,"rebbe":8945,"Por":8946,"ĠSoft":8947,"ĠÑĥÐ´":8948,"Ġproblema":8949,"ĠÐ·Ð°Ð²":8950,"Ġni":8951,"nea":8952,"Ġstunning":8953,"\"You":8954,"Ãºblic":8955,"Ġrespectively":8956,"ĠÐ¼Ð½Ðµ":8957,"Ø·":8958,"ĠImage":8959,"Ġantib":8960,"ete":8961,"195":8962,"amide":8963,"icians":8964,"å®ĥå®ĥå®ĥå®ĥå®ĥå®ĥå®ĥå®ĥ":8965,"SP":8966,"Ð½Ñĥ":8967,"ocur":8968,"Ġpublished":8969,"Color":8970,"Ġelectronic":8971,"Ã³s":8972,"issive":8973,"BA":8974,"format":8975,"ker":8976,"ëŀ":8977,"opic":8978,"Ġlinks":8979,"Ġren":8980,"Ġadds":8981,"Ġanger":8982,"ë²":8983,"ãĥ¼ãĥ":8984,"ìĤ¬":8985,"Ġembarrassed":8986,"ĠëĤ":8987,"Ġrecipe":8988,"Ġzur":8989,"-step":8990,"Ġfan":8991,"Ġmanera":8992,"Ġinteraction":8993,"Ġ!=":8994,"Ġhumili":8995,"password":8996,"istory":8997,"ĠLog":8998,"pi":8999,"CA":9000,"Ġagents":9001,"Path":9002,"98":9003,"Ġupstream":9004,"ÑħÐ¾Ð´Ð¸Ð¼":9005,"Ġdates":9006,"Ġbasis":9007,"Ġkm":9008,"ĠEnc":9009,"ìĽ":9010,"Ġwis":9011,"amino":9012,"cut":9013,"idin":9014,"Ġwriter":9015,"·¸":9016,"asion":9017,"ĠÐºÐ¾Ð½ÑĤ":9018,"ÑĢÐ¾Ðº":9019,"Ġà¤ķ":9020,"Ġresistance":9021,"Ġdesenvolv":9022,"party":9023,"ĠâĢĺ":9024,"ä¸ĭ":9025,"ĠZe":9026,"Ġmuito":9027,"IL":9028,"Ġenvironments":9029,"Ġagains":9030,"Ŀ¼":9031,"Ġsummar":9032,"Ġalmost":9033,"Ġcharm":9034,"API":9035,"ART":9036,"ĠDoctor":9037,"Ġgraphics":9038,"ĠSur":9039,"Ġidentifying":9040,"ðĿ":9041,"Ġneck":9042,"Ġaccident":9043,"Image":9044,"horus":9045,"Ġdinner":9046,"Ġä½łå¥½":9047,"ÂłÂł":9048,"æĿ":9049,"Ġcalculated":9050,"Ġestar":9051,"Ġice":9052,"Ġjobs":9053,"(c":9054,"Ġcv":9055,"Ġcompress":9056,"Ġfaced":9057,"ĠpaÃŃs":9058,"Ġturns":9059,"iform":9060,"53":9061,"Ġ(Ċ":9062,"Ġconsume":9063,"Ġbreaking":9064,"ĠExplain":9065,"Ã¡n":9066,"_g":9067,"Ġcheese":9068,"Ġdefinition":9069,"Ġfaire":9070,".M":9071,"Ġapenas":9072,"Ġrepresenting":9073,"Act":9074,"Ġliterature":9075,"Ġdefinitely":9076,"Ġtuo":9077,"Ġdurch":9078,"iano":9079,"Ġinteractive":9080,"åĴ":9081,"ĠÙģÙĬ":9082,"Ġobjectives":9083,"Ġarquivo":9084,"ĠSynt":9085,"Ġphotos":9086,"ĠNorth":9087,"YY":9088,"Ġfacility":9089,"ĠAgent":9090,"Ġsubjective":9091,"Ġdominant":9092,"Ġjest":9093,"Ġspeaker":9094,"Ġrewrite":9095,"Ġfierce":9096,"ÃŃcul":9097,"Ġconverted":9098,"anted":9099,"Ġspect":9100,"Ġresponder":9101,"fix":9102,"ÑĥÐ¹":9103,"dehy":9104,"Æ°á»":9105,"Ïī":9106,"Ġexistence":9107,"bin":9108,"Ġdign":9109,"Ġwichtig":9110,"Ġconoc":9111,"Î¸":9112,"ĠReturn":9113,"Sc":9114,"Ġintroduced":9115,"Ġowner":9116,"egr":9117,"Set":9118,"Ġdeeply":9119,"Ġclaims":9120,"Ġcreativity":9121,"Ġsurprise":9122,"Ġtongue":9123,"Ġcars":9124,"ÐµÑģÐ¿":9125,"Ġcommunic":9126,"Ġseguir":9127,"uper":9128,"Ġprison":9129,"Ġwash":9130,"Ġkindness":9131,"Ġforever":9132,"Ġstrike":9133,"Ġclassic":9134,"ĠDel":9135,"Ġultimately":9136,"Ġmetrics":9137,"Ġcombined":9138,"Ġpackages":9139,"Dis":9140,"mas":9141,"Ġ&&":9142,"Chorus":9143,"Ġharder":9144,"ĠAf":9145,"ted":9146,"180":9147,"Ġtorn":9148,"£¼":9149,"ĠLeg":9150,"Ġeditor":9151,"Ġyours":9152,"ĠConst":9153,"ĠTheir":9154,"Ġrealizar":9155,"Ġê³":9156,"ĠDevelopment":9157,"assion":9158,"description":9159,"ĠtambiÃ©n":9160,"Ð°Ð¹ÑĤÐµ":9161,"/m":9162,"Ġpoor":9163,"ìŀĲ":9164,"Ġrecon":9165,"cios":9166,"-yl":9167,"Ġidentified":9168,"Ġcontributions":9169,"Ġagrochemicals":9170,"Ġhips":9171,"Ġintroduce":9172,"Ġnie":9173,"ilitÃł":9174,"uy":9175,".food":9176,"ector":9177,"Ġprofile":9178,"ĠTur":9179,"Ġholds":9180,"lie":9181,"ĠCour":9182,"ĠFre":9183,"UP":9184,"Ġhtml":9185,"emon":9186,"ĠQuestion":9187,"Ġpurs":9188,"enty":9189,"forcement":9190,"Ġep":9191,"entence":9192,"Ġforn":9193,"Ġstick":9194,"ĠPa":9195,"åĵ":9196,"estyle":9197,"Ã¡tica":9198,"Item":9199,"Ġpretty":9200,"Ġguard":9201,"iant":9202,"Ġsorted":9203,"pus":9204,"Ġrepresented":9205,".\",Ċ":9206,"Ġshot":9207,"ÐµÐ¹ÑģÑĤÐ²":9208,"PM":9209,"Ġ;":9210,"Ġsector":9211,"Ġvictim":9212,"Ġ×Ķ":9213,"Ġorders":9214,"Pre":9215,"pered":9216,"Ġtransition":9217,"Ġreduced":9218,"Ġreviews":9219,"ilo":9220,"ĠDO":9221,"ĠÑĦÑĥÐ½ÐºÑĨ":9222,"Ġmood":9223,"Ġaccounts":9224,"Ġsharp":9225,"Ġforeign":9226,"mark":9227,"Ð¸ÑĢÑĥ":9228,"Ġhumanity":9229,"ayout":9230,"ÑĥÑģÑģÐº":9231,"Ġcrop":9232,"Ġkon":9233,"Ġrecords":9234,"Ġspiritual":9235,"Ġcyber":9236,"ĠÐ¾Ð¿ÑĢÐµÐ´":9237,"fra":9238,"ĠLimited":9239,"Ġnarrative":9240,"Ġporn":9241,"javascript":9242,"ĠÙĩ":9243,"Ġsignifica":9244,"Ġfacing":9245,"Ġentry":9246,"Ġkeeping":9247,"ĠÐ²Ð¾Ð·Ð¼Ð¾Ð¶":9248,"Ġoffered":9249,"ĠString":9250,"Ġformer":9251,"Ġemo":9252,"ĠestÃ£o":9253,"hem":9254,"ernel":9255,"Ġlocations":9256,"ĠOnly":9257,"ĠOR":9258,"Ġconvey":9259,"ĠÙħÙĨ":9260,"aggio":9261,"Å¡":9262,"ONT":9263,"ĠLook":9264,"Ġcitiz":9265,"weet":9266,"ĊĠĠĠĠĊ":9267,"Ġrecom":9268,"/to":9269,"Ġcreature":9270,"Ġobjetivo":9271,"Size":9272,"Ġ:ĊĊ":9273,"åľ¨":9274,"Ġentanto":9275,"Ġdiscrimination":9276,"Number":9277,"Ġflat":9278,"Ġpossono":9279,"_margin":9280,"Ġautonom":9281,"ÑĢÐ°Ð¶":9282,"Ġrecip":9283,"áº¿":9284,"Ġgarantir":9285,"_C":9286,"igkeit":9287,"Ġstack":9288,"Ãªncias":9289,"Ġchamp":9290,"Ġconten":9291,"ĠCalculate":9292,"ĠProject":9293,"uous":9294,"ĠÐºÐ¾Ð´":9295,"ĠRemember":9296,"Ġaccel":9297,"cht":9298,"-world":9299,"Ġaider":9300,"ĠTell":9301,"_time":9302,"Since":9303,"Ġpom":9304,"ĠEner":9305,"à¸£":9306,"-renewable":9307,"Ġemotion":9308,"ĠImpro":9309,"vention":9310,"Ġcircle":9311,"Ġexploration":9312,"Ġarrived":9313,"Ġformal":9314,"Ġfis":9315,"ensation":9316,"Ġspecialty":9317,"ocr":9318,"Ġê°Ģ":9319,"_NAME":9320,"Ġalc":9321,"(i":9322,"Ġcooking":9323,"Ġfashion":9324,"ĠIdentify":9325,"ĠAny":9326,"Ġbroken":9327,"Ġhabit":9328,"Ġroutine":9329,"fast":9330,"Ġnearby":9331,"DP":9332,"Ð¾Ð±ÑħÐ¾Ð´Ð¸Ð¼":9333,"Ð°ÑĨÐ¸Ñİ":9334,"-E":9335,"ìĦ±":9336,"Ġalcohol":9337,"find":9338,"uh":9339,"inc":9340,"Ġsuccessfully":9341,"256":9342,"False":9343,"bb":9344,"ĠâĪ":9345,"pg":9346,"Ġintegers":9347,"Ġsigns":9348,"Ġelectron":9349,"state":9350,"ĠÐ¿Ð¾Ð»ÑĮÐ·":9351,"grees":9352,"ĠTitle":9353,"Ġregions":9354,"Ġincons":9355,"Ġcharges":9356,"Ġdistrict":9357,"ĠIntellig":9358,"95":9359,"ĠNLP":9360,"Ġdivis":9361,"Ġcandidate":9362,"Ġhier":9363,"Ġsearching":9364,"Ġopening":9365,"á»ĩ":9366,"rows":9367,"lies":9368,"Ġscan":9369,"aires":9370,"_P":9371,"Ġinstrument":9372,"otec":9373,"eln":9374,"Ġcutting":9375,"ossible":9376,"ĠrÃ©s":9377,"Ġchosen":9378,"Ġfare":9379,"ĠĠĠĠĠĠĠĠĊ":9380,"vt":9381,"Ġwish":9382,"Ġterror":9383,"Ġspending":9384,"Ġhur":9385,"ĠSpanish":9386,"dehyde":9387,"Ġsatisfied":9388,"Ġfabric":9389,"isco":9390,"aws":9391,"Ġmiles":9392,"Ġconstraints":9393,"Ġgenerates":9394,"Ġê¸°":9395,"Ġsynthesized":9396,"ãģį":9397,"_button":9398,"Ġfascin":9399,"ĠAnaly":9400,"Ġpool":9401,"Content":9402,"ĠUnion":9403,"Ġsmiled":9404,"ĠInternet":9405,"_type":9406,"(e":9407,"Ġpurified":9408,"ÐµÐ»Ð¾Ð²":9409,"ÑıÑĤÑĮ":9410,"raÃ®":9411,"rior":9412,"Ġintermediates":9413,"!!":9414,"Ġtrat":9415,"Ġillust":9416,"ĠIRA":9417,"ĠGree":9418,"person":9419,"Ġposit":9420,"Ġ:=":9421,"rog":9422,"Ġwire":9423,"Ð½Ñĸ":9424,":\",":9425,"ĠÐ·Ð°Ð´Ð°Ñĩ":9426,"Ġracist":9427,"æĪĲ":9428,"Ġnar":9429,"Ã§os":9430,"aix":9431,".user":9432,"Where":9433,"Ġgrad":9434,"Ġsusp":9435,"atom":9436,"Ġinvesting":9437,"rs":9438,"vised":9439,".A":9440,"ĠAIM":9441,"hether":9442,"base":9443,"ÐºÑĢ":9444,"ĠÐ°Ð²":9445,"Ġstation":9446,"Ġshell":9447,"ĠMiss":9448,"rateg":9449,"ãģķ":9450,"Ġpartir":9451,"åĴĮ":9452,"vez":9453,"aire":9454,"asi":9455,"ĠManager":9456,"Ġtheore":9457,"Ġicon":9458,"Ġhuge":9459,"rier":9460,"ibonacci":9461,"Ġserved":9462,"owered":9463,"Ġdear":9464,"cm":9465,"Ġric":9466,"ë¶":9467,".)":9468,"erge":9469,":\"":9470,"ĠTensor":9471,"axis":9472,"Ġintensity":9473,"Ġacting":9474,"Ġloaded":9475,"Ġdependencies":9476,"Ð¾Ð±Ñī":9477,"-by":9478,"Ġtienes":9479,".update":9480,"ä¾":9481,"Ġconven":9482,".y":9483,"();ĊĊ":9484,"Ġbreathing":9485,"Option":9486,"db":9487,"Ġblockchain":9488,"ĠTH":9489,"Ð¸ÑĢÐ¾Ð²Ð°ÑĤÑĮ":9490,"âĸĪ":9491,"Ġpersonas":9492,"Ġstartup":9493,"Ð¾Ð²Ð¾ÑĢ":9494,"Ġtransformation":9495,"ÑĥÐµÑĤ":9496,"working":9497,"learn":9498,"Ġdiscipl":9499,"Change":9500,"Ġdiversity":9501,"Ġatual":9502,"Ðķ":9503,"values":9504,"airs":9505,"Ġbedroom":9506,"Ġletting":9507,"Ġvolt":9508,"Ġbehaviors":9509,"ðŁĴ":9510,"Ġneighbor":9511,"åĳ":9512,"'ĊĊ":9513,"\").":9514,"water":9515,"Ġimagine":9516,"ulating":9517,"ipping":9518,"Ġverd":9519,"ëĿ¼":9520,"á»ĥ":9521,"luor":9522,"OO":9523,"Ġuno":9524,"ĠÐ¾Ð±ÑĢÐ°Ð·":9525,"ĠÐ¾Ñĩ":9526,"Ð°ÑĢÑĤ":9527,"pat":9528,"afety":9529,"Ġcomply":9530,"ĠExample":9531,"Ð½Ð¸Ð¼":9532,"Ġcute":9533,"Ġpeuvent":9534,"ä¿":9535,"question":9536,"Ã¤n":9537,"uber":9538,"ĠPot":9539,"ŀ×":9540,"ĠKey":9541,"Ġkitchen":9542,"Ġunt":9543,"Ġaggress":9544,"oga":9545,"Ġpix":9546,"plotlib":9547,"inner":9548,"sis":9549,"ĠÑĤÐ¾Ð³Ð¾":9550,".quit":9551,"Don":9552,"ĠHTTP":9553,"ĠÐ¿Ð¾Ð¼Ð¾Ñī":9554,"Ġflavor":9555,"ï¸":9556,"izations":9557,"icaÃ§Ã£o":9558,"iendo":9559,"Ġmic":9560,"estamp":9561,"Ġends":9562,"ĠDay":9563,"ĠChristian":9564,"Ġreliability":9565,"ĠUkraine":9566,"Ġcomprom":9567,"ĠMuslim":9568,"Ġmaybe":9569,"Service":9570,"ĠCurrent":9571,"Ġintimate":9572,"Ġembargo":9573,"Ġwaves":9574,"oso":9575,"Point":9576,"Ġtensor":9577,"USER":9578,"Ġtus":9579,"Ġcant":9580,"ĠMag":9581,"ĠÑĦÐ¾ÑĢÐ¼":9582,"])":9583,"mt":9584,"Ġrecently":9585,"Ġutilizando":9586,"-cons":9587,"ĠPay":9588,"Ġdatasets":9589,"ĠÃ¡re":9590,"Ġfindings":9591,"Ġfest":9592,"Ġtoler":9593,"Ġrevised":9594,"ĠSeptember":9595,"then":9596,"ograf":9597,"Generate":9598,"otion":9599,"ciones":9600,"Ġcomprend":9601,"192":9602,"Ġowners":9603,"Ġtension":9604,"peech":9605,"ĠĠĠĠĠĠĠĠĠĠĠĠ":9606,"loat":9607,"Ġlyr":9608,"Ð¾ÑĤÐ¾Ð²":9609,"Ġconsists":9610,"ĠTHE":9611,"Ġtherefore":9612,"ĠPO":9613,"Ġtrembling":9614,"Ġgift":9615,"ÐµÑģÑĮ":9616,"ĠÐ¿ÑĢÐ¾Ð¸Ð·":9617,"Ġchatbots":9618,"Ġmedications":9619,"Ġkid":9620,"Ġestud":9621,"Ġselling":9622,"Ġlapt":9623,"Ġcards":9624,"Ġprecisa":9625,"lobal":9626,"Ġconstru":9627,"Ġtiempo":9628,"iais":9629,"war":9630,"ĠÑĢÑĥÑģÑģÐº":9631,"ĠFacebook":9632,"ĠVisual":9633,"iot":9634,"ĠÐ¼Ð¾Ð¶ÐµÑĤÐµ":9635,"ĠPal":9636,"Ġdiscomfort":9637,"\\_\\_\\_\\_\\_\\_\\_\\_":9638,"ĠSales":9639,"ync":9640,"Ġtherap":9641,"ktop":9642,"asket":9643,"ĠHey":9644,"Ġcosmetics":9645,"âĪ":9646,"110":9647,"oded":9648,"Ġinteress":9649,"ï¸ı":9650,"ĠÐ¿ÑĢÐ¸Ð²":9651,"Ġsimulate":9652,"Ġargs":9653,"Ġdegrees":9654,"ĠAccess":9655,"ĠÐ¿ÑĢÐ¾ÑĨ":9656,":**":9657,"Ð°Ð½Ð´":9658,"Ġengineer":9659,"ĠElect":9660,"Description":9661,"loro":9662,"Ġmasturb":9663,"Ġring":9664,"ÐµÐ½Ð¸Ð¸":9665,"ãģĵãģ¨":9666,"Ġevening":9667,"comfortable":9668,"ĠÑĤÐ¾Ð»ÑĮÐºÐ¾":9669,"oltre":9670,"ĠPHP":9671,"Ġfocuses":9672,"Ġtema":9673,"Ġlikes":9674,"inity":9675,"Char":9676,"Ġaz":9677,"Ġcraft":9678,"Ġpropri":9679,"ventional":9680,"Ġcash":9681,"ĠpÃ¡":9682,"rote":9683,"ĠÐ±ÑĭÐ»":9684,"chi":9685,"Ġreferences":9686,"oles":9687,"Ø§ÛĮ":9688,"Ġfel":9689,"-con":9690,"ĠÑģÐ»ÐµÐ´ÑĥÑİÑī":9691,"Ġdreams":9692,"clud":9693,"ÑĭÑĤ":9694,"Ġsis":9695,"ulf":9696,"Ġsecre":9697,"Ġsheet":9698,"ĠInstall":9699,"ÑĸÐ²":9700,"razil":9701,"Ġdesde":9702,"Rec":9703,"ÑĥÐ³":9704,"cule":9705,"Ġelectrical":9706,"Ġexhaust":9707,"ĠFire":9708,"Ġoccurs":9709,"Ġsmoke":9710,"Ġreligion":9711,"Ġlogin":9712,"áº£":9713,"Ġinvolving":9714,"ĠÎ¼":9715,"Ġcooper":9716,"Ġotherwise":9717,"iti":9718,"Ġsac":9719,"ĠSal":9720,"ĠSuper":9721,"Ġreset":9722,"?\",":9723,"Ġexists":9724,"orders":9725,"FA":9726,"Ġvacc":9727,"Ġcomplain":9728,"ãģı":9729,"CRE":9730,"oned":9731,"åĢ":9732,"Ġasset":9733,"Ġportug":9734,"Ġìĥ":9735,"Ġsan":9736,"ÐºÐ°Ð·":9737,"Ġconfront":9738,"Ġdirections":9739,"ele":9740,"Ġbold":9741,"âĢĶ":9742,"Ġsele":9743,".ĊĊĊ":9744,"Ġpeaceful":9745,"ĠAPIs":9746,"gpt":9747,"Ġseja":9748,"Ġhet":9749,"ÑĥÑĪ":9750,"rade":9751,"cules":9752,"Ġfailure":9753,"Ġmeal":9754,"Ġplastics":9755,"ĠVocÃª":9756,"ĠBre":9757,"Ġmechanics":9758,"Ġcertific":9759,"ĠExtract":9760,"eless":9761,"Ð¸ÑĦ":9762,"ĠÑĩÐ°ÑģÑĤ":9763,"ientos":9764,"ĠÐµÐµ":9765,"Ġwound":9766,"ested":9767,"ĠÐºÐ»":9768,"ĠAuto":9769,"Ġchrom":9770,"ĠUSA":9771,"Ġsurrounded":9772,"ĠIndustry":9773,"Ġwasn":9774,"Gr":9775,"CR":9776,"Ġmeat":9777,"Ġcerc":9778,"51":9779,"Ġbranch":9780,"Ġela":9781,"Ġmechanism":9782,"ĠClass":9783,"Ð¸ÐºÐ¸":9784,"'aut":9785,"ĠSince":9786,"ipher":9787,"çĽ":9788,"Ġenjoyed":9789,"server":9790,"ãĢĤĊ":9791,"ographic":9792,"Ġunderstood":9793,"Ã¼h":9794,"nh":9795,"itas":9796,"ientes":9797,"ĠÑģÐ²ÑıÐ·":9798,"Ð¾ÑģÑĤÑĮ":9799,"Ġlighting":9800,"else":9801,"Ġfemin":9802,"Ġalph":9803,"Ã©ri":9804,"Ġflight":9805,"oon":9806,"ĠÐ¾ÑģÐ½Ð¾Ð²":9807,"echo":9808,"uting":9809,"Ġuncomfortable":9810,"Code":9811,"Ġborder":9812,"urg":9813,"Ġembrace":9814,"Ġhai":9815,"YL":9816,"_y":9817,"Ġvisible":9818,"Explanation":9819,"Ġheavily":9820,"ĠMaterial":9821,"Ġtrouble":9822,"ìłķ":9823,"Ġtodas":9824,"igg":9825,"Ġafford":9826,"ĠVul":9827,"SYS":9828,"Ġabsor":9829,"iciÃ³n":9830,"ounsel":9831,"Ġfate":9832,"version":9833,"Ġdram":9834,"Ġmouse":9835,"Hola":9836,"Ġapps":9837,"63":9838,"Ġlugar":9839,"ĠFriday":9840,"FI":9841,"Ġreporting":9842,"Ġdraft":9843,"Ġcycle":9844,"ĠPractice":9845,"Ã½":9846,"valid":9847,"åı¯èĥ½":9848,"ĠImport":9849,"Ġagreed":9850,"Ġsmell":9851,"Ġpreparation":9852,"ÐµÐ»ÐµÐ¹":9853,"Ġclassified":9854,"Ġpela":9855,"EV":9856,"Ġsisters":9857,"ĠRoman":9858,"Ġcontinuous":9859,"ĠÑħÐ¾ÑĤ":9860,"NO":9861,"alid":9862,"ĠÐ²ÑĭÐ±":9863,"Ġcollege":9864,"âĢĻm":9865,"lik":9866,"Count":9867,"ÐŁÑĢ":9868,"Ġpulled":9869,"Ġkg":9870,"ĠÐ¿Ð¾Ð¿":9871,"igital":9872,"Ġcreare":9873,"sten":9874,"Ġcustomized":9875,"Ġash":9876,"Ġë¬":9877,"Ġmanaged":9878,"Ġgran":9879,"Ġsoul":9880,"ĠClaro":9881,"ĠpÃºblic":9882,"ÑģÑĤÐ°Ð½Ð¾Ð²":9883,"Ġraised":9884,"Ġdogs":9885,"ĠÐºÐ°Ð¶Ð´":9886,"Ġautor":9887,"Ġatom":9888,"à¸ĩ":9889,"Ġoppon":9890,"Ġengineers":9891,"ĠÐ½ÐµÐ¾Ð±ÑħÐ¾Ð´Ð¸Ð¼":9892,"ĠìŀĪìĬµëĭĪëĭ¤":9893,"ĠInitial":9894,"Ġgraphic":9895,"Ġwenn":9896,"Ġshadow":9897,"999":9898,"rado":9899,"eme":9900,"Ġverwend":9901,"username":9902,"ilter":9903,"ĠRoad":9904,"Ġsolvents":9905,"Ġprimarily":9906,"unte":9907,"Ġvaried":9908,"ĠMuse":9909,"Ġpoll":9910,"dir":9911,"ĠAqui":9912,"price":9913,"Ġges":9914,"ÃŃveis":9915,"Ġreaching":9916,"Ġotros":9917,"Ġmeters":9918,"åĲĹ":9919,"Ġlyrics":9920,"Ġsubstance":9921,"Ġhung":9922,"uj":9923,"Ġlux":9924,"####":9925,"iso":9926,"Ġthanks":9927,"Ġfraud":9928,"ĠajudÃ¡":9929,"Ġdemonstrates":9930,"^^^^":9931,"ulti":9932,"Ġcryptocur":9933,"allow":9934,"Ġrepository":9935,"Ġcalm":9936,"ãĤ¤":9937,"âĸĪâĸĪ":9938,"ĠCL":9939,"Ġdisplayed":9940,"ifi":9941,"Ġkept":9942,"Î³":9943,"Ġlin":9944,"river":9945,"á»Ļ":9946,"Ġeducational":9947,"ĠBitcoin":9948,"ì¤":9949,"Ġdich":9950,"ĠServices":9951,"chied":9952,"ĠBras":9953,"ĠÐ¾ÑĢ":9954,"ĠReal":9955,"Ġfert":9956,"player":9957,"ĠBay":9958,"ushing":9959,"ĠBank":9960,"issance":9961,".path":9962,"Ġinnoc":9963,"part":9964,"ĠÐ¿Ð¾Ð»ÑĮÐ·Ð¾Ð²":9965,"olving":9966,"Ġstato":9967,"click":9968,"Ð¸Ð½Ð°":9969,"ìĻ":9970,"Ġtwist":9971,"uras":9972,"Ġpreviously":9973,"oting":9974,"Ġride":9975,"Ġacts":9976,"ĠmodÃ¨le":9977,"hus":9978,"door":9979,"Ġobtained":9980,"plays":9981,"Ġunknown":9982,"ĠMachine":9983,"ÄĽ":9984,"Ã§ar":9985,"Ġservers":9986,"Ġcontrols":9987,"Ġintim":9988,"Ġcompliance":9989,"Ultimately":9990,"las":9991,"iang":9992,"Ġgrin":9993,"Ġscenarios":9994,"Ġbusy":9995,"Ġdignity":9996,"roller":9997,"Ġsummer":9998,"Ġgrammar":9999,"Ġmuscular":10000,"ĠÐ¼ÐµÑĤÐ¾Ð´":10001,"72":10002,"Ġguy":10003,"ataform":10004,"rivate":10005,"Ġelif":10006,"ãĢĤĊĊ":10007,"INT":10008,"Ġbathroom":10009,"Ġbottle":10010,"iences":10011,"Ġmultipl":10012,"Ġcream":10013,"ummarize":10014,"Ġëª":10015,"Ġsint":10016,"Ġreplaced":10017,"Ġhoriz":10018,"Ġtout":10019,"Ġexcess":10020,"Ġneur":10021,"Ġassessment":10022,"Ġtexture":10023,"Ġaffection":10024,"Ġdish":10025,"ĠÐ½Ð°ÑĪ":10026,"Ġfoundation":10027,"Ġweigh":10028,"ĠÑĩÐµÐ»Ð¾Ð²":10029,"âĢĿ,":10030,"ĠÑģÐ¾Ð±":10031,"ëĤĺ":10032,"Ġlaunch":10033,"Ð¾ÑĢÑĤ":10034,"ãĤĵ":10035,"Ġframeworks":10036,"Ð°ÑİÑī":10037,"Ġinstallation":10038,"å¦":10039,"abul":10040,"ibilities":10041,"Ġbuff":10042,"Ġfruit":10043,"Ġbullet":10044,"Ġisn":10045,"Pass":10046,"eur":10047,"ĠBr":10048,"Ġshift":10049,"ĠIslam":10050,"Ġsport":10051,"à¤¿":10052,"Ġkilled":10053,"Ġdestroy":10054,"Ġkan":10055,"life":10056,"bruary":10057,"icides":10058,"ĠlÃł":10059,"Ġstere":10060,"Ġwra":10061,"Ġmoist":10062,"-ch":10063,"ĠÃ¶":10064,"aze":10065,"rum":10066,"à¥įà¤":10067,"ithub":10068,"allel":10069,"cat":10070,"ĠCount":10071,"While":10072,"ĠAG":10073,"Ġhumidity":10074,".D":10075,"Ġcharacterized":10076,"Ġshoes":10077,"ĠÐĽ":10078,"Ġmitig":10079,"ãģ§ãģĻ":10080,"cor":10081,"ansion":10082,"Ġ{{":10083,"ÑĥÑīÐµÑģÑĤÐ²":10084,"Ġchloride":10085,"Gener":10086,"Verse":10087,"emÃ¡s":10088,"Ġlinked":10089,"Ġrespir":10090,"Ġvs":10091,"ĠØ¯":10092,"Ġabstract":10093,"Ġgravity":10094,"athy":10095,"yo":10096,"aph":10097,"Ġinstitutions":10098,"Ġcompact":10099,"Ġhypot":10100,"Ġexpressed":10101,"/A":10102,"Ġassigned":10103,"ĠStudio":10104,"Ġannual":10105,"Ġawait":10106,"endar":10107,"Ġleur":10108,"Ġsubmissive":10109,"ĠÐ§":10110,"imer":10111,"Ġsout":10112,"ota":10113,"Ġemissions":10114,"ironment":10115,"Ġnipples":10116,"Ġtor":10117,"emple":10118,"ë©´":10119,"Ġdiscussion":10120,"untos":10121,"Ġcoding":10122,"ifique":10123,"Ġpairs":10124,"fa":10125,"ĠCenter":10126,"Ġincreasingly":10127,"angers":10128,"ABLE":10129,"Ġlifestyle":10130,"crete":10131,"Ġauthentication":10132,"poon":10133,"acks":10134,"Ġreferred":10135,"ĠLLMs":10136,"Ġecos":10137,"Ġlandscape":10138,"ï¿½ï¿½ï¿½ï¿½":10139,"ashing":10140,"à¸±":10141,"Ġencrypt":10142,"Ġê²ĥ":10143,"128":10144,"atabase":10145,"ĠYear":10146,"Ġrevolution":10147,"Ġdespite":10148,"iest":10149,"Ġnue":10150,"ande":10151,"ogram":10152,"Ġske":10153,"unas":10154,"ĠÑĸ":10155,"ameter":10156,"Ð»ÐµÐ½Ð¸Ðµ":10157,"Ġcompos":10158,"Ġpred":10159,"Ġlogical":10160,"PL":10161,"Ġfoods":10162,"Ġquiet":10163,"phrase":10164,"ĠPo":10165,"íĸ":10166,"Ġdepart":10167,"antly":10168,"Ġanalytics":10169,"-end":10170,".R":10171,"ĠÑĥÐ²":10172,"Ġvegetables":10173,"rÃ©":10174,"iophen":10175,"(NAME":10176,"Ġlaboratory":10177,"istical":10178,"Ġtracking":10179,"(-":10180,"heet":10181,"ĠParis":10182,"Ġdigit":10183,"Ġjokes":10184,"throp":10185,"Ġadopt":10186,"Ġemphasizes":10187,"Ġstudied":10188,"Ġcontroversial":10189,"width":10190,"ĠTer":10191,"Ġ.Ċ":10192,"Ġloud":10193,"Ġvagina":10194,"Ġaber":10195,"Ġlisted":10196,"Ġ\"<":10197,"fas":10198,"Ġdelete":10199,"Ġbuildings":10200,"Ġhide":10201,"Ġdescribing":10202,"amentos":10203,".B":10204,"Ġsuck":10205,"ĠBest":10206,"icios":10207,"ĠAccording":10208,"Ġadequ":10209,"-bromo":10210,"Ġupper":10211,"ĠBrazil":10212,"Ġirrit":10213,"Ġprove":10214,"ĠDown":10215,"range":10216,"ohn":10217,"Ã¨me":10218,"isto":10219,"ĠMal":10220,"eger":10221,"79":10222,"Ser":10223,"Ġconte":10224,"Ġplataform":10225,"Ġestimated":10226,".F":10227,"Ġanticipation":10228,"quier":10229,"ìŀ¥":10230,"Ġwindows":10231,"Ġimpur":10232,"à¹Ģà¸":10233,"Ġdati":10234,"Ġease":10235,"product":10236,"Ġesper":10237,"Ġalta":10238,".csv":10239,"frica":10240,"Ġentered":10241,"agn":10242,"Ġhowever":10243,"Ġdiagram":10244,"Ġdiscussing":10245,"Ġstudying":10246,"ĠOk":10247,"Ġverify":10248,"Ð½Ð°ÐºÐ¾":10249,"ternatively":10250,"Ġimpacts":10251,"Ġangle":10252,"Ġburn":10253,"ĠISO":10254,"001":10255,"Ġinclusive":10256,"Ġcategor":10257,"ĠanÃ¡l":10258,"ĠPok":10259,"ĠAustralia":10260,"LMSYS":10261,"true":10262,"MI":10263,"Ġofere":10264,"Ġdont":10265,"ffect":10266,"ëĵ¤":10267,"ĠÐ²ÐµÑĢ":10268,"Ġescrit":10269,"ÐµÑī":10270,"Ġappoint":10271,"connect":10272,"Ġmusical":10273,"Ġscope":10274,"Ġsensual":10275,"Ġtries":10276,"isi":10277,"Ġsubmit":10278,"Ġcel":10279,"Ins":10280,"benz":10281,"Î±Î¹":10282,"Ġdivided":10283,"rated":10284,"Ġrid":10285,"hesis":10286,"Ġhazard":10287,"istance":10288,"Ġessa":10289,"Ġhabilidades":10290,"emory":10291,"Ġphase":10292,"{'":10293,"Ġcomport":10294,"Ġsuperior":10295,"Ġretail":10296,"Ġsexy":10297,"(df":10298,"Ġhello":10299,"Ġsick":10300,"Mod":10301,"Ġsongs":10302,"Ġmolecules":10303,"Torch":10304,"Ġmemories":10305,"Ġpink":10306,"Ġlemb":10307,"ÎŃ":10308,"isch":10309,"ĠCustomer":10310,"-Ch":10311,"page":10312,"ĠDiff":10313,"Ġargue":10314,"CL":10315,"Ġstruggle":10316,"ether":10317,"................":10318,"ensional":10319,"Ġphysically":10320,"Ġeleg":10321,"ĠUpdate":10322,"cz":10323,"Ġhappens":10324,"Ġexit":10325,"aching":10326,"yect":10327,"cket":10328,"Ġblocks":10329,"Ġëĭ¤":10330,"Ġusername":10331,"ĠItalian":10332,"inar":10333,"Ġhash":10334,"Ġutilizzare":10335,"quinoline":10336,"letic":10337,"62":10338,"Ġnegot":10339,"ĠBuilding":10340,"ĠÐ¾Ð½Ð¸":10341,"Ġë¶":10342,"Ġcognitive":10343,"ÐµÐ½Ð¸Ñİ":10344,"ĠStand":10345,"ĠPeople":10346,"Ġinitiatives":10347,"Ġslave":10348,"glich":10349,"Ġhydroxide":10350,"Ġcounterparty":10351,"ĠpÃ¥":10352,"Ġexpenses":10353,"Ġessay":10354,"Ġultimate":10355,"alaxy":10356,"ĠWord":10357,"ĠÐ¿ÑĢÐ¸Ð¼ÐµÑĢ":10358,"forward":10359,"ĠÐ¸ÑģÑĤ":10360,"Ġdistributed":10361,"zhou":10362,"Ġfiltering":10363,"omach":10364,"ĠBlue":10365,"ĠDeveloper":10366,"Ġthreats":10367,"Ġconducted":10368,"mation":10369,"ped":10370,"umps":10371,"ucking":10372,"Äį":10373,"ëĵľ":10374,"ĠBritish":10375,"_h":10376,"ĠEvery":10377,"/re":10378,"Ã¢ncia":10379,"Ġpromise":10380,"oubles":10381,"Ġvibrant":10382,"ĠAzure":10383,"ĠTensorFlow":10384,"%,":10385,"Well":10386,"Ġconsens":10387,"ĠContent":10388,"Ġvicuna":10389,"Ġagency":10390,"ÐµÑĤÐµ":10391,"Ġadministr":10392,"Ġvalidation":10393,"Ġelectricity":10394,"Ġspr":10395,"Thought":10396,"ĠEvalu":10397,"Good":10398,"anza":10399,"Est":10400,"style":10401,"irts":10402,"ĠGre":10403,"ĠJanuary":10404,"Ġovers":10405,"ÑĨÐ¸Ð°Ð»ÑĮ":10406,"aux":10407,"ĠÑĢÐ°Ð·Ð²":10408,"ãģĹãģ¦":10409,"OU":10410,"Ġlub":10411,"900":10412,"Ġpare":10413,"ĠCy":10414,"ĠktÃ³":10415,"agens":10416,"ani":10417,"ĠDer":10418,"Ġcurs":10419,"Ġmich":10420,"ruck":10421,"Ġdecor":10422,"CS":10423,"Ġaqui":10424,"wide":10425,"éģ":10426,"enew":10427,"uciÃ³n":10428,".*":10429,"adata":10430,"Ġalgumas":10431,"rament":10432,"Ġisland":10433,"Ġgenerar":10434,"Ġservi":10435,"Ġfort":10436,"Acc":10437,"ĠIncre":10438,"Ġjak":10439,"é¢ĺ":10440,"Ġimprovements":10441,"Ġig":10442,"æ°":10443,"Ġjug":10444,"Ġsistemas":10445,"Ġuniversity":10446,"ounced":10447,"Ġsale":10448,"Ġcampo":10449,"ativos":10450,"]:Ċ":10451,"ê²Į":10452,"entral":10453,"iger":10454,"Ġbibliotec":10455,"Ġfaith":10456,"Ġprodot":10457,"ĠpÃ¡gin":10458,"Ġwy":10459,"Ġtransformer":10460,"Ġfornecer":10461,"Ġcompatible":10462,"ship":10463,"Ġbatch":10464,"Ġproductivity":10465,"Ġdecrypt":10466,"ĠSelect":10467,"Ġemergency":10468,"Ġsizes":10469,"ĠInf":10470,"ĠAlp":10471,"ku":10472,"ĠÐ¼Ð¾":10473,"umes":10474,"Ġfaces":10475,"Score":10476,"ipe":10477,"Ġexport":10478,"Ġending":10479,"Ġstores":10480,"ometry":10481,"Ġdesenvolvimento":10482,"ĠÐ²Ð°Ñģ":10483,"Request":10484,"êµŃ":10485,"message":10486,"abs":10487,"ãĥĪ":10488,"atz":10489,"Ġcliente":10490,")`":10491,"èĢ":10492,"anti":10493,"ĠEd":10494,"Ġkeine":10495,"âĸĮ":10496,"Ġnutri":10497,"ÑģÑĤÑĢÑĥ":10498,"(num":10499,"qrt":10500,"ĠFlask":10501,"ĠFood":10502,"ÑĦÑĦ":10503,"Ġhorn":10504,"æŀ":10505,"Ġstocks":10506,"ĠIntroduction":10507,"Ġboyfriend":10508,"Ð¾Ð²Ð°Ð½Ð¸Ñı":10509,"Ġenemies":10510,"Ġmemor":10511,"Ġacids":10512,"Based":10513,"ĠAriz":10514,"config":10515,"Ġcontr":10516,"Ġaims":10517,"ĠgÃ©nÃ©":10518,"Ġrepet":10519,"Ġtengo":10520,"random":10521,"Ð¸Ð½Ð¸Ð½Ð¸Ð½Ð¸Ð½":10522,"Ġnuest":10523,"Ġconsumer":10524,"Ã¼n":10525,"Ġprotocols":10526,"ĠRAM":10527,"Ġflag":10528,"ĠRequest":10529,"ĠPhys":10530,"ĠNetwork":10531,"ĠsÃŃ":10532,"ĊĊĊĊ":10533,"ridge":10534,"keys":10535,"Ġconserv":10536,"Ð¸ÑĤÑģÑı":10537,"icio":10538,"Ġdedication":10539,"ĠespaÃ±":10540,"Ġinches":10541,"ĠFranc":10542,"Ġformed":10543,"ĠQue":10544,"Ġpresentation":10545,"Ġiron":10546,"ĠÐĿÐ°Ð¿":10547,"Ġdut":10548,"ĠNa":10549,"Ġoptimal":10550,"ĠProducts":10551,"wick":10552,"orious":10553,"ĠConnect":10554,"ĠfÃŃs":10555,"ham":10556,"Ġreverse":10557,"Ġcapacidad":10558,"Ġteaching":10559,"ĠRepublic":10560,"lications":10561,"ĠPyTorch":10562,"Ġchannels":10563,"Ġterrit":10564,"Ġauthority":10565,"å¯":10566,"Ġimpurities":10567,"Ġlicense":10568,"UST":10569,"ĠAvoid":10570,"_test":10571,"Ġiterate":10572,"ëŁ":10573,"Ġwur":10574,"ekt":10575,"Ø²":10576,"Ġbird":10577,"ĠÐ¿ÑĢÐ¾ÑģÑĤ":10578,"Ġseductive":10579,"-[":10580,".show":10581,".title":10582,"\\*":10583,"Ġcoordinates":10584,"points":10585,"Ġëĵ":10586,"Ġplane":10587,"ÏĮ":10588,"Ġcher":10589,"elp":10590,"igos":10591,"Ġhabe":10592,"ĠOld":10593,"ĠÐ½ÐµÑģÐº":10594,"Ġfantas":10595,"Ġaroused":10596,"ĠhÃ¡":10597,"Ġitalian":10598,"ocate":10599,"Ġhorm":10600,"ibil":10601,"Ġobstacles":10602,"Ġpalav":10603,"Ġwalls":10604,"Ġvalores":10605,"emplate":10606,"Ġextracted":10607,"Ġresponding":10608,"Ġcurios":10609,"Ġapple":10610,"Ġelev":10611,"Ġsunshine":10612,"Ġawareness":10613,"-L":10614,"Ð½Ðµ":10615,"ĠÐ¿ÑĢÐ¾Ð±":10616,"Ġassumptions":10617,"Ġinformations":10618,"Ġtoward":10619,"ĠÐ¿Ð°ÑĢ":10620,"Ġversions":10621,"Ġalert":10622,"Ġlesson":10623,"Ġanime":10624,"ĠÐ²ÑĢÐµÐ¼Ñı":10625,"ìĨ":10626,"ĠCanada":10627,"cd":10628,"Ġdod":10629,"Ġconsideration":10630,"Ġhospital":10631,"|Ċ":10632,"ifies":10633,"Ġlots":10634,"ĠÐŀÐ½":10635,"Ġcasa":10636,"Å¼e":10637,"Ġglowing":10638,"Ġashamed":10639,"ĠWhether":10640,".length":10641,"Ġlust":10642,"urther":10643,"ĠOs":10644,"ĠRT":10645,"Ġcurve":10646,"ivi":10647,"Ġfluid":10648,"Ġimpossible":10649,"ĠBet":10650,"ermine":10651,"Ġrobust":10652,".Data":10653,"Ġfamilies":10654,"×ª":10655,"Ġsignals":10656,"Open":10657,"Ġtypical":10658,"ymers":10659,"Ġtomorrow":10660,"sl":10661,"Ð´Ð½Ð°ÐºÐ¾":10662,"Ġdimensions":10663,"Ġexpressions":10664,"ĠÑĥÐ¼":10665,"Ġpizza":10666,"Ġspan":10667,"Ġnative":10668,"ĠÎ±":10669,"Ġstrategic":10670,".reset":10671,"ĠCert":10672,"Ġoffic":10673,"ĠÐ¿Ð¾Ð·Ð²Ð¾Ð»":10674,"_value":10675,"Ġsucceed":10676,"ĠPolice":10677,"Ġquarter":10678,"ĠÐ¾Ð±ÑĥÑĩ":10679,"arÃ¡":10680,"urtle":10681,"));Ċ":10682,"neh":10683,"ById":10684,"Ġnou":10685,"Ġprecursor":10686,"Ġ[]Ċ":10687,"Ġpois":10688,"iden":10689,"ÐµÑģÑĤÐ¸":10690,"Ġcorret":10691,"Ġps":10692,"Ġengaged":10693,"ÙĦÙī":10694,"Ġincredible":10695,"ÐµÐ½Ñĭ":10696,"Ġminute":10697,"Ġnodded":10698,"Ġsido":10699,"Ġcertainly":10700,"Ġcomparison":10701,"à¤¾à¤":10702,"IR":10703,"ĉĉĉ":10704,"ì²":10705,"Ġtar":10706,"uten":10707,"ĠFebruary":10708,"Ġnh":10709,"vantages":10710,"quir":10711,"ĠRun":10712,"Ġschema":10713,"102":10714,"ĠArab":10715,"Ġobt":10716,"Ġengagement":10717,"Ġfriendship":10718,"othesis":10719,"cto":10720,"izard":10721,"Ġrh":10722,"ĠÑģÐ´ÐµÐ»":10723,"ĠAus":10724,"ĠWithout":10725,"ĠÐºÐ¾ÑĢ":10726,"ĠOper":10727,"ko":10728,"Ġtua":10729,"Ġseguint":10730,"Ġtelev":10731,"-dri":10732,"Ġbill":10733,"Ġaliment":10734,"Ġgrace":10735,"Ġcorner":10736,"Ġminor":10737,"ĠÐ¾Ð½Ð°":10738,"ĠÑĢÐµÐ·":10739,"Ġstereot":10740,"ĠUnter":10741,"Ġincident":10742,"89":10743,"Ġonde":10744,"ruption":10745,"Ġupload":10746,"Ġprotective":10747,"nement":10748,"ader":10749,"Ġdebate":10750,"Ã¼ck":10751,"berse":10752,"Ð»Ð°ÑģÑĤ":10753,"ĠCome":10754,"Ġauth":10755,"Ġcollected":10756,"arante":10757,"Ġalleg":10758,"Ġcriminal":10759,"TT":10760,"Ġconcerned":10761,"ahl":10762,"ëª":10763,"Ġcaracter":10764,"Ġequival":10765,"ibrary":10766,"anie":10767,"Ġthin":10768,"ĠWhere":10769,"emble":10770,"_frame":10771,"Ġbelief":10772,"Ġbirds":10773,"job":10774,".json":10775,"Ġcitizens":10776,"ander":10777,"inder":10778,"Ġaccepted":10779,"Task":10780,"anci":10781,"Ġsupplier":10782,"cos":10783,"Ġoperate":10784,"ependant":10785,"Ġmixed":10786,"Ð¾Ð±Ð°Ð²":10787,"Ġadvis":10788,"Ġrestaurants":10789,"Ġjump":10790,"Ġprinted":10791,"grid":10792,"Ġserves":10793,"Ġblank":10794,"url":10795,"abases":10796,"ĠÑĥÑģÐ»":10797,"Chapter":10798,"Ġsphere":10799,"ĠIhnen":10800,"Ich":10801,"Table":10802,"olve":10803,"-line":10804,"Make":10805,"ĠNote":10806,"Ġpricing":10807,"Ġpictures":10808,"ÑĢÐ¾Ð¼":10809,"ĠAugust":10810,"Ġcomposition":10811,"Ġcodice":10812,"Ġspecifies":10813,"plex":10814,"Ġbub":10815,"-day":10816,"chron":10817,"Ġexplan":10818,"ĠÎº":10819,"irector":10820,"uthor":10821,"ĠRest":10822,"ĠÑĤÐµÑħÐ½":10823,"Ġreagents":10824,"\"NAME":10825,"Out":10826,"rence":10827,"ĠÑĩÐ¸Ñģ":10828,"Ġshop":10829,"Ġeliminate":10830,"bro":10831,"ctu":10832,"Ġquad":10833,"âĢĵ":10834,"sudo":10835,"ĠâĶ":10836,"Ġfly":10837,"uta":10838,"à¥Ģ":10839,"Ġmalicious":10840,"84":10841,"nie":10842,"apore":10843,"Ġderived":10844,"']Ċ":10845,"ãģĬ":10846,"Ġmuse":10847,"Ġradio":10848,"Ġoperates":10849,"Ġsnow":10850,"ĠMac":10851,"ĠÐ¾Ð¿ÑĢÐµÐ´ÐµÐ»":10852,"Ġcompassion":10853,"Ġhorse":10854,"(text":10855,"jar":10856,"åī":10857,"\"?":10858,".print":10859,"Ġgreet":10860,"AK":10861,".find":10862,"\\'":10863,"eto":10864,"Ġfourth":10865,"Ġtitles":10866,"ÑįÑįÑįÑį":10867,"Our":10868,"device":10869,"Ġcombat":10870,"ĠnewDirection":10871,"Message":10872,"select":10873,"ĠVol":10874,"Ð¸ÐºÐ°":10875,"Ġdiscussed":10876,"\"}":10877,"Ġtutorial":10878,"ĠvÃŃ":10879,"ĠÐ¿Ð¾ÑģÑĤ":10880,"ĠYeah":10881,"Ġparticipate":10882,"bersecurity":10883,"Ġdil":10884,"Ġcurrency":10885,"Ġapproached":10886,"ĠSoftware":10887,"Ġkernel":10888,"Ġmoons":10889,"Ġrequested":10890,"ĠNode":10891,"Ġviene":10892,"PN":10893,"ĠUN":10894,"Ġheader":10895,"ĠDi":10896,"onde":10897,"Ġchemists":10898,"oul":10899,"Ġlung":10900,"ogether":10901,"ĠPvt":10902,"cu":10903,"Ġsalary":10904,"Ġachieving":10905,"Ġpuzz":10906,"OP":10907,"!\"ĊĊ":10908,"Tell":10909,"Ġgolf":10910,"Ġdisplays":10911,"ĠÃºtil":10912,"Ġtomato":10913,"ĠfÃ¶r":10914,"Index":10915,"lia":10916,"/No":10917,"iki":10918,"Ġboss":10919,"Ġbutter":10920,"Ġethics":10921,"Ġmischie":10922,"uts":10923,"Ġtemperatures":10924,"Ġobjeto":10925,"Ġdemonstrate":10926,"Ġale":10927,"ĠKorea":10928,"izi":10929,"ĠEste":10930,"Ġcurves":10931,"Ġflexibility":10932,"(int":10933,"Ġfigures":10934,"Ġmutual":10935,"å¿":10936,"Ġproporcionar":10937,"ĠBas":10938,"Ġelle":10939,"apping":10940,"Ġproyect":10941,"Ġmanual":10942,"ĠRust":10943,"'util":10944,"ĠProf":10945,"Ġinflam":10946,"ĠMa":10947,"Ð¾ÑĤÑĢ":10948,":</":10949,"ĠValue":10950,"Ġìłľ":10951,"å·":10952,"asp":10953,"Ġrely":10954,".Label":10955,"isa":10956,"rican":10957,"Ġexercises":10958,"Ġmolecule":10959,"olean":10960,"Ġexhib":10961,"Ġmultip":10962,"ĠÑĦÐ°Ð¹":10963,"Ġprocessed":10964,"Ġquel":10965,"Ġferrament":10966,"ĠÐ¿Ð¾Ð²":10967,"umer":10968,"Ġsimulation":10969,"Ġadvertising":10970,"dy":10971,"ĠÚ©":10972,"Ġfusion":10973,"Ġrice":10974,"abulary":10975,"Ġsam":10976,"Ġsecrets":10977,"ĠMonitor":10978,"ĠĠĠĠĠĠĠĠĠĠĠĠĠĠĠĠĠĠĠĠĠĠĠĠĠĠĠĠĠĠĠĠĠĠĠĠĠĠĠĠĠĠĠĠĠĠĠĠĠĠĠĠĠĠĠĠĠĠĠĠĠĠĠĠ":10979,"Ġeffic":10980,"Ġpigments":10981,"None":10982,"Ġbeings":10983,"ĠpossÃŃvel":10984,"ĠSearch":10985,"Ġdishes":10986,"ouns":10987,"íĬ":10988,"Ġscientist":10989,"Ġgained":10990,"Which":10991,"Ġmuy":10992,"Ġearned":10993,"Ġnatur":10994,"urar":10995,"ĠReview":10996,"ĠBrasil":10997,"à¸µ":10998,"Ġextensive":10999,"Ġdivide":11000,"ologia":11001,"_T":11002,"ecute":11003,"ĠAfrica":11004,"ĠSafety":11005,"Ġsurg":11006,"Ġsuddenly":11007,"Ġsurprised":11008,"ifact":11009,"ĠCat":11010,"Ġscores":11011,"ĠOpt":11012,"uming":11013,"ĠÐ½ÑĥÐ¶Ð½Ð¾":11014,"Ġbiases":11015,"ÙĬÙĨ":11016,"Ġgenerator":11017,"%)":11018,"Ġthous":11019,"Ġenvironmentally":11020,"Ġbust":11021,"Ġocean":11022,"ĠÑģÑĢÐµÐ´":11023,"biased":11024,"Ġfilters":11025,"oly":11026,"Ġlights":11027,"Coll":11028,"Ġemerge":11029,"Ð°ÐºÑĤ":11030,"acle":11031,"idge":11032,"ĠBack":11033,"onto":11034,"commod":11035,"ĠOption":11036,"Ġcultura":11037,"Ġestate":11038,"ĠOverall":11039,"uct":11040,"liers":11041,"\"><":11042,"Ġmarried":11043,"web":11044,"Ġtiny":11045,"ÃŃc":11046,"Ġmature":11047,"Ġwo":11048,"Ġacknow":11049,"riors":11050,"Ġprograma":11051,"Ġaccounting":11052,"Ġregulatory":11053,"Ġtower":11054,"ĠÐ½Ð¾Ð²":11055,"DSM":11056,"EE":11057,"}{":11058,"Ġstomach":11059,"Ġaccordingly":11060,"ĠatÃ©":11061,"Ġentender":11062,"Ġguys":11063,"Ã¡veis":11064,"ĠAC":11065,"email":11066,"Ð¾ÑģÐ¾Ð±":11067,"Ġfailed":11068,"Ġrepeated":11069,"elsius":11070,"Ġnous":11071,"Ġpaint":11072,"ĠusuÃ¡rio":11073,"ĠWas":11074,"vid":11075,"Ġ\"$":11076,"ĠBY":11077,"arti":11078,"Ġdess":11079,"Ð¸Ð»Ð°":11080,"Ġunderground":11081,"Widget":11082,"Ġsurvive":11083,"YPE":11084,"Ġcounsel":11085,"ORT":11086,"iga":11087,"Ġacqu":11088,"Ð°Ð½Ð¸Ð¸":11089,"oot":11090,"Ġtexts":11091,"Ġpromotes":11092,"ĠtÃ©cnicas":11093,"ÐµÐºÑĤÐ¸Ð²":11094,"Ġconflicts":11095,"ĠStep":11096,"Ġêµ":11097,"ĠTu":11098,"vironment":11099,"Ġincreases":11100,"icol":11101,"resse":11102,"(root":11103,"uccess":11104,"193":11105,"Ð¸Ð·Ð½":11106,"ĠMuseum":11107,"(l":11108,"Ġopened":11109,"Ġtea":11110,"igt":11111,"Ġcontexto":11112,"Ġbasket":11113,"Ġaqu":11114,"ÑĨÐµÐ½":11115,"iciente":11116,"ÑĢÐ¾Ð½":11117,"Ġfee":11118,"ĠConvert":11119,"Ġemoc":11120,"Ġwinning":11121,"(file":11122,"Ġarchivo":11123,"ĠestÃ¡s":11124,"Ġsupportive":11125,"ìŀħ":11126,"enewable":11127,"-e":11128,"íķł":11129,"Ġstreets":11130,"Ã»":11131,"uler":11132,"criptive":11133,"matory":11134,"ĠÑĩÐµÐ»Ð¾Ð²ÐµÐº":11135,"Ġzum":11136,"ÅĽci":11137,"after":11138,"anco":11139,"Ġlaptop":11140,"Ġhoy":11141,"(),":11142,"ĠØ§ÙĦØª":11143,"Ġsiguiente":11144,"chaft":11145,"Ġcens":11146,"Ġdisp":11147,"Ġtailored":11148,"Am":11149,"star":11150,"Ġinvestors":11151,"Window":11152,"Ð¼ÐµÐ½ÑĤ":11153,"plan":11154,"Field":11155,"ĠCOVID":11156,"_D":11157,"Ġapplicable":11158,"Ġwanting":11159,"Ġrequirement":11160,"ĠRob":11161,"ĠÐ³Ð¾ÑĢ":11162,"ĠÐ¿ÑĢÐµÐ´Ð¾ÑģÑĤÐ°Ð²":11163,"Ġinjury":11164,"rec":11165,"ÐĹ":11166,"ĠFam":11167,"Ġrapp":11168,"izada":11169,"ĠFun":11170,"Ġcorpus":11171,")p":11172,"_model":11173,"Ġble":11174,"Ġpackaging":11175,"ĠlÃŃnea":11176,"76":11177,"à¸§":11178,"Ġfighting":11179,"Ġcircuit":11180,"Ġunbiased":11181,"Ġclock":11182,"Ġearn":11183,"Ġprobably":11184,"Ġensures":11185,"Ġsupporting":11186,"è¨":11187,"BS":11188,"Ġ\"/":11189,"Ġencount":11190,"Customer":11191,"rition":11192,"Ġtherm":11193,"olic":11194,"ĠAR":11195,"Ġmejorar":11196,"BO":11197,"ëħ":11198,"ĠsiÄĻ":11199,"abetes":11200,"Ġhypothet":11201,"ĠAN":11202,"ĠÐ½Ð°Ð·":11203,"ĠGeneral":11204,"ĠÐłÐ¾ÑģÑģ":11205,"_number":11206,"uda":11207,"Ġcombine":11208,"Ġherb":11209,"erenci":11210,"field":11211,"ithium":11212,"ĠDuring":11213,"Ġregression":11214,"hos":11215,"elcome":11216,"Ġfees":11217,"Ġresponsibilities":11218,"700":11219,"inen":11220,"entity":11221,"Ġrare":11222,"Ġautomation":11223,"Ġaprender":11224,"Ġëı":11225,"ideo":11226,"Ġcats":11227,"ocolate":11228,"-known":11229,"ÑĢÐ¾":11230,"Ġmesmo":11231,"Ġbirthday":11232,"Ġcomma":11233,"ĠÑģÑĤÑĢÐ°Ð½":11234,"Ĥ¨":11235,"Ġfalls":11236,"Ġpainting":11237,"Ġmoans":11238,"Ġces":11239,"Ġapresent":11240,"ĠÑĥÐ»":11241,"Ã³mo":11242,"Ġê·¸":11243,"Instruction":11244,"Ġattempted":11245,"actory":11246,"Ġkilling":11247,"ĠLight":11248,"avia":11249,"Ġextreme":11250,"Ġauthorities":11251,"uÃ§Ã£o":11252,"Ġorganized":11253,"ĠÐĴÑĭ":11254,"adder":11255,"normal":11256,"_key":11257,"Ġhang":11258,"Bot":11259,"Ġpolymer":11260,"Ġvictorious":11261,"æŃ":11262,"ãĤī":11263,"ĠSupport":11264,"ĠÐ¼ÐµÐ½Ñı":11265,"Ġlembrar":11266,"vector":11267,"Ġpossa":11268,"ĠWill":11269,"Ð»Ð¸Ð²":11270,"Ġdatabases":11271,"ÑĥÑħ":11272,"Ġpose":11273,"QQ":11274,"ĠCEO":11275,"Ġcualquier":11276,"Ġmountain":11277,"ĠÐ¿ÑĢÐ¸Ð½":11278,"utoff":11279,"opp":11280,"err":11281,"ĠClick":11282,"encial":11283,"Ġsetup":11284,"-per":11285,"Ġgenetic":11286,"'une":11287,"çĶŁ":11288,"à¦¾":11289,"å¤§":11290,"ĠControl":11291,"Ġ×Ķ×":11292,"'],":11293,"rile":11294,"ĠÐ´Ð¾ÑģÑĤÑĥÐ¿":11295,"servation":11296,"-ex":11297,"Ġgarden":11298,"Ġclinical":11299,".P":11300,"LC":11301,"Ġva":11302,"ìĻĢ":11303,"Ġbeat":11304,"Ġintegrated":11305,"ayers":11306,"Ġremoving":11307,"ĠCorpor":11308,"Ġwears":11309,"Ġcasual":11310,"ãģ£":11311,"ĠÑĤÐ¾Ñĩ":11312,"Best":11313,"ĠDem":11314,"Ġteen":11315,"Ġreminder":11316,"Ġvoltage":11317,"Title":11318,"Ġsees":11319,"ingu":11320,"Ġcuis":11321,"iÃ³":11322,"istas":11323,"ÐµÐ½Ð¸":11324,".start":11325,"Ø§Ø¯":11326,">`":11327,"ĠTwitter":11328,"Ġshowed":11329,".name":11330,"azi":11331,"à¸¡":11332,"info":11333,"osten":11334,"'ent":11335,"Ġdistinct":11336,"ÐµÐ±Ðµ":11337,"zioni":11338,"itÃ©s":11339,"Ġdragon":11340,"ĠBDSM":11341,"Ġmechanisms":11342,"Ġplenty":11343,"Ġphilosophy":11344,"Lo":11345,"ĠÑĢÐ°":11346,"Ġparticipants":11347,".foodObj":11348,"ĠconteÃº":11349,"Ġoutfit":11350,"Ġturning":11351,"Ġvom":11352,"Ġshut":11353,"Ġmomento":11354,"tag":11355,"Ġworldwide":11356,"ĠâĤ¬":11357,"æı":11358,"ĠprÃ©c":11359,"íķĺê³ł":11360,"Hub":11361,"Ġmad":11362,"ĠHome":11363,"ĠBar":11364,"Ġtransparent":11365,"older":11366,"Ġstarring":11367,"Ġwrote":11368,"Ġsamples":11369,"luoro":11370,"Comp":11371,"Ġempresas":11372,"Ġinconsistent":11373,"Ġjournal":11374,"ĠMaybe":11375,"ĠMark":11376,"Ġdelay":11377,"Ġactivation":11378,"actor":11379,"akers":11380,"Ġecosystem":11381,"Ġrepair":11382,"Ð¼ÐµÑĢ":11383,"Ġweaknesses":11384,"ÙĪÙħ":11385,"Ġprecision":11386,"Ġpapers":11387,"ĠseguranÃ§a":11388,"ĠTele":11389,"ìłľ":11390,"Array":11391,"Ġsehr":11392,"show":11393,"lass":11394,"PUT":11395,"Ġhall":11396,"Ġsteel":11397,"ĠIS":11398,"Ġ`<":11399,"ford":11400,"Ġexplanations":11401,"uma":11402,"ĠGen":11403,"Ġwidget":11404,"Ġapplying":11405,"Ġdeployment":11406,"Ġoccup":11407,"Ġstir":11408,"Ġathletic":11409,"Ġinfer":11410,"Ġíķľ":11411,"Ġmeine":11412,"acking":11413,"-R":11414,"Ġsauce":11415,"Ã¤ng":11416,"Ġambiente":11417,"Ġexceed":11418,"ivas":11419,"ĠEduc":11420,"Ã§as":11421,"ĠÃºn":11422,"Ġproof":11423,"ĠvÃł":11424,"ilet":11425,"ãĥ«":11426,"Ġreflects":11427,"Ġdebe":11428,"pie":11429,"Ġrecording":11430,"ĠÐ²ÑĭÐ¿Ð¾Ð»Ð½":11431,"ĠÐ¼ÐµÐ¶":11432,"Ġequations":11433,"Ġsexually":11434,"Ġavoiding":11435,"Ġacceptable":11436,".to":11437,"Ġtech":11438,"Ð³Ð°Ð½":11439,"idor":11440,"Ġparallel":11441,"Ġaddressing":11442,"Ġtiss":11443,"ĠUI":11444,"ango":11445,"ìĹ¬":11446,"Ġaddresses":11447,"Ġstreaming":11448,"Box":11449,"Ġprotected":11450,"Ġflowers":11451,"à¤¿à¤":11452,"phones":11453,"BM":11454,"Ġdensity":11455,"items":11456,"ĠStreet":11457,"ĠIntel":11458,"Def":11459,"Response":11460,"Ġduration":11461,"ĠWould":11462,"Ġdiscussions":11463,"ĠÑģÐ¾Ð¾Ð±Ñī":11464,"eed":11465,"ĠDear":11466,"ä¸Ĭ":11467,"inated":11468,"ĠSen":11469,"ARCH":11470,"Ġwhose":11471,"ĠÐ±Ð»":11472,"Ġdiagnosis":11473,"ĠÃ¤r":11474,"ĠAquÃŃ":11475,"Ġproductive":11476,"PG":11477,"mean":11478,"Ġjoint":11479,"Ġmagnetic":11480,"Ġamor":11481,"anche":11482,"Ġreprodu":11483,"size":11484,"ìĺ":11485,"Ġconfigure":11486,"Py":11487,"ĠBecause":11488,"ĠdiffÃ©":11489,"ÐµÐºÐ¾ÑĤÐ¾ÑĢ":11490,"Ġoccurred":11491,"watch":11492,"orient":11493,"andem":11494,"Ð¾Ð´ÐµÑĢÐ¶":11495,".html":11496,"Ġmathematics":11497,"Ġgeral":11498,"YR":11499,"reshold":11500,"Ġpressing":11501,"Ġselecting":11502,"ĠSD":11503,"-al":11504,"Ġsess":11505,"Ġcow":11506,"ÑĤÐ¾Ð¼":11507,"ĠBefore":11508,"ĠÐ²Ð°Ð¶":11509,"Ġdriven":11510,"Ġobs":11511,"Ġbread":11512,"Ġconvin":11513,"Ġrespected":11514,"untu":11515,"Ġcoverage":11516,"Ġforecast":11517,"vari":11518,"ĠEast":11519,"Ġavez":11520,"ĠAutom":11521,"Ġshapes":11522,"ĠPharmaceutical":11523,"ĠÐ¼Ð¸ÑĢ":11524,"ÑĥÐ»Ñı":11525,"lower":11526,"-powered":11527,"ongo":11528,"Ġposible":11529,"Ġenergia":11530,"Ġlawy":11531,"cember":11532,"čĊ":11533,"ĠÑģÐµÐ±Ñı":11534,"Ġrespuesta":11535,"Product":11536,"natural":11537,"Ġabuse":11538,"Ġrapidly":11539,"Ġhref":11540,"Load":11541,"enden":11542,"ĠÐ¿ÑĢÐ¾ÑĨÐµÑģÑģ":11543,"args":11544,"Ġuniform":11545,"_S":11546,"request":11547,"Ġminha":11548,"omo":11549,"Ġdisrupt":11550,"atetime":11551,"hydroxy":11552,"Ġfi":11553,"Ãºde":11554,"ĠUltimately":11555,"Ġine":11556,"-di":11557,"Ġstrictly":11558,".k":11559,"Ġdecrease":11560,"íĦ":11561,"Wor":11562,"role":11563,"Ġentertainment":11564,"Ġpouvez":11565,"End":11566,"Ã©d":11567,"autions":11568,"-inf":11569,"Ġabord":11570,"Ġpowder":11571,")^":11572,"Ġdiscount":11573,"Ext":11574,"QU":11575,"Ġoblig":11576,"ĠEmpire":11577,"ĠInstagram":11578,"Ġuncertainty":11579,"ĠCa":11580,"Ġthigh":11581,"ivitÃł":11582,"_train":11583,"Ġsensations":11584,"ĠVo":11585,"Ġdrawing":11586,"Ġsufficient":11587,"Ġtie":11588,"Ġcutoff":11589,"Ġaccommod":11590,"Ġpolymers":11591,"Ġparse":11592,"enger":11593,"ago":11594,"Ġbackup":11595,"Ġcorrel":11596,"Ġdebt":11597,"who":11598,"Ġ>=":11599,"éĹ®é¢ĺ":11600,"uture":11601,"ÐµÑĨ":11602,"Ġsaved":11603,"Ġinch":11604,"ĠÃłs":11605,"Ġprinting":11606,"Ġmagn":11607,"Ġpreguntas":11608,"ÐŃ":11609,"ĠIntegr":11610,"Ġsocially":11611,"Ġtens":11612,"Ġcaution":11613,"Ġfell":11614,"Ġsolving":11615,"ãĤĪ":11616,"Ġboost":11617,"Ġgradient":11618,"mic":11619,"Ġrender":11620,"Query":11621,"oxide":11622,"Ġpermission":11623,"itan":11624,"edy":11625,"ĠLife":11626,"81":11627,"uni":11628,"Ġentr":11629,"ahren":11630,"ĠÐ²Ð¾Ð¿ÑĢÐ¾ÑģÑĭ":11631,"Ġsle":11632,".delete":11633,"Ġgaming":11634,"izione":11635,"Ġrank":11636,"Ġbringing":11637,"ĠHaw":11638,"Ġregards":11639,"Ġdefeat":11640,"ÐµÐ¼Ñĥ":11641,"ĠEns":11642,"Ġsuffering":11643,"ĠespaÃ±ol":11644,"perty":11645,"ĠÐ¾ÑĩÐµÐ½ÑĮ":11646,"Ġfle":11647,"Ġbio":11648,"86":11649,"ĠFast":11650,"ĠTeam":11651,"Ġvirus":11652,"Ġwaist":11653,"vilupp":11654,"ÐµÐ½Ð´":11655,"ĠWater":11656,"Ġlocked":11657,"indi":11658,"ĠÐ·Ð½":11659,"à¨":11660,"Ġstages":11661,"ÐµÑģÐ¿ÐµÑĩ":11662,"ĠVulpis":11663,"itable":11664,"ĠSil":11665,"ifica":11666,"Ġsoll":11667,"ĠTransformer":11668,"Ġhypothetical":11669,"Ġhearing":11670,"Ġprotagon":11671,".load":11672,"Che":11673,"Ġstuff":11674,"enter":11675,"istem":11676,"emente":11677,"yridazine":11678,"¹Ħ":11679,"Python":11680,"ĠÐ¸Ð¼ÐµÐµÑĤ":11681,"alia":11682,"ĠÐ¿ÐµÑĢÐµÐ´":11683,"Ġdisrespect":11684,"Ġnation":11685,"Ġaband":11686,"ĠÐ¸ÑģÐº":11687,"Ġfootball":11688,"Ġìĭľ":11689,"Ġbowl":11690,"íĬ¸":11691,"Ġandroid":11692,"Ġcomunic":11693,"Assistant":11694,"Ġadventures":11695,"Ġevolving":11696,"Ġlogs":11697,"Phone":11698,"Ġayudar":11699,"Ø§Ø³Øª":11700,"ĠÐ³Ð¾Ð´":11701,"ĠpolÃŃtic":11702,"ĠMode":11703,"Ġapl":11704,"Ġlift":11705,"Ġbeneficial":11706,"Ġconversion":11707,"ju":11708,"Ġshorter":11709,"begin":11710,"Ġjudge":11711,"Ġthrow":11712,"ĠGiven":11713,"rection":11714,"Ġoxy":11715,"ĠFore":11716,"Ġconversational":11717,"Ġqualquer":11718,"Ġdressed":11719,"Ġfilms":11720,"ĠAnalysis":11721,"exual":11722,"Ġaxis":11723,"Total":11724,"íĺ":11725,"onal":11726,"Ġoptimized":11727,"atto":11728,"Ġbalanced":11729,"descriptive":11730,"Ġpessoa":11731,"Ġnan":11732,"Ġdigits":11733,"-color":11734,"OUR":11735,"lio":11736,"ĠDev":11737,"Ġanterior":11738,"Ġalien":11739,"Ġagriculture":11740,"ĠFocus":11741,"Ġìłķ":11742,"Ġobserved":11743,"Ġriver":11744,"address":11745,"othe":11746,"CTION":11747,"rd":11748,"Ġfet":11749,"ĠMia":11750,"inding":11751,"ĠUnivers":11752,"annel":11753,"unting":11754,"efficient":11755,"cies":11756,"uum":11757,"ancia":11758,"Ġtant":11759,"ÑĥÐ»ÑĮÑĤÐ°ÑĤ":11760,"Ġquote":11761,"utsch":11762,"ĠÑĢÐµÐº":11763,"chnology":11764,"orse":11765,"ĠÐ¾Ðº":11766,"Ġexplored":11767,"Ã´n":11768,"Ġvulnerability":11769,"ĠHum":11770,"Ġunderwear":11771,"ĠPortug":11772,"Test":11773,"onth":11774,"Ġbere":11775,"context":11776,"Ġrelie":11777,"ĠAnother":11778,"Â¿":11779,"Ġcodes":11780,"pling":11781,"(A":11782,"arks":11783,"Ġbear":11784,"Ġmountains":11785,"ì¹":11786,"irtual":11787,"Ġtanto":11788,"stell":11789,"çĲ":11790,"ĠCreating":11791,"Ġfond":11792,"appoint":11793,"Ġinterpretation":11794,"cco":11795,":descriptive":11796,"TC":11797,"Ġgreatly":11798,"holder":11799,"icip":11800,"Ġdeton":11801,"Ġcrisis":11802,"ĠQuant":11803,"](":11804,"Ġemphasis":11805,"Ġtheories":11806,"Ġshower":11807,"Ġpotrebbe":11808,"Ġprofessor":11809,"ĠÑģÐ¾Ð´ÐµÑĢÐ¶":11810,"Ġconsiderations":11811,"Ġresposta":11812,"ĠMore":11813,"Ġunders":11814,"Ġteas":11815,"Ġrainfall":11816,"abeled":11817,"Ġconsulting":11818,"ycl":11819,"abled":11820,"Ø£":11821,"Ġsoftly":11822,"æİ":11823,"Ġsans":11824,"ĠMens":11825,"ramient":11826,"Ġ===":11827,"ÐµÐ½Ð°":11828,"Ġgay":11829,"ĠÑįÑĦÑĦ":11830,"Ã¢n":11831,"Ġwhispered":11832,"ÎµÎ¹":11833,"Ġinsect":11834,".DataFrame":11835,"Ã¡rias":11836,"ÑĥÑĢÑģ":11837,"ĠEnergy":11838,"ĠArizona":11839,".text":11840,"ĠhandleKeyPress":11841,"Ġdevelopments":11842,"ĠÐ¸Ð·Ð¼ÐµÐ½":11843,"ĠPersonal":11844,"ĠÃ©ta":11845,"Ġguitar":11846,"Ġfue":11847,"ĠÐ³Ð»":11848,"Ġsched":11849,"ĠComputer":11850,"ÃŃsticas":11851,"Ġchoosing":11852,"Ġstatistical":11853,"Ġwine":11854,"_count":11855,"Ġvulnerabilities":11856,"ĠKorean":11857,"igned":11858,"'int":11859,"]p":11860,"Ġzone":11861,"Ġputting":11862,"ĠTR":11863,"quart":11864,"Ġdivision":11865,"iene":11866,"ĠÑĩÐµÑĢ":11867,"Para":11868,"Ġfunc":11869,"Ġng":11870,"Ġhaven":11871,"Ġsolicit":11872,"utely":11873,"140":11874,"Ãªm":11875,"Ġmatching":11876,"Ġì¤":11877,"ĠMarketing":11878,"ĠmÃ¶ch":11879,"ĠParty":11880,"Ð»ÐµÐ´":11881,"Ġneut":11882,"Ġeinf":11883,"Ġven":11884,"ĠIndustrial":11885,"ÑĢÑĥÐ¿":11886,"ĠArch":11887,"Ġ(\"":11888,"Ġdelivering":11889,"Ġhex":11890,"Ġpulling":11891,"Ġtired":11892,"ĠBig":11893,"ĠCost":11894,"Ġcustomize":11895,"ĠÐ½Ð°Ð´":11896,"Ġsensor":11897,"bol":11898,"Ġrelation":11899,"names":11900,"Ġresort":11901,"quee":11902,"Ġtrein":11903,"ĠÑĤÐ¾Ð¼":11904,"give":11905,"hl":11906,"Ġtargets":11907,"which":11908,"\"]Ċ":11909,"Ġester":11910,"ë³´":11911,"ĠnÃ©":11912,"Ġvita":11913,"Ġinvestments":11914,"Ġpressed":11915,"Ġbrighter":11916,"fits":11917,"Ġguarante":11918,"Ġvisiting":11919,"Ġactively":11920,"Ġtoy":11921,"Ġevolution":11922,"å¸®":11923,"Ø«":11924,"ĠFibonacci":11925,"_input":11926,"Ġaid":11927,"ĠEconom":11928,"åĬ©":11929,"Ġignore":11930,"ĠIntelligence":11931,"ĠÐ·Ð°Ð²Ð¸Ñģ":11932,"Ġtast":11933,"Ġminimal":11934,"Ġmotivated":11935,"ĠÐ¼Ð°ÑĤ":11936,"Ġgall":11937,"ĠWi":11938,"ĠÐ¼ÐµÑģÑĤ":11939,"ĠDom":11940,"Ġgreatest":11941,"AND":11942,"(X":11943,"neg":11944,"Ġinventory":11945,"orig":11946,"iller":11947,".jpg":11948,"Ġmanipulation":11949,"Ġdynamics":11950,"ĠÐ¿ÑĢÐ¾Ð±Ð»ÐµÐ¼":11951,"Ġtoys":11952,"ĠDaten":11953,"Ð°ÑĩÐµÑģÑĤÐ²":11954,"Ġyounger":11955,"Ġskirt":11956,"ĠÐ¤":11957,"71":11958,"ÃŃtulo":11959,"Ġimmune":11960,"Ġdip":11961,"\\u":11962,"Ġplate":11963,"Ġcamb":11964,"Ġempathy":11965,"Comm":11966,"ĠÐ²Ð·":11967,"Ġsurve":11968,"Ġcompute":11969,"anghai":11970,"ounc":11971,"Ġmont":11972,"Ġmisunder":11973,"Ġunter":11974,"Ġparagraphs":11975,"etra":11976,"ĠAv":11977,"Ġbullets":11978,"Ġpace":11979,"Ġcapability":11980,"ĠÐ¿Ð¾Ð»ÑĮÐ·Ð¾Ð²Ð°ÑĤ":11981,"Bl":11982,"Ġresume":11983,"Ġfuturo":11984,"Ġusuario":11985,"Yeah":11986,"è¯·":11987,"Ġcalculates":11988,"iral":11989,"Ġherramient":11990,"prene":11991,"inda":11992,"Ġperpet":11993,"PP":11994,"é«":11995,"irk":11996,"unden":11997,"ĠconteÃºdo":11998,"ĠAsia":11999,"olution":12000,"Ġdesigns":12001,"xxxx":12002,"---ĊĊ":12003,"ElementById":12004,"vious":12005,"Ab":12006,"Ġaer":12007,"ructions":12008,"ĠÃºlt":12009,"ĠExplore":12010,"ĠÐ½Ð¾Ð²Ñĭ":12011,"Ġrelief":12012,"was":12013,"ĠnÃºmeros":12014,"Ġshaking":12015,"Ġconfir":12016,"Ġelectro":12017,"Ġdentro":12018,"Ġinhib":12019,"Ġperiods":12020,"Ġincluy":12021,"Ã¼t":12022,"Ġprojeto":12023,"otive":12024,"rir":12025,"apital":12026,"ÃŁen":12027,"Ġfruits":12028,"Ġreaders":12029,"ĠhistÃ³ria":12030,"ĠFox":12031,"ÑĢÐ°Ñī":12032,"ĠpÃ¡gina":12033,"ersion":12034,"Map":12035,"Ġcere":12036,"blem":12037,"Ġsne":12038,"Ġqualified":12039,"Ġpadding":12040,"Ġtested":12041,"Ġmate":12042,"Ġinfe":12043,"iens":12044,"Ġfake":12045,"Ġbact":12046,"-scale":12047,".randint":12048,"Ġprest":12049,"Ġangry":12050,"AY":12051,"Ġappropri":12052,"nection":12053,"ĠCourt":12054,"Ġintric":12055,"á»ĳ":12056,"å¤ļ":12057,"Ġscream":12058,"Ġexplores":12059,"ĠTre":12060,"ĠÑĤÐ°":12061,"cs":12062,"Ġconna":12063,".write":12064,"Ġbrings":12065,"ĠOF":12066,"Ġimportantes":12067,"hh":12068,"Ãī":12069,"Ġesto":12070,"ÑĢÑĥÐ¶":12071,"AAAAAAAA":12072,"eding":12073,"ĠNO":12074,"à¤Ĥ":12075,"inning":12076,"íĻĶ":12077,"ÑıÐµÑĤ":12078,"atted":12079,"Ġ\"Ċ":12080,"ĠCH":12081,"Ġmodelos":12082,"åŃĲ":12083,"-tuning":12084,"erte":12085,"Ġmeu":12086,"andom":12087,"Ġprecise":12088,"${":12089,"ALU":12090,"Ġsocket":12091,"Ġperman":12092,"ĠìĤ¬ìļ©":12093,"ĠProduction":12094,"Ġcoating":12095,"Ġallerg":12096,"ĠÐ½Ð°Ð¹":12097,"-driven":12098,"orry":12099,"Ġsuo":12100,"Ġtrapped":12101,"Result":12102,"Ġdied":12103,"Ġpossibilities":12104,"Ġhund":12105,"ĠEX":12106,"Ġshares":12107,"stra":12108,"ĠMex":12109,"Ġenthus":12110,"Ġrespiratory":12111,"Ġhydrochloride":12112,"Ġspecifications":12113,"Ġviolent":12114,".random":12115,"Ġprepa":12116,"Ġ/>Ċ":12117,"Ġhack":12118,"Ġpushing":12119,"190":12120,"ĠSchool":12121,"ÑĢÐ¾Ð±":12122,"Ġcad":12123,"ÐµÑĢÐ°ÑĤ":12124,"Ġmethyl":12125,"Ġattracted":12126,"area":12127,"ĠAsk":12128,"PR":12129,"Ġbuying":12130,"Ġrust":12131,"','":12132,"ĠPos":12133,"apes":12134,"-solving":12135,"ĠØ³":12136,"ĠInitialize":12137,"ĠKingdom":12138,"Ð¾ÑĤÐ²ÐµÑĤ":12139,"âĢĻre":12140,"such":12141,"ĠDigital":12142,"Ġmercado":12143,"entials":12144,"ĠLong":12145,"ĠRenewable":12146,"Ġvisualization":12147,"inent":12148,"Ġfans":12149,"Ġlunch":12150,"Ġgut":12151,"Ġstyl":12152,"Ġlithium":12153,"Ġsensors":12154,"oster":12155,"ÑĨÐ¸Ð¸":12156,"Ġpreu":12157,"embly":12158,"Ġmillions":12159,"Ġenglish":12160,"obile":12161,"LY":12162,"Ġbrowse":12163,"ameters":12164,"105":12165,"Ġpsychological":12166,"´Ģ":12167,"Ġtenho":12168,"ĠCR":12169,"Ġenters":12170,"Ġsuicide":12171,"Ġsia":12172,"Ð¾ÑĢÐ¾ÑĪ":12173,"-dimensional":12174,"Ġrush":12175,"Ġvolunte":12176,"VER":12177,"Ġ]":12178,"Ġbiological":12179,"mates":12180,"Ġembarrassment":12181,"å¹´":12182,"bt":12183,"Att":12184,"ĠÑįÑĤÐ¾Ð¼":12185,"ĠVal":12186,"ativas":12187,"é£":12188,"Ġ(-":12189,".getElementById":12190,"draw":12191,"Ġacet":12192,"Ġbreaks":12193,"ĠmÃºs":12194,"Ġvocabulary":12195,"Ġtecnologia":12196,"bir":12197,"onym":12198,"Ġformato":12199,"Ġaggressive":12200,"âĢĭ":12201,"ĠÑģÐ²Ð¾Ð¸":12202,"esome":12203,"Ð»Ð¾Ð¶":12204,"Ġimmig":12205,"Ġmater":12206,"Ġcaress":12207,"Ġbytes":12208,"Ð£":12209,"Ġfucking":12210,"Ġdeux":12211,"Ġadicion":12212,"pense":12213,"wd":12214,"erved":12215,"Ġnov":12216,"ĠaquÃŃ":12217,"requ":12218,"Ġdating":12219,"Ġcuisine":12220,"orthern":12221,"ĠDescription":12222,"Ġintrigue":12223,"_dict":12224,"izaciÃ³n":12225,"ĠSave":12226,"ĠLead":12227,"Ġdetermining":12228,"Ġgust":12229,"Ġended":12230,"Ġsignificance":12231,"æĦ":12232,"Ġnumero":12233,"found":12234,"204":12235,"ounce":12236,"ildren":12237,"Ġincon":12238,"empor":12239,"Ġaccord":12240,"rolog":12241,"ego":12242,"Explain":12243,"Ġplanets":12244,"ĠÑĤÐ°ÐºÐ¸Ðµ":12245,"uling":12246,"Ġquotes":12247,"ĠÑģÐ¿Ð¾ÑģÐ¾Ð±":12248,"Ġresultado":12249,"ĠThanks":12250,"omethyl":12251,"ĠÑĥÐ¿ÑĢÐ°Ð²":12252,"Ġdecimal":12253,"_code":12254,"Ġsolub":12255,"Ġhazardous":12256,"Ġmenc":12257,"Ġoral":12258,"oked":12259,"ĠÐ´ÑĢÑĥÐ³Ð¸Ðµ":12260,"eld":12261,"icked":12262,"ä¸ª":12263,"-mail":12264,"Ġterr":12265,"Ġprend":12266,"Ġimpressive":12267,"Ġprecautions":12268,"73":12269,"AH":12270,"Ġcorrespond":12271,"Ġphilosoph":12272,"Ã¡p":12273,"Ġinjured":12274,"Ġbuffer":12275,"Ġprotecting":12276,"Ġcompart":12277,"Ã¼ss":12278,"[j":12279,"Ġrede":12280,"Ġcalculations":12281,"Ġelabor":12282,"FO":12283,"ĠPR":12284,"Ġ});Ċ":12285,"Ġgrass":12286,"build":12287,"uti":12288,"olar":12289,"ĠTemperature":12290,"Ġmild":12291,"Ġvelocity":12292,"Ġstatistics":12293,"Ġethnic":12294,"Ġmassage":12295,"eds":12296,"Ġuntuk":12297,"-amino":12298,"ĠCare":12299,"Ð´ÐµÑĢÐ¶":12300,"Ġelectronics":12301,"ataset":12302,"riage":12303,"Ġcuriosity":12304,"Hand":12305,"Ġassumes":12306,"uttavia":12307,"ĠSingapore":12308,"Ġdalla":12309,"orted":12310,"inth":12311,"aggi":12312,"Ð³Ð¾ÑĢ":12313,"anÃ§ais":12314,"uent":12315,"Ġtradition":12316,"íķ©ëĭĪëĭ¤":12317,"Ġcontexts":12318,"(N":12319,"ĠMO":12320,"Ġcomputational":12321,"Ġ($":12322,"Ref":12323,"ĠOnline":12324,"Ġserie":12325,"Ġpunishment":12326,"izers":12327,"ME":12328,"eurs":12329,"mal":12330,"191":12331,"ĠServer":12332,"ao":12333,"Ġperf":12334,"UMB":12335,"Ġcipher":12336,"ĠAgre":12337,"Ð²ÐµÑģÑĤ":12338,"_de":12339,"ĠFollow":12340,"Ġtransformed":12341,"osph":12342,"ruit":12343,"itro":12344,"Ġtemas":12345,"jam":12346,"Ġposts":12347,"ĠNatural":12348,"Ġwarning":12349,"å¦Ĥ":12350,"Ġfalling":12351,"Ġgratitude":12352,"Ġserial":12353,"Ġì§Ģ":12354,"Ġderivative":12355,"orship":12356,"įà¦":12357,"Ġ()":12358,"Ġanymore":12359,"ĠFlor":12360,"Ġmirror":12361,"Ġdollars":12362,"VE":12363,"Ġtact":12364,"DR":12365,"icional":12366,"Ġsealed":12367,"Ġclasse":12368,"ĠÐ¾Ð±ÐµÑģÐ¿ÐµÑĩ":12369,"-gener":12370,"Ġclientes":12371,"ĠJour":12372,"Ġexceptional":12373,"make":12374,"iace":12375,"ãģł":12376,"Ġbenz":12377,"dings":12378,"Ġverschied":12379,"(new":12380,"Ġsimilarity":12381,"Ġsvilupp":12382,"Ġnarrow":12383,"Ġfif":12384,"à§įà¦":12385,"ìĦ¸":12386,"market":12387,"arts":12388,"cir":12389,"Co":12390,"Ġreads":12391,"Ġsolely":12392,"ĠPass":12393,"å¥³":12394,"ìĭł":12395,"itting":12396,"netes":12397,"Ġreveal":12398,"Search":12399,"Ġtreating":12400,"Ġartists":12401,"Ġredes":12402,"Ġogni":12403,"Ġincom":12404,"61":12405,"ĠÑģÑĩ":12406,"ĠCollect":12407,"figure":12408,"Ġfrase":12409,"Ġplt":12410,"Ġapartment":12411,"loop":12412,"Ð¾Ð½Ð¾Ð¼":12413,"install":12414,"asa":12415,"sett":12416,"ĠentraÃ®":12417,"GS":12418,"iture":12419,"apse":12420,"thropic":12421,"ĠÐ·Ð´":12422,"Ġhistoria":12423,"Ġze":12424,"Ġresultados":12425,"ĠNÃ£o":12426,"ubernetes":12427,"Human":12428,"Ġcoc":12429,"ĠProm":12430,"Ġtradu":12431,"Ġmoi":12432,"Ġclay":12433,"Ġmanufacture":12434,"ĠAfrican":12435,"cope":12436,"LU":12437,"ĠLearn":12438,"Ġshock":12439,"ogatory":12440,"location":12441,"ìĿ¼":12442,"bies":12443,"æĬ":12444,"Ġspring":12445,"Ġcres":12446,"hered":12447,"à¸¢":12448,"Ġsic":12449,"alf":12450,"Ġincluir":12451,"Ġacord":12452,"ĠUSD":12453,"ĠnewHead":12454,"aused":12455,"Ġcoin":12456,"Ġtransmission":12457,"ĠInclude":12458,"Ġefect":12459,"Ġ||":12460,"Ġfinanci":12461,"Ġbiggest":12462,"iras":12463,"ĠÐºÐ°ÑĩÐµÑģÑĤÐ²":12464,"Ġcalculation":12465,"math":12466,"ĠItaly":12467,"yrimidin":12468,"ÑģÐºÐ¾Ð¹":12469,"Ġgone":12470,"Ġwhisper":12471,"uction":12472,"Ġëį":12473,"Ġtriangle":12474,"Ġreceiving":12475,"Ġlangage":12476,"Este":12477,"Ġproport":12478,"ĠUSB":12479,"Ġpermet":12480,"ĠÑĤÐ°ÐºÐ¸Ñħ":12481,"åĲį":12482,"ĠHawai":12483,"Ġunse":12484,"Ġsentir":12485,"ĠReport":12486,"Ġresumen":12487,"Ġshame":12488,"ÑĭÐ¼":12489,"Ġproven":12490,"Ġpeak":12491,"lectual":12492,"-G":12493,"Ġenables":12494,"Ð¾Ð½Ð°Ð»ÑĮ":12495,"greg":12496,"ĠespecÃŃficas":12497,"ĠIhre":12498,"Ġcache":12499,"Ġautomate":12500,"-commerce":12501,"ĠÑģÐ»ÑĥÑĩ":12502,"ĠÐ½ÐµÑģÐºÐ¾Ð»ÑĮÐºÐ¾":12503,"Ġtow":12504,"Ġoverwhelming":12505,"_se":12506,".ĊĊĊĊ":12507,"erie":12508,"ĠTrain":12509,"ĠDeep":12510,"Ġestado":12511,"Ġboot":12512,"Ġlon":12513,"heng":12514,"ĠespecÃŃfico":12515,"Ġoxygen":12516,"Update":12517,"Ġpestic":12518,"Ġpir":12519,"ĠSpace":12520,"Ġaccomplish":12521,"window":12522,"ÑĥÐº":12523,"Ġìļ":12524,"Ġpacotes":12525,"Ġinstances":12526,"Ġediting":12527,"Ġcsv":12528,"Ġreform":12529,"Ġrephrase":12530,"aba":12531,"Ġsyst":12532,"ĠPen":12533,"å½¼":12534,"./":12535,"eling":12536,"Ġourselves":12537,"Ġcenturies":12538,"Ġartifact":12539,"pecific":12540,"Ġevaluating":12541,"front":12542,"Ġdomestic":12543,"Ġinfection":12544,"åĩ":12545,"Ġmud":12546,"{{":12547,"ĠØ±":12548,"íĦ°":12549,"Ġkh":12550,"ĠÑıÐ·ÑĭÐºÐµ":12551,"Ġsurvival":12552,"-est":12553,"Ġescal":12554,"eder":12555,"_e":12556,"-off":12557,"ÑĭÐ²Ð°ÑĤÑĮ":12558,"Ġajust":12559,"Ġzw":12560,"Ġinfo":12561,"],ĊĊ":12562,"Ġalgorit":12563,"ĠspÃ©c":12564,"Ġsocied":12565,"Ġdisk":12566,"Ġnarration":12567,"doms":12568,"/t":12569,"ÑĢÐ°ÑĦ":12570,"ĠEN":12571,"aldehyde":12572,"Ġgenerative":12573,"ĠCall":12574,"ÐµÐºÑģ":12575,"...ĊĊ":12576,"lammatory":12577,"Ac":12578,"ÑıÐ¼":12579,"Ġsymbols":12580,"Ð¾ÑĢÐ°":12581,"ĠRout":12582,"Ġprepares":12583,"Ł¥":12584,"ĠØ§ÙĦØ¹":12585,"ĠWHERE":12586,"ĠJob":12587,"uÃªs":12588,"Ġsemantic":12589,"(key":12590,"74":12591,"rely":12592,"nte":12593,"ĠLas":12594,"Ġclause":12595,"Ġaudiences":12596,"ĨĴ":12597,"Ġsrc":12598,"Collision":12599,"ĠØ´":12600,"edge":12601,"Ġgan":12602,"IGHT":12603,"Ġpil":12604,"ĠDas":12605,"Ġsubjects":12606,"Ġalter":12607,"Ġwider":12608,"vable":12609,"pute":12610,"à¸Ħ":12611,"rooms":12612,"ĠTok":12613,"Ġscr":12614,"Ġdiscrimin":12615,"ĠEvent":12616,"Ġfootprint":12617,"Ġpic":12618,"Ġtrabalho":12619,"Ġstereotypes":12620,"Ġequivalent":12621,"Dear":12622,"Ġwhenever":12623,"ðŁĳ":12624,"Ġtarefas":12625,"Ġtf":12626,"Ġë°©":12627,"Ġdiscovery":12628,"ĠChair":12629,"Ġë³´":12630,"urthermore":12631,"enen":12632,"Ġpracticing":12633,"%.":12634,"ivate":12635,"ĠMonday":12636,"ĠÐ¿Ð¾Ð½Ð¸Ð¼":12637,"Ġnost":12638,"ĠPrompt":12639,"Ġpreprocess":12640,"**:":12641,"ispiel":12642,"Ġauthors":12643,"Ġconflicting":12644,"ë¯":12645,"ĠÑĢÐ°Ð·ÑĢÐ°Ð±Ð¾ÑĤ":12646,"itrile":12647,"Ġagencies":12648,"ĠsÃ³":12649,"Ġgrade":12650,"Ġteasing":12651,"ä½¿":12652,"orie":12653,"Ġclassify":12654,"à¸ª":12655,"ĠUnity":12656,"ÑĥÑİÑĤ":12657,"Ġusado":12658,"Ġgear":12659,"Ġatoms":12660,"Ġfinger":12661,"aaaaaaaa":12662,"ulative":12663,"ĠÐ²Ð¾":12664,"Ġbigger":12665,"ĠIsra":12666,"Ġcorrected":12667,"Ġplataforma":12668,"ĠAbs":12669,"Ġentren":12670,"Ġabsolute":12671,"é«ĺ":12672,"rink":12673,"ushes":12674,"Ġpollution":12675,"\"></":12676,"Die":12677,"ĠÐŀÐ´Ð½Ð°ÐºÐ¾":12678,"Ġbuttons":12679,"ocratic":12680,"Ġinnocent":12681,"iophene":12682,"Ġdol":12683,"ocated":12684,"ĠEss":12685,"ĠBERT":12686,"Ġteeth":12687,"uing":12688,"Ġtort":12689,"sharp":12690,"ETH":12691,"ĠTerm":12692,"Ð½ÐµÑĢ":12693,"iao":12694,"ctober":12695,"Ġanatom":12696,"Ġperguntas":12697,"ê¸":12698,"ĠFound":12699,"appe":12700,"itÃ¤t":12701,"Ġmystery":12702,"ĠApplications":12703,"ĠsaÃºde":12704,"iale":12705,"ĠDecember":12706,"Ġreputable":12707,"Ġinclus":12708,"ĠserÃ¡":12709,"Each":12710,"Ġdisad":12711,"Ġhorror":12712,"Ġliber":12713,"ĠDoes":12714,"Ġadjusted":12715,"ĠÑĢÐµÐ·ÑĥÐ»ÑĮÑĤÐ°ÑĤ":12716,"emale":12717,"plet":12718,"Ġedit":12719,"Ġinterpre":12720,"Ð»Ð¸ÑĨ":12721,"zens":12722,"itivity":12723,"<div":12724,"Ag":12725,"ouver":12726,"Ġinstruct":12727,"ĠÑĢÐ°Ð±Ð¾ÑĤÑĭ":12728,"ĠGitHub":12729,"ĠInoltre":12730,"Ġtrial":12731,"ĠaplicaciÃ³n":12732,"ĠViet":12733,"Ð¸Ð½Ð³":12734,"ĠÙĨ":12735,"Ġmolto":12736,"culo":12737,"ĠÑįÑĤÐ¾Ð³Ð¾":12738,"å°ı":12739,"Ġpanties":12740,"Ø°":12741,"Ġfunctioning":12742,"iat":12743,"Ġhorny":12744,"ĠÐ¸Ñģ":12745,"Ġcompanions":12746,"Ġlosing":12747,"ãĥª":12748,"Ġerro":12749,"ierung":12750,"Ð¸Ð»Ð¾Ð¶":12751,"Ġattraction":12752,"Î´":12753,"Ġprinciple":12754,"Ġscared":12755,"Ġhazards":12756,"_label":12757,"-ÑĤÐ¾":12758,"wan":12759,"Ġalb":12760,"à®":12761,"lean":12762,"Ġlying":12763,"diction":12764,"ĠGreek":12765,"Ġjur":12766,"Ġdiese":12767,"ĠSa":12768,"Ġnoch":12769,"ĠChem":12770,"ĠvÃŃde":12771,"Ġstead":12772,"ĠBen":12773,"Const":12774,"Ġtomar":12775,"Ġspl":12776,"ĳ×":12777,"ĠMer":12778,"Ġpolite":12779,"Ġdash":12780,"Ġapro":12781,"'an":12782,"atography":12783,"Ġgam":12784,"ÑģÐºÐ¸Ð¹":12785,"ivot":12786,"456":12787,"Ġobtener":12788,"iper":12789,">,":12790,"ĠTamb":12791,"ĠToday":12792,"ĠDid":12793,"Ġinflation":12794,"Ġdegli":12795,"help":12796,"Ðĵ":12797,"imientos":12798,"Ġ×ľ":12799,"buntu":12800,"sche":12801,"96":12802,"Ġguer":12803,"Å¼y":12804,"Ltd":12805,"ĠÐ´ÐµÐ¹ÑģÑĤÐ²":12806,"Ġrappresent":12807,"ĠÐ·Ð°Ð¿ÑĢÐ¾Ñģ":12808,"220":12809,"Ġvos":12810,"Ġlegend":12811,"ĠìľĦ":12812,"(arr":12813,"Very":12814,"ĉL":12815,"Ġsiento":12816,"Ġinfections":12817,"END":12818,"Exception":12819,"Ġdirector":12820,"Ġpuoi":12821,"perties":12822,"console":12823,"zip":12824,"Ġtroubles":12825,"Ġwarnings":12826,"Ġbacteria":12827,"-Ċ":12828,"Ġbat":12829,"Ġagricultural":12830,"TF":12831,"iu":12832,"Ġrhyth":12833,"Ġthroat":12834,"Ġdimension":12835,"roc":12836,"ĠTable":12837,"Ġmoments":12838,"verted":12839,"-play":12840,"eros":12841,"Ġexpressing":12842,"ĠbÃ¡s":12843,"Ġdesaf":12844,"ĠNine":12845,"Ġdiabetes":12846,"Ġkeyboard":12847,"ĠÐ¿ÑĢÐ¾Ð¸Ð·Ð²Ð¾Ð´":12848,"Ġsoph":12849,"Ð°ÑģÑĮ":12850,"ĠGesch":12851,"ĠPued":12852,"Ġmodello":12853,"iero":12854,"ĠÐĶÐ»Ñı":12855,"FROM":12856,"ĠMySQL":12857,"Ð¾Ð¿Ð°Ñģ":12858,"Ġconcentration":12859,"ughed":12860,"Ġsaber":12861,"Ġgrammat":12862,"Ġcarrying":12863,"ĠmÃ©todo":12864,"Ġelection":12865,"Ġexcel":12866,"Ġsexuality":12867,"Ġalcan":12868,"iÃ§Ãµes":12869,"employ":12870,"elta":12871,"Ġverse":12872,"Ġhabits":12873,"MO":12874,"Ġpandem":12875,"ĠgrÃ¡f":12876,"ĠAdv":12877,"Ġstaying":12878,"Ġchemistry":12879,"Ġrecovery":12880,"Ġyoga":12881,"ÐµÐ½Ð¸ÐµÐ¼":12882,"Cons":12883,"Ã´ng":12884,"Ġbesch":12885,"ĠChange":12886,".resetGame":12887,"ivered":12888,"Ġimagem":12889,"ÐµÐ½ÑĤÐ¾Ð²":12890,"empre":12891,"Ġderogatory":12892,"Ġdick":12893,"ĠÐ´ÑĢÑĥÐ³Ð¸Ñħ":12894,"Ġdisrespectful":12895,"quanto":12896,"Ġconect":12897,"ĠDies":12898,"lesh":12899,"ëį":12900,"ë¬¸":12901,"Ġhousing":12902,"Ġpropriet":12903,"Ġinsight":12904,"Ġhypothesis":12905,"Ġpm":12906,"Ġjogo":12907,".is":12908,"ĠPandas":12909,"ĠAdemÃ¡s":12910,"Ġpayments":12911,"Ġharness":12912,"Ġdigest":12913,"Ġutilisant":12914,"ĠSEO":12915,"Ġtherapist":12916,"pol":12917,"ĠMont":12918,"Ġunless":12919,"Ġactress":12920,"ĠĠĠĠĠĠĠĠĠĠĠĠĠĠ":12921,"ĠresponsÃ¡vel":12922,"Build":12923,"Ġpursu":12924,"Ġware":12925,"Ġreject":12926,"Ġidentificar":12927,"Ġpenal":12928,"Ġimmoral":12929,"Ġmischiev":12930,"Observation":12931,"Ġpalab":12932,"ĠColl":12933,"Ġdiffusion":12934,"Ġgiant":12935,"Ġunsure":12936,"à¸¥":12937,"Ġpause":12938,"ĠHistory":12939,"OK":12940,"ĠÙĥ":12941,"apped":12942,"Ġinvestigate":12943,"åĿ":12944,"Ġoutdoor":12945,"Ġlock":12946,"Ġerect":12947,"ÐµÐ½ÑĤÐ°":12948,"/h":12949,"Ġtense":12950,"Ġsubsequ":12951,"Ġedges":12952,"ÑģÑĤÑĢÐ¾Ð¹":12953,"via":12954,"Ġbench":12955,"sen":12956,"Ġorange":12957,"ãĥ©":12958,"Ġwurde":12959,"Ġsuiv":12960,"ĠMars":12961,"Ġfragr":12962,"-effective":12963,"Ġfilt":12964,"ribute":12965,"ĠOffice":12966,"nde":12967,"Ġmand":12968,"Ġlaughed":12969,"ĠØŃ":12970,"Ġresil":12971,"ĠrelaÃ§Ã£o":12972,"Was":12973,"Ġwalks":12974,"æĮ":12975,"Ġcomputation":12976,"-inflammatory":12977,"Just":12978,"ĠSl":12979,"Ġ(`":12980,"Ġexplodes":12981,"rutura":12982,"LS":12983,"Ġpermissions":12984,"Ġinspired":12985,"Ġduplic":12986,"Ġfunding":12987,"CÃ³mo":12988,"ĠâĢĭ":12989,"Thanks":12990,"Ġquantity":12991,"Ð¸ÑĢÐ¾Ð²Ð°Ð½Ð¸Ñı":12992,"ĠGB":12993,"Max":12994,"Ne":12995,"ìŀħëĭĪëĭ¤":12996,"lements":12997,"ĠGraph":12998,"eps":12999,"anas":13000,"ĠAction":13001,"Ġdarkness":13002,"google":13003,"ĠÃľ":13004,"Ð°Ð»Ð°Ð»":13005,"Ġintegrate":13006,"Ġgun":13007,"Ġentirely":13008,".id":13009,"Ġtwice":13010,"Ġdepression":13011,"ĠfranÃ§ais":13012,"Ġseat":13013,"yy":13014,"Ġ`/":13015,"ocra":13016,"ĠÐ¾Ð±Ð»Ð°ÑģÑĤ":13017,"Ġtreatments":13018,"ĠINT":13019,"ä¼ļ":13020,"ĠAsian":13021,"elihood":13022,"ĠIndones":13023,"Ġgerenci":13024,"Ġdestruction":13025,"ĠíĻ":13026,"Ġbonds":13027,"è´":13028,"aturday":13029,"ĠÐ¸Ð½ÑĤ":13030,"Ġfulfilling":13031,"Tra":13032,"control":13033,"Ġmigli":13034,"Ġsicher":13035,"ÑıÐ´":13036,"Ġbias":13037,"UNT":13038,"Eng":13039,"ĠDNA":13040,"ĠLink":13041,"csharp":13042,"Sim":13043,".'":13044,"ĠÑģÐ¾Ð¾ÑĤÐ²ÐµÑĤ":13045,"ĠCrown":13046,"ĠEnvironment":13047,"Ġcontinuing":13048,"ARCHAR":13049,"ĠTai":13050,"Ġtreasure":13051,".png":13052,"Ġqualidade":13053,"Ð°ÑĤÐ¸":13054,"edding":13055,"Stream":13056,"Ġandere":13057,"125":13058,"ìĥģ":13059,"æ±":13060,"amo":13061,"ĠWhis":13062,"noon":13063,"ktion":13064,"Ġhistoric":13065,"ĠCorporation":13066,"ĠÐºÐ¾Ð³Ð´Ð°":13067,"'il":13068,"Then":13069,"ÑĥÑģÑĤ":13070,"apat":13071,"Ðĳ":13072,"Ġdodge":13073,"ĠdÃ©s":13074,"izable":13075,"Ġunw":13076,"ĠHead":13077,"(my":13078,"-W":13079,"Ġcub":13080,"Ġdesigning":13081,"Ġmatplotlib":13082,"Ġskept":13083,"Ġfederal":13084,"ĠÃ©l":13085,"_of":13086,"ĠÑģÐ¾Ð²":13087,"ncy":13088,"Espero":13089,"Ġgolden":13090,"Ø¶":13091,"ĠÐ¾ÑĢÐ³Ð°Ð½":13092,"hop":13093,"çŃĶ":13094,"`Ċ":13095,"EG":13096,"Ġasleep":13097,"-size":13098,"ĠWenn":13099,"à¸Ķ":13100,"Ġdisappoint":13101,"ĠAnthropic":13102,"ĠEmploy":13103,"ÑĢÑĥÐ´":13104,"Ð¸ÑģÐ°ÑĤÑĮ":13105,"ĠÐºÐ¾Ð»Ð¸ÑĩÐµ":13106,"ĠCustom":13107,"ĠPoint":13108,"appy":13109,"á»ģ":13110,"Ġsends":13111,"kg":13112,"upt":13113,"claim":13114,"sum":13115,"Ġkicks":13116,"Ġdesigner":13117,"Ġattractions":13118,"ç«":13119,"ĠaÃ±os":13120,"oses":13121,"Ġextraction":13122,"there":13123,"udent":13124,"ffe":13125,"160":13126,"hrase":13127,"??":13128,"Ġsquee":13129,"ĠRace":13130,"ÑģÐºÐ°Ð·":13131,"ĠmÃ³":13132,"Ġtextiles":13133,"Ġcort":13134,"Ġmehr":13135,"Ġprogramm":13136,"Ġdesper":13137,"ikan":13138,"ablished":13139,"Ġencoding":13140,"ividades":13141,"-free":13142,"Ġdrinks":13143,"porte":13144,"Ġhoping":13145,"eda":13146,"ĠCore":13147,"gging":13148,"Ġinterfaces":13149,"ĠLeague":13150,"Ġmemb":13151,"Jack":13152,"aml":13153,"ĠTask":13154,"angzhou":13155,"spa":13156,"block":13157,"Ġteaspoon":13158,"itage":13159,"ĠTotal":13160,"Ġpipeline":13161,"agues":13162,"Ġja":13163,"ĠÐŀÐ±":13164,"Ġanderen":13165,"á»§":13166,"ĠMissing":13167,"kit":13168,"ĠÐ³Ð´Ðµ":13169,"ĠGlobal":13170,"Î¹Î±":13171,"Ġundergo":13172,"])ĊĊ":13173,"Ġlies":13174,"charge":13175,"Ġreserv":13176,"_B":13177,"Ġcaut":13178,"ĠHar":13179,"Ġspoken":13180,"ÙĪÙĨ":13181,"Ġconn":13182,"Ġintegrity":13183,"Ġimmer":13184,"Ġurban":13185,"Ġpyt":13186,".out":13187,"Ġmeditation":13188,"Ġarrange":13189,"çİ":13190,"agent":13191,"ãĤĤ":13192,"Ġverificar":13193,"untar":13194,"Ġchocolate":13195,"Ġpepper":13196,"itative":13197,"service":13198,"leading":13199,"Ġprediction":13200,"Ġheadquart":13201,"lat":13202,"initial":13203,"Det":13204,"Ġsweat":13205,"Token":13206,"Ġhip":13207,"Ġkingdoms":13208,"abling":13209,"Ġaircraft":13210,"Ġcin":13211,"Ġalm":13212,"ãĤ¯":13213,"Ġengines":13214,"_window":13215,"ĠÐ¿ÑĢÐ¾ÐµÐºÑĤ":13216,"acer":13217,"Ġendpoint":13218,"Ð¾Ð¶Ð°Ð»":13219,"130":13220,".change":13221,"Ġrecomend":13222,"rant":13223,"cv":13224,"oche":13225,"Ġbuscar":13226,"Ġcapacidade":13227,"Ġtoilet":13228,"Ġwidesp":13229,"urpose":13230,"Ġwidespread":13231,"-I":13232,"Ġticket":13233,"cluding":13234,"Ð¾ÑıÐ½":13235,"********":13236,"Ġsenior":13237,"rific":13238,"Ġwake":13239,"portun":13240,"ĠÑĤÐµÐ±Ñı":13241,"_index":13242,"asc":13243,"Ġ`-":13244,"Ð¸ÑģÑĮ":13245,"amera":13246,"Web":13247,"kin":13248,"æĻ":13249,"Ġoxid":13250,"Ġidi":13251,"ìķĦ":13252,"ĠdiffÃ©rent":13253,"iol":13254,"Ġloving":13255,"ÐµÑĤÐ°":13256,"Ġleans":13257,"ĠÐļÐ¾Ð½":13258,"ĠÑĤÐµÐ»":13259,"Ġseguridad":13260,"ĠÑĢÐ°Ð·Ð»Ð¸ÑĩÐ½ÑĭÑħ":13261,"Ġ```":13262,"heart":13263,"Ġcontrolling":13264,"Ġinteligencia":13265,"Click":13266,"Ġbil":13267,"ĠEngland":13268,"Î¹Îº":13269,"Ø§Ø¨":13270,"mica":13271,"Ġstone":13272,"ognition":13273,"ìķ¼":13274,"ride":13275,"ĠEU":13276,"Ġsql":13277,"ĠÐ·Ð½Ð°":13278,"Ġhint":13279,"Ġwouldn":13280,"Rep":13281,"rup":13282,"avors":13283,"azz":13284,"Ġtaxes":13285,"ĠFrancisco":13286,"Ã¤hr":13287,"333":13288,"Ġstructured":13289,"ìĪĺ":13290,"Ġdisorder":13291,"ishes":13292,"Ġbought":13293,"interval":13294,"Ġfrequently":13295,"ĠÑĤÑĢÐµÐ±":13296,"hav":13297,"ĠMil":13298,"Ġhandsome":13299,"Ġacess":13300,"Ġalgunos":13301,"ĠÑĤÐµÑħÐ½Ð¾Ð»Ð¾Ð³":13302,"ĠDifficulty":13303,"ĠÑģÐµÑĤ":13304,"lla":13305,"Ĥ¹":13306,"anta":13307,"Ġeles":13308,"Ġajuda":13309,"tainer":13310,"Age":13311,"ifest":13312,"last":13313,"apple":13314,"-res":13315,"Ġraz":13316,"ĠDepartment":13317,"Ġpacked":13318,"Ġconsumed":13319,"long":13320,"íĥ":13321,"OC":13322,"ĠSeg":13323,"_pro":13324,"imum":13325,"Ġtough":13326,"Ġintu":13327,"Ġpasta":13328,"ĠEven":13329,"hot":13330,"Ġdozens":13331,"Ġsemen":13332,"iÃ£o":13333,"unci":13334,"Ð¸Ð½Ñĭ":13335,"Ġmyth":13336,"Ġcapaz":13337,"pow":13338,"ressed":13339,"Ġopponent":13340,"ĠNeg":13341,"ishing":13342,"girl":13343,"Ġtesto":13344,"ÑĭÐ²Ð°ÐµÑĤ":13345,"imos":13346,"ĠAuf":13347,"Describe":13348,"ois":13349,"Ġecon":13350,"ĠportuguÃªs":13351,"Ġtraits":13352,"ĠImp":13353,"ĠDiscuss":13354,"hu":13355,"Ġhoney":13356,"erto":13357,"ĠÐ´Ð¾Ð±Ð°Ð²":13358,"éĻ":13359,"ĠLand":13360,"ĠKnow":13361,"Ġworker":13362,"ĠÐ»ÑĥÑĩÑĪ":13363,"Ġinvestigation":13364,"Ġgast":13365,"ĠSpring":13366,"Ġwisdom":13367,"entry":13368,"Ġslut":13369,"ĠÐ±ÑĭÐ»Ð°":13370,"áº¥":13371,"ĠSupp":13372,"ĠDrive":13373,"Ġconsumers":13374,"achers":13375,"Ġpunches":13376,"Ġunus":13377,"ĠSecond":13378,"Ġpaying":13379,"Ġlavoro":13380,"oT":13381,"Ġdelight":13382,".score":13383,"ĠSÃŃ":13384,"Ġhesitant":13385,"Ġtelevision":13386,"Ġimmers":13387,"Ġconjunto":13388,"ÙĬØ¯":13389,"Ð¾Ð²Ð°Ð½Ð¸Ðµ":13390,"Ġcryptocurrency":13391,"ÐµÐ½Ð½ÑĭÑħ":13392,"ãĤ¢":13393,"_csv":13394,"ĠMost":13395,"ughty":13396,"ĠComment":13397,"_length":13398,"uzione":13399,"ãĤģ":13400,"Ġbatt":13401,"ĠExp":13402,"Ġdonde":13403,"Ġfiss":13404,"ĠHier":13405,"ÑĢÑĥÐ·":13406,"Ġrepresentative":13407,"gres":13408,"ĠVe":13409,"uelle":13410,"Ġtransmit":13411,"Ġaprendiz":13412,"transform":13413,"Ġbases":13414,"YZ":13415,"Ġcoast":13416,"Ġintricate":13417,"isions":13418,"alous":13419,"ĠDa":13420,"Ġattached":13421,"grad":13422,"urning":13423,"Initial":13424,"Ð¯":13425,"emplos":13426,"Ġrit":13427,"prises":13428,"Ġhydrometry":13429,"Ġproget":13430,"uestas":13431,"ĠÑĥÐ»ÑĥÑĩÑĪ":13432,"rating":13433,"chter":13434,"uddenly":13435,"Ġ\\[":13436,"ĠÑģÐ¾Ð¾ÑĤÐ²ÐµÑĤÑģÑĤÐ²":13437,"ogo":13438,"Ġemails":13439,"uminum":13440,"ĠÐ¾Ð³":13441,"Ġpenet":13442,"ynt":13443,"Ġ\",":13444,"inded":13445,"Ġscheme":13446,"Ġphilosophical":13447,"Fe":13448,"æ¬":13449,".data":13450,"ĠÐ¼ÐµÐ¶Ð´Ñĥ":13451,"forder":13452,"jection":13453,"Ġmascul":13454,"gue":13455,"ĠCi":13456,"Ġflowing":13457,"Ġmurder":13458,".\")Ċ":13459,"ĠÐ²ÑĭÑģ":13460,"Ġportray":13461,"Ġcabin":13462,"stellen":13463,"predict":13464,"Ġdelicate":13465,"ĠÐŀÐ½Ð°":13466,"ĠBro":13467,"Ġmaneira":13468,"Ġchess":13469,"ĠMystery":13470,"Ġpueda":13471,"lessly":13472,"istor":13473,"Ġphenomen":13474,"åķ":13475,"Ġgat":13476,"á»ĭ":13477,"Ġsalud":13478,"ĠFrauen":13479,"ĠRemove":13480,"ĠÐ¿Ð¾Ð¼Ð¾Ð³":13481,"Ð°ÑİÑĤÑģÑı":13482,"Ġconvenient":13483,"ĠFlorida":13484,"170":13485,"ĠWarriors":13486,"Ġexemple":13487,"Ġoportun":13488,"Ġinherent":13489,"Ġneighb":13490,"zes":13491,"Ġfg":13492,"ĠÐ²ÑĸÐ´":13493,"è°":13494,"Users":13495,">\",":13496,"ĠFine":13497,"Ġgost":13498,"())":13499,"Ġpanel":13500,"embre":13501,"geb":13502,"Ġquot":13503,"ĠìĿ¸":13504,"-V":13505,"ĠÐ¿ÑĢÐ¾Ð²":13506,"ĠÐĴÐ¾ÑĤ":13507,"Je":13508,"Ġbiblioteca":13509,"ĠnÃ¥":13510,"ÐºÑĢÐ°":13511,"Ġinflammation":13512,"Column":13513,"Ġalguns":13514,"ĠprÃ³p":13515,"à¦¾à¦":13516,"ĠÐ¿Ð¾Ð¼Ð¾ÑīÑĮÑİ":13517,"Ġcruel":13518,"git":13519,"iewer":13520,"Ġconsistently":13521,"Ġtank":13522,"ĠML":13523,"Ġarrive":13524,"Ġdangers":13525,"ĠPRO":13526,"Ġestable":13527,"ÙĥÙĨ":13528,"Ġattempts":13529,"ammen":13530,"ĠSign":13531,"Ġdisorders":13532,"rons":13533,"ĠMA":13534,"ãģĪ":13535,"Ġpaths":13536,"embered":13537,"orph":13538,"Ġfro":13539,"uter":13540,"Ġconcrete":13541,"ifs":13542,"ÐµÑĢÐ¸":13543,"amen":13544,"Ġaos":13545,"rape":13546,"ĠBund":13547,"ÙĪÙĦ":13548,"';ĊĊ":13549,"omy":13550,"Ġerection":13551,"Ġmotivation":13552,"Ġtolerance":13553,"ĠtravÃ©s":13554,"Ġemphasize":13555,".println":13556,"ologist":13557,"Ġproviders":13558,"Ġannot":13559,"ĠfÃ¡c":13560,"Ġlu":13561,"avy":13562,"Ġinjuries":13563,"abilidade":13564,"Ġshel":13565,"Ġexplained":13566,"Ġentreprene":13567,"Ġpushed":13568,"Ġauthentic":13569,"Ġmuitas":13570,"83":13571,"=(":13572,"ĠWhite":13573,"Ġwest":13574,"fortun":13575,"_message":13576,"Ġcrowd":13577,"Ġhttp":13578,"Ġsupernatural":13579,"Ġpesquis":13580,"Ġpreoc":13581,"ulas":13582,"ĠNum":13583,"ĠFederal":13584,"[-":13585,"ëĮĢ":13586,".ch":13587,"Ã¨res":13588,"Ð¸ÑĢÐ¾Ð²":13589,"Ð°ÑĨÐ¸Ð¾Ð½":13590,"Ġnail":13591,"Ġarrays":13592,"ÙĪØ±":13593,"gypt":13594,"Ġdesktop":13595,"ĠJa":13596,"-def":13597,"Ġ...Ċ":13598,"ìĽĲ":13599,"github":13600,"unda":13601,"Ġnitro":13602,"Ġreplied":13603,"Ġtamper":13604,"ÐºÑĢÐµÑĤ":13605,"Ġaug":13606,"Ġadjusting":13607,"&D":13608,"Ġmie":13609,"Ġapi":13610,"ielen":13611,"Ġcouch":13612,"Ġirritation":13613,"Page":13614,"`.Ċ":13615,"ĠHa":13616,"Ġsuffers":13617,"abile":13618,"Ġreflection":13619,"ÑīÐµ":13620,"ometers":13621,"Ġradiation":13622,"Ġ]Ċ":13623,"ÐµÐ½Ð½Ð¾":13624,"Ġpublicly":13625,"Ġcontinuously":13626,"ĠØ§ÙĦØ£":13627,"ogg":13628,"Ġhanno":13629,"ĠÐ±ÐµÐ·Ð¾Ð¿Ð°Ñģ":13630,"Ġprocessor":13631,"information":13632,"ĠHan":13633,"fÃ©":13634,"Ġdevast":13635,"ĠShanghai":13636,"Ġmeasured":13637,"ĠÐ¿ÑĢÐ¾Ð´Ð¾Ð»Ð¶":13638,"=f":13639,"Ġservidor":13640,"Ġobjetivos":13641,"venture":13642,"Ġscripts":13643,"Ġvacuum":13644,"halten":13645,"orre":13646,"Ġordered":13647,"Ġexpansion":13648,"parency":13649,"Ġentrada":13650,"Ġswimming":13651,"Ġcomparing":13652,"Ġbasics":13653,"Ġdecides":13654,"isplay":13655,"Ġusuarios":13656,"Ġtechnological":13657,"_ex":13658,"eno":13659,"ĠÐ°ÑĢ":13660,"define":13661,"Ġcertificate":13662,"}\",":13663,"ĠShare":13664,"Ġbitte":13665,"DER":13666,"Ġconfused":13667,"ĠSH":13668,"Ġtemps":13669,"Ġattitude":13670,"ÑĪÐ¸Ð±":13671,"riter":13672,"Ġtrov":13673,"ĠÃ³":13674,"Ġestou":13675,"Ġhandled":13676,"Conclusion":13677,"Ġsubstances":13678,"Ġconventional":13679,"Ġscenes":13680,"Si":13681,"Ġcrew":13682,"Ġvivid":13683,"Ġnewfound":13684,"Ġbarely":13685,"ĠnÃ©cess":13686,"'].":13687,"uffer":13688,"Ġusada":13689,"_ID":13690,"Ġbras":13691,"Her":13692,"top":13693,"Ġpray":13694,"Ġstoring":13695,"Ġlui":13696,"Ð°ÑĤÐ°":13697,"emos":13698,"Ġgenre":13699,"Ġrightful":13700,"Ġconcaten":13701,"ĠÑĨÐµÐ»":13702,"pir":13703,"Ð¸Ð¼Ð¾ÑģÑĤÐ¸":13704,"Ġpursue":13705,"BT":13706,"gredient":13707,"ĠIV":13708,"Ġswallow":13709,"Ġsudden":13710,"Ġllama":13711,"Ġigual":13712,"ĠBes":13713,"ĠLib":13714,"iotics":13715,"oli":13716,"Ġoutra":13717,"redit":13718,"Ġcaptured":13719,"ropy":13720,"-hydroxy":13721,"Ġautomated":13722,"Ġnutrition":13723,"ĠÐ¿Ð¾ÑĢ":13724,"Ġhasta":13725,"Ġinvoice":13726,"ourse":13727,"ÑĥÐ°Ð»ÑĮ":13728,"Ġcambi":13729,".model":13730,"Ġaffects":13731,"Ø¨ÙĬ":13732,"wood":13733,"').":13734,"ÐµÐ½Ð½Ñı":13735,"Ġpump":13736,"ika":13737,"Ġthinks":13738,"Ġgalaxy":13739,"Ġacceptance":13740,".[":13741,"izzare":13742,"ĠÐ·Ð°Ð±":13743,"Ġesse":13744,"Ġpesticides":13745,"ãĥĥ":13746,"Ġmalware":13747,"ĠVoici":13748,"necess":13749,"Ġcalidad":13750,"STR":13751,"Ġperpetu":13752,"ĠÐ¥":13753,"ĠBC":13754,"Ġisolation":13755,"Ġleaned":13756,"otechnology":13757,"Ġcompetitors":13758,"ĠEsto":13759,"Ġcomposed":13760,"Interval":13761,"Ġestas":13762,"ucks":13763,"Ġ^":13764,"Ġenjoyable":13765,"Ġgym":13766,"à¤¨":13767,"ĠEff":13768,"ĠwÃ¼r":13769,"ĠÐ¿ÑĢÐ¾ÑĤ":13770,"Ġclosing":13771,"Ġodd":13772,"Ġexperiments":13773,"Ġbusca":13774,"ĠÑĢÐ°ÑģÐ¿":13775,"-carboxylic":13776,"Ïĩ":13777,"Ġdeny":13778,"Ġacces":13779,"Ġcheeks":13780,"Ġpodcast":13781,"=False":13782,"ady":13783,"Ġdiferen":13784,"usammen":13785,"Ġtrabajo":13786,"Ġmitigate":13787,"Ġbladder":13788,"ĠÐºÐ¾Ð½ÐºÑĢÐµÑĤ":13789,"Ġsexist":13790,"uis":13791,"ĠSovi":13792,"Ġcybersecurity":13793,"Ġdesk":13794,"ÐºÐ¾Ð¹":13795,"ĠØ¥":13796,"EXT":13797,"Ġnucle":13798,"Hz":13799,"Sl":13800,"ĠÐ¿Ð¾Ð´Ð´ÐµÑĢÐ¶":13801,"ãģ§ãģį":13802,"Ġmemorable":13803,"-position":13804,"Cal":13805,"Qt":13806,"Ġbeg":13807,"Ġjoined":13808,"pan":13809,"Ġsoccer":13810,"Ġglasses":13811,"iros":13812,"iona":13813,"Ġwitness":13814,"]-":13815,"ĠHay":13816,"ĠFunction":13817,"Ġsubtract":13818,"ĠEcco":13819,"ĠNE":13820,"Ġcoefficient":13821,"ĠÐ¾ÑĤÐ½Ð¾":13822,"ĠDetermine":13823,"Ġplain":13824,"ÃŃd":13825,"Ġworkout":13826,"Ġsubmission":13827,"ichen":13828,"Ġconform":13829,"Ð½Ð¸Ñħ":13830,"ĠFort":13831,"ASE":13832,"Ġfought":13833,"Their":13834,"Ø§Ø¹":13835,"ĠInformationen":13836,"ĠÐºÐ°ÐºÐ¸Ðµ":13837,"ĠProte":13838,"Ġpresents":13839,"Ġsections":13840,"ĠMedical":13841,"Ġsparkling":13842,"ieurs":13843,"Ġproposal":13844,"impro":13845,"Ġintens":13846,"gged":13847,"Ġupdating":13848,"Ġforests":13849,"best":13850,"ìĿĮ":13851,"Ð°Ð½Ð½Ñı":13852,"Ð¾ÑĢÐ¾Ð²":13853,"ĠFund":13854,"voice":13855,"Ġdoub":13856,"hyd":13857,"Ġregister":13858,"Ð¸ÑĩÐµÑģÐºÐ¸Ðµ":13859,"Ġhypnot":13860,"Ġincorporate":13861,"Ġ~":13862,"onte":13863,"ĠDan":13864,"Ġpersonnel":13865,"ĠÐ¿ÑĢÐ¸Ð»Ð¾Ð¶":13866,"ĠÐŀÑĤ":13867,"ç´":13868,"Ġmayor":13869,"Ġchromatography":13870,"ĠtrÃ¨s":13871,"Ġdrinking":13872,"Ġprosper":13873,"Agent":13874,"category":13875,"Ġtous":13876,"Ġsz":13877,"orare":13878,"ĠÐ½ÐµÐ´":13879,"ĠÐ½ÐµÐ¹":13880,"à¸²à¸£":13881,"ĠÑģÐ²ÑıÐ·Ð°Ð½":13882,"Ġmedi":13883,"Ġlogo":13884,"Ġfir":13885,"ĠMount":13886,"header":13887,"Ġ>>":13888,"Ġnorth":13889,"Ġdelivered":13890,"ĠAL":13891,"ĠÐ²Ð½":13892,"ÙĩØ§":13893,"CV":13894,"Ġlightweight":13895,"hex":13896,"ĠPers":13897,"Ġmajority":13898,"Ġshoulder":13899,"-axis":13900,"erves":13901,"ĠLine":13902,"Ġambient":13903,"types":13904,"Ġschools":13905,"Ġhurtful":13906,"ĠDark":13907,"ĠOK":13908,"Ġescre":13909,"Ġfait":13910,"å¤©":13911,"Ġmuitos":13912,"éĿ":13913,"ĠJiang":13914,"Ð¾ÑĢÐ¾Ð½":13915,"Ġcaract":13916,"Ġtipos":13917,"Ġmanufacturers":13918,"Ġforth":13919,"ĠCr":13920,"Ð°Ð½Ñģ":13921,"Ġmetab":13922,"Ġaffordable":13923,"auses":13924,"ÐµÑĩÐ½Ð¾":13925,"-value":13926,"Ġdepicted":13927,"ĠÐ±Ð°Ð·":13928,"Ġrisp":13929,"ĠÐ¸Ð½ÑĦÐ¾ÑĢÐ¼Ð°ÑĨÐ¸Ñİ":13930,"ÅĻ":13931,"Ð¸ÐµÐ¹":13932,"Ġneu":13933,"inecraft":13934,"Ġcharged":13935,"ummer":13936,"positive":13937,"Ġcorretamente":13938,"Ġaccordance":13939,"Ġaddressed":13940,"Ġoverwhelmed":13941,"Ġtraveling":13942,"Ð¾Ð±ÑĢÐ°Ð¶":13943,"ĠÐ¸Ð½ÑĦÐ¾ÑĢÐ¼Ð°ÑĨÐ¸Ð¸":13944,"uthorized":13945,"Ġdesert":13946,"ĠSpe":13947,"omas":13948,"Ġclassical":13949,"ëł¤":13950,"Ġcrystal":13951,"Ġphenomenon":13952,"Ġlibert":13953,"Ġanalyst":13954,"entiment":13955,"ĠGl":13956,"Ġpotato":13957,")(":13958,"ÃŃan":13959,"ĠfÃ¡cil":13960,"ontal":13961,"hydr":13962,"aceted":13963,"Ġnetworking":13964,"Ð¸ÑĩÐµÑģÐºÐ¸Ñħ":13965,"Ġpodemos":13966,"raction":13967,"Ġarise":13968,"Ġinitially":13969,"ĠMiddle":13970,"apor":13971,"Ġcooperation":13972,"ĠBed":13973,"Ġincent":13974,"Ġnose":13975,"Ġequil":13976,"ULT":13977,"Ð¼Ñĥ":13978,"bas":13979,"IME":13980,"ĠpodrÃŃa":13981,"Ġcake":13982,"ÑģÐ»ÐµÐ´":13983,"ĠPour":13984,"Ġsoy":13985,"ĠStrateg":13986,"Sincerely":13987,"Ġ)Ċ":13988,"_str":13989,".sh":13990,"ĠíĮ":13991,"entralized":13992,"wall":13993,"Ġrages":13994,"arsh":13995,"Ġecst":13996,"Ġtexte":13997,"Ġcontainers":13998,"umbled":13999,"Ġsei":14000,"Ð¼Ð°":14001,"Ġchampions":14002,"Ġstated":14003,"Ġtheoretical":14004,"Current":14005,"Ġtears":14006,"Ġtrigger":14007,"rencies":14008,"ylate":14009,"Ġsunlight":14010,"ĠðŁĴ":14011,"Ġresolver":14012,"Back":14013,"ĠTuttavia":14014,"Ġprofound":14015,"Ġcontained":14016,"ĠdÃ©vel":14017,"esser":14018,"ĠDirector":14019,"Ġtum":14020,"Ġalthough":14021,"Ð¸ÑĤÑĥ":14022,"ĠAssoci":14023,"instruction":14024,"Ġmelhorar":14025,"Ġvet":14026,"perm":14027,"ĠĠĠĠĠĠĠĠĠĠĠĠĠĠĠĠĠ":14028,"UD":14029,"ÅĦ":14030,"Ġbehave":14031,"Ġorganize":14032,"ĠserviÃ§os":14033,"idi":14034,"company":14035,"Eu":14036,"HS":14037,"Ġworried":14038,"Ġsurvey":14039,"ĠXML":14040,"Ġreasonable":14041,"VIDIA":14042,"ĠTi":14043,"ĠÑĦÐ°Ð¹Ð»":14044,"odos":14045,"ĠAh":14046,"çĲĨ":14047,"ĠRegular":14048,"ĠespecÃŃfica":14049,"Ġdecline":14050,"ĠDocker":14051,"iaz":14052,"ĠCD":14053,"Ġmatters":14054,"ĠrÃ©pond":14055,"ĠArtificial":14056,"ĠProt":14057,"Ġautomotive":14058,"âķ":14059,"Instead":14060,"ĠLT":14061,"Ġnorms":14062,"Ġkisses":14063,"gex":14064,"Ġunauthorized":14065,"Ġfrequent":14066,"Ġnumerical":14067,"chant":14068,"Ġutiliser":14069,"ëĲĺ":14070,".difficultyLabel":14071,"Ġenquanto":14072,"ĠÑģÐ²Ð¾Ð¹":14073,"Ġanimation":14074,"ĠÐ¾Ð±ÑĢÐ°Ð·Ð¾Ð¼":14075,"itis":14076,".io":14077,"olars":14078,"Ġvess":14079,"Ġconnecting":14080,"Ġachievements":14081,"Alternatively":14082,"Ġgradually":14083,"uv":14084,"ĠFour":14085,"oriented":14086,"Ð½ÐµÐ¹":14087,"Ġgases":14088,"Ġhobbies":14089,"ĠCup":14090,"Ġaccessed":14091,"bel":14092,"Ġfunzione":14093,"Ġboat":14094,"ë²ķ":14095,"ĠClimate":14096,"Ġaltri":14097,"Ġresumo":14098,"pend":14099,"Ġcorpo":14100,"_dir":14101,"ĠÑģÐ¾Ð·Ð´Ð°Ð½Ð¸Ñı":14102,"ĠJewish":14103,"Smiling":14104,"Ġneighborhood":14105,"ads":14106,"ĠÑįÑĦÑĦÐµÐºÑĤÐ¸Ð²":14107,"åĲĪ":14108,"Ġcul":14109,"Ġleather":14110,"ĠES":14111,"ĠLove":14112,"Ġnaughty":14113,"Ġmischievous":14114,"Ã¸":14115,"ĠRiver":14116,"Ġmenos":14117,"Ġmim":14118,"Ġgoogle":14119,"Ġdirected":14120,"Ġcontroller":14121,"eler":14122,"apa":14123,"Ġpounds":14124,"Ġaj":14125,"Ġtonight":14126,"Ġperceived":14127,"ĠanÃ¡lise":14128,"ĠColor":14129,"è¡¨":14130,"Windows":14131,"aya":14132,"reibe":14133,"çī©":14134,"Ġcic":14135,"unde":14136,"Ġcycl":14137,"Ġinspiration":14138,"Dialog":14139,"ĠGold":14140,"ìĹħ":14141,"Ġseeds":14142,"Ġlabeled":14143,"Ġsimult":14144,"Ġbreakfast":14145,"ĠAge":14146,"ĠAccount":14147,"ÑİÑĤÑģÑı":14148,"360":14149,"ĠDM":14150,"Ġgloves":14151,"ä¸Ńæĸĩ":14152,"!\")Ċ":14153,".split":14154,"esterday":14155,"ders":14156,"ĠTABLE":14157,"link":14158,"Ġnails":14159,"Ġqueue":14160,"Ġscent":14161,"Ġemployment":14162,"Ġmarked":14163,"ĠSELECT":14164,"Ġprotagonist":14165,"Ġpromising":14166,"ä½ķ":14167,"Ġmechanical":14168,"'):Ċ":14169,"Ĩµ":14170,"Ġrecher":14171,"Ġì¶":14172,"ĠÐ±ÑĭÐ»Ð¸":14173,"-methoxy":14174,"ĠOptim":14175,"Ġspreading":14176,"================================":14177,"Ġthoroughly":14178,"ĠSpecial":14179,"-O":14180,"obe":14181,"Ġchances":14182,"aped":14183,"ë¶Ģ":14184,"ided":14185,"Company":14186,"Ġquanto":14187,"ÐµÐ½ÐµÑĢ":14188,"rico":14189,"Ġcuando":14190,"ç¤":14191,"Ġrevealed":14192,"åĽŀ":14193,"Ġexplosives":14194,"ĠìłĦ":14195,"æĥ":14196,"Ġestrat":14197,"ologie":14198,"Ġblonde":14199,"à¸Ĺ":14200,"Ġprivile":14201,"Ġyeah":14202,"Ġproc":14203,"ĠRad":14204,"ĠÐ³ÑĢ":14205,"Ġwillingness":14206,"ĠÑĤÐ¸Ð¿":14207,"Ġdispositivo":14208,"audio":14209,"ĠHR":14210,"Ġjoining":14211,"ÑģÑĤÑĢÐ¾":14212,"Ġbrom":14213,"elen":14214,"odding":14215,"elli":14216,"Ġ×Ĳ":14217,"ĠNews":14218,"ĠÐ¾Ð´Ð¸Ð½":14219,"ãĥĹ":14220,"night":14221,"Ġawards":14222,"ald":14223,"ĠSound":14224,"Ġinterpreted":14225,"¡°":14226,"riger":14227,"lit":14228,"Ġainda":14229,"ĠTop":14230,"Ġarrest":14231,"Ð°Ð½Ð¸Ð¹":14232,"Ġclarity":14233,"Ġburst":14234,"dated":14235,"ienza":14236,"Ġflying":14237,"Ġgaze":14238,"ĠÑģÑĤÑĢÐ¾Ðº":14239,"Ġconclus":14240,"Po":14241,"brid":14242,"_ch":14243,"arme":14244,"Ġbombs":14245,"Ġproceso":14246,"Ġtire":14247,"anes":14248,"Ġnn":14249,"Ġweekend":14250,"node":14251,"æ¯":14252,"Ð°ÑĢÐ¸":14253,"Ġhomes":14254,"Ġfeat":14255,"Ġformatting":14256,"ĠÐ½ÐµÐ¿":14257,"Ġflour":14258,"Ġadjustments":14259,"ĠHeir":14260,"Ġtuple":14261,"è¡Į":14262,"97":14263,"Ġtabel":14264,"Ġcausal":14265,"Ġscratch":14266,"ĠÐ½ÐµÐ¾Ð±ÑħÐ¾Ð´Ð¸Ð¼Ð¾":14267,"Ġacesso":14268,"Ġvectors":14269,"Ġgrupo":14270,"ĠÐ´Ð¾Ð¿":14271,"Ġaccidents":14272,"Ã¤d":14273,"Ġinteracting":14274,"ĠSaturday":14275,"essa":14276,"Ġà¤¸":14277,"Ġcrystall":14278,"negative":14279,"Ġul":14280,"ĠTraining":14281,"Other":14282,"(g":14283,"Ġadhes":14284,"resti":14285,"gebra":14286,"Ġconfigured":14287,"Entry":14288,"Ġextens":14289,"NG":14290,"ì£¼":14291,"Ġgenerale":14292,"ĠSubject":14293,"Ġstopped":14294,"ĠER":14295,"ĠSmart":14296,"oom":14297,"Ġstorm":14298,"section":14299,"udad":14300,"Ġvacation":14301,"Ġnoss":14302,"ĠcaracterÃŃsticas":14303,"bow":14304,"Ã¦":14305,"Ġintegral":14306,"erer":14307,".from":14308,"ental":14309,"otos":14310,"ĠØ¹ÙĦÙī":14311,"æľīä»Ģä¹Ī":14312,"Ġakt":14313,"Ġlaun":14314,"nehmen":14315,"vy":14316,"ĉE":14317,"China":14318,"ĠGovern":14319,"Ġì¤ĳ":14320,"Ret":14321,"ĠjÃ¡":14322,"âĢ¦âĢ¦":14323,"extract":14324,"Node":14325,"stÃ¤nd":14326,"ĠUna":14327,"Ġbanks":14328,"ĠĠĠĠĠĠĠĠĠĠĠĠĠĠĠĠĠĠ":14329,"Ġconstructive":14330,"Ġcorporate":14331,"Ġadults":14332,"ĠØ§Ø³Øª":14333,"orith":14334,"Ġestilo":14335,"ĠQuest":14336,"Ġà¤¹":14337,"ĠHot":14338,"ĠMath":14339,"ells":14340,"ulture":14341,"common":14342,"Ġprodutos":14343,"Ġvolat":14344,"Ġconducting":14345,"Ġllev":14346,"ĠEla":14347,"bert":14348,"Ġsmiles":14349,"Ġpopularity":14350,"pert":14351,"Ġbelly":14352,"(result":14353,"Ġ×©":14354,"Ġtels":14355,"Ġcontentment":14356,"ĠMad":14357,"ĠMethod":14358,"Ġhousehold":14359,"ĠDocument":14360,"video":14361,"Ġotra":14362,"city":14363,"total":14364,"Ġtid":14365,"imentos":14366,"Ġsatisfy":14367,"amount":14368,"ĠÐ¿ÑĢÐ¾Ð´Ñĥ":14369,"Ġeinfach":14370,"contin":14371,"Ġefic":14372,"Ġanalog":14373,"Ġautomatic":14374,"-aware":14375,"Ġviele":14376,"Ġlessons":14377,"ĠÑĢÐ°Ð·Ð²Ð¸ÑĤ":14378,"enh":14379,"ĠTailed":14380,"Ġconex":14381,"Ġsecretly":14382,"Ġinstitution":14383,"gos":14384,"Manager":14385,"Ġsag":14386,"Ġremembered":14387,"Ġtouched":14388,"Ġpuis":14389,"written":14390,"\":ĊĊ":14391,"yrinth":14392,"×Ĳ":14393,"Ġshowc":14394,"utz":14395,"udi":14396,"Ġ`.":14397,"ĠRub":14398,"Ġtargeted":14399,"Ġsleeping":14400,"\"The":14401,"Â³":14402,"ieres":14403,"yridin":14404,"prim":14405,"à¤ķ":14406,"ONE":14407,"Ġcampaigns":14408,"Ġhobby":14409,"(Smiling":14410,"GameState":14411,"ĠSSISTANT":14412,"Ġsulfur":14413,"230":14414,"Ġghost":14415,"ĠÑĤÐ°Ð±":14416,"-performance":14417,".array":14418,"background":14419,"ĠEth":14420,"Ġqualities":14421,"ãĥ¼ãĤ":14422,"that":14423,"ĠKubernetes":14424,"ometric":14425,"+y":14426,"Ġrewards":14427,"Ġflesh":14428,"Ġmarks":14429,"ĠÑī":14430,"ÑĢÐµÐ±":14431,"Ġfactual":14432,"Ġdann":14433,"ĠLittle":14434,"ĠÑĢÐµÐ³":14435,"Ġaiutarti":14436,"Ġtranscript":14437,"Ġoccasion":14438,"/c":14439,"acht":14440,"Ġdelim":14441,"vision":14442,"ÑĮÑı":14443,"Ġsensitivity":14444,"87":14445,"Ġmisleading":14446,"-Chloro":14447,"ĠDI":14448,"iltered":14449,"Ġencuent":14450,"ĠMenschen":14451,"ikip":14452,"NLP":14453,"Ð¾ÑĢÐ¸Ð¸":14454,"Ġayuda":14455,"Ġpreparing":14456,"rations":14457,"STM":14458,"ĠdÃŃa":14459,"ĠÐ¶Ðµ":14460,"Ġownership":14461,"Ġcolleagues":14462,"Ġscalable":14463,"Ġdb":14464,"ĠAdminist":14465,"Ùİ":14466,"Ġarom":14467,"ĠSynthetic":14468,"atore":14469,"Ġperforms":14470,"Ġkeeps":14471,"åŁ":14472,"Ġsessions":14473,"ĠTokyo":14474,"ĠVARCHAR":14475,"Ġannounced":14476,"egu":14477,"Ġ((":14478,"Ġattach":14479,"ĠBBC":14480,"Ġrelevance":14481,"Server":14482,"rias":14483,"ĠÙĦÙĦ":14484,"localhost":14485,"ĠÐ½Ð°Ñģ":14486,"Ġrubber":14487,"áº¡n":14488,"Ġdipl":14489,"books":14490,"ĠClient":14491,"look":14492,"ãģĤãĤĬ":14493,
[...]
