{
  "version": "1.0",
  "truncation": null,
  "padding": null,
  "added_tokens": [
    {
      "id": 0,
      "content": "<unk>",
      "single_word": false,
      "lstrip": false,
      "rstrip": false,
      "normalized": false,
      "special": true
    },
    {
      "id": 1,
      "content": "<s>",
      "single_word": false,
      "lstrip": false,
      "rstrip": false,
      "normalized": false,
      "special": true
    },
    {
      "id": 2,
      "content": "</s>",
      "single_word": false,
      "lstrip": false,
      "rstrip": false,
      "normalized": false,
      "special": true
    }
  ],
  "normalizer": {
    "type": "Sequence",
    "normalizers": []
  },
  "pre_tokenizer": {
    "type": "Sequence",
    "pretokenizers": [
      {
        "type": "Whitespace"
      },
      {
        "type": "Metaspace",
        "replacement": "▁",
        "prepend_scheme": "always",
        "split": true
      }
    ]
  },
  "post_processor": {
    "type": "TemplateProcessing",
    "single": [
      {
        "SpecialToken": {
          "id": "<s>",
          "type_id": 0
        }
      },
      {
        "Sequence": {
          "id": "A",
          "type_id": 0
        }
      }
    ],
    "pair": [
      {
        "SpecialToken": {
          "id": "<s>",
          "type_id": 0
        }
      },
      {
        "Sequence": {
          "id": "A",
          "type_id": 0
        }
      },
      {
        "SpecialToken": {
          "id": "<s>",
          "type_id": 1
        }
      },
      {
        "Sequence": {
          "id": "B",
          "type_id": 1
        }
      }
    ],
    "special_tokens": {
      "<s>": {
        "id": "<s>",
        "ids": [
          1
        ],
        "tokens": [
          "<s>"
        ]
      }
    }
  },
  "decoder": {
    "type": "Sequence",
    "decoders": [
      {
        "type": "Replace",
        "pattern": {
          "String": "▁"
        },
        "content": " "
      },
      {
        "type": "ByteFallback"
      },
      {
        "type": "Fuse"
      },
      {
        "type": "Strip",
        "content": " ",
        "start": 1,
        "stop": 0
      }
    ]
  },
  "model": {
    "type": "BPE",
    "dropout": null,
    "unk_token": "<unk>",
    "continuing_subword_prefix": null,
    "end_of_word_suffix": null,
    "fuse_unk": true,
    "byte_fallback": true,
    "ignore_merges": false,
    "vocab": {
      "<unk>": 0,
      "<s>": 1,
      "</s>": 2,
      "\u0000": 3,
      "\u0001": 4,
      "\u0002": 5,
      "\u0003": 6,
      "\u0004": 7,
      "\u0005": 8,
      "\b": 9,
      "\u000e": 10,
      "\u000f": 11,
      "\u0010": 12,
      "\u0011": 13,
      "\u0012": 14,
      "\u0013": 15,
      "\u0014": 16,
      "\u0015": 17,
      "\u0017": 18,
      "\u0018": 19,
      "\u0019": 20,
      "\u001b": 21,
      "!": 22,
      "\"": 23,
      "#": 24,
      "$": 25,
      "%": 26,
      "&": 27,
      "'": 28,
      "(": 29,
      ")": 30,
      "*": 31,
      "+": 32,
      ",": 33,
      "-": 34,
      ".": 35,
      "/": 36,
      "0": 37,
      "1": 38,
      "2": 39,
      "3": 40,
      "4": 41,
      "5": 42,
      "6": 43,
      "7": 44,
      "8": 45,
      "9": 46,
      ":": 47,
      ";": 48,
      "<": 49,
      "=": 50,
      ">": 51,
      "?": 52,
      "@": 53,
      "A": 54,
      "B": 55,
      "C": 56,
      "D": 57,
      "E": 58,
      "F": 59,
      "G": 60,
      "H": 61,
      "I": 62,
      "J": 63,
      "K": 64,
      "L": 65,
      "M": 66,
      "N": 67,
      "O": 68,
      "P": 69,
      "Q": 70,
      "R": 71,
      "S": 72,
      "T": 73,
      "U": 74,
      "V": 75,
      "W": 76,
      "X": 77,
      "Y": 78,
      "Z": 79,
      "[": 80,
      "\\": 81,
      "]": 82,
      "^": 83,
      "_": 84,
      "`": 85,
      "a": 86,
      "b": 87,
      "c": 88,
      "d": 89,
      "e": 90,
      "f": 91,
      "g": 92,
      "h": 93,
      "i": 94,
      "j": 95,
      "k": 96,
      "l": 97,
      "m": 98,
      "n": 99,
      "o": 100,
      "p": 101,
      "q": 102,
      "r": 103,
      "s": 104,
      "t": 105,
      "u": 106,
      "v": 107,
      "w": 108,
      "x": 109,
      "y": 110,
      "z": 111,
      "{": 112,
      "|": 113,
      "}": 114,
      "~": 115,
      "": 116,
      "": 117,
      "": 118,
      "": 119,
      "": 120,
      "": 121,
      "": 122,
      "": 123,
      "": 124,
      "": 125,
      "": 126,
      "": 127,
      "": 128,
      "": 129,
      "": 130,
      "": 131,
      "": 132,
      "": 133,
      "": 134,
      "": 135,
      "": 136,
      "": 137,
      "": 138,
      "¡": 139,
      "¢": 140,
      "£": 141,
      "¤": 142,
      "¥": 143,
      "¦": 144,
      "§": 145,
      "¨": 146,
      "©": 147,
      "ª": 148,
      "«": 149,
      "¬": 150,
      "­": 151,
      "®": 152,
      "¯": 153,
      "°": 154,
      "±": 155,
      "²": 156,
      "³": 157,
      "´": 158,
      "µ": 159,
      "¶": 160,
      "·": 161,
      "¸": 162,
      "¹": 163,
      "º": 164,
      "»": 165,
      "¼": 166,
      "½": 167,
      "¾": 168,
      "¿": 169,
      "À": 170,
      "Á": 171,
      "Â": 172,
      "Ã": 173,
      "Ä": 174,
      "Å": 175,
      "Æ": 176,
      "Ç": 177,
      "È": 178,
      "É": 179,
      "Ê": 180,
      "Ë": 181,
      "Ì": 182,
      "Í": 183,
      "Î": 184,
      "Ï": 185,
      "Ð": 186,
      "Ñ": 187,
      "Ò": 188,
      "Ó": 189,
      "Ô": 190,
      "Õ": 191,
      "Ö": 192,
      "×": 193,
      "Ø": 194,
      "Ú": 195,
      "Û": 196,
      "Ü": 197,
      "Ý": 198,
      "Þ": 199,
      "ß": 200,
      "à": 201,
      "á": 202,
      "â": 203,
      "ã": 204,
      "ä": 205,
      "å": 206,
      "æ": 207,
      "ç": 208,
      "è": 209,
      "é": 210,
      "ê": 211,
      "ë": 212,
      "ì": 213,
      "í": 214,
      "î": 215,
      "ï": 216,
      "ð": 217,
      "ñ": 218,
      "ò": 219,
      "ó": 220,
      "ô": 221,
      "õ": 222,
      "ö": 223,
      "÷": 224,
      "ø": 225,
      "ù": 226,
      "ú": 227,
      "û": 228,
      "ü": 229,
      "ý": 230,
      "þ": 231,
      "ÿ": 232,
      "Ā": 233,
      "ā": 234,
      "Ă": 235,
      "ă": 236,
      "Ą": 237,
      "ą": 238,
      "Ć": 239,
      "ć": 240,
      "Ĉ": 241,
      "ĉ": 242,
      "Ċ": 243,
      "Č": 244,
      "č": 245,
      "Ď": 246,
      "ď": 247,
      "Đ": 248,
      "đ": 249,
      "Ē": 250,
      "ē": 251,
      "Ĕ": 252,
      "ĕ": 253,
      "Ė": 254,
      "ė": 255,
      "Ę": 256,
      "ę": 257,
      "Ě": 258,
      "ě": 259,
      "Ĝ": 260,
      "ĝ": 261,
      "Ğ": 262,
      "ğ": 263,
      "Ġ": 264,
      "ġ": 265,
      "ģ": 266,
      "Ħ": 267,
      "ħ": 268,
      "ĩ": 269,
      "Ī": 270,
      "ī": 271,
      "ĭ": 272,
      "Į": 273,
      "į": 274,
      "İ": 275,
      "ı": 276,
      "Ĳ": 277,
      "Ĵ": 278,
      "ĵ": 279,
      "Ķ": 280,
      "ķ": 281,
      "ĺ": 282,
      "Ļ": 283,
      "ļ": 284,
      "Ľ": 285,
      "ľ": 286,
      "Ŀ": 287,
      "Ł": 288,
      "ł": 289,
      "Ń": 290,
      "ń": 291,
      "ņ": 292,
      "ň": 293,
      "ŉ": 294,
      "Ŋ": 295,
      "ŋ": 296,
      "Ō": 297,
      "ō": 298,
      "ŏ": 299,
      "Ő": 300,
      "ő": 301,
      "Œ": 302,
      "œ": 303,
      "ŕ": 304,
      "ŗ": 305,
      "Ř": 306,
      "ř": 307,
      "Ś": 308,
      "ś": 309,
      "ŝ": 310,
      "Ş": 311,
      "ş": 312,
      "Š": 313,
      "š": 314,
      "ţ": 315,
      "ť": 316,
      "Ŧ": 317,
      "ũ": 318,
      "Ū": 319,
      "ū": 320,
      "Ŭ": 321,
      "ŭ": 322,
      "Ů": 323,
      "ů": 324,
      "Ű": 325,
      "ű": 326,
      "ų": 327,
      "Ŵ": 328,
      "ŷ": 329,
      "Ÿ": 330,
      "Ź": 331,
      "ź": 332,
      "Ż": 333,
      "ż": 334,
      "Ž": 335,
      "ž": 336,
      "ƒ": 337,
      "Ɠ": 338,
      "Ơ": 339,
      "ơ": 340,
      "Ư": 341,
      "ư": 342,
      "Ƶ": 343,
      "ƻ": 344,
      "ǎ": 345,
      "ǐ": 346,
      "ǒ": 347,
      "ǔ": 348,
      "ǚ": 349,
      "ǜ": 350,
      "ǝ": 351,
      "ǫ": 352,
      "ǵ": 353,
      "ǽ": 354,
      "Ȁ": 355,
      "Ȃ": 356,
      "ȃ": 357,
      "Ȅ": 358,
      "Ȇ": 359,
      "Ȋ": 360,
      "ȋ": 361,
      "Ȍ": 362,
      "Ȏ": 363,
      "ȏ": 364,
      "Ȑ": 365,
      "ȑ": 366,
      "Ȓ": 367,
      "ȓ": 368,
      "Ȕ": 369,
      "Ȗ": 370,
      "ȗ": 371,
      "Ș": 372,
      "ș": 373,
      "Ț": 374,
      "ț": 375,
      "ȩ": 376,
      "ȳ": 377,
      "ɐ": 378,
      "ɑ": 379,
      "ɒ": 380,
      "ɔ": 381,
      "ɕ": 382,
      "ɖ": 383,
      "ɘ": 384,
      "ə": 385,
      "ɛ": 386,
      "ɜ": 387,
      "ɟ": 388,
      "ɡ": 389,
      "ɣ": 390,
      "ɥ": 391,
      "ɦ": 392,
      "ɨ": 393,
      "ɪ": 394,
      "ɫ": 395,
      "ɲ": 396,
      "ɳ": 397,
      "ɴ": 398,
      "ɵ": 399,
      "ɹ": 400,
      "ɾ": 401,
      "ʀ": 402,
      "ʁ": 403,
      "ʂ": 404,
      "ʃ": 405,
      "ʇ": 406,
      "ʈ": 407,
      "ʊ": 408,
      "ʌ": 409,
      "ʍ": 410,
      "ʏ": 411,
      "ʐ": 412,
      "ʒ": 413,
      "ʔ": 414,
      "ʕ": 415,
      "ʖ": 416,
      "ʘ": 417,
      "ʙ": 418,
      "ʜ": 419,
      "ʞ": 420,
      "ʟ": 421,
      "ʦ": 422,
      "ʧ": 423,
      "ʰ": 424,
      "ʲ": 425,
      "ʳ": 426,
      "ʴ": 427,
      "ʷ": 428,
      "ʸ": 429,
      "ʹ": 430,
      "ʺ": 431,
      "ʻ": 432,
      "ʼ": 433,
      "ʾ": 434,
      "ʿ": 435,
      "˄": 436,
      "˅": 437,
      "ˆ": 438,
      "ˈ": 439,
      "ˊ": 440,
      "ˌ": 441,
      "ː": 442,
      "˘": 443,
      "˙": 444,
      "˚": 445,
      "˜": 446,
      "ˡ": 447,
      "ˢ": 448,
      "˥": 449,
      "˧": 450,
      "˨": 451,
      "˩": 452,
      "̀": 453,
      "́": 454,
      "̂": 455,
      "̃": 456,
      "̄": 457,
      "̅": 458,
      "̆": 459,
      "̇": 460,
      "̈": 461,
      "̉": 462,
      "̌": 463,
      "̐": 464,
      "̑": 465,
      "̓": 466,
      "̣": 467,
      "̤": 468,
      "̥": 469,
      "̨": 470,
      "̩": 471,
      "̪": 472,
      "̯": 473,
      "̸": 474,
      "͖": 475,
      "͜": 476,
      "͡": 477,
      "Ά": 478,
      "Έ": 479,
      "Ή": 480,
      "Ό": 481,
      "Ώ": 482,
      "ΐ": 483,
      "Α": 484,
      "Β": 485,
      "Γ": 486,
      "Δ": 487,
      "Ε": 488,
      "Ζ": 489,
      "Η": 490,
      "Θ": 491,
      "Ι": 492,
      "Κ": 493,
      "Λ": 494,
      "Μ": 495,
      "Ν": 496,
      "Ξ": 497,
      "Ο": 498,
      "Π": 499,
      "Ρ": 500,
      "Σ": 501,
      "Τ": 502,
      "Υ": 503,
      "Φ": 504,
      "Χ": 505,
      "Ψ": 506,
      "Ω": 507,
      "ά": 508,
      "έ": 509,
      "ή": 510,
      "ί": 511,
      "α": 512,
      "β": 513,
      "γ": 514,
      "δ": 515,
      "ε": 516,
      "ζ": 517,
      "η": 518,
      "θ": 519,
      "ι": 520,
      "κ": 521,
      "λ": 522,
      "μ": 523,
      "ν": 524,
      "ξ": 525,
      "ο": 526,
      "π": 527,
      "ρ": 528,
      "ς": 529,
      "σ": 530,
      "τ": 531,
      "υ": 532,
      "φ": 533,
      "χ": 534,
      "ψ": 535,
      "ω": 536,
      "ϊ": 537,
      "ϋ": 538,
      "ό": 539,
      "ύ": 540,
      "ώ": 541,
      "ϕ": 542,
      "Ϝ": 543,
      "ϝ": 544,
      "ϴ": 545,
      "ϵ": 546,
      "Ϸ": 547,
      "Ё": 548,
      "Ђ": 549,
      "Є": 550,
      "Ѕ": 551,
      "І": 552,
      "Ї": 553,
      "Ј": 554,
      "Њ": 555,
      "Ў": 556,
      "А": 557,
      "Б": 558,
      "В": 559,
      "Г": 560,
      "Д": 561,
      "Е": 562,
      "Ж": 563,
      "З": 564,
      "И": 565,
      "Й": 566,
      "К": 567,
      "Л": 568,
      "М": 569,
      "Н": 570,
      "О": 571,
      "П": 572,
      "Р": 573,
      "С": 574,
      "Т": 575,
      "У": 576,
      "Ф": 577,
      "Х": 578,
      "Ц": 579,
      "Ч": 580,
      "Ш": 581,
      "Щ": 582,
      "Ъ": 583,
      "Ы": 584,
      "Ь": 585,
      "Э": 586,
      "Ю": 587,
      "Я": 588,
      "а": 589,
      "б": 590,
      "в": 591,
      "г": 592,
      "д": 593,
      "е": 594,
      "ж": 595,
      "з": 596,
      "и": 597,
      "й": 598,
      "к": 599,
      "л": 600,
      "м": 601,
      "н": 602,
      "о": 603,
      "п": 604,
      "р": 605,
      "с": 606,
      "т": 607,
      "у": 608,
      "ф": 609,
      "х": 610,
      "ц": 611,
      "ч": 612,
      "ш": 613,
      "щ": 614,
      "ъ": 615,
      "ы": 616,
      "ь": 617,
      "э": 618,
      "ю": 619,
      "я": 620,
      "ё": 621,
      "ђ": 622,
      "є": 623,
      "ѕ": 624,
      "і": 625,
      "ї": 626,
      "ј": 627,
      "љ": 628,
      "њ": 629,
      "ћ": 630,
      "ќ": 631,
      "ѝ": 632,
      "ў": 633,
      "џ": 634,
      "Ѡ": 635,
      "ѡ": 636,
      "Ґ": 637,
      "ґ": 638,
      "ғ": 639,
      "Қ": 640,
      "қ": 641,
      "ң": 642,
      "Ү": 643,
      "ү": 644,
      "ұ": 645,
      "ҳ": 646,
      "ҷ": 647,
      "һ": 648,
      "ӏ": 649,
      "Ә": 650,
      "ә": 651,
      "Ө": 652,
      "ө": 653,
      "ӯ": 654,
      "ԃ": 655,
      "ԏ": 656,
      "Ա": 657,
      "Բ": 658,
      "Դ": 659,
      "Ե": 660,
      "Է": 661,
      "Ի": 662,
      "Հ": 663,
      "Ձ": 664,
      "Ն": 665,
      "Ո": 666,
      "Վ": 667,
      "Տ": 668,
      "Ք": 669,
      "՞": 670,
      "ա": 671,
      "բ": 672,
      "գ": 673,
      "դ": 674,
      "ե": 675,
      "զ": 676,
      "է": 677,
      "ը": 678,
      "թ": 679,
      "ժ": 680,
      "ի": 681,
      "լ": 682,
      "խ": 683,
      "ծ": 684,
      "կ": 685,
      "հ": 686,
      "ձ": 687,
      "ղ": 688,
      "ճ": 689,
      "մ": 690,
      "յ": 691,
      "ն": 692,
      "շ": 693,
      "ո": 694,
      "չ": 695,
      "պ": 696,
      "ջ": 697,
      "ռ": 698,
      "ս": 699,
      "վ": 700,
      "տ": 701,
      "ր": 702,
      "ց": 703,
      "ւ": 704,
      "փ": 705,
      "ք": 706,
      "օ": 707,
      "ֆ": 708,
      "և": 709,
      "։": 710,
      "֍": 711,
      "֔": 712,
      "֖": 713,
      "֙": 714,
      "֛": 715,
      "֣": 716,
      "֥": 717,
      "֨": 718,
      "֩": 719,
      "ְ": 720,
      "ֱ": 721,
      "ֲ": 722,
      "ִ": 723,
      "ֵ": 724,
      "ֶ": 725,
      "ַ": 726,
      "ָ": 727,
      "ֹ": 728,
      "ּ": 729,
      "ֽ": 730,
      "־": 731,
      "ׁ": 732,
      "ׂ": 733,
      "׃": 734,
      "א": 735,
      "ב": 736,
      "ג": 737,
      "ד": 738,
      "ה": 739,
      "ו": 740,
      "ז": 741,
      "ח": 742,
      "ט": 743,
      "י": 744,
      "ך": 745,
      "כ": 746,
      "ל": 747,
      "ם": 748,
      "מ": 749,
      "ן": 750,
      "נ": 751,
      "ס": 752,
      "ע": 753,
      "ף": 754,
      "פ": 755,
      "ץ": 756,
      "צ": 757,
      "ק": 758,
      "ר": 759,
      "ש": 760,
      "ת": 761,
      "װ": 762,
      "׳": 763,
      "״": 764,
      "،": 765,
      "؛": 766,
      "؜": 767,
      "؟": 768,
      "ء": 769,
      "آ": 770,
      "أ": 771,
      "ؤ": 772,
      "إ": 773,
      "ئ": 774,
      "ا": 775,
      "ب": 776,
      "ة": 777,
      "ت": 778,
      "ث": 779,
      "ج": 780,
      "ح": 781,
      "خ": 782,
      "د": 783,
      "ذ": 784,
      "ر": 785,
      "ز": 786,
      "س": 787,
      "ش": 788,
      "ص": 789,
      "ض": 790,
      "ط": 791,
      "ظ": 792,
      "ع": 793,
      "غ": 794,
      "ـ": 795,
      "ف": 796,
      "ق": 797,
      "ك": 798,
      "ل": 799,
      "م": 800,
      "ن": 801,
      "ه": 802,
      "و": 803,
      "ى": 804,
      "ي": 805,
      "ً": 806,
      "ٌ": 807,
      "ٍ": 808,
      "َ": 809,
      "ُ": 810,
      "ِ": 811,
      "ّ": 812,
      "ْ": 813,
      "ٓ": 814,
      "ٔ": 815,
      "٠": 816,
      "١": 817,
      "٢": 818,
      "٣": 819,
      "٤": 820,
      "٥": 821,
      "٦": 822,
      "٧": 823,
      "٩": 824,
      "٪": 825,
      "٫": 826,
      "٬": 827,
      "ٰ": 828,
      "ٱ": 829,
      "ٹ": 830,
      "پ": 831,
      "چ": 832,
      "ڈ": 833,
      "ڑ": 834,
      "ړ": 835,
      "ژ": 836,
      "ک": 837,
      "گ": 838,
      "ڵ": 839,
      "ں": 840,
      "ڼ": 841,
      "ھ": 842,
      "ہ": 843,
      "ۂ": 844,
      "ی": 845,
      "ې": 846,
      "ے": 847,
      "۔": 848,
      "ۚ": 849,
      "ۡ": 850,
      "ۢ": 851,
      "ۤ": 852,
      "۰": 853,
      "۱": 854,
      "۲": 855,
      "۳": 856,
      "۴": 857,
      "۵": 858,
      "۶": 859,
      "۷": 860,
      "۸": 861,
      "۹": 862,
      "ܐ": 863,
      "ܒ": 864,
      "ܕ": 865,
      "ܘ": 866,
      "ܚ": 867,
      "ܝ": 868,
      "ܟ": 869,
      "ܠ": 870,
      "ܡ": 871,
      "ܢ": 872,
      "ܣ": 873,
      "ܦ": 874,
      "ܩ": 875,
      "ܫ": 876,
      "ܬ": 877,
      "ܲ": 878,
      "ܶ": 879,
      "݁": 880,
      "ހ": 881,
      "ރ": 882,
      "ކ": 883,
      "އ": 884,
      "ވ": 885,
      "މ": 886,
      "ދ": 887,
      "ލ": 888,
      "ސ": 889,
      "ޓ": 890,
      "ޔ": 891,
      "ަ": 892,
      "ާ": 893,
      "ި": 894,
      "ު": 895,
      "ެ": 896,
      "ޮ": 897,
      "ޯ": 898,
      "ް": 899,
      "ࣨ": 900,
      "ँ": 901,
      "ं": 902,
      "ः": 903,
      "अ": 904,
      "आ": 905,
      "इ": 906,
      "ई": 907,
      "उ": 908,
      "ऊ": 909,
      "ऋ": 910,
      "ऍ": 911,
      "ऎ": 912,
      "ए": 913,
      "ऐ": 914,
      "ऑ": 915,
      "ऒ": 916,
      "ओ": 917,
      "औ": 918,
      "क": 919,
      "ख": 920,
      "ग": 921,
      "घ": 922,
      "ङ": 923,
      "च": 924,
      "छ": 925,
      "ज": 926,
      "झ": 927,
      "ञ": 928,
      "ट": 929,
      "ठ": 930,
      "ड": 931,
      "ढ": 932,
      "ण": 933,
      "त": 934,
      "थ": 935,
      "द": 936,
      "ध": 937,
      "न": 938,
      "प": 939,
      "फ": 940,
      "ब": 941,
      "भ": 942,
      "म": 943,
      "य": 944,
      "र": 945,
      "ल": 946,
      "ळ": 947,
      "व": 948,
      "श": 949,
      "ष": 950,
      "स": 951,
      "ह": 952,
      "़": 953,
      "ा": 954,
      "ि": 955,
      "ी": 956,
      "ु": 957,
      "ू": 958,
      "ृ": 959,
      "ॅ": 960,
      "े": 961,
      "ै": 962,
      "ॉ": 963,
      "ो": 964,
      "ौ": 965,
      "्": 966,
      "ॐ": 967,
      "ॕ": 968,
      "ज़": 969,
      "ड़": 970,
      "ढ़": 971,
      "ॠ": 972,
      "ॡ": 973,
      "ॢ": 974,
      "ॣ": 975,
      "।": 976,
      "॥": 977,
      "०": 978,
      "१": 979,
      "७": 980,
      "८": 981,
      "ঁ": 982,
      "ং": 983,
      "ঃ": 984,
      "অ": 985,
      "আ": 986,
      "ই": 987,
      "ঈ": 988,
      "উ": 989,
      "এ": 990,
      "ঐ": 991,
      "ও": 992,
      "ঔ": 993,
      "ক": 994,
      "খ": 995,
      "গ": 996,
      "ঘ": 997,
      "ঙ": 998,
      "চ": 999,
      "ছ": 1000,
      "জ": 1001,
      "ঝ": 1002,
      "ঞ": 1003,
      "ট": 1004,
      "ঠ": 1005,
      "ড": 1006,
      "ঢ": 1007,
      "ণ": 1008,
      "ত": 1009,
      "থ": 1010,
      "দ": 1011,
      "ধ": 1012,
      "ন": 1013,
      "প": 1014,
      "ফ": 1015,
      "ব": 1016,
      "ভ": 1017,
      "ম": 1018,
      "য": 1019,
      "র": 1020,
      "ল": 1021,
      "শ": 1022,
      "ষ": 1023,
      "স": 1024,
      "হ": 1025,
      "঺": 1026,
      "়": 1027,
      "ঽ": 1028,
      "া": 1029,
      "ি": 1030,
      "ী": 1031,
      "ু": 1032,
      "ূ": 1033,
      "ৃ": 1034,
      "ে": 1035,
      "ৈ": 1036,
      "ো": 1037,
      "ৌ": 1038,
      "্": 1039,
      "ৎ": 1040,
      "ড়": 1041,
      "য়": 1042,
      "ৣ": 1043,
      "৤": 1044,
      "০": 1045,
      "১": 1046,
      "২": 1047,
      "৫": 1048,
      "৭": 1049,
      "৯": 1050,
      "ਂ": 1051,
      "ਅ": 1052,
      "ਆ": 1053,
      "ਇ": 1054,
      "ਈ": 1055,
      "ਉ": 1056,
      "ਕ": 1057,
      "ਗ": 1058,
      "ਚ": 1059,
      "ਜ": 1060,
      "ਟ": 1061,
      "ਠ": 1062,
      "ਡ": 1063,
      "ਣ": 1064,
      "ਤ": 1065,
      "ਦ": 1066,
      "ਧ": 1067,
      "ਨ": 1068,
      "ਪ": 1069,
      "ਫ": 1070,
      "ਬ": 1071,
      "ਭ": 1072,
      "ਮ": 1073,
      "ਯ": 1074,
      "ਰ": 1075,
      "ਲ": 1076,
      "ਵ": 1077,
      "ਸ਼": 1078,
      "ਸ": 1079,
      "ਹ": 1080,
      "਼": 1081,
      "ਾ": 1082,
      "ਿ": 1083,
      "ੀ": 1084,
      "ੁ": 1085,
      "ੂ": 1086,
      "ੇ": 1087,
      "ੈ": 1088,
      "ੋ": 1089,
      "੍": 1090,
      "ੰ": 1091,
      "ੱ": 1092,
      "ં": 1093,
      "આ": 1094,
      "ઇ": 1095,
      "એ": 1096,
      "ક": 1097,
      "ખ": 1098,
      "ગ": 1099,
      "છ": 1100,
      "જ": 1101,
      "ટ": 1102,
      "ડ": 1103,
      "ણ": 1104,
      "ત": 1105,
      "થ": 1106,
      "દ": 1107,
      "ધ": 1108,
      "ન": 1109,
      "પ": 1110,
      "બ": 1111,
      "ભ": 1112,
      "મ": 1113,
      "ય": 1114,
      "ર": 1115,
      "લ": 1116,
      "વ": 1117,
      "શ": 1118,
      "ષ": 1119,
      "સ": 1120,
      "હ": 1121,
      "ા": 1122,
      "િ": 1123,
      "ી": 1124,
      "ુ": 1125,
      "ૂ": 1126,
      "ે": 1127,
      "ો": 1128,
      "્": 1129,
      "ଇ": 1130,
      "ଡ": 1131,
      "ନ": 1132,
      "଼": 1133,
      "ି": 1134,
      "அ": 1135,
      "ஆ": 1136,
      "இ": 1137,
      "உ": 1138,
      "எ": 1139,
      "ஏ": 1140,
      "ஒ": 1141,
      "க": 1142,
      "ங": 1143,
      "ச": 1144,
      "ஜ": 1145,
      "ஞ": 1146,
      "ட": 1147,
      "ண": 1148,
      "த": 1149,
      "ந": 1150,
      "ன": 1151,
      "ப": 1152,
      "ம": 1153,
      "ய": 1154,
      "ர": 1155,
      "ற": 1156,
      "ல": 1157,
      "ள": 1158,
      "ழ": 1159,
      "வ": 1160,
      "ஷ": 1161,
      "ஸ": 1162,
      "ஹ": 1163,
      "ா": 1164,
      "ி": 1165,
      "ீ": 1166,
      "ு": 1167,
      "ூ": 1168,
      "ெ": 1169,
      "ே": 1170,
      "ை": 1171,
      "ொ": 1172,
      "ோ": 1173,
      "்": 1174,
      "ం": 1175,
      "అ": 1176,
      "ఆ": 1177,
      "ఇ": 1178,
      "ఈ": 1179,
      "ఉ": 1180,
      "ఎ": 1181,
      "ఏ": 1182,
      "ఒ": 1183,
      "ఓ": 1184,
      "క": 1185,
      "గ": 1186,
      "చ": 1187,
      "జ": 1188,
      "ట": 1189,
      "డ": 1190,
      "ణ": 1191,
      "త": 1192,
      "థ": 1193,
      "ద": 1194,
      "ధ": 1195,
      "న": 1196,
      "ప": 1197,
      "బ": 1198,
      "భ": 1199,
      "మ": 1200,
      "య": 1201,
      "ర": 1202,
      "ల": 1203,
      "వ": 1204,
      "శ": 1205,
      "ష": 1206,
      "స": 1207,
      "హ": 1208,
      "ా": 1209,
      "ి": 1210,
      "ీ": 1211,
      "ు": 1212,
      "ూ": 1213,
      "ృ": 1214,
      "ె": 1215,
      "ే": 1216,
      "ై": 1217,
      "ొ": 1218,
      "ో": 1219,
      "్": 1220,
      "ಂ": 1221,
      "ಅ": 1222,
      "ಆ": 1223,
      "ಇ": 1224,
      "ಈ": 1225,
      "ಉ": 1226,
      "ಊ": 1227,
      "ಋ": 1228,
      "ಌ": 1229,
      "಍": 1230,
      "ಎ": 1231,
      "ಒ": 1232,
      "ಓ": 1233,
      "ಔ": 1234,
      "ಕ": 1235,
      "ಖ": 1236,
      "ಗ": 1237,
      "ಘ": 1238,
      "ಙ": 1239,
      "ಚ": 1240,
      "ಛ": 1241,
      "ಜ": 1242,
      "ಝ": 1243,
      "ಟ": 1244,
      "ಠ": 1245,
      "ಡ": 1246,
      "ಢ": 1247,
      "ಣ": 1248,
      "ತ": 1249,
      "ಥ": 1250,
      "ದ": 1251,
      "ಧ": 1252,
      "ನ": 1253,
      "಩": 1254,
      "ಪ": 1255,
      "ಫ": 1256,
      "ಬ": 1257,
      "ಭ": 1258,
      "ಮ": 1259,
      "ಯ": 1260,
      "ರ": 1261,
      "ಲ": 1262,
      "ಳ": 1263,
      "ವ": 1264,
      "ಶ": 1265,
      "ಷ": 1266,
      "ಸ": 1267,
      "ಹ": 1268,
      "ಾ": 1269,
      "ಿ": 1270,
      "ೀ": 1271,
      "ು": 1272,
      "ೂ": 1273,
      "ೆ": 1274,
      "ೇ": 1275,
      "ೈ": 1276,
      "ೊ": 1277,
      "ೋ": 1278,
      "್": 1279,
      "ം": 1280,
      "അ": 1281,
      "ആ": 1282,
      "ഇ": 1283,
      "ഈ": 1284,
      "ഉ": 1285,
      "എ": 1286,
      "ഐ": 1287,
      "ഒ": 1288,
      "ഓ": 1289,
      "ക": 1290,
      "ഗ": 1291,
      "ങ": 1292,
      "ച": 1293,
      "ജ": 1294,
      "ഞ": 1295,
      "ട": 1296,
      "ണ": 1297,
      "ത": 1298,
      "ദ": 1299,
      "ധ": 1300,
      "ന": 1301,
      "പ": 1302,
      "ഫ": 1303,
      "ബ": 1304,
      "ഭ": 1305,
      "മ": 1306,
      "യ": 1307,
      "ര": 1308,
      "റ": 1309,
      "ല": 1310,
      "ള": 1311,
      "ഴ": 1312,
      "വ": 1313,
      "ശ": 1314,
      "ഷ": 1315,
      "സ": 1316,
      "ഹ": 1317,
      "ാ": 1318,
      "ി": 1319,
      "ീ": 1320,
      "ു": 1321,
      "ൂ": 1322,
      "ൃ": 1323,
      "െ": 1324,
      "േ": 1325,
      "ൊ": 1326,
      "ോ": 1327,
      "്": 1328,
      "ൻ": 1329,
      "ർ": 1330,
      "ൽ": 1331,
      "ൾ": 1332,
      "ං": 1333,
      "අ": 1334,
      "ආ": 1335,
      "ඇ": 1336,
      "ඉ": 1337,
      "ඊ": 1338,
      "උ": 1339,
      "එ": 1340,
      "ඒ": 1341,
      "ඔ": 1342,
      "ඕ": 1343,
      "ක": 1344,
      "ග": 1345,
      "ච": 1346,
      "ජ": 1347,
      "ට": 1348,
      "ඩ": 1349,
      "ණ": 1350,
      "ත": 1351,
      "ථ": 1352,
      "ද": 1353,
      "ධ": 1354,
      "න": 1355,
      "ඳ": 1356,
      "ප": 1357,
      "බ": 1358,
      "භ": 1359,
      "ම": 1360,
      "ය": 1361,
      "ර": 1362,
      "ල": 1363,
      "ව": 1364,
      "ශ": 1365,
      "ෂ": 1366,
      "ස": 1367,
      "හ": 1368,
      "ළ": 1369,
      "්": 1370,
      "ා": 1371,
      "ැ": 1372,
      "ෑ": 1373,
      "ි": 1374,
      "ී": 1375,
      "ු": 1376,
      "ෘ": 1377,
      "ෙ": 1378,
      "ේ": 1379,
      "ෛ": 1380,
      "ො": 1381,
      "ෝ": 1382,
      "ෞ": 1383,
      "෡": 1384,
      "ก": 1385,
      "ข": 1386,
      "ค": 1387,
      "ฅ": 1388,
      "ฆ": 1389,
      "ง": 1390,
      "จ": 1391,
      "ฉ": 1392,
      "ช": 1393,
      "ซ": 1394,
      "ฌ": 1395,
      "ญ": 1396,
      "ฎ": 1397,
      "ฏ": 1398,
      "ฐ": 1399,
      "ฑ": 1400,
      "ฒ": 1401,
      "ณ": 1402,
      "ด": 1403,
      "ต": 1404,
      "ถ": 1405,
      "ท": 1406,
      "ธ": 1407,
      "น": 1408,
      "บ": 1409,
      "ป": 1410,
      "ผ": 1411,
      "ฝ": 1412,
      "พ": 1413,
      "ฟ": 1414,
      "ภ": 1415,
      "ม": 1416,
      "ย": 1417,
      "ร": 1418,
      "ฤ": 1419,
      "ล": 1420,
      "ว": 1421,
      "ศ": 1422,
      "ษ": 1423,
      "ส": 1424,
      "ห": 1425,
      "ฬ": 1426,
      "อ": 1427,
      "ฮ": 1428,
      "ฯ": 1429,
      "ะ": 1430,
      "ั": 1431,
      "า": 1432,
      "ำ": 1433,
      "ิ": 1434,
      "ี": 1435,
      "ึ": 1436,
      "ื": 1437,
      "ุ": 1438,
      "ู": 1439,
      "ฺ": 1440,
      "฿": 1441,
      "เ": 1442,
      "แ": 1443,
      "โ": 1444,
      "ใ": 1445,
      "ไ": 1446,
      "ๅ": 1447,
      "ๆ": 1448,
      "็": 1449,
      "่": 1450,
      "้": 1451,
      "๊": 1452,
      "๋": 1453,
      "์": 1454,
      "ํ": 1455,
      "๏": 1456,
      "๐": 1457,
      "๑": 1458,
      "๔": 1459,
      "๕": 1460,
      "๖": 1461,
      "๗": 1462,
      "๘": 1463,
      "๙": 1464,
      "๜": 1465,
      "๝": 1466,
      "ກ": 1467,
      "ຂ": 1468,
      "ຄ": 1469,
      "ງ": 1470,
      "ຈ": 1471,
      "ຊ": 1472,
      "ຍ": 1473,
      "ດ": 1474,
      "ຕ": 1475,
      "ຖ": 1476,
      "ທ": 1477,
      "ນ": 1478,
      "ບ": 1479,
      "ປ": 1480,
      "ຜ": 1481,
      "ພ": 1482,
      "ມ": 1483,
      "ຢ": 1484,
      "ຣ": 1485,
      "ລ": 1486,
      "ວ": 1487,
      "ສ": 1488,
      "ຫ": 1489,
      "ອ": 1490,
      "ຮ": 1491,
      "ະ": 1492,
      "ັ": 1493,
      "າ": 1494,
      "ຳ": 1495,
      "ິ": 1496,
      "ີ": 1497,
      "ຶ": 1498,
      "ື": 1499,
      "ຸ": 1500,
      "ູ": 1501,
      "ົ": 1502,
      "ຼ": 1503,
      "ຽ": 1504,
      "ເ": 1505,
      "ແ": 1506,
      "ໂ": 1507,
      "ໃ": 1508,
      "ໄ": 1509,
      "ໆ": 1510,
      "່": 1511,
      "້": 1512,
      "ໍ": 1513,
      "་": 1514,
      "།": 1515,
      "༧": 1516,
      "༼": 1517,
      "༽": 1518,
      "ཀ": 1519,
      "ང": 1520,
      "ཉ": 1521,
      "ད": 1522,
      "ན": 1523,
      "པ": 1524,
      "བ": 1525,
      "མ": 1526,
      "ཙ": 1527,
      "ཡ": 1528,
      "ར": 1529,
      "ཤ": 1530,
      "ས": 1531,
      "ཧ": 1532,
      "ཨ": 1533,
      "ཱ": 1534,
      "ི": 1535,
      "ུ": 1536,
      "ེ": 1537,
      "ོ": 1538,
      "ྃ": 1539,
      "ྒ": 1540,
      "ྱ": 1541,
      "࿹": 1542,
      "က": 1543,
      "ခ": 1544,
      "င": 1545,
      "စ": 1546,
      "ဆ": 1547,
      "ည": 1548,
      "တ": 1549,
      "ထ": 1550,
      "န": 1551,
      "ပ": 1552,
      "မ": 1553,
      "ရ": 1554,
      "လ": 1555,
      "သ": 1556,
      "အ": 1557,
      "ာ": 1558,
      "ိ": 1559,
      "ီ": 1560,
      "ု": 1561,
      "ူ": 1562,
      "ေ": 1563,
      "ဲ": 1564,
      "ံ": 1565,
      "့": 1566,
      "း": 1567,
      "္": 1568,
      "်": 1569,
      "ျ": 1570,
      "ြ": 1571,
      "ွ": 1572,
      "။": 1573,
      "၏": 1574,
      "႔": 1575,
      "႕": 1576,
      "Ⴎ": 1577,
      "ა": 1578,
      "ბ": 1579,
      "გ": 1580,
      "დ": 1581,
      "ე": 1582,
      "ვ": 1583,
      "ზ": 1584,
      "თ": 1585,
      "ი": 1586,
      "კ": 1587,
      "ლ": 1588,
      "მ": 1589,
      "ნ": 1590,
      "ო": 1591,
      "პ": 1592,
      "ჟ": 1593,
      "რ": 1594,
      "ს": 1595,
      "ტ": 1596,
      "უ": 1597,
      "ფ": 1598,
      "ქ": 1599,
      "ღ": 1600,
      "ყ": 1601,
      "შ": 1602,
      "ჩ": 1603,
      "ც": 1604,
      "ძ": 1605,
      "წ": 1606,
      "ხ": 1607,
      "ჯ": 1608,
      "ჲ": 1609,
      "ჴ": 1610,
      "ჵ": 1611,
      "ჶ": 1612,
      "ჷ": 1613,
      "ჸ": 1614,
      "ჹ": 1615,
      "ჺ": 1616,
      "჻": 1617,
      "ჼ": 1618,
      "ჽ": 1619,
      "ჾ": 1620,
      "ჿ": 1621,
      "ᄀ": 1622,
      "ᄂ": 1623,
      "ᄃ": 1624,
      "ᄅ": 1625,
      "ᄇ": 1626,
      "ᄋ": 1627,
      "ᄒ": 1628,
      "ᅡ": 1629,
      "ᅣ": 1630,
      "ᅥ": 1631,
      "ᅧ": 1632,
      "ᅩ": 1633,
      "ᅲ": 1634,
      "ᅳ": 1635,
      "ᅴ": 1636,
      "ᆞ": 1637,
      "ᆫ": 1638,
      "ᆯ": 1639,
      "ᆷ": 1640,
      "ᇀ": 1641,
      "ሁ": 1642,
      "ሃ": 1643,
      "ህ": 1644,
      "ሆ": 1645,
      "ለ": 1646,
      "ሉ": 1647,
      "ላ": 1648,
      "ል": 1649,
      "ሓ": 1650,
      "መ": 1651,
      "ሙ": 1652,
      "ሚ": 1653,
      "ማ": 1654,
      "ሜ": 1655,
      "ም": 1656,
      "ሣ": 1657,
      "ረ": 1658,
      "ሩ": 1659,
      "ሪ": 1660,
      "ራ": 1661,
      "ር": 1662,
      "ሮ": 1663,
      "ሰ": 1664,
      "ሱ": 1665,
      "ሳ": 1666,
      "ስ": 1667,
      "ሽ": 1668,
      "ሾ": 1669,
      "ቀ": 1670,
      "ቅ": 1671,
      "በ": 1672,
      "ባ": 1673,
      "ቤ": 1674,
      "ብ": 1675,
      "ቦ": 1676,
      "ተ": 1677,
      "ቱ": 1678,
      "ቲ": 1679,
      "ታ": 1680,
      "ት": 1681,
      "ቶ": 1682,
      "ቸ": 1683,
      "ቻ": 1684,
      "ች": 1685,
      "ነ": 1686,
      "ኑ": 1687,
      "ና": 1688,
      "ን": 1689,
      "ኛ": 1690,
      "አ": 1691,
      "ኢ": 1692,
      "እ": 1693,
      "ከ": 1694,
      "ኪ": 1695,
      "ካ": 1696,
      "ክ": 1697,
      "ኮ": 1698,
      "ወ": 1699,
      "ዉ": 1700,
      "ዊ": 1701,
      "ው": 1702,
      "ዎ": 1703,
      "ዘ": 1704,
      "ዚ": 1705,
      "የ": 1706,
      "ዩ": 1707,
      "ያ": 1708,
      "ይ": 1709,
      "ዮ": 1710,
      "ደ": 1711,
      "ዲ": 1712,
      "ዳ": 1713,
      "ዴ": 1714,
      "ድ": 1715,
      "ጀ": 1716,
      "ገ": 1717,
      "ግ": 1718,
      "ጠ": 1719,
      "ጣ": 1720,
      "ጥ": 1721,
      "ጨ": 1722,
      "ጭ": 1723,
      "ጵ": 1724,
      "ፈ": 1725,
      "ፊ": 1726,
      "ፌ": 1727,
      "ፍ": 1728,
      "ፎ": 1729,
      "ፕ": 1730,
      "፡": 1731,
      "።": 1732,
      "፣": 1733,
      "፤": 1734,
      "፪": 1735,
      "፲": 1736,
      "Ꭰ": 1737,
      "Ꭱ": 1738,
      "Ꭴ": 1739,
      "Ꭹ": 1740,
      "Ꭺ": 1741,
      "Ꭼ": 1742,
      "Ꮇ": 1743,
      "Ꮋ": 1744,
      "Ꮍ": 1745,
      "Ꮎ": 1746,
      "Ꮕ": 1747,
      "Ꮖ": 1748,
      "Ꮝ": 1749,
      "Ꮣ": 1750,
      "Ꮤ": 1751,
      "Ꮦ": 1752,
      "Ꮧ": 1753,
      "Ꮨ": 1754,
      "Ꮩ": 1755,
      "Ꮮ": 1756,
      "Ꮯ": 1757,
      "Ꮲ": 1758,
      "Ꮳ": 1759,
      "Ꮵ": 1760,
      "Ꮶ": 1761,
      "Ᏹ": 1762,
      "Ᏺ": 1763,
      "Ᏼ": 1764,
      "ᐃ": 1765,
      "ᐅ": 1766,
      "ᐈ": 1767,
      "ᐉ": 1768,
      "ᐊ": 1769,
      "ᐐ": 1770,
      "ᐑ": 1771,
      "ᐓ": 1772,
      "ᐔ": 1773,
      "ᐕ": 1774,
      "ᐖ": 1775,
      "ᐗ": 1776,
      "ᐘ": 1777,
      "ᐙ": 1778,
      "ᐚ": 1779,
      "ᐥ": 1780,
      "ᐧ": 1781,
      "ᐻ": 1782,
      "ᓚ": 1783,
      "ᔤ": 1784,
      "ᕋ": 1785,
      "ᕼ": 1786,
      "ᖆ": 1787,
      "ᗢ": 1788,
      "ᗩ": 1789,
      "ᘏ": 1790,
      "ᚢ": 1791,
      "ᚱ": 1792,
      "ᚴ": 1793,
      "ក": 1794,
      "ខ": 1795,
      "គ": 1796,
      "ឃ": 1797,
      "ង": 1798,
      "ច": 1799,
      "ជ": 1800,
      "ឈ": 1801,
      "ញ": 1802,
      "ដ": 1803,
      "ឌ": 1804,
      "ណ": 1805,
      "ត": 1806,
      "ថ": 1807,
      "ទ": 1808,
      "ន": 1809,
      "ប": 1810,
      "ផ": 1811,
      "ព": 1812,
      "ភ": 1813,
      "ម": 1814,
      "យ": 1815,
      "រ": 1816,
      "ល": 1817,
      "វ": 1818,
      "ស": 1819,
      "ហ": 1820,
      "អ": 1821,
      "ា": 1822,
      "ិ": 1823,
      "ី": 1824,
      "ឺ": 1825,
      "ុ": 1826,
      "ូ": 1827,
      "ួ": 1828,
      "ើ": 1829,
      "ៀ": 1830,
      "េ": 1831,
      "ែ": 1832,
      "ៃ": 1833,
      "ោ": 1834,
      "ំ": 1835,
      "ះ": 1836,
      "ៈ": 1837,
      "៉": 1838,
      "់": 1839,
      "៍": 1840,
      "៏": 1841,
      "្": 1842,
      "។": 1843,
      "ᦟ": 1844,
      "Ა": 1845,
      "ᴀ": 1846,
      "ᴄ": 1847,
      "ᴅ": 1848,
      "ᴇ": 1849,
      "ᴏ": 1850,
      "ᴗ": 1851,
      "ᴘ": 1852,
      "ᴛ": 1853,
      "ᴜ": 1854,
      "ᴠ": 1855,
      "ᴡ": 1856,
      "ᴥ": 1857,
      "ᵀ": 1858,
      "ᵂ": 1859,
      "ᵃ": 1860,
      "ᵅ": 1861,
      "ᵇ": 1862,
      "ᵈ": 1863,
      "ᵉ": 1864,
      "ᵍ": 1865,
      "ᵏ": 1866,
      "ᵐ": 1867,
      "ᵒ": 1868,
      "ᵗ": 1869,
      "ᵘ": 1870,
      "ᵜ": 1871,
      "ᶜ": 1872,
      "ᶠ": 1873,
      "ᶦ": 1874,
      "ḁ": 1875,
      "Ḍ": 1876,
      "ḍ": 1877,
      "ḗ": 1878,
      "Ḥ": 1879,
      "ḥ": 1880,
      "Ḩ": 1881,
      "ḫ": 1882,
      "ḱ": 1883,
      "Ḳ": 1884,
      "ḵ": 1885,
      "ḷ": 1886,
      "ḻ": 1887,
      "ḿ": 1888,
      "ṁ": 1889,
      "ṃ": 1890,
      "ṅ": 1891,
      "ṇ": 1892,
      "ṓ": 1893,
      "ṛ": 1894,
      "ṟ": 1895,
      "Ṡ": 1896,
      "ṡ": 1897,
      "Ṣ": 1898,
      "ṣ": 1899,
      "Ṭ": 1900,
      "ṭ": 1901,
      "ṯ": 1902,
      "ṹ": 1903,
      "ẇ": 1904,
      "ẕ": 1905,
      "ẞ": 1906,
      "ạ": 1907,
      "Ả": 1908,
      "ả": 1909,
      "Ấ": 1910,
      "ấ": 1911,
      "ầ": 1912,
      "Ẩ": 1913,
      "ẩ": 1914,
      "ẫ": 1915,
      "Ậ": 1916,
      "ậ": 1917,
      "ắ": 1918,
      "ằ": 1919,
      "ẳ": 1920,
      "ẵ": 1921,
      "ặ": 1922,
      "Ẹ": 1923,
      "ẹ": 1924,
      "ẻ": 1925,
      "ẽ": 1926,
      "ế": 1927,
      "Ề": 1928,
      "ề": 1929,
      "Ể": 1930,
      "ể": 1931,
      "Ễ": 1932,
      "ễ": 1933,
      "Ệ": 1934,
      "ệ": 1935,
      "ỉ": 1936,
      "ị": 1937,
      "Ọ": 1938,
      "ọ": 1939,
      "Ỏ": 1940,
      "ỏ": 1941,
      "Ố": 1942,
      "ố": 1943,
      "Ồ": 1944,
      "ồ": 1945,
      "Ổ": 1946,
      "ổ": 1947,
      "ỗ": 1948,
      "ộ": 1949,
      "ớ": 1950,
      "ờ": 1951,
      "Ở": 1952,
      "ở": 1953,
      "ỡ": 1954,
      "ợ": 1955,
      "Ụ": 1956,
      "ụ": 1957,
      "Ủ": 1958,
      "ủ": 1959,
      "Ứ": 1960,
      "ứ": 1961,
      "Ừ": 1962,
      "ừ": 1963,
      "ử": 1964,
      "ữ": 1965,
      "Ự": 1966,
      "ự": 1967,
      "ỳ": 1968,
      "ỷ": 1969,
      "Ỹ": 1970,
      "ỹ": 1971,
      "ἀ": 1972,
      "ἁ": 1973,
      "ἄ": 1974,
      "Ἀ": 1975,
      "Ἄ": 1976,
      "ἐ": 1977,
      "ἑ": 1978,
      "ἔ": 1979,
      "ἕ": 1980,
      "ἡ": 1981,
      "ἢ": 1982,
      "ἧ": 1983,
      "Ἡ": 1984,
      "ἰ": 1985,
      "ἱ": 1986,
      "ἴ": 1987,
      "ἶ": 1988,
      "Ἰ": 1989,
      "Ἱ": 1990,
      "ὀ": 1991,
      "ὁ": 1992,
      "ὄ": 1993,
      "ὅ": 1994,
      "Ὀ": 1995,
      "Ὄ": 1996,
      "ὐ": 1997,
      "ὑ": 1998,
      "ὕ": 1999,
      "ὖ": 2000,
      "ὠ": 2001,
      "ὡ": 2002,
      "ὣ": 2003,
      "ὥ": 2004,
      "ὦ": 2005,
      "Ὡ": 2006,
      "ὰ": 2007,
      "ὲ": 2008,
      "ὴ": 2009,
      "ὶ": 2010,
      "ὸ": 2011,
      "ὺ": 2012,
      "ὼ": 2013,
      "ᾖ": 2014,
      "ᾳ": 2015,
      "ᾶ": 2016,
      "ῃ": 2017,
      "ῆ": 2018,
      "ῇ": 2019,
      "ῖ": 2020,
      "ῥ": 2021,
      "ῦ": 2022,
      "ῳ": 2023,
      "ῶ": 2024,
      "ῷ": 2025,
      "​": 2026,
      "‌": 2027,
      "‍": 2028,
      "‎": 2029,
      "‏": 2030,
      "‐": 2031,
      "‑": 2032,
      "‒": 2033,
      "–": 2034,
      "—": 2035,
      "―": 2036,
      "‖": 2037,
      "‘": 2038,
      "’": 2039,
      "‚": 2040,
      "‛": 2041,
      "“": 2042,
      "”": 2043,
      "„": 2044,
      "†": 2045,
      "‡": 2046,
      "•": 2047,
      "‣": 2048,
      "․": 2049,
      "‥": 2050,
      "…": 2051,
      "‧": 2052,
      "‪": 2053,
      "‫": 2054,
      "‬": 2055,
      "‭": 2056,
      "‰": 2057,
      "′": 2058,
      "″": 2059,
      "‵": 2060,
      "‹": 2061,
      "›": 2062,
      "※": 2063,
      "‼": 2064,
      "‿": 2065,
      "⁂": 2066,
      "⁃": 2067,
      "⁄": 2068,
      "⁇": 2069,
      "⁉": 2070,
      "⁏": 2071,
      "⁜": 2072,
      "⁠": 2073,
      "⁡": 2074,
      "⁣": 2075,
      "⁦": 2076,
      "ⁱ": 2077,
      "⁴": 2078,
      "⁵": 2079,
      "⁶": 2080,
      "⁷": 2081,
      "⁸": 2082,
      "⁺": 2083,
      "⁻": 2084,
      "⁼": 2085,
      "₀": 2086,
      "₁": 2087,
      "₂": 2088,
      "₃": 2089,
      "₄": 2090,
      "₅": 2091,
      "₆": 2092,
      "₇": 2093,
      "₈": 2094,
      "₉": 2095,
      "₊": 2096,
      "₋": 2097,
      "ₐ": 2098,
      "ₓ": 2099,
      "ₙ": 2100,
      "₡": 2101,
      "₦": 2102,
      "₩": 2103,
      "₪": 2104,
      "€": 2105,
      "₮": 2106,
      "₹": 2107,
      "₺": 2108,
      "₽": 2109,
      "⃗": 2110,
      "⃣": 2111,
      "℃": 2112,
      "℉": 2113,
      "ℊ": 2114,
      "ℋ": 2115,
      "ℌ": 2116,
      "ℏ": 2117,
      "ℐ": 2118,
      "ℒ": 2119,
      "ℓ": 2120,
      "ℕ": 2121,
      "№": 2122,
      "ℙ": 2123,
      "ℝ": 2124,
      "℠": 2125,
      "™": 2126,
      "ℤ": 2127,
      "Ω": 2128,
      "ℯ": 2129,
      "ℴ": 2130,
      "ℵ": 2131,
      "ℹ": 2132,
      "⅍": 2133,
      "⅓": 2134,
      "⅔": 2135,
      "⅕": 2136,
      "⅖": 2137,
      "⅗": 2138,
      "⅘": 2139,
      "⅙": 2140,
      "⅚": 2141,
      "⅛": 2142,
      "⅜": 2143,
      "⅝": 2144,
      "⅞": 2145,
      "⅟": 2146,
      "Ⅰ": 2147,
      "Ⅱ": 2148,
      "Ⅳ": 2149,
      "Ⅷ": 2150,
      "Ⅸ": 2151,
      "Ⅹ": 2152,
      "Ↄ": 2153,
      "←": 2154,
      "↑": 2155,
      "→": 2156,
      "↓": 2157,
      "↔": 2158,
      "↗": 2159,
      "↦": 2160,
      "↩": 2161,
      "↯": 2162,
      "↵": 2163,
      "⇆": 2164,
      "⇌": 2165,
      "⇐": 2166,
      "⇑": 2167,
      "⇒": 2168,
      "⇔": 2169,
      "∀": 2170,
      "∂": 2171,
      "∃": 2172,
      "∅": 2173,
      "∆": 2174,
      "∇": 2175,
      "∈": 2176,
      "∉": 2177,
      "∊": 2178,
      "∎": 2179,
      "∏": 2180,
      "∑": 2181,
      "−": 2182,
      "∕": 2183,
      "∖": 2184,
      "∗": 2185,
      "∘": 2186,
      "∙": 2187,
      "√": 2188,
      "∝": 2189,
      "∞": 2190,
      "∠": 2191,
      "∣": 2192,
      "∥": 2193,
      "∧": 2194,
      "∨": 2195,
      "∩": 2196,
      "∪": 2197,
      "∫": 2198,
      "∮": 2199,
      "∴": 2200,
      "∶": 2201,
      "∼": 2202,
      "∽": 2203,
      "≃": 2204,
      "≅": 2205,
      "≈": 2206,
      "≒": 2207,
      "≔": 2208,
      "≠": 2209,
      "≡": 2210,
      "≢": 2211,
      "≤": 2212,
      "≥": 2213,
      "≦": 2214,
      "≧": 2215,
      "≪": 2216,
      "≫": 2217,
      "≺": 2218,
      "⊂": 2219,
      "⊃": 2220,
      "⊆": 2221,
      "⊇": 2222,
      "⊕": 2223,
      "⊖": 2224,
      "⊗": 2225,
      "⊘": 2226,
      "⊢": 2227,
      "⊤": 2228,
      "⊥": 2229,
      "⊨": 2230,
      "⋀": 2231,
      "⋃": 2232,
      "⋅": 2233,
      "⋆": 2234,
      "⋐": 2235,
      "⋑": 2236,
      "⋘": 2237,
      "⋮": 2238,
      "⋯": 2239,
      "⌃": 2240,
      "⌈": 2241,
      "⌉": 2242,
      "⌐": 2243,
      "⌒": 2244,
      "⌓": 2245,
      "⌘": 2246,
      "⌚": 2247,
      "⌛": 2248,
      "⌥": 2249,
      "⌧": 2250,
      "⌨": 2251,
      "⌫": 2252,
      "⍝": 2253,
      "⍨": 2254,
      "⍴": 2255,
      "⍵": 2256,
      "⍺": 2257,
      "⎛": 2258,
      "⎜": 2259,
      "⎝": 2260,
      "⎞": 2261,
      "⎟": 2262,
      "⎠": 2263,
      "⎡": 2264,
      "⎢": 2265,
      "⎣": 2266,
      "⎤": 2267,
      "⎦": 2268,
      "⏏": 2269,
      "⏤": 2270,
      "⏩": 2271,
      "⏫": 2272,
      "⏰": 2273,
      "⏳": 2274,
      "⏹": 2275,
      "⑀": 2276,
      "⑁": 2277,
      "①": 2278,
      "②": 2279,
      "③": 2280,
      "④": 2281,
      "⑤": 2282,
      "⑥": 2283,
      "⑦": 2284,
      "ⓛ": 2285,
      "─": 2286,
      "━": 2287,
      "│": 2288,
      "┌": 2289,
      "┏": 2290,
      "┐": 2291,
      "└": 2292,
      "┘": 2293,
      "┛": 2294,
      "├": 2295,
      "┤": 2296,
      "┬": 2297,
      "┴": 2298,
      "┻": 2299,
      "┼": 2300,
      "═": 2301,
      "║": 2302,
      "╓": 2303,
      "╔": 2304,
      "╗": 2305,
      "╚": 2306,
      "╝": 2307,
      "╠": 2308,
      "╡": 2309,
      "╣": 2310,
      "╤": 2311,
      "╥": 2312,
      "╦": 2313,
      "╧": 2314,
      "╨": 2315,
      "╩": 2316,
      "╬": 2317,
      "╭": 2318,
      "╮": 2319,
      "╯": 2320,
      "╰": 2321,
      "▁": 2322,
      "▄": 2323,
      "█": 2324,
      "▉": 2325,
      "▌": 2326,
      "▐": 2327,
      "░": 2328,
      "▒": 2329,
      "▓": 2330,
      "■": 2331,
      "□": 2332,
      "▪": 2333,
      "▲": 2334,
      "△": 2335,
      "▶": 2336,
      "▼": 2337,
      "▽": 2338,
      "▾": 2339,
      "◀": 2340,
      "◁": 2341,
      "◆": 2342,
      "◇": 2343,
      "◊": 2344,
      "○": 2345,
      "◎": 2346,
      "●": 2347,
      "◔": 2348,
      "◕": 2349,
      "◠": 2350,
      "◡": 2351,
      "◦": 2352,
      "◯": 2353,
      "◻": 2354,
      "☀": 2355,
      "☁": 2356,
      "☂": 2357,
      "☄": 2358,
      "★": 2359,
      "☆": 2360,
      "☇": 2361,
      "☉": 2362,
      "☎": 2363,
      "☏": 2364,
      "☐": 2365,
      "☑": 2366,
      "☒": 2367,
      "☔": 2368,
      "☕": 2369,
      "☛": 2370,
      "☝": 2371,
      "☞": 2372,
      "☠": 2373,
      "☤": 2374,
      "☰": 2375,
      "☹": 2376,
      "☺": 2377,
      "☻": 2378,
      "♀": 2379,
      "♂": 2380,
      "♉": 2381,
      "♌": 2382,
      "♔": 2383,
      "♕": 2384,
      "♖": 2385,
      "♗": 2386,
      "♘": 2387,
      "♙": 2388,
      "♚": 2389,
      "♛": 2390,
      "♜": 2391,
      "♝": 2392,
      "♞": 2393,
      "♟": 2394,
      "♠": 2395,
      "♡": 2396,
      "♢": 2397,
      "♣": 2398,
      "♤": 2399,
      "♥": 2400,
      "♦": 2401,
      "♧": 2402,
      "♨": 2403,
      "♩": 2404,
      "♪": 2405,
      "♫": 2406,
      "♬": 2407,
      "♭": 2408,
      "♮": 2409,
      "♯": 2410,
      "♰": 2411,
      "♱": 2412,
      "♲": 2413,
      "♳": 2414,
      "♴": 2415,
      "♵": 2416,
      "♶": 2417,
      "♷": 2418,
      "♸": 2419,
      "♹": 2420,
      "♺": 2421,
      "♻": 2422,
      "♼": 2423,
      "♽": 2424,
      "♾": 2425,
      "♿": 2426,
      "⚀": 2427,
      "⚁": 2428,
      "⚂": 2429,
      "⚃": 2430,
      "⚄": 2431,
      "⚅": 2432,
      "⚆": 2433,
      "⚇": 2434,
      "⚈": 2435,
      "⚉": 2436,
      "⚊": 2437,
      "⚋": 2438,
      "⚌": 2439,
      "⚍": 2440,
      "⚎": 2441,
      "⚏": 2442,
      "⚐": 2443,
      "⚑": 2444,
      "⚒": 2445,
      "⚓": 2446,
      "⚔": 2447,
      "⚕": 2448,
      "⚖": 2449,
      "⚙": 2450,
      "⚛": 2451,
      "⚠": 2452,
      "⚡": 2453,
      "⚫": 2454,
      "⚰": 2455,
      "⚽": 2456,
      "⛅": 2457,
      "⛈": 2458,
      "⛰": 2459,
      "⛱": 2460,
      "⛳": 2461,
      "⛴": 2462,
      "⛵": 2463,
      "✂": 2464,
      "✅": 2465,
      "✈": 2466,
      "✊": 2467,
      "✌": 2468,
      "✍": 2469,
      "✏": 2470,
      "✓": 2471,
      "✔": 2472,
      "✕": 2473,
      "✖": 2474,
      "✗": 2475,
      "✘": 2476,
      "✥": 2477,
      "✦": 2478,
      "✧": 2479,
      "✨": 2480,
      "✴": 2481,
      "✿": 2482,
      "❀": 2483,
      "❁": 2484,
      "❄": 2485,
      "❇": 2486,
      "❌": 2487,
      "❎": 2488,
      "❏": 2489,
      "❑": 2490,
      "❒": 2491,
      "❓": 2492,
      "❖": 2493,
      "❗": 2494,
      "❜": 2495,
      "❝": 2496,
      "❞": 2497,
      "❣": 2498,
      "❤": 2499,
      "❥": 2500,
      "❯": 2501,
      "❶": 2502,
      "❷": 2503,
      "➔": 2504,
      "➕": 2505,
      "➖": 2506,
      "➞": 2507,
      "➡": 2508,
      "➢": 2509,
      "➥": 2510,
      "⟌": 2511,
      "⟨": 2512,
      "⟩": 2513,
      "⟪": 2514,
      "⟵": 2515,
      "⟶": 2516,
      "⠀": 2517,
      "⤵": 2518,
      "⥁": 2519,
      "⥽": 2520,
      "⦎": 2521,
      "⦏": 2522,
      "⦝": 2523,
      "⦽": 2524,
      "⦿": 2525,
      "⨝": 2526,
      "⩠": 2527,
      "⩽": 2528,
      "⬅": 2529,
      "⬆": 2530,
      "⬇": 2531,
      "⬜": 2532,
      "⭐": 2533,
      "Ɐ": 2534,
      "Ɒ": 2535,
      "Ⱶ": 2536,
      "ⱶ": 2537,
      "ⱷ": 2538,
      "Ⲳ": 2539,
      "ⴰ": 2540,
      "ⴼ": 2541,
      "ⵉ": 2542,
      "ⵎ": 2543,
      "ⵓ": 2544,
      "ⵔ": 2545,
      "ⵖ": 2546,
      "ⵙ": 2547,
      "ⵜ": 2548,
      "ⵣ": 2549,
      "⸿": 2550,
      "⺩": 2551,
      "⺬": 2552,
      "⺮": 2553,
      "⺯": 2554,
      "⻨": 2555,
      "⾊": 2556,
      "⾼": 2557,
      "⿕": 2558,
      "、": 2559,
      "。": 2560,
      "々": 2561,
      "〇": 2562,
      "〈": 2563,
      "〉": 2564,
      "《": 2565,
      "》": 2566,
      "「": 2567,
      "」": 2568,
      "『": 2569,
      "』": 2570,
      "【": 2571,
      "】": 2572,
      "〒": 2573,
      "〔": 2574,
      "〕": 2575,
      "〖": 2576,
      "〗": 2577,
      "〜": 2578,
      "ぁ": 2579,
      "あ": 2580,
      "ぃ": 2581,
      "い": 2582,
      "ぅ": 2583,
      "う": 2584,
      "ぇ": 2585,
      "え": 2586,
      "ぉ": 2587,
      "お": 2588,
      "か": 2589,
      "が": 2590,
      "き": 2591,
      "ぎ": 2592,
      "く": 2593,
      "ぐ": 2594,
      "け": 2595,
      "げ": 2596,
      "こ": 2597,
      "ご": 2598,
      "さ": 2599,
      "ざ": 2600,
      "し": 2601,
      "じ": 2602,
      "す": 2603,
      "ず": 2604,
      "せ": 2605,
      "ぜ": 2606,
      "そ": 2607,
      "ぞ": 2608,
      "た": 2609,
      "だ": 2610,
      "ち": 2611,
      "っ": 2612,
      "つ": 2613,
      "づ": 2614,
      "て": 2615,
      "で": 2616,
      "と": 2617,
      "ど": 2618,
      "な": 2619,
      "に": 2620,
      "ぬ": 2621,
      "ね": 2622,
      "の": 2623,
      "は": 2624,
      "ば": 2625,
      "ぱ": 2626,
      "ひ": 2627,
      "び": 2628,
      "ぴ": 2629,
      "ふ": 2630,
      "ぶ": 2631,
      "ぷ": 2632,
      "へ": 2633,
      "べ": 2634,
      "ぺ": 2635,
      "ほ": 2636,
      "ぼ": 2637,
      "ぽ": 2638,
      "ま": 2639,
      "み": 2640,
      "む": 2641,
      "め": 2642,
      "も": 2643,
      "ゃ": 2644,
      "や": 2645,
      "ゅ": 2646,
      "ゆ": 2647,
      "ょ": 2648,
      "よ": 2649,
      "ら": 2650,
      "り": 2651,
      "る": 2652,
      "れ": 2653,
      "ろ": 2654,
      "わ": 2655,
      "を": 2656,
      "ん": 2657,
      "゙": 2658,
      "゚": 2659,
      "ァ": 2660,
      "ア": 2661,
      "ィ": 2662,
      "イ": 2663,
      "ゥ": 2664,
      "ウ": 2665,
      "ェ": 2666,
      "エ": 2667,
      "ォ": 2668,
      "オ": 2669,
      "カ": 2670,
      "ガ": 2671,
      "キ": 2672,
      "ギ": 2673,
      "ク": 2674,
      "グ": 2675,
      "ケ": 2676,
      "ゲ": 2677,
      "コ": 2678,
      "ゴ": 2679,
      "サ": 2680,
      "ザ": 2681,
      "シ": 2682,
      "ジ": 2683,
      "ス": 2684,
      "ズ": 2685,
      "セ": 2686,
      "ゼ": 2687,
      "ソ": 2688,
      "ゾ": 2689,
      "タ": 2690,
      "ダ": 2691,
      "チ": 2692,
      "ヂ": 2693,
      "ッ": 2694,
      "ツ": 2695,
      "テ": 2696,
      "デ": 2697,
      "ト": 2698,
      "ド": 2699,
      "ナ": 2700,
      "ニ": 2701,
      "ヌ": 2702,
      "ネ": 2703,
      "ノ": 2704,
      "ハ": 2705,
      "バ": 2706,
      "パ": 2707,
      "ヒ": 2708,
      "ビ": 2709,
      "ピ": 2710,
      "フ": 2711,
      "ブ": 2712,
      "プ": 2713,
      "ヘ": 2714,
      "ベ": 2715,
      "ペ": 2716,
      "ホ": 2717,
      "ボ": 2718,
      "ポ": 2719,
      "マ": 2720,
      "ミ": 2721,
      "ム": 2722,
      "メ": 2723,
      "モ": 2724,
      "ャ": 2725,
      "ヤ": 2726,
      "ュ": 2727,
      "ユ": 2728,
      "ョ": 2729,
      "ヨ": 2730,
      "ラ": 2731,
      "リ": 2732,
      "ル": 2733,
      "レ": 2734,
      "ロ": 2735,
      "ヮ": 2736,
      "ワ": 2737,
      "ン": 2738,
      "ヴ": 2739,
      "ヶ": 2740,
      "・": 2741,
      "ー": 2742,
      "ヽ": 2743,
      "ヾ": 2744,
      "ㄱ": 2745,
      "ㄴ": 2746,
      "ㄹ": 2747,
      "ㅅ": 2748,
      "ㅆ": 2749,
      "ㅇ": 2750,
      "ㅊ": 2751,
      "ㅋ": 2752,
      "ㅎ": 2753,
      "ㅏ": 2754,
      "ㅑ": 2755,
      "ㅓ": 2756,
      "ㅔ": 2757,
      "ㅕ": 2758,
      "ㅗ": 2759,
      "ㅛ": 2760,
      "ㅜ": 2761,
      "ㅝ": 2762,
      "ㅞ": 2763,
      "ㅟ": 2764,
      "ㅠ": 2765,
      "ㅡ": 2766,
      "ㅢ": 2767,
      "ㅣ": 2768,
      "ㅤ": 2769,
      "ㅥ": 2770,
      "ㅦ": 2771,
      "ㅧ": 2772,
      "ㅨ": 2773,
      "ㅰ": 2774,
      "ㆍ": 2775,
      "㈜": 2776,
      "㈱": 2777,
      "㈲": 2778,
      "㎡": 2779,
      "㎢": 2780,
      "一": 2781,
      "丁": 2782,
      "七": 2783,
      "万": 2784,
      "丈": 2785,
      "三": 2786,
      "上": 2787,
      "下": 2788,
      "不": 2789,
      "与": 2790,
      "丑": 2791,
      "专": 2792,
      "且": 2793,
      "世": 2794,
      "丘": 2795,
      "丙": 2796,
      "业": 2797,
      "丛": 2798,
      "东": 2799,
      "丝": 2800,
      "両": 2801,
      "丢": 2802,
      "两": 2803,
      "严": 2804,
      "並": 2805,
      "丧": 2806,
      "个": 2807,
      "丫": 2808,
      "中": 2809,
      "丰": 2810,
      "串": 2811,
      "临": 2812,
      "丶": 2813,
      "丸": 2814,
      "丹": 2815,
      "为": 2816,
      "主": 2817,
      "丼": 2818,
      "丽": 2819,
      "举": 2820,
      "乀": 2821,
      "乁": 2822,
      "乂": 2823,
      "乃": 2824,
      "久": 2825,
      "乇": 2826,
      "么": 2827,
      "义": 2828,
      "乊": 2829,
      "之": 2830,
      "乌": 2831,
      "乎": 2832,
      "乏": 2833,
      "乐": 2834,
      "乒": 2835,
      "乓": 2836,
      "乔": 2837,
      "乖": 2838,
      "乗": 2839,
      "乘": 2840,
      "乙": 2841,
      "九": 2842,
      "乞": 2843,
      "也": 2844,
      "乡": 2845,
      "书": 2846,
      "买": 2847,
      "乱": 2848,
      "乲": 2849,
      "乳": 2850,
      "乶": 2851,
      "乷": 2852,
      "乸": 2853,
      "乹": 2854,
      "乺": 2855,
      "乻": 2856,
      "乼": 2857,
      "乽": 2858,
      "乾": 2859,
      "乿": 2860,
      "亀": 2861,
      "了": 2862,
      "予": 2863,
      "争": 2864,
      "事": 2865,
      "二": 2866,
      "于": 2867,
      "亏": 2868,
      "云": 2869,
      "互": 2870,
      "五": 2871,
      "井": 2872,
      "亚": 2873,
      "些": 2874,
      "亜": 2875,
      "亞": 2876,
      "亡": 2877,
      "亢": 2878,
      "交": 2879,
      "亥": 2880,
      "亦": 2881,
      "产": 2882,
      "亨": 2883,
      "亩": 2884,
      "享": 2885,
      "京": 2886,
      "亭": 2887,
      "亮": 2888,
      "亲": 2889,
      "人": 2890,
      "亿": 2891,
      "什": 2892,
      "仁": 2893,
      "仄": 2894,
      "仅": 2895,
      "仆": 2896,
      "仇": 2897,
      "今": 2898,
      "介": 2899,
      "仍": 2900,
      "从": 2901,
      "仏": 2902,
      "仑": 2903,
      "仓": 2904,
      "仔": 2905,
      "仕": 2906,
      "他": 2907,
      "仗": 2908,
      "付": 2909,
      "仙": 2910,
      "代": 2911,
      "以": 2912,
      "仪": 2913,
      "们": 2914,
      "仮": 2915,
      "仰": 2916,
      "仲": 2917,
      "件": 2918,
      "价": 2919,
      "任": 2920,
      "份": 2921,
      "仿": 2922,
      "企": 2923,
      "伊": 2924,
      "伍": 2925,
      "伎": 2926,
      "伏": 2927,
      "伐": 2928,
      "休": 2929,
      "众": 2930,
      "优": 2931,
      "伙": 2932,
      "会": 2933,
      "伝": 2934,
      "伞": 2935,
      "伟": 2936,
      "传": 2937,
      "伤": 2938,
      "伦": 2939,
      "伯": 2940,
      "估": 2941,
      "伴": 2942,
      "伶": 2943,
      "伸": 2944,
      "伺": 2945,
      "似": 2946,
      "伽": 2947,
      "但": 2948,
      "佇": 2949,
      "佈": 2950,
      "位": 2951,
      "低": 2952,
      "住": 2953,
      "佐": 2954,
      "佑": 2955,
      "体": 2956,
      "何": 2957,
      "余": 2958,
      "佛": 2959,
      "作": 2960,
      "你": 2961,
      "佣": 2962,
      "佤": 2963,
      "佩": 2964,
      "佰": 2965,
      "佳": 2966,
      "併": 2967,
      "使": 2968,
      "侄": 2969,
      "來": 2970,
      "侈": 2971,
      "例": 2972,
      "侍": 2973,
      "侖": 2974,
      "供": 2975,
      "依": 2976,
      "侠": 2977,
      "価": 2978,
      "侣": 2979,
      "侦": 2980,
      "侧": 2981,
      "侬": 2982,
      "侮": 2983,
      "侯": 2984,
      "侵": 2985,
      "侶": 2986,
      "便": 2987,
      "係": 2988,
      "促": 2989,
      "俄": 2990,
      "俊": 2991,
      "俏": 2992,
      "俐": 2993,
      "俗": 2994,
      "俚": 2995,
      "保": 2996,
      "信": 2997,
      "俭": 2998,
      "修": 2999,
      "俯": 3000,
      "俱": 3001,
      "俳": 3002,
      "俺": 3003,
      "倉": 3004,
      "個": 3005,
      "倍": 3006,
      "們": 3007,
      "倒": 3008,
      "倘": 3009,
      "候": 3010,
      "倚": 3011,
      "借": 3012,
      "倣": 3013,
      "値": 3014,
      "倦": 3015,
      "倩": 3016,
      "倫": 3017,
      "债": 3018,
      "值": 3019,
      "倾": 3020,
      "偃": 3021,
      "假": 3022,
      "偈": 3023,
      "偉": 3024,
      "偌": 3025,
      "偏": 3026,
      "做": 3027,
      "停": 3028,
      "健": 3029,
      "側": 3030,
      "偶": 3031,
      "偷": 3032,
      "偿": 3033,
      "傅": 3034,
      "傍": 3035,
      "傑": 3036,
      "傘": 3037,
      "備": 3038,
      "傣": 3039,
      "储": 3040,
      "催": 3041,
      "傲": 3042,
      "傳": 3043,
      "債": 3044,
      "傷": 3045,
      "傻": 3046,
      "傾": 3047,
      "僅": 3048,
      "働": 3049,
      "像": 3050,
      "僕": 3051,
      "僚": 3052,
      "僵": 3053,
      "價": 3054,
      "儀": 3055,
      "億": 3056,
      "儉": 3057,
      "儒": 3058,
      "儘": 3059,
      "償": 3060,
      "優": 3061,
      "儲": 3062,
      "儿": 3063,
      "允": 3064,
      "元": 3065,
      "兄": 3066,
      "充": 3067,
      "兆": 3068,
      "先": 3069,
      "光": 3070,
      "克": 3071,
      "免": 3072,
      "兎": 3073,
      "児": 3074,
      "兑": 3075,
      "兒": 3076,
      "兔": 3077,
      "党": 3078,
      "兜": 3079,
      "兟": 3080,
      "入": 3081,
      "內": 3082,
      "全": 3083,
      "兩": 3084,
      "八": 3085,
      "公": 3086,
      "六": 3087,
      "兮": 3088,
      "兰": 3089,
      "共": 3090,
      "关": 3091,
      "兴": 3092,
      "兵": 3093,
      "其": 3094,
      "具": 3095,
      "典": 3096,
      "兹": 3097,
      "养": 3098,
      "兼": 3099,
      "兽": 3100,
      "冀": 3101,
      "内": 3102,
      "円": 3103,
      "冈": 3104,
      "冊": 3105,
      "册": 3106,
      "再": 3107,
      "冒": 3108,
      "冗": 3109,
      "写": 3110,
      "军": 3111,
      "农": 3112,
      "冠": 3113,
      "冥": 3114,
      "冨": 3115,
      "冬": 3116,
      "冯": 3117,
      "冰": 3118,
      "冲": 3119,
      "决": 3120,
      "冴": 3121,
      "况": 3122,
      "冶": 3123,
      "冷": 3124,
      "冻": 3125,
      "冽": 3126,
      "净": 3127,
      "凄": 3128,
      "准": 3129,
      "凉": 3130,
      "凋": 3131,
      "凌": 3132,
      "凍": 3133,
      "减": 3134,
      "凑": 3135,
      "凛": 3136,
      "凝": 3137,
      "几": 3138,
      "凡": 3139,
      "凤": 3140,
      "処": 3141,
      "凪": 3142,
      "凭": 3143,
      "凯": 3144,
      "凰": 3145,
      "凶": 3146,
      "凸": 3147,
      "凹": 3148,
      "击": 3149,
      "函": 3150,
      "凿": 3151,
      "刀": 3152,
      "刁": 3153,
      "分": 3154,
      "切": 3155,
      "刈": 3156,
      "刊": 3157,
      "刑": 3158,
      "划": 3159,
      "列": 3160,
      "刘": 3161,
      "则": 3162,
      "刚": 3163,
      "创": 3164,
      "初": 3165,
      "删": 3166,
      "判": 3167,
      "別": 3168,
      "利": 3169,
      "刪": 3170,
      "别": 3171,
      "刮": 3172,
      "到": 3173,
      "制": 3174,
      "刷": 3175,
      "券": 3176,
      "刹": 3177,
      "刺": 3178,
      "刻": 3179,
      "剁": 3180,
      "剂": 3181,
      "剃": 3182,
      "則": 3183,
      "削": 3184,
      "剋": 3185,
      "前": 3186,
      "剑": 3187,
      "剔": 3188,
      "剖": 3189,
      "剛": 3190,
      "剝": 3191,
      "剣": 3192,
      "剤": 3193,
      "剥": 3194,
      "剧": 3195,
      "剩": 3196,
      "剪": 3197,
      "副": 3198,
      "剰": 3199,
      "割": 3200,
      "創": 3201,
      "劃": 3202,
      "劇": 3203,
      "劈": 3204,
      "劍": 3205,
      "劑": 3206,
      "力": 3207,
      "劝": 3208,
      "办": 3209,
      "功": 3210,
      "加": 3211,
      "务": 3212,
      "劣": 3213,
      "动": 3214,
      "助": 3215,
      "努": 3216,
      "劫": 3217,
      "励": 3218,
      "劲": 3219,
      "劳": 3220,
      "労": 3221,
      "効": 3222,
      "势": 3223,
      "勁": 3224,
      "勃": 3225,
      "勇": 3226,
      "勉": 3227,
      "勋": 3228,
      "勒": 3229,
      "動": 3230,
      "勘": 3231,
      "務": 3232,
      "勝": 3233,
      "勞": 3234,
      "募": 3235,
      "勢": 3236,
      "勤": 3237,
      "勧": 3238,
      "勳": 3239,
      "勵": 3240,
      "勺": 3241,
      "勻": 3242,
      "勾": 3243,
      "勿": 3244,
      "匀": 3245,
      "匂": 3246,
      "包": 3247,
      "匆": 3248,
      "匈": 3249,
      "匕": 3250,
      "化": 3251,
      "北": 3252,
      "匙": 3253,
      "匝": 3254,
      "匠": 3255,
      "匪": 3256,
      "匯": 3257,
      "匹": 3258,
      "区": 3259,
      "医": 3260,
      "匿": 3261,
      "區": 3262,
      "十": 3263,
      "千": 3264,
      "升": 3265,
      "午": 3266,
      "卉": 3267,
      "半": 3268,
      "华": 3269,
      "协": 3270,
      "卑": 3271,
      "卒": 3272,
      "卓": 3273,
      "協": 3274,
      "单": 3275,
      "卖": 3276,
      "南": 3277,
      "単": 3278,
      "博": 3279,
      "卜": 3280,
      "卡": 3281,
      "卢": 3282,
      "卤": 3283,
      "卦": 3284,
      "卧": 3285,
      "卫": 3286,
      "卯": 3287,
      "印": 3288,
      "危": 3289,
      "即": 3290,
      "却": 3291,
      "卵": 3292,
      "卷": 3293,
      "卸": 3294,
      "卻": 3295,
      "厂": 3296,
      "厄": 3297,
      "厅": 3298,
      "历": 3299,
      "厉": 3300,
      "压": 3301,
      "厌": 3302,
      "厕": 3303,
      "厘": 3304,
      "厚": 3305,
      "原": 3306,
      "厢": 3307,
      "厦": 3308,
      "厨": 3309,
      "厭": 3310,
      "厲": 3311,
      "厳": 3312,
      "去": 3313,
      "县": 3314,
      "参": 3315,
      "參": 3316,
      "又": 3317,
      "叉": 3318,
      "及": 3319,
      "友": 3320,
      "双": 3321,
      "反": 3322,
      "収": 3323,
      "发": 3324,
      "叔": 3325,
      "取": 3326,
      "受": 3327,
      "变": 3328,
      "叙": 3329,
      "叛": 3330,
      "叠": 3331,
      "叢": 3332,
      "口": 3333,
      "古": 3334,
      "句": 3335,
      "另": 3336,
      "叨": 3337,
      "叩": 3338,
      "只": 3339,
      "叫": 3340,
      "召": 3341,
      "叭": 3342,
      "可": 3343,
      "台": 3344,
      "叱": 3345,
      "史": 3346,
      "右": 3347,
      "叶": 3348,
      "号": 3349,
      "司": 3350,
      "叹": 3351,
      "叼": 3352,
      "叽": 3353,
      "吁": 3354,
      "吃": 3355,
      "各": 3356,
      "合": 3357,
      "吉": 3358,
      "吊": 3359,
      "同": 3360,
      "名": 3361,
      "后": 3362,
      "吏": 3363,
      "吐": 3364,
      "向": 3365,
      "吓": 3366,
      "吕": 3367,
      "吖": 3368,
      "吗": 3369,
      "君": 3370,
      "吞": 3371,
      "吟": 3372,
      "吠": 3373,
      "否": 3374,
      "吧": 3375,
      "吨": 3376,
      "吩": 3377,
      "含": 3378,
      "听": 3379,
      "启": 3380,
      "吳": 3381,
      "吴": 3382,
      "吵": 3383,
      "吸": 3384,
      "吹": 3385,
      "吻": 3386,
      "吾": 3387,
      "呀": 3388,
      "呂": 3389,
      "呃": 3390,
      "呆": 3391,
      "呈": 3392,
      "呉": 3393,
      "告": 3394,
      "呐": 3395,
      "呑": 3396,
      "呔": 3397,
      "呕": 3398,
      "呗": 3399,
      "员": 3400,
      "呢": 3401,
      "呣": 3402,
      "呤": 3403,
      "周": 3404,
      "味": 3405,
      "呵": 3406,
      "呼": 3407,
      "命": 3408,
      "咀": 3409,
      "咆": 3410,
      "咋": 3411,
      "和": 3412,
      "咎": 3413,
      "咏": 3414,
      "咐": 3415,
      "咕": 3416,
      "咖": 3417,
      "咗": 3418,
      "咙": 3419,
      "咚": 3420,
      "咨": 3421,
      "咩": 3422,
      "咪": 3423,
      "咫": 3424,
      "咬": 3425,
      "咯": 3426,
      "咱": 3427,
      "咲": 3428,
      "咳": 3429,
      "咸": 3430,
      "咽": 3431,
      "哀": 3432,
      "品": 3433,
      "哄": 3434,
      "哇": 3435,
      "哈": 3436,
      "哉": 3437,
      "哋": 3438,
      "响": 3439,
      "哎": 3440,
      "哑": 3441,
      "哔": 3442,
      "哝": 3443,
      "哟": 3444,
      "員": 3445,
      "哥": 3446,
      "哦": 3447,
      "哩": 3448,
      "哪": 3449,
      "哭": 3450,
      "哮": 3451,
      "哲": 3452,
      "哺": 3453,
      "哼": 3454,
      "唆": 3455,
      "唇": 3456,
      "唉": 3457,
      "唐": 3458,
      "唔": 3459,
      "唤": 3460,
      "售": 3461,
      "唯": 3462,
      "唱": 3463,
      "唾": 3464,
      "啁": 3465,
      "啃": 3466,
      "啄": 3467,
      "商": 3468,
      "啊": 3469,
      "問": 3470,
      "啓": 3471,
      "啖": 3472,
      "啟": 3473,
      "啡": 3474,
      "啤": 3475,
      "啥": 3476,
      "啦": 3477,
      "啫": 3478,
      "啶": 3479,
      "啸": 3480,
      "啼": 3481,
      "啾": 3482,
      "喀": 3483,
      "喂": 3484,
      "喃": 3485,
      "善": 3486,
      "喇": 3487,
      "喉": 3488,
      "喊": 3489,
      "喋": 3490,
      "喔": 3491,
      "喘": 3492,
      "喙": 3493,
      "喚": 3494,
      "喜": 3495,
      "喝": 3496,
      "喧": 3497,
      "喩": 3498,
      "喪": 3499,
      "喫": 3500,
      "喬": 3501,
      "單": 3502,
      "喱": 3503,
      "喲": 3504,
      "喳": 3505,
      "喵": 3506,
      "営": 3507,
      "喷": 3508,
      "喹": 3509,
      "喺": 3510,
      "喻": 3511,
      "喽": 3512,
      "嗅": 3513,
      "嗎": 3514,
      "嗓": 3515,
      "嗜": 3516,
      "嗣": 3517,
      "嗨": 3518,
      "嗯": 3519,
      "嗷": 3520,
      "嗽": 3521,
      "嘅": 3522,
      "嘆": 3523,
      "嘈": 3524,
      "嘉": 3525,
      "嘌": 3526,
      "嘎": 3527,
      "嘔": 3528,
      "嘗": 3529,
      "嘘": 3530,
      "嘛": 3531,
      "嘢": 3532,
      "嘩": 3533,
      "嘱": 3534,
      "嘲": 3535,
      "嘴": 3536,
      "嘶": 3537,
      "嘻": 3538,
      "嘿": 3539,
      "噂": 3540,
      "噌": 3541,
      "噢": 3542,
      "器": 3543,
      "噩": 3544,
      "噪": 3545,
      "噬": 3546,
      "噴": 3547,
      "噺": 3548,
      "嚏": 3549,
      "嚣": 3550,
      "嚨": 3551,
      "嚮": 3552,
      "嚴": 3553,
      "嚼": 3554,
      "囉": 3555,
      "囊": 3556,
      "囍": 3557,
      "囚": 3558,
      "四": 3559,
      "回": 3560,
      "因": 3561,
      "団": 3562,
      "囤": 3563,
      "园": 3564,
      "困": 3565,
      "囱": 3566,
      "囲": 3567,
      "図": 3568,
      "围": 3569,
      "固": 3570,
      "国": 3571,
      "图": 3572,
      "圆": 3573,
      "圈": 3574,
      "國": 3575,
      "圍": 3576,
      "圏": 3577,
      "園": 3578,
      "圓": 3579,
      "圖": 3580,
      "土": 3581,
      "圡": 3582,
      "圣": 3583,
      "圧": 3584,
      "在": 3585,
      "圫": 3586,
      "圭": 3587,
      "地": 3588,
      "场": 3589,
      "址": 3590,
      "坂": 3591,
      "均": 3592,
      "坊": 3593,
      "坎": 3594,
      "坏": 3595,
      "坐": 3596,
      "坑": 3597,
      "块": 3598,
      "坚": 3599,
      "坛": 3600,
      "坝": 3601,
      "坞": 3602,
      "坟": 3603,
      "坠": 3604,
      "坡": 3605,
      "坤": 3606,
      "坦": 3607,
      "坩": 3608,
      "坪": 3609,
      "坯": 3610,
      "垂": 3611,
      "垄": 3612,
      "型": 3613,
      "垒": 3614,
      "垢": 3615,
      "垣": 3616,
      "垦": 3617,
      "垫": 3618,
      "垮": 3619,
      "埃": 3620,
      "埉": 3621,
      "埋": 3622,
      "城": 3623,
      "埔": 3624,
      "埕": 3625,
      "域": 3626,
      "執": 3627,
      "培": 3628,
      "基": 3629,
      "埼": 3630,
      "堀": 3631,
      "堂": 3632,
      "堅": 3633,
      "堆": 3634,
      "堕": 3635,
      "堡": 3636,
      "堤": 3637,
      "堪": 3638,
      "堰": 3639,
      "報": 3640,
      "場": 3641,
      "堵": 3642,
      "堺": 3643,
      "堽": 3644,
      "塊": 3645,
      "塌": 3646,
      "塑": 3647,
      "塒": 3648,
      "塔": 3649,
      "塗": 3650,
      "塘": 3651,
      "塚": 3652,
      "塞": 3653,
      "塩": 3654,
      "填": 3655,
      "塵": 3656,
      "塾": 3657,
      "境": 3658,
      "墅": 3659,
      "墊": 3660,
      "墓": 3661,
      "増": 3662,
      "墙": 3663,
      "墜": 3664,
      "增": 3665,
      "墟": 3666,
      "墨": 3667,
      "墩": 3668,
      "墻": 3669,
      "壁": 3670,
      "壃": 3671,
      "壊": 3672,
      "壌": 3673,
      "壑": 3674,
      "壓": 3675,
      "壖": 3676,
      "壞": 3677,
      "壤": 3678,
      "士": 3679,
      "壬": 3680,
      "壮": 3681,
      "壯": 3682,
      "声": 3683,
      "売": 3684,
      "壳": 3685,
      "壶": 3686,
      "壺": 3687,
      "壽": 3688,
      "处": 3689,
      "备": 3690,
      "夈": 3691,
      "変": 3692,
      "复": 3693,
      "夏": 3694,
      "夕": 3695,
      "外": 3696,
      "多": 3697,
      "夜": 3698,
      "够": 3699,
      "夠": 3700,
      "夢": 3701,
      "夥": 3702,
      "大": 3703,
      "天": 3704,
      "太": 3705,
      "夫": 3706,
      "夭": 3707,
      "央": 3708,
      "失": 3709,
      "头": 3710,
      "夸": 3711,
      "夹": 3712,
      "夺": 3713,
      "夻": 3714,
      "奇": 3715,
      "奈": 3716,
      "奉": 3717,
      "奋": 3718,
      "奏": 3719,
      "契": 3720,
      "奔": 3721,
      "奖": 3722,
      "套": 3723,
      "奠": 3724,
      "奢": 3725,
      "奥": 3726,
      "奨": 3727,
      "奪": 3728,
      "奭": 3729,
      "奮": 3730,
      "女": 3731,
      "奴": 3732,
      "奶": 3733,
      "她": 3734,
      "好": 3735,
      "如": 3736,
      "妄": 3737,
      "妆": 3738,
      "妇": 3739,
      "妈": 3740,
      "妊": 3741,
      "妍": 3742,
      "妒": 3743,
      "妓": 3744,
      "妖": 3745,
      "妙": 3746,
      "妝": 3747,
      "妞": 3748,
      "妥": 3749,
      "妨": 3750,
      "妪": 3751,
      "妮": 3752,
      "妳": 3753,
      "妹": 3754,
      "妻": 3755,
      "妾": 3756,
      "姆": 3757,
      "姉": 3758,
      "姊": 3759,
      "始": 3760,
      "姐": 3761,
      "姑": 3762,
      "姓": 3763,
      "委": 3764,
      "姚": 3765,
      "姜": 3766,
      "姥": 3767,
      "姨": 3768,
      "姫": 3769,
      "姬": 3770,
      "姻": 3771,
      "姿": 3772,
      "威": 3773,
      "娃": 3774,
      "娅": 3775,
      "娆": 3776,
      "娇": 3777,
      "娑": 3778,
      "娓": 3779,
      "娘": 3780,
      "娛": 3781,
      "娜": 3782,
      "娟": 3783,
      "娠": 3784,
      "娥": 3785,
      "娩": 3786,
      "娯": 3787,
      "娱": 3788,
      "娶": 3789,
      "婀": 3790,
      "婆": 3791,
      "婉": 3792,
      "婚": 3793,
      "婢": 3794,
      "婦": 3795,
      "婧": 3796,
      "婴": 3797,
      "婵": 3798,
      "婷": 3799,
      "婿": 3800,
      "媒": 3801,
      "媚": 3802,
      "媳": 3803,
      "媽": 3804,
      "嫁": 3805,
      "嫉": 3806,
      "嫌": 3807,
      "嫣": 3808,
      "嫦": 3809,
      "嫩": 3810,
      "嬉": 3811,
      "嬛": 3812,
      "嬢": 3813,
      "嬵": 3814,
      "子": 3815,
      "孔": 3816,
      "孕": 3817,
      "字": 3818,
      "存": 3819,
      "孙": 3820,
      "孚": 3821,
      "孝": 3822,
      "孟": 3823,
      "孢": 3824,
      "季": 3825,
      "孤": 3826,
      "学": 3827,
      "孩": 3828,
      "孪": 3829,
      "孫": 3830,
      "孵": 3831,
      "學": 3832,
      "孺": 3833,
      "宀": 3834,
      "宁": 3835,
      "它": 3836,
      "宅": 3837,
      "宇": 3838,
      "守": 3839,
      "安": 3840,
      "宋": 3841,
      "完": 3842,
      "宏": 3843,
      "宗": 3844,
      "官": 3845,
      "宙": 3846,
      "定": 3847,
      "宛": 3848,
      "宜": 3849,
      "宝": 3850,
      "实": 3851,
      "実": 3852,
      "宠": 3853,
      "审": 3854,
      "客": 3855,
      "宣": 3856,
      "室": 3857,
      "宫": 3858,
      "宮": 3859,
      "宰": 3860,
      "害": 3861,
      "宴": 3862,
      "宵": 3863,
      "家": 3864,
      "宸": 3865,
      "容": 3866,
      "宽": 3867,
      "宾": 3868,
      "宿": 3869,
      "寂": 3870,
      "寄": 3871,
      "寅": 3872,
      "密": 3873,
      "寉": 3874,
      "富": 3875,
      "寐": 3876,
      "寒": 3877,
      "寓": 3878,
      "寛": 3879,
      "寝": 3880,
      "寞": 3881,
      "察": 3882,
      "寡": 3883,
      "寢": 3884,
      "寥": 3885,
      "實": 3886,
      "寧": 3887,
      "寨": 3888,
      "審": 3889,
      "寫": 3890,
      "寬": 3891,
      "寵": 3892,
      "寸": 3893,
      "对": 3894,
      "寺": 3895,
      "寻": 3896,
      "导": 3897,
      "対": 3898,
      "寿": 3899,
      "封": 3900,
      "専": 3901,
      "射": 3902,
      "尅": 3903,
      "将": 3904,
      "將": 3905,
      "專": 3906,
      "尊": 3907,
      "尋": 3908,
      "對": 3909,
      "導": 3910,
      "小": 3911,
      "少": 3912,
      "尔": 3913,
      "尖": 3914,
      "尘": 3915,
      "尙": 3916,
      "尚": 3917,
      "尝": 3918,
      "尤": 3919,
      "尬": 3920,
      "就": 3921,
      "尴": 3922,
      "尷": 3923,
      "尸": 3924,
      "尹": 3925,
      "尺": 3926,
      "尻": 3927,
      "尼": 3928,
      "尽": 3929,
      "尾": 3930,
      "尿": 3931,
      "局": 3932,
      "屁": 3933,
      "层": 3934,
      "居": 3935,
      "屆": 3936,
      "屈": 3937,
      "屉": 3938,
      "届": 3939,
      "屋": 3940,
      "屌": 3941,
      "屏": 3942,
      "屑": 3943,
      "展": 3944,
      "属": 3945,
      "層": 3946,
      "履": 3947,
      "屬": 3948,
      "山": 3949,
      "屿": 3950,
      "岁": 3951,
      "岂": 3952,
      "岐": 3953,
      "岔": 3954,
      "岗": 3955,
      "岙": 3956,
      "岚": 3957,
      "岛": 3958,
      "岡": 3959,
      "岩": 3960,
      "岬": 3961,
      "岭": 3962,
      "岱": 3963,
      "岳": 3964,
      "岸": 3965,
      "峙": 3966,
      "峡": 3967,
      "峦": 3968,
      "峭": 3969,
      "峰": 3970,
      "島": 3971,
      "峻": 3972,
      "崇": 3973,
      "崎": 3974,
      "崔": 3975,
      "崖": 3976,
      "崩": 3977,
      "崽": 3978,
      "嵌": 3979,
      "嵐": 3980,
      "嵘": 3981,
      "嶺": 3982,
      "嶽": 3983,
      "巍": 3984,
      "巖": 3985,
      "川": 3986,
      "州": 3987,
      "巡": 3988,
      "巢": 3989,
      "巣": 3990,
      "工": 3991,
      "左": 3992,
      "巧": 3993,
      "巨": 3994,
      "巩": 3995,
      "巫": 3996,
      "差": 3997,
      "己": 3998,
      "已": 3999,
      "巳": 4000,
      "巴": 4001,
      "巷": 4002,
      "巻": 4003,
      "巽": 4004,
      "巾": 4005,
      "币": 4006,
      "市": 4007,
      "布": 4008,
      "帅": 4009,
      "帆": 4010,
      "师": 4011,
      "希": 4012,
      "帐": 4013,
      "帕": 4014,
      "帖": 4015,
      "帘": 4016,
      "帙": 4017,
      "帚": 4018,
      "帜": 4019,
      "帥": 4020,
      "带": 4021,
      "帧": 4022,
      "師": 4023,
      "席": 4024,
      "帮": 4025,
      "帯": 4026,
      "帰": 4027,
      "帳": 4028,
      "帶": 4029,
      "帷": 4030,
      "常": 4031,
      "帽": 4032,
      "幂": 4033,
      "幃": 4034,
      "幅": 4035,
      "幌": 4036,
      "幕": 4037,
      "幡": 4038,
      "幢": 4039,
      "幣": 4040,
      "幫": 4041,
      "干": 4042,
      "平": 4043,
      "年": 4044,
      "并": 4045,
      "幸": 4046,
      "幹": 4047,
      "幻": 4048,
      "幼": 4049,
      "幽": 4050,
      "幾": 4051,
      "广": 4052,
      "庁": 4053,
      "広": 4054,
      "庄": 4055,
      "庆": 4056,
      "庇": 4057,
      "床": 4058,
      "序": 4059,
      "库": 4060,
      "应": 4061,
      "底": 4062,
      "店": 4063,
      "庙": 4064,
      "庚": 4065,
      "府": 4066,
      "庞": 4067,
      "废": 4068,
      "度": 4069,
      "座": 4070,
      "庫": 4071,
      "庭": 4072,
      "庵": 4073,
      "康": 4074,
      "庸": 4075,
      "廁": 4076,
      "廃": 4077,
      "廈": 4078,
      "廉": 4079,
      "廊": 4080,
      "廓": 4081,
      "廖": 4082,
      "廟": 4083,
      "廠": 4084,
      "廢": 4085,
      "廣": 4086,
      "廳": 4087,
      "延": 4088,
      "廷": 4089,
      "建": 4090,
      "开": 4091,
      "弁": 4092,
      "异": 4093,
      "弃": 4094,
      "弄": 4095,
      "弊": 4096,
      "式": 4097,
      "弓": 4098,
      "弔": 4099,
      "引": 4100,
      "弗": 4101,
      "弘": 4102,
      "弛": 4103,
      "弟": 4104,
      "张": 4105,
      "弥": 4106,
      "弦": 4107,
      "弧": 4108,
      "弯": 4109,
      "弱": 4110,
      "張": 4111,
      "強": 4112,
      "弹": 4113,
      "强": 4114,
      "弾": 4115,
      "彈": 4116,
      "彌": 4117,
      "彎": 4118,
      "归": 4119,
      "当": 4120,
      "录": 4121,
      "彖": 4122,
      "彗": 4123,
      "彙": 4124,
      "彜": 4125,
      "形": 4126,
      "彤": 4127,
      "彦": 4128,
      "彩": 4129,
      "彫": 4130,
      "彭": 4131,
      "彰": 4132,
      "影": 4133,
      "彷": 4134,
      "役": 4135,
      "彻": 4136,
      "彼": 4137,
      "彿": 4138,
      "往": 4139,
      "征": 4140,
      "径": 4141,
      "待": 4142,
      "很": 4143,
      "徉": 4144,
      "徊": 4145,
      "律": 4146,
      "後": 4147,
      "徐": 4148,
      "徑": 4149,
      "徒": 4150,
      "従": 4151,
      "得": 4152,
      "徘": 4153,
      "徙": 4154,
      "徜": 4155,
      "從": 4156,
      "御": 4157,
      "復": 4158,
      "循": 4159,
      "微": 4160,
      "徳": 4161,
      "徴": 4162,
      "徵": 4163,
      "德": 4164,
      "徹": 4165,
      "徽": 4166,
      "心": 4167,
      "必": 4168,
      "忆": 4169,
      "忌": 4170,
      "忍": 4171,
      "志": 4172,
      "忘": 4173,
      "忙": 4174,
      "応": 4175,
      "忠": 4176,
      "忧": 4177,
      "快": 4178,
      "念": 4179,
      "忽": 4180,
      "怀": 4181,
      "态": 4182,
      "怅": 4183,
      "怎": 4184,
      "怒": 4185,
      "怕": 4186,
      "怖": 4187,
      "怜": 4188,
      "思": 4189,
      "怠": 4190,
      "怡": 4191,
      "急": 4192,
      "性": 4193,
      "怨": 4194,
      "怪": 4195,
      "总": 4196,
      "恆": 4197,
      "恇": 4198,
      "恋": 4199,
      "恍": 4200,
      "恐": 4201,
      "恒": 4202,
      "恕": 4203,
      "恙": 4204,
      "恢": 4205,
      "恤": 4206,
      "恥": 4207,
      "恨": 4208,
      "恩": 4209,
      "恫": 4210,
      "恬": 4211,
      "恭": 4212,
      "息": 4213,
      "恰": 4214,
      "恵": 4215,
      "恶": 4216,
      "恺": 4217,
      "恼": 4218,
      "悉": 4219,
      "悔": 4220,
      "悖": 4221,
      "悚": 4222,
      "悟": 4223,
      "悠": 4224,
      "患": 4225,
      "悦": 4226,
      "您": 4227,
      "悩": 4228,
      "悪": 4229,
      "悫": 4230,
      "悬": 4231,
      "悲": 4232,
      "悴": 4233,
      "悸": 4234,
      "悼": 4235,
      "情": 4236,
      "惆": 4237,
      "惊": 4238,
      "惑": 4239,
      "惕": 4240,
      "惚": 4241,
      "惜": 4242,
      "惟": 4243,
      "惠": 4244,
      "惡": 4245,
      "惧": 4246,
      "惨": 4247,
      "惩": 4248,
      "惫": 4249,
      "惬": 4250,
      "惯": 4251,
      "惰": 4252,
      "惱": 4253,
      "想": 4254,
      "惹": 4255,
      "愁": 4256,
      "愆": 4257,
      "愈": 4258,
      "愉": 4259,
      "意": 4260,
      "愔": 4261,
      "愕": 4262,
      "愚": 4263,
      "愛": 4264,
      "感": 4265,
      "愤": 4266,
      "愿": 4267,
      "慈": 4268,
      "態": 4269,
      "慌": 4270,
      "慎": 4271,
      "慕": 4272,
      "慢": 4273,
      "慣": 4274,
      "慧": 4275,
      "慨": 4276,
      "慮": 4277,
      "慰": 4278,
      "慶": 4279,
      "慾": 4280,
      "憂": 4281,
      "憊": 4282,
      "憋": 4283,
      "憎": 4284,
      "憑": 4285,
      "憔": 4286,
      "憤": 4287,
      "憧": 4288,
      "憩": 4289,
      "憬": 4290,
      "憲": 4291,
      "憶": 4292,
      "憾": 4293,
      "懁": 4294,
      "懂": 4295,
      "懇": 4296,
      "應": 4297,
      "懐": 4298,
      "懒": 4299,
      "懷": 4300,
      "懸": 4301,
      "懼": 4302,
      "戈": 4303,
      "戊": 4304,
      "戌": 4305,
      "戍": 4306,
      "戎": 4307,
      "戏": 4308,
      "成": 4309,
      "我": 4310,
      "戒": 4311,
      "或": 4312,
      "战": 4313,
      "戚": 4314,
      "戦": 4315,
      "截": 4316,
      "戯": 4317,
      "戰": 4318,
      "戲": 4319,
      "戳": 4320,
      "戴": 4321,
      "戶": 4322,
      "户": 4323,
      "戸": 4324,
      "戻": 4325,
      "房": 4326,
      "所": 4327,
      "扁": 4328,
      "扇": 4329,
      "扉": 4330,
      "手": 4331,
      "才": 4332,
      "扎": 4333,
      "扑": 4334,
      "扒": 4335,
      "打": 4336,
      "払": 4337,
      "托": 4338,
      "扣": 4339,
      "执": 4340,
      "扩": 4341,
      "扫": 4342,
      "扬": 4343,
      "扭": 4344,
      "扮": 4345,
      "扯": 4346,
      "扰": 4347,
      "扱": 4348,
      "扳": 4349,
      "批": 4350,
      "扼": 4351,
      "找": 4352,
      "承": 4353,
      "技": 4354,
      "抄": 4355,
      "抉": 4356,
      "抑": 4357,
      "抒": 4358,
      "抓": 4359,
      "投": 4360,
      "抖": 4361,
      "抗": 4362,
      "折": 4363,
      "抚": 4364,
      "抛": 4365,
      "抜": 4366,
      "択": 4367,
      "抢": 4368,
      "护": 4369,
      "报": 4370,
      "披": 4371,
      "抬": 4372,
      "抱": 4373,
      "抵": 4374,
      "抹": 4375,
      "押": 4376,
      "抽": 4377,
      "抿": 4378,
      "拂": 4379,
      "担": 4380,
      "拇": 4381,
      "拉": 4382,
      "拌": 4383,
      "拍": 4384,
      "拐": 4385,
      "拒": 4386,
      "拓": 4387,
      "拔": 4388,
      "拖": 4389,
      "拙": 4390,
      "招": 4391,
      "拜": 4392,
      "拝": 4393,
      "拟": 4394,
      "拠": 4395,
      "拡": 4396,
      "拢": 4397,
      "拥": 4398,
      "拦": 4399,
      "拨": 4400,
      "择": 4401,
      "括": 4402,
      "拭": 4403,
      "拮": 4404,
      "拯": 4405,
      "拱": 4406,
      "拳": 4407,
      "拶": 4408,
      "拼": 4409,
      "拽": 4410,
      "拾": 4411,
      "拿": 4412,
      "持": 4413,
      "挂": 4414,
      "指": 4415,
      "按": 4416,
      "挑": 4417,
      "挖": 4418,
      "挙": 4419,
      "挚": 4420,
      "挛": 4421,
      "挝": 4422,
      "挟": 4423,
      "挠": 4424,
      "挡": 4425,
      "挣": 4426,
      "挤": 4427,
      "挥": 4428,
      "挨": 4429,
      "挪": 4430,
      "挫": 4431,
      "挭": 4432,
      "振": 4433,
      "挺": 4434,
      "挽": 4435,
      "挿": 4436,
      "捆": 4437,
      "捉": 4438,
      "捍": 4439,
      "捏": 4440,
      "捐": 4441,
      "捕": 4442,
      "捗": 4443,
      "捜": 4444,
      "捞": 4445,
      "损": 4446,
      "捡": 4447,
      "换": 4448,
      "捧": 4449,
      "捨": 4450,
      "据": 4451,
      "捷": 4452,
      "掀": 4453,
      "掂": 4454,
      "掃": 4455,
      "授": 4456,
      "掉": 4457,
      "掌": 4458,
      "排": 4459,
      "掘": 4460,
      "掛": 4461,
      "採": 4462,
      "探": 4463,
      "接": 4464,
      "控": 4465,
      "推": 4466,
      "掩": 4467,
      "措": 4468,
      "掲": 4469,
      "掷": 4470,
      "掺": 4471,
      "掻": 4472,
      "掾": 4473,
      "揃": 4474,
      "揉": 4475,
      "描": 4476,
      "提": 4477,
      "插": 4478,
      "揚": 4479,
      "換": 4480,
      "揟": 4481,
      "握": 4482,
      "揭": 4483,
      "揮": 4484,
      "援": 4485,
      "揺": 4486,
      "揽": 4487,
      "搅": 4488,
      "損": 4489,
      "搏": 4490,
      "搓": 4491,
      "搔": 4492,
      "搖": 4493,
      "搜": 4494,
      "搞": 4495,
      "搬": 4496,
      "搭": 4497,
      "携": 4498,
      "搾": 4499,
      "摂": 4500,
      "摄": 4501,
      "摆": 4502,
      "摇": 4503,
      "摊": 4504,
      "摒": 4505,
      "摔": 4506,
      "摘": 4507,
      "摧": 4508,
      "摩": 4509,
      "摯": 4510,
      "摸": 4511,
      "摹": 4512,
      "撃": 4513,
      "撐": 4514,
      "撑": 4515,
      "撒": 4516,
      "撓": 4517,
      "撞": 4518,
      "撤": 4519,
      "撥": 4520,
      "撫": 4521,
      "播": 4522,
      "撮": 4523,
      "撰": 4524,
      "撲": 4525,
      "撻": 4526,
      "撼": 4527,
      "擁": 4528,
      "擅": 4529,
      "擇": 4530,
      "擊": 4531,
      "擎": 4532,
      "擔": 4533,
      "據": 4534,
      "擦": 4535,
      "擬": 4536,
      "擲": 4537,
      "擴": 4538,
      "擷": 4539,
      "攀": 4540,
      "攘": 4541,
      "攜": 4542,
      "攝": 4543,
      "攣": 4544,
      "攪": 4545,
      "支": 4546,
      "收": 4547,
      "改": 4548,
      "攻": 4549,
      "放": 4550,
      "政": 4551,
      "敁": 4552,
      "故": 4553,
      "效": 4554,
      "敌": 4555,
      "敏": 4556,
      "救": 4557,
      "敗": 4558,
      "教": 4559,
      "敛": 4560,
      "敞": 4561,
      "敢": 4562,
      "散": 4563,
      "敦": 4564,
      "敬": 4565,
      "数": 4566,
      "敲": 4567,
      "整": 4568,
      "敵": 4569,
      "敷": 4570,
      "數": 4571,
      "斂": 4572,
      "文": 4573,
      "斉": 4574,
      "斋": 4575,
      "斌": 4576,
      "斐": 4577,
      "斑": 4578,
      "斓": 4579,
      "斗": 4580,
      "料": 4581,
      "斜": 4582,
      "斟": 4583,
      "斤": 4584,
      "斥": 4585,
      "斧": 4586,
      "斬": 4587,
      "断": 4588,
      "斯": 4589,
      "新": 4590,
      "斷": 4591,
      "方": 4592,
      "於": 4593,
      "施": 4594,
      "旁": 4595,
      "旅": 4596,
      "旋": 4597,
      "族": 4598,
      "旗": 4599,
      "无": 4600,
      "既": 4601,
      "日": 4602,
      "旦": 4603,
      "旧": 4604,
      "旨": 4605,
      "早": 4606,
      "旬": 4607,
      "旭": 4608,
      "旱": 4609,
      "时": 4610,
      "旷": 4611,
      "旺": 4612,
      "昂": 4613,
      "昆": 4614,
      "昇": 4615,
      "昈": 4616,
      "昊": 4617,
      "昌": 4618,
      "明": 4619,
      "昏": 4620,
      "易": 4621,
      "昔": 4622,
      "昝": 4623,
      "星": 4624,
      "映": 4625,
      "春": 4626,
      "昧": 4627,
      "昨": 4628,
      "昭": 4629,
      "是": 4630,
      "昵": 4631,
      "昼": 4632,
      "显": 4633,
      "時": 4634,
      "晃": 4635,
      "晉": 4636,
      "晋": 4637,
      "晒": 4638,
      "晓": 4639,
      "晕": 4640,
      "晖": 4641,
      "晚": 4642,
      "晨": 4643,
      "晩": 4644,
      "普": 4645,
      "景": 4646,
      "晰": 4647,
      "晴": 4648,
      "晶": 4649,
      "智": 4650,
      "暁": 4651,
      "暂": 4652,
      "暇": 4653,
      "暈": 4654,
      "暑": 4655,
      "暖": 4656,
      "暗": 4657,
      "暢": 4658,
      "暦": 4659,
      "暫": 4660,
      "暮": 4661,
      "暴": 4662,
      "暹": 4663,
      "曇": 4664,
      "曖": 4665,
      "曜": 4666,
      "曝": 4667,
      "曦": 4668,
      "曰": 4669,
      "曱": 4670,
      "曲": 4671,
      "曳": 4672,
      "更": 4673,
      "書": 4674,
      "曹": 4675,
      "曼": 4676,
      "曾": 4677,
      "替": 4678,
      "最": 4679,
      "會": 4680,
      "月": 4681,
      "有": 4682,
      "朋": 4683,
      "服": 4684,
      "朔": 4685,
      "朗": 4686,
      "望": 4687,
      "朝": 4688,
      "期": 4689,
      "木": 4690,
      "未": 4691,
      "末": 4692,
      "本": 4693,
      "札": 4694,
      "术": 4695,
      "朱": 4696,
      "朴": 4697,
      "朵": 4698,
      "机": 4699,
      "朽": 4700,
      "杀": 4701,
      "杂": 4702,
      "权": 4703,
      "杆": 4704,
      "杉": 4705,
      "李": 4706,
      "杏": 4707,
      "材": 4708,
      "村": 4709,
      "杖": 4710,
      "杜": 4711,
      "杞": 4712,
      "束": 4713,
      "杠": 4714,
      "条": 4715,
      "来": 4716,
      "杨": 4717,
      "杭": 4718,
      "杯": 4719,
      "杰": 4720,
      "東": 4721,
      "杵": 4722,
      "松": 4723,
      "板": 4724,
      "极": 4725,
      "构": 4726,
      "析": 4727,
      "枕": 4728,
      "林": 4729,
      "枚": 4730,
      "果": 4731,
      "枝": 4732,
      "枠": 4733,
      "枢": 4734,
      "枣": 4735,
      "枪": 4736,
      "枫": 4737,
      "枯": 4738,
      "架": 4739,
      "枸": 4740,
      "柄": 4741,
      "柏": 4742,
      "某": 4743,
      "柑": 4744,
      "染": 4745,
      "柔": 4746,
      "柚": 4747,
      "柜": 4748,
      "柠": 4749,
      "查": 4750,
      "柬": 4751,
      "柯": 4752,
      "柱": 4753,
      "柳": 4754,
      "柴": 4755,
      "柵": 4756,
      "査": 4757,
      "柿": 4758,
      "栄": 4759,
      "栅": 4760,
      "标": 4761,
      "栈": 4762,
      "栋": 4763,
      "树": 4764,
      "栓": 4765,
      "栖": 4766,
      "栗": 4767,
      "栞": 4768,
      "校": 4769,
      "栩": 4770,
      "株": 4771,
      "样": 4772,
      "核": 4773,
      "根": 4774,
      "格": 4775,
      "栽": 4776,
      "桁": 4777,
      "桂": 4778,
      "桃": 4779,
      "框": 4780,
      "案": 4781,
      "桌": 4782,
      "桐": 4783,
      "桑": 4784,
      "桔": 4785,
      "桜": 4786,
      "档": 4787,
      "桥": 4788,
      "桧": 4789,
      "桨": 4790,
      "桩": 4791,
      "桵": 4792,
      "桶": 4793,
      "梁": 4794,
      "梅": 4795,
      "梓": 4796,
      "梗": 4797,
      "條": 4798,
      "梢": 4799,
      "梦": 4800,
      "梧": 4801,
      "梨": 4802,
      "梭": 4803,
      "梯": 4804,
      "械": 4805,
      "梱": 4806,
      "梳": 4807,
      "梵": 4808,
      "检": 4809,
      "棄": 4810,
      "棉": 4811,
      "棋": 4812,
      "棍": 4813,
      "棒": 4814,
      "棕": 4815,
      "棚": 4816,
      "棧": 4817,
      "森": 4818,
      "棲": 4819,
      "棵": 4820,
      "棺": 4821,
      "椅": 4822,
      "椋": 4823,
      "植": 4824,
      "椎": 4825,
      "椒": 4826,
      "検": 4827,
      "椭": 4828,
      "椰": 4829,
      "楂": 4830,
      "楊": 4831,
      "楔": 4832,
      "楕": 4833,
      "楚": 4834,
      "楠": 4835,
      "業": 4836,
      "極": 4837,
      "楼": 4838,
      "楽": 4839,
      "概": 4840,
      "榄": 4841,
      "榔": 4842,
      "榕": 4843,
      "榛": 4844,
      "榜": 4845,
      "榨": 4846,
      "榮": 4847,
      "榴": 4848,
      "槃": 4849,
      "槇": 4850,
      "構": 4851,
      "槐": 4852,
      "槑": 4853,
      "様": 4854,
      "槟": 4855,
      "槤": 4856,
      "槽": 4857,
      "樂": 4858,
      "樊": 4859,
      "樓": 4860,
      "標": 4861,
      "樟": 4862,
      "模": 4863,
      "樣": 4864,
      "権": 4865,
      "横": 4866,
      "樯": 4867,
      "樱": 4868,
      "樹": 4869,
      "樺": 4870,
      "樽": 4871,
      "橄": 4872,
      "橇": 4873,
      "橋": 4874,
      "橘": 4875,
      "橙": 4876,
      "機": 4877,
      "橡": 4878,
      "橱": 4879,
      "橹": 4880,
      "檎": 4881,
      "檐": 4882,
      "檔": 4883,
      "檢": 4884,
      "檬": 4885,
      "檯": 4886,
      "檸": 4887,
      "櫃": 4888,
      "櫛": 4889,
      "櫥": 4890,
      "櫻": 4891,
      "權": 4892,
      "欠": 4893,
      "次": 4894,
      "欢": 4895,
      "欣": 4896,
      "欧": 4897,
      "欲": 4898,
      "欺": 4899,
      "欽": 4900,
      "款": 4901,
      "歇": 4902,
      "歉": 4903,
      "歌": 4904,
      "歎": 4905,
      "歐": 4906,
      "歓": 4907,
      "歡": 4908,
      "止": 4909,
      "正": 4910,
      "此": 4911,
      "步": 4912,
      "武": 4913,
      "歧": 4914,
      "歩": 4915,
      "歪": 4916,
      "歯": 4917,
      "歲": 4918,
      "歳": 4919,
      "歴": 4920,
      "歷": 4921,
      "歸": 4922,
      "歹": 4923,
      "殆": 4924,
      "殊": 4925,
      "残": 4926,
      "殖": 4927,
      "殴": 4928,
      "段": 4929,
      "殺": 4930,
      "殻": 4931,
      "殿": 4932,
      "毀": 4933,
      "毁": 4934,
      "毂": 4935,
      "毅": 4936,
      "母": 4937,
      "毎": 4938,
      "每": 4939,
      "毒": 4940,
      "比": 4941,
      "毕": 4942,
      "毛": 4943,
      "毫": 4944,
      "毯": 4945,
      "氏": 4946,
      "民": 4947,
      "氓": 4948,
      "气": 4949,
      "氖": 4950,
      "気": 4951,
      "氛": 4952,
      "氟": 4953,
      "氢": 4954,
      "氣": 4955,
      "氦": 4956,
      "氧": 4957,
      "氨": 4958,
      "氩": 4959,
      "氪": 4960,
      "氮": 4961,
      "氯": 4962,
      "氰": 4963,
      "氲": 4964,
      "水": 4965,
      "氷": 4966,
      "永": 4967,
      "氹": 4968,
      "汀": 4969,
      "汁": 4970,
      "求": 4971,
      "汇": 4972,
      "汉": 4973,
      "汎": 4974,
      "汐": 4975,
      "汕": 4976,
      "汗": 4977,
      "汚": 4978,
      "汝": 4979,
      "汞": 4980,
      "江": 4981,
      "池": 4982,
      "污": 4983,
      "汤": 4984,
      "汪": 4985,
      "汭": 4986,
      "汰": 4987,
      "汶": 4988,
      "汹": 4989,
      "決": 4990,
      "汽": 4991,
      "沁": 4992,
      "沂": 4993,
      "沃": 4994,
      "沈": 4995,
      "沉": 4996,
      "沐": 4997,
      "沒": 4998,
      "沖": 4999,
      "沙": 5000,
      "沚": 5001,
      "沛": 5002,
      "沟": 5003,
      "没": 5004,
      "沢": 5005,
      "沥": 5006,
      "沧": 5007,
      "沪": 5008,
      "沫": 5009,
      "沮": 5010,
      "河": 5011,
      "沸": 5012,
      "油": 5013,
      "治": 5014,
      "沼": 5015,
      "沾": 5016,
      "沿": 5017,
      "況": 5018,
      "泄": 5019,
      "泉": 5020,
      "泊": 5021,
      "泌": 5022,
      "泗": 5023,
      "泛": 5024,
      "泞": 5025,
      "泠": 5026,
      "泡": 5027,
      "波": 5028,
      "泣": 5029,
      "泥": 5030,
      "注": 5031,
      "泪": 5032,
      "泰": 5033,
      "泳": 5034,
      "泵": 5035,
      "泻": 5036,
      "泼": 5037,
      "泽": 5038,
      "泾": 5039,
      "洁": 5040,
      "洋": 5041,
      "洒": 5042,
      "洗": 5043,
      "洛": 5044,
      "洞": 5045,
      "津": 5046,
      "洩": 5047,
      "洪": 5048,
      "洲": 5049,
      "洵": 5050,
      "洶": 5051,
      "活": 5052,
      "洼": 5053,
      "洽": 5054,
      "派": 5055,
      "流": 5056,
      "浄": 5057,
      "浅": 5058,
      "浇": 5059,
      "浊": 5060,
      "测": 5061,
      "济": 5062,
      "浏": 5063,
      "浑": 5064,
      "浒": 5065,
      "浓": 5066,
      "浜": 5067,
      "浦": 5068,
      "浩": 5069,
      "浮": 5070,
      "浯": 5071,
      "浴": 5072,
      "海": 5073,
      "浸": 5074,
      "涂": 5075,
      "涅": 5076,
      "消": 5077,
      "涉": 5078,
      "涌": 5079,
      "涕": 5080,
      "涙": 5081,
      "涛": 5082,
      "涡": 5083,
      "涣": 5084,
      "涤": 5085,
      "润": 5086,
      "涧": 5087,
      "涨": 5088,
      "涩": 5089,
      "涯": 5090,
      "液": 5091,
      "涵": 5092,
      "涶": 5093,
      "涼": 5094,
      "淀": 5095,
      "淄": 5096,
      "淅": 5097,
      "淆": 5098,
      "淇": 5099,
      "淋": 5100,
      "淌": 5101,
      "淑": 5102,
      "淘": 5103,
      "淚": 5104,
      "淡": 5105,
      "淨": 5106,
      "淫": 5107,
      "淮": 5108,
      "深": 5109,
      "混": 5110,
      "淹": 5111,
      "淺": 5112,
      "添": 5113,
      "淼": 5114,
      "清": 5115,
      "渇": 5116,
      "済": 5117,
      "渉": 5118,
      "渊": 5119,
      "渋": 5120,
      "渍": 5121,
      "渐": 5122,
      "渔": 5123,
      "渗": 5124,
      "渚": 5125,
      "減": 5126,
      "渝": 5127,
      "渠": 5128,
      "渡": 5129,
      "渤": 5130,
      "測": 5131,
      "渭": 5132,
      "港": 5133,
      "渲": 5134,
      "渴": 5135,
      "游": 5136,
      "湃": 5137,
      "湊": 5138,
      "湖": 5139,
      "湘": 5140,
      "湛": 5141,
      "湧": 5142,
      "湯": 5143,
      "湾": 5144,
      "湿": 5145,
      "満": 5146,
      "溃": 5147,
      "溅": 5148,
      "溈": 5149,
      "溉": 5150,
      "溏": 5151,
      "源": 5152,
      "準": 5153,
      "溜": 5154,
      "溝": 5155,
      "溢": 5156,
      "溪": 5157,
      "溯": 5158,
      "溶": 5159,
      "溺": 5160,
      "滁": 5161,
      "滅": 5162,
      "滋": 5163,
      "滑": 5164,
      "滔": 5165,
      "滕": 5166,
      "滚": 5167,
      "滞": 5168,
      "滟": 5169,
      "满": 5170,
      "滤": 5171,
      "滨": 5172,
      "滩": 5173,
      "滴": 5174,
      "滸": 5175,
      "滾": 5176,
      "滿": 5177,
      "漁": 5178,
      "漂": 5179,
      "漆": 5180,
      "漏": 5181,
      "漓": 5182,
      "演": 5183,
      "漕": 5184,
      "漠": 5185,
      "漢": 5186,
      "漩": 5187,
      "漫": 5188,
      "漬": 5189,
      "漱": 5190,
      "漳": 5191,
      "漸": 5192,
      "漾": 5193,
      "潁": 5194,
      "潇": 5195,
      "潍": 5196,
      "潑": 5197,
      "潔": 5198,
      "潘": 5199,
      "潜": 5200,
      "潟": 5201,
      "潢": 5202,
      "潤": 5203,
      "潦": 5204,
      "潭": 5205,
      "潮": 5206,
      "潰": 5207,
      "潺": 5208,
      "澄": 5209,
      "澈": 5210,
      "澎": 5211,
      "澜": 5212,
      "澡": 5213,
      "澤": 5214,
      "澳": 5215,
      "澹": 5216,
      "激": 5217,
      "濃": 5218,
      "濕": 5219,
      "濡": 5220,
      "濤": 5221,
      "濯": 5222,
      "濱": 5223,
      "濾": 5224,
      "瀏": 5225,
      "瀑": 5226,
      "瀟": 5227,
      "瀬": 5228,
      "瀰": 5229,
      "灌": 5230,
      "火": 5231,
      "灭": 5232,
      "灯": 5233,
      "灰": 5234,
      "灵": 5235,
      "灶": 5236,
      "灸": 5237,
      "灼": 5238,
      "灿": 5239,
      "炉": 5240,
      "炊": 5241,
      "炎": 5242,
      "炒": 5243,
      "炔": 5244,
      "炙": 5245,
      "炫": 5246,
      "炭": 5247,
      "炮": 5248,
      "炯": 5249,
      "点": 5250,
      "為": 5251,
      "炼": 5252,
      "烁": 5253,
      "烂": 5254,
      "烈": 5255,
      "烊": 5256,
      "烏": 5257,
      "烘": 5258,
      "烛": 5259,
      "烟": 5260,
      "烤": 5261,
      "烦": 5262,
      "烧": 5263,
      "烫": 5264,
      "烬": 5265,
      "热": 5266,
      "烯": 5267,
      "烷": 5268,
      "烹": 5269,
      "烽": 5270,
      "焉": 5271,
      "焊": 5272,
      "焕": 5273,
      "焗": 5274,
      "焙": 5275,
      "無": 5276,
      "焦": 5277,
      "焰": 5278,
      "然": 5279,
      "焼": 5280,
      "煉": 5281,
      "煌": 5282,
      "煎": 5283,
      "煙": 5284,
      "煜": 5285,
      "煞": 5286,
      "煤": 5287,
      "照": 5288,
      "煮": 5289,
      "煲": 5290,
      "煸": 5291,
      "熊": 5292,
      "熔": 5293,
      "熙": 5294,
      "熟": 5295,
      "熠": 5296,
      "熬": 5297,
      "熱": 5298,
      "熵": 5299,
      "熹": 5300,
      "燃": 5301,
      "燈": 5302,
      "燒": 5303,
      "燕": 5304,
      "營": 5305,
      "燥": 5306,
      "燦": 5307,
      "燭": 5308,
      "燮": 5309,
      "爆": 5310,
      "爐": 5311,
      "爛": 5312,
      "爪": 5313,
      "爬": 5314,
      "爭": 5315,
      "爱": 5316,
      "爲": 5317,
      "爵": 5318,
      "父": 5319,
      "爷": 5320,
      "爸": 5321,
      "爺": 5322,
      "爽": 5323,
      "爾": 5324,
      "牆": 5325,
      "片": 5326,
      "版": 5327,
      "牌": 5328,
      "牍": 5329,
      "牙": 5330,
      "牛": 5331,
      "牟": 5332,
      "牠": 5333,
      "牡": 5334,
      "牢": 5335,
      "牧": 5336,
      "物": 5337,
      "牲": 5338,
      "牵": 5339,
      "特": 5340,
      "牺": 5341,
      "犀": 5342,
      "犊": 5343,
      "犬": 5344,
      "犯": 5345,
      "状": 5346,
      "犹": 5347,
      "狀": 5348,
      "狂": 5349,
      "狄": 5350,
      "狐": 5351,
      "狗": 5352,
      "狙": 5353,
      "狡": 5354,
      "狩": 5355,
      "独": 5356,
      "狭": 5357,
      "狮": 5358,
      "狱": 5359,
      "狸": 5360,
      "狼": 5361,
      "猎": 5362,
      "猕": 5363,
      "猛": 5364,
      "猜": 5365,
      "猟": 5366,
      "猥": 5367,
      "猪": 5368,
      "猫": 5369,
      "献": 5370,
      "猲": 5371,
      "猴": 5372,
      "猶": 5373,
      "猾": 5374,
      "猿": 5375,
      "獄": 5376,
      "獅": 5377,
      "獎": 5378,
      "獣": 5379,
      "獨": 5380,
      "獲": 5381,
      "獴": 5382,
      "獸": 5383,
      "玄": 5384,
      "率": 5385,
      "玉": 5386,
      "王": 5387,
      "玛": 5388,
      "玩": 5389,
      "玫": 5390,
      "环": 5391,
      "现": 5392,
      "玲": 5393,
      "玺": 5394,
      "玻": 5395,
      "珀": 5396,
      "珂": 5397,
      "珊": 5398,
      "珍": 5399,
      "珑": 5400,
      "珠": 5401,
      "班": 5402,
      "現": 5403,
      "球": 5404,
      "琅": 5405,
      "理": 5406,
      "琉": 5407,
      "琥": 5408,
      "琦": 5409,
      "琪": 5410,
      "琳": 5411,
      "琴": 5412,
      "瑕": 5413,
      "瑚": 5414,
      "瑜": 5415,
      "瑞": 5416,
      "瑟": 5417,
      "瑪": 5418,
      "瑰": 5419,
      "瑶": 5420,
      "瑾": 5421,
      "璀": 5422,
      "璃": 5423,
      "璅": 5424,
      "璧": 5425,
      "璨": 5426,
      "環": 5427,
      "瓜": 5428,
      "瓣": 5429,
      "瓦": 5430,
      "瓶": 5431,
      "瓷": 5432,
      "甄": 5433,
      "甘": 5434,
      "甚": 5435,
      "甜": 5436,
      "生": 5437,
      "產": 5438,
      "産": 5439,
      "用": 5440,
      "甫": 5441,
      "田": 5442,
      "由": 5443,
      "甲": 5444,
      "申": 5445,
      "甴": 5446,
      "电": 5447,
      "男": 5448,
      "甸": 5449,
      "町": 5450,
      "画": 5451,
      "甾": 5452,
      "畅": 5453,
      "界": 5454,
      "畏": 5455,
      "畑": 5456,
      "畔": 5457,
      "留": 5458,
      "畜": 5459,
      "略": 5460,
      "番": 5461,
      "畫": 5462,
      "異": 5463,
      "畳": 5464,
      "當": 5465,
      "疆": 5466,
      "疎": 5467,
      "疏": 5468,
      "疑": 5469,
      "疗": 5470,
      "疟": 5471,
      "疡": 5472,
      "疫": 5473,
      "疮": 5474,
      "疯": 5475,
      "疱": 5476,
      "疲": 5477,
      "疵": 5478,
      "疹": 5479,
      "疼": 5480,
      "疾": 5481,
      "痂": 5482,
      "病": 5483,
      "症": 5484,
      "痈": 5485,
      "痉": 5486,
      "痕": 5487,
      "痘": 5488,
      "痙": 5489,
      "痛": 5490,
      "痢": 5491,
      "痤": 5492,
      "痩": 5493,
      "痪": 5494,
      "痫": 5495,
      "痰": 5496,
      "痴": 5497,
      "瘀": 5498,
      "瘍": 5499,
      "瘙": 5500,
      "瘡": 5501,
      "瘢": 5502,
      "瘤": 5503,
      "瘦": 5504,
      "瘫": 5505,
      "瘾": 5506,
      "療": 5507,
      "癌": 5508,
      "癒": 5509,
      "癖": 5510,
      "癣": 5511,
      "癫": 5512,
      "癸": 5513,
      "発": 5514,
      "登": 5515,
      "發": 5516,
      "白": 5517,
      "百": 5518,
      "皂": 5519,
      "的": 5520,
      "皆": 5521,
      "皇": 5522,
      "皋": 5523,
      "皎": 5524,
      "皑": 5525,
      "皓": 5526,
      "皮": 5527,
      "皱": 5528,
      "皿": 5529,
      "盅": 5530,
      "盆": 5531,
      "盈": 5532,
      "益": 5533,
      "盎": 5534,
      "盐": 5535,
      "监": 5536,
      "盒": 5537,
      "盔": 5538,
      "盖": 5539,
      "盗": 5540,
      "盘": 5541,
      "盛": 5542,
      "盟": 5543,
      "盡": 5544,
      "監": 5545,
      "盤": 5546,
      "盧": 5547,
      "目": 5548,
      "盲": 5549,
      "直": 5550,
      "相": 5551,
      "盼": 5552,
      "盾": 5553,
      "省": 5554,
      "眂": 5555,
      "眉": 5556,
      "看": 5557,
      "県": 5558,
      "眞": 5559,
      "真": 5560,
      "眠": 5561,
      "眨": 5562,
      "眩": 5563,
      "眸": 5564,
      "眺": 5565,
      "眼": 5566,
      "眾": 5567,
      "着": 5568,
      "睁": 5569,
      "睛": 5570,
      "睞": 5571,
      "睡": 5572,
      "督": 5573,
      "睹": 5574,
      "睾": 5575,
      "睿": 5576,
      "瞄": 5577,
      "瞅": 5578,
      "瞑": 5579,
      "瞒": 5580,
      "瞧": 5581,
      "瞬": 5582,
      "瞭": 5583,
      "瞰": 5584,
      "瞳": 5585,
      "瞻": 5586,
      "瞿": 5587,
      "矚": 5588,
      "矛": 5589,
      "矢": 5590,
      "矣": 5591,
      "知": 5592,
      "矩": 5593,
      "短": 5594,
      "矮": 5595,
      "石": 5596,
      "矶": 5597,
      "矿": 5598,
      "码": 5599,
      "砂": 5600,
      "砍": 5601,
      "研": 5602,
      "砕": 5603,
      "砖": 5604,
      "破": 5605,
      "砸": 5606,
      "砼": 5607,
      "础": 5608,
      "硅": 5609,
      "硒": 5610,
      "硕": 5611,
      "硝": 5612,
      "硫": 5613,
      "硬": 5614,
      "确": 5615,
      "硼": 5616,
      "碋": 5617,
      "碌": 5618,
      "碍": 5619,
      "碎": 5620,
      "碑": 5621,
      "碗": 5622,
      "碘": 5623,
      "碟": 5624,
      "碧": 5625,
      "碰": 5626,
      "碱": 5627,
      "碳": 5628,
      "確": 5629,
      "碼": 5630,
      "碾": 5631,
      "磁": 5632,
      "磅": 5633,
      "磊": 5634,
      "磚": 5635,
      "磨": 5636,
      "磯": 5637,
      "磷": 5638,
      "礁": 5639,
      "礎": 5640,
      "礙": 5641,
      "礦": 5642,
      "示": 5643,
      "礼": 5644,
      "社": 5645,
      "祈": 5646,
      "祐": 5647,
      "祖": 5648,
      "祝": 5649,
      "神": 5650,
      "祠": 5651,
      "祥": 5652,
      "票": 5653,
      "祭": 5654,
      "祷": 5655,
      "祹": 5656,
      "祺": 5657,
      "禁": 5658,
      "禄": 5659,
      "禅": 5660,
      "禍": 5661,
      "禦": 5662,
      "禮": 5663,
      "禹": 5664,
      "离": 5665,
      "禽": 5666,
      "禾": 5667,
      "秀": 5668,
      "私": 5669,
      "秉": 5670,
      "秋": 5671,
      "种": 5672,
      "科": 5673,
      "秒": 5674,
      "秘": 5675,
      "租": 5676,
      "秤": 5677,
      "秦": 5678,
      "秧": 5679,
      "秩": 5680,
      "积": 5681,
      "称": 5682,
      "移": 5683,
      "秽": 5684,
      "稀": 5685,
      "稅": 5686,
      "程": 5687,
      "稍": 5688,
      "税": 5689,
      "稚": 5690,
      "稟": 5691,
      "稠": 5692,
      "稣": 5693,
      "種": 5694,
      "稱": 5695,
      "稲": 5696,
      "稳": 5697,
      "稻": 5698,
      "稼": 5699,
      "稿": 5700,
      "穀": 5701,
      "穂": 5702,
      "穆": 5703,
      "積": 5704,
      "穎": 5705,
      "穏": 5706,
      "穗": 5707,
      "穩": 5708,
      "穫": 5709,
      "穴": 5710,
      "究": 5711,
      "穷": 5712,
      "穹": 5713,
      "空": 5714,
      "穿": 5715,
      "突": 5716,
      "窃": 5717,
      "窄": 5718,
      "窍": 5719,
      "窑": 5720,
      "窒": 5721,
      "窓": 5722,
      "窗": 5723,
      "窝": 5724,
      "窟": 5725,
      "窥": 5726,
      "窦": 5727,
      "窮": 5728,
      "竇": 5729,
      "立": 5730,
      "竖": 5731,
      "站": 5732,
      "竜": 5733,
      "竞": 5734,
      "竟": 5735,
      "章": 5736,
      "竣": 5737,
      "童": 5738,
      "竭": 5739,
      "端": 5740,
      "競": 5741,
      "竹": 5742,
      "笑": 5743,
      "笔": 5744,
      "笛": 5745,
      "笥": 5746,
      "符": 5747,
      "笨": 5748,
      "第": 5749,
      "笺": 5750,
      "笼": 5751,
      "筆": 5752,
      "等": 5753,
      "筋": 5754,
      "筐": 5755,
      "筑": 5756,
      "筒": 5757,
      "答": 5758,
      "策": 5759,
      "筛": 5760,
      "筝": 5761,
      "筹": 5762,
      "签": 5763,
      "简": 5764,
      "箇": 5765,
      "箋": 5766,
      "箍": 5767,
      "算": 5768,
      "管": 5769,
      "箪": 5770,
      "箫": 5771,
      "箭": 5772,
      "箱": 5773,
      "節": 5774,
      "範": 5775,
      "篇": 5776,
      "築": 5777,
      "篓": 5778,
      "篙": 5779,
      "篠": 5780,
      "篡": 5781,
      "篩": 5782,
      "篮": 5783,
      "篱": 5784,
      "篷": 5785,
      "簇": 5786,
      "簡": 5787,
      "簧": 5788,
      "簽": 5789,
      "簾": 5790,
      "簿": 5791,
      "籃": 5792,
      "籌": 5793,
      "籍": 5794,
      "籤": 5795,
      "籲": 5796,
      "米": 5797,
      "类": 5798,
      "籽": 5799,
      "粉": 5800,
      "粋": 5801,
      "粑": 5802,
      "粒": 5803,
      "粕": 5804,
      "粗": 5805,
      "粘": 5806,
      "粤": 5807,
      "粥": 5808,
      "粧": 5809,
      "粪": 5810,
      "粮": 5811,
      "粱": 5812,
      "粹": 5813,
      "粽": 5814,
      "精": 5815,
      "糊": 5816,
      "糍": 5817,
      "糕": 5818,
      "糖": 5819,
      "糗": 5820,
      "糙": 5821,
      "糜": 5822,
      "糞": 5823,
      "糟": 5824,
      "糧": 5825,
      "糯": 5826,
      "糸": 5827,
      "系": 5828,
      "紀": 5829,
      "約": 5830,
      "紅": 5831,
      "紊": 5832,
      "紋": 5833,
      "納": 5834,
      "紐": 5835,
      "純": 5836,
      "紙": 5837,
      "級": 5838,
      "紛": 5839,
      "素": 5840,
      "紡": 5841,
      "索": 5842,
      "紧": 5843,
      "紫": 5844,
      "累": 5845,
      "細": 5846,
      "紹": 5847,
      "終": 5848,
      "組": 5849,
      "絆": 5850,
      "経": 5851,
      "結": 5852,
      "絔": 5853,
      "絕": 5854,
      "絞": 5855,
      "絡": 5856,
      "絢": 5857,
      "給": 5858,
      "絮": 5859,
      "統": 5860,
      "絲": 5861,
      "絵": 5862,
      "絶": 5863,
      "經": 5864,
      "継": 5865,
      "続": 5866,
      "綜": 5867,
      "綠": 5868,
      "綡": 5869,
      "維": 5870,
      "綱": 5871,
      "網": 5872,
      "綺": 5873,
      "綻": 5874,
      "綾": 5875,
      "綿": 5876,
      "緊": 5877,
      "総": 5878,
      "緑": 5879,
      "緒": 5880,
      "線": 5881,
      "締": 5882,
      "編": 5883,
      "緩": 5884,
      "緯": 5885,
      "練": 5886,
      "緹": 5887,
      "緻": 5888,
      "縁": 5889,
      "縄": 5890,
      "縞": 5891,
      "縦": 5892,
      "縫": 5893,
      "縮": 5894,
      "縸": 5895,
      "總": 5896,
      "績": 5897,
      "繁": 5898,
      "繊": 5899,
      "繋": 5900,
      "織": 5901,
      "繕": 5902,
      "繚": 5903,
      "繞": 5904,
      "繫": 5905,
      "繰": 5906,
      "繼": 5907,
      "續": 5908,
      "纏": 5909,
      "纖": 5910,
      "纜": 5911,
      "纠": 5912,
      "红": 5913,
      "纤": 5914,
      "约": 5915,
      "级": 5916,
      "纪": 5917,
      "纬": 5918,
      "纯": 5919,
      "纱": 5920,
      "纲": 5921,
      "纳": 5922,
      "纵": 5923,
      "纶": 5924,
      "纷": 5925,
      "纸": 5926,
      "纹": 5927,
      "纺": 5928,
      "纽": 5929,
      "线": 5930,
      "练": 5931,
      "组": 5932,
      "细": 5933,
      "织": 5934,
      "终": 5935,
      "绊": 5936,
      "绍": 5937,
      "绎": 5938,
      "经": 5939,
      "绑": 5940,
      "绒": 5941,
      "结": 5942,
      "绕": 5943,
      "绘": 5944,
      "给": 5945,
      "绚": 5946,
      "络": 5947,
      "绝": 5948,
      "统": 5949,
      "绣": 5950,
      "继": 5951,
      "绩": 5952,
      "绪": 5953,
      "续": 5954,
      "绮": 5955,
      "绰": 5956,
      "绳": 5957,
      "维": 5958,
      "绵": 5959,
      "绷": 5960,
      "绸": 5961,
      "综": 5962,
      "绽": 5963,
      "绿": 5964,
      "缀": 5965,
      "缅": 5966,
      "缆": 5967,
      "缈": 5968,
      "缓": 5969,
      "编": 5970,
      "缘": 5971,
      "缚": 5972,
      "缝": 5973,
      "缠": 5974,
      "缥": 5975,
      "缩": 5976,
      "缪": 5977,
      "缬": 5978,
      "缭": 5979,
      "缴": 5980,
      "缶": 5981,
      "缸": 5982,
      "缺": 5983,
      "罐": 5984,
      "网": 5985,
      "罔": 5986,
      "罕": 5987,
      "罗": 5988,
      "罚": 5989,
      "罩": 5990,
      "罪": 5991,
      "置": 5992,
      "罰": 5993,
      "署": 5994,
      "罹": 5995,
      "羅": 5996,
      "羊": 5997,
      "羌": 5998,
      "美": 5999,
      "羚": 6000,
      "羟": 6001,
      "羡": 6002,
      "群": 6003,
      "羧": 6004,
      "羨": 6005,
      "義": 6006,
      "羰": 6007,
      "羽": 6008,
      "翁": 6009,
      "翅": 6010,
      "翊": 6011,
      "翘": 6012,
      "翠": 6013,
      "翡": 6014,
      "翩": 6015,
      "翰": 6016,
      "翹": 6017,
      "翻": 6018,
      "翼": 6019,
      "耀": 6020,
      "老": 6021,
      "考": 6022,
      "者": 6023,
      "而": 6024,
      "耍": 6025,
      "耐": 6026,
      "耕": 6027,
      "耗": 6028,
      "耦": 6029,
      "耳": 6030,
      "耶": 6031,
      "耸": 6032,
      "耻": 6033,
      "耽": 6034,
      "聆": 6035,
      "聊": 6036,
      "聋": 6037,
      "职": 6038,
      "联": 6039,
      "聖": 6040,
      "聘": 6041,
      "聚": 6042,
      "聞": 6043,
      "聡": 6044,
      "聩": 6045,
      "聪": 6046,
      "聯": 6047,
      "聰": 6048,
      "聲": 6049,
      "聴": 6050,
      "職": 6051,
      "聹": 6052,
      "聽": 6053,
      "肃": 6054,
      "肆": 6055,
      "肉": 6056,
      "肋": 6057,
      "肌": 6058,
      "肖": 6059,
      "肘": 6060,
      "肚": 6061,
      "肛": 6062,
      "肝": 6063,
      "肠": 6064,
      "股": 6065,
      "肢": 6066,
      "肤": 6067,
      "肥": 6068,
      "肩": 6069,
      "肪": 6070,
      "肮": 6071,
      "肯": 6072,
      "肱": 6073,
      "育": 6074,
      "肴": 6075,
      "肺": 6076,
      "肽": 6077,
      "肾": 6078,
      "肿": 6079,
      "胀": 6080,
      "胁": 6081,
      "胃": 6082,
      "胆": 6083,
      "背": 6084,
      "胍": 6085,
      "胎": 6086,
      "胖": 6087,
      "胚": 6088,
      "胜": 6089,
      "胞": 6090,
      "胡": 6091,
      "胫": 6092,
      "胭": 6093,
      "胰": 6094,
      "胱": 6095,
      "胴": 6096,
      "胶": 6097,
      "胸": 6098,
      "胺": 6099,
      "能": 6100,
      "脂": 6101,
      "脅": 6102,
      "脆": 6103,
      "脇": 6104,
      "脈": 6105,
      "脉": 6106,
      "脊": 6107,
      "脏": 6108,
      "脐": 6109,
      "脑": 6110,
      "脓": 6111,
      "脖": 6112,
      "脚": 6113,
      "脫": 6114,
      "脱": 6115,
      "脳": 6116,
      "脸": 6117,
      "脹": 6118,
      "脾": 6119,
      "脿": 6120,
      "腈": 6121,
      "腊": 6122,
      "腌": 6123,
      "腎": 6124,
      "腐": 6125,
      "腔": 6126,
      "腕": 6127,
      "腗": 6128,
      "腦": 6129,
      "腩": 6130,
      "腫": 6131,
      "腮": 6132,
      "腰": 6133,
      "腱": 6134,
      "腳": 6135,
      "腸": 6136,
      "腹": 6137,
      "腺": 6138,
      "腻": 6139,
      "腾": 6140,
      "腿": 6141,
      "膀": 6142,
      "膏": 6143,
      "膚": 6144,
      "膜": 6145,
      "膝": 6146,
      "膠": 6147,
      "膣": 6148,
      "膨": 6149,
      "膳": 6150,
      "膽": 6151,
      "膿": 6152,
      "臀": 6153,
      "臂": 6154,
      "臆": 6155,
      "臉": 6156,
      "臍": 6157,
      "臓": 6158,
      "臟": 6159,
      "臣": 6160,
      "臨": 6161,
      "臭": 6162,
      "至": 6163,
      "致": 6164,
      "臺": 6165,
      "舅": 6166,
      "舆": 6167,
      "與": 6168,
      "興": 6169,
      "舉": 6170,
      "舊": 6171,
      "舌": 6172,
      "舍": 6173,
      "舎": 6174,
      "舐": 6175,
      "舒": 6176,
      "舗": 6177,
      "舞": 6178,
      "舟": 6179,
      "航": 6180,
      "般": 6181,
      "舰": 6182,
      "舱": 6183,
      "舶": 6184,
      "船": 6185,
      "艇": 6186,
      "艘": 6187,
      "艦": 6188,
      "艮": 6189,
      "良": 6190,
      "艰": 6191,
      "色": 6192,
      "艳": 6193,
      "艺": 6194,
      "艾": 6195,
      "节": 6196,
      "芈": 6197,
      "芋": 6198,
      "芍": 6199,
      "芎": 6200,
      "芒": 6201,
      "芙": 6202,
      "芜": 6203,
      "芝": 6204,
      "芡": 6205,
      "芥": 6206,
      "芦": 6207,
      "芩": 6208,
      "芪": 6209,
      "芬": 6210,
      "芭": 6211,
      "芯": 6212,
      "花": 6213,
      "芳": 6214,
      "芸": 6215,
      "芹": 6216,
      "芽": 6217,
      "苄": 6218,
      "苈": 6219,
      "苍": 6220,
      "苏": 6221,
      "苑": 6222,
      "苒": 6223,
      "苓": 6224,
      "苔": 6225,
      "苗": 6226,
      "苛": 6227,
      "苞": 6228,
      "苟": 6229,
      "若": 6230,
      "苦": 6231,
      "苫": 6232,
      "苯": 6233,
      "英": 6234,
      "苷": 6235,
      "苹": 6236,
      "苺": 6237,
      "茁": 6238,
      "茂": 6239,
      "范": 6240,
      "茄": 6241,
      "茅": 6242,
      "茉": 6243,
      "茎": 6244,
      "茏": 6245,
      "茜": 6246,
      "茧": 6247,
      "茨": 6248,
      "茫": 6249,
      "茭": 6250,
      "茯": 6251,
      "茴": 6252,
      "茵": 6253,
      "茶": 6254,
      "茹": 6255,
      "荆": 6256,
      "草": 6257,
      "荏": 6258,
      "荐": 6259,
      "荒": 6260,
      "荔": 6261,
      "荘": 6262,
      "荟": 6263,
      "荡": 6264,
      "荣": 6265,
      "荧": 6266,
      "荫": 6267,
      "药": 6268,
      "荷": 6269,
      "莉": 6270,
      "莊": 6271,
      "莎": 6272,
      "莓": 6273,
      "莞": 6274,
      "莢": 6275,
      "莪": 6276,
      "莫": 6277,
      "莱": 6278,
      "莲": 6279,
      "莴": 6280,
      "获": 6281,
      "莹": 6282,
      "莺": 6283,
      "莽": 6284,
      "菁": 6285,
      "菅": 6286,
      "菇": 6287,
      "菊": 6288,
      "菌": 6289,
      "菓": 6290,
      "菜": 6291,
      "菠": 6292,
      "菩": 6293,
      "華": 6294,
      "菱": 6295,
      "菲": 6296,
      "菸": 6297,
      "萃": 6298,
      "萄": 6299,
      "萋": 6300,
      "萌": 6301,
      "萍": 6302,
      "萎": 6303,
      "萝": 6304,
      "营": 6305,
      "萧": 6306,
      "萨": 6307,
      "萩": 6308,
      "萬": 6309,
      "落": 6310,
      "葉": 6311,
      "著": 6312,
      "葛": 6313,
      "葡": 6314,
      "董": 6315,
      "葬": 6316,
      "葱": 6317,
      "葳": 6318,
      "葵": 6319,
      "葶": 6320,
      "蒂": 6321,
      "蒋": 6322,
      "蒙": 6323,
      "蒜": 6324,
      "蒲": 6325,
      "蒸": 6326,
      "蒼": 6327,
      "蒿": 6328,
      "蓄": 6329,
      "蓉": 6330,
      "蓋": 6331,
      "蓑": 6332,
      "蓝": 6333,
      "蓬": 6334,
      "蓼": 6335,
      "蔑": 6336,
      "蔓": 6337,
      "蔚": 6338,
      "蔡": 6339,
      "蔥": 6340,
      "蔬": 6341,
      "蔵": 6342,
      "蔻": 6343,
      "蔽": 6344,
      "蕁": 6345,
      "蕉": 6346,
      "蕊": 6347,
      "蕎": 6348,
      "蕦": 6349,
      "蕭": 6350,
      "蕴": 6351,
      "蕾": 6352,
      "薄": 6353,
      "薇": 6354,
      "薙": 6355,
      "薛": 6356,
      "薦": 6357,
      "薩": 6358,
      "薪": 6359,
      "薬": 6360,
      "薯": 6361,
      "薰": 6362,
      "藉": 6363,
      "藏": 6364,
      "藓": 6365,
      "藜": 6366,
      "藝": 6367,
      "藤": 6368,
      "藥": 6369,
      "藻": 6370,
      "藿": 6371,
      "蘋": 6372,
      "蘑": 6373,
      "蘭": 6374,
      "蘸": 6375,
      "虎": 6376,
      "虐": 6377,
      "虑": 6378,
      "處": 6379,
      "虚": 6380,
      "虛": 6381,
      "號": 6382,
      "虫": 6383,
      "虹": 6384,
      "虽": 6385,
      "虾": 6386,
      "蚀": 6387,
      "蚁": 6388,
      "蚊": 6389,
      "蚓": 6390,
      "蚕": 6391,
      "蚝": 6392,
      "蚣": 6393,
      "蚪": 6394,
      "蚯": 6395,
      "蚴": 6396,
      "蛇": 6397,
      "蛋": 6398,
      "蛍": 6399,
      "蛎": 6400,
      "蛔": 6401,
      "蛙": 6402,
      "蛛": 6403,
      "蛞": 6404,
      "蛮": 6405,
      "蛳": 6406,
      "蛹": 6407,
      "蛾": 6408,
      "蜀": 6409,
      "蜂": 6410,
      "蜇": 6411,
      "蜈": 6412,
      "蜒": 6413,
      "蜓": 6414,
      "蜗": 6415,
      "蜘": 6416,
      "蜜": 6417,
      "蜡": 6418,
      "蜥": 6419,
      "蜴": 6420,
      "蜷": 6421,
      "蜻": 6422,
      "蜿": 6423,
      "蝇": 6424,
      "蝌": 6425,
      "蝎": 6426,
      "蝓": 6427,
      "蝕": 6428,
      "蝙": 6429,
      "蝠": 6430,
      "蝦": 6431,
      "蝲": 6432,
      "蝴": 6433,
      "蝶": 6434,
      "蝸": 6435,
      "螃": 6436,
      "融": 6437,
      "螞": 6438,
      "螢": 6439,
      "螺": 6440,
      "蟜": 6441,
      "蟠": 6442,
      "蟲": 6443,
      "蟹": 6444,
      "蟻": 6445,
      "蠕": 6446,
      "蠡": 6447,
      "蠢": 6448,
      "血": 6449,
      "衆": 6450,
      "行": 6451,
      "衍": 6452,
      "術": 6453,
      "衔": 6454,
      "街": 6455,
      "衛": 6456,
      "衝": 6457,
      "衡": 6458,
      "衣": 6459,
      "补": 6460,
      "表": 6461,
      "衫": 6462,
      "衬": 6463,
      "衰": 6464,
      "衷": 6465,
      "袁": 6466,
      "袄": 6467,
      "袋": 6468,
      "袍": 6469,
      "袖": 6470,
      "袜": 6471,
      "被": 6472,
      "袭": 6473,
      "袱": 6474,
      "袴": 6475,
      "裁": 6476,
      "裂": 6477,
      "装": 6478,
      "裉": 6479,
      "裏": 6480,
      "裕": 6481,
      "裙": 6482,
      "補": 6483,
      "裝": 6484,
      "裡": 6485,
      "裤": 6486,
      "裸": 6487,
      "裹": 6488,
      "製": 6489,
      "裾": 6490,
      "褂": 6491,
      "複": 6492,
      "褐": 6493,
      "褒": 6494,
      "褪": 6495,
      "褲": 6496,
      "褶": 6497,
      "襟": 6498,
      "襯": 6499,
      "襲": 6500,
      "西": 6501,
      "要": 6502,
      "覅": 6503,
      "覆": 6504,
      "覇": 6505,
      "見": 6506,
      "規": 6507,
      "視": 6508,
      "覚": 6509,
      "覧": 6510,
      "親": 6511,
      "観": 6512,
      "覺": 6513,
      "覽": 6514,
      "觀": 6515,
      "见": 6516,
      "观": 6517,
      "规": 6518,
      "觅": 6519,
      "视": 6520,
      "觇": 6521,
      "览": 6522,
      "觉": 6523,
      "觑": 6524,
      "角": 6525,
      "觘": 6526,
      "觞": 6527,
      "解": 6528,
      "触": 6529,
      "觸": 6530,
      "言": 6531,
      "訂": 6532,
      "計": 6533,
      "訊": 6534,
      "討": 6535,
      "訓": 6536,
      "託": 6537,
      "記": 6538,
      "訝": 6539,
      "訣": 6540,
      "訪": 6541,
      "設": 6542,
      "許": 6543,
      "訳": 6544,
      "訴": 6545,
      "診": 6546,
      "註": 6547,
      "証": 6548,
      "評": 6549,
      "詞": 6550,
      "詢": 6551,
      "試": 6552,
      "詩": 6553,
      "詫": 6554,
      "詰": 6555,
      "話": 6556,
      "該": 6557,
      "詳": 6558,
      "詹": 6559,
      "誇": 6560,
      "誉": 6561,
      "誌": 6562,
      "認": 6563,
      "誓": 6564,
      "誕": 6565,
      "誘": 6566,
      "語": 6567,
      "誠": 6568,
      "誤": 6569,
      "說": 6570,
      "説": 6571,
      "読": 6572,
      "誰": 6573,
      "課": 6574,
      "調": 6575,
      "談": 6576,
      "請": 6577,
      "論": 6578,
      "諦": 6579,
      "諮": 6580,
      "諸": 6581,
      "諺": 6582,
      "諾": 6583,
      "謀": 6584,
      "謁": 6585,
      "謂": 6586,
      "謎": 6587,
      "謙": 6588,
      "講": 6589,
      "謝": 6590,
      "謡": 6591,
      "謹": 6592,
      "證": 6593,
      "識": 6594,
      "譜": 6595,
      "警": 6596,
      "譯": 6597,
      "議": 6598,
      "譲": 6599,
      "護": 6600,
      "譽": 6601,
      "讀": 6602,
      "變": 6603,
      "讓": 6604,
      "讚": 6605,
      "计": 6606,
      "订": 6607,
      "认": 6608,
      "讨": 6609,
      "让": 6610,
      "讪": 6611,
      "训": 6612,
      "议": 6613,
      "讯": 6614,
      "记": 6615,
      "讲": 6616,
      "讳": 6617,
      "讶": 6618,
      "许": 6619,
      "论": 6620,
      "讽": 6621,
      "设": 6622,
      "访": 6623,
      "诀": 6624,
      "证": 6625,
      "评": 6626,
      "识": 6627,
      "诈": 6628,
      "诉": 6629,
      "诊": 6630,
      "词": 6631,
      "译": 6632,
      "试": 6633,
      "诗": 6634,
      "诚": 6635,
      "话": 6636,
      "诞": 6637,
      "诡": 6638,
      "询": 6639,
      "该": 6640,
      "详": 6641,
      "诫": 6642,
      "语": 6643,
      "误": 6644,
      "诱": 6645,
      "说": 6646,
      "诵": 6647,
      "请": 6648,
      "诸": 6649,
      "诺": 6650,
      "读": 6651,
      "诽": 6652,
      "课": 6653,
      "谁": 6654,
      "调": 6655,
      "谅": 6656,
      "谈": 6657,
      "谊": 6658,
      "谋": 6659,
      "谎": 6660,
      "谐": 6661,
      "谑": 6662,
      "谓": 6663,
      "谔": 6664,
      "谚": 6665,
      "谜": 6666,
      "谢": 6667,
      "谣": 6668,
      "谤": 6669,
      "谥": 6670,
      "谦": 6671,
      "谧": 6672,
      "谨": 6673,
      "谬": 6674,
      "谭": 6675,
      "谱": 6676,
      "谷": 6677,
      "豆": 6678,
      "豊": 6679,
      "豐": 6680,
      "豚": 6681,
      "象": 6682,
      "豪": 6683,
      "豫": 6684,
      "豬": 6685,
      "豹": 6686,
      "貉": 6687,
      "貌": 6688,
      "貓": 6689,
      "貝": 6690,
      "貞": 6691,
      "負": 6692,
      "財": 6693,
      "貢": 6694,
      "貧": 6695,
      "貨": 6696,
      "販": 6697,
      "貫": 6698,
      "責": 6699,
      "貯": 6700,
      "貰": 6701,
      "貳": 6702,
      "貴": 6703,
      "買": 6704,
      "貸": 6705,
      "費": 6706,
      "貼": 6707,
      "貿": 6708,
      "賀": 6709,
      "賃": 6710,
      "賄": 6711,
      "資": 6712,
      "賑": 6713,
      "賓": 6714,
      "賛": 6715,
      "賜": 6716,
      "賞": 6717,
      "賢": 6718,
      "賣": 6719,
      "賦": 6720,
      "質": 6721,
      "賴": 6722,
      "賺": 6723,
      "購": 6724,
      "賽": 6725,
      "贈": 6726,
      "贊": 6727,
      "贝": 6728,
      "负": 6729,
      "贡": 6730,
      "财": 6731,
      "责": 6732,
      "贤": 6733,
      "败": 6734,
      "账": 6735,
      "货": 6736,
      "质": 6737,
      "贩": 6738,
      "贫": 6739,
      "贬": 6740,
      "购": 6741,
      "贮": 6742,
      "贯": 6743,
      "贰": 6744,
      "贴": 6745,
      "贵": 6746,
      "贷": 6747,
      "贸": 6748,
      "费": 6749,
      "贺": 6750,
      "贾": 6751,
      "贿": 6752,
      "赁": 6753,
      "资": 6754,
      "赋": 6755,
      "赌": 6756,
      "赎": 6757,
      "赏": 6758,
      "赔": 6759,
      "赖": 6760,
      "赚": 6761,
      "赛": 6762,
      "赞": 6763,
      "赠": 6764,
      "赢": 6765,
      "赣": 6766,
      "赤": 6767,
      "赫": 6768,
      "走": 6769,
      "赴": 6770,
      "赵": 6771,
      "赶": 6772,
      "起": 6773,
      "超": 6774,
      "越": 6775,
      "趋": 6776,
      "趣": 6777,
      "趨": 6778,
      "足": 6779,
      "趾": 6780,
      "跃": 6781,
      "跌": 6782,
      "跏": 6783,
      "跑": 6784,
      "距": 6785,
      "跟": 6786,
      "跡": 6787,
      "跨": 6788,
      "跪": 6789,
      "路": 6790,
      "跳": 6791,
      "践": 6792,
      "跹": 6793,
      "踊": 6794,
      "踏": 6795,
      "踐": 6796,
      "踝": 6797,
      "踞": 6798,
      "踢": 6799,
      "踩": 6800,
      "踪": 6801,
      "蹄": 6802,
      "蹈": 6803,
      "蹊": 6804,
      "蹟": 6805,
      "蹤": 6806,
      "蹦": 6807,
      "蹬": 6808,
      "蹲": 6809,
      "蹴": 6810,
      "躁": 6811,
      "躍": 6812,
      "身": 6813,
      "躯": 6814,
      "躲": 6815,
      "躺": 6816,
      "車": 6817,
      "軌": 6818,
      "軍": 6819,
      "軒": 6820,
      "軟": 6821,
      "転": 6822,
      "軸": 6823,
      "軽": 6824,
      "較": 6825,
      "載": 6826,
      "輔": 6827,
      "輕": 6828,
      "輛": 6829,
      "輝": 6830,
      "輩": 6831,
      "輪": 6832,
      "輯": 6833,
      "輳": 6834,
      "輸": 6835,
      "輻": 6836,
      "轉": 6837,
      "车": 6838,
      "轨": 6839,
      "轩": 6840,
      "转": 6841,
      "轮": 6842,
      "软": 6843,
      "轰": 6844,
      "轴": 6845,
      "轻": 6846,
      "轼": 6847,
      "载": 6848,
      "轿": 6849,
      "较": 6850,
      "辄": 6851,
      "辅": 6852,
      "辆": 6853,
      "辈": 6854,
      "辉": 6855,
      "辊": 6856,
      "辐": 6857,
      "辑": 6858,
      "输": 6859,
      "辖": 6860,
      "辙": 6861,
      "辛": 6862,
      "辞": 6863,
      "辣": 6864,
      "辦": 6865,
      "辨": 6866,
      "辩": 6867,
      "辫": 6868,
      "辭": 6869,
      "辰": 6870,
      "辱": 6871,
      "農": 6872,
      "边": 6873,
      "辺": 6874,
      "辻": 6875,
      "込": 6876,
      "辽": 6877,
      "达": 6878,
      "迁": 6879,
      "迅": 6880,
      "过": 6881,
      "迈": 6882,
      "迎": 6883,
      "运": 6884,
      "近": 6885,
      "返": 6886,
      "还": 6887,
      "这": 6888,
      "进": 6889,
      "远": 6890,
      "违": 6891,
      "连": 6892,
      "迟": 6893,
      "迦": 6894,
      "迪": 6895,
      "迫": 6896,
      "迭": 6897,
      "述": 6898,
      "迴": 6899,
      "迷": 6900,
      "迹": 6901,
      "追": 6902,
      "送": 6903,
      "适": 6904,
      "逃": 6905,
      "逄": 6906,
      "逅": 6907,
      "逆": 6908,
      "选": 6909,
      "逊": 6910,
      "逍": 6911,
      "透": 6912,
      "逐": 6913,
      "递": 6914,
      "途": 6915,
      "逗": 6916,
      "這": 6917,
      "通": 6918,
      "逛": 6919,
      "逝": 6920,
      "速": 6921,
      "造": 6922,
      "逢": 6923,
      "連": 6924,
      "逮": 6925,
      "週": 6926,
      "進": 6927,
      "逸": 6928,
      "逻": 6929,
      "逾": 6930,
      "遂": 6931,
      "遅": 6932,
      "遇": 6933,
      "遊": 6934,
      "運": 6935,
      "遍": 6936,
      "過": 6937,
      "遏": 6938,
      "道": 6939,
      "達": 6940,
      "違": 6941,
      "遗": 6942,
      "遙": 6943,
      "遞": 6944,
      "遠": 6945,
      "遣": 6946,
      "遥": 6947,
      "適": 6948,
      "遭": 6949,
      "遮": 6950,
      "遯": 6951,
      "遵": 6952,
      "遷": 6953,
      "選": 6954,
      "遺": 6955,
      "避": 6956,
      "邀": 6957,
      "邁": 6958,
      "邂": 6959,
      "邃": 6960,
      "還": 6961,
      "邊": 6962,
      "邏": 6963,
      "邑": 6964,
      "那": 6965,
      "邦": 6966,
      "邪": 6967,
      "邮": 6968,
      "邱": 6969,
      "邵": 6970,
      "邸": 6971,
      "邹": 6972,
      "邻": 6973,
      "郁": 6974,
      "郊": 6975,
      "郎": 6976,
      "郑": 6977,
      "郡": 6978,
      "部": 6979,
      "郵": 6980,
      "郷": 6981,
      "都": 6982,
      "鄉": 6983,
      "鄙": 6984,
      "鄭": 6985,
      "酉": 6986,
      "酊": 6987,
      "酌": 6988,
      "配": 6989,
      "酐": 6990,
      "酒": 6991,
      "酔": 6992,
      "酗": 6993,
      "酚": 6994,
      "酞": 6995,
      "酢": 6996,
      "酥": 6997,
      "酩": 6998,
      "酪": 6999,
      "酬": 7000,
      "酮": 7001,
      "酯": 7002,
      "酰": 7003,
      "酱": 7004,
      "酵": 7005,
      "酶": 7006,
      "酷": 7007,
      "酸": 7008,
      "酿": 7009,
      "醇": 7010,
      "醉": 7011,
      "醋": 7012,
      "醒": 7013,
      "醚": 7014,
      "醛": 7015,
      "醜": 7016,
      "醤": 7017,
      "醪": 7018,
      "醫": 7019,
      "醬": 7020,
      "釁": 7021,
      "采": 7022,
      "釈": 7023,
      "釉": 7024,
      "释": 7025,
      "釋": 7026,
      "里": 7027,
      "重": 7028,
      "野": 7029,
      "量": 7030,
      "金": 7031,
      "釗": 7032,
      "釘": 7033,
      "釜": 7034,
      "針": 7035,
      "釣": 7036,
      "鈍": 7037,
      "鈕": 7038,
      "鈴": 7039,
      "鉀": 7040,
      "鉄": 7041,
      "鉛": 7042,
      "鉦": 7043,
      "鉴": 7044,
      "銀": 7045,
      "銅": 7046,
      "銘": 7047,
      "銛": 7048,
      "銬": 7049,
      "銭": 7050,
      "銷": 7051,
      "銹": 7052,
      "鋁": 7053,
      "鋒": 7054,
      "鋭": 7055,
      "鋸": 7056,
      "鋼": 7057,
      "錄": 7058,
      "錘": 7059,
      "錠": 7060,
      "錢": 7061,
      "錦": 7062,
      "錫": 7063,
      "錬": 7064,
      "錯": 7065,
      "録": 7066,
      "錶": 7067,
      "鍊": 7068,
      "鍋": 7069,
      "鍛": 7070,
      "鍮": 7071,
      "鍵": 7072,
      "鍼": 7073,
      "鍾": 7074,
      "鎌": 7075,
      "鎖": 7076,
      "鎧": 7077,
      "鎮": 7078,
      "鏡": 7079,
      "鐘": 7080,
      "鐲": 7081,
      "鐵": 7082,
      "鑑": 7083,
      "鑰": 7084,
      "针": 7085,
      "钉": 7086,
      "钎": 7087,
      "钓": 7088,
      "钗": 7089,
      "钙": 7090,
      "钛": 7091,
      "钝": 7092,
      "钞": 7093,
      "钟": 7094,
      "钠": 7095,
      "钢": 7096,
      "钥": 7097,
      "钦": 7098,
      "钨": 7099,
      "钩": 7100,
      "钮": 7101,
      "钱": 7102,
      "钴": 7103,
      "钹": 7104,
      "钻": 7105,
      "钽": 7106,
      "钾": 7107,
      "铀": 7108,
      "铁": 7109,
      "铂": 7110,
      "铃": 7111,
      "铅": 7112,
      "铈": 7113,
      "铛": 7114,
      "铜": 7115,
      "铝": 7116,
      "铭": 7117,
      "铯": 7118,
      "铲": 7119,
      "铵": 7120,
      "银": 7121,
      "铸": 7122,
      "铺": 7123,
      "链": 7124,
      "销": 7125,
      "锁": 7126,
      "锂": 7127,
      "锄": 7128,
      "锅": 7129,
      "锈": 7130,
      "锋": 7131,
      "锌": 7132,
      "锐": 7133,
      "错": 7134,
      "锛": 7135,
      "锡": 7136,
      "锤": 7137,
      "锥": 7138,
      "锦": 7139,
      "键": 7140,
      "锯": 7141,
      "锰": 7142,
      "锶": 7143,
      "锻": 7144,
      "镀": 7145,
      "镁": 7146,
      "镂": 7147,
      "镇": 7148,
      "镍": 7149,
      "镐": 7150,
      "镖": 7151,
      "镜": 7152,
      "镶": 7153,
      "長": 7154,
      "长": 7155,
      "門": 7156,
      "閃": 7157,
      "閉": 7158,
      "開": 7159,
      "閎": 7160,
      "閏": 7161,
      "閑": 7162,
      "閒": 7163,
      "間": 7164,
      "閘": 7165,
      "閞": 7166,
      "関": 7167,
      "閣": 7168,
      "閤": 7169,
      "閩": 7170,
      "閱": 7171,
      "閲": 7172,
      "闇": 7173,
      "闊": 7174,
      "闘": 7175,
      "關": 7176,
      "门": 7177,
      "闪": 7178,
      "闭": 7179,
      "问": 7180,
      "闯": 7181,
      "闲": 7182,
      "间": 7183,
      "闵": 7184,
      "闷": 7185,
      "闸": 7186,
      "闹": 7187,
      "闺": 7188,
      "闻": 7189,
      "阀": 7190,
      "阁": 7191,
      "阅": 7192,
      "阈": 7193,
      "阐": 7194,
      "阑": 7195,
      "阔": 7196,
      "阖": 7197,
      "阙": 7198,
      "阜": 7199,
      "阪": 7200,
      "阱": 7201,
      "防": 7202,
      "阳": 7203,
      "阴": 7204,
      "阵": 7205,
      "阶": 7206,
      "阻": 7207,
      "阿": 7208,
      "陀": 7209,
      "附": 7210,
      "际": 7211,
      "陆": 7212,
      "陈": 7213,
      "陌": 7214,
      "降": 7215,
      "限": 7216,
      "陕": 7217,
      "陛": 7218,
      "陡": 7219,
      "院": 7220,
      "陣": 7221,
      "除": 7222,
      "陥": 7223,
      "陨": 7224,
      "险": 7225,
      "陪": 7226,
      "陰": 7227,
      "陳": 7228,
      "陵": 7229,
      "陶": 7230,
      "陷": 7231,
      "陸": 7232,
      "険": 7233,
      "陽": 7234,
      "隅": 7235,
      "隆": 7236,
      "階": 7237,
      "随": 7238,
      "隐": 7239,
      "隔": 7240,
      "隘": 7241,
      "隙": 7242,
      "際": 7243,
      "障": 7244,
      "隠": 7245,
      "隣": 7246,
      "隧": 7247,
      "隨": 7248,
      "險": 7249,
      "隶": 7250,
      "隻": 7251,
      "难": 7252,
      "雀": 7253,
      "雁": 7254,
      "雄": 7255,
      "雅": 7256,
      "集": 7257,
      "雇": 7258,
      "雌": 7259,
      "雍": 7260,
      "雑": 7261,
      "雕": 7262,
      "雖": 7263,
      "雙": 7264,
      "雛": 7265,
      "雜": 7266,
      "離": 7267,
      "難": 7268,
      "雨": 7269,
      "雪": 7270,
      "雯": 7271,
      "雰": 7272,
      "雲": 7273,
      "零": 7274,
      "雷": 7275,
      "電": 7276,
      "雾": 7277,
      "需": 7278,
      "霁": 7279,
      "霄": 7280,
      "霆": 7281,
      "震": 7282,
      "霉": 7283,
      "霊": 7284,
      "霍": 7285,
      "霓": 7286,
      "霜": 7287,
      "霞": 7288,
      "霧": 7289,
      "露": 7290,
      "霸": 7291,
      "霾": 7292,
      "靈": 7293,
      "青": 7294,
      "靖": 7295,
      "静": 7296,
      "靜": 7297,
      "非": 7298,
      "靠": 7299,
      "靡": 7300,
      "面": 7301,
      "靥": 7302,
      "革": 7303,
      "靭": 7304,
      "靴": 7305,
      "靶": 7306,
      "鞋": 7307,
      "鞘": 7308,
      "鞭": 7309,
      "韓": 7310,
      "韦": 7311,
      "韧": 7312,
      "韩": 7313,
      "韭": 7314,
      "音": 7315,
      "韵": 7316,
      "韶": 7317,
      "韻": 7318,
      "響": 7319,
      "頁": 7320,
      "頂": 7321,
      "頃": 7322,
      "項": 7323,
      "順": 7324,
      "須": 7325,
      "頌": 7326,
      "預": 7327,
      "頑": 7328,
      "頓": 7329,
      "頗": 7330,
      "領": 7331,
      "頚": 7332,
      "頬": 7333,
      "頭": 7334,
      "頷": 7335,
      "頸": 7336,
      "頻": 7337,
      "頼": 7338,
      "顅": 7339,
      "顆": 7340,
      "題": 7341,
      "額": 7342,
      "顏": 7343,
      "顔": 7344,
      "顕": 7345,
      "願": 7346,
      "類": 7347,
      "顧": 7348,
      "顫": 7349,
      "顯": 7350,
      "页": 7351,
      "顶": 7352,
      "顷": 7353,
      "项": 7354,
      "顺": 7355,
      "须": 7356,
      "顾": 7357,
      "顿": 7358,
      "颁": 7359,
      "颂": 7360,
      "预": 7361,
      "颅": 7362,
      "领": 7363,
      "颇": 7364,
      "颈": 7365,
      "颉": 7366,
      "颊": 7367,
      "颌": 7368,
      "颐": 7369,
      "频": 7370,
      "颖": 7371,
      "颗": 7372,
      "题": 7373,
      "颜": 7374,
      "额": 7375,
      "颞": 7376,
      "颠": 7377,
      "颡": 7378,
      "風": 7379,
      "飄": 7380,
      "飌": 7381,
      "风": 7382,
      "飓": 7383,
      "飕": 7384,
      "飘": 7385,
      "飙": 7386,
      "飛": 7387,
      "飞": 7388,
      "食": 7389,
      "飢": 7390,
      "飯": 7391,
      "飱": 7392,
      "飲": 7393,
      "飼": 7394,
      "飽": 7395,
      "飾": 7396,
      "餃": 7397,
      "餅": 7398,
      "養": 7399,
      "餐": 7400,
      "餓": 7401,
      "餚": 7402,
      "餡": 7403,
      "館": 7404,
      "饤": 7405,
      "饥": 7406,
      "饪": 7407,
      "饭": 7408,
      "饮": 7409,
      "饯": 7410,
      "饰": 7411,
      "饱": 7412,
      "饲": 7413,
      "饶": 7414,
      "饼": 7415,
      "饿": 7416,
      "馃": 7417,
      "馆": 7418,
      "馈": 7419,
      "馏": 7420,
      "馒": 7421,
      "首": 7422,
      "香": 7423,
      "馬": 7424,
      "馴": 7425,
      "駄": 7426,
      "駅": 7427,
      "駆": 7428,
      "駑": 7429,
      "駕": 7430,
      "駛": 7431,
      "駱": 7432,
      "騎": 7433,
      "騒": 7434,
      "験": 7435,
      "騨": 7436,
      "騰": 7437,
      "驗": 7438,
      "驚": 7439,
      "驟": 7440,
      "马": 7441,
      "驭": 7442,
      "驯": 7443,
      "驰": 7444,
      "驱": 7445,
      "驳": 7446,
      "驴": 7447,
      "驶": 7448,
      "驻": 7449,
      "驼": 7450,
      "驾": 7451,
      "骁": 7452,
      "骂": 7453,
      "骄": 7454,
      "骆": 7455,
      "骋": 7456,
      "验": 7457,
      "骏": 7458,
      "骑": 7459,
      "骖": 7460,
      "骗": 7461,
      "骚": 7462,
      "骛": 7463,
      "骤": 7464,
      "骥": 7465,
      "骨": 7466,
      "骰": 7467,
      "骶": 7468,
      "骸": 7469,
      "骼": 7470,
      "髂": 7471,
      "髄": 7472,
      "髋": 7473,
      "髓": 7474,
      "體": 7475,
      "高": 7476,
      "髪": 7477,
      "髭": 7478,
      "鬆": 7479,
      "鬓": 7480,
      "鬚": 7481,
      "鬥": 7482,
      "鬧": 7483,
      "鬱": 7484,
      "鬼": 7485,
      "魁": 7486,
      "魂": 7487,
      "魄": 7488,
      "魅": 7489,
      "魏": 7490,
      "魔": 7491,
      "魚": 7492,
      "魯": 7493,
      "鮫": 7494,
      "鮭": 7495,
      "鮮": 7496,
      "鯖": 7497,
      "鯛": 7498,
      "鰹": 7499,
      "鰻": 7500,
      "鱗": 7501,
      "鱼": 7502,
      "鱿": 7503,
      "鲁": 7504,
      "鲈": 7505,
      "鲜": 7506,
      "鲨": 7507,
      "鲫": 7508,
      "鲷": 7509,
      "鲸": 7510,
      "鳄": 7511,
      "鳆": 7512,
      "鳔": 7513,
      "鳕": 7514,
      "鳙": 7515,
      "鳝": 7516,
      "鳞": 7517,
      "鳥": 7518,
      "鳩": 7519,
      "鳳": 7520,
      "鳴": 7521,
      "鴻": 7522,
      "鵑": 7523,
      "鵝": 7524,
      "鶏": 7525,
      "鶴": 7526,
      "鷹": 7527,
      "鸟": 7528,
      "鸣": 7529,
      "鸥": 7530,
      "鸦": 7531,
      "鸭": 7532,
      "鸯": 7533,
      "鸳": 7534,
      "鸵": 7535,
      "鸽": 7536,
      "鸿": 7537,
      "鹅": 7538,
      "鹈": 7539,
      "鹉": 7540,
      "鹏": 7541,
      "鹤": 7542,
      "鹦": 7543,
      "鹰": 7544,
      "鹲": 7545,
      "鹳": 7546,
      "鹽": 7547,
      "鹿": 7548,
      "麗": 7549,
      "麥": 7550,
      "麦": 7551,
      "麵": 7552,
      "麹": 7553,
      "麺": 7554,
      "麻": 7555,
      "麼": 7556,
      "麽": 7557,
      "黃": 7558,
      "黄": 7559,
      "黎": 7560,
      "黏": 7561,
      "黑": 7562,
      "黒": 7563,
      "默": 7564,
      "黙": 7565,
      "黛": 7566,
      "點": 7567,
      "黮": 7568,
      "黯": 7569,
      "黱": 7570,
      "鼎": 7571,
      "鼓": 7572,
      "鼠": 7573,
      "鼻": 7574,
      "齊": 7575,
      "齋": 7576,
      "齌": 7577,
      "齐": 7578,
      "齒": 7579,
      "齡": 7580,
      "齢": 7581,
      "齿": 7582,
      "龄": 7583,
      "龋": 7584,
      "龍": 7585,
      "龐": 7586,
      "龙": 7587,
      "龜": 7588,
      "龟": 7589,
      "ꜣ": 7590,
      "ꜥ": 7591,
      "ꝼ": 7592,
      "Ᵹ": 7593,
      "Ꝿ": 7594,
      "ꟻ": 7595,
      "ꟾ": 7596,
      "ꦂ": 7597,
      "ꦩ": 7598,
      "ꦱ": 7599,
      "ꦼ": 7600,
      "가": 7601,
      "각": 7602,
      "간": 7603,
      "갇": 7604,
      "갈": 7605,
      "감": 7606,
      "갑": 7607,
      "값": 7608,
      "갓": 7609,
      "갔": 7610,
      "강": 7611,
      "갖": 7612,
      "같": 7613,
      "갚": 7614,
      "개": 7615,
      "객": 7616,
      "갤": 7617,
      "갬": 7618,
      "갭": 7619,
      "갯": 7620,
      "갱": 7621,
      "걀": 7622,
      "거": 7623,
      "걱": 7624,
      "건": 7625,
      "걷": 7626,
      "걸": 7627,
      "검": 7628,
      "겁": 7629,
      "것": 7630,
      "겉": 7631,
      "게": 7632,
      "겐": 7633,
      "겔": 7634,
      "겟": 7635,
      "겠": 7636,
      "겨": 7637,
      "격": 7638,
      "겪": 7639,
      "견": 7640,
      "결": 7641,
      "겸": 7642,
      "겹": 7643,
      "겼": 7644,
      "경": 7645,
      "곁": 7646,
      "계": 7647,
      "고": 7648,
      "곡": 7649,
      "곤": 7650,
      "곧": 7651,
      "골": 7652,
      "곰": 7653,
      "곱": 7654,
      "곳": 7655,
      "공": 7656,
      "곶": 7657,
      "과": 7658,
      "곽": 7659,
      "관": 7660,
      "괄": 7661,
      "광": 7662,
      "괜": 7663,
      "괴": 7664,
      "굉": 7665,
      "교": 7666,
      "구": 7667,
      "국": 7668,
      "군": 7669,
      "굳": 7670,
      "굴": 7671,
      "굵": 7672,
      "굽": 7673,
      "굿": 7674,
      "궁": 7675,
      "권": 7676,
      "궐": 7677,
      "궤": 7678,
      "귀": 7679,
      "귄": 7680,
      "규": 7681,
      "균": 7682,
      "귤": 7683,
      "그": 7684,
      "극": 7685,
      "근": 7686,
      "글": 7687,
      "긁": 7688,
      "금": 7689,
      "급": 7690,
      "긋": 7691,
      "긍": 7692,
      "기": 7693,
      "긴": 7694,
      "길": 7695,
      "김": 7696,
      "깁": 7697,
      "깃": 7698,
      "깅": 7699,
      "깊": 7700,
      "까": 7701,
      "깎": 7702,
      "깐": 7703,
      "깔": 7704,
      "깜": 7705,
      "깝": 7706,
      "깡": 7707,
      "깥": 7708,
      "깨": 7709,
      "깯": 7710,
      "꺼": 7711,
      "꺾": 7712,
      "껍": 7713,
      "껏": 7714,
      "껑": 7715,
      "께": 7716,
      "껴": 7717,
      "꼈": 7718,
      "꼌": 7719,
      "꼬": 7720,
      "꼭": 7721,
      "꼴": 7722,
      "꼽": 7723,
      "꽃": 7724,
      "꽈": 7725,
      "꽉": 7726,
      "꽐": 7727,
      "꽝": 7728,
      "꽤": 7729,
      "꾸": 7730,
      "꾼": 7731,
      "꿀": 7732,
      "꿈": 7733,
      "꿉": 7734,
      "꿔": 7735,
      "꿨": 7736,
      "뀌": 7737,
      "뀔": 7738,
      "뀜": 7739,
      "뀝": 7740,
      "끄": 7741,
      "끈": 7742,
      "끊": 7743,
      "끌": 7744,
      "끓": 7745,
      "끔": 7746,
      "끗": 7747,
      "끝": 7748,
      "끰": 7749,
      "끴": 7750,
      "끼": 7751,
      "끽": 7752,
      "낀": 7753,
      "낄": 7754,
      "낌": 7755,
      "낍": 7756,
      "낔": 7757,
      "나": 7758,
      "낙": 7759,
      "낚": 7760,
      "난": 7761,
      "날": 7762,
      "남": 7763,
      "납": 7764,
      "낫": 7765,
      "났": 7766,
      "낭": 7767,
      "낮": 7768,
      "낯": 7769,
      "낱": 7770,
      "낳": 7771,
      "내": 7772,
      "낵": 7773,
      "낸": 7774,
      "낼": 7775,
      "냄": 7776,
      "냅": 7777,
      "냇": 7778,
      "냈": 7779,
      "냉": 7780,
      "냐": 7781,
      "냥": 7782,
      "너": 7783,
      "넉": 7784,
      "넋": 7785,
      "넌": 7786,
      "널": 7787,
      "넓": 7788,
      "넘": 7789,
      "넚": 7790,
      "넛": 7791,
      "넣": 7792,
      "네": 7793,
      "넥": 7794,
      "넨": 7795,
      "넬": 7796,
      "넴": 7797,
      "넷": 7798,
      "넸": 7799,
      "녀": 7800,
      "녁": 7801,
      "년": 7802,
      "념": 7803,
      "녔": 7804,
      "녕": 7805,
      "노": 7806,
      "녹": 7807,
      "논": 7808,
      "놀": 7809,
      "놈": 7810,
      "놉": 7811,
      "농": 7812,
      "높": 7813,
      "놓": 7814,
      "놔": 7815,
      "놨": 7816,
      "뇌": 7817,
      "뇨": 7818,
      "뇴": 7819,
      "뇽": 7820,
      "누": 7821,
      "눅": 7822,
      "눈": 7823,
      "눌": 7824,
      "눔": 7825,
      "눕": 7826,
      "눗": 7827,
      "눠": 7828,
      "뉘": 7829,
      "뉜": 7830,
      "뉩": 7831,
      "뉴": 7832,
      "늄": 7833,
      "느": 7834,
      "늑": 7835,
      "는": 7836,
      "늘": 7837,
      "늙": 7838,
      "늠": 7839,
      "능": 7840,
      "늦": 7841,
      "늪": 7842,
      "늬": 7843,
      "늹": 7844,
      "니": 7845,
      "닉": 7846,
      "닌": 7847,
      "닐": 7848,
      "님": 7849,
      "닙": 7850,
      "닛": 7851,
      "닝": 7852,
      "다": 7853,
      "닥": 7854,
      "닦": 7855,
      "단": 7856,
      "닫": 7857,
      "달": 7858,
      "닭": 7859,
      "닮": 7860,
      "닳": 7861,
      "담": 7862,
      "답": 7863,
      "닷": 7864,
      "당": 7865,
      "닿": 7866,
      "대": 7867,
      "댄": 7868,
      "댐": 7869,
      "댑": 7870,
      "댓": 7871,
      "댜": 7872,
      "덍": 7873,
      "더": 7874,
      "덕": 7875,
      "던": 7876,
      "덜": 7877,
      "덟": 7878,
      "덤": 7879,
      "덥": 7880,
      "덧": 7881,
      "덩": 7882,
      "덫": 7883,
      "덮": 7884,
      "데": 7885,
      "덱": 7886,
      "덴": 7887,
      "델": 7888,
      "뎀": 7889,
      "뎅": 7890,
      "뎌": 7891,
      "뎠": 7892,
      "도": 7893,
      "독": 7894,
      "돈": 7895,
      "돋": 7896,
      "돌": 7897,
      "돕": 7898,
      "돗": 7899,
      "동": 7900,
      "돼": 7901,
      "됌": 7902,
      "됐": 7903,
      "됔": 7904,
      "됖": 7905,
      "되": 7906,
      "된": 7907,
      "됟": 7908,
      "될": 7909,
      "됨": 7910,
      "됩": 7911,
      "됬": 7912,
      "됼": 7913,
      "두": 7914,
      "둑": 7915,
      "둔": 7916,
      "둘": 7917,
      "둠": 7918,
      "둡": 7919,
      "둥": 7920,
      "둬": 7921,
      "뒤": 7922,
      "뒷": 7923,
      "듀": 7924,
      "듈": 7925,
      "듌": 7926,
      "듐": 7927,
      "드": 7928,
      "득": 7929,
      "든": 7930,
      "듣": 7931,
      "들": 7932,
      "듦": 7933,
      "듬": 7934,
      "듭": 7935,
      "듯": 7936,
      "등": 7937,
      "딁": 7938,
      "디": 7939,
      "딕": 7940,
      "딘": 7941,
      "딛": 7942,
      "딜": 7943,
      "딝": 7944,
      "딥": 7945,
      "딧": 7946,
      "딨": 7947,
      "딩": 7948,
      "딪": 7949,
      "따": 7950,
      "딱": 7951,
      "딴": 7952,
      "딸": 7953,
      "땀": 7954,
      "땅": 7955,
      "때": 7956,
      "땐": 7957,
      "땠": 7958,
      "땼": 7959,
      "떄": 7960,
      "떠": 7961,
      "떡": 7962,
      "떤": 7963,
      "떨": 7964,
      "떵": 7965,
      "떻": 7966,
      "떼": 7967,
      "또": 7968,
      "똑": 7969,
      "똥": 7970,
      "뚀": 7971,
      "뚜": 7972,
      "뚝": 7973,
      "뚤": 7974,
      "뚫": 7975,
      "뚱": 7976,
      "뚴": 7977,
      "뛰": 7978,
      "뜀": 7979,
      "뜨": 7980,
      "뜬": 7981,
      "뜰": 7982,
      "뜻": 7983,
      "띄": 7984,
      "띈": 7985,
      "띠": 7986,
      "띤": 7987,
      "띨": 7988,
      "라": 7989,
      "락": 7990,
      "란": 7991,
      "랃": 7992,
      "랄": 7993,
      "람": 7994,
      "랍": 7995,
      "랐": 7996,
      "랑": 7997,
      "랗": 7998,
      "래": 7999,
      "랙": 8000,
      "랜": 8001,
      "램": 8002,
      "랩": 8003,
      "랫": 8004,
      "랬": 8005,
      "랭": 8006,
      "랴": 8007,
      "략": 8008,
      "랼": 8009,
      "럄": 8010,
      "량": 8011,
      "럌": 8012,
      "러": 8013,
      "럭": 8014,
      "런": 8015,
      "럴": 8016,
      "럼": 8017,
      "럽": 8018,
      "럿": 8019,
      "렀": 8020,
      "렁": 8021,
      "렇": 8022,
      "레": 8023,
      "렉": 8024,
      "렌": 8025,
      "렐": 8026,
      "렘": 8027,
      "렛": 8028,
      "렝": 8029,
      "려": 8030,
      "력": 8031,
      "련": 8032,
      "렬": 8033,
      "렴": 8034,
      "렵": 8035,
      "렷": 8036,
      "렸": 8037,
      "령": 8038,
      "례": 8039,
      "로": 8040,
      "록": 8041,
      "론": 8042,
      "롤": 8043,
      "롬": 8044,
      "롭": 8045,
      "롯": 8046,
      "롱": 8047,
      "뢰": 8048,
      "룅": 8049,
      "료": 8050,
      "룔": 8051,
      "룡": 8052,
      "루": 8053,
      "룩": 8054,
      "룬": 8055,
      "룰": 8056,
      "룸": 8057,
      "룹": 8058,
      "룻": 8059,
      "룽": 8060,
      "뤄": 8061,
      "뤘": 8062,
      "뤼": 8063,
      "뤽": 8064,
      "류": 8065,
      "륙": 8066,
      "륜": 8067,
      "률": 8068,
      "륨": 8069,
      "륭": 8070,
      "르": 8071,
      "른": 8072,
      "를": 8073,
      "름": 8074,
      "릅": 8075,
      "릇": 8076,
      "릈": 8077,
      "릉": 8078,
      "릎": 8079,
      "리": 8080,
      "릭": 8081,
      "린": 8082,
      "릴": 8083,
      "림": 8084,
      "립": 8085,
      "릿": 8086,
      "링": 8087,
      "마": 8088,
      "막": 8089,
      "만": 8090,
      "많": 8091,
      "말": 8092,
      "맑": 8093,
      "맗": 8094,
      "맘": 8095,
      "맙": 8096,
      "맛": 8097,
      "망": 8098,
      "맞": 8099,
      "맡": 8100,
      "매": 8101,
      "맥": 8102,
      "맨": 8103,
      "맵": 8104,
      "맷": 8105,
      "맹": 8106,
      "맺": 8107,
      "머": 8108,
      "먹": 8109,
      "먼": 8110,
      "멀": 8111,
      "멈": 8112,
      "멋": 8113,
      "멍": 8114,
      "멎": 8115,
      "메": 8116,
      "멕": 8117,
      "멘": 8118,
      "멜": 8119,
      "멤": 8120,
      "멧": 8121,
      "멩": 8122,
      "며": 8123,
      "멱": 8124,
      "면": 8125,
      "멸": 8126,
      "명": 8127,
      "몇": 8128,
      "모": 8129,
      "목": 8130,
      "몫": 8131,
      "몬": 8132,
      "몰": 8133,
      "몸": 8134,
      "몹": 8135,
      "못": 8136,
      "몽": 8137,
      "묘": 8138,
      "무": 8139,
      "묵": 8140,
      "묶": 8141,
      "문": 8142,
      "묻": 8143,
      "물": 8144,
      "뭇": 8145,
      "뭉": 8146,
      "뭐": 8147,
      "뭔": 8148,
      "뭘": 8149,
      "뮤": 8150,
      "뮨": 8151,
      "뮬": 8152,
      "뮰": 8153,
      "뮴": 8154,
      "므": 8155,
      "믈": 8156,
      "미": 8157,
      "믹": 8158,
      "민": 8159,
      "믿": 8160,
      "밀": 8161,
      "밋": 8162,
      "밌": 8163,
      "밍": 8164,
      "및": 8165,
      "밑": 8166,
      "바": 8167,
      "박": 8168,
      "밖": 8169,
      "반": 8170,
      "받": 8171,
      "발": 8172,
      "밝": 8173,
      "밤": 8174,
      "밥": 8175,
      "밧": 8176,
      "방": 8177,
      "밭": 8178,
      "배": 8179,
      "백": 8180,
      "밴": 8181,
      "밸": 8182,
      "밿": 8183,
      "뱃": 8184,
      "뱅": 8185,
      "버": 8186,
      "벅": 8187,
      "번": 8188,
      "벌": 8189,
      "범": 8190,
      "법": 8191,
      "벗": 8192,
      "벙": 8193,
      "벚": 8194,
      "벛": 8195,
      "베": 8196,
      "벡": 8197,
      "벤": 8198,
      "벨": 8199,
      "벳": 8200,
      "벼": 8201,
      "벽": 8202,
      "변": 8203,
      "별": 8204,
      "볍": 8205,
      "병": 8206,
      "볕": 8207,
      "볨": 8208,
      "볳": 8209,
      "보": 8210,
      "복": 8211,
      "볶": 8212,
      "본": 8213,
      "볼": 8214,
      "봄": 8215,
      "봅": 8216,
      "봇": 8217,
      "봉": 8218,
      "봐": 8219,
      "봤": 8220,
      "뵈": 8221,
      "뵙": 8222,
      "부": 8223,
      "북": 8224,
      "분": 8225,
      "불": 8226,
      "붐": 8227,
      "붓": 8228,
      "붕": 8229,
      "붙": 8230,
      "뷌": 8231,
      "뷔": 8232,
      "뷰": 8233,
      "브": 8234,
      "븐": 8235,
      "블": 8236,
      "비": 8237,
      "빅": 8238,
      "빈": 8239,
      "빌": 8240,
      "빔": 8241,
      "빕": 8242,
      "빗": 8243,
      "빙": 8244,
      "빚": 8245,
      "빛": 8246,
      "빠": 8247,
      "빨": 8248,
      "빵": 8249,
      "빼": 8250,
      "빽": 8251,
      "뺀": 8252,
      "뺄": 8253,
      "뺌": 8254,
      "뻐": 8255,
      "뻗": 8256,
      "뼈": 8257,
      "뽀": 8258,
      "뽁": 8259,
      "뽑": 8260,
      "뽕": 8261,
      "뿌": 8262,
      "뿐": 8263,
      "뿔": 8264,
      "쀄": 8265,
      "쀻": 8266,
      "쀽": 8267,
      "쁘": 8268,
      "쁜": 8269,
      "쁠": 8270,
      "쁨": 8271,
      "쁩": 8272,
      "삐": 8273,
      "사": 8274,
      "삭": 8275,
      "산": 8276,
      "살": 8277,
      "삶": 8278,
      "삼": 8279,
      "삽": 8280,
      "삿": 8281,
      "샀": 8282,
      "상": 8283,
      "새": 8284,
      "색": 8285,
      "샌": 8286,
      "샐": 8287,
      "샘": 8288,
      "생": 8289,
      "샤": 8290,
      "샴": 8291,
      "샵": 8292,
      "샷": 8293,
      "샹": 8294,
      "섀": 8295,
      "서": 8296,
      "석": 8297,
      "섞": 8298,
      "선": 8299,
      "섣": 8300,
      "설": 8301,
      "섬": 8302,
      "섭": 8303,
      "섯": 8304,
      "섰": 8305,
      "성": 8306,
      "세": 8307,
      "섹": 8308,
      "센": 8309,
      "셀": 8310,
      "셈": 8311,
      "셉": 8312,
      "셋": 8313,
      "셌": 8314,
      "셔": 8315,
      "션": 8316,
      "셜": 8317,
      "셨": 8318,
      "셰": 8319,
      "셸": 8320,
      "소": 8321,
      "속": 8322,
      "솎": 8323,
      "손": 8324,
      "솔": 8325,
      "솜": 8326,
      "솟": 8327,
      "송": 8328,
      "솥": 8329,
      "쇄": 8330,
      "쇠": 8331,
      "쇼": 8332,
      "숍": 8333,
      "숑": 8334,
      "수": 8335,
      "숙": 8336,
      "순": 8337,
      "술": 8338,
      "숨": 8339,
      "숫": 8340,
      "숭": 8341,
      "숲": 8342,
      "쉘": 8343,
      "쉡": 8344,
      "쉬": 8345,
      "쉴": 8346,
      "쉽": 8347,
      "슈": 8348,
      "슐": 8349,
      "슘": 8350,
      "슛": 8351,
      "스": 8352,
      "슥": 8353,
      "슨": 8354,
      "슬": 8355,
      "슭": 8356,
      "슴": 8357,
      "습": 8358,
      "슷": 8359,
      "승": 8360,
      "시": 8361,
      "식": 8362,
      "신": 8363,
      "싣": 8364,
      "실": 8365,
      "싫": 8366,
      "심": 8367,
      "십": 8368,
      "싰": 8369,
      "싱": 8370,
      "싶": 8371,
      "싸": 8372,
      "싹": 8373,
      "싼": 8374,
      "쌀": 8375,
      "쌈": 8376,
      "쌉": 8377,
      "쌍": 8378,
      "쌓": 8379,
      "썔": 8380,
      "써": 8381,
      "썬": 8382,
      "썰": 8383,
      "썸": 8384,
      "썼": 8385,
      "쎄": 8386,
      "쎈": 8387,
      "쏘": 8388,
      "쏟": 8389,
      "쑗": 8390,
      "쑤": 8391,
      "쓜": 8392,
      "쓰": 8393,
      "쓴": 8394,
      "쓸": 8395,
      "씀": 8396,
      "씁": 8397,
      "씌": 8398,
      "씨": 8399,
      "씩": 8400,
      "씬": 8401,
      "씹": 8402,
      "씻": 8403,
      "아": 8404,
      "악": 8405,
      "안": 8406,
      "앉": 8407,
      "않": 8408,
      "알": 8409,
      "앓": 8410,
      "암": 8411,
      "압": 8412,
      "앗": 8413,
      "았": 8414,
      "앙": 8415,
      "앞": 8416,
      "애": 8417,
      "액": 8418,
      "앤": 8419,
      "앨": 8420,
      "앰": 8421,
      "앱": 8422,
      "앴": 8423,
      "앵": 8424,
      "야": 8425,
      "약": 8426,
      "얀": 8427,
      "얄": 8428,
      "얇": 8429,
      "얏": 8430,
      "양": 8431,
      "얕": 8432,
      "얘": 8433,
      "어": 8434,
      "억": 8435,
      "언": 8436,
      "얹": 8437,
      "얻": 8438,
      "얼": 8439,
      "얽": 8440,
      "엄": 8441,
      "업": 8442,
      "없": 8443,
      "엇": 8444,
      "었": 8445,
      "엉": 8446,
      "에": 8447,
      "엑": 8448,
      "엔": 8449,
      "엘": 8450,
      "엠": 8451,
      "엣": 8452,
      "엩": 8453,
      "여": 8454,
      "역": 8455,
      "연": 8456,
      "열": 8457,
      "염": 8458,
      "엽": 8459,
      "였": 8460,
      "영": 8461,
      "옆": 8462,
      "예": 8463,
      "옐": 8464,
      "옛": 8465,
      "오": 8466,
      "옥": 8467,
      "온": 8468,
      "옩": 8469,
      "올": 8470,
      "옮": 8471,
      "옳": 8472,
      "옴": 8473,
      "옵": 8474,
      "옷": 8475,
      "옹": 8476,
      "와": 8477,
      "왁": 8478,
      "완": 8479,
      "왈": 8480,
      "왑": 8481,
      "왓": 8482,
      "왔": 8483,
      "왕": 8484,
      "왜": 8485,
      "왠": 8486,
      "외": 8487,
      "왼": 8488,
      "요": 8489,
      "욕": 8490,
      "욘": 8491,
      "욜": 8492,
      "용": 8493,
      "우": 8494,
      "욱": 8495,
      "운": 8496,
      "울": 8497,
      "움": 8498,
      "웁": 8499,
      "웃": 8500,
      "웅": 8501,
      "워": 8502,
      "웍": 8503,
      "원": 8504,
      "월": 8505,
      "웜": 8506,
      "웟": 8507,
      "웠": 8508,
      "웨": 8509,
      "웰": 8510,
      "웹": 8511,
      "위": 8512,
      "윅": 8513,
      "윈": 8514,
      "윌": 8515,
      "윖": 8516,
      "윗": 8517,
      "윙": 8518,
      "유": 8519,
      "육": 8520,
      "윤": 8521,
      "율": 8522,
      "융": 8523,
      "으": 8524,
      "은": 8525,
      "을": 8526,
      "음": 8527,
      "읍": 8528,
      "응": 8529,
      "의": 8530,
      "이": 8531,
      "익": 8532,
      "인": 8533,
      "일": 8534,
      "읽": 8535,
      "잃": 8536,
      "임": 8537,
      "입": 8538,
      "잇": 8539,
      "있": 8540,
      "잉": 8541,
      "잊": 8542,
      "잎": 8543,
      "자": 8544,
      "작": 8545,
      "잔": 8546,
      "잖": 8547,
      "잘": 8548,
      "잠": 8549,
      "잡": 8550,
      "잤": 8551,
      "장": 8552,
      "잦": 8553,
      "재": 8554,
      "잭": 8555,
      "쟁": 8556,
      "쟛": 8557,
      "저": 8558,
      "적": 8559,
      "전": 8560,
      "절": 8561,
      "젊": 8562,
      "젍": 8563,
      "점": 8564,
      "접": 8565,
      "젓": 8566,
      "정": 8567,
      "젖": 8568,
      "젚": 8569,
      "제": 8570,
      "젝": 8571,
      "젠": 8572,
      "젤": 8573,
      "젯": 8574,
      "져": 8575,
      "젼": 8576,
      "졌": 8577,
      "졍": 8578,
      "조": 8579,
      "족": 8580,
      "존": 8581,
      "졸": 8582,
      "좀": 8583,
      "좁": 8584,
      "종": 8585,
      "좋": 8586,
      "좌": 8587,
      "죄": 8588,
      "죠": 8589,
      "주": 8590,
      "죽": 8591,
      "준": 8592,
      "줄": 8593,
      "줌": 8594,
      "줍": 8595,
      "중": 8596,
      "줔": 8597,
      "줘": 8598,
      "줬": 8599,
      "쥐": 8600,
      "쥬": 8601,
      "즈": 8602,
      "즉": 8603,
      "즌": 8604,
      "즐": 8605,
      "즘": 8606,
      "증": 8607,
      "즴": 8608,
      "지": 8609,
      "직": 8610,
      "진": 8611,
      "짇": 8612,
      "질": 8613,
      "짊": 8614,
      "짐": 8615,
      "집": 8616,
      "짓": 8617,
      "징": 8618,
      "짖": 8619,
      "짙": 8620,
      "짚": 8621,
      "짜": 8622,
      "짝": 8623,
      "짤": 8624,
      "짧": 8625,
      "짬": 8626,
      "짭": 8627,
      "짰": 8628,
      "짱": 8629,
      "째": 8630,
      "쩀": 8631,
      "쩌": 8632,
      "쩍": 8633,
      "쩐": 8634,
      "쩔": 8635,
      "쩜": 8636,
      "쪼": 8637,
      "쪽": 8638,
      "쫄": 8639,
      "쫓": 8640,
      "쬐": 8641,
      "쭉": 8642,
      "쭤": 8643,
      "쯌": 8644,
      "쯔": 8645,
      "쯤": 8646,
      "찈": 8647,
      "찌": 8648,
      "찍": 8649,
      "찐": 8650,
      "찓": 8651,
      "찔": 8652,
      "찜": 8653,
      "찝": 8654,
      "찢": 8655,
      "차": 8656,
      "착": 8657,
      "찬": 8658,
      "찮": 8659,
      "찰": 8660,
      "참": 8661,
      "찹": 8662,
      "찻": 8663,
      "창": 8664,
      "찾": 8665,
      "채": 8666,
      "책": 8667,
      "챌": 8668,
      "챔": 8669,
      "챕": 8670,
      "챗": 8671,
      "챙": 8672,
      "챠": 8673,
      "처": 8674,
      "척": 8675,
      "천": 8676,
      "철": 8677,
      "첨": 8678,
      "첩": 8679,
      "첫": 8680,
      "청": 8681,
      "체": 8682,
      "첵": 8683,
      "첸": 8684,
      "첼": 8685,
      "첾": 8686,
      "쳇": 8687,
      "쳐": 8688,
      "쳤": 8689,
      "초": 8690,
      "촉": 8691,
      "촌": 8692,
      "촛": 8693,
      "총": 8694,
      "촬": 8695,
      "최": 8696,
      "쵸": 8697,
      "추": 8698,
      "축": 8699,
      "춘": 8700,
      "출": 8701,
      "춤": 8702,
      "춥": 8703,
      "충": 8704,
      "춰": 8705,
      "췄": 8706,
      "취": 8707,
      "츄": 8708,
      "츠": 8709,
      "측": 8710,
      "층": 8711,
      "츸": 8712,
      "칄": 8713,
      "치": 8714,
      "칙": 8715,
      "친": 8716,
      "칠": 8717,
      "침": 8718,
      "칩": 8719,
      "칫": 8720,
      "칭": 8721,
      "카": 8722,
      "칵": 8723,
      "칸": 8724,
      "칼": 8725,
      "캄": 8726,
      "캅": 8727,
      "캐": 8728,
      "캔": 8729,
      "캘": 8730,
      "캝": 8731,
      "캠": 8732,
      "캡": 8733,
      "캣": 8734,
      "컠": 8735,
      "커": 8736,
      "컨": 8737,
      "컫": 8738,
      "컬": 8739,
      "컴": 8740,
      "컵": 8741,
      "컷": 8742,
      "컸": 8743,
      "케": 8744,
      "켄": 8745,
      "켈": 8746,
      "켓": 8747,
      "켜": 8748,
      "켨": 8749,
      "켰": 8750,
      "코": 8751,
      "콕": 8752,
      "콘": 8753,
      "콜": 8754,
      "콤": 8755,
      "콩": 8756,
      "쾅": 8757,
      "쾌": 8758,
      "쿄": 8759,
      "쿠": 8760,
      "쿤": 8761,
      "쿨": 8762,
      "쿰": 8763,
      "쿵": 8764,
      "쿼": 8765,
      "퀀": 8766,
      "퀄": 8767,
      "퀘": 8768,
      "퀴": 8769,
      "퀸": 8770,
      "큇": 8771,
      "큐": 8772,
      "큘": 8773,
      "크": 8774,
      "큰": 8775,
      "클": 8776,
      "큼": 8777,
      "큽": 8778,
      "키": 8779,
      "킥": 8780,
      "킨": 8781,
      "킬": 8782,
      "킴": 8783,
      "킵": 8784,
      "킷": 8785,
      "킹": 8786,
      "타": 8787,
      "탁": 8788,
      "탄": 8789,
      "탈": 8790,
      "탐": 8791,
      "탑": 8792,
      "탔": 8793,
      "탕": 8794,
      "태": 8795,
      "택": 8796,
      "탠": 8797,
      "탬": 8798,
      "탭": 8799,
      "탯": 8800,
      "탱": 8801,
      "터": 8802,
      "턴": 8803,
      "털": 8804,
      "텀": 8805,
      "테": 8806,
      "텍": 8807,
      "텐": 8808,
      "텔": 8809,
      "템": 8810,
      "텟": 8811,
      "텨": 8812,
      "토": 8813,
      "톡": 8814,
      "톤": 8815,
      "톨": 8816,
      "톰": 8817,
      "톱": 8818,
      "통": 8819,
      "톻": 8820,
      "퇴": 8821,
      "투": 8822,
      "툭": 8823,
      "툰": 8824,
      "툴": 8825,
      "툼": 8826,
      "퉁": 8827,
      "퉈": 8828,
      "튀": 8829,
      "튜": 8830,
      "튠": 8831,
      "튬": 8832,
      "트": 8833,
      "특": 8834,
      "튼": 8835,
      "틀": 8836,
      "틈": 8837,
      "티": 8838,
      "틱": 8839,
      "틴": 8840,
      "틸": 8841,
      "팀": 8842,
      "팁": 8843,
      "팅": 8844,
      "파": 8845,
      "팍": 8846,
      "판": 8847,
      "팓": 8848,
      "팔": 8849,
      "팗": 8850,
      "팜": 8851,
      "팝": 8852,
      "팟": 8853,
      "팡": 8854,
      "팥": 8855,
      "패": 8856,
      "팩": 8857,
      "팬": 8858,
      "팸": 8859,
      "팹": 8860,
      "팻": 8861,
      "팽": 8862,
      "퍼": 8863,
      "펀": 8864,
      "펌": 8865,
      "펍": 8866,
      "펐": 8867,
      "펑": 8868,
      "페": 8869,
      "펙": 8870,
      "펜": 8871,
      "펠": 8872,
      "펩": 8873,
      "펭": 8874,
      "펴": 8875,
      "편": 8876,
      "펼": 8877,
      "평": 8878,
      "폐": 8879,
      "포": 8880,
      "폭": 8881,
      "폰": 8882,
      "폴": 8883,
      "폼": 8884,
      "폿": 8885,
      "표": 8886,
      "푸": 8887,
      "푼": 8888,
      "풀": 8889,
      "품": 8890,
      "풋": 8891,
      "풍": 8892,
      "풜": 8893,
      "퓨": 8894,
      "퓰": 8895,
      "프": 8896,
      "픈": 8897,
      "플": 8898,
      "픔": 8899,
      "피": 8900,
      "픽": 8901,
      "핀": 8902,
      "필": 8903,
      "핆": 8904,
      "핍": 8905,
      "핏": 8906,
      "핑": 8907,
      "하": 8908,
      "학": 8909,
      "한": 8910,
      "할": 8911,
      "핥": 8912,
      "함": 8913,
      "합": 8914,
      "핫": 8915,
      "항": 8916,
      "해": 8917,
      "핵": 8918,
      "핸": 8919,
      "핹": 8920,
      "햄": 8921,
      "햇": 8922,
      "했": 8923,
      "행": 8924,
      "향": 8925,
      "헅": 8926,
      "허": 8927,
      "헌": 8928,
      "헐": 8929,
      "험": 8930,
      "헛": 8931,
      "헝": 8932,
      "헤": 8933,
      "헥": 8934,
      "헨": 8935,
      "헬": 8936,
      "헴": 8937,
      "혀": 8938,
      "혁": 8939,
      "현": 8940,
      "혈": 8941,
      "혐": 8942,
      "협": 8943,
      "혔": 8944,
      "형": 8945,
      "혜": 8946,
      "호": 8947,
      "혹": 8948,
      "혼": 8949,
      "홀": 8950,
      "홈": 8951,
      "홉": 8952,
      "홋": 8953,
      "홍": 8954,
      "화": 8955,
      "확": 8956,
      "환": 8957,
      "활": 8958,
      "황": 8959,
      "회": 8960,
      "획": 8961,
      "횟": 8962,
      "횡": 8963,
      "효": 8964,
      "후": 8965,
      "훅": 8966,
      "훈": 8967,
      "훌": 8968,
      "훔": 8969,
      "훨": 8970,
      "훼": 8971,
      "휖": 8972,
      "휘": 8973,
      "휩": 8974,
      "휴": 8975,
      "흉": 8976,
      "흐": 8977,
      "흑": 8978,
      "흔": 8979,
      "흘": 8980,
      "흙": 8981,
      "흜": 8982,
      "흡": 8983,
      "흥": 8984,
      "흩": 8985,
      "희": 8986,
      "흰": 8987,
      "히": 8988,
      "힌": 8989,
      "힐": 8990,
      "힘": 8991,
      "힙": 8992,
      "": 8993,
      "": 8994,
      "": 8995,
      "": 8996,
      "": 8997,
      "": 8998,
      "": 8999,
      "": 9000,
      "": 9001,
      "": 9002,
      "": 9003,
      "": 9004,
      "": 9005,
      "": 9006,
      "": 9007,
      "": 9008,
      "": 9009,
      "": 9010,
      "": 9011,
      "": 9012,
      "": 9013,
      "": 9014,
      "": 9015,
      "": 9016,
      "": 9017,
      "": 9018,
      "": 9019,
      "": 9020,
      "": 9021,
      "": 9022,
      "": 9023,
      "ﬀ": 9024,
      "ﬁ": 9025,
      "ﬂ": 9026,
      "ﷲ": 9027,
      "ﷺ": 9028,
      "﷽": 9029,
      "︀": 9030,
      "︊": 9031,
      "︎": 9032,
      "️": 9033,
      "︵": 9034,
      "﹩": 9035,
      "ﺼ": 9036,
      "ﻟ": 9037,
      "ﻠ": 9038,
      "ﻪ": 9039,
      "﻿": 9040,
      "！": 9041,
      "＃": 9042,
      "％": 9043,
      "＆": 9044,
      "（": 9045,
      "）": 9046,
      "＊": 9047,
      "＋": 9048,
      "，": 9049,
      "－": 9050,
      "．": 9051,
      "／": 9052,
      "０": 9053,
      "１": 9054,
      "２": 9055,
      "３": 9056,
      "４": 9057,
      "５": 9058,
      "６": 9059,
      "７": 9060,
      "８": 9061,
      "９": 9062,
      "：": 9063,
      "；": 9064,
      "＜": 9065,
      "＝": 9066,
      "＞": 9067,
      "？": 9068,
      "Ａ": 9069,
      "Ｃ": 9070,
      "Ｄ": 9071,
      "Ｅ": 9072,
      "Ｇ": 9073,
      "Ｉ": 9074,
      "Ｍ": 9075,
      "Ｏ": 9076,
      "Ｐ": 9077,
      "Ｒ": 9078,
      "Ｓ": 9079,
      "Ｕ": 9080,
      "Ｖ": 9081,
      "Ｙ": 9082,
      "＼": 9083,
      "＾": 9084,
      "＿": 9085,
      "ｅ": 9086,
      "ｈ": 9087,
      "ｊ": 9088,
      "ｚ": 9089,
      "｜": 9090,
      "～": 9091,
      "｡": 9092,
      "･": 9093,
      "ﾄ": 9094,
      "ﾉ": 9095,
      "ﾎ": 9096,
      "ﾘ": 9097,
      "ﾙ": 9098,
      "ﾝ": 9099,
      "ﾞ": 9100,
      "ﾟ": 9101,
      "￡": 9102,
      "￣": 9103,
      "�": 9104,
      "￿": 9105,
      "𐀲": 9106,
      "𐉬": 9107,
      "𐌰": 9108,
      "𐌿": 9109,
      "𐍂": 9110,
      "𐍃": 9111,
      "𐍄": 9112,
      "𐎠": 9113,
      "𐎣": 9114,
      "𐎧": 9115,
      "𐎶": 9116,
      "𒀭": 9117,
      "𒅖": 9118,
      "𒉌": 9119,
      "𓀉": 9120,
      "𓁿": 9121,
      "𓂰": 9122,
      "𓃟": 9123,
      "𓋹": 9124,
      "𓎼": 9125,
      "𓎽": 9126,
      "𓏏": 9127,
      "𝄆": 9128,
      "𝌀": 9129,
      "𝍙": 9130,
      "𝐃": 9131,
      "𝐈": 9132,
      "𝐖": 9133,
      "𝐚": 9134,
      "𝐠": 9135,
      "𝐡": 9136,
      "𝐢": 9137,
      "𝐦": 9138,
      "𝐧": 9139,
      "𝐨": 9140,
      "𝐬": 9141,
      "𝐭": 9142,
      "𝐴": 9143,
      "𝐵": 9144,
      "𝐶": 9145,
      "𝐷": 9146,
      "𝐸": 9147,
      "𝐹": 9148,
      "𝐻": 9149,
      "𝐼": 9150,
      "𝐾": 9151,
      "𝐿": 9152,
      "𝑀": 9153,
      "𝑁": 9154,
      "𝑂": 9155,
      "𝑃": 9156,
      "𝑄": 9157,
      "𝑅": 9158,
      "𝑆": 9159,
      "𝑇": 9160,
      "𝑈": 9161,
      "𝑉": 9162,
      "𝑊": 9163,
      "𝑋": 9164,
      "𝑌": 9165,
      "𝑎": 9166,
      "𝑏": 9167,
      "𝑐": 9168,
      "𝑑": 9169,
      "𝑒": 9170,
      "𝑓": 9171,
      "𝑔": 9172,
      "𝑖": 9173,
      "𝑗": 9174,
      "𝑘": 9175,
      "𝑙": 9176,
      "𝑚": 9177,
      "𝑛": 9178,
      "𝑜": 9179,
      "𝑝": 9180,
      "𝑟": 9181,
      "𝑠": 9182,
      "𝑡": 9183,
      "𝑢": 9184,
      "𝑣": 9185,
      "𝑤": 9186,
      "𝑥": 9187,
      "𝑦": 9188,
      "𝑧": 9189,
      "𝑪": 9190,
      "𝑫": 9191,
      "𝑮": 9192,
      "𝑲": 9193,
      "𝑳": 9194,
      "𝑶": 9195,
      "𝑹": 9196,
      "𝒅": 9197,
      "𝒆": 9198,
      "𝒉": 9199,
      "𝒊": 9200,
      "𝒋": 9201,
      "𝒏": 9202,
      "𝒔": 9203,
      "𝒕": 9204,
      "𝒙": 9205,
      "𝒚": 9206,
      "𝒜": 9207,
      "𝒟": 9208,
      "𝒪": 9209,
      "𝒶": 9210,
      "𝒸": 9211,
      "𝒹": 9212,
      "𝒻": 9213,
      "𝒽": 9214,
      "𝒾": 9215,
      "𝓁": 9216,
      "𝓃": 9217,
      "𝓇": 9218,
      "𝓉": 9219,
      "𝓊": 9220,
      "𝓌": 9221,
      "𝓎": 9222,
      "𝓒": 9223,
      "𝓕": 9224,
      "𝓪": 9225,
      "𝓭": 9226,
      "𝓮": 9227,
      "𝓱": 9228,
      "𝓲": 9229,
      "𝓵": 9230,
      "𝓷": 9231,
      "𝓸": 9232,
      "𝓹": 9233,
      "𝓻": 9234,
      "𝓼": 9235,
      "𝓽": 9236,
      "𝔀": 9237,
      "𝔁": 9238,
      "𝔂": 9239,
      "𝔃": 9240,
      "𝔇": 9241,
      "𝔈": 9242,
      "𝔚": 9243,
      "𝔡": 9244,
      "𝔢": 9245,
      "𝔥": 9246,
      "𝔩": 9247,
      "𝔪": 9248,
      "𝔬": 9249,
      "𝔯": 9250,
      "𝔴": 9251,
      "𝕒": 9252,
      "𝕔": 9253,
      "𝕕": 9254,
      "𝕖": 9255,
      "𝕘": 9256,
      "𝕙": 9257,
      "𝕚": 9258,
      "𝕜": 9259,
      "𝕝": 9260,
      "𝕠": 9261,
      "𝕤": 9262,
      "𝕥": 9263,
      "𝕦": 9264,
      "𝕧": 9265,
      "𝕪": 9266,
      "𝕬": 9267,
      "𝕮": 9268,
      "𝕰": 9269,
      "𝕸": 9270,
      "𝕽": 9271,
      "𝖆": 9272,
      "𝖊": 9273,
      "𝖋": 9274,
      "𝖌": 9275,
      "𝖍": 9276,
      "𝖎": 9277,
      "𝖏": 9278,
      "𝖐": 9279,
      "𝖑": 9280,
      "𝖒": 9281,
      "𝖓": 9282,
      "𝖔": 9283,
      "𝖕": 9284,
      "𝖖": 9285,
      "𝖗": 9286,
      "𝖘": 9287,
      "𝖚": 9288,
      "𝖛": 9289,
      "𝖜": 9290,
      "𝖝": 9291,
      "𝖞": 9292,
      "𝖟": 9293,
      "𝗔": 9294,
      "𝗗": 9295,
      "𝗚": 9296,
      "𝗟": 9297,
      "𝗠": 9298,
      "𝗣": 9299,
      "𝗥": 9300,
      "𝗦": 9301,
      "𝗧": 9302,
      "𝗨": 9303,
      "𝗮": 9304,
      "𝗱": 9305,
      "𝗲": 9306,
      "𝗵": 9307,
      "𝗶": 9308,
      "𝗸": 9309,
      "𝗹": 9310,
      "𝗺": 9311,
      "𝗻": 9312,
      "𝗼": 9313,
      "𝗽": 9314,
      "𝗿": 9315,
      "𝘀": 9316,
      "𝘁": 9317,
      "𝘂": 9318,
      "𝘆": 9319,
      "𝙘": 9320,
      "𝙚": 9321,
      "𝙡": 9322,
      "𝙣": 9323,
      "𝙩": 9324,
      "𝙪": 9325,
      "𝙬": 9326,
      "𝙴": 9327,
      "𝙷": 9328,
      "𝚆": 9329,
      "𝚊": 9330,
      "𝚌": 9331,
      "𝚍": 9332,
      "𝚎": 9333,
      "𝚏": 9334,
      "𝚑": 9335,
      "𝚒": 9336,
      "𝚕": 9337,
      "𝚗": 9338,
      "𝚘": 9339,
      "𝚛": 9340,
      "𝚜": 9341,
      "𝚝": 9342,
      "𝚞": 9343,
      "𝚟": 9344,
      "𝚠": 9345,
      "𝚢": 9346,
      "𝛊": 9347,
      "𝛋": 9348,
      "𝛞": 9349,
      "𝛼": 9350,
      "𝛽": 9351,
      "𝛾": 9352,
      "𝛿": 9353,
      "𝜂": 9354,
      "𝜃": 9355,
      "𝜅": 9356,
      "𝜆": 9357,
      "𝜇": 9358,
      "𝜉": 9359,
      "𝜋": 9360,
      "𝜎": 9361,
      "𝜐": 9362,
      "𝜓": 9363,
      "𝜔": 9364,
      "𝜼": 9365,
      "𝜽": 9366,
      "𝝰": 9367,
      "𝟎": 9368,
      "𝟏": 9369,
      "𝟐": 9370,
      "𝟑": 9371,
      "𝟒": 9372,
      "𝟓": 9373,
      "𝟔": 9374,
      "𝟖": 9375,
      "🅚": 9376,
      "🅰": 9377,
      "🅱": 9378,
      "🅾": 9379,
      "🆓": 9380,
      "🆔": 9381,
      "🆙": 9382,
      "🇦": 9383,
      "🇧": 9384,
      "🇨": 9385,
      "🇩": 9386,
      "🇪": 9387,
      "🇫": 9388,
      "🇬": 9389,
      "🇭": 9390,
      "🇮": 9391,
      "🇯": 9392,
      "🇰": 9393,
      "🇱": 9394,
      "🇲": 9395,
      "🇳": 9396,
      "🇴": 9397,
      "🇵": 9398,
      "🇷": 9399,
      "🇸": 9400,
      "🇹": 9401,
      "🇺": 9402,
      "🇻": 9403,
      "🇼": 9404,
      "🇽": 9405,
      "🇾": 9406,
      "🇿": 9407,
      "🌀": 9408,
      "🌂": 9409,
      "🌃": 9410,
      "🌄": 9411,
      "🌅": 9412,
      "🌆": 9413,
      "🌇": 9414,
      "🌈": 9415,
      "🌉": 9416,
      "🌊": 9417,
      "🌋": 9418,
      "🌌": 9419,
      "🌍": 9420,
      "🌎": 9421,
      "🌏": 9422,
      "🌐": 9423,
      "🌑": 9424,
      "🌕": 9425,
      "🌖": 9426,
      "🌙": 9427,
      "🌝": 9428,
      "🌞": 9429,
      "🌟": 9430,
      "🌠": 9431,
      "🌡": 9432,
      "🌢": 9433,
      "🌤": 9434,
      "🌥": 9435,
      "🌦": 9436,
      "🌧": 9437,
      "🌨": 9438,
      "🌩": 9439,
      "🌪": 9440,
      "🌫": 9441,
      "🌬": 9442,
      "🌭": 9443,
      "🌮": 9444,
      "🌯": 9445,
      "🌱": 9446,
      "🌲": 9447,
      "🌳": 9448,
      "🌴": 9449,
      "🌵": 9450,
      "🌶": 9451,
      "🌷": 9452,
      "🌸": 9453,
      "🌹": 9454,
      "🌺": 9455,
      "🌻": 9456,
      "🌼": 9457,
      "🌽": 9458,
      "🌾": 9459,
      "🌿": 9460,
      "🍀": 9461,
      "🍁": 9462,
      "🍂": 9463,
      "🍃": 9464,
      "🍄": 9465,
      "🍅": 9466,
      "🍆": 9467,
      "🍇": 9468,
      "🍈": 9469,
      "🍉": 9470,
      "🍊": 9471,
      "🍋": 9472,
      "🍌": 9473,
      "🍍": 9474,
      "🍎": 9475,
      "🍏": 9476,
      "🍑": 9477,
      "🍒": 9478,
      "🍓": 9479,
      "🍔": 9480,
      "🍕": 9481,
      "🍖": 9482,
      "🍗": 9483,
      "🍘": 9484,
      "🍙": 9485,
      "🍚": 9486,
      "🍛": 9487,
      "🍜": 9488,
      "🍝": 9489,
      "🍞": 9490,
      "🍟": 9491,
      "🍡": 9492,
      "🍢": 9493,
      "🍣": 9494,
      "🍤": 9495,
      "🍥": 9496,
      "🍦": 9497,
      "🍨": 9498,
      "🍩": 9499,
      "🍪": 9500,
      "🍫": 9501,
      "🍬": 9502,
      "🍭": 9503,
      "🍮": 9504,
      "🍯": 9505,
      "🍰": 9506,
      "🍱": 9507,
      "🍲": 9508,
      "🍳": 9509,
      "🍴": 9510,
      "🍵": 9511,
      "🍶": 9512,
      "🍷": 9513,
      "🍸": 9514,
      "🍹": 9515,
      "🍺": 9516,
      "🍻": 9517,
      "🍼": 9518,
      "🍽": 9519,
      "🍾": 9520,
      "🍿": 9521,
      "🎀": 9522,
      "🎁": 9523,
      "🎂": 9524,
      "🎃": 9525,
      "🎄": 9526,
      "🎅": 9527,
      "🎆": 9528,
      "🎇": 9529,
      "🎈": 9530,
      "🎉": 9531,
      "🎊": 9532,
      "🎒": 9533,
      "🎓": 9534,
      "🎕": 9535,
      "🎖": 9536,
      "🎗": 9537,
      "🎙": 9538,
      "🎚": 9539,
      "🎛": 9540,
      "🎞": 9541,
      "🎟": 9542,
      "🎢": 9543,
      "🎣": 9544,
      "🎤": 9545,
      "🎥": 9546,
      "🎧": 9547,
      "🎨": 9548,
      "🎩": 9549,
      "🎬": 9550,
      "🎭": 9551,
      "🎮": 9552,
      "🎯": 9553,
      "🎲": 9554,
      "🎵": 9555,
      "🎶": 9556,
      "🎸": 9557,
      "🎹": 9558,
      "🎺": 9559,
      "🎻": 9560,
      "🎼": 9561,
      "🎾": 9562,
      "🎿": 9563,
      "🏀": 9564,
      "🏁": 9565,
      "🏂": 9566,
      "🏃": 9567,
      "🏄": 9568,
      "🏅": 9569,
      "🏆": 9570,
      "🏇": 9571,
      "🏈": 9572,
      "🏉": 9573,
      "🏊": 9574,
      "🏋": 9575,
      "🏌": 9576,
      "🏍": 9577,
      "🏎": 9578,
      "🏐": 9579,
      "🏑": 9580,
      "🏒": 9581,
      "🏓": 9582,
      "🏔": 9583,
      "🏕": 9584,
      "🏖": 9585,
      "🏗": 9586,
      "🏘": 9587,
      "🏙": 9588,
      "🏚": 9589,
      "🏛": 9590,
      "🏜": 9591,
      "🏝": 9592,
      "🏞": 9593,
      "🏟": 9594,
      "🏠": 9595,
      "🏡": 9596,
      "🏢": 9597,
      "🏣": 9598,
      "🏥": 9599,
      "🏦": 9600,
      "🏨": 9601,
      "🏪": 9602,
      "🏫": 9603,
      "🏭": 9604,
      "🏯": 9605,
      "🏰": 9606,
      "🏳": 9607,
      "🏴": 9608,
      "🏷": 9609,
      "🏸": 9610,
      "🏹": 9611,
      "🏺": 9612,
      "🏻": 9613,
      "🏼": 9614,
      "🏽": 9615,
      "🏾": 9616,
      "🏿": 9617,
      "🐀": 9618,
      "🐂": 9619,
      "🐄": 9620,
      "🐅": 9621,
      "🐇": 9622,
      "🐈": 9623,
      "🐉": 9624,
      "🐊": 9625,
      "🐋": 9626,
      "🐌": 9627,
      "🐍": 9628,
      "🐎": 9629,
      "🐏": 9630,
      "🐐": 9631,
      "🐑": 9632,
      "🐒": 9633,
      "🐓": 9634,
      "🐔": 9635,
      "🐕": 9636,
      "🐖": 9637,
      "🐗": 9638,
      "🐘": 9639,
      "🐙": 9640,
      "🐚": 9641,
      "🐛": 9642,
      "🐜": 9643,
      "🐝": 9644,
      "🐞": 9645,
      "🐟": 9646,
      "🐠": 9647,
      "🐡": 9648,
      "🐢": 9649,
      "🐣": 9650,
      "🐤": 9651,
      "🐥": 9652,
      "🐦": 9653,
      "🐧": 9654,
      "🐨": 9655,
      "🐩": 9656,
      "🐪": 9657,
      "🐫": 9658,
      "🐬": 9659,
      "🐭": 9660,
      "🐮": 9661,
      "🐯": 9662,
      "🐰": 9663,
      "🐱": 9664,
      "🐲": 9665,
      "🐳": 9666,
      "🐴": 9667,
      "🐵": 9668,
      "🐶": 9669,
      "🐷": 9670,
      "🐸": 9671,
      "🐹": 9672,
      "🐺": 9673,
      "🐻": 9674,
      "🐼": 9675,
      "🐽": 9676,
      "🐾": 9677,
      "🐿": 9678,
      "👀": 9679,
      "👁": 9680,
      "👂": 9681,
      "👃": 9682,
      "👄": 9683,
      "👅": 9684,
      "👆": 9685,
      "👇": 9686,
      "👈": 9687,
      "👉": 9688,
      "👊": 9689,
      "👋": 9690,
      "👌": 9691,
      "👍": 9692,
      "👎": 9693,
      "👏": 9694,
      "👐": 9695,
      "👑": 9696,
      "👒": 9697,
      "👓": 9698,
      "👔": 9699,
      "👕": 9700,
      "👖": 9701,
      "👗": 9702,
      "👙": 9703,
      "👚": 9704,
      "👛": 9705,
      "👜": 9706,
      "👞": 9707,
      "👟": 9708,
      "👠": 9709,
      "👡": 9710,
      "👢": 9711,
      "👣": 9712,
      "👤": 9713,
      "👥": 9714,
      "👦": 9715,
      "👧": 9716,
      "👨": 9717,
      "👩": 9718,
      "👪": 9719,
      "👫": 9720,
      "👬": 9721,
      "👭": 9722,
      "👮": 9723,
      "👯": 9724,
      "👰": 9725,
      "👱": 9726,
      "👳": 9727,
      "👴": 9728,
      "👵": 9729,
      "👶": 9730,
      "👷": 9731,
      "👸": 9732,
      "👹": 9733,
      "👺": 9734,
      "👻": 9735,
      "👼": 9736,
      "👽": 9737,
      "👾": 9738,
      "👿": 9739,
      "💀": 9740,
      "💁": 9741,
      "💂": 9742,
      "💃": 9743,
      "💄": 9744,
      "💅": 9745,
      "💆": 9746,
      "💇": 9747,
      "💉": 9748,
      "💊": 9749,
      "💋": 9750,
      "💌": 9751,
      "💍": 9752,
      "💎": 9753,
      "💏": 9754,
      "💐": 9755,
      "💑": 9756,
      "💓": 9757,
      "💔": 9758,
      "💕": 9759,
      "💖": 9760,
      "💗": 9761,
      "💘": 9762,
      "💙": 9763,
      "💚": 9764,
      "💛": 9765,
      "💜": 9766,
      "💝": 9767,
      "💞": 9768,
      "💟": 9769,
      "💠": 9770,
      "💡": 9771,
      "💢": 9772,
      "💣": 9773,
      "💤": 9774,
      "💥": 9775,
      "💦": 9776,
      "💧": 9777,
      "💨": 9778,
      "💩": 9779,
      "💪": 9780,
      "💫": 9781,
      "💬": 9782,
      "💭": 9783,
      "💯": 9784,
      "💰": 9785,
      "💳": 9786,
      "💴": 9787,
      "💵": 9788,
      "💷": 9789,
      "💸": 9790,
      "💺": 9791,
      "💻": 9792,
      "💼": 9793,
      "💾": 9794,
      "💿": 9795,
      "📁": 9796,
      "📂": 9797,
      "📃": 9798,
      "📄": 9799,
      "📅": 9800,
      "📆": 9801,
      "📈": 9802,
      "📉": 9803,
      "📊": 9804,
      "📋": 9805,
      "📌": 9806,
      "📍": 9807,
      "📎": 9808,
      "📏": 9809,
      "📐": 9810,
      "📑": 9811,
      "📒": 9812,
      "📓": 9813,
      "📕": 9814,
      "📖": 9815,
      "📘": 9816,
      "📚": 9817,
      "📜": 9818,
      "📝": 9819,
      "📞": 9820,
      "📟": 9821,
      "📡": 9822,
      "📢": 9823,
      "📣": 9824,
      "📤": 9825,
      "📥": 9826,
      "📦": 9827,
      "📧": 9828,
      "📩": 9829,
      "📬": 9830,
      "📮": 9831,
      "📰": 9832,
      "📱": 9833,
      "📲": 9834,
      "📷": 9835,
      "📸": 9836,
      "📹": 9837,
      "📺": 9838,
      "📻": 9839,
      "📽": 9840,
      "🔀": 9841,
      "🔁": 9842,
      "🔄": 9843,
      "🔅": 9844,
      "🔈": 9845,
      "🔊": 9846,
      "🔋": 9847,
      "🔌": 9848,
      "🔍": 9849,
      "🔎": 9850,
      "🔏": 9851,
      "🔐": 9852,
      "🔑": 9853,
      "🔒": 9854,
      "🔓": 9855,
      "🔔": 9856,
      "🔗": 9857,
      "🔛": 9858,
      "🔜": 9859,
      "🔝": 9860,
      "🔞": 9861,
      "🔟": 9862,
      "🔠": 9863,
      "🔡": 9864,
      "🔢": 9865,
      "🔤": 9866,
      "🔥": 9867,
      "🔦": 9868,
      "🔧": 9869,
      "🔨": 9870,
      "🔩": 9871,
      "🔪": 9872,
      "🔫": 9873,
      "🔬": 9874,
      "🔭": 9875,
      "🔮": 9876,
      "🔯": 9877,
      "🔰": 9878,
      "🔲": 9879,
      "🔳": 9880,
      "🔴": 9881,
      "🔵": 9882,
      "🔶": 9883,
      "🔷": 9884,
      "🔸": 9885,
      "🔹": 9886,
      "🔺": 9887,
      "🔻": 9888,
      "🔼": 9889,
      "🔽": 9890,
      "🔾": 9891,
      "🔿": 9892,
      "🕅": 9893,
      "🕉": 9894,
      "🕊": 9895,
      "🕐": 9896,
      "🕒": 9897,
      "🕙": 9898,
      "🕯": 9899,
      "🕰": 9900,
      "🕳": 9901,
      "🕵": 9902,
      "🕶": 9903,
      "🕷": 9904,
      "🕸": 9905,
      "🕹": 9906,
      "🕺": 9907,
      "🖀": 9908,
      "🖉": 9909,
      "🖋": 9910,
      "🖌": 9911,
      "🖐": 9912,
      "🖤": 9913,
      "🖥": 9914,
      "🖱": 9915,
      "🖼": 9916,
      "🗂": 9917,
      "🗑": 9918,
      "🗓": 9919,
      "🗝": 9920,
      "🗡": 9921,
      "🗣": 9922,
      "🗨": 9923,
      "🗳": 9924,
      "🗺": 9925,
      "🗻": 9926,
      "🗼": 9927,
      "🗽": 9928,
      "😀": 9929,
      "😁": 9930,
      "😂": 9931,
      "😃": 9932,
      "😄": 9933,
      "😅": 9934,
      "😆": 9935,
      "😇": 9936,
      "😈": 9937,
      "😉": 9938,
      "😊": 9939,
      "😋": 9940,
      "😌": 9941,
      "😍": 9942,
      "😎": 9943,
      "😏": 9944,
      "😐": 9945,
      "😑": 9946,
      "😒": 9947,
      "😓": 9948,
      "😔": 9949,
      "😕": 9950,
      "😖": 9951,
      "😗": 9952,
      "😘": 9953,
      "😙": 9954,
      "😚": 9955,
      "😛": 9956,
      "😜": 9957,
      "😝": 9958,
      "😞": 9959,
      "😟": 9960,
      "😠": 9961,
      "😡": 9962,
      "😢": 9963,
      "😣": 9964,
      "😤": 9965,
      "😥": 9966,
      "😦": 9967,
      "😧": 9968,
      "😨": 9969,
      "😩": 9970,
      "😪": 9971,
      "😫": 9972,
      "😬": 9973,
      "😭": 9974,
      "😮": 9975,
      "😯": 9976,
      "😰": 9977,
      "😱": 9978,
      "😲": 9979,
      "😳": 9980,
      "😴": 9981,
      "😵": 9982,
      "😶": 9983,
      "😷": 9984,
      "😸": 9985,
      "😹": 9986,
      "😺": 9987,
      "😻": 9988,
      "😼": 9989,
      "😽": 9990,
      "😾": 9991,
      "😿": 9992,
      "🙀": 9993,
      "🙁": 9994,
      "🙂": 9995,
      "🙃": 9996,
      "🙄": 9997,
      "🙅": 9998,
      "🙆": 9999,
      "🙇": 10000,
      "🙈": 10001,
      "🙉": 10002,
      "🙊": 10003,
      "🙋": 10004,
      "🙌": 10005,
      "🙍": 10006,
      "🙎": 10007,
      "🙏": 10008,
      "🙦": 10009,
      "🚀": 10010,
      "🚁": 10011,
      "🚂": 10012,
      "🚃": 10013,
      "🚄": 10014,
      "🚆": 10015,
      "🚉": 10016,
      "🚊": 10017,
      "🚌": 10018,
      "🚏": 10019,
      "🚑": 10020,
      "🚒": 10021,
      "🚓": 10022,
      "🚔": 10023,
      "🚕": 10024,
      "🚗": 10025,
      "🚘": 10026,
      "🚙": 10027,
      "🚚": 10028,
      "🚛": 10029,
      "🚜": 10030,
      "🚠": 10031,
      "🚢": 10032,
      "🚣": 10033,
      "🚤": 10034,
      "🚦": 10035,
      "🚧": 10036,
      "🚨": 10037,
      "🚩": 10038,
      "🚪": 10039,
      "🚫": 10040,
      "🚬": 10041,
      "🚭": 10042,
      "🚯": 10043,
      "🚰": 10044,
      "🚱": 10045,
      "🚲": 10046,
      "🚴": 10047,
      "🚵": 10048,
      "🚶": 10049,
      "🚷": 10050,
      "🚹": 10051,
      "🚽": 10052,
      "🚿": 10053,
      "🛀": 10054,
      "🛁": 10055,
      "🛃": 10056,
      "🛅": 10057,
      "🛋": 10058,
      "🛌": 10059,
      "🛍": 10060,
      "🛎": 10061,
      "🛏": 10062,
      "🛑": 10063,
      "🛒": 10064,
      "🛔": 10065,
      "🛠": 10066,
      "🛡": 10067,
      "🛢": 10068,
      "🛣": 10069,
      "🛤": 10070,
      "🛥": 10071,
      "🛩": 10072,
      "🛫": 10073,
      "🛬": 10074,
      "🛰": 10075,
      "🛴": 10076,
      "🛵": 10077,
      "🛶": 10078,
      "🛸": 10079,
      "🛹": 10080,
      "🟒": 10081,
      "🟡": 10082,
      "🟢": 10083,
      "🟣": 10084,
      "🟥": 10085,
      "🟩": 10086,
      "🤇": 10087,
      "🤉": 10088,
      "🤌": 10089,
      "🤍": 10090,
      "🤏": 10091,
      "🤐": 10092,
      "🤑": 10093,
      "🤒": 10094,
      "🤓": 10095,
      "🤔": 10096,
      "🤕": 10097,
      "🤖": 10098,
      "🤗": 10099,
      "🤘": 10100,
      "🤙": 10101,
      "🤚": 10102,
      "🤛": 10103,
      "🤜": 10104,
      "🤝": 10105,
      "🤞": 10106,
      "🤟": 10107,
      "🤠": 10108,
      "🤡": 10109,
      "🤢": 10110,
      "🤣": 10111,
      "🤤": 10112,
      "🤥": 10113,
      "🤦": 10114,
      "🤧": 10115,
      "🤨": 10116,
      "🤩": 10117,
      "🤪": 10118,
      "🤫": 10119,
      "🤬": 10120,
      "🤭": 10121,
      "🤮": 10122,
      "🤯": 10123,
      "🤰": 10124,
      "🤱": 10125,
      "🤲": 10126,
      "🤳": 10127,
      "🤴": 10128,
      "🤵": 10129,
      "🤷": 10130,
      "🤸": 10131,
      "🤹": 10132,
      "🤺": 10133,
      "🤼": 10134,
      "🤽": 10135,
      "🤿": 10136,
      "🥀": 10137,
      "🥁": 10138,
      "🥂": 10139,
      "🥃": 10140,
      "🥄": 10141,
      "🥅": 10142,
      "🥇": 10143,
      "🥈": 10144,
      "🥉": 10145,
      "🥊": 10146,
      "🥐": 10147,
      "🥑": 10148,
      "🥒": 10149,
      "🥓": 10150,
      "🥔": 10151,
      "🥕": 10152,
      "🥖": 10153,
      "🥗": 10154,
      "🥘": 10155,
      "🥚": 10156,
      "🥛": 10157,
      "🥜": 10158,
      "🥞": 10159,
      "🥢": 10160,
      "🥣": 10161,
      "🥤": 10162,
      "🥥": 10163,
      "🥦": 10164,
      "🥧": 10165,
      "🥩": 10166,
      "🥪": 10167,
      "🥬": 10168,
      "🥭": 10169,
      "🥮": 10170,
      "🥯": 10171,
      "🥰": 10172,
      "🥲": 10173,
      "🥳": 10174,
      "🥴": 10175,
      "🥵": 10176,
      "🥶": 10177,
      "🥸": 10178,
      "🥹": 10179,
      "🥺": 10180,
      "🥾": 10181,
      "🥿": 10182,
      "🦀": 10183,
      "🦁": 10184,
      "🦃": 10185,
      "🦄": 10186,
      "🦅": 10187,
      "🦆": 10188,
      "🦇": 10189,
      "🦈": 10190,
      "🦉": 10191,
      "🦊": 10192,
      "🦋": 10193,
      "🦌": 10194,
      "🦍": 10195,
      "🦎": 10196,
      "🦏": 10197,
      "🦐": 10198,
      "🦑": 10199,
      "🦒": 10200,
      "🦓": 10201,
      "🦖": 10202,
      "🦘": 10203,
      "🦙": 10204,
      "🦜": 10205,
      "🦝": 10206,
      "🦞": 10207,
      "🦟": 10208,
      "🦠": 10209,
      "🦢": 10210,
      "🦥": 10211,
      "🦮": 10212,
      "🦯": 10213,
      "🦰": 10214,
      "🦱": 10215,
      "🦲": 10216,
      "🦳": 10217,
      "🦴": 10218,
      "🦷": 10219,
      "🦸": 10220,
      "🦹": 10221,
      "🦺": 10222,
      "🦾": 10223,
      "🧀": 10224,
      "🧁": 10225,
      "🧂": 10226,
      "🧄": 10227,
      "🧈": 10228,
      "🧊": 10229,
      "🧌": 10230,
      "🧎": 10231,
      "🧐": 10232,
      "🧑": 10233,
      "🧒": 10234,
      "🧓": 10235,
      "🧔": 10236,
      "🧕": 10237,
      "🧖": 10238,
      "🧗": 10239,
      "🧘": 10240,
      "🧙": 10241,
      "🧚": 10242,
      "🧛": 10243,
      "🧜": 10244,
      "🧝": 10245,
      "🧞": 10246,
      "🧟": 10247,
      "🧠": 10248,
      "🧡": 10249,
      "🧢": 10250,
      "🧣": 10251,
      "🧤": 10252,
      "🧥": 10253,
      "🧦": 10254,
      "🧧": 10255,
      "🧨": 10256,
      "🧩": 10257,
      "🧪": 10258,
      "🧫": 10259,
      "🧬": 10260,
      "🧭": 10261,
      "🧮": 10262,
      "🧯": 10263,
      "🧰": 10264,
      "🧱": 10265,
      "🧳": 10266,
      "🧴": 10267,
      "🧵": 10268,
      "🧶": 10269,
      "🧸": 10270,
      "🧹": 10271,
      "🧺": 10272,
      "🧼": 10273,
      "🧽": 10274,
      "🧿": 10275,
      "🩗": 10276,
      "🩪": 10277,
      "🩱": 10278,
      "🩸": 10279,
      "🩺": 10280,
      "🪄": 10281,
      "🪐": 10282,
      "🪑": 10283,
      "🪛": 10284,
      "🪨": 10285,
      "🪵": 10286,
      "🫖": 10287,
      "🫣": 10288,
      "🫦": 10289,
      "🬪": 10290,
      "🳴": 10291,
      "𠀋": 10292,
      "􀀀": 10293,
      "􏿿": 10294,
      "▁t": 10295,
      "▁a": 10296,
      "he": 10297,
      "in": 10298,
      "re": 10299,
      "▁s": 10300,
      "▁.": 10301,
      "on": 10302,
      "▁,": 10303,
      "▁c": 10304,
      "er": 10305,
      "▁the": 10306,
      "at": 10307,
      "en": 10308,
      "or": 10309,
      "▁p": 10310,
      "es": 10311,
      "nd": 10312,
      "▁d": 10313,
      "is": 10314,
      "it": 10315,
      "▁o": 10316,
      "▁m": 10317,
      "an": 10318,
      "▁w": 10319,
      "▁f": 10320,
      "ou": 10321,
      "▁and": 10322,
      "al": 10323,
      "ing": 10324,
      "▁b": 10325,
      "▁to": 10326,
      "▁in": 10327,
      "ar": 10328,
      "le": 10329,
      "ic": 10330,
      "ion": 10331,
      "ed": 10332,
      "▁of": 10333,
      "ro": 10334,
      "▁e": 10335,
      "as": 10336,
      "▁l": 10337,
      "▁h": 10338,
      "ent": 10339,
      "▁n": 10340,
      "▁re": 10341,
      "ct": 10342,
      "el": 10343,
      "▁u": 10344,
      "▁I": 10345,
      "om": 10346,
      "▁y": 10347,
      "▁th": 10348,
      "▁'": 10349,
      "▁is": 10350,
      "▁T": 10351,
      "st": 10352,
      "et": 10353,
      "▁N": 10354,
      "il": 10355,
      "▁:": 10356,
      "▁you": 10357,
      "id": 10358,
      "▁\"": 10359,
      "im": 10360,
      "▁-": 10361,
      "▁g": 10362,
      "ut": 10363,
      "ve": 10364,
      "▁de": 10365,
      "am": 10366,
      "AM": 10367,
      "E_": 10368,
      "AME_": 10369,
      "▁NAME_": 10370,
      "ot": 10371,
      "▁pro": 10372,
      "▁that": 10373,
      "ch": 10374,
      "▁A": 10375,
      "ol": 10376,
      "ation": 10377,
      "▁for": 10378,
      "▁(": 10379,
      "ow": 10380,
      "qu": 10381,
      "▁he": 10382,
      "▁be": 10383,
      "▁con": 10384,
      "se": 10385,
      "ra": 10386,
      "ce": 10387,
      "▁v": 10388,
      "▁st": 10389,
      "od": 10390,
      "ig": 10391,
      "if": 10392,
      "▁as": 10393,
      "▁S": 10394,
      "ul": 10395,
      "ad": 10396,
      "ur": 10397,
      "▁The": 10398,
      "▁com": 10399,
      "ith": 10400,
      "▁an": 10401,
      "▁it": 10402,
      "ay": 10403,
      "▁`": 10404,
      "ate": 10405,
      "os": 10406,
      "▁on": 10407,
      "▁1": 10408,
      "ir": 10409,
      "ge": 10410,
      "▁or": 10411,
      "est": 10412,
      "▁can": 10413,
      "▁with": 10414,
      "▁C": 10415,
      "ers": 10416,
      "▁su": 10417,
      "▁)": 10418,
      "▁al": 10419,
      "ly": 10420,
      "ment": 10421,
      "▁ex": 10422,
      "ant": 10423,
      "ri": 10424,
      "ess": 10425,
      "ver": 10426,
      "ab": 10427,
      "▁H": 10428,
      "ist": 10429,
      "pe": 10430,
      "ort": 10431,
      "ke": 10432,
      "▁2": 10433,
      "un": 10434,
      "▁ha": 10435,
      "▁en": 10436,
      "▁are": 10437,
      "▁P": 10438,
      "▁se": 10439,
      "▁qu": 10440,
      "▁us": 10441,
      "▁=": 10442,
      "▁NAME_1": 10443,
      "▁im": 10444,
      "res": 10445,
      "ac": 10446,
      "pp": 10447,
      "em": 10448,
      "▁wh": 10449,
      "um": 10450,
      "iv": 10451,
      "her": 10452,
      "nt": 10453,
      "ere": 10454,
      "ld": 10455,
      "ction": 10456,
      "▁ne": 10457,
      "ity": 10458,
      "oc": 10459,
      "us": 10460,
      "▁r": 10461,
      "iz": 10462,
      "▁le": 10463,
      "▁your": 10464,
      "ore": 10465,
      "du": 10466,
      "▁M": 10467,
      "ure": 10468,
      "▁D": 10469,
      "age": 10470,
      "▁imp": 10471,
      "▁int": 10472,
      "▁not": 10473,
      "th": 10474,
      "▁E": 10475,
      "ill": 10476,
      "▁comp": 10477,
      "▁un": 10478,
      "ical": 10479,
      "▁B": 10480,
      "ide": 10481,
      "op": 10482,
      "ain": 10483,
      "ies": 10484,
      "ud": 10485,
      "▁k": 10486,
      "pt": 10487,
      "igh": 10488,
      "▁ch": 10489,
      "▁*": 10490,
      "and": 10491,
      "orm": 10492,
      "▁W": 10493,
      "▁L": 10494,
      "ive": 10495,
      "▁have": 10496,
      "ould": 10497,
      "ine": 10498,
      "ial": 10499,
      "▁me": 10500,
      "▁F": 10501,
      "▁res": 10502,
      "▁3": 10503,
      "art": 10504,
      "ie": 10505,
      "ame": 10506,
      "ust": 10507,
      "▁ab": 10508,
      "pl": 10509,
      "end": 10510,
      "▁cont": 10511,
      "form": 10512,
      "per": 10513,
      "▁her": 10514,
      "ect": 10515,
      "▁te": 10516,
      "▁ma": 10517,
      "▁O": 10518,
      "rom": 10519,
      "og": 10520,
      "▁by": 10521,
      "ell": 10522,
      "▁R": 10523,
      "▁inc": 10524,
      "are": 10525,
      "▁sh": 10526,
      "▁pl": 10527,
      "▁was": 10528,
      "ther": 10529,
      "▁Th": 10530,
      "▁at": 10531,
      "▁j": 10532,
      "▁la": 10533,
      "ions": 10534,
      "▁ad": 10535,
      "▁do": 10536,
      "▁we": 10537,
      "▁G": 10538,
      "ry": 10539,
      "ight": 10540,
      "▁cl": 10541,
      "out": 10542,
      "ich": 10543,
      "able": 10544,
      "ib": 10545,
      "▁It": 10546,
      "▁mod": 10547,
      "ile": 10548,
      "▁4": 10549,
      "all": 10550,
      "▁hel": 10551,
      "▁my": 10552,
      "ang": 10553,
      "so": 10554,
      "act": 10555,
      "▁?": 10556,
      "ult": 10557,
      "cess": 10558,
      "▁fe": 10559,
      "▁ar": 10560,
      "▁des": 10561,
      "▁wor": 10562,
      "elf": 10563,
      "▁import": 10564,
      "ter": 10565,
      "our": 10566,
      "ue": 10567,
      "▁``": 10568,
      "▁from": 10569,
      "ag": 10570,
      "▁help": 10571,
      "▁In": 10572,
      "▁5": 10573,
      "xt": 10574,
      "ome": 10575,
      "ous": 10576,
      "▁NAME_2": 10577,
      "ire": 10578,
      "▁their": 10579,
      "▁this": 10580,
      "▁but": 10581,
      "▁/": 10582,
      "ific": 10583,
      "▁U": 10584,
      "▁produ": 10585,
      "▁prov": 10586,
      "ata": 10587,
      "▁ac": 10588,
      "ip": 10589,
      "▁Y": 10590,
      "▁other": 10591,
      "00": 10592,
      "ind": 10593,
      "▁any": 10594,
      "▁This": 10595,
      "▁will": 10596,
      "ations": 10597,
      "ound": 10598,
      "ia": 10599,
      "▁che": 10600,
      "▁spe": 10601,
      "▁use": 10602,
      "▁```": 10603,
      "▁app": 10604,
      "king": 10605,
      "ass": 10606,
      "ase": 10607,
      "▁kn": 10608,
      "▁incl": 10609,
      "▁all": 10610,
      "ans": 10611,
      "▁per": 10612,
      "▁used": 10613,
      "▁has": 10614,
      "ff": 10615,
      "vel": 10616,
      "ice": 10617,
      "ence": 10618,
      "▁man": 10619,
      "ance": 10620,
      "ack": 10621,
      "▁lo": 10622,
      "▁que": 10623,
      "ard": 10624,
      "▁!": 10625,
      "▁am": 10626,
      "▁tr": 10627,
      "▁und": 10628,
      "▁>": 10629,
      "▁li": 10630,
      "▁also": 10631,
      "ual": 10632,
      "▁pre": 10633,
      "▁sc": 10634,
      "▁more": 10635,
      "▁em": 10636,
      "▁п": 10637,
      "▁if": 10638,
      "ient": 10639,
      "▁ser": 10640,
      "▁tra": 10641,
      "▁0": 10642,
      "ated": 10643,
      "ep": 10644,
      "▁self": 10645,
      "▁includ": 10646,
      "▁out": 10647,
      "▁pr": 10648,
      "▁и": 10649,
      "▁cre": 10650,
      "▁such": 10651,
      "▁so": 10652,
      "ari": 10653,
      "▁model": 10654,
      "ign": 10655,
      "ime": 10656,
      "▁inform": 10657,
      "▁which": 10658,
      "ks": 10659,
      "▁[": 10660,
      "ful": 10661,
      "▁comm": 10662,
      "▁#": 10663,
      "▁dis": 10664,
      "ace": 10665,
      "▁par": 10666,
      "ces": 10667,
      "ach": 10668,
      "ст": 10669,
      "▁they": 10670,
      "iff": 10671,
      "ru": 10672,
      "▁в": 10673,
      "▁go": 10674,
      "▁sy": 10675,
      "ens": 10676,
      "int": 10677,
      "▁know": 10678,
      "ple": 10679,
      "▁|": 10680,
      "▁spec": 10681,
      "pon": 10682,
      "gh": 10683,
      "▁mo": 10684,
      "▁its": 10685,
      "▁data": 10686,
      "▁important": 10687,
      "ition": 10688,
      "▁()": 10689,
      "ress": 10690,
      "ary": 10691,
      "ode": 10692,
      "▁ro": 10693,
      "lic": 10694,
      "ни": 10695,
      "ber": 10696,
      "▁As": 10697,
      "▁fun": 10698,
      "▁about": 10699,
      "▁may": 10700,
      "ast": 10701,
      "▁she": 10702,
      "▁his": 10703,
      "ong": 10704,
      "--": 10705,
      "▁diff": 10706,
      "▁<": 10707,
      "hen": 10708,
      "▁]": 10709,
      "▁V": 10710,
      "ize": 10711,
      "▁up": 10712,
      "av": 10713,
      "▁ass": 10714,
      "ite": 10715,
      "▁с": 10716,
      "eth": 10717,
      "▁ca": 10718,
      "то": 10719,
      "▁pos": 10720,
      "▁di": 10721,
      "▁{": 10722,
      "▁cons": 10723,
      "▁est": 10724,
      "▁sp": 10725,
      "ough": 10726,
      "▁ev": 10727,
      "ener": 10728,
      "▁new": 10729,
      "▁need": 10730,
      "▁}": 10731,
      "one": 10732,
      "▁like": 10733,
      "gr": 10734,
      "▁You": 10735,
      "te": 10736,
      "▁es": 10737,
      "▁el": 10738,
      "mical": 10739,
      "▁ta": 10740,
      "▁val": 10741,
      "▁quest": 10742,
      "ão": 10743,
      "put": 10744,
      "▁vari": 10745,
      "ely": 10746,
      "led": 10747,
      "ory": 10748,
      "ne": 10749,
      "▁6": 10750,
      "erm": 10751,
      "▁would": 10752,
      "ра": 10753,
      "▁using": 10754,
      "▁product": 10755,
      "▁str": 10756,
      "ount": 10757,
      "▁sa": 10758,
      "ility": 10759,
      "▁num": 10760,
      "low": 10761,
      "▁information": 10762,
      "ject": 10763,
      "▁feel": 10764,
      "▁exam": 10765,
      "ange": 10766,
      "на": 10767,
      "ments": 10768,
      "angu": 10769,
      "но": 10770,
      "▁rel": 10771,
      "▁provide": 10772,
      "▁some": 10773,
      "▁i": 10774,
      "▁time": 10775,
      "▁pers": 10776,
      "▁J": 10777,
      "▁could": 10778,
      "▁col": 10779,
      "▁langu": 10780,
      "▁add": 10781,
      "▁co": 10782,
      "▁\\": 10783,
      "▁NAME_3": 10784,
      "▁к": 10785,
      "▁them": 10786,
      "▁pe": 10787,
      "▁part": 10788,
      "▁function": 10789,
      "▁+": 10790,
      "stem": 10791,
      "▁bas": 10792,
      "▁How": 10793,
      "▁no": 10794,
      "ро": 10795,
      "olog": 10796,
      "▁ke": 10797,
      "▁chemical": 10798,
      "ater": 10799,
      "▁ag": 10800,
      "velop": 10801,
      "▁under": 10802,
      "▁ra": 10803,
      "▁о": 10804,
      "▁text": 10805,
      "▁respon": 10806,
      "▁inv": 10807,
      "▁um": 10808,
      "ok": 10809,
      "ub": 10810,
      "▁language": 10811,
      "▁gener": 10812,
      "ft": 10813,
      "▁there": 10814,
      "ors": 10815,
      "▁.\"": 10816,
      "▁process": 10817,
      "▁para": 10818,
      "▁St": 10819,
      "▁make": 10820,
      "ays": 10821,
      "ating": 10822,
      "▁ob": 10823,
      "pect": 10824,
      "ci": 10825,
      "ning": 10826,
      "any": 10827,
      "▁ind": 10828,
      "ert": 10829,
      "▁who": 10830,
      "les": 10831,
      "▁person": 10832,
      "▁over": 10833,
      "▁ph": 10834,
      "▁\",": 10835,
      "ет": 10836,
      "▁inter": 10837,
      "▁;": 10838,
      "ail": 10839,
      "▁form": 10840,
      "ities": 10841,
      "▁def": 10842,
      "▁exper": 10843,
      "ord": 10844,
      "▁rec": 10845,
      "▁requ": 10846,
      "etw": 10847,
      "▁ty": 10848,
      "▁7": 10849,
      "▁how": 10850,
      "▁example": 10851,
      "▁specific": 10852,
      "▁x": 10853,
      "▁including": 10854,
      "ally": 10855,
      "▁det": 10856,
      "▁develop": 10857,
      "ild": 10858,
      "ys": 10859,
      "▁gr": 10860,
      "▁Here": 10861,
      "▁м": 10862,
      "▁eff": 10863,
      "yth": 10864,
      "▁д": 10865,
      "urn": 10866,
      "▁set": 10867,
      "▁AI": 10868,
      "ible": 10869,
      "▁He": 10870,
      "▁one": 10871,
      "▁had": 10872,
      "ics": 10873,
      "ings": 10874,
      "▁been": 10875,
      "▁att": 10876,
      "ak": 10877,
      "ose": 10878,
      "▁into": 10879,
      "▁differe": 10880,
      "ck": 10881,
      "▁20": 10882,
      "▁what": 10883,
      "chn": 10884,
      "ть": 10885,
      "▁code": 10886,
      "▁é": 10887,
      "ón": 10888,
      "▁system": 10889,
      "▁acc": 10890,
      "ates": 10891,
      "▁z": 10892,
      "▁off": 10893,
      "ower": 10894,
      "▁ent": 10895,
      "▁serv": 10896,
      "▁sol": 10897,
      "▁get": 10898,
      "▁8": 10899,
      "▁If": 10900,
      "▁K": 10901,
      "▁Ch": 10902,
      "enc": 10903,
      "arm": 10904,
      "ict": 10905,
      "▁\":": 10906,
      "▁She": 10907,
      "▁ret": 10908,
      "▁company": 10909,
      "▁provid": 10910,
      "▁inst": 10911,
      "hes": 10912,
      "▁bl": 10913,
      "io": 10914,
      "▁want": 10915,
      "ре": 10916,
      "oy": 10917,
      "▁10": 10918,
      "▁_": 10919,
      "ond": 10920,
      "ath": 10921,
      "az": 10922,
      "wn": 10923,
      "ear": 10924,
      "ark": 10925,
      "ython": 10926,
      "ents": 10927,
      "stand": 10928,
      "▁trans": 10929,
      "iqu": 10930,
      "▁act": 10931,
      "own": 10932,
      "ood": 10933,
      "те": 10934,
      "ures": 10935,
      "ety": 10936,
      "ap": 10937,
      "ол": 10938,
      "pport": 10939,
      "▁conf": 10940,
      "ade": 10941,
      "get": 10942,
      "▁each": 10943,
      "▁assist": 10944,
      "gram": 10945,
      "here": 10946,
      "oth": 10947,
      "▁po": 10948,
      "use": 10949,
      "▁high": 10950,
      "▁meth": 10951,
      "ices": 10952,
      "ever": 10953,
      "ont": 10954,
      "rib": 10955,
      "▁hand": 10956,
      "▁fol": 10957,
      "ны": 10958,
      "ular": 10959,
      "▁bod": 10960,
      "ustom": 10961,
      "▁expl": 10962,
      "▁start": 10963,
      "▁bu": 10964,
      "▁create": 10965,
      "ality": 10966,
      "ree": 10967,
      "ec": 10968,
      "▁thr": 10969,
      "ва": 10970,
      "▁sm": 10971,
      "▁reg": 10972,
      "▁way": 10973,
      "▁techn": 10974,
      "▁ap": 10975,
      "▁based": 10976,
      "▁dec": 10977,
      "▁products": 10978,
      "▁del": 10979,
      "▁then": 10980,
      "▁let": 10981,
      "ract": 10982,
      "▁different": 10983,
      "▁work": 10984,
      "▁indu": 10985,
      "lect": 10986,
      "▁Wh": 10987,
      "▁understand": 10988,
      "ли": 10989,
      "▁dep": 10990,
      "ng": 10991,
      "▁indust": 10992,
      "▁train": 10993,
      "▁rem": 10994,
      "▁sec": 10995,
      "iss": 10996,
      "▁ref": 10997,
      "▁rep": 10998,
      "ative": 10999,
      "rit": 11000,
      "▁just": 11001,
      "▁However": 11002,
      "arch": 11003,
      "▁program": 11004,
      "▁custom": 11005,
      "▁lear": 11006,
      "ople": 11007,
      "▁experi": 11008,
      "▁play": 11009,
      "не": 11010,
      "ten": 11011,
      "lo": 11012,
      "ript": 11013,
      "▁av": 11014,
      "▁file": 11015,
      "ues": 11016,
      "▁et": 11017,
      "rop": 11018,
      "▁cor": 11019,
      "ctions": 11020,
      "ise": 11021,
      "gg": 11022,
      "lease": 11023,
      "▁fin": 11024,
      "ident": 11025,
      "gan": 11026,
      "▁comple": 11027,
      "rol": 11028,
      "▁should": 11029,
      "▁number": 11030,
      "▁cur": 11031,
      "▁list": 11032,
      "▁9": 11033,
      "▁user": 11034,
      "ção": 11035,
      "▁questions": 11036,
      "▁through": 11037,
      "▁fil": 11038,
      "▁well": 11039,
      "▁hum": 11040,
      "▁follow": 11041,
      "▁were": 11042,
      "▁sub": 11043,
      "▁poss": 11044,
      "▁him": 11045,
      "▁people": 11046,
      "▁body": 11047,
      "anc": 11048,
      "▁world": 11049,
      "reat": 11050,
      "▁loc": 11051,
      "▁exp": 11052,
      "wer": 11053,
      "ph": 11054,
      "▁una": 11055,
      "ied": 11056,
      "▁bec": 11057,
      "▁range": 11058,
      "▁char": 11059,
      "▁best": 11060,
      "ves": 11061,
      "ado": 11062,
      "ential": 11063,
      "▁sk": 11064,
      "▁find": 11065,
      "▁name": 11066,
      "▁op": 11067,
      "▁car": 11068,
      "▁pol": 11069,
      "ional": 11070,
      "▁these": 11071,
      "ick": 11072,
      "▁when": 11073,
      "irst": 11074,
      "▁по": 11075,
      "▁key": 11076,
      "eng": 11077,
      "▁design": 11078,
      "▁class": 11079,
      "▁don": 11080,
      "▁print": 11081,
      "▁Ad": 11082,
      "▁cal": 11083,
      "▁pot": 11084,
      "▁return": 11085,
      "▁на": 11086,
      "▁method": 11087,
      "row": 11088,
      "▁see": 11089,
      "ble": 11090,
      "▁NAME_4": 11091,
      "▁game": 11092,
      "▁ve": 11093,
      "▁To": 11094,
      "ish": 11095,
      "ern": 11096,
      "▁result": 11097,
      "fore": 11098,
      "▁being": 11099,
      "▁power": 11100,
      "▁They": 11101,
      "▁ver": 11102,
      "ene": 11103,
      "der": 11104,
      "ify": 11105,
      "▁sim": 11106,
      "ious": 11107,
      "▁tw": 11108,
      "ock": 11109,
      "▁aut": 11110,
      "▁er": 11111,
      "▁art": 11112,
      "ivid": 11113,
      "hed": 11114,
      "ión": 11115,
      "▁applic": 11116,
      "ved": 11117,
      "▁bo": 11118,
      "▁state": 11119,
      "een": 11120,
      "ting": 11121,
      "ural": 11122,
      "iel": 11123,
      "ner": 11124,
      "icult": 11125,
      "▁ans": 11126,
      "▁back": 11127,
      "▁than": 11128,
      "its": 11129,
      "----": 11130,
      "▁lead": 11131,
      "▁ens": 11132,
      "ри": 11133,
      "etween": 11134,
      "ext": 11135,
      "▁between": 11136,
      "lement": 11137,
      "▁il": 11138,
      "▁med": 11139,
      "▁Re": 11140,
      "▁perform": 11141,
      "▁consid": 11142,
      "alth": 11143,
      "ving": 11144,
      "til": 11145,
      "als": 11146,
      "▁prom": 11147,
      "▁production": 11148,
      "▁opt": 11149,
      "▁support": 11150,
      "▁saf": 11151,
      "▁disc": 11152,
      "▁invol": 11153,
      "▁here": 11154,
      "uring": 11155,
      "▁value": 11156,
      "▁dire": 11157,
      "ife": 11158,
      "ware": 11159,
      "ung": 11160,
      "▁We": 11161,
      "▁sur": 11162,
      "▁):": 11163,
      "ale": 11164,
      "ier": 11165,
      "▁take": 11166,
      "▁gra": 11167,
      "▁our": 11168,
      "▁while": 11169,
      "го": 11170,
      "ness": 11171,
      "▁(\"": 11172,
      "▁soc": 11173,
      "rent": 11174,
      "ized": 11175,
      "▁first": 11176,
      "▁sign": 11177,
      "ost": 11178,
      "▁б": 11179,
      "hip": 11180,
      "▁env": 11181,
      "▁ins": 11182,
      "ages": 11183,
      "▁main": 11184,
      "ica": 11185,
      "▁conc": 11186,
      "▁input": 11187,
      "▁own": 11188,
      "ake": 11189,
      "red": 11190,
      "erg": 11191,
      "yl": 11192,
      "ense": 11193,
      "▁mat": 11194,
      "▁many": 11195,
      "▁again": 11196,
      "▁contin": 11197,
      "▁most": 11198,
      "▁adv": 11199,
      "▁respons": 11200,
      "ution": 11201,
      "ament": 11202,
      "ring": 11203,
      "resent": 11204,
      "▁allow": 11205,
      "▁down": 11206,
      "dition": 11207,
      "▁ко": 11208,
      "iron": 11209,
      "ines": 11210,
      "▁',": 11211,
      "▁step": 11212,
      "ER": 11213,
      "ian": 11214,
      "ле": 11215,
      "▁try": 11216,
      "▁real": 11217,
      "▁impro": 11218,
      "▁where": 11219,
      "ак": 11220,
      "▁const": 11221,
      "ork": 11222,
      "▁gu": 11223,
      "▁=\"": 11224,
      "▁inf": 11225,
      "ique": 11226,
      "▁pass": 11227,
      "▁fact": 11228,
      "▁end": 11229,
      "▁equ": 11230,
      "▁$": 11231,
      "▁depend": 11232,
      "▁Pro": 11233,
      "▁An": 11234,
      "▁lar": 11235,
      "▁bel": 11236,
      "▁two": 11237,
      "cept": 11238,
      "▁fl": 11239,
      "▁quality": 11240,
      "▁19": 11241,
      "▁tem": 11242,
      "▁da": 11243,
      "▁include": 11244,
      "ered": 11245,
      "ument": 11246,
      "ued": 11247,
      "▁both": 11248,
      "eren": 11249,
      "de": 11250,
      "▁known": 11251,
      "▁cap": 11252,
      "▁div": 11253,
      "ros": 11254,
      "▁charact": 11255,
      "▁Q": 11256,
      "ature": 11257,
      "▁question": 11258,
      "▁object": 11259,
      "▁answer": 11260,
      "▁For": 11261,
      "▁De": 11262,
      "▁rese": 11263,
      "▁good": 11264,
      "▁Al": 11265,
      "▁los": 11266,
      "ways": 11267,
      "▁ever": 11268,
      "▁util": 11269,
      "▁з": 11270,
      "▁bre": 11271,
      "▁typ": 11272,
      "ew": 11273,
      "▁year": 11274,
      "▁eng": 11275,
      "▁ll": 11276,
      "▁various": 11277,
      "▁dat": 11278,
      "ability": 11279,
      "▁tas": 11280,
      "▁web": 11281,
      "▁pur": 11282,
      "iew": 11283,
      "ST": 11284,
      "ons": 11285,
      "▁prof": 11286,
      "▁test": 11287,
      "ix": 11288,
      "▁dist": 11289,
      "itt": 11290,
      "▁industry": 11291,
      "▁min": 11292,
      "▁health": 11293,
      "▁run": 11294,
      "vers": 11295,
      "ля": 11296,
      "▁environ": 11297,
      "▁control": 11298,
      "▁Un": 11299,
      "▁Python": 11300,
      "aterial": 11301,
      "ield": 11302,
      "ink": 11303,
      "▁мо": 11304,
      "▁read": 11305,
      "▁effect": 11306,
      "▁ide": 11307,
      "ically": 11308,
      "▁desc": 11309,
      "▁individ": 11310,
      "▁require": 11311,
      "▁\")": 11312,
      "oup": 11313,
      "ura": 11314,
      "ob": 11315,
      "▁potential": 11316,
      "riend": 11317,
      "▁anal": 11318,
      "uc": 11319,
      "ization": 11320,
      "ен": 11321,
      "▁always": 11322,
      "ited": 11323,
      "▁able": 11324,
      "▁uma": 11325,
      "▁type": 11326,
      "▁bus": 11327,
      "ruct": 11328,
      "==": 11329,
      "und": 11330,
      "▁build": 11331,
      "ren": 11332,
      "ocus": 11333,
      "rame": 11334,
      "▁ensure": 11335,
      "▁Com": 11336,
      "▁difficult": 11337,
      "ling": 11338,
      "other": 11339,
      "ль": 11340,
      "AN": 11341,
      "▁individual": 11342,
      "▁size": 11343,
      "▁count": 11344,
      "▁commun": 11345,
      "▁only": 11346,
      "ology": 11347,
      "ione": 11348,
      "iness": 11349,
      "▁som": 11350,
      "oice": 11351,
      "▁access": 11352,
      "▁word": 11353,
      "▁sour": 11354,
      "ada": 11355,
      "▁life": 11356,
      "▁found": 11357,
      "▁die": 11358,
      "ward": 11359,
      "▁personal": 11360,
      "ote": 11361,
      "▁у": 11362,
      "cul": 11363,
      "old": 11364,
      "ello": 11365,
      "ación": 11366,
      "во": 11367,
      "▁But": 11368,
      "ко": 11369,
      "ла": 11370,
      "▁stud": 11371,
      "▁sor": 11372,
      "▁What": 11373,
      "itive": 11374,
      "▁respect": 11375,
      "▁top": 11376,
      "▁,\"": 11377,
      "▁There": 11378,
      "▁sit": 11379,
      "▁alg": 11380,
      "▁term": 11381,
      "▁must": 11382,
      "▁human": 11383,
      "▁proper": 11384,
      "▁focus": 11385,
      "▁material": 11386,
      "▁enc": 11387,
      "▁happ": 11388,
      "ex": 11389,
      "vent": 11390,
      "ily": 11391,
      "▁US": 11392,
      "▁show": 11393,
      "▁long": 11394,
      "▁ident": 11395,
      "ove": 11396,
      "▁plan": 11397,
      "▁environment": 11398,
      "ти": 11399,
      "▁ч": 11400,
      "▁ris": 11401,
      "self": 11402,
      "▁oper": 11403,
      "▁//": 11404,
      "▁development": 11405,
      "arket": 11406,
      "▁mem": 11407,
      "▁right": 11408,
      "▁before": 11409,
      "▁command": 11410,
      "action": 11411,
      "SS": 11412,
[...]
