{
  "version": "1.0",
  "truncation": null,
  "padding": null,
  "added_tokens": [
    {
      "id": 0,
      "content": "<unk>",
      "single_word": false,
      "lstrip": false,
      "rstrip": false,
      "normalized": false,
      "special": true
    },
    {
      "id": 1,
      "content": "<s>",
      "single_word": false,
      "lstrip": false,
      "rstrip": false,
      "normalized": false,
      "special": true
    },
    {
      "id": 2,
      "content": "</s>",
      "single_word": false,
      "lstrip": false,
      "rstrip": false,
      "normalized": false,
      "special": true
    }
  ],
  "normalizer": {
    "type": "Sequence",
    "normalizers": []
  },
  "pre_tokenizer": {
    "type": "Split",
    "pattern": {
      "Regex": "\\s*\\w+|\\s*[^\\w\\s]+|\\s+"
    },
    "behavior": "Isolated",
    "invert": false
  },
  "post_processor": {
    "type": "TemplateProcessing",
    "single": [
      {
        "SpecialToken": {
          "id": "<s>",
          "type_id": 0
        }
      },
      {
        "Sequence": {
          "id": "A",
          "type_id": 0
        }
      }
    ],
    "pair": [
      {
        "SpecialToken": {
          "id": "<s>",
          "type_id": 0
        }
      },
      {
        "Sequence": {
          "id": "A",
          "type_id": 0
        }
      },
      {
        "SpecialToken": {
          "id": "<s>",
          "type_id": 1
        }
      },
      {
        "Sequence": {
          "id": "B",
          "type_id": 1
        }
      }
    ],
    "special_tokens": {
      "<s>": {
        "id": "<s>",
        "ids": [
          1
        ],
        "tokens": [
          "<s>"
        ]
      }
    }
  },
  "decoder": {
    "type": "Sequence",
    "decoders": [
      {
        "type": "ByteFallback"
      },
      {
        "type": "Fuse"
      }
    ]
  },
  "model": {
    "type": "BPE",
    "dropout": null,
    "unk_token": "<unk>",
    "continuing_subword_prefix": null,
    "end_of_word_suffix": null,
    "fuse_unk": true,
    "byte_fallback": true,
    "ignore_merges": false,
    "vocab": {
      "<unk>": 0,
      "<s>": 1,
      "</s>": 2,
      "<0x00>": 3,
      "<0x01>": 4,
      "<0x02>": 5,
      "<0x03>": 6,
      "<0x04>": 7,
      "<0x05>": 8,
      "<0x06>": 9,
      "<0x07>": 10,
      "<0x08>": 11,
      "<0x09>": 12,
      "<0x0A>": 13,
      "<0x0B>": 14,
      "<0x0C>": 15,
      "<0x0D>": 16,
      "<0x0E>": 17,
      "<0x0F>": 18,
      "<0x10>": 19,
      "<0x11>": 20,
      "<0x12>": 21,
      "<0x13>": 22,
      "<0x14>": 23,
      "<0x15>": 24,
      "<0x16>": 25,
      "<0x17>": 26,
      "<0x18>": 27,
      "<0x19>": 28,
      "<0x1A>": 29,
      "<0x1B>": 30,
      "<0x1C>": 31,
      "<0x1D>": 32,
      "<0x1E>": 33,
      "<0x1F>": 34,
      "<0x20>": 35,
      "<0x21>": 36,
      "<0x22>": 37,
      "<0x23>": 38,
      "<0x24>": 39,
      "<0x25>": 40,
      "<0x26>": 41,
      "<0x27>": 42,
      "<0x28>": 43,
      "<0x29>": 44,
      "<0x2A>": 45,
      "<0x2B>": 46,
      "<0x2C>": 47,
      "<0x2D>": 48,
      "<0x2E>": 49,
      "<0x2F>": 50,
      "<0x30>": 51,
      "<0x31>": 52,
      "<0x32>": 53,
      "<0x33>": 54,
      "<0x34>": 55,
      "<0x35>": 56,
      "<0x36>": 57,
      "<0x37>": 58,
      "<0x38>": 59,
      "<0x39>": 60,
      "<0x3A>": 61,
      "<0x3B>": 62,
      "<0x3C>": 63,
      "<0x3D>": 64,
      "<0x3E>": 65,
      "<0x3F>": 66,
      "<0x40>": 67,
      "<0x41>": 68,
      "<0x42>": 69,
      "<0x43>": 70,
      "<0x44>": 71,
      "<0x45>": 72,
      "<0x46>": 73,
      "<0x47>": 74,
      "<0x48>": 75,
      "<0x49>": 76,
      "<0x4A>": 77,
      "<0x4B>": 78,
      "<0x4C>": 79,
      "<0x4D>": 80,
      "<0x4E>": 81,
      "<0x4F>": 82,
      "<0x50>": 83,
      "<0x51>": 84,
      "<0x52>": 85,
      "<0x53>": 86,
      "<0x54>": 87,
      "<0x55>": 88,
      "<0x56>": 89,
      "<0x57>": 90,
      "<0x58>": 91,
      "<0x59>": 92,
      "<0x5A>": 93,
      "<0x5B>": 94,
      "<0x5C>": 95,
      "<0x5D>": 96,
      "<0x5E>": 97,
      "<0x5F>": 98,
      "<0x60>": 99,
      "<0x61>": 100,
      "<0x62>": 101,
      "<0x63>": 102,
      "<0x64>": 103,
      "<0x65>": 104,
      "<0x66>": 105,
      "<0x67>": 106,
      "<0x68>": 107,
      "<0x69>": 108,
      "<0x6A>": 109,
      "<0x6B>": 110,
      "<0x6C>": 111,
      "<0x6D>": 112,
      "<0x6E>": 113,
      "<0x6F>": 114,
      "<0x70>": 115,
      "<0x71>": 116,
      "<0x72>": 117,
      "<0x73>": 118,
      "<0x74>": 119,
      "<0x75>": 120,
      "<0x76>": 121,
      "<0x77>": 122,
      "<0x78>": 123,
      "<0x79>": 124,
      "<0x7A>": 125,
      "<0x7B>": 126,
      "<0x7C>": 127,
      "<0x7D>": 128,
      "<0x7E>": 129,
      "<0x7F>": 130,
      "<0x80>": 131,
      "<0x81>": 132,
      "<0x82>": 133,
      "<0x83>": 134,
      "<0x84>": 135,
      "<0x85>": 136,
      "<0x86>": 137,
      "<0x87>": 138,
      "<0x88>": 139,
      "<0x89>": 140,
      "<0x8A>": 141,
      "<0x8B>": 142,
      "<0x8C>": 143,
      "<0x8D>": 144,
      "<0x8E>": 145,
      "<0x8F>": 146,
      "<0x90>": 147,
      "<0x91>": 148,
      "<0x92>": 149,
      "<0x93>": 150,
      "<0x94>": 151,
      "<0x95>": 152,
      "<0x96>": 153,
      "<0x97>": 154,
      "<0x98>": 155,
      "<0x99>": 156,
      "<0x9A>": 157,
      "<0x9B>": 158,
      "<0x9C>": 159,
      "<0x9D>": 160,
      "<0x9E>": 161,
      "<0x9F>": 162,
      "<0xA0>": 163,
      "<0xA1>": 164,
      "<0xA2>": 165,
      "<0xA3>": 166,
      "<0xA4>": 167,
      "<0xA5>": 168,
      "<0xA6>": 169,
      "<0xA7>": 170,
      "<0xA8>": 171,
      "<0xA9>": 172,
      "<0xAA>": 173,
      "<0xAB>": 174,
      "<0xAC>": 175,
      "<0xAD>": 176,
      "<0xAE>": 177,
      "<0xAF>": 178,
      "<0xB0>": 179,
      "<0xB1>": 180,
      "<0xB2>": 181,
      "<0xB3>": 182,
      "<0xB4>": 183,
      "<0xB5>": 184,
      "<0xB6>": 185,
      "<0xB7>": 186,
      "<0xB8>": 187,
      "<0xB9>": 188,
      "<0xBA>": 189,
      "<0xBB>": 190,
      "<0xBC>": 191,
      "<0xBD>": 192,
      "<0xBE>": 193,
      "<0xBF>": 194,
      "<0xC0>": 195,
      "<0xC1>": 196,
      "<0xC2>": 197,
      "<0xC3>": 198,
      "<0xC4>": 199,
      "<0xC5>": 200,
      "<0xC6>": 201,
      "<0xC7>": 202,
      "<0xC8>": 203,
      "<0xC9>": 204,
      "<0xCA>": 205,
      "<0xCB>": 206,
      "<0xCC>": 207,
      "<0xCD>": 208,
      "<0xCE>": 209,
      "<0xCF>": 210,
      "<0xD0>": 211,
      "<0xD1>": 212,
      "<0xD2>": 213,
      "<0xD3>": 214,
      "<0xD4>": 215,
      "<0xD5>": 216,
      "<0xD6>": 217,
      "<0xD7>": 218,
      "<0xD8>": 219,
      "<0xD9>": 220,
      "<0xDA>": 221,
      "<0xDB>": 222,
      "<0xDC>": 223,
      "<0xDD>": 224,
      "<0xDE>": 225,
      "<0xDF>": 226,
      "<0xE0>": 227,
      "<0xE1>": 228,
      "<0xE2>": 229,
      "<0xE3>": 230,
      "<0xE4>": 231,
      "<0xE5>": 232,
      "<0xE6>": 233,
      "<0xE7>": 234,
      "<0xE8>": 235,
      "<0xE9>": 236,
      "<0xEA>": 237,
      "<0xEB>": 238,
      "<0xEC>": 239,
      "<0xED>": 240,
      "<0xEE>": 241,
      "<0xEF>": 242,
      "<0xF0>": 243,
      "<0xF1>": 244,
      "<0xF2>": 245,
      "<0xF3>": 246,
      "<0xF4>": 247,
      "<0xF5>": 248,
      "<0xF6>": 249,
      "<0xF7>": 250,
      "<0xF8>": 251,
      "<0xF9>": 252,
      "<0xFA>": 253,
      "<0xFB>": 254,
      "<0xFC>": 255,
      "<0xFD>": 256,
      "<0xFE>": 257,
      "<0xFF>": 258,
      "\u0000": 259,
      "\u0001": 260,
      "\u0002": 261,
      "\u0003": 262,
      "\u0004": 263,
      "\u0005": 264,
      "\b": 265,
      "\t": 266,
      "\n": 267,
      "\r": 268,
      "\u000e": 269,
      "\u000f": 270,
      "\u0010": 271,
      "\u0011": 272,
      "\u0012": 273,
      "\u0013": 274,
      "\u0014": 275,
      "\u0015": 276,
      "\u0017": 277,
      "\u0018": 278,
      "\u0019": 279,
      "\u001b": 280,
      " ": 281,
      "!": 282,
      "\"": 283,
      "#": 284,
      "$": 285,
      "%": 286,
      "&": 287,
      "'": 288,
      "(": 289,
      ")": 290,
      "*": 291,
      "+": 292,
      ",": 293,
      "-": 294,
      ".": 295,
      "/": 296,
      "0": 297,
      "1": 298,
      "2": 299,
      "3": 300,
      "4": 301,
      "5": 302,
      "6": 303,
      "7": 304,
      "8": 305,
      "9": 306,
      ":": 307,
      ";": 308,
      "<": 309,
      "=": 310,
      ">": 311,
      "?": 312,
      "@": 313,
      "A": 314,
      "B": 315,
      "C": 316,
      "D": 317,
      "E": 318,
      "F": 319,
      "G": 320,
      "H": 321,
      "I": 322,
      "J": 323,
      "K": 324,
      "L": 325,
      "M": 326,
      "N": 327,
      "O": 328,
      "P": 329,
      "Q": 330,
      "R": 331,
      "S": 332,
      "T": 333,
      "U": 334,
      "V": 335,
      "W": 336,
      "X": 337,
      "Y": 338,
      "Z": 339,
      "[": 340,
      "\\": 341,
      "]": 342,
      "^": 343,
      "_": 344,
      "`": 345,
      "a": 346,
      "b": 347,
      "c": 348,
      "d": 349,
      "e": 350,
      "f": 351,
      "g": 352,
      "h": 353,
      "i": 354,
      "j": 355,
      "k": 356,
      "l": 357,
      "m": 358,
      "n": 359,
      "o": 360,
      "p": 361,
      "q": 362,
      "r": 363,
      "s": 364,
      "t": 365,
      "u": 366,
      "v": 367,
      "w": 368,
      "x": 369,
      "y": 370,
      "z": 371,
      "{": 372,
      "|": 373,
      "}": 374,
      "~": 375,
      "": 376,
      "": 377,
      "": 378,
      "": 379,
      "": 380,
      "": 381,
      "": 382,
      "": 383,
      "": 384,
      "": 385,
      "": 386,
      "": 387,
      "": 388,
      "": 389,
      "": 390,
      "": 391,
      "": 392,
      "": 393,
      "": 394,
      "": 395,
      "": 396,
      "": 397,
      "": 398,
      "": 399,
      " ": 400,
      "¡": 401,
      "¢": 402,
      "£": 403,
      "¤": 404,
      "¥": 405,
      "¦": 406,
      "§": 407,
      "¨": 408,
      "©": 409,
      "ª": 410,
      "«": 411,
      "¬": 412,
      "­": 413,
      "®": 414,
      "¯": 415,
      "°": 416,
      "±": 417,
      "²": 418,
      "³": 419,
      "´": 420,
      "µ": 421,
      "¶": 422,
      "·": 423,
      "¸": 424,
      "¹": 425,
      "º": 426,
      "»": 427,
      "¼": 428,
      "½": 429,
      "¾": 430,
      "¿": 431,
      "À": 432,
      "Á": 433,
      "Â": 434,
      "Ã": 435,
      "Ä": 436,
      "Å": 437,
      "Æ": 438,
      "Ç": 439,
      "È": 440,
      "É": 441,
      "Ê": 442,
      "Ë": 443,
      "Ì": 444,
      "Í": 445,
      "Î": 446,
      "Ï": 447,
      "Ð": 448,
      "Ñ": 449,
      "Ò": 450,
      "Ó": 451,
      "Ô": 452,
      "Õ": 453,
      "Ö": 454,
      "×": 455,
      "Ø": 456,
      "Ú": 457,
      "Û": 458,
      "Ü": 459,
      "Ý": 460,
      "Þ": 461,
      "ß": 462,
      "à": 463,
      "á": 464,
      "â": 465,
      "ã": 466,
      "ä": 467,
      "å": 468,
      "æ": 469,
      "ç": 470,
      "è": 471,
      "é": 472,
      "ê": 473,
      "ë": 474,
      "ì": 475,
      "í": 476,
      "î": 477,
      "ï": 478,
      "ð": 479,
      "ñ": 480,
      "ò": 481,
      "ó": 482,
      "ô": 483,
      "õ": 484,
      "ö": 485,
      "÷": 486,
      "ø": 487,
      "ù": 488,
      "ú": 489,
      "û": 490,
      "ü": 491,
      "ý": 492,
      "þ": 493,
      "ÿ": 494,
      "Ā": 495,
      "ā": 496,
      "Ă": 497,
      "ă": 498,
      "Ą": 499,
      "ą": 500,
      "Ć": 501,
      "ć": 502,
      "Ĉ": 503,
      "ĉ": 504,
      "Ċ": 505,
      "Č": 506,
      "č": 507,
      "Ď": 508,
      "ď": 509,
      "Đ": 510,
      "đ": 511,
      "Ē": 512,
      "ē": 513,
      "Ĕ": 514,
      "ĕ": 515,
      "Ė": 516,
      "ė": 517,
      "Ę": 518,
      "ę": 519,
      "Ě": 520,
      "ě": 521,
      "Ĝ": 522,
      "ĝ": 523,
      "Ğ": 524,
      "ğ": 525,
      "Ġ": 526,
      "ġ": 527,
      "ģ": 528,
      "Ħ": 529,
      "ħ": 530,
      "ĩ": 531,
      "Ī": 532,
      "ī": 533,
      "ĭ": 534,
      "Į": 535,
      "į": 536,
      "İ": 537,
      "ı": 538,
      "Ĳ": 539,
      "Ĵ": 540,
      "ĵ": 541,
      "Ķ": 542,
      "ķ": 543,
      "ĺ": 544,
      "Ļ": 545,
      "ļ": 546,
      "Ľ": 547,
      "ľ": 548,
      "Ŀ": 549,
      "Ł": 550,
      "ł": 551,
      "Ń": 552,
      "ń": 553,
      "ņ": 554,
      "ň": 555,
      "ŉ": 556,
      "Ŋ": 557,
      "ŋ": 558,
      "Ō": 559,
      "ō": 560,
      "ŏ": 561,
      "Ő": 562,
      "ő": 563,
      "Œ": 564,
      "œ": 565,
      "ŕ": 566,
      "ŗ": 567,
      "Ř": 568,
      "ř": 569,
      "Ś": 570,
      "ś": 571,
      "ŝ": 572,
      "Ş": 573,
      "ş": 574,
      "Š": 575,
      "š": 576,
      "ţ": 577,
      "ť": 578,
      "Ŧ": 579,
      "ũ": 580,
      "Ū": 581,
      "ū": 582,
      "Ŭ": 583,
      "ŭ": 584,
      "Ů": 585,
      "ů": 586,
      "Ű": 587,
      "ű": 588,
      "ų": 589,
      "Ŵ": 590,
      "ŷ": 591,
      "Ÿ": 592,
      "Ź": 593,
      "ź": 594,
      "Ż": 595,
      "ż": 596,
      "Ž": 597,
      "ž": 598,
      "ƒ": 599,
      "Ɠ": 600,
      "Ơ": 601,
      "ơ": 602,
      "Ư": 603,
      "ư": 604,
      "Ƶ": 605,
      "ƻ": 606,
      "ǎ": 607,
      "ǐ": 608,
      "ǒ": 609,
      "ǔ": 610,
      "ǚ": 611,
      "ǜ": 612,
      "ǝ": 613,
      "ǫ": 614,
      "ǵ": 615,
      "ǽ": 616,
      "Ȁ": 617,
      "Ȃ": 618,
      "ȃ": 619,
      "Ȅ": 620,
      "Ȇ": 621,
      "Ȋ": 622,
      "ȋ": 623,
      "Ȍ": 624,
      "Ȏ": 625,
      "ȏ": 626,
      "Ȑ": 627,
      "ȑ": 628,
      "Ȓ": 629,
      "ȓ": 630,
      "Ȕ": 631,
      "Ȗ": 632,
      "ȗ": 633,
      "Ș": 634,
      "ș": 635,
      "Ț": 636,
      "ț": 637,
      "ȩ": 638,
      "ȳ": 639,
      "ɐ": 640,
      "ɑ": 641,
      "ɒ": 642,
      "ɔ": 643,
      "ɕ": 644,
      "ɖ": 645,
      "ɘ": 646,
      "ə": 647,
      "ɛ": 648,
      "ɜ": 649,
      "ɟ": 650,
      "ɡ": 651,
      "ɣ": 652,
      "ɥ": 653,
      "ɦ": 654,
      "ɨ": 655,
      "ɪ": 656,
      "ɫ": 657,
      "ɲ": 658,
      "ɳ": 659,
      "ɴ": 660,
      "ɵ": 661,
      "ɹ": 662,
      "ɾ": 663,
      "ʀ": 664,
      "ʁ": 665,
      "ʂ": 666,
      "ʃ": 667,
      "ʇ": 668,
      "ʈ": 669,
      "ʊ": 670,
      "ʌ": 671,
      "ʍ": 672,
      "ʏ": 673,
      "ʐ": 674,
      "ʒ": 675,
      "ʔ": 676,
      "ʕ": 677,
      "ʖ": 678,
      "ʘ": 679,
      "ʙ": 680,
      "ʜ": 681,
      "ʞ": 682,
      "ʟ": 683,
      "ʦ": 684,
      "ʧ": 685,
      "ʰ": 686,
      "ʲ": 687,
      "ʳ": 688,
      "ʴ": 689,
      "ʷ": 690,
      "ʸ": 691,
      "ʹ": 692,
      "ʺ": 693,
      "ʻ": 694,
      "ʼ": 695,
      "ʾ": 696,
      "ʿ": 697,
      "˄": 698,
      "˅": 699,
      "ˆ": 700,
      "ˈ": 701,
      "ˊ": 702,
      "ˌ": 703,
      "ː": 704,
      "˘": 705,
      "˙": 706,
      "˚": 707,
      "˜": 708,
      "ˡ": 709,
      "ˢ": 710,
      "˥": 711,
      "˧": 712,
      "˨": 713,
      "˩": 714,
      "̀": 715,
      "́": 716,
      "̂": 717,
      "̃": 718,
      "̄": 719,
      "̅": 720,
      "̆": 721,
      "̇": 722,
      "̈": 723,
      "̉": 724,
      "̌": 725,
      "̐": 726,
      "̑": 727,
      "̓": 728,
      "̣": 729,
      "̤": 730,
      "̥": 731,
      "̨": 732,
      "̩": 733,
      "̪": 734,
      "̯": 735,
      "̸": 736,
      "͖": 737,
      "͜": 738,
      "͡": 739,
      "Ά": 740,
      "Έ": 741,
      "Ή": 742,
      "Ό": 743,
      "Ώ": 744,
      "ΐ": 745,
      "Α": 746,
      "Β": 747,
      "Γ": 748,
      "Δ": 749,
      "Ε": 750,
      "Ζ": 751,
      "Η": 752,
      "Θ": 753,
      "Ι": 754,
      "Κ": 755,
      "Λ": 756,
      "Μ": 757,
      "Ν": 758,
      "Ξ": 759,
      "Ο": 760,
      "Π": 761,
      "Ρ": 762,
      "Σ": 763,
      "Τ": 764,
      "Υ": 765,
      "Φ": 766,
      "Χ": 767,
      "Ψ": 768,
      "Ω": 769,
      "ά": 770,
      "έ": 771,
      "ή": 772,
      "ί": 773,
      "α": 774,
      "β": 775,
      "γ": 776,
      "δ": 777,
      "ε": 778,
      "ζ": 779,
      "η": 780,
      "θ": 781,
      "ι": 782,
      "κ": 783,
      "λ": 784,
      "μ": 785,
      "ν": 786,
      "ξ": 787,
      "ο": 788,
      "π": 789,
      "ρ": 790,
      "ς": 791,
      "σ": 792,
      "τ": 793,
      "υ": 794,
      "φ": 795,
      "χ": 796,
      "ψ": 797,
      "ω": 798,
      "ϊ": 799,
      "ϋ": 800,
      "ό": 801,
      "ύ": 802,
      "ώ": 803,
      "ϕ": 804,
      "Ϝ": 805,
      "ϝ": 806,
      "ϴ": 807,
      "ϵ": 808,
      "Ϸ": 809,
      "Ё": 810,
      "Ђ": 811,
      "Є": 812,
      "Ѕ": 813,
      "І": 814,
      "Ї": 815,
      "Ј": 816,
      "Њ": 817,
      "Ў": 818,
      "А": 819,
      "Б": 820,
      "В": 821,
      "Г": 822,
      "Д": 823,
      "Е": 824,
      "Ж": 825,
      "З": 826,
      "И": 827,
      "Й": 828,
      "К": 829,
      "Л": 830,
      "М": 831,
      "Н": 832,
      "О": 833,
      "П": 834,
      "Р": 835,
      "С": 836,
      "Т": 837,
      "У": 838,
      "Ф": 839,
      "Х": 840,
      "Ц": 841,
      "Ч": 842,
      "Ш": 843,
      "Щ": 844,
      "Ъ": 845,
      "Ы": 846,
      "Ь": 847,
      "Э": 848,
      "Ю": 849,
      "Я": 850,
      "а": 851,
      "б": 852,
      "в": 853,
      "г": 854,
      "д": 855,
      "е": 856,
      "ж": 857,
      "з": 858,
      "и": 859,
      "й": 860,
      "к": 861,
      "л": 862,
      "м": 863,
      "н": 864,
      "о": 865,
      "п": 866,
      "р": 867,
      "с": 868,
      "т": 869,
      "у": 870,
      "ф": 871,
      "х": 872,
      "ц": 873,
      "ч": 874,
      "ш": 875,
      "щ": 876,
      "ъ": 877,
      "ы": 878,
      "ь": 879,
      "э": 880,
      "ю": 881,
      "я": 882,
      "ё": 883,
      "ђ": 884,
      "є": 885,
      "ѕ": 886,
      "і": 887,
      "ї": 888,
      "ј": 889,
      "љ": 890,
      "њ": 891,
      "ћ": 892,
      "ќ": 893,
      "ѝ": 894,
      "ў": 895,
      "џ": 896,
      "Ѡ": 897,
      "ѡ": 898,
      "Ґ": 899,
      "ґ": 900,
      "ғ": 901,
      "Қ": 902,
      "қ": 903,
      "ң": 904,
      "Ү": 905,
      "ү": 906,
      "ұ": 907,
      "ҳ": 908,
      "ҷ": 909,
      "һ": 910,
      "ӏ": 911,
      "Ә": 912,
      "ә": 913,
      "Ө": 914,
      "ө": 915,
      "ӯ": 916,
      "ԃ": 917,
      "ԏ": 918,
      "Ա": 919,
      "Բ": 920,
      "Դ": 921,
      "Ե": 922,
      "Է": 923,
      "Ի": 924,
      "Հ": 925,
      "Ձ": 926,
      "Ն": 927,
      "Ո": 928,
      "Վ": 929,
      "Տ": 930,
      "Ք": 931,
      "՞": 932,
      "ա": 933,
      "բ": 934,
      "գ": 935,
      "դ": 936,
      "ե": 937,
      "զ": 938,
      "է": 939,
      "ը": 940,
      "թ": 941,
      "ժ": 942,
      "ի": 943,
      "լ": 944,
      "խ": 945,
      "ծ": 946,
      "կ": 947,
      "հ": 948,
      "ձ": 949,
      "ղ": 950,
      "ճ": 951,
      "մ": 952,
      "յ": 953,
      "ն": 954,
      "շ": 955,
      "ո": 956,
      "չ": 957,
      "պ": 958,
      "ջ": 959,
      "ռ": 960,
      "ս": 961,
      "վ": 962,
      "տ": 963,
      "ր": 964,
      "ց": 965,
      "ւ": 966,
      "փ": 967,
      "ք": 968,
      "օ": 969,
      "ֆ": 970,
      "և": 971,
      "։": 972,
      "֍": 973,
      "֔": 974,
      "֖": 975,
      "֙": 976,
      "֛": 977,
      "֣": 978,
      "֥": 979,
      "֨": 980,
      "֩": 981,
      "ְ": 982,
      "ֱ": 983,
      "ֲ": 984,
      "ִ": 985,
      "ֵ": 986,
      "ֶ": 987,
      "ַ": 988,
      "ָ": 989,
      "ֹ": 990,
      "ּ": 991,
      "ֽ": 992,
      "־": 993,
      "ׁ": 994,
      "ׂ": 995,
      "׃": 996,
      "א": 997,
      "ב": 998,
      "ג": 999,
      "ד": 1000,
      "ה": 1001,
      "ו": 1002,
      "ז": 1003,
      "ח": 1004,
      "ט": 1005,
      "י": 1006,
      "ך": 1007,
      "כ": 1008,
      "ל": 1009,
      "ם": 1010,
      "מ": 1011,
      "ן": 1012,
      "נ": 1013,
      "ס": 1014,
      "ע": 1015,
      "ף": 1016,
      "פ": 1017,
      "ץ": 1018,
      "צ": 1019,
      "ק": 1020,
      "ר": 1021,
      "ש": 1022,
      "ת": 1023,
      "װ": 1024,
      "׳": 1025,
      "״": 1026,
      "،": 1027,
      "؛": 1028,
      "؜": 1029,
      "؟": 1030,
      "ء": 1031,
      "آ": 1032,
      "أ": 1033,
      "ؤ": 1034,
      "إ": 1035,
      "ئ": 1036,
      "ا": 1037,
      "ب": 1038,
      "ة": 1039,
      "ت": 1040,
      "ث": 1041,
      "ج": 1042,
      "ح": 1043,
      "خ": 1044,
      "د": 1045,
      "ذ": 1046,
      "ر": 1047,
      "ز": 1048,
      "س": 1049,
      "ش": 1050,
      "ص": 1051,
      "ض": 1052,
      "ط": 1053,
      "ظ": 1054,
      "ع": 1055,
      "غ": 1056,
      "ـ": 1057,
      "ف": 1058,
      "ق": 1059,
      "ك": 1060,
      "ل": 1061,
      "م": 1062,
      "ن": 1063,
      "ه": 1064,
      "و": 1065,
      "ى": 1066,
      "ي": 1067,
      "ً": 1068,
      "ٌ": 1069,
      "ٍ": 1070,
      "َ": 1071,
      "ُ": 1072,
      "ِ": 1073,
      "ّ": 1074,
      "ْ": 1075,
      "ٓ": 1076,
      "ٔ": 1077,
      "٠": 1078,
      "١": 1079,
      "٢": 1080,
      "٣": 1081,
      "٤": 1082,
      "٥": 1083,
      "٦": 1084,
      "٧": 1085,
      "٩": 1086,
      "٪": 1087,
      "٫": 1088,
      "٬": 1089,
      "ٰ": 1090,
      "ٱ": 1091,
      "ٹ": 1092,
      "پ": 1093,
      "چ": 1094,
      "ڈ": 1095,
      "ڑ": 1096,
      "ړ": 1097,
      "ژ": 1098,
      "ک": 1099,
      "گ": 1100,
      "ڵ": 1101,
      "ں": 1102,
      "ڼ": 1103,
      "ھ": 1104,
      "ہ": 1105,
      "ۂ": 1106,
      "ی": 1107,
      "ې": 1108,
      "ے": 1109,
      "۔": 1110,
      "ۚ": 1111,
      "ۡ": 1112,
      "ۢ": 1113,
      "ۤ": 1114,
      "۰": 1115,
      "۱": 1116,
      "۲": 1117,
      "۳": 1118,
      "۴": 1119,
      "۵": 1120,
      "۶": 1121,
      "۷": 1122,
      "۸": 1123,
      "۹": 1124,
      "ܐ": 1125,
      "ܒ": 1126,
      "ܕ": 1127,
      "ܘ": 1128,
      "ܚ": 1129,
      "ܝ": 1130,
      "ܟ": 1131,
      "ܠ": 1132,
      "ܡ": 1133,
      "ܢ": 1134,
      "ܣ": 1135,
      "ܦ": 1136,
      "ܩ": 1137,
      "ܫ": 1138,
      "ܬ": 1139,
      "ܲ": 1140,
      "ܶ": 1141,
      "݁": 1142,
      "ހ": 1143,
      "ރ": 1144,
      "ކ": 1145,
      "އ": 1146,
      "ވ": 1147,
      "މ": 1148,
      "ދ": 1149,
      "ލ": 1150,
      "ސ": 1151,
      "ޓ": 1152,
      "ޔ": 1153,
      "ަ": 1154,
      "ާ": 1155,
      "ި": 1156,
      "ު": 1157,
      "ެ": 1158,
      "ޮ": 1159,
      "ޯ": 1160,
      "ް": 1161,
      "ࣨ": 1162,
      "ँ": 1163,
      "ं": 1164,
      "ः": 1165,
      "अ": 1166,
      "आ": 1167,
      "इ": 1168,
      "ई": 1169,
      "उ": 1170,
      "ऊ": 1171,
      "ऋ": 1172,
      "ऍ": 1173,
      "ऎ": 1174,
      "ए": 1175,
      "ऐ": 1176,
      "ऑ": 1177,
      "ऒ": 1178,
      "ओ": 1179,
      "औ": 1180,
      "क": 1181,
      "ख": 1182,
      "ग": 1183,
      "घ": 1184,
      "ङ": 1185,
      "च": 1186,
      "छ": 1187,
      "ज": 1188,
      "झ": 1189,
      "ञ": 1190,
      "ट": 1191,
      "ठ": 1192,
      "ड": 1193,
      "ढ": 1194,
      "ण": 1195,
      "त": 1196,
      "थ": 1197,
      "द": 1198,
      "ध": 1199,
      "न": 1200,
      "प": 1201,
      "फ": 1202,
      "ब": 1203,
      "भ": 1204,
      "म": 1205,
      "य": 1206,
      "र": 1207,
      "ल": 1208,
      "ळ": 1209,
      "व": 1210,
      "श": 1211,
      "ष": 1212,
      "स": 1213,
      "ह": 1214,
      "़": 1215,
      "ा": 1216,
      "ि": 1217,
      "ी": 1218,
      "ु": 1219,
      "ू": 1220,
      "ृ": 1221,
      "ॅ": 1222,
      "े": 1223,
      "ै": 1224,
      "ॉ": 1225,
      "ो": 1226,
      "ौ": 1227,
      "्": 1228,
      "ॐ": 1229,
      "ॕ": 1230,
      "ज़": 1231,
      "ड़": 1232,
      "ढ़": 1233,
      "ॠ": 1234,
      "ॡ": 1235,
      "ॢ": 1236,
      "ॣ": 1237,
      "।": 1238,
      "॥": 1239,
      "०": 1240,
      "१": 1241,
      "७": 1242,
      "८": 1243,
      "ঁ": 1244,
      "ং": 1245,
      "ঃ": 1246,
      "অ": 1247,
      "আ": 1248,
      "ই": 1249,
      "ঈ": 1250,
      "উ": 1251,
      "এ": 1252,
      "ঐ": 1253,
      "ও": 1254,
      "ঔ": 1255,
      "ক": 1256,
      "খ": 1257,
      "গ": 1258,
      "ঘ": 1259,
      "ঙ": 1260,
      "চ": 1261,
      "ছ": 1262,
      "জ": 1263,
      "ঝ": 1264,
      "ঞ": 1265,
      "ট": 1266,
      "ঠ": 1267,
      "ড": 1268,
      "ঢ": 1269,
      "ণ": 1270,
      "ত": 1271,
      "থ": 1272,
      "দ": 1273,
      "ধ": 1274,
      "ন": 1275,
      "প": 1276,
      "ফ": 1277,
      "ব": 1278,
      "ভ": 1279,
      "ম": 1280,
      "য": 1281,
      "র": 1282,
      "ল": 1283,
      "শ": 1284,
      "ষ": 1285,
      "স": 1286,
      "হ": 1287,
      "঺": 1288,
      "়": 1289,
      "ঽ": 1290,
      "া": 1291,
      "ি": 1292,
      "ী": 1293,
      "ু": 1294,
      "ূ": 1295,
      "ৃ": 1296,
      "ে": 1297,
      "ৈ": 1298,
      "ো": 1299,
      "ৌ": 1300,
      "্": 1301,
      "ৎ": 1302,
      "ড়": 1303,
      "য়": 1304,
      "ৣ": 1305,
      "৤": 1306,
      "০": 1307,
      "১": 1308,
      "২": 1309,
      "৫": 1310,
      "৭": 1311,
      "৯": 1312,
      "ਂ": 1313,
      "ਅ": 1314,
      "ਆ": 1315,
      "ਇ": 1316,
      "ਈ": 1317,
      "ਉ": 1318,
      "ਕ": 1319,
      "ਗ": 1320,
      "ਚ": 1321,
      "ਜ": 1322,
      "ਟ": 1323,
      "ਠ": 1324,
      "ਡ": 1325,
      "ਣ": 1326,
      "ਤ": 1327,
      "ਦ": 1328,
      "ਧ": 1329,
      "ਨ": 1330,
      "ਪ": 1331,
      "ਫ": 1332,
      "ਬ": 1333,
      "ਭ": 1334,
      "ਮ": 1335,
      "ਯ": 1336,
      "ਰ": 1337,
      "ਲ": 1338,
      "ਵ": 1339,
      "ਸ਼": 1340,
      "ਸ": 1341,
      "ਹ": 1342,
      "਼": 1343,
      "ਾ": 1344,
      "ਿ": 1345,
      "ੀ": 1346,
      "ੁ": 1347,
      "ੂ": 1348,
      "ੇ": 1349,
      "ੈ": 1350,
      "ੋ": 1351,
      "੍": 1352,
      "ੰ": 1353,
      "ੱ": 1354,
      "ં": 1355,
      "આ": 1356,
      "ઇ": 1357,
      "એ": 1358,
      "ક": 1359,
      "ખ": 1360,
      "ગ": 1361,
      "છ": 1362,
      "જ": 1363,
      "ટ": 1364,
      "ડ": 1365,
      "ણ": 1366,
      "ત": 1367,
      "થ": 1368,
      "દ": 1369,
      "ધ": 1370,
      "ન": 1371,
      "પ": 1372,
      "બ": 1373,
      "ભ": 1374,
      "મ": 1375,
      "ય": 1376,
      "ર": 1377,
      "લ": 1378,
      "વ": 1379,
      "શ": 1380,
      "ષ": 1381,
      "સ": 1382,
      "હ": 1383,
      "ા": 1384,
      "િ": 1385,
      "ી": 1386,
      "ુ": 1387,
      "ૂ": 1388,
      "ે": 1389,
      "ો": 1390,
      "્": 1391,
      "ଇ": 1392,
      "ଡ": 1393,
      "ନ": 1394,
      "଼": 1395,
      "ି": 1396,
      "அ": 1397,
      "ஆ": 1398,
      "இ": 1399,
      "உ": 1400,
      "எ": 1401,
      "ஏ": 1402,
      "ஒ": 1403,
      "க": 1404,
      "ங": 1405,
      "ச": 1406,
      "ஜ": 1407,
      "ஞ": 1408,
      "ட": 1409,
      "ண": 1410,
      "த": 1411,
      "ந": 1412,
      "ன": 1413,
      "ப": 1414,
      "ம": 1415,
      "ய": 1416,
      "ர": 1417,
      "ற": 1418,
      "ல": 1419,
      "ள": 1420,
      "ழ": 1421,
      "வ": 1422,
      "ஷ": 1423,
      "ஸ": 1424,
      "ஹ": 1425,
      "ா": 1426,
      "ி": 1427,
      "ீ": 1428,
      "ு": 1429,
      "ூ": 1430,
      "ெ": 1431,
      "ே": 1432,
      "ை": 1433,
      "ொ": 1434,
      "ோ": 1435,
      "்": 1436,
      "ం": 1437,
      "అ": 1438,
      "ఆ": 1439,
      "ఇ": 1440,
      "ఈ": 1441,
      "ఉ": 1442,
      "ఎ": 1443,
      "ఏ": 1444,
      "ఒ": 1445,
      "ఓ": 1446,
      "క": 1447,
      "గ": 1448,
      "చ": 1449,
      "జ": 1450,
      "ట": 1451,
      "డ": 1452,
      "ణ": 1453,
      "త": 1454,
      "థ": 1455,
      "ద": 1456,
      "ధ": 1457,
      "న": 1458,
      "ప": 1459,
      "బ": 1460,
      "భ": 1461,
      "మ": 1462,
      "య": 1463,
      "ర": 1464,
      "ల": 1465,
      "వ": 1466,
      "శ": 1467,
      "ష": 1468,
      "స": 1469,
      "హ": 1470,
      "ా": 1471,
      "ి": 1472,
      "ీ": 1473,
      "ు": 1474,
      "ూ": 1475,
      "ృ": 1476,
      "ె": 1477,
      "ే": 1478,
      "ై": 1479,
      "ొ": 1480,
      "ో": 1481,
      "్": 1482,
      "ಂ": 1483,
      "ಅ": 1484,
      "ಆ": 1485,
      "ಇ": 1486,
      "ಈ": 1487,
      "ಉ": 1488,
      "ಊ": 1489,
      "ಋ": 1490,
      "ಌ": 1491,
      "಍": 1492,
      "ಎ": 1493,
      "ಒ": 1494,
      "ಓ": 1495,
      "ಔ": 1496,
      "ಕ": 1497,
      "ಖ": 1498,
      "ಗ": 1499,
      "ಘ": 1500,
      "ಙ": 1501,
      "ಚ": 1502,
      "ಛ": 1503,
      "ಜ": 1504,
      "ಝ": 1505,
      "ಟ": 1506,
      "ಠ": 1507,
      "ಡ": 1508,
      "ಢ": 1509,
      "ಣ": 1510,
      "ತ": 1511,
      "ಥ": 1512,
      "ದ": 1513,
      "ಧ": 1514,
      "ನ": 1515,
      "಩": 1516,
      "ಪ": 1517,
      "ಫ": 1518,
      "ಬ": 1519,
      "ಭ": 1520,
      "ಮ": 1521,
      "ಯ": 1522,
      "ರ": 1523,
      "ಲ": 1524,
      "ಳ": 1525,
      "ವ": 1526,
      "ಶ": 1527,
      "ಷ": 1528,
      "ಸ": 1529,
      "ಹ": 1530,
      "ಾ": 1531,
      "ಿ": 1532,
      "ೀ": 1533,
      "ು": 1534,
      "ೂ": 1535,
      "ೆ": 1536,
      "ೇ": 1537,
      "ೈ": 1538,
      "ೊ": 1539,
      "ೋ": 1540,
      "್": 1541,
      "ം": 1542,
      "അ": 1543,
      "ആ": 1544,
      "ഇ": 1545,
      "ഈ": 1546,
      "ഉ": 1547,
      "എ": 1548,
      "ഐ": 1549,
      "ഒ": 1550,
      "ഓ": 1551,
      "ക": 1552,
      "ഗ": 1553,
      "ങ": 1554,
      "ച": 1555,
      "ജ": 1556,
      "ഞ": 1557,
      "ട": 1558,
      "ണ": 1559,
      "ത": 1560,
      "ദ": 1561,
      "ധ": 1562,
      "ന": 1563,
      "പ": 1564,
      "ഫ": 1565,
      "ബ": 1566,
      "ഭ": 1567,
      "മ": 1568,
      "യ": 1569,
      "ര": 1570,
      "റ": 1571,
      "ല": 1572,
      "ള": 1573,
      "ഴ": 1574,
      "വ": 1575,
      "ശ": 1576,
      "ഷ": 1577,
      "സ": 1578,
      "ഹ": 1579,
      "ാ": 1580,
      "ി": 1581,
      "ീ": 1582,
      "ു": 1583,
      "ൂ": 1584,
      "ൃ": 1585,
      "െ": 1586,
      "േ": 1587,
      "ൊ": 1588,
      "ോ": 1589,
      "്": 1590,
      "ൻ": 1591,
      "ർ": 1592,
      "ൽ": 1593,
      "ൾ": 1594,
      "ං": 1595,
      "අ": 1596,
      "ආ": 1597,
      "ඇ": 1598,
      "ඉ": 1599,
      "ඊ": 1600,
      "උ": 1601,
      "එ": 1602,
      "ඒ": 1603,
      "ඔ": 1604,
      "ඕ": 1605,
      "ක": 1606,
      "ග": 1607,
      "ච": 1608,
      "ජ": 1609,
      "ට": 1610,
      "ඩ": 1611,
      "ණ": 1612,
      "ත": 1613,
      "ථ": 1614,
      "ද": 1615,
      "ධ": 1616,
      "න": 1617,
      "ඳ": 1618,
      "ප": 1619,
      "බ": 1620,
      "භ": 1621,
      "ම": 1622,
      "ය": 1623,
      "ර": 1624,
      "ල": 1625,
      "ව": 1626,
      "ශ": 1627,
      "ෂ": 1628,
      "ස": 1629,
      "හ": 1630,
      "ළ": 1631,
      "්": 1632,
      "ා": 1633,
      "ැ": 1634,
      "ෑ": 1635,
      "ි": 1636,
      "ී": 1637,
      "ු": 1638,
      "ෘ": 1639,
      "ෙ": 1640,
      "ේ": 1641,
      "ෛ": 1642,
      "ො": 1643,
      "ෝ": 1644,
      "ෞ": 1645,
      "෡": 1646,
      "ก": 1647,
      "ข": 1648,
      "ค": 1649,
      "ฅ": 1650,
      "ฆ": 1651,
      "ง": 1652,
      "จ": 1653,
      "ฉ": 1654,
      "ช": 1655,
      "ซ": 1656,
      "ฌ": 1657,
      "ญ": 1658,
      "ฎ": 1659,
      "ฏ": 1660,
      "ฐ": 1661,
      "ฑ": 1662,
      "ฒ": 1663,
      "ณ": 1664,
      "ด": 1665,
      "ต": 1666,
      "ถ": 1667,
      "ท": 1668,
      "ธ": 1669,
      "น": 1670,
      "บ": 1671,
      "ป": 1672,
      "ผ": 1673,
      "ฝ": 1674,
      "พ": 1675,
      "ฟ": 1676,
      "ภ": 1677,
      "ม": 1678,
      "ย": 1679,
      "ร": 1680,
      "ฤ": 1681,
      "ล": 1682,
      "ว": 1683,
      "ศ": 1684,
      "ษ": 1685,
      "ส": 1686,
      "ห": 1687,
      "ฬ": 1688,
      "อ": 1689,
      "ฮ": 1690,
      "ฯ": 1691,
      "ะ": 1692,
      "ั": 1693,
      "า": 1694,
      "ำ": 1695,
      "ิ": 1696,
      "ี": 1697,
      "ึ": 1698,
      "ื": 1699,
      "ุ": 1700,
      "ู": 1701,
      "ฺ": 1702,
      "฿": 1703,
      "เ": 1704,
      "แ": 1705,
      "โ": 1706,
      "ใ": 1707,
      "ไ": 1708,
      "ๅ": 1709,
      "ๆ": 1710,
      "็": 1711,
      "่": 1712,
      "้": 1713,
      "๊": 1714,
      "๋": 1715,
      "์": 1716,
      "ํ": 1717,
      "๏": 1718,
      "๐": 1719,
      "๑": 1720,
      "๔": 1721,
      "๕": 1722,
      "๖": 1723,
      "๗": 1724,
      "๘": 1725,
      "๙": 1726,
      "๜": 1727,
      "๝": 1728,
      "ກ": 1729,
      "ຂ": 1730,
      "ຄ": 1731,
      "ງ": 1732,
      "ຈ": 1733,
      "ຊ": 1734,
      "ຍ": 1735,
      "ດ": 1736,
      "ຕ": 1737,
      "ຖ": 1738,
      "ທ": 1739,
      "ນ": 1740,
      "ບ": 1741,
      "ປ": 1742,
      "ຜ": 1743,
      "ພ": 1744,
      "ມ": 1745,
      "ຢ": 1746,
      "ຣ": 1747,
      "ລ": 1748,
      "ວ": 1749,
      "ສ": 1750,
      "ຫ": 1751,
      "ອ": 1752,
      "ຮ": 1753,
      "ະ": 1754,
      "ັ": 1755,
      "າ": 1756,
      "ຳ": 1757,
      "ິ": 1758,
      "ີ": 1759,
      "ຶ": 1760,
      "ື": 1761,
      "ຸ": 1762,
      "ູ": 1763,
      "ົ": 1764,
      "ຼ": 1765,
      "ຽ": 1766,
      "ເ": 1767,
      "ແ": 1768,
      "ໂ": 1769,
      "ໃ": 1770,
      "ໄ": 1771,
      "ໆ": 1772,
      "່": 1773,
      "້": 1774,
      "ໍ": 1775,
      "་": 1776,
      "།": 1777,
      "༧": 1778,
      "༼": 1779,
      "༽": 1780,
      "ཀ": 1781,
      "ང": 1782,
      "ཉ": 1783,
      "ད": 1784,
      "ན": 1785,
      "པ": 1786,
      "བ": 1787,
      "མ": 1788,
      "ཙ": 1789,
      "ཡ": 1790,
      "ར": 1791,
      "ཤ": 1792,
      "ས": 1793,
      "ཧ": 1794,
      "ཨ": 1795,
      "ཱ": 1796,
      "ི": 1797,
      "ུ": 1798,
      "ེ": 1799,
      "ོ": 1800,
      "ྃ": 1801,
      "ྒ": 1802,
      "ྱ": 1803,
      "࿹": 1804,
      "က": 1805,
      "ခ": 1806,
      "င": 1807,
      "စ": 1808,
      "ဆ": 1809,
      "ည": 1810,
      "တ": 1811,
      "ထ": 1812,
      "န": 1813,
      "ပ": 1814,
      "မ": 1815,
      "ရ": 1816,
      "လ": 1817,
      "သ": 1818,
      "အ": 1819,
      "ာ": 1820,
      "ိ": 1821,
      "ီ": 1822,
      "ု": 1823,
      "ူ": 1824,
      "ေ": 1825,
      "ဲ": 1826,
      "ံ": 1827,
      "့": 1828,
      "း": 1829,
      "္": 1830,
      "်": 1831,
      "ျ": 1832,
      "ြ": 1833,
      "ွ": 1834,
      "။": 1835,
      "၏": 1836,
      "႔": 1837,
      "႕": 1838,
      "Ⴎ": 1839,
      "ა": 1840,
      "ბ": 1841,
      "გ": 1842,
      "დ": 1843,
      "ე": 1844,
      "ვ": 1845,
      "ზ": 1846,
      "თ": 1847,
      "ი": 1848,
      "კ": 1849,
      "ლ": 1850,
      "მ": 1851,
      "ნ": 1852,
      "ო": 1853,
      "პ": 1854,
      "ჟ": 1855,
      "რ": 1856,
      "ს": 1857,
      "ტ": 1858,
      "უ": 1859,
      "ფ": 1860,
      "ქ": 1861,
      "ღ": 1862,
      "ყ": 1863,
      "შ": 1864,
      "ჩ": 1865,
      "ც": 1866,
      "ძ": 1867,
      "წ": 1868,
      "ხ": 1869,
      "ჯ": 1870,
      "ჲ": 1871,
      "ჴ": 1872,
      "ჵ": 1873,
      "ჶ": 1874,
      "ჷ": 1875,
      "ჸ": 1876,
      "ჹ": 1877,
      "ჺ": 1878,
      "჻": 1879,
      "ჼ": 1880,
      "ჽ": 1881,
      "ჾ": 1882,
      "ჿ": 1883,
      "ᄀ": 1884,
      "ᄂ": 1885,
      "ᄃ": 1886,
      "ᄅ": 1887,
      "ᄇ": 1888,
      "ᄋ": 1889,
      "ᄒ": 1890,
      "ᅡ": 1891,
      "ᅣ": 1892,
      "ᅥ": 1893,
      "ᅧ": 1894,
      "ᅩ": 1895,
      "ᅲ": 1896,
      "ᅳ": 1897,
      "ᅴ": 1898,
      "ᆞ": 1899,
      "ᆫ": 1900,
      "ᆯ": 1901,
      "ᆷ": 1902,
      "ᇀ": 1903,
      "ሁ": 1904,
      "ሃ": 1905,
      "ህ": 1906,
      "ሆ": 1907,
      "ለ": 1908,
      "ሉ": 1909,
      "ላ": 1910,
      "ል": 1911,
      "ሓ": 1912,
      "መ": 1913,
      "ሙ": 1914,
      "ሚ": 1915,
      "ማ": 1916,
      "ሜ": 1917,
      "ም": 1918,
      "ሣ": 1919,
      "ረ": 1920,
      "ሩ": 1921,
      "ሪ": 1922,
      "ራ": 1923,
      "ር": 1924,
      "ሮ": 1925,
      "ሰ": 1926,
      "ሱ": 1927,
      "ሳ": 1928,
      "ስ": 1929,
      "ሽ": 1930,
      "ሾ": 1931,
      "ቀ": 1932,
      "ቅ": 1933,
      "በ": 1934,
      "ባ": 1935,
      "ቤ": 1936,
      "ብ": 1937,
      "ቦ": 1938,
      "ተ": 1939,
      "ቱ": 1940,
      "ቲ": 1941,
      "ታ": 1942,
      "ት": 1943,
      "ቶ": 1944,
      "ቸ": 1945,
      "ቻ": 1946,
      "ች": 1947,
      "ነ": 1948,
      "ኑ": 1949,
      "ና": 1950,
      "ን": 1951,
      "ኛ": 1952,
      "አ": 1953,
      "ኢ": 1954,
      "እ": 1955,
      "ከ": 1956,
      "ኪ": 1957,
      "ካ": 1958,
      "ክ": 1959,
      "ኮ": 1960,
      "ወ": 1961,
      "ዉ": 1962,
      "ዊ": 1963,
      "ው": 1964,
      "ዎ": 1965,
      "ዘ": 1966,
      "ዚ": 1967,
      "የ": 1968,
      "ዩ": 1969,
      "ያ": 1970,
      "ይ": 1971,
      "ዮ": 1972,
      "ደ": 1973,
      "ዲ": 1974,
      "ዳ": 1975,
      "ዴ": 1976,
      "ድ": 1977,
      "ጀ": 1978,
      "ገ": 1979,
      "ግ": 1980,
      "ጠ": 1981,
      "ጣ": 1982,
      "ጥ": 1983,
      "ጨ": 1984,
      "ጭ": 1985,
      "ጵ": 1986,
      "ፈ": 1987,
      "ፊ": 1988,
      "ፌ": 1989,
      "ፍ": 1990,
      "ፎ": 1991,
      "ፕ": 1992,
      "፡": 1993,
      "።": 1994,
      "፣": 1995,
      "፤": 1996,
      "፪": 1997,
      "፲": 1998,
      "Ꭰ": 1999,
      "Ꭱ": 2000,
      "Ꭴ": 2001,
      "Ꭹ": 2002,
      "Ꭺ": 2003,
      "Ꭼ": 2004,
      "Ꮇ": 2005,
      "Ꮋ": 2006,
      "Ꮍ": 2007,
      "Ꮎ": 2008,
      "Ꮕ": 2009,
      "Ꮖ": 2010,
      "Ꮝ": 2011,
      "Ꮣ": 2012,
      "Ꮤ": 2013,
      "Ꮦ": 2014,
      "Ꮧ": 2015,
      "Ꮨ": 2016,
      "Ꮩ": 2017,
      "Ꮮ": 2018,
      "Ꮯ": 2019,
      "Ꮲ": 2020,
      "Ꮳ": 2021,
      "Ꮵ": 2022,
      "Ꮶ": 2023,
      "Ᏹ": 2024,
      "Ᏺ": 2025,
      "Ᏼ": 2026,
      "ᐃ": 2027,
      "ᐅ": 2028,
      "ᐈ": 2029,
      "ᐉ": 2030,
      "ᐊ": 2031,
      "ᐐ": 2032,
      "ᐑ": 2033,
      "ᐓ": 2034,
      "ᐔ": 2035,
      "ᐕ": 2036,
      "ᐖ": 2037,
      "ᐗ": 2038,
      "ᐘ": 2039,
      "ᐙ": 2040,
      "ᐚ": 2041,
      "ᐥ": 2042,
      "ᐧ": 2043,
      "ᐻ": 2044,
      "ᓚ": 2045,
      "ᔤ": 2046,
      "ᕋ": 2047,
      "ᕼ": 2048,
      "ᖆ": 2049,
      "ᗢ": 2050,
      "ᗩ": 2051,
      "ᘏ": 2052,
      "ᚢ": 2053,
      "ᚱ": 2054,
      "ᚴ": 2055,
      "ក": 2056,
      "ខ": 2057,
      "គ": 2058,
      "ឃ": 2059,
      "ង": 2060,
      "ច": 2061,
      "ជ": 2062,
      "ឈ": 2063,
      "ញ": 2064,
      "ដ": 2065,
      "ឌ": 2066,
      "ណ": 2067,
      "ត": 2068,
      "ថ": 2069,
      "ទ": 2070,
      "ន": 2071,
      "ប": 2072,
      "ផ": 2073,
      "ព": 2074,
      "ភ": 2075,
      "ម": 2076,
      "យ": 2077,
      "រ": 2078,
      "ល": 2079,
      "វ": 2080,
      "ស": 2081,
      "ហ": 2082,
      "អ": 2083,
      "ា": 2084,
      "ិ": 2085,
      "ី": 2086,
      "ឺ": 2087,
      "ុ": 2088,
      "ូ": 2089,
      "ួ": 2090,
      "ើ": 2091,
      "ៀ": 2092,
      "េ": 2093,
      "ែ": 2094,
      "ៃ": 2095,
      "ោ": 2096,
      "ំ": 2097,
      "ះ": 2098,
      "ៈ": 2099,
      "៉": 2100,
      "់": 2101,
      "៍": 2102,
      "៏": 2103,
      "្": 2104,
      "។": 2105,
      "ᦟ": 2106,
      "Ა": 2107,
      "ᴀ": 2108,
      "ᴄ": 2109,
      "ᴅ": 2110,
      "ᴇ": 2111,
      "ᴏ": 2112,
      "ᴗ": 2113,
      "ᴘ": 2114,
      "ᴛ": 2115,
      "ᴜ": 2116,
      "ᴠ": 2117,
      "ᴡ": 2118,
      "ᴥ": 2119,
      "ᵀ": 2120,
      "ᵂ": 2121,
      "ᵃ": 2122,
      "ᵅ": 2123,
      "ᵇ": 2124,
      "ᵈ": 2125,
      "ᵉ": 2126,
      "ᵍ": 2127,
      "ᵏ": 2128,
      "ᵐ": 2129,
      "ᵒ": 2130,
      "ᵗ": 2131,
      "ᵘ": 2132,
      "ᵜ": 2133,
      "ᶜ": 2134,
      "ᶠ": 2135,
      "ᶦ": 2136,
      "ḁ": 2137,
      "Ḍ": 2138,
      "ḍ": 2139,
      "ḗ": 2140,
      "Ḥ": 2141,
      "ḥ": 2142,
      "Ḩ": 2143,
      "ḫ": 2144,
      "ḱ": 2145,
      "Ḳ": 2146,
      "ḵ": 2147,
      "ḷ": 2148,
      "ḻ": 2149,
      "ḿ": 2150,
      "ṁ": 2151,
      "ṃ": 2152,
      "ṅ": 2153,
      "ṇ": 2154,
      "ṓ": 2155,
      "ṛ": 2156,
      "ṟ": 2157,
      "Ṡ": 2158,
      "ṡ": 2159,
      "Ṣ": 2160,
      "ṣ": 2161,
      "Ṭ": 2162,
      "ṭ": 2163,
      "ṯ": 2164,
      "ṹ": 2165,
      "ẇ": 2166,
      "ẕ": 2167,
      "ẞ": 2168,
      "ạ": 2169,
      "Ả": 2170,
      "ả": 2171,
      "Ấ": 2172,
      "ấ": 2173,
      "ầ": 2174,
      "Ẩ": 2175,
      "ẩ": 2176,
      "ẫ": 2177,
      "Ậ": 2178,
      "ậ": 2179,
      "ắ": 2180,
      "ằ": 2181,
      "ẳ": 2182,
      "ẵ": 2183,
      "ặ": 2184,
      "Ẹ": 2185,
      "ẹ": 2186,
      "ẻ": 2187,
      "ẽ": 2188,
      "ế": 2189,
      "Ề": 2190,
      "ề": 2191,
      "Ể": 2192,
      "ể": 2193,
      "Ễ": 2194,
      "ễ": 2195,
      "Ệ": 2196,
      "ệ": 2197,
      "ỉ": 2198,
      "ị": 2199,
      "Ọ": 2200,
      "ọ": 2201,
      "Ỏ": 2202,
      "ỏ": 2203,
      "Ố": 2204,
      "ố": 2205,
      "Ồ": 2206,
      "ồ": 2207,
      "Ổ": 2208,
      "ổ": 2209,
      "ỗ": 2210,
      "ộ": 2211,
      "ớ": 2212,
      "ờ": 2213,
      "Ở": 2214,
      "ở": 2215,
      "ỡ": 2216,
      "ợ": 2217,
      "Ụ": 2218,
      "ụ": 2219,
      "Ủ": 2220,
      "ủ": 2221,
      "Ứ": 2222,
      "ứ": 2223,
      "Ừ": 2224,
      "ừ": 2225,
      "ử": 2226,
      "ữ": 2227,
      "Ự": 2228,
      "ự": 2229,
      "ỳ": 2230,
      "ỷ": 2231,
      "Ỹ": 2232,
      "ỹ": 2233,
      "ἀ": 2234,
      "ἁ": 2235,
      "ἄ": 2236,
      "Ἀ": 2237,
      "Ἄ": 2238,
      "ἐ": 2239,
      "ἑ": 2240,
      "ἔ": 2241,
      "ἕ": 2242,
      "ἡ": 2243,
      "ἢ": 2244,
      "ἧ": 2245,
      "Ἡ": 2246,
      "ἰ": 2247,
      "ἱ": 2248,
      "ἴ": 2249,
      "ἶ": 2250,
      "Ἰ": 2251,
      "Ἱ": 2252,
      "ὀ": 2253,
      "ὁ": 2254,
      "ὄ": 2255,
      "ὅ": 2256,
      "Ὀ": 2257,
      "Ὄ": 2258,
      "ὐ": 2259,
      "ὑ": 2260,
      "ὕ": 2261,
      "ὖ": 2262,
      "ὠ": 2263,
      "ὡ": 2264,
      "ὣ": 2265,
      "ὥ": 2266,
      "ὦ": 2267,
      "Ὡ": 2268,
      "ὰ": 2269,
      "ὲ": 2270,
      "ὴ": 2271,
      "ὶ": 2272,
      "ὸ": 2273,
      "ὺ": 2274,
      "ὼ": 2275,
      "ᾖ": 2276,
      "ᾳ": 2277,
      "ᾶ": 2278,
      "ῃ": 2279,
      "ῆ": 2280,
      "ῇ": 2281,
      "ῖ": 2282,
      "ῥ": 2283,
      "ῦ": 2284,
      "ῳ": 2285,
      "ῶ": 2286,
      "ῷ": 2287,
      " ": 2288,
      " ": 2289,
      " ": 2290,
      " ": 2291,
      "​": 2292,
      "‌": 2293,
      "‍": 2294,
      "‎": 2295,
      "‏": 2296,
      "‐": 2297,
      "‑": 2298,
      "‒": 2299,
      "–": 2300,
      "—": 2301,
      "―": 2302,
      "‖": 2303,
      "‘": 2304,
      "’": 2305,
      "‚": 2306,
      "‛": 2307,
      "“": 2308,
      "”": 2309,
      "„": 2310,
      "†": 2311,
      "‡": 2312,
      "•": 2313,
      "‣": 2314,
      "․": 2315,
      "‥": 2316,
      "…": 2317,
      "‧": 2318,
      " ": 2319,
      "‪": 2320,
      "‫": 2321,
      "‬": 2322,
      "‭": 2323,
      " ": 2324,
      "‰": 2325,
      "′": 2326,
      "″": 2327,
      "‵": 2328,
      "‹": 2329,
      "›": 2330,
      "※": 2331,
      "‼": 2332,
      "‿": 2333,
      "⁂": 2334,
      "⁃": 2335,
      "⁄": 2336,
      "⁇": 2337,
      "⁉": 2338,
      "⁏": 2339,
      "⁜": 2340,
      "⁠": 2341,
      "⁡": 2342,
      "⁣": 2343,
      "⁦": 2344,
      "ⁱ": 2345,
      "⁴": 2346,
      "⁵": 2347,
      "⁶": 2348,
      "⁷": 2349,
      "⁸": 2350,
      "⁺": 2351,
      "⁻": 2352,
      "⁼": 2353,
      "₀": 2354,
      "₁": 2355,
      "₂": 2356,
      "₃": 2357,
      "₄": 2358,
      "₅": 2359,
      "₆": 2360,
      "₇": 2361,
      "₈": 2362,
      "₉": 2363,
      "₊": 2364,
      "₋": 2365,
      "ₐ": 2366,
      "ₓ": 2367,
      "ₙ": 2368,
      "₡": 2369,
      "₦": 2370,
      "₩": 2371,
      "₪": 2372,
      "€": 2373,
      "₮": 2374,
      "₹": 2375,
      "₺": 2376,
      "₽": 2377,
      "⃗": 2378,
      "⃣": 2379,
      "℃": 2380,
      "℉": 2381,
      "ℊ": 2382,
      "ℋ": 2383,
      "ℌ": 2384,
      "ℏ": 2385,
      "ℐ": 2386,
      "ℒ": 2387,
      "ℓ": 2388,
      "ℕ": 2389,
      "№": 2390,
      "ℙ": 2391,
      "ℝ": 2392,
      "℠": 2393,
      "™": 2394,
      "ℤ": 2395,
      "Ω": 2396,
      "ℯ": 2397,
      "ℴ": 2398,
      "ℵ": 2399,
      "ℹ": 2400,
      "⅍": 2401,
      "⅓": 2402,
      "⅔": 2403,
      "⅕": 2404,
      "⅖": 2405,
      "⅗": 2406,
      "⅘": 2407,
      "⅙": 2408,
      "⅚": 2409,
      "⅛": 2410,
      "⅜": 2411,
      "⅝": 2412,
      "⅞": 2413,
      "⅟": 2414,
      "Ⅰ": 2415,
      "Ⅱ": 2416,
      "Ⅳ": 2417,
      "Ⅷ": 2418,
      "Ⅸ": 2419,
      "Ⅹ": 2420,
      "Ↄ": 2421,
      "←": 2422,
      "↑": 2423,
      "→": 2424,
      "↓": 2425,
      "↔": 2426,
      "↗": 2427,
      "↦": 2428,
      "↩": 2429,
      "↯": 2430,
      "↵": 2431,
      "⇆": 2432,
      "⇌": 2433,
      "⇐": 2434,
      "⇑": 2435,
      "⇒": 2436,
      "⇔": 2437,
      "∀": 2438,
      "∂": 2439,
      "∃": 2440,
      "∅": 2441,
      "∆": 2442,
      "∇": 2443,
      "∈": 2444,
      "∉": 2445,
      "∊": 2446,
      "∎": 2447,
      "∏": 2448,
      "∑": 2449,
      "−": 2450,
      "∕": 2451,
      "∖": 2452,
      "∗": 2453,
      "∘": 2454,
      "∙": 2455,
      "√": 2456,
      "∝": 2457,
      "∞": 2458,
      "∠": 2459,
      "∣": 2460,
      "∥": 2461,
      "∧": 2462,
      "∨": 2463,
      "∩": 2464,
      "∪": 2465,
      "∫": 2466,
      "∮": 2467,
      "∴": 2468,
      "∶": 2469,
      "∼": 2470,
      "∽": 2471,
      "≃": 2472,
      "≅": 2473,
      "≈": 2474,
      "≒": 2475,
      "≔": 2476,
      "≠": 2477,
      "≡": 2478,
      "≢": 2479,
      "≤": 2480,
      "≥": 2481,
      "≦": 2482,
      "≧": 2483,
      "≪": 2484,
      "≫": 2485,
      "≺": 2486,
      "⊂": 2487,
      "⊃": 2488,
      "⊆": 2489,
      "⊇": 2490,
      "⊕": 2491,
      "⊖": 2492,
      "⊗": 2493,
      "⊘": 2494,
      "⊢": 2495,
      "⊤": 2496,
      "⊥": 2497,
      "⊨": 2498,
      "⋀": 2499,
      "⋃": 2500,
      "⋅": 2501,
      "⋆": 2502,
      "⋐": 2503,
      "⋑": 2504,
      "⋘": 2505,
      "⋮": 2506,
      "⋯": 2507,
      "⌃": 2508,
      "⌈": 2509,
      "⌉": 2510,
      "⌐": 2511,
      "⌒": 2512,
      "⌓": 2513,
      "⌘": 2514,
      "⌚": 2515,
      "⌛": 2516,
      "⌥": 2517,
      "⌧": 2518,
      "⌨": 2519,
      "⌫": 2520,
      "⍝": 2521,
      "⍨": 2522,
      "⍴": 2523,
      "⍵": 2524,
      "⍺": 2525,
      "⎛": 2526,
      "⎜": 2527,
      "⎝": 2528,
      "⎞": 2529,
      "⎟": 2530,
      "⎠": 2531,
      "⎡": 2532,
      "⎢": 2533,
      "⎣": 2534,
      "⎤": 2535,
      "⎦": 2536,
      "⏏": 2537,
      "⏤": 2538,
      "⏩": 2539,
      "⏫": 2540,
      "⏰": 2541,
      "⏳": 2542,
      "⏹": 2543,
      "⑀": 2544,
      "⑁": 2545,
      "①": 2546,
      "②": 2547,
      "③": 2548,
      "④": 2549,
      "⑤": 2550,
      "⑥": 2551,
      "⑦": 2552,
      "ⓛ": 2553,
      "─": 2554,
      "━": 2555,
      "│": 2556,
      "┌": 2557,
      "┏": 2558,
      "┐": 2559,
      "└": 2560,
      "┘": 2561,
      "┛": 2562,
      "├": 2563,
      "┤": 2564,
      "┬": 2565,
      "┴": 2566,
      "┻": 2567,
      "┼": 2568,
      "═": 2569,
      "║": 2570,
      "╓": 2571,
      "╔": 2572,
      "╗": 2573,
      "╚": 2574,
      "╝": 2575,
      "╠": 2576,
      "╡": 2577,
      "╣": 2578,
      "╤": 2579,
      "╥": 2580,
      "╦": 2581,
      "╧": 2582,
      "╨": 2583,
      "╩": 2584,
      "╬": 2585,
      "╭": 2586,
      "╮": 2587,
      "╯": 2588,
      "╰": 2589,
      "▁": 2590,
      "▄": 2591,
      "█": 2592,
      "▉": 2593,
      "▌": 2594,
      "▐": 2595,
      "░": 2596,
      "▒": 2597,
      "▓": 2598,
      "■": 2599,
      "□": 2600,
      "▪": 2601,
      "▲": 2602,
      "△": 2603,
      "▶": 2604,
      "▼": 2605,
      "▽": 2606,
      "▾": 2607,
      "◀": 2608,
      "◁": 2609,
      "◆": 2610,
      "◇": 2611,
      "◊": 2612,
      "○": 2613,
      "◎": 2614,
      "●": 2615,
      "◔": 2616,
      "◕": 2617,
      "◠": 2618,
      "◡": 2619,
      "◦": 2620,
      "◯": 2621,
      "◻": 2622,
      "☀": 2623,
      "☁": 2624,
      "☂": 2625,
      "☄": 2626,
      "★": 2627,
      "☆": 2628,
      "☇": 2629,
      "☉": 2630,
      "☎": 2631,
      "☏": 2632,
      "☐": 2633,
      "☑": 2634,
      "☒": 2635,
      "☔": 2636,
      "☕": 2637,
      "☛": 2638,
      "☝": 2639,
      "☞": 2640,
      "☠": 2641,
      "☤": 2642,
      "☰": 2643,
      "☹": 2644,
      "☺": 2645,
      "☻": 2646,
      "♀": 2647,
      "♂": 2648,
      "♉": 2649,
      "♌": 2650,
      "♔": 2651,
      "♕": 2652,
      "♖": 2653,
      "♗": 2654,
      "♘": 2655,
      "♙": 2656,
      "♚": 2657,
      "♛": 2658,
      "♜": 2659,
      "♝": 2660,
      "♞": 2661,
      "♟": 2662,
      "♠": 2663,
      "♡": 2664,
      "♢": 2665,
      "♣": 2666,
      "♤": 2667,
      "♥": 2668,
      "♦": 2669,
      "♧": 2670,
      "♨": 2671,
      "♩": 2672,
      "♪": 2673,
      "♫": 2674,
      "♬": 2675,
      "♭": 2676,
      "♮": 2677,
      "♯": 2678,
      "♰": 2679,
      "♱": 2680,
      "♲": 2681,
      "♳": 2682,
      "♴": 2683,
      "♵": 2684,
      "♶": 2685,
      "♷": 2686,
      "♸": 2687,
      "♹": 2688,
      "♺": 2689,
      "♻": 2690,
      "♼": 2691,
      "♽": 2692,
      "♾": 2693,
      "♿": 2694,
      "⚀": 2695,
      "⚁": 2696,
      "⚂": 2697,
      "⚃": 2698,
      "⚄": 2699,
      "⚅": 2700,
      "⚆": 2701,
      "⚇": 2702,
      "⚈": 2703,
      "⚉": 2704,
      "⚊": 2705,
      "⚋": 2706,
      "⚌": 2707,
      "⚍": 2708,
      "⚎": 2709,
      "⚏": 2710,
      "⚐": 2711,
      "⚑": 2712,
      "⚒": 2713,
      "⚓": 2714,
      "⚔": 2715,
      "⚕": 2716,
      "⚖": 2717,
      "⚙": 2718,
      "⚛": 2719,
      "⚠": 2720,
      "⚡": 2721,
      "⚫": 2722,
      "⚰": 2723,
      "⚽": 2724,
      "⛅": 2725,
      "⛈": 2726,
      "⛰": 2727,
      "⛱": 2728,
      "⛳": 2729,
      "⛴": 2730,
      "⛵": 2731,
      "✂": 2732,
      "✅": 2733,
      "✈": 2734,
      "✊": 2735,
      "✌": 2736,
      "✍": 2737,
      "✏": 2738,
      "✓": 2739,
      "✔": 2740,
      "✕": 2741,
      "✖": 2742,
      "✗": 2743,
      "✘": 2744,
      "✥": 2745,
      "✦": 2746,
      "✧": 2747,
      "✨": 2748,
      "✴": 2749,
      "✿": 2750,
      "❀": 2751,
      "❁": 2752,
      "❄": 2753,
      "❇": 2754,
      "❌": 2755,
      "❎": 2756,
      "❏": 2757,
      "❑": 2758,
      "❒": 2759,
      "❓": 2760,
      "❖": 2761,
      "❗": 2762,
      "❜": 2763,
      "❝": 2764,
      "❞": 2765,
      "❣": 2766,
      "❤": 2767,
      "❥": 2768,
      "❯": 2769,
      "❶": 2770,
      "❷": 2771,
      "➔": 2772,
      "➕": 2773,
      "➖": 2774,
      "➞": 2775,
      "➡": 2776,
      "➢": 2777,
      "➥": 2778,
      "⟌": 2779,
      "⟨": 2780,
      "⟩": 2781,
      "⟪": 2782,
      "⟵": 2783,
      "⟶": 2784,
      "⠀": 2785,
      "⤵": 2786,
      "⥁": 2787,
      "⥽": 2788,
      "⦎": 2789,
      "⦏": 2790,
      "⦝": 2791,
      "⦽": 2792,
      "⦿": 2793,
      "⨝": 2794,
      "⩠": 2795,
      "⩽": 2796,
      "⬅": 2797,
      "⬆": 2798,
      "⬇": 2799,
      "⬜": 2800,
      "⭐": 2801,
      "Ɐ": 2802,
      "Ɒ": 2803,
      "Ⱶ": 2804,
      "ⱶ": 2805,
      "ⱷ": 2806,
      "Ⲳ": 2807,
      "ⴰ": 2808,
      "ⴼ": 2809,
      "ⵉ": 2810,
      "ⵎ": 2811,
      "ⵓ": 2812,
      "ⵔ": 2813,
      "ⵖ": 2814,
      "ⵙ": 2815,
      "ⵜ": 2816,
      "ⵣ": 2817,
      "⸿": 2818,
      "⺩": 2819,
      "⺬": 2820,
      "⺮": 2821,
      "⺯": 2822,
      "⻨": 2823,
      "⾊": 2824,
      "⾼": 2825,
      "⿕": 2826,
      "　": 2827,
      "、": 2828,
      "。": 2829,
      "々": 2830,
      "〇": 2831,
      "〈": 2832,
      "〉": 2833,
      "《": 2834,
      "》": 2835,
      "「": 2836,
      "」": 2837,
      "『": 2838,
      "』": 2839,
      "【": 2840,
      "】": 2841,
      "〒": 2842,
      "〔": 2843,
      "〕": 2844,
      "〖": 2845,
      "〗": 2846,
      "〜": 2847,
      "ぁ": 2848,
      "あ": 2849,
      "ぃ": 2850,
      "い": 2851,
      "ぅ": 2852,
      "う": 2853,
      "ぇ": 2854,
      "え": 2855,
      "ぉ": 2856,
      "お": 2857,
      "か": 2858,
      "が": 2859,
      "き": 2860,
      "ぎ": 2861,
      "く": 2862,
      "ぐ": 2863,
      "け": 2864,
      "げ": 2865,
      "こ": 2866,
      "ご": 2867,
      "さ": 2868,
      "ざ": 2869,
      "し": 2870,
      "じ": 2871,
      "す": 2872,
      "ず": 2873,
      "せ": 2874,
      "ぜ": 2875,
      "そ": 2876,
      "ぞ": 2877,
      "た": 2878,
      "だ": 2879,
      "ち": 2880,
      "っ": 2881,
      "つ": 2882,
      "づ": 2883,
      "て": 2884,
      "で": 2885,
      "と": 2886,
      "ど": 2887,
      "な": 2888,
      "に": 2889,
      "ぬ": 2890,
      "ね": 2891,
      "の": 2892,
      "は": 2893,
      "ば": 2894,
      "ぱ": 2895,
      "ひ": 2896,
      "び": 2897,
      "ぴ": 2898,
      "ふ": 2899,
      "ぶ": 2900,
      "ぷ": 2901,
      "へ": 2902,
      "べ": 2903,
      "ぺ": 2904,
      "ほ": 2905,
      "ぼ": 2906,
      "ぽ": 2907,
      "ま": 2908,
      "み": 2909,
      "む": 2910,
      "め": 2911,
      "も": 2912,
      "ゃ": 2913,
      "や": 2914,
      "ゅ": 2915,
      "ゆ": 2916,
      "ょ": 2917,
      "よ": 2918,
      "ら": 2919,
      "り": 2920,
      "る": 2921,
      "れ": 2922,
      "ろ": 2923,
      "わ": 2924,
      "を": 2925,
      "ん": 2926,
      "゙": 2927,
      "゚": 2928,
      "ァ": 2929,
      "ア": 2930,
      "ィ": 2931,
      "イ": 2932,
      "ゥ": 2933,
      "ウ": 2934,
      "ェ": 2935,
      "エ": 2936,
      "ォ": 2937,
      "オ": 2938,
      "カ": 2939,
      "ガ": 2940,
      "キ": 2941,
      "ギ": 2942,
      "ク": 2943,
      "グ": 2944,
      "ケ": 2945,
      "ゲ": 2946,
      "コ": 2947,
      "ゴ": 2948,
      "サ": 2949,
      "ザ": 2950,
      "シ": 2951,
      "ジ": 2952,
      "ス": 2953,
      "ズ": 2954,
      "セ": 2955,
      "ゼ": 2956,
      "ソ": 2957,
      "ゾ": 2958,
      "タ": 2959,
      "ダ": 2960,
      "チ": 2961,
      "ヂ": 2962,
      "ッ": 2963,
      "ツ": 2964,
      "テ": 2965,
      "デ": 2966,
      "ト": 2967,
      "ド": 2968,
      "ナ": 2969,
      "ニ": 2970,
      "ヌ": 2971,
      "ネ": 2972,
      "ノ": 2973,
      "ハ": 2974,
      "バ": 2975,
      "パ": 2976,
      "ヒ": 2977,
      "ビ": 2978,
      "ピ": 2979,
      "フ": 2980,
      "ブ": 2981,
      "プ": 2982,
      "ヘ": 2983,
      "ベ": 2984,
      "ペ": 2985,
      "ホ": 2986,
      "ボ": 2987,
      "ポ": 2988,
      "マ": 2989,
      "ミ": 2990,
      "ム": 2991,
      "メ": 2992,
      "モ": 2993,
      "ャ": 2994,
      "ヤ": 2995,
      "ュ": 2996,
      "ユ": 2997,
      "ョ": 2998,
      "ヨ": 2999,
      "ラ": 3000,
      "リ": 3001,
      "ル": 3002,
      "レ": 3003,
      "ロ": 3004,
      "ヮ": 3005,
      "ワ": 3006,
      "ン": 3007,
      "ヴ": 3008,
      "ヶ": 3009,
      "・": 3010,
      "ー": 3011,
      "ヽ": 3012,
      "ヾ": 3013,
      "ㄱ": 3014,
      "ㄴ": 3015,
      "ㄹ": 3016,
      "ㅅ": 3017,
      "ㅆ": 3018,
      "ㅇ": 3019,
      "ㅊ": 3020,
      "ㅋ": 3021,
      "ㅎ": 3022,
      "ㅏ": 3023,
      "ㅑ": 3024,
      "ㅓ": 3025,
      "ㅔ": 3026,
      "ㅕ": 3027,
      "ㅗ": 3028,
      "ㅛ": 3029,
      "ㅜ": 3030,
      "ㅝ": 3031,
      "ㅞ": 3032,
      "ㅟ": 3033,
      "ㅠ": 3034,
      "ㅡ": 3035,
      "ㅢ": 3036,
      "ㅣ": 3037,
      "ㅤ": 3038,
      "ㅥ": 3039,
      "ㅦ": 3040,
      "ㅧ": 3041,
      "ㅨ": 3042,
      "ㅰ": 3043,
      "ㆍ": 3044,
      "㈜": 3045,
      "㈱": 3046,
      "㈲": 3047,
      "㎡": 3048,
      "㎢": 3049,
      "一": 3050,
      "丁": 3051,
      "七": 3052,
      "万": 3053,
      "丈": 3054,
      "三": 3055,
      "上": 3056,
      "下": 3057,
      "不": 3058,
      "与": 3059,
      "丑": 3060,
      "专": 3061,
      "且": 3062,
      "世": 3063,
      "丘": 3064,
      "丙": 3065,
      "业": 3066,
      "丛": 3067,
      "东": 3068,
      "丝": 3069,
      "両": 3070,
      "丢": 3071,
      "两": 3072,
      "严": 3073,
      "並": 3074,
      "丧": 3075,
      "个": 3076,
      "丫": 3077,
      "中": 3078,
      "丰": 3079,
      "串": 3080,
      "临": 3081,
      "丶": 3082,
      "丸": 3083,
      "丹": 3084,
      "为": 3085,
      "主": 3086,
      "丼": 3087,
      "丽": 3088,
      "举": 3089,
      "乀": 3090,
      "乁": 3091,
      "乂": 3092,
      "乃": 3093,
      "久": 3094,
      "乇": 3095,
      "么": 3096,
      "义": 3097,
      "乊": 3098,
      "之": 3099,
      "乌": 3100,
      "乎": 3101,
      "乏": 3102,
      "乐": 3103,
      "乒": 3104,
      "乓": 3105,
      "乔": 3106,
      "乖": 3107,
      "乗": 3108,
      "乘": 3109,
      "乙": 3110,
      "九": 3111,
      "乞": 3112,
      "也": 3113,
      "乡": 3114,
      "书": 3115,
      "买": 3116,
      "乱": 3117,
      "乲": 3118,
      "乳": 3119,
      "乶": 3120,
      "乷": 3121,
      "乸": 3122,
      "乹": 3123,
      "乺": 3124,
      "乻": 3125,
      "乼": 3126,
      "乽": 3127,
      "乾": 3128,
      "乿": 3129,
      "亀": 3130,
      "了": 3131,
      "予": 3132,
      "争": 3133,
      "事": 3134,
      "二": 3135,
      "于": 3136,
      "亏": 3137,
      "云": 3138,
      "互": 3139,
      "五": 3140,
      "井": 3141,
      "亚": 3142,
      "些": 3143,
      "亜": 3144,
      "亞": 3145,
      "亡": 3146,
      "亢": 3147,
      "交": 3148,
      "亥": 3149,
      "亦": 3150,
      "产": 3151,
      "亨": 3152,
      "亩": 3153,
      "享": 3154,
      "京": 3155,
      "亭": 3156,
      "亮": 3157,
      "亲": 3158,
      "人": 3159,
      "亿": 3160,
      "什": 3161,
      "仁": 3162,
      "仄": 3163,
      "仅": 3164,
      "仆": 3165,
      "仇": 3166,
      "今": 3167,
      "介": 3168,
      "仍": 3169,
      "从": 3170,
      "仏": 3171,
      "仑": 3172,
      "仓": 3173,
      "仔": 3174,
      "仕": 3175,
      "他": 3176,
      "仗": 3177,
      "付": 3178,
      "仙": 3179,
      "代": 3180,
      "以": 3181,
      "仪": 3182,
      "们": 3183,
      "仮": 3184,
      "仰": 3185,
      "仲": 3186,
      "件": 3187,
      "价": 3188,
      "任": 3189,
      "份": 3190,
      "仿": 3191,
      "企": 3192,
      "伊": 3193,
      "伍": 3194,
      "伎": 3195,
      "伏": 3196,
      "伐": 3197,
      "休": 3198,
      "众": 3199,
      "优": 3200,
      "伙": 3201,
      "会": 3202,
      "伝": 3203,
      "伞": 3204,
      "伟": 3205,
      "传": 3206,
      "伤": 3207,
      "伦": 3208,
      "伯": 3209,
      "估": 3210,
      "伴": 3211,
      "伶": 3212,
      "伸": 3213,
      "伺": 3214,
      "似": 3215,
      "伽": 3216,
      "但": 3217,
      "佇": 3218,
      "佈": 3219,
      "位": 3220,
      "低": 3221,
      "住": 3222,
      "佐": 3223,
      "佑": 3224,
      "体": 3225,
      "何": 3226,
      "余": 3227,
      "佛": 3228,
      "作": 3229,
      "你": 3230,
      "佣": 3231,
      "佤": 3232,
      "佩": 3233,
      "佰": 3234,
      "佳": 3235,
      "併": 3236,
      "使": 3237,
      "侄": 3238,
      "來": 3239,
      "侈": 3240,
      "例": 3241,
      "侍": 3242,
      "侖": 3243,
      "供": 3244,
      "依": 3245,
      "侠": 3246,
      "価": 3247,
      "侣": 3248,
      "侦": 3249,
      "侧": 3250,
      "侬": 3251,
      "侮": 3252,
      "侯": 3253,
      "侵": 3254,
      "侶": 3255,
      "便": 3256,
      "係": 3257,
      "促": 3258,
      "俄": 3259,
      "俊": 3260,
      "俏": 3261,
      "俐": 3262,
      "俗": 3263,
      "俚": 3264,
      "保": 3265,
      "信": 3266,
      "俭": 3267,
      "修": 3268,
      "俯": 3269,
      "俱": 3270,
      "俳": 3271,
      "俺": 3272,
      "倉": 3273,
      "個": 3274,
      "倍": 3275,
      "們": 3276,
      "倒": 3277,
      "倘": 3278,
      "候": 3279,
      "倚": 3280,
      "借": 3281,
      "倣": 3282,
      "値": 3283,
      "倦": 3284,
      "倩": 3285,
      "倫": 3286,
      "债": 3287,
      "值": 3288,
      "倾": 3289,
      "偃": 3290,
      "假": 3291,
      "偈": 3292,
      "偉": 3293,
      "偌": 3294,
      "偏": 3295,
      "做": 3296,
      "停": 3297,
      "健": 3298,
      "側": 3299,
      "偶": 3300,
      "偷": 3301,
      "偿": 3302,
      "傅": 3303,
      "傍": 3304,
      "傑": 3305,
      "傘": 3306,
      "備": 3307,
      "傣": 3308,
      "储": 3309,
      "催": 3310,
      "傲": 3311,
      "傳": 3312,
      "債": 3313,
      "傷": 3314,
      "傻": 3315,
      "傾": 3316,
      "僅": 3317,
      "働": 3318,
      "像": 3319,
      "僕": 3320,
      "僚": 3321,
      "僵": 3322,
      "價": 3323,
      "儀": 3324,
      "億": 3325,
      "儉": 3326,
      "儒": 3327,
      "儘": 3328,
      "償": 3329,
      "優": 3330,
      "儲": 3331,
      "儿": 3332,
      "允": 3333,
      "元": 3334,
      "兄": 3335,
      "充": 3336,
      "兆": 3337,
      "先": 3338,
      "光": 3339,
      "克": 3340,
      "免": 3341,
      "兎": 3342,
      "児": 3343,
      "兑": 3344,
      "兒": 3345,
      "兔": 3346,
      "党": 3347,
      "兜": 3348,
      "兟": 3349,
      "入": 3350,
      "內": 3351,
      "全": 3352,
      "兩": 3353,
      "八": 3354,
      "公": 3355,
      "六": 3356,
      "兮": 3357,
      "兰": 3358,
      "共": 3359,
      "关": 3360,
      "兴": 3361,
      "兵": 3362,
      "其": 3363,
      "具": 3364,
      "典": 3365,
      "兹": 3366,
      "养": 3367,
      "兼": 3368,
      "兽": 3369,
      "冀": 3370,
      "内": 3371,
      "円": 3372,
      "冈": 3373,
      "冊": 3374,
      "册": 3375,
      "再": 3376,
      "冒": 3377,
      "冗": 3378,
      "写": 3379,
      "军": 3380,
      "农": 3381,
      "冠": 3382,
      "冥": 3383,
      "冨": 3384,
      "冬": 3385,
      "冯": 3386,
      "冰": 3387,
      "冲": 3388,
      "决": 3389,
      "冴": 3390,
      "况": 3391,
      "冶": 3392,
      "冷": 3393,
      "冻": 3394,
      "冽": 3395,
      "净": 3396,
      "凄": 3397,
      "准": 3398,
      "凉": 3399,
      "凋": 3400,
      "凌": 3401,
      "凍": 3402,
      "减": 3403,
      "凑": 3404,
      "凛": 3405,
      "凝": 3406,
      "几": 3407,
      "凡": 3408,
      "凤": 3409,
      "処": 3410,
      "凪": 3411,
      "凭": 3412,
      "凯": 3413,
      "凰": 3414,
      "凶": 3415,
      "凸": 3416,
      "凹": 3417,
      "击": 3418,
      "函": 3419,
      "凿": 3420,
      "刀": 3421,
      "刁": 3422,
      "分": 3423,
      "切": 3424,
      "刈": 3425,
      "刊": 3426,
      "刑": 3427,
      "划": 3428,
      "列": 3429,
      "刘": 3430,
      "则": 3431,
      "刚": 3432,
      "创": 3433,
      "初": 3434,
      "删": 3435,
      "判": 3436,
      "別": 3437,
      "利": 3438,
      "刪": 3439,
      "别": 3440,
      "刮": 3441,
      "到": 3442,
      "制": 3443,
      "刷": 3444,
      "券": 3445,
      "刹": 3446,
      "刺": 3447,
      "刻": 3448,
      "剁": 3449,
      "剂": 3450,
      "剃": 3451,
      "則": 3452,
      "削": 3453,
      "剋": 3454,
      "前": 3455,
      "剑": 3456,
      "剔": 3457,
      "剖": 3458,
      "剛": 3459,
      "剝": 3460,
      "剣": 3461,
      "剤": 3462,
      "剥": 3463,
      "剧": 3464,
      "剩": 3465,
      "剪": 3466,
      "副": 3467,
      "剰": 3468,
      "割": 3469,
      "創": 3470,
      "劃": 3471,
      "劇": 3472,
      "劈": 3473,
      "劍": 3474,
      "劑": 3475,
      "力": 3476,
      "劝": 3477,
      "办": 3478,
      "功": 3479,
      "加": 3480,
      "务": 3481,
      "劣": 3482,
      "动": 3483,
      "助": 3484,
      "努": 3485,
      "劫": 3486,
      "励": 3487,
      "劲": 3488,
      "劳": 3489,
      "労": 3490,
      "効": 3491,
      "势": 3492,
      "勁": 3493,
      "勃": 3494,
      "勇": 3495,
      "勉": 3496,
      "勋": 3497,
      "勒": 3498,
      "動": 3499,
      "勘": 3500,
      "務": 3501,
      "勝": 3502,
      "勞": 3503,
      "募": 3504,
      "勢": 3505,
      "勤": 3506,
      "勧": 3507,
      "勳": 3508,
      "勵": 3509,
      "勺": 3510,
      "勻": 3511,
      "勾": 3512,
      "勿": 3513,
      "匀": 3514,
      "匂": 3515,
      "包": 3516,
      "匆": 3517,
      "匈": 3518,
      "匕": 3519,
      "化": 3520,
      "北": 3521,
      "匙": 3522,
      "匝": 3523,
      "匠": 3524,
      "匪": 3525,
      "匯": 3526,
      "匹": 3527,
      "区": 3528,
      "医": 3529,
      "匿": 3530,
      "區": 3531,
      "十": 3532,
      "千": 3533,
      "升": 3534,
      "午": 3535,
      "卉": 3536,
      "半": 3537,
      "华": 3538,
      "协": 3539,
      "卑": 3540,
      "卒": 3541,
      "卓": 3542,
      "協": 3543,
      "单": 3544,
      "卖": 3545,
      "南": 3546,
      "単": 3547,
      "博": 3548,
      "卜": 3549,
      "卡": 3550,
      "卢": 3551,
      "卤": 3552,
      "卦": 3553,
      "卧": 3554,
      "卫": 3555,
      "卯": 3556,
      "印": 3557,
      "危": 3558,
      "即": 3559,
      "却": 3560,
      "卵": 3561,
      "卷": 3562,
      "卸": 3563,
      "卻": 3564,
      "厂": 3565,
      "厄": 3566,
      "厅": 3567,
      "历": 3568,
      "厉": 3569,
      "压": 3570,
      "厌": 3571,
      "厕": 3572,
      "厘": 3573,
      "厚": 3574,
      "原": 3575,
      "厢": 3576,
      "厦": 3577,
      "厨": 3578,
      "厭": 3579,
      "厲": 3580,
      "厳": 3581,
      "去": 3582,
      "县": 3583,
      "参": 3584,
      "參": 3585,
      "又": 3586,
      "叉": 3587,
      "及": 3588,
      "友": 3589,
      "双": 3590,
      "反": 3591,
      "収": 3592,
      "发": 3593,
      "叔": 3594,
      "取": 3595,
      "受": 3596,
      "变": 3597,
      "叙": 3598,
      "叛": 3599,
      "叠": 3600,
      "叢": 3601,
      "口": 3602,
      "古": 3603,
      "句": 3604,
      "另": 3605,
      "叨": 3606,
      "叩": 3607,
      "只": 3608,
      "叫": 3609,
      "召": 3610,
      "叭": 3611,
      "可": 3612,
      "台": 3613,
      "叱": 3614,
      "史": 3615,
      "右": 3616,
      "叶": 3617,
      "号": 3618,
      "司": 3619,
      "叹": 3620,
      "叼": 3621,
      "叽": 3622,
      "吁": 3623,
      "吃": 3624,
      "各": 3625,
      "合": 3626,
      "吉": 3627,
      "吊": 3628,
      "同": 3629,
      "名": 3630,
      "后": 3631,
      "吏": 3632,
      "吐": 3633,
      "向": 3634,
      "吓": 3635,
      "吕": 3636,
      "吖": 3637,
      "吗": 3638,
      "君": 3639,
      "吞": 3640,
      "吟": 3641,
      "吠": 3642,
      "否": 3643,
      "吧": 3644,
      "吨": 3645,
      "吩": 3646,
      "含": 3647,
      "听": 3648,
      "启": 3649,
      "吳": 3650,
      "吴": 3651,
      "吵": 3652,
      "吸": 3653,
      "吹": 3654,
      "吻": 3655,
      "吾": 3656,
      "呀": 3657,
      "呂": 3658,
      "呃": 3659,
      "呆": 3660,
      "呈": 3661,
      "呉": 3662,
      "告": 3663,
      "呐": 3664,
      "呑": 3665,
      "呔": 3666,
      "呕": 3667,
      "呗": 3668,
      "员": 3669,
      "呢": 3670,
      "呣": 3671,
      "呤": 3672,
      "周": 3673,
      "味": 3674,
      "呵": 3675,
      "呼": 3676,
      "命": 3677,
      "咀": 3678,
      "咆": 3679,
      "咋": 3680,
      "和": 3681,
      "咎": 3682,
      "咏": 3683,
      "咐": 3684,
      "咕": 3685,
      "咖": 3686,
      "咗": 3687,
      "咙": 3688,
      "咚": 3689,
      "咨": 3690,
      "咩": 3691,
      "咪": 3692,
      "咫": 3693,
      "咬": 3694,
      "咯": 3695,
      "咱": 3696,
      "咲": 3697,
      "咳": 3698,
      "咸": 3699,
      "咽": 3700,
      "哀": 3701,
      "品": 3702,
      "哄": 3703,
      "哇": 3704,
      "哈": 3705,
      "哉": 3706,
      "哋": 3707,
      "响": 3708,
      "哎": 3709,
      "哑": 3710,
      "哔": 3711,
      "哝": 3712,
      "哟": 3713,
      "員": 3714,
      "哥": 3715,
      "哦": 3716,
      "哩": 3717,
      "哪": 3718,
      "哭": 3719,
      "哮": 3720,
      "哲": 3721,
      "哺": 3722,
      "哼": 3723,
      "唆": 3724,
      "唇": 3725,
      "唉": 3726,
      "唐": 3727,
      "唔": 3728,
      "唤": 3729,
      "售": 3730,
      "唯": 3731,
      "唱": 3732,
      "唾": 3733,
      "啁": 3734,
      "啃": 3735,
      "啄": 3736,
      "商": 3737,
      "啊": 3738,
      "問": 3739,
      "啓": 3740,
      "啖": 3741,
      "啟": 3742,
      "啡": 3743,
      "啤": 3744,
      "啥": 3745,
      "啦": 3746,
      "啫": 3747,
      "啶": 3748,
      "啸": 3749,
      "啼": 3750,
      "啾": 3751,
      "喀": 3752,
      "喂": 3753,
      "喃": 3754,
      "善": 3755,
      "喇": 3756,
      "喉": 3757,
      "喊": 3758,
      "喋": 3759,
      "喔": 3760,
      "喘": 3761,
      "喙": 3762,
      "喚": 3763,
      "喜": 3764,
      "喝": 3765,
      "喧": 3766,
      "喩": 3767,
      "喪": 3768,
      "喫": 3769,
      "喬": 3770,
      "單": 3771,
      "喱": 3772,
      "喲": 3773,
      "喳": 3774,
      "喵": 3775,
      "営": 3776,
      "喷": 3777,
      "喹": 3778,
      "喺": 3779,
      "喻": 3780,
      "喽": 3781,
      "嗅": 3782,
      "嗎": 3783,
      "嗓": 3784,
      "嗜": 3785,
      "嗣": 3786,
      "嗨": 3787,
      "嗯": 3788,
      "嗷": 3789,
      "嗽": 3790,
      "嘅": 3791,
      "嘆": 3792,
      "嘈": 3793,
      "嘉": 3794,
      "嘌": 3795,
      "嘎": 3796,
      "嘔": 3797,
      "嘗": 3798,
      "嘘": 3799,
      "嘛": 3800,
      "嘢": 3801,
      "嘩": 3802,
      "嘱": 3803,
      "嘲": 3804,
      "嘴": 3805,
      "嘶": 3806,
      "嘻": 3807,
      "嘿": 3808,
      "噂": 3809,
      "噌": 3810,
      "噢": 3811,
      "器": 3812,
      "噩": 3813,
      "噪": 3814,
      "噬": 3815,
      "噴": 3816,
      "噺": 3817,
      "嚏": 3818,
      "嚣": 3819,
      "嚨": 3820,
      "嚮": 3821,
      "嚴": 3822,
      "嚼": 3823,
      "囉": 3824,
      "囊": 3825,
      "囍": 3826,
      "囚": 3827,
      "四": 3828,
      "回": 3829,
      "因": 3830,
      "団": 3831,
      "囤": 3832,
      "园": 3833,
      "困": 3834,
      "囱": 3835,
      "囲": 3836,
      "図": 3837,
      "围": 3838,
      "固": 3839,
      "国": 3840,
      "图": 3841,
      "圆": 3842,
      "圈": 3843,
      "國": 3844,
      "圍": 3845,
      "圏": 3846,
      "園": 3847,
      "圓": 3848,
      "圖": 3849,
      "土": 3850,
      "圡": 3851,
      "圣": 3852,
      "圧": 3853,
      "在": 3854,
      "圫": 3855,
      "圭": 3856,
      "地": 3857,
      "场": 3858,
      "址": 3859,
      "坂": 3860,
      "均": 3861,
      "坊": 3862,
      "坎": 3863,
      "坏": 3864,
      "坐": 3865,
      "坑": 3866,
      "块": 3867,
      "坚": 3868,
      "坛": 3869,
      "坝": 3870,
      "坞": 3871,
      "坟": 3872,
      "坠": 3873,
      "坡": 3874,
      "坤": 3875,
      "坦": 3876,
      "坩": 3877,
      "坪": 3878,
      "坯": 3879,
      "垂": 3880,
      "垄": 3881,
      "型": 3882,
      "垒": 3883,
      "垢": 3884,
      "垣": 3885,
      "垦": 3886,
      "垫": 3887,
      "垮": 3888,
      "埃": 3889,
      "埉": 3890,
      "埋": 3891,
      "城": 3892,
      "埔": 3893,
      "埕": 3894,
      "域": 3895,
      "執": 3896,
      "培": 3897,
      "基": 3898,
      "埼": 3899,
      "堀": 3900,
      "堂": 3901,
      "堅": 3902,
      "堆": 3903,
      "堕": 3904,
      "堡": 3905,
      "堤": 3906,
      "堪": 3907,
      "堰": 3908,
      "報": 3909,
      "場": 3910,
      "堵": 3911,
      "堺": 3912,
      "堽": 3913,
      "塊": 3914,
      "塌": 3915,
      "塑": 3916,
      "塒": 3917,
      "塔": 3918,
      "塗": 3919,
      "塘": 3920,
      "塚": 3921,
      "塞": 3922,
      "塩": 3923,
      "填": 3924,
      "塵": 3925,
      "塾": 3926,
      "境": 3927,
      "墅": 3928,
      "墊": 3929,
      "墓": 3930,
      "増": 3931,
      "墙": 3932,
      "墜": 3933,
      "增": 3934,
      "墟": 3935,
      "墨": 3936,
      "墩": 3937,
      "墻": 3938,
      "壁": 3939,
      "壃": 3940,
      "壊": 3941,
      "壌": 3942,
      "壑": 3943,
      "壓": 3944,
      "壖": 3945,
      "壞": 3946,
      "壤": 3947,
      "士": 3948,
      "壬": 3949,
      "壮": 3950,
      "壯": 3951,
      "声": 3952,
      "売": 3953,
      "壳": 3954,
      "壶": 3955,
      "壺": 3956,
      "壽": 3957,
      "处": 3958,
      "备": 3959,
      "夈": 3960,
      "変": 3961,
      "复": 3962,
      "夏": 3963,
      "夕": 3964,
      "外": 3965,
      "多": 3966,
      "夜": 3967,
      "够": 3968,
      "夠": 3969,
      "夢": 3970,
      "夥": 3971,
      "大": 3972,
      "天": 3973,
      "太": 3974,
      "夫": 3975,
      "夭": 3976,
      "央": 3977,
      "失": 3978,
      "头": 3979,
      "夸": 3980,
      "夹": 3981,
      "夺": 3982,
      "夻": 3983,
      "奇": 3984,
      "奈": 3985,
      "奉": 3986,
      "奋": 3987,
      "奏": 3988,
      "契": 3989,
      "奔": 3990,
      "奖": 3991,
      "套": 3992,
      "奠": 3993,
      "奢": 3994,
      "奥": 3995,
      "奨": 3996,
      "奪": 3997,
      "奭": 3998,
      "奮": 3999,
      "女": 4000,
      "奴": 4001,
      "奶": 4002,
      "她": 4003,
      "好": 4004,
      "如": 4005,
      "妄": 4006,
      "妆": 4007,
      "妇": 4008,
      "妈": 4009,
      "妊": 4010,
      "妍": 4011,
      "妒": 4012,
      "妓": 4013,
      "妖": 4014,
      "妙": 4015,
      "妝": 4016,
      "妞": 4017,
      "妥": 4018,
      "妨": 4019,
      "妪": 4020,
      "妮": 4021,
      "妳": 4022,
      "妹": 4023,
      "妻": 4024,
      "妾": 4025,
      "姆": 4026,
      "姉": 4027,
      "姊": 4028,
      "始": 4029,
      "姐": 4030,
      "姑": 4031,
      "姓": 4032,
      "委": 4033,
      "姚": 4034,
      "姜": 4035,
      "姥": 4036,
      "姨": 4037,
      "姫": 4038,
      "姬": 4039,
      "姻": 4040,
      "姿": 4041,
      "威": 4042,
      "娃": 4043,
      "娅": 4044,
      "娆": 4045,
      "娇": 4046,
      "娑": 4047,
      "娓": 4048,
      "娘": 4049,
      "娛": 4050,
      "娜": 4051,
      "娟": 4052,
      "娠": 4053,
      "娥": 4054,
      "娩": 4055,
      "娯": 4056,
      "娱": 4057,
      "娶": 4058,
      "婀": 4059,
      "婆": 4060,
      "婉": 4061,
      "婚": 4062,
      "婢": 4063,
      "婦": 4064,
      "婧": 4065,
      "婴": 4066,
      "婵": 4067,
      "婷": 4068,
      "婿": 4069,
      "媒": 4070,
      "媚": 4071,
      "媳": 4072,
      "媽": 4073,
      "嫁": 4074,
      "嫉": 4075,
      "嫌": 4076,
      "嫣": 4077,
      "嫦": 4078,
      "嫩": 4079,
      "嬉": 4080,
      "嬛": 4081,
      "嬢": 4082,
      "嬵": 4083,
      "子": 4084,
      "孔": 4085,
      "孕": 4086,
      "字": 4087,
      "存": 4088,
      "孙": 4089,
      "孚": 4090,
      "孝": 4091,
      "孟": 4092,
      "孢": 4093,
      "季": 4094,
      "孤": 4095,
      "学": 4096,
      "孩": 4097,
      "孪": 4098,
      "孫": 4099,
      "孵": 4100,
      "學": 4101,
      "孺": 4102,
      "宀": 4103,
      "宁": 4104,
      "它": 4105,
      "宅": 4106,
      "宇": 4107,
      "守": 4108,
      "安": 4109,
      "宋": 4110,
      "完": 4111,
      "宏": 4112,
      "宗": 4113,
      "官": 4114,
      "宙": 4115,
      "定": 4116,
      "宛": 4117,
      "宜": 4118,
      "宝": 4119,
      "实": 4120,
      "実": 4121,
      "宠": 4122,
      "审": 4123,
      "客": 4124,
      "宣": 4125,
      "室": 4126,
      "宫": 4127,
      "宮": 4128,
      "宰": 4129,
      "害": 4130,
      "宴": 4131,
      "宵": 4132,
      "家": 4133,
      "宸": 4134,
      "容": 4135,
      "宽": 4136,
      "宾": 4137,
      "宿": 4138,
      "寂": 4139,
      "寄": 4140,
      "寅": 4141,
      "密": 4142,
      "寉": 4143,
      "富": 4144,
      "寐": 4145,
      "寒": 4146,
      "寓": 4147,
      "寛": 4148,
      "寝": 4149,
      "寞": 4150,
      "察": 4151,
      "寡": 4152,
      "寢": 4153,
      "寥": 4154,
      "實": 4155,
      "寧": 4156,
      "寨": 4157,
      "審": 4158,
      "寫": 4159,
      "寬": 4160,
      "寵": 4161,
      "寸": 4162,
      "对": 4163,
      "寺": 4164,
      "寻": 4165,
      "导": 4166,
      "対": 4167,
      "寿": 4168,
      "封": 4169,
      "専": 4170,
      "射": 4171,
      "尅": 4172,
      "将": 4173,
      "將": 4174,
      "專": 4175,
      "尊": 4176,
      "尋": 4177,
      "對": 4178,
      "導": 4179,
      "小": 4180,
      "少": 4181,
      "尔": 4182,
      "尖": 4183,
      "尘": 4184,
      "尙": 4185,
      "尚": 4186,
      "尝": 4187,
      "尤": 4188,
      "尬": 4189,
      "就": 4190,
      "尴": 4191,
      "尷": 4192,
      "尸": 4193,
      "尹": 4194,
      "尺": 4195,
      "尻": 4196,
      "尼": 4197,
      "尽": 4198,
      "尾": 4199,
      "尿": 4200,
      "局": 4201,
      "屁": 4202,
      "层": 4203,
      "居": 4204,
      "屆": 4205,
      "屈": 4206,
      "屉": 4207,
      "届": 4208,
      "屋": 4209,
      "屌": 4210,
      "屏": 4211,
      "屑": 4212,
      "展": 4213,
      "属": 4214,
      "層": 4215,
      "履": 4216,
      "屬": 4217,
      "山": 4218,
      "屿": 4219,
      "岁": 4220,
      "岂": 4221,
      "岐": 4222,
      "岔": 4223,
      "岗": 4224,
      "岙": 4225,
      "岚": 4226,
      "岛": 4227,
      "岡": 4228,
      "岩": 4229,
      "岬": 4230,
      "岭": 4231,
      "岱": 4232,
      "岳": 4233,
      "岸": 4234,
      "峙": 4235,
      "峡": 4236,
      "峦": 4237,
      "峭": 4238,
      "峰": 4239,
      "島": 4240,
      "峻": 4241,
      "崇": 4242,
      "崎": 4243,
      "崔": 4244,
      "崖": 4245,
      "崩": 4246,
      "崽": 4247,
      "嵌": 4248,
      "嵐": 4249,
      "嵘": 4250,
      "嶺": 4251,
      "嶽": 4252,
      "巍": 4253,
      "巖": 4254,
      "川": 4255,
      "州": 4256,
      "巡": 4257,
      "巢": 4258,
      "巣": 4259,
      "工": 4260,
      "左": 4261,
      "巧": 4262,
      "巨": 4263,
      "巩": 4264,
      "巫": 4265,
      "差": 4266,
      "己": 4267,
      "已": 4268,
      "巳": 4269,
      "巴": 4270,
      "巷": 4271,
      "巻": 4272,
      "巽": 4273,
      "巾": 4274,
      "币": 4275,
      "市": 4276,
      "布": 4277,
      "帅": 4278,
      "帆": 4279,
      "师": 4280,
      "希": 4281,
      "帐": 4282,
      "帕": 4283,
      "帖": 4284,
      "帘": 4285,
      "帙": 4286,
      "帚": 4287,
      "帜": 4288,
      "帥": 4289,
      "带": 4290,
      "帧": 4291,
      "師": 4292,
      "席": 4293,
      "帮": 4294,
      "帯": 4295,
      "帰": 4296,
      "帳": 4297,
      "帶": 4298,
      "帷": 4299,
      "常": 4300,
      "帽": 4301,
      "幂": 4302,
      "幃": 4303,
      "幅": 4304,
      "幌": 4305,
      "幕": 4306,
      "幡": 4307,
      "幢": 4308,
      "幣": 4309,
      "幫": 4310,
      "干": 4311,
      "平": 4312,
      "年": 4313,
      "并": 4314,
      "幸": 4315,
      "幹": 4316,
      "幻": 4317,
      "幼": 4318,
      "幽": 4319,
      "幾": 4320,
      "广": 4321,
      "庁": 4322,
      "広": 4323,
      "庄": 4324,
      "庆": 4325,
      "庇": 4326,
      "床": 4327,
      "序": 4328,
      "库": 4329,
      "应": 4330,
      "底": 4331,
      "店": 4332,
      "庙": 4333,
      "庚": 4334,
      "府": 4335,
      "庞": 4336,
      "废": 4337,
      "度": 4338,
      "座": 4339,
      "庫": 4340,
      "庭": 4341,
      "庵": 4342,
      "康": 4343,
      "庸": 4344,
      "廁": 4345,
      "廃": 4346,
      "廈": 4347,
      "廉": 4348,
      "廊": 4349,
      "廓": 4350,
      "廖": 4351,
      "廟": 4352,
      "廠": 4353,
      "廢": 4354,
      "廣": 4355,
      "廳": 4356,
      "延": 4357,
      "廷": 4358,
      "建": 4359,
      "开": 4360,
      "弁": 4361,
      "异": 4362,
      "弃": 4363,
      "弄": 4364,
      "弊": 4365,
      "式": 4366,
      "弓": 4367,
      "弔": 4368,
      "引": 4369,
      "弗": 4370,
      "弘": 4371,
      "弛": 4372,
      "弟": 4373,
      "张": 4374,
      "弥": 4375,
      "弦": 4376,
      "弧": 4377,
      "弯": 4378,
      "弱": 4379,
      "張": 4380,
      "強": 4381,
      "弹": 4382,
      "强": 4383,
      "弾": 4384,
      "彈": 4385,
      "彌": 4386,
      "彎": 4387,
      "归": 4388,
      "当": 4389,
      "录": 4390,
      "彖": 4391,
      "彗": 4392,
      "彙": 4393,
      "彜": 4394,
      "形": 4395,
      "彤": 4396,
      "彦": 4397,
      "彩": 4398,
      "彫": 4399,
      "彭": 4400,
      "彰": 4401,
      "影": 4402,
      "彷": 4403,
      "役": 4404,
      "彻": 4405,
      "彼": 4406,
      "彿": 4407,
      "往": 4408,
      "征": 4409,
      "径": 4410,
      "待": 4411,
      "很": 4412,
      "徉": 4413,
      "徊": 4414,
      "律": 4415,
      "後": 4416,
      "徐": 4417,
      "徑": 4418,
      "徒": 4419,
      "従": 4420,
      "得": 4421,
      "徘": 4422,
      "徙": 4423,
      "徜": 4424,
      "從": 4425,
      "御": 4426,
      "復": 4427,
      "循": 4428,
      "微": 4429,
      "徳": 4430,
      "徴": 4431,
      "徵": 4432,
      "德": 4433,
      "徹": 4434,
      "徽": 4435,
      "心": 4436,
      "必": 4437,
      "忆": 4438,
      "忌": 4439,
      "忍": 4440,
      "志": 4441,
      "忘": 4442,
      "忙": 4443,
      "応": 4444,
      "忠": 4445,
      "忧": 4446,
      "快": 4447,
      "念": 4448,
      "忽": 4449,
      "怀": 4450,
      "态": 4451,
      "怅": 4452,
      "怎": 4453,
      "怒": 4454,
      "怕": 4455,
      "怖": 4456,
      "怜": 4457,
      "思": 4458,
      "怠": 4459,
      "怡": 4460,
      "急": 4461,
      "性": 4462,
      "怨": 4463,
      "怪": 4464,
      "总": 4465,
      "恆": 4466,
      "恇": 4467,
      "恋": 4468,
      "恍": 4469,
      "恐": 4470,
      "恒": 4471,
      "恕": 4472,
      "恙": 4473,
      "恢": 4474,
      "恤": 4475,
      "恥": 4476,
      "恨": 4477,
      "恩": 4478,
      "恫": 4479,
      "恬": 4480,
      "恭": 4481,
      "息": 4482,
      "恰": 4483,
      "恵": 4484,
      "恶": 4485,
      "恺": 4486,
      "恼": 4487,
      "悉": 4488,
      "悔": 4489,
      "悖": 4490,
      "悚": 4491,
      "悟": 4492,
      "悠": 4493,
      "患": 4494,
      "悦": 4495,
      "您": 4496,
      "悩": 4497,
      "悪": 4498,
      "悫": 4499,
      "悬": 4500,
      "悲": 4501,
      "悴": 4502,
      "悸": 4503,
      "悼": 4504,
      "情": 4505,
      "惆": 4506,
      "惊": 4507,
      "惑": 4508,
      "惕": 4509,
      "惚": 4510,
      "惜": 4511,
      "惟": 4512,
      "惠": 4513,
      "惡": 4514,
      "惧": 4515,
      "惨": 4516,
      "惩": 4517,
      "惫": 4518,
      "惬": 4519,
      "惯": 4520,
      "惰": 4521,
      "惱": 4522,
      "想": 4523,
      "惹": 4524,
      "愁": 4525,
      "愆": 4526,
      "愈": 4527,
      "愉": 4528,
      "意": 4529,
      "愔": 4530,
      "愕": 4531,
      "愚": 4532,
      "愛": 4533,
      "感": 4534,
      "愤": 4535,
      "愿": 4536,
      "慈": 4537,
      "態": 4538,
      "慌": 4539,
      "慎": 4540,
      "慕": 4541,
      "慢": 4542,
      "慣": 4543,
      "慧": 4544,
      "慨": 4545,
      "慮": 4546,
      "慰": 4547,
      "慶": 4548,
      "慾": 4549,
      "憂": 4550,
      "憊": 4551,
      "憋": 4552,
      "憎": 4553,
      "憑": 4554,
      "憔": 4555,
      "憤": 4556,
      "憧": 4557,
      "憩": 4558,
      "憬": 4559,
      "憲": 4560,
      "憶": 4561,
      "憾": 4562,
      "懁": 4563,
      "懂": 4564,
      "懇": 4565,
      "應": 4566,
      "懐": 4567,
      "懒": 4568,
      "懷": 4569,
      "懸": 4570,
      "懼": 4571,
      "戈": 4572,
      "戊": 4573,
      "戌": 4574,
      "戍": 4575,
      "戎": 4576,
      "戏": 4577,
      "成": 4578,
      "我": 4579,
      "戒": 4580,
      "或": 4581,
      "战": 4582,
      "戚": 4583,
      "戦": 4584,
      "截": 4585,
      "戯": 4586,
      "戰": 4587,
      "戲": 4588,
      "戳": 4589,
      "戴": 4590,
      "戶": 4591,
      "户": 4592,
      "戸": 4593,
      "戻": 4594,
      "房": 4595,
      "所": 4596,
      "扁": 4597,
      "扇": 4598,
      "扉": 4599,
      "手": 4600,
      "才": 4601,
      "扎": 4602,
      "扑": 4603,
      "扒": 4604,
      "打": 4605,
      "払": 4606,
      "托": 4607,
      "扣": 4608,
      "执": 4609,
      "扩": 4610,
      "扫": 4611,
      "扬": 4612,
      "扭": 4613,
      "扮": 4614,
      "扯": 4615,
      "扰": 4616,
      "扱": 4617,
      "扳": 4618,
      "批": 4619,
      "扼": 4620,
      "找": 4621,
      "承": 4622,
      "技": 4623,
      "抄": 4624,
      "抉": 4625,
      "抑": 4626,
      "抒": 4627,
      "抓": 4628,
      "投": 4629,
      "抖": 4630,
      "抗": 4631,
      "折": 4632,
      "抚": 4633,
      "抛": 4634,
      "抜": 4635,
      "択": 4636,
      "抢": 4637,
      "护": 4638,
      "报": 4639,
      "披": 4640,
      "抬": 4641,
      "抱": 4642,
      "抵": 4643,
      "抹": 4644,
      "押": 4645,
      "抽": 4646,
      "抿": 4647,
      "拂": 4648,
      "担": 4649,
      "拇": 4650,
      "拉": 4651,
      "拌": 4652,
      "拍": 4653,
      "拐": 4654,
      "拒": 4655,
      "拓": 4656,
      "拔": 4657,
      "拖": 4658,
      "拙": 4659,
      "招": 4660,
      "拜": 4661,
      "拝": 4662,
      "拟": 4663,
      "拠": 4664,
      "拡": 4665,
      "拢": 4666,
      "拥": 4667,
      "拦": 4668,
      "拨": 4669,
      "择": 4670,
      "括": 4671,
      "拭": 4672,
      "拮": 4673,
      "拯": 4674,
      "拱": 4675,
      "拳": 4676,
      "拶": 4677,
      "拼": 4678,
      "拽": 4679,
      "拾": 4680,
      "拿": 4681,
      "持": 4682,
      "挂": 4683,
      "指": 4684,
      "按": 4685,
      "挑": 4686,
      "挖": 4687,
      "挙": 4688,
      "挚": 4689,
      "挛": 4690,
      "挝": 4691,
      "挟": 4692,
      "挠": 4693,
      "挡": 4694,
      "挣": 4695,
      "挤": 4696,
      "挥": 4697,
      "挨": 4698,
      "挪": 4699,
      "挫": 4700,
      "挭": 4701,
      "振": 4702,
      "挺": 4703,
      "挽": 4704,
      "挿": 4705,
      "捆": 4706,
      "捉": 4707,
      "捍": 4708,
      "捏": 4709,
      "捐": 4710,
      "捕": 4711,
      "捗": 4712,
      "捜": 4713,
      "捞": 4714,
      "损": 4715,
      "捡": 4716,
      "换": 4717,
      "捧": 4718,
      "捨": 4719,
      "据": 4720,
      "捷": 4721,
      "掀": 4722,
      "掂": 4723,
      "掃": 4724,
      "授": 4725,
      "掉": 4726,
      "掌": 4727,
      "排": 4728,
      "掘": 4729,
      "掛": 4730,
      "採": 4731,
      "探": 4732,
      "接": 4733,
      "控": 4734,
      "推": 4735,
      "掩": 4736,
      "措": 4737,
      "掲": 4738,
      "掷": 4739,
      "掺": 4740,
      "掻": 4741,
      "掾": 4742,
      "揃": 4743,
      "揉": 4744,
      "描": 4745,
      "提": 4746,
      "插": 4747,
      "揚": 4748,
      "換": 4749,
      "揟": 4750,
      "握": 4751,
      "揭": 4752,
      "揮": 4753,
      "援": 4754,
      "揺": 4755,
      "揽": 4756,
      "搅": 4757,
      "損": 4758,
      "搏": 4759,
      "搓": 4760,
      "搔": 4761,
      "搖": 4762,
      "搜": 4763,
      "搞": 4764,
      "搬": 4765,
      "搭": 4766,
      "携": 4767,
      "搾": 4768,
      "摂": 4769,
      "摄": 4770,
      "摆": 4771,
      "摇": 4772,
      "摊": 4773,
      "摒": 4774,
      "摔": 4775,
      "摘": 4776,
      "摧": 4777,
      "摩": 4778,
      "摯": 4779,
      "摸": 4780,
      "摹": 4781,
      "撃": 4782,
      "撐": 4783,
      "撑": 4784,
      "撒": 4785,
      "撓": 4786,
      "撞": 4787,
      "撤": 4788,
      "撥": 4789,
      "撫": 4790,
      "播": 4791,
      "撮": 4792,
      "撰": 4793,
      "撲": 4794,
      "撻": 4795,
      "撼": 4796,
      "擁": 4797,
      "擅": 4798,
      "擇": 4799,
      "擊": 4800,
      "擎": 4801,
      "擔": 4802,
      "據": 4803,
      "擦": 4804,
      "擬": 4805,
      "擲": 4806,
      "擴": 4807,
      "擷": 4808,
      "攀": 4809,
      "攘": 4810,
      "攜": 4811,
      "攝": 4812,
      "攣": 4813,
      "攪": 4814,
      "支": 4815,
      "收": 4816,
      "改": 4817,
      "攻": 4818,
      "放": 4819,
      "政": 4820,
      "敁": 4821,
      "故": 4822,
      "效": 4823,
      "敌": 4824,
      "敏": 4825,
      "救": 4826,
      "敗": 4827,
      "教": 4828,
      "敛": 4829,
      "敞": 4830,
      "敢": 4831,
      "散": 4832,
      "敦": 4833,
      "敬": 4834,
      "数": 4835,
      "敲": 4836,
      "整": 4837,
      "敵": 4838,
      "敷": 4839,
      "數": 4840,
      "斂": 4841,
      "文": 4842,
      "斉": 4843,
      "斋": 4844,
      "斌": 4845,
      "斐": 4846,
      "斑": 4847,
      "斓": 4848,
      "斗": 4849,
      "料": 4850,
      "斜": 4851,
      "斟": 4852,
      "斤": 4853,
      "斥": 4854,
      "斧": 4855,
      "斬": 4856,
      "断": 4857,
      "斯": 4858,
      "新": 4859,
      "斷": 4860,
      "方": 4861,
      "於": 4862,
      "施": 4863,
      "旁": 4864,
      "旅": 4865,
      "旋": 4866,
      "族": 4867,
      "旗": 4868,
      "无": 4869,
      "既": 4870,
      "日": 4871,
      "旦": 4872,
      "旧": 4873,
      "旨": 4874,
      "早": 4875,
      "旬": 4876,
      "旭": 4877,
      "旱": 4878,
      "时": 4879,
      "旷": 4880,
      "旺": 4881,
      "昂": 4882,
      "昆": 4883,
      "昇": 4884,
      "昈": 4885,
      "昊": 4886,
      "昌": 4887,
      "明": 4888,
      "昏": 4889,
      "易": 4890,
      "昔": 4891,
      "昝": 4892,
      "星": 4893,
      "映": 4894,
      "春": 4895,
      "昧": 4896,
      "昨": 4897,
      "昭": 4898,
      "是": 4899,
      "昵": 4900,
      "昼": 4901,
      "显": 4902,
      "時": 4903,
      "晃": 4904,
      "晉": 4905,
      "晋": 4906,
      "晒": 4907,
      "晓": 4908,
      "晕": 4909,
      "晖": 4910,
      "晚": 4911,
      "晨": 4912,
      "晩": 4913,
      "普": 4914,
      "景": 4915,
      "晰": 4916,
      "晴": 4917,
      "晶": 4918,
      "智": 4919,
      "暁": 4920,
      "暂": 4921,
      "暇": 4922,
      "暈": 4923,
      "暑": 4924,
      "暖": 4925,
      "暗": 4926,
      "暢": 4927,
      "暦": 4928,
      "暫": 4929,
      "暮": 4930,
      "暴": 4931,
      "暹": 4932,
      "曇": 4933,
      "曖": 4934,
      "曜": 4935,
      "曝": 4936,
      "曦": 4937,
      "曰": 4938,
      "曱": 4939,
      "曲": 4940,
      "曳": 4941,
      "更": 4942,
      "書": 4943,
      "曹": 4944,
      "曼": 4945,
      "曾": 4946,
      "替": 4947,
      "最": 4948,
      "會": 4949,
      "月": 4950,
      "有": 4951,
      "朋": 4952,
      "服": 4953,
      "朔": 4954,
      "朗": 4955,
      "望": 4956,
      "朝": 4957,
      "期": 4958,
      "木": 4959,
      "未": 4960,
      "末": 4961,
      "本": 4962,
      "札": 4963,
      "术": 4964,
      "朱": 4965,
      "朴": 4966,
      "朵": 4967,
      "机": 4968,
      "朽": 4969,
      "杀": 4970,
      "杂": 4971,
      "权": 4972,
      "杆": 4973,
      "杉": 4974,
      "李": 4975,
      "杏": 4976,
      "材": 4977,
      "村": 4978,
      "杖": 4979,
      "杜": 4980,
      "杞": 4981,
      "束": 4982,
      "杠": 4983,
      "条": 4984,
      "来": 4985,
      "杨": 4986,
      "杭": 4987,
      "杯": 4988,
      "杰": 4989,
      "東": 4990,
      "杵": 4991,
      "松": 4992,
      "板": 4993,
      "极": 4994,
      "构": 4995,
      "析": 4996,
      "枕": 4997,
      "林": 4998,
      "枚": 4999,
      "果": 5000,
      "枝": 5001,
      "枠": 5002,
      "枢": 5003,
      "枣": 5004,
      "枪": 5005,
      "枫": 5006,
      "枯": 5007,
      "架": 5008,
      "枸": 5009,
      "柄": 5010,
      "柏": 5011,
      "某": 5012,
      "柑": 5013,
      "染": 5014,
      "柔": 5015,
      "柚": 5016,
      "柜": 5017,
      "柠": 5018,
      "查": 5019,
      "柬": 5020,
      "柯": 5021,
      "柱": 5022,
      "柳": 5023,
      "柴": 5024,
      "柵": 5025,
      "査": 5026,
      "柿": 5027,
      "栄": 5028,
      "栅": 5029,
      "标": 5030,
      "栈": 5031,
      "栋": 5032,
      "树": 5033,
      "栓": 5034,
      "栖": 5035,
      "栗": 5036,
      "栞": 5037,
      "校": 5038,
      "栩": 5039,
      "株": 5040,
      "样": 5041,
      "核": 5042,
      "根": 5043,
      "格": 5044,
      "栽": 5045,
      "桁": 5046,
      "桂": 5047,
      "桃": 5048,
      "框": 5049,
      "案": 5050,
      "桌": 5051,
      "桐": 5052,
      "桑": 5053,
      "桔": 5054,
      "桜": 5055,
      "档": 5056,
      "桥": 5057,
      "桧": 5058,
      "桨": 5059,
      "桩": 5060,
      "桵": 5061,
      "桶": 5062,
      "梁": 5063,
      "梅": 5064,
      "梓": 5065,
      "梗": 5066,
      "條": 5067,
      "梢": 5068,
      "梦": 5069,
      "梧": 5070,
      "梨": 5071,
      "梭": 5072,
      "梯": 5073,
      "械": 5074,
      "梱": 5075,
      "梳": 5076,
      "梵": 5077,
      "检": 5078,
      "棄": 5079,
      "棉": 5080,
      "棋": 5081,
      "棍": 5082,
      "棒": 5083,
      "棕": 5084,
      "棚": 5085,
      "棧": 5086,
      "森": 5087,
      "棲": 5088,
      "棵": 5089,
      "棺": 5090,
      "椅": 5091,
      "椋": 5092,
      "植": 5093,
      "椎": 5094,
      "椒": 5095,
      "検": 5096,
      "椭": 5097,
      "椰": 5098,
      "楂": 5099,
      "楊": 5100,
      "楔": 5101,
      "楕": 5102,
      "楚": 5103,
      "楠": 5104,
      "業": 5105,
      "極": 5106,
      "楼": 5107,
      "楽": 5108,
      "概": 5109,
      "榄": 5110,
      "榔": 5111,
      "榕": 5112,
      "榛": 5113,
      "榜": 5114,
      "榨": 5115,
      "榮": 5116,
      "榴": 5117,
      "槃": 5118,
      "槇": 5119,
      "構": 5120,
      "槐": 5121,
      "槑": 5122,
      "様": 5123,
      "槟": 5124,
      "槤": 5125,
      "槽": 5126,
      "樂": 5127,
      "樊": 5128,
      "樓": 5129,
      "標": 5130,
      "樟": 5131,
      "模": 5132,
      "樣": 5133,
      "権": 5134,
      "横": 5135,
      "樯": 5136,
      "樱": 5137,
      "樹": 5138,
      "樺": 5139,
      "樽": 5140,
      "橄": 5141,
      "橇": 5142,
      "橋": 5143,
      "橘": 5144,
      "橙": 5145,
      "機": 5146,
      "橡": 5147,
      "橱": 5148,
      "橹": 5149,
      "檎": 5150,
      "檐": 5151,
      "檔": 5152,
      "檢": 5153,
      "檬": 5154,
      "檯": 5155,
      "檸": 5156,
      "櫃": 5157,
      "櫛": 5158,
      "櫥": 5159,
      "櫻": 5160,
      "權": 5161,
      "欠": 5162,
      "次": 5163,
      "欢": 5164,
      "欣": 5165,
      "欧": 5166,
      "欲": 5167,
      "欺": 5168,
      "欽": 5169,
      "款": 5170,
      "歇": 5171,
      "歉": 5172,
      "歌": 5173,
      "歎": 5174,
      "歐": 5175,
      "歓": 5176,
      "歡": 5177,
      "止": 5178,
      "正": 5179,
      "此": 5180,
      "步": 5181,
      "武": 5182,
      "歧": 5183,
      "歩": 5184,
      "歪": 5185,
      "歯": 5186,
      "歲": 5187,
      "歳": 5188,
      "歴": 5189,
      "歷": 5190,
      "歸": 5191,
      "歹": 5192,
      "殆": 5193,
      "殊": 5194,
      "残": 5195,
      "殖": 5196,
      "殴": 5197,
      "段": 5198,
      "殺": 5199,
      "殻": 5200,
      "殿": 5201,
      "毀": 5202,
      "毁": 5203,
      "毂": 5204,
      "毅": 5205,
      "母": 5206,
      "毎": 5207,
      "每": 5208,
      "毒": 5209,
      "比": 5210,
      "毕": 5211,
      "毛": 5212,
      "毫": 5213,
      "毯": 5214,
      "氏": 5215,
      "民": 5216,
      "氓": 5217,
      "气": 5218,
      "氖": 5219,
      "気": 5220,
      "氛": 5221,
      "氟": 5222,
      "氢": 5223,
      "氣": 5224,
      "氦": 5225,
      "氧": 5226,
      "氨": 5227,
      "氩": 5228,
      "氪": 5229,
      "氮": 5230,
      "氯": 5231,
      "氰": 5232,
      "氲": 5233,
      "水": 5234,
      "氷": 5235,
      "永": 5236,
      "氹": 5237,
      "汀": 5238,
      "汁": 5239,
      "求": 5240,
      "汇": 5241,
      "汉": 5242,
      "汎": 5243,
      "汐": 5244,
      "汕": 5245,
      "汗": 5246,
      "汚": 5247,
      "汝": 5248,
      "汞": 5249,
      "江": 5250,
      "池": 5251,
      "污": 5252,
      "汤": 5253,
      "汪": 5254,
      "汭": 5255,
      "汰": 5256,
      "汶": 5257,
      "汹": 5258,
      "決": 5259,
      "汽": 5260,
      "沁": 5261,
      "沂": 5262,
      "沃": 5263,
      "沈": 5264,
      "沉": 5265,
      "沐": 5266,
      "沒": 5267,
      "沖": 5268,
      "沙": 5269,
      "沚": 5270,
      "沛": 5271,
      "沟": 5272,
      "没": 5273,
      "沢": 5274,
      "沥": 5275,
      "沧": 5276,
      "沪": 5277,
      "沫": 5278,
      "沮": 5279,
      "河": 5280,
      "沸": 5281,
      "油": 5282,
      "治": 5283,
      "沼": 5284,
      "沾": 5285,
      "沿": 5286,
      "況": 5287,
      "泄": 5288,
      "泉": 5289,
      "泊": 5290,
      "泌": 5291,
      "泗": 5292,
      "泛": 5293,
      "泞": 5294,
      "泠": 5295,
      "泡": 5296,
      "波": 5297,
      "泣": 5298,
      "泥": 5299,
      "注": 5300,
      "泪": 5301,
      "泰": 5302,
      "泳": 5303,
      "泵": 5304,
      "泻": 5305,
      "泼": 5306,
      "泽": 5307,
      "泾": 5308,
      "洁": 5309,
      "洋": 5310,
      "洒": 5311,
      "洗": 5312,
      "洛": 5313,
      "洞": 5314,
      "津": 5315,
      "洩": 5316,
      "洪": 5317,
      "洲": 5318,
      "洵": 5319,
      "洶": 5320,
      "活": 5321,
      "洼": 5322,
      "洽": 5323,
      "派": 5324,
      "流": 5325,
      "浄": 5326,
      "浅": 5327,
      "浇": 5328,
      "浊": 5329,
      "测": 5330,
      "济": 5331,
      "浏": 5332,
      "浑": 5333,
      "浒": 5334,
      "浓": 5335,
      "浜": 5336,
      "浦": 5337,
      "浩": 5338,
      "浮": 5339,
      "浯": 5340,
      "浴": 5341,
      "海": 5342,
      "浸": 5343,
      "涂": 5344,
      "涅": 5345,
      "消": 5346,
      "涉": 5347,
      "涌": 5348,
      "涕": 5349,
      "涙": 5350,
      "涛": 5351,
      "涡": 5352,
      "涣": 5353,
      "涤": 5354,
      "润": 5355,
      "涧": 5356,
      "涨": 5357,
      "涩": 5358,
      "涯": 5359,
      "液": 5360,
      "涵": 5361,
      "涶": 5362,
      "涼": 5363,
      "淀": 5364,
      "淄": 5365,
      "淅": 5366,
      "淆": 5367,
      "淇": 5368,
      "淋": 5369,
      "淌": 5370,
      "淑": 5371,
      "淘": 5372,
      "淚": 5373,
      "淡": 5374,
      "淨": 5375,
      "淫": 5376,
      "淮": 5377,
      "深": 5378,
      "混": 5379,
      "淹": 5380,
      "淺": 5381,
      "添": 5382,
      "淼": 5383,
      "清": 5384,
      "渇": 5385,
      "済": 5386,
      "渉": 5387,
      "渊": 5388,
      "渋": 5389,
      "渍": 5390,
      "渐": 5391,
      "渔": 5392,
      "渗": 5393,
      "渚": 5394,
      "減": 5395,
      "渝": 5396,
      "渠": 5397,
      "渡": 5398,
      "渤": 5399,
      "測": 5400,
      "渭": 5401,
      "港": 5402,
      "渲": 5403,
      "渴": 5404,
      "游": 5405,
      "湃": 5406,
      "湊": 5407,
      "湖": 5408,
      "湘": 5409,
      "湛": 5410,
      "湧": 5411,
      "湯": 5412,
      "湾": 5413,
      "湿": 5414,
      "満": 5415,
      "溃": 5416,
      "溅": 5417,
      "溈": 5418,
      "溉": 5419,
      "溏": 5420,
      "源": 5421,
      "準": 5422,
      "溜": 5423,
      "溝": 5424,
      "溢": 5425,
      "溪": 5426,
      "溯": 5427,
      "溶": 5428,
      "溺": 5429,
      "滁": 5430,
      "滅": 5431,
      "滋": 5432,
      "滑": 5433,
      "滔": 5434,
      "滕": 5435,
      "滚": 5436,
      "滞": 5437,
      "滟": 5438,
      "满": 5439,
      "滤": 5440,
      "滨": 5441,
      "滩": 5442,
      "滴": 5443,
      "滸": 5444,
      "滾": 5445,
      "滿": 5446,
      "漁": 5447,
      "漂": 5448,
      "漆": 5449,
      "漏": 5450,
      "漓": 5451,
      "演": 5452,
      "漕": 5453,
      "漠": 5454,
      "漢": 5455,
      "漩": 5456,
      "漫": 5457,
      "漬": 5458,
      "漱": 5459,
      "漳": 5460,
      "漸": 5461,
      "漾": 5462,
      "潁": 5463,
      "潇": 5464,
      "潍": 5465,
      "潑": 5466,
      "潔": 5467,
      "潘": 5468,
      "潜": 5469,
      "潟": 5470,
      "潢": 5471,
      "潤": 5472,
      "潦": 5473,
      "潭": 5474,
      "潮": 5475,
      "潰": 5476,
      "潺": 5477,
      "澄": 5478,
      "澈": 5479,
      "澎": 5480,
      "澜": 5481,
      "澡": 5482,
      "澤": 5483,
      "澳": 5484,
      "澹": 5485,
      "激": 5486,
      "濃": 5487,
      "濕": 5488,
      "濡": 5489,
      "濤": 5490,
      "濯": 5491,
      "濱": 5492,
      "濾": 5493,
      "瀏": 5494,
      "瀑": 5495,
      "瀟": 5496,
      "瀬": 5497,
      "瀰": 5498,
      "灌": 5499,
      "火": 5500,
      "灭": 5501,
      "灯": 5502,
      "灰": 5503,
      "灵": 5504,
      "灶": 5505,
      "灸": 5506,
      "灼": 5507,
      "灿": 5508,
      "炉": 5509,
      "炊": 5510,
      "炎": 5511,
      "炒": 5512,
      "炔": 5513,
      "炙": 5514,
      "炫": 5515,
      "炭": 5516,
      "炮": 5517,
      "炯": 5518,
      "点": 5519,
      "為": 5520,
      "炼": 5521,
      "烁": 5522,
      "烂": 5523,
      "烈": 5524,
      "烊": 5525,
      "烏": 5526,
      "烘": 5527,
      "烛": 5528,
      "烟": 5529,
      "烤": 5530,
      "烦": 5531,
      "烧": 5532,
      "烫": 5533,
      "烬": 5534,
      "热": 5535,
      "烯": 5536,
      "烷": 5537,
      "烹": 5538,
      "烽": 5539,
      "焉": 5540,
      "焊": 5541,
      "焕": 5542,
      "焗": 5543,
      "焙": 5544,
      "無": 5545,
      "焦": 5546,
      "焰": 5547,
      "然": 5548,
      "焼": 5549,
      "煉": 5550,
      "煌": 5551,
      "煎": 5552,
      "煙": 5553,
      "煜": 5554,
      "煞": 5555,
      "煤": 5556,
      "照": 5557,
      "煮": 5558,
      "煲": 5559,
      "煸": 5560,
      "熊": 5561,
      "熔": 5562,
      "熙": 5563,
      "熟": 5564,
      "熠": 5565,
      "熬": 5566,
      "熱": 5567,
      "熵": 5568,
      "熹": 5569,
      "燃": 5570,
      "燈": 5571,
      "燒": 5572,
      "燕": 5573,
      "營": 5574,
      "燥": 5575,
      "燦": 5576,
      "燭": 5577,
      "燮": 5578,
      "爆": 5579,
      "爐": 5580,
      "爛": 5581,
      "爪": 5582,
      "爬": 5583,
      "爭": 5584,
      "爱": 5585,
      "爲": 5586,
      "爵": 5587,
      "父": 5588,
      "爷": 5589,
      "爸": 5590,
      "爺": 5591,
      "爽": 5592,
      "爾": 5593,
      "牆": 5594,
      "片": 5595,
      "版": 5596,
      "牌": 5597,
      "牍": 5598,
      "牙": 5599,
      "牛": 5600,
      "牟": 5601,
      "牠": 5602,
      "牡": 5603,
      "牢": 5604,
      "牧": 5605,
      "物": 5606,
      "牲": 5607,
      "牵": 5608,
      "特": 5609,
      "牺": 5610,
      "犀": 5611,
      "犊": 5612,
      "犬": 5613,
      "犯": 5614,
      "状": 5615,
      "犹": 5616,
      "狀": 5617,
      "狂": 5618,
      "狄": 5619,
      "狐": 5620,
      "狗": 5621,
      "狙": 5622,
      "狡": 5623,
      "狩": 5624,
      "独": 5625,
      "狭": 5626,
      "狮": 5627,
      "狱": 5628,
      "狸": 5629,
      "狼": 5630,
      "猎": 5631,
      "猕": 5632,
      "猛": 5633,
      "猜": 5634,
      "猟": 5635,
      "猥": 5636,
      "猪": 5637,
      "猫": 5638,
      "献": 5639,
      "猲": 5640,
      "猴": 5641,
      "猶": 5642,
      "猾": 5643,
      "猿": 5644,
      "獄": 5645,
      "獅": 5646,
      "獎": 5647,
      "獣": 5648,
      "獨": 5649,
      "獲": 5650,
      "獴": 5651,
      "獸": 5652,
      "玄": 5653,
      "率": 5654,
      "玉": 5655,
      "王": 5656,
      "玛": 5657,
      "玩": 5658,
      "玫": 5659,
      "环": 5660,
      "现": 5661,
      "玲": 5662,
      "玺": 5663,
      "玻": 5664,
      "珀": 5665,
      "珂": 5666,
      "珊": 5667,
      "珍": 5668,
      "珑": 5669,
      "珠": 5670,
      "班": 5671,
      "現": 5672,
      "球": 5673,
      "琅": 5674,
      "理": 5675,
      "琉": 5676,
      "琥": 5677,
      "琦": 5678,
      "琪": 5679,
      "琳": 5680,
      "琴": 5681,
      "瑕": 5682,
      "瑚": 5683,
      "瑜": 5684,
      "瑞": 5685,
      "瑟": 5686,
      "瑪": 5687,
      "瑰": 5688,
      "瑶": 5689,
      "瑾": 5690,
      "璀": 5691,
      "璃": 5692,
      "璅": 5693,
      "璧": 5694,
      "璨": 5695,
      "環": 5696,
      "瓜": 5697,
      "瓣": 5698,
      "瓦": 5699,
      "瓶": 5700,
      "瓷": 5701,
      "甄": 5702,
      "甘": 5703,
      "甚": 5704,
      "甜": 5705,
      "生": 5706,
      "產": 5707,
      "産": 5708,
      "用": 5709,
      "甫": 5710,
      "田": 5711,
      "由": 5712,
      "甲": 5713,
      "申": 5714,
      "甴": 5715,
      "电": 5716,
      "男": 5717,
      "甸": 5718,
      "町": 5719,
      "画": 5720,
      "甾": 5721,
      "畅": 5722,
      "界": 5723,
      "畏": 5724,
      "畑": 5725,
      "畔": 5726,
      "留": 5727,
      "畜": 5728,
      "略": 5729,
      "番": 5730,
      "畫": 5731,
      "異": 5732,
      "畳": 5733,
      "當": 5734,
      "疆": 5735,
      "疎": 5736,
      "疏": 5737,
      "疑": 5738,
      "疗": 5739,
      "疟": 5740,
      "疡": 5741,
      "疫": 5742,
      "疮": 5743,
      "疯": 5744,
      "疱": 5745,
      "疲": 5746,
      "疵": 5747,
      "疹": 5748,
      "疼": 5749,
      "疾": 5750,
      "痂": 5751,
      "病": 5752,
      "症": 5753,
      "痈": 5754,
      "痉": 5755,
      "痕": 5756,
      "痘": 5757,
      "痙": 5758,
      "痛": 5759,
      "痢": 5760,
      "痤": 5761,
      "痩": 5762,
      "痪": 5763,
      "痫": 5764,
      "痰": 5765,
      "痴": 5766,
      "瘀": 5767,
      "瘍": 5768,
      "瘙": 5769,
      "瘡": 5770,
      "瘢": 5771,
      "瘤": 5772,
      "瘦": 5773,
      "瘫": 5774,
      "瘾": 5775,
      "療": 5776,
      "癌": 5777,
      "癒": 5778,
      "癖": 5779,
      "癣": 5780,
      "癫": 5781,
      "癸": 5782,
      "発": 5783,
      "登": 5784,
      "發": 5785,
      "白": 5786,
      "百": 5787,
      "皂": 5788,
      "的": 5789,
      "皆": 5790,
      "皇": 5791,
      "皋": 5792,
      "皎": 5793,
      "皑": 5794,
      "皓": 5795,
      "皮": 5796,
      "皱": 5797,
      "皿": 5798,
      "盅": 5799,
      "盆": 5800,
      "盈": 5801,
      "益": 5802,
      "盎": 5803,
      "盐": 5804,
      "监": 5805,
      "盒": 5806,
      "盔": 5807,
      "盖": 5808,
      "盗": 5809,
      "盘": 5810,
      "盛": 5811,
      "盟": 5812,
      "盡": 5813,
      "監": 5814,
      "盤": 5815,
      "盧": 5816,
      "目": 5817,
      "盲": 5818,
      "直": 5819,
      "相": 5820,
      "盼": 5821,
      "盾": 5822,
      "省": 5823,
      "眂": 5824,
      "眉": 5825,
      "看": 5826,
      "県": 5827,
      "眞": 5828,
      "真": 5829,
      "眠": 5830,
      "眨": 5831,
      "眩": 5832,
      "眸": 5833,
      "眺": 5834,
      "眼": 5835,
      "眾": 5836,
      "着": 5837,
      "睁": 5838,
      "睛": 5839,
      "睞": 5840,
      "睡": 5841,
      "督": 5842,
      "睹": 5843,
      "睾": 5844,
      "睿": 5845,
      "瞄": 5846,
      "瞅": 5847,
      "瞑": 5848,
      "瞒": 5849,
      "瞧": 5850,
      "瞬": 5851,
      "瞭": 5852,
      "瞰": 5853,
      "瞳": 5854,
      "瞻": 5855,
      "瞿": 5856,
      "矚": 5857,
      "矛": 5858,
      "矢": 5859,
      "矣": 5860,
      "知": 5861,
      "矩": 5862,
      "短": 5863,
      "矮": 5864,
      "石": 5865,
      "矶": 5866,
      "矿": 5867,
      "码": 5868,
      "砂": 5869,
      "砍": 5870,
      "研": 5871,
      "砕": 5872,
      "砖": 5873,
      "破": 5874,
      "砸": 5875,
      "砼": 5876,
      "础": 5877,
      "硅": 5878,
      "硒": 5879,
      "硕": 5880,
      "硝": 5881,
      "硫": 5882,
      "硬": 5883,
      "确": 5884,
      "硼": 5885,
      "碋": 5886,
      "碌": 5887,
      "碍": 5888,
      "碎": 5889,
      "碑": 5890,
      "碗": 5891,
      "碘": 5892,
      "碟": 5893,
      "碧": 5894,
      "碰": 5895,
      "碱": 5896,
      "碳": 5897,
      "確": 5898,
      "碼": 5899,
      "碾": 5900,
      "磁": 5901,
      "磅": 5902,
      "磊": 5903,
      "磚": 5904,
      "磨": 5905,
      "磯": 5906,
      "磷": 5907,
      "礁": 5908,
      "礎": 5909,
      "礙": 5910,
      "礦": 5911,
      "示": 5912,
      "礼": 5913,
      "社": 5914,
      "祈": 5915,
      "祐": 5916,
      "祖": 5917,
      "祝": 5918,
      "神": 5919,
      "祠": 5920,
      "祥": 5921,
      "票": 5922,
      "祭": 5923,
      "祷": 5924,
      "祹": 5925,
      "祺": 5926,
      "禁": 5927,
      "禄": 5928,
      "禅": 5929,
      "禍": 5930,
      "禦": 5931,
      "禮": 5932,
      "禹": 5933,
      "离": 5934,
      "禽": 5935,
      "禾": 5936,
      "秀": 5937,
      "私": 5938,
      "秉": 5939,
      "秋": 5940,
      "种": 5941,
      "科": 5942,
      "秒": 5943,
      "秘": 5944,
      "租": 5945,
      "秤": 5946,
      "秦": 5947,
      "秧": 5948,
      "秩": 5949,
      "积": 5950,
      "称": 5951,
      "移": 5952,
      "秽": 5953,
      "稀": 5954,
      "稅": 5955,
      "程": 5956,
      "稍": 5957,
      "税": 5958,
      "稚": 5959,
      "稟": 5960,
      "稠": 5961,
      "稣": 5962,
      "種": 5963,
      "稱": 5964,
      "稲": 5965,
      "稳": 5966,
      "稻": 5967,
      "稼": 5968,
      "稿": 5969,
      "穀": 5970,
      "穂": 5971,
      "穆": 5972,
      "積": 5973,
      "穎": 5974,
      "穏": 5975,
      "穗": 5976,
      "穩": 5977,
      "穫": 5978,
      "穴": 5979,
      "究": 5980,
      "穷": 5981,
      "穹": 5982,
      "空": 5983,
      "穿": 5984,
      "突": 5985,
      "窃": 5986,
      "窄": 5987,
      "窍": 5988,
      "窑": 5989,
      "窒": 5990,
      "窓": 5991,
      "窗": 5992,
      "窝": 5993,
      "窟": 5994,
      "窥": 5995,
      "窦": 5996,
      "窮": 5997,
      "竇": 5998,
      "立": 5999,
      "竖": 6000,
      "站": 6001,
      "竜": 6002,
      "竞": 6003,
      "竟": 6004,
      "章": 6005,
      "竣": 6006,
      "童": 6007,
      "竭": 6008,
      "端": 6009,
      "競": 6010,
      "竹": 6011,
      "笑": 6012,
      "笔": 6013,
      "笛": 6014,
      "笥": 6015,
      "符": 6016,
      "笨": 6017,
      "第": 6018,
      "笺": 6019,
      "笼": 6020,
      "筆": 6021,
      "等": 6022,
      "筋": 6023,
      "筐": 6024,
      "筑": 6025,
      "筒": 6026,
      "答": 6027,
      "策": 6028,
      "筛": 6029,
      "筝": 6030,
      "筹": 6031,
      "签": 6032,
      "简": 6033,
      "箇": 6034,
      "箋": 6035,
      "箍": 6036,
      "算": 6037,
      "管": 6038,
      "箪": 6039,
      "箫": 6040,
      "箭": 6041,
      "箱": 6042,
      "節": 6043,
      "範": 6044,
      "篇": 6045,
      "築": 6046,
      "篓": 6047,
      "篙": 6048,
      "篠": 6049,
      "篡": 6050,
      "篩": 6051,
      "篮": 6052,
      "篱": 6053,
      "篷": 6054,
      "簇": 6055,
      "簡": 6056,
      "簧": 6057,
      "簽": 6058,
      "簾": 6059,
      "簿": 6060,
      "籃": 6061,
      "籌": 6062,
      "籍": 6063,
      "籤": 6064,
      "籲": 6065,
      "米": 6066,
      "类": 6067,
      "籽": 6068,
      "粉": 6069,
      "粋": 6070,
      "粑": 6071,
      "粒": 6072,
      "粕": 6073,
      "粗": 6074,
      "粘": 6075,
      "粤": 6076,
      "粥": 6077,
      "粧": 6078,
      "粪": 6079,
      "粮": 6080,
      "粱": 6081,
      "粹": 6082,
      "粽": 6083,
      "精": 6084,
      "糊": 6085,
      "糍": 6086,
      "糕": 6087,
      "糖": 6088,
      "糗": 6089,
      "糙": 6090,
      "糜": 6091,
      "糞": 6092,
      "糟": 6093,
      "糧": 6094,
      "糯": 6095,
      "糸": 6096,
      "系": 6097,
      "紀": 6098,
      "約": 6099,
      "紅": 6100,
      "紊": 6101,
      "紋": 6102,
      "納": 6103,
      "紐": 6104,
      "純": 6105,
      "紙": 6106,
      "級": 6107,
      "紛": 6108,
      "素": 6109,
      "紡": 6110,
      "索": 6111,
      "紧": 6112,
      "紫": 6113,
      "累": 6114,
      "細": 6115,
      "紹": 6116,
      "終": 6117,
      "組": 6118,
      "絆": 6119,
      "経": 6120,
      "結": 6121,
      "絔": 6122,
      "絕": 6123,
      "絞": 6124,
      "絡": 6125,
      "絢": 6126,
      "給": 6127,
      "絮": 6128,
      "統": 6129,
      "絲": 6130,
      "絵": 6131,
      "絶": 6132,
      "經": 6133,
      "継": 6134,
      "続": 6135,
      "綜": 6136,
      "綠": 6137,
      "綡": 6138,
      "維": 6139,
      "綱": 6140,
      "網": 6141,
      "綺": 6142,
      "綻": 6143,
      "綾": 6144,
      "綿": 6145,
      "緊": 6146,
      "総": 6147,
      "緑": 6148,
      "緒": 6149,
      "線": 6150,
      "締": 6151,
      "編": 6152,
      "緩": 6153,
      "緯": 6154,
      "練": 6155,
      "緹": 6156,
      "緻": 6157,
      "縁": 6158,
      "縄": 6159,
      "縞": 6160,
      "縦": 6161,
      "縫": 6162,
      "縮": 6163,
      "縸": 6164,
      "總": 6165,
      "績": 6166,
      "繁": 6167,
      "繊": 6168,
      "繋": 6169,
      "織": 6170,
      "繕": 6171,
      "繚": 6172,
      "繞": 6173,
      "繫": 6174,
      "繰": 6175,
      "繼": 6176,
      "續": 6177,
      "纏": 6178,
      "纖": 6179,
      "纜": 6180,
      "纠": 6181,
      "红": 6182,
      "纤": 6183,
      "约": 6184,
      "级": 6185,
      "纪": 6186,
      "纬": 6187,
      "纯": 6188,
      "纱": 6189,
      "纲": 6190,
      "纳": 6191,
      "纵": 6192,
      "纶": 6193,
      "纷": 6194,
      "纸": 6195,
      "纹": 6196,
      "纺": 6197,
      "纽": 6198,
      "线": 6199,
      "练": 6200,
      "组": 6201,
      "细": 6202,
      "织": 6203,
      "终": 6204,
      "绊": 6205,
      "绍": 6206,
      "绎": 6207,
      "经": 6208,
      "绑": 6209,
      "绒": 6210,
      "结": 6211,
      "绕": 6212,
      "绘": 6213,
      "给": 6214,
      "绚": 6215,
      "络": 6216,
      "绝": 6217,
      "统": 6218,
      "绣": 6219,
      "继": 6220,
      "绩": 6221,
      "绪": 6222,
      "续": 6223,
      "绮": 6224,
      "绰": 6225,
      "绳": 6226,
      "维": 6227,
      "绵": 6228,
      "绷": 6229,
      "绸": 6230,
      "综": 6231,
      "绽": 6232,
      "绿": 6233,
      "缀": 6234,
      "缅": 6235,
      "缆": 6236,
      "缈": 6237,
      "缓": 6238,
      "编": 6239,
      "缘": 6240,
      "缚": 6241,
      "缝": 6242,
      "缠": 6243,
      "缥": 6244,
      "缩": 6245,
      "缪": 6246,
      "缬": 6247,
      "缭": 6248,
      "缴": 6249,
      "缶": 6250,
      "缸": 6251,
      "缺": 6252,
      "罐": 6253,
      "网": 6254,
      "罔": 6255,
      "罕": 6256,
      "罗": 6257,
      "罚": 6258,
      "罩": 6259,
      "罪": 6260,
      "置": 6261,
      "罰": 6262,
      "署": 6263,
      "罹": 6264,
      "羅": 6265,
      "羊": 6266,
      "羌": 6267,
      "美": 6268,
      "羚": 6269,
      "羟": 6270,
      "羡": 6271,
      "群": 6272,
      "羧": 6273,
      "羨": 6274,
      "義": 6275,
      "羰": 6276,
      "羽": 6277,
      "翁": 6278,
      "翅": 6279,
      "翊": 6280,
      "翘": 6281,
      "翠": 6282,
      "翡": 6283,
      "翩": 6284,
      "翰": 6285,
      "翹": 6286,
      "翻": 6287,
      "翼": 6288,
      "耀": 6289,
      "老": 6290,
      "考": 6291,
      "者": 6292,
      "而": 6293,
      "耍": 6294,
      "耐": 6295,
      "耕": 6296,
      "耗": 6297,
      "耦": 6298,
      "耳": 6299,
      "耶": 6300,
      "耸": 6301,
      "耻": 6302,
      "耽": 6303,
      "聆": 6304,
      "聊": 6305,
      "聋": 6306,
      "职": 6307,
      "联": 6308,
      "聖": 6309,
      "聘": 6310,
      "聚": 6311,
      "聞": 6312,
      "聡": 6313,
      "聩": 6314,
      "聪": 6315,
      "聯": 6316,
      "聰": 6317,
      "聲": 6318,
      "聴": 6319,
      "職": 6320,
      "聹": 6321,
      "聽": 6322,
      "肃": 6323,
      "肆": 6324,
      "肉": 6325,
      "肋": 6326,
      "肌": 6327,
      "肖": 6328,
      "肘": 6329,
      "肚": 6330,
      "肛": 6331,
      "肝": 6332,
      "肠": 6333,
      "股": 6334,
      "肢": 6335,
      "肤": 6336,
      "肥": 6337,
      "肩": 6338,
      "肪": 6339,
      "肮": 6340,
      "肯": 6341,
      "肱": 6342,
      "育": 6343,
      "肴": 6344,
      "肺": 6345,
      "肽": 6346,
      "肾": 6347,
      "肿": 6348,
      "胀": 6349,
      "胁": 6350,
      "胃": 6351,
      "胆": 6352,
      "背": 6353,
      "胍": 6354,
      "胎": 6355,
      "胖": 6356,
      "胚": 6357,
      "胜": 6358,
      "胞": 6359,
      "胡": 6360,
      "胫": 6361,
      "胭": 6362,
      "胰": 6363,
      "胱": 6364,
      "胴": 6365,
      "胶": 6366,
      "胸": 6367,
      "胺": 6368,
      "能": 6369,
      "脂": 6370,
      "脅": 6371,
      "脆": 6372,
      "脇": 6373,
      "脈": 6374,
      "脉": 6375,
      "脊": 6376,
      "脏": 6377,
      "脐": 6378,
      "脑": 6379,
      "脓": 6380,
      "脖": 6381,
      "脚": 6382,
      "脫": 6383,
      "脱": 6384,
      "脳": 6385,
      "脸": 6386,
      "脹": 6387,
      "脾": 6388,
      "脿": 6389,
      "腈": 6390,
      "腊": 6391,
      "腌": 6392,
      "腎": 6393,
      "腐": 6394,
      "腔": 6395,
      "腕": 6396,
      "腗": 6397,
      "腦": 6398,
      "腩": 6399,
      "腫": 6400,
      "腮": 6401,
      "腰": 6402,
      "腱": 6403,
      "腳": 6404,
      "腸": 6405,
      "腹": 6406,
      "腺": 6407,
      "腻": 6408,
      "腾": 6409,
      "腿": 6410,
      "膀": 6411,
      "膏": 6412,
      "膚": 6413,
      "膜": 6414,
      "膝": 6415,
      "膠": 6416,
      "膣": 6417,
      "膨": 6418,
      "膳": 6419,
      "膽": 6420,
      "膿": 6421,
      "臀": 6422,
      "臂": 6423,
      "臆": 6424,
      "臉": 6425,
      "臍": 6426,
      "臓": 6427,
      "臟": 6428,
      "臣": 6429,
      "臨": 6430,
      "臭": 6431,
      "至": 6432,
      "致": 6433,
      "臺": 6434,
      "舅": 6435,
      "舆": 6436,
      "與": 6437,
      "興": 6438,
      "舉": 6439,
      "舊": 6440,
      "舌": 6441,
      "舍": 6442,
      "舎": 6443,
      "舐": 6444,
      "舒": 6445,
      "舗": 6446,
      "舞": 6447,
      "舟": 6448,
      "航": 6449,
      "般": 6450,
      "舰": 6451,
      "舱": 6452,
      "舶": 6453,
      "船": 6454,
      "艇": 6455,
      "艘": 6456,
      "艦": 6457,
      "艮": 6458,
      "良": 6459,
      "艰": 6460,
      "色": 6461,
      "艳": 6462,
      "艺": 6463,
      "艾": 6464,
      "节": 6465,
      "芈": 6466,
      "芋": 6467,
      "芍": 6468,
      "芎": 6469,
      "芒": 6470,
      "芙": 6471,
      "芜": 6472,
      "芝": 6473,
      "芡": 6474,
      "芥": 6475,
      "芦": 6476,
      "芩": 6477,
      "芪": 6478,
      "芬": 6479,
      "芭": 6480,
      "芯": 6481,
      "花": 6482,
      "芳": 6483,
      "芸": 6484,
      "芹": 6485,
      "芽": 6486,
      "苄": 6487,
      "苈": 6488,
      "苍": 6489,
      "苏": 6490,
      "苑": 6491,
      "苒": 6492,
      "苓": 6493,
      "苔": 6494,
      "苗": 6495,
      "苛": 6496,
      "苞": 6497,
      "苟": 6498,
      "若": 6499,
      "苦": 6500,
      "苫": 6501,
      "苯": 6502,
      "英": 6503,
      "苷": 6504,
      "苹": 6505,
      "苺": 6506,
      "茁": 6507,
      "茂": 6508,
      "范": 6509,
      "茄": 6510,
      "茅": 6511,
      "茉": 6512,
      "茎": 6513,
      "茏": 6514,
      "茜": 6515,
      "茧": 6516,
      "茨": 6517,
      "茫": 6518,
      "茭": 6519,
      "茯": 6520,
      "茴": 6521,
      "茵": 6522,
      "茶": 6523,
      "茹": 6524,
      "荆": 6525,
      "草": 6526,
      "荏": 6527,
      "荐": 6528,
      "荒": 6529,
      "荔": 6530,
      "荘": 6531,
      "荟": 6532,
      "荡": 6533,
      "荣": 6534,
      "荧": 6535,
      "荫": 6536,
      "药": 6537,
      "荷": 6538,
      "莉": 6539,
      "莊": 6540,
      "莎": 6541,
      "莓": 6542,
      "莞": 6543,
      "莢": 6544,
      "莪": 6545,
      "莫": 6546,
      "莱": 6547,
      "莲": 6548,
      "莴": 6549,
      "获": 6550,
      "莹": 6551,
      "莺": 6552,
      "莽": 6553,
      "菁": 6554,
      "菅": 6555,
      "菇": 6556,
      "菊": 6557,
      "菌": 6558,
      "菓": 6559,
      "菜": 6560,
      "菠": 6561,
      "菩": 6562,
      "華": 6563,
      "菱": 6564,
      "菲": 6565,
      "菸": 6566,
      "萃": 6567,
      "萄": 6568,
      "萋": 6569,
      "萌": 6570,
      "萍": 6571,
      "萎": 6572,
      "萝": 6573,
      "营": 6574,
      "萧": 6575,
      "萨": 6576,
      "萩": 6577,
      "萬": 6578,
      "落": 6579,
      "葉": 6580,
      "著": 6581,
      "葛": 6582,
      "葡": 6583,
      "董": 6584,
      "葬": 6585,
      "葱": 6586,
      "葳": 6587,
      "葵": 6588,
      "葶": 6589,
      "蒂": 6590,
      "蒋": 6591,
      "蒙": 6592,
      "蒜": 6593,
      "蒲": 6594,
      "蒸": 6595,
      "蒼": 6596,
      "蒿": 6597,
      "蓄": 6598,
      "蓉": 6599,
      "蓋": 6600,
      "蓑": 6601,
      "蓝": 6602,
      "蓬": 6603,
      "蓼": 6604,
      "蔑": 6605,
      "蔓": 6606,
      "蔚": 6607,
      "蔡": 6608,
      "蔥": 6609,
      "蔬": 6610,
      "蔵": 6611,
      "蔻": 6612,
      "蔽": 6613,
      "蕁": 6614,
      "蕉": 6615,
      "蕊": 6616,
      "蕎": 6617,
      "蕦": 6618,
      "蕭": 6619,
      "蕴": 6620,
      "蕾": 6621,
      "薄": 6622,
      "薇": 6623,
      "薙": 6624,
      "薛": 6625,
      "薦": 6626,
      "薩": 6627,
      "薪": 6628,
      "薬": 6629,
      "薯": 6630,
      "薰": 6631,
      "藉": 6632,
      "藏": 6633,
      "藓": 6634,
      "藜": 6635,
      "藝": 6636,
      "藤": 6637,
      "藥": 6638,
      "藻": 6639,
      "藿": 6640,
      "蘋": 6641,
      "蘑": 6642,
      "蘭": 6643,
      "蘸": 6644,
      "虎": 6645,
      "虐": 6646,
      "虑": 6647,
      "處": 6648,
      "虚": 6649,
      "虛": 6650,
      "號": 6651,
      "虫": 6652,
      "虹": 6653,
      "虽": 6654,
      "虾": 6655,
      "蚀": 6656,
      "蚁": 6657,
      "蚊": 6658,
      "蚓": 6659,
      "蚕": 6660,
      "蚝": 6661,
      "蚣": 6662,
      "蚪": 6663,
      "蚯": 6664,
      "蚴": 6665,
      "蛇": 6666,
      "蛋": 6667,
      "蛍": 6668,
      "蛎": 6669,
      "蛔": 6670,
      "蛙": 6671,
      "蛛": 6672,
      "蛞": 6673,
      "蛮": 6674,
      "蛳": 6675,
      "蛹": 6676,
      "蛾": 6677,
      "蜀": 6678,
      "蜂": 6679,
      "蜇": 6680,
      "蜈": 6681,
      "蜒": 6682,
      "蜓": 6683,
      "蜗": 6684,
      "蜘": 6685,
      "蜜": 6686,
      "蜡": 6687,
      "蜥": 6688,
      "蜴": 6689,
      "蜷": 6690,
      "蜻": 6691,
      "蜿": 6692,
      "蝇": 6693,
      "蝌": 6694,
      "蝎": 6695,
      "蝓": 6696,
      "蝕": 6697,
      "蝙": 6698,
      "蝠": 6699,
      "蝦": 6700,
      "蝲": 6701,
      "蝴": 6702,
      "蝶": 6703,
      "蝸": 6704,
      "螃": 6705,
      "融": 6706,
      "螞": 6707,
      "螢": 6708,
      "螺": 6709,
      "蟜": 6710,
      "蟠": 6711,
      "蟲": 6712,
      "蟹": 6713,
      "蟻": 6714,
      "蠕": 6715,
      "蠡": 6716,
      "蠢": 6717,
      "血": 6718,
      "衆": 6719,
      "行": 6720,
      "衍": 6721,
      "術": 6722,
      "衔": 6723,
      "街": 6724,
      "衛": 6725,
      "衝": 6726,
      "衡": 6727,
      "衣": 6728,
      "补": 6729,
      "表": 6730,
      "衫": 6731,
      "衬": 6732,
      "衰": 6733,
      "衷": 6734,
      "袁": 6735,
      "袄": 6736,
      "袋": 6737,
      "袍": 6738,
      "袖": 6739,
      "袜": 6740,
      "被": 6741,
      "袭": 6742,
      "袱": 6743,
      "袴": 6744,
      "裁": 6745,
      "裂": 6746,
      "装": 6747,
      "裉": 6748,
      "裏": 6749,
      "裕": 6750,
      "裙": 6751,
      "補": 6752,
      "裝": 6753,
      "裡": 6754,
      "裤": 6755,
      "裸": 6756,
      "裹": 6757,
      "製": 6758,
      "裾": 6759,
      "褂": 6760,
      "複": 6761,
      "褐": 6762,
      "褒": 6763,
      "褪": 6764,
      "褲": 6765,
      "褶": 6766,
      "襟": 6767,
      "襯": 6768,
      "襲": 6769,
      "西": 6770,
      "要": 6771,
      "覅": 6772,
      "覆": 6773,
      "覇": 6774,
      "見": 6775,
      "規": 6776,
      "視": 6777,
      "覚": 6778,
      "覧": 6779,
      "親": 6780,
      "観": 6781,
      "覺": 6782,
      "覽": 6783,
      "觀": 6784,
      "见": 6785,
      "观": 6786,
      "规": 6787,
      "觅": 6788,
      "视": 6789,
      "觇": 6790,
      "览": 6791,
      "觉": 6792,
      "觑": 6793,
      "角": 6794,
      "觘": 6795,
      "觞": 6796,
      "解": 6797,
      "触": 6798,
      "觸": 6799,
      "言": 6800,
      "訂": 6801,
      "計": 6802,
      "訊": 6803,
      "討": 6804,
      "訓": 6805,
      "託": 6806,
      "記": 6807,
      "訝": 6808,
      "訣": 6809,
      "訪": 6810,
      "設": 6811,
      "許": 6812,
      "訳": 6813,
      "訴": 6814,
      "診": 6815,
      "註": 6816,
      "証": 6817,
      "評": 6818,
      "詞": 6819,
      "詢": 6820,
      "試": 6821,
      "詩": 6822,
      "詫": 6823,
      "詰": 6824,
      "話": 6825,
      "該": 6826,
      "詳": 6827,
      "詹": 6828,
      "誇": 6829,
      "誉": 6830,
      "誌": 6831,
      "認": 6832,
      "誓": 6833,
      "誕": 6834,
      "誘": 6835,
      "語": 6836,
      "誠": 6837,
      "誤": 6838,
      "說": 6839,
      "説": 6840,
      "読": 6841,
      "誰": 6842,
      "課": 6843,
      "調": 6844,
      "談": 6845,
      "請": 6846,
      "論": 6847,
      "諦": 6848,
      "諮": 6849,
      "諸": 6850,
      "諺": 6851,
      "諾": 6852,
      "謀": 6853,
      "謁": 6854,
      "謂": 6855,
      "謎": 6856,
      "謙": 6857,
      "講": 6858,
      "謝": 6859,
      "謡": 6860,
      "謹": 6861,
      "證": 6862,
      "識": 6863,
      "譜": 6864,
      "警": 6865,
      "譯": 6866,
      "議": 6867,
      "譲": 6868,
      "護": 6869,
      "譽": 6870,
      "讀": 6871,
      "變": 6872,
      "讓": 6873,
      "讚": 6874,
      "计": 6875,
      "订": 6876,
      "认": 6877,
      "讨": 6878,
      "让": 6879,
      "讪": 6880,
      "训": 6881,
      "议": 6882,
      "讯": 6883,
      "记": 6884,
      "讲": 6885,
      "讳": 6886,
      "讶": 6887,
      "许": 6888,
      "论": 6889,
      "讽": 6890,
      "设": 6891,
      "访": 6892,
      "诀": 6893,
      "证": 6894,
      "评": 6895,
      "识": 6896,
      "诈": 6897,
      "诉": 6898,
      "诊": 6899,
      "词": 6900,
      "译": 6901,
      "试": 6902,
      "诗": 6903,
      "诚": 6904,
      "话": 6905,
      "诞": 6906,
      "诡": 6907,
      "询": 6908,
      "该": 6909,
      "详": 6910,
      "诫": 6911,
      "语": 6912,
      "误": 6913,
      "诱": 6914,
      "说": 6915,
      "诵": 6916,
      "请": 6917,
      "诸": 6918,
      "诺": 6919,
      "读": 6920,
      "诽": 6921,
      "课": 6922,
      "谁": 6923,
      "调": 6924,
      "谅": 6925,
      "谈": 6926,
      "谊": 6927,
      "谋": 6928,
      "谎": 6929,
      "谐": 6930,
      "谑": 6931,
      "谓": 6932,
      "谔": 6933,
      "谚": 6934,
      "谜": 6935,
      "谢": 6936,
      "谣": 6937,
      "谤": 6938,
      "谥": 6939,
      "谦": 6940,
      "谧": 6941,
      "谨": 6942,
      "谬": 6943,
      "谭": 6944,
      "谱": 6945,
      "谷": 6946,
      "豆": 6947,
      "豊": 6948,
      "豐": 6949,
      "豚": 6950,
      "象": 6951,
      "豪": 6952,
      "豫": 6953,
      "豬": 6954,
      "豹": 6955,
      "貉": 6956,
      "貌": 6957,
      "貓": 6958,
      "貝": 6959,
      "貞": 6960,
      "負": 6961,
      "財": 6962,
      "貢": 6963,
      "貧": 6964,
      "貨": 6965,
      "販": 6966,
      "貫": 6967,
      "責": 6968,
      "貯": 6969,
      "貰": 6970,
      "貳": 6971,
      "貴": 6972,
      "買": 6973,
      "貸": 6974,
      "費": 6975,
      "貼": 6976,
      "貿": 6977,
      "賀": 6978,
      "賃": 6979,
      "賄": 6980,
      "資": 6981,
      "賑": 6982,
      "賓": 6983,
      "賛": 6984,
      "賜": 6985,
      "賞": 6986,
      "賢": 6987,
      "賣": 6988,
      "賦": 6989,
      "質": 6990,
      "賴": 6991,
      "賺": 6992,
      "購": 6993,
      "賽": 6994,
      "贈": 6995,
      "贊": 6996,
      "贝": 6997,
      "负": 6998,
      "贡": 6999,
      "财": 7000,
      "责": 7001,
      "贤": 7002,
      "败": 7003,
      "账": 7004,
      "货": 7005,
      "质": 7006,
      "贩": 7007,
      "贫": 7008,
      "贬": 7009,
      "购": 7010,
      "贮": 7011,
      "贯": 7012,
      "贰": 7013,
      "贴": 7014,
      "贵": 7015,
      "贷": 7016,
      "贸": 7017,
      "费": 7018,
      "贺": 7019,
      "贾": 7020,
      "贿": 7021,
      "赁": 7022,
      "资": 7023,
      "赋": 7024,
      "赌": 7025,
      "赎": 7026,
      "赏": 7027,
      "赔": 7028,
      "赖": 7029,
      "赚": 7030,
      "赛": 7031,
      "赞": 7032,
      "赠": 7033,
      "赢": 7034,
      "赣": 7035,
      "赤": 7036,
      "赫": 7037,
      "走": 7038,
      "赴": 7039,
      "赵": 7040,
      "赶": 7041,
      "起": 7042,
      "超": 7043,
      "越": 7044,
      "趋": 7045,
      "趣": 7046,
      "趨": 7047,
      "足": 7048,
      "趾": 7049,
      "跃": 7050,
      "跌": 7051,
      "跏": 7052,
      "跑": 7053,
      "距": 7054,
      "跟": 7055,
      "跡": 7056,
      "跨": 7057,
      "跪": 7058,
      "路": 7059,
      "跳": 7060,
      "践": 7061,
      "跹": 7062,
      "踊": 7063,
      "踏": 7064,
      "踐": 7065,
      "踝": 7066,
      "踞": 7067,
      "踢": 7068,
      "踩": 7069,
      "踪": 7070,
      "蹄": 7071,
      "蹈": 7072,
      "蹊": 7073,
      "蹟": 7074,
      "蹤": 7075,
      "蹦": 7076,
      "蹬": 7077,
      "蹲": 7078,
      "蹴": 7079,
      "躁": 7080,
      "躍": 7081,
      "身": 7082,
      "躯": 7083,
      "躲": 7084,
      "躺": 7085,
      "車": 7086,
      "軌": 7087,
      "軍": 7088,
      "軒": 7089,
      "軟": 7090,
      "転": 7091,
      "軸": 7092,
      "軽": 7093,
      "較": 7094,
      "載": 7095,
      "輔": 7096,
      "輕": 7097,
      "輛": 7098,
      "輝": 7099,
      "輩": 7100,
      "輪": 7101,
      "輯": 7102,
      "輳": 7103,
      "輸": 7104,
      "輻": 7105,
      "轉": 7106,
      "车": 7107,
      "轨": 7108,
      "轩": 7109,
      "转": 7110,
      "轮": 7111,
      "软": 7112,
      "轰": 7113,
      "轴": 7114,
      "轻": 7115,
      "轼": 7116,
      "载": 7117,
      "轿": 7118,
      "较": 7119,
      "辄": 7120,
      "辅": 7121,
      "辆": 7122,
      "辈": 7123,
      "辉": 7124,
      "辊": 7125,
      "辐": 7126,
      "辑": 7127,
      "输": 7128,
      "辖": 7129,
      "辙": 7130,
      "辛": 7131,
      "辞": 7132,
      "辣": 7133,
      "辦": 7134,
      "辨": 7135,
      "辩": 7136,
      "辫": 7137,
      "辭": 7138,
      "辰": 7139,
      "辱": 7140,
      "農": 7141,
      "边": 7142,
      "辺": 7143,
      "辻": 7144,
      "込": 7145,
      "辽": 7146,
      "达": 7147,
      "迁": 7148,
      "迅": 7149,
      "过": 7150,
      "迈": 7151,
      "迎": 7152,
      "运": 7153,
      "近": 7154,
      "返": 7155,
      "还": 7156,
      "这": 7157,
      "进": 7158,
      "远": 7159,
      "违": 7160,
      "连": 7161,
      "迟": 7162,
      "迦": 7163,
      "迪": 7164,
      "迫": 7165,
      "迭": 7166,
      "述": 7167,
      "迴": 7168,
      "迷": 7169,
      "迹": 7170,
      "追": 7171,
      "送": 7172,
      "适": 7173,
      "逃": 7174,
      "逄": 7175,
      "逅": 7176,
      "逆": 7177,
      "选": 7178,
      "逊": 7179,
      "逍": 7180,
      "透": 7181,
      "逐": 7182,
      "递": 7183,
      "途": 7184,
      "逗": 7185,
      "這": 7186,
      "通": 7187,
      "逛": 7188,
      "逝": 7189,
      "速": 7190,
      "造": 7191,
      "逢": 7192,
      "連": 7193,
      "逮": 7194,
      "週": 7195,
      "進": 7196,
      "逸": 7197,
      "逻": 7198,
      "逾": 7199,
      "遂": 7200,
      "遅": 7201,
      "遇": 7202,
      "遊": 7203,
      "運": 7204,
      "遍": 7205,
      "過": 7206,
      "遏": 7207,
      "道": 7208,
      "達": 7209,
      "違": 7210,
      "遗": 7211,
      "遙": 7212,
      "遞": 7213,
      "遠": 7214,
      "遣": 7215,
      "遥": 7216,
      "適": 7217,
      "遭": 7218,
      "遮": 7219,
      "遯": 7220,
      "遵": 7221,
      "遷": 7222,
      "選": 7223,
      "遺": 7224,
      "避": 7225,
      "邀": 7226,
      "邁": 7227,
      "邂": 7228,
      "邃": 7229,
      "還": 7230,
      "邊": 7231,
      "邏": 7232,
      "邑": 7233,
      "那": 7234,
      "邦": 7235,
      "邪": 7236,
      "邮": 7237,
      "邱": 7238,
      "邵": 7239,
      "邸": 7240,
      "邹": 7241,
      "邻": 7242,
      "郁": 7243,
      "郊": 7244,
      "郎": 7245,
      "郑": 7246,
      "郡": 7247,
      "部": 7248,
      "郵": 7249,
      "郷": 7250,
      "都": 7251,
      "鄉": 7252,
      "鄙": 7253,
      "鄭": 7254,
      "酉": 7255,
      "酊": 7256,
      "酌": 7257,
      "配": 7258,
      "酐": 7259,
      "酒": 7260,
      "酔": 7261,
      "酗": 7262,
      "酚": 7263,
      "酞": 7264,
      "酢": 7265,
      "酥": 7266,
      "酩": 7267,
      "酪": 7268,
      "酬": 7269,
      "酮": 7270,
      "酯": 7271,
      "酰": 7272,
      "酱": 7273,
      "酵": 7274,
      "酶": 7275,
      "酷": 7276,
      "酸": 7277,
      "酿": 7278,
      "醇": 7279,
      "醉": 7280,
      "醋": 7281,
      "醒": 7282,
      "醚": 7283,
      "醛": 7284,
      "醜": 7285,
      "醤": 7286,
      "醪": 7287,
      "醫": 7288,
      "醬": 7289,
      "釁": 7290,
      "采": 7291,
      "釈": 7292,
      "釉": 7293,
      "释": 7294,
      "釋": 7295,
      "里": 7296,
      "重": 7297,
      "野": 7298,
      "量": 7299,
      "金": 7300,
      "釗": 7301,
      "釘": 7302,
      "釜": 7303,
      "針": 7304,
      "釣": 7305,
      "鈍": 7306,
      "鈕": 7307,
      "鈴": 7308,
      "鉀": 7309,
      "鉄": 7310,
      "鉛": 7311,
      "鉦": 7312,
      "鉴": 7313,
      "銀": 7314,
      "銅": 7315,
      "銘": 7316,
      "銛": 7317,
      "銬": 7318,
      "銭": 7319,
      "銷": 7320,
      "銹": 7321,
      "鋁": 7322,
      "鋒": 7323,
      "鋭": 7324,
      "鋸": 7325,
      "鋼": 7326,
      "錄": 7327,
      "錘": 7328,
      "錠": 7329,
      "錢": 7330,
      "錦": 7331,
      "錫": 7332,
      "錬": 7333,
      "錯": 7334,
      "録": 7335,
      "錶": 7336,
      "鍊": 7337,
      "鍋": 7338,
      "鍛": 7339,
      "鍮": 7340,
      "鍵": 7341,
      "鍼": 7342,
      "鍾": 7343,
      "鎌": 7344,
      "鎖": 7345,
      "鎧": 7346,
      "鎮": 7347,
      "鏡": 7348,
      "鐘": 7349,
      "鐲": 7350,
      "鐵": 7351,
      "鑑": 7352,
      "鑰": 7353,
      "针": 7354,
      "钉": 7355,
      "钎": 7356,
      "钓": 7357,
      "钗": 7358,
      "钙": 7359,
      "钛": 7360,
      "钝": 7361,
      "钞": 7362,
      "钟": 7363,
      "钠": 7364,
      "钢": 7365,
      "钥": 7366,
      "钦": 7367,
      "钨": 7368,
      "钩": 7369,
      "钮": 7370,
      "钱": 7371,
      "钴": 7372,
      "钹": 7373,
      "钻": 7374,
      "钽": 7375,
      "钾": 7376,
      "铀": 7377,
      "铁": 7378,
      "铂": 7379,
      "铃": 7380,
      "铅": 7381,
      "铈": 7382,
      "铛": 7383,
      "铜": 7384,
      "铝": 7385,
      "铭": 7386,
      "铯": 7387,
      "铲": 7388,
      "铵": 7389,
      "银": 7390,
      "铸": 7391,
      "铺": 7392,
      "链": 7393,
      "销": 7394,
      "锁": 7395,
      "锂": 7396,
      "锄": 7397,
      "锅": 7398,
      "锈": 7399,
      "锋": 7400,
      "锌": 7401,
      "锐": 7402,
      "错": 7403,
      "锛": 7404,
      "锡": 7405,
      "锤": 7406,
      "锥": 7407,
      "锦": 7408,
      "键": 7409,
      "锯": 7410,
      "锰": 7411,
      "锶": 7412,
      "锻": 7413,
      "镀": 7414,
      "镁": 7415,
      "镂": 7416,
      "镇": 7417,
      "镍": 7418,
      "镐": 7419,
      "镖": 7420,
      "镜": 7421,
      "镶": 7422,
      "長": 7423,
      "长": 7424,
      "門": 7425,
      "閃": 7426,
      "閉": 7427,
      "開": 7428,
      "閎": 7429,
      "閏": 7430,
      "閑": 7431,
      "閒": 7432,
      "間": 7433,
      "閘": 7434,
      "閞": 7435,
      "関": 7436,
      "閣": 7437,
      "閤": 7438,
      "閩": 7439,
      "閱": 7440,
      "閲": 7441,
      "闇": 7442,
      "闊": 7443,
      "闘": 7444,
      "關": 7445,
      "门": 7446,
      "闪": 7447,
      "闭": 7448,
      "问": 7449,
      "闯": 7450,
      "闲": 7451,
      "间": 7452,
      "闵": 7453,
      "闷": 7454,
      "闸": 7455,
      "闹": 7456,
      "闺": 7457,
      "闻": 7458,
      "阀": 7459,
      "阁": 7460,
      "阅": 7461,
      "阈": 7462,
      "阐": 7463,
      "阑": 7464,
      "阔": 7465,
      "阖": 7466,
      "阙": 7467,
      "阜": 7468,
      "阪": 7469,
      "阱": 7470,
      "防": 7471,
      "阳": 7472,
      "阴": 7473,
      "阵": 7474,
      "阶": 7475,
      "阻": 7476,
      "阿": 7477,
      "陀": 7478,
      "附": 7479,
      "际": 7480,
      "陆": 7481,
      "陈": 7482,
      "陌": 7483,
      "降": 7484,
      "限": 7485,
      "陕": 7486,
      "陛": 7487,
      "陡": 7488,
      "院": 7489,
      "陣": 7490,
      "除": 7491,
      "陥": 7492,
      "陨": 7493,
      "险": 7494,
      "陪": 7495,
      "陰": 7496,
      "陳": 7497,
      "陵": 7498,
      "陶": 7499,
      "陷": 7500,
      "陸": 7501,
      "険": 7502,
      "陽": 7503,
      "隅": 7504,
      "隆": 7505,
      "階": 7506,
      "随": 7507,
      "隐": 7508,
      "隔": 7509,
      "隘": 7510,
      "隙": 7511,
      "際": 7512,
      "障": 7513,
      "隠": 7514,
      "隣": 7515,
      "隧": 7516,
      "隨": 7517,
      "險": 7518,
      "隶": 7519,
      "隻": 7520,
      "难": 7521,
      "雀": 7522,
      "雁": 7523,
      "雄": 7524,
      "雅": 7525,
      "集": 7526,
      "雇": 7527,
      "雌": 7528,
      "雍": 7529,
      "雑": 7530,
      "雕": 7531,
      "雖": 7532,
      "雙": 7533,
      "雛": 7534,
      "雜": 7535,
      "離": 7536,
      "難": 7537,
      "雨": 7538,
      "雪": 7539,
      "雯": 7540,
      "雰": 7541,
      "雲": 7542,
      "零": 7543,
      "雷": 7544,
      "電": 7545,
      "雾": 7546,
      "需": 7547,
      "霁": 7548,
      "霄": 7549,
      "霆": 7550,
      "震": 7551,
      "霉": 7552,
      "霊": 7553,
      "霍": 7554,
      "霓": 7555,
      "霜": 7556,
      "霞": 7557,
      "霧": 7558,
      "露": 7559,
      "霸": 7560,
      "霾": 7561,
      "靈": 7562,
      "青": 7563,
      "靖": 7564,
      "静": 7565,
      "靜": 7566,
      "非": 7567,
      "靠": 7568,
      "靡": 7569,
      "面": 7570,
      "靥": 7571,
      "革": 7572,
      "靭": 7573,
      "靴": 7574,
      "靶": 7575,
      "鞋": 7576,
      "鞘": 7577,
      "鞭": 7578,
      "韓": 7579,
      "韦": 7580,
      "韧": 7581,
      "韩": 7582,
      "韭": 7583,
      "音": 7584,
      "韵": 7585,
      "韶": 7586,
      "韻": 7587,
      "響": 7588,
      "頁": 7589,
      "頂": 7590,
      "頃": 7591,
      "項": 7592,
      "順": 7593,
      "須": 7594,
      "頌": 7595,
      "預": 7596,
      "頑": 7597,
      "頓": 7598,
      "頗": 7599,
      "領": 7600,
      "頚": 7601,
      "頬": 7602,
      "頭": 7603,
      "頷": 7604,
      "頸": 7605,
      "頻": 7606,
      "頼": 7607,
      "顅": 7608,
      "顆": 7609,
      "題": 7610,
      "額": 7611,
      "顏": 7612,
      "顔": 7613,
      "顕": 7614,
      "願": 7615,
      "類": 7616,
      "顧": 7617,
      "顫": 7618,
      "顯": 7619,
      "页": 7620,
      "顶": 7621,
      "顷": 7622,
      "项": 7623,
      "顺": 7624,
      "须": 7625,
      "顾": 7626,
      "顿": 7627,
      "颁": 7628,
      "颂": 7629,
      "预": 7630,
      "颅": 7631,
      "领": 7632,
      "颇": 7633,
      "颈": 7634,
      "颉": 7635,
      "颊": 7636,
      "颌": 7637,
      "颐": 7638,
      "频": 7639,
      "颖": 7640,
      "颗": 7641,
      "题": 7642,
      "颜": 7643,
      "额": 7644,
      "颞": 7645,
      "颠": 7646,
      "颡": 7647,
      "風": 7648,
      "飄": 7649,
      "飌": 7650,
      "风": 7651,
      "飓": 7652,
      "飕": 7653,
      "飘": 7654,
      "飙": 7655,
      "飛": 7656,
      "飞": 7657,
      "食": 7658,
      "飢": 7659,
      "飯": 7660,
      "飱": 7661,
      "飲": 7662,
      "飼": 7663,
      "飽": 7664,
      "飾": 7665,
      "餃": 7666,
      "餅": 7667,
      "養": 7668,
      "餐": 7669,
      "餓": 7670,
      "餚": 7671,
      "餡": 7672,
      "館": 7673,
      "饤": 7674,
      "饥": 7675,
      "饪": 7676,
      "饭": 7677,
      "饮": 7678,
      "饯": 7679,
      "饰": 7680,
      "饱": 7681,
      "饲": 7682,
      "饶": 7683,
      "饼": 7684,
      "饿": 7685,
      "馃": 7686,
      "馆": 7687,
      "馈": 7688,
      "馏": 7689,
      "馒": 7690,
      "首": 7691,
      "香": 7692,
      "馬": 7693,
      "馴": 7694,
      "駄": 7695,
      "駅": 7696,
      "駆": 7697,
      "駑": 7698,
      "駕": 7699,
      "駛": 7700,
      "駱": 7701,
      "騎": 7702,
      "騒": 7703,
      "験": 7704,
      "騨": 7705,
      "騰": 7706,
      "驗": 7707,
      "驚": 7708,
      "驟": 7709,
      "马": 7710,
      "驭": 7711,
      "驯": 7712,
      "驰": 7713,
      "驱": 7714,
      "驳": 7715,
      "驴": 7716,
      "驶": 7717,
      "驻": 7718,
      "驼": 7719,
      "驾": 7720,
      "骁": 7721,
      "骂": 7722,
      "骄": 7723,
      "骆": 7724,
      "骋": 7725,
      "验": 7726,
      "骏": 7727,
      "骑": 7728,
      "骖": 7729,
      "骗": 7730,
      "骚": 7731,
      "骛": 7732,
      "骤": 7733,
      "骥": 7734,
      "骨": 7735,
      "骰": 7736,
      "骶": 7737,
      "骸": 7738,
      "骼": 7739,
      "髂": 7740,
      "髄": 7741,
      "髋": 7742,
      "髓": 7743,
      "體": 7744,
      "高": 7745,
      "髪": 7746,
      "髭": 7747,
      "鬆": 7748,
      "鬓": 7749,
      "鬚": 7750,
      "鬥": 7751,
      "鬧": 7752,
      "鬱": 7753,
      "鬼": 7754,
      "魁": 7755,
      "魂": 7756,
      "魄": 7757,
      "魅": 7758,
      "魏": 7759,
      "魔": 7760,
      "魚": 7761,
      "魯": 7762,
      "鮫": 7763,
      "鮭": 7764,
      "鮮": 7765,
      "鯖": 7766,
      "鯛": 7767,
      "鰹": 7768,
      "鰻": 7769,
      "鱗": 7770,
      "鱼": 7771,
      "鱿": 7772,
      "鲁": 7773,
      "鲈": 7774,
      "鲜": 7775,
      "鲨": 7776,
      "鲫": 7777,
      "鲷": 7778,
      "鲸": 7779,
      "鳄": 7780,
      "鳆": 7781,
      "鳔": 7782,
      "鳕": 7783,
      "鳙": 7784,
      "鳝": 7785,
      "鳞": 7786,
      "鳥": 7787,
      "鳩": 7788,
      "鳳": 7789,
      "鳴": 7790,
      "鴻": 7791,
      "鵑": 7792,
      "鵝": 7793,
      "鶏": 7794,
      "鶴": 7795,
      "鷹": 7796,
      "鸟": 7797,
      "鸣": 7798,
      "鸥": 7799,
      "鸦": 7800,
      "鸭": 7801,
      "鸯": 7802,
      "鸳": 7803,
      "鸵": 7804,
      "鸽": 7805,
      "鸿": 7806,
      "鹅": 7807,
      "鹈": 7808,
      "鹉": 7809,
      "鹏": 7810,
      "鹤": 7811,
      "鹦": 7812,
      "鹰": 7813,
      "鹲": 7814,
      "鹳": 7815,
      "鹽": 7816,
      "鹿": 7817,
      "麗": 7818,
      "麥": 7819,
      "麦": 7820,
      "麵": 7821,
      "麹": 7822,
      "麺": 7823,
      "麻": 7824,
      "麼": 7825,
      "麽": 7826,
      "黃": 7827,
      "黄": 7828,
      "黎": 7829,
      "黏": 7830,
      "黑": 7831,
      "黒": 7832,
      "默": 7833,
      "黙": 7834,
      "黛": 7835,
      "點": 7836,
      "黮": 7837,
      "黯": 7838,
      "黱": 7839,
      "鼎": 7840,
      "鼓": 7841,
      "鼠": 7842,
      "鼻": 7843,
      "齊": 7844,
      "齋": 7845,
      "齌": 7846,
      "齐": 7847,
      "齒": 7848,
      "齡": 7849,
      "齢": 7850,
      "齿": 7851,
      "龄": 7852,
      "龋": 7853,
      "龍": 7854,
      "龐": 7855,
      "龙": 7856,
      "龜": 7857,
      "龟": 7858,
      "ꜣ": 7859,
      "ꜥ": 7860,
      "ꝼ": 7861,
      "Ᵹ": 7862,
      "Ꝿ": 7863,
      "ꟻ": 7864,
      "ꟾ": 7865,
      "ꦂ": 7866,
      "ꦩ": 7867,
      "ꦱ": 7868,
      "ꦼ": 7869,
      "가": 7870,
      "각": 7871,
      "간": 7872,
      "갇": 7873,
      "갈": 7874,
      "감": 7875,
      "갑": 7876,
      "값": 7877,
      "갓": 7878,
      "갔": 7879,
      "강": 7880,
      "갖": 7881,
      "같": 7882,
      "갚": 7883,
      "개": 7884,
      "객": 7885,
      "갤": 7886,
      "갬": 7887,
      "갭": 7888,
      "갯": 7889,
      "갱": 7890,
      "걀": 7891,
      "거": 7892,
      "걱": 7893,
      "건": 7894,
      "걷": 7895,
      "걸": 7896,
      "검": 7897,
      "겁": 7898,
      "것": 7899,
      "겉": 7900,
      "게": 7901,
      "겐": 7902,
      "겔": 7903,
      "겟": 7904,
      "겠": 7905,
      "겨": 7906,
      "격": 7907,
      "겪": 7908,
      "견": 7909,
      "결": 7910,
      "겸": 7911,
      "겹": 7912,
      "겼": 7913,
      "경": 7914,
      "곁": 7915,
      "계": 7916,
      "고": 7917,
      "곡": 7918,
      "곤": 7919,
      "곧": 7920,
      "골": 7921,
      "곰": 7922,
      "곱": 7923,
      "곳": 7924,
      "공": 7925,
      "곶": 7926,
      "과": 7927,
      "곽": 7928,
      "관": 7929,
      "괄": 7930,
      "광": 7931,
      "괜": 7932,
      "괴": 7933,
      "굉": 7934,
      "교": 7935,
      "구": 7936,
      "국": 7937,
      "군": 7938,
      "굳": 7939,
      "굴": 7940,
      "굵": 7941,
      "굽": 7942,
      "굿": 7943,
      "궁": 7944,
      "권": 7945,
      "궐": 7946,
      "궤": 7947,
      "귀": 7948,
      "귄": 7949,
      "규": 7950,
      "균": 7951,
      "귤": 7952,
      "그": 7953,
      "극": 7954,
      "근": 7955,
      "글": 7956,
      "긁": 7957,
      "금": 7958,
      "급": 7959,
      "긋": 7960,
      "긍": 7961,
      "기": 7962,
      "긴": 7963,
      "길": 7964,
      "김": 7965,
      "깁": 7966,
      "깃": 7967,
      "깅": 7968,
      "깊": 7969,
      "까": 7970,
      "깎": 7971,
      "깐": 7972,
      "깔": 7973,
      "깜": 7974,
      "깝": 7975,
      "깡": 7976,
      "깥": 7977,
      "깨": 7978,
      "깯": 7979,
      "꺼": 7980,
      "꺾": 7981,
      "껍": 7982,
      "껏": 7983,
      "껑": 7984,
      "께": 7985,
      "껴": 7986,
      "꼈": 7987,
      "꼌": 7988,
      "꼬": 7989,
      "꼭": 7990,
      "꼴": 7991,
      "꼽": 7992,
      "꽃": 7993,
      "꽈": 7994,
      "꽉": 7995,
      "꽐": 7996,
      "꽝": 7997,
      "꽤": 7998,
      "꾸": 7999,
      "꾼": 8000,
      "꿀": 8001,
      "꿈": 8002,
      "꿉": 8003,
      "꿔": 8004,
      "꿨": 8005,
      "뀌": 8006,
      "뀔": 8007,
      "뀜": 8008,
      "뀝": 8009,
      "끄": 8010,
      "끈": 8011,
      "끊": 8012,
      "끌": 8013,
      "끓": 8014,
      "끔": 8015,
      "끗": 8016,
      "끝": 8017,
      "끰": 8018,
      "끴": 8019,
      "끼": 8020,
      "끽": 8021,
      "낀": 8022,
      "낄": 8023,
      "낌": 8024,
      "낍": 8025,
      "낔": 8026,
      "나": 8027,
      "낙": 8028,
      "낚": 8029,
      "난": 8030,
      "날": 8031,
      "남": 8032,
      "납": 8033,
      "낫": 8034,
      "났": 8035,
      "낭": 8036,
      "낮": 8037,
      "낯": 8038,
      "낱": 8039,
      "낳": 8040,
      "내": 8041,
      "낵": 8042,
      "낸": 8043,
      "낼": 8044,
      "냄": 8045,
      "냅": 8046,
      "냇": 8047,
      "냈": 8048,
      "냉": 8049,
      "냐": 8050,
      "냥": 8051,
      "너": 8052,
      "넉": 8053,
      "넋": 8054,
      "넌": 8055,
      "널": 8056,
      "넓": 8057,
      "넘": 8058,
      "넚": 8059,
      "넛": 8060,
      "넣": 8061,
      "네": 8062,
      "넥": 8063,
      "넨": 8064,
      "넬": 8065,
      "넴": 8066,
      "넷": 8067,
      "넸": 8068,
      "녀": 8069,
      "녁": 8070,
      "년": 8071,
      "념": 8072,
      "녔": 8073,
      "녕": 8074,
      "노": 8075,
      "녹": 8076,
      "논": 8077,
      "놀": 8078,
      "놈": 8079,
      "놉": 8080,
      "농": 8081,
      "높": 8082,
      "놓": 8083,
      "놔": 8084,
      "놨": 8085,
      "뇌": 8086,
      "뇨": 8087,
      "뇴": 8088,
      "뇽": 8089,
      "누": 8090,
      "눅": 8091,
      "눈": 8092,
      "눌": 8093,
      "눔": 8094,
      "눕": 8095,
      "눗": 8096,
      "눠": 8097,
      "뉘": 8098,
      "뉜": 8099,
      "뉩": 8100,
      "뉴": 8101,
      "늄": 8102,
      "느": 8103,
      "늑": 8104,
      "는": 8105,
      "늘": 8106,
      "늙": 8107,
      "늠": 8108,
      "능": 8109,
      "늦": 8110,
      "늪": 8111,
      "늬": 8112,
      "늹": 8113,
      "니": 8114,
      "닉": 8115,
      "닌": 8116,
      "닐": 8117,
      "님": 8118,
      "닙": 8119,
      "닛": 8120,
      "닝": 8121,
      "다": 8122,
      "닥": 8123,
      "닦": 8124,
      "단": 8125,
      "닫": 8126,
      "달": 8127,
      "닭": 8128,
      "닮": 8129,
      "닳": 8130,
      "담": 8131,
      "답": 8132,
      "닷": 8133,
      "당": 8134,
      "닿": 8135,
      "대": 8136,
      "댄": 8137,
      "댐": 8138,
      "댑": 8139,
      "댓": 8140,
      "댜": 8141,
      "덍": 8142,
      "더": 8143,
      "덕": 8144,
      "던": 8145,
      "덜": 8146,
      "덟": 8147,
      "덤": 8148,
      "덥": 8149,
      "덧": 8150,
      "덩": 8151,
      "덫": 8152,
      "덮": 8153,
      "데": 8154,
      "덱": 8155,
      "덴": 8156,
      "델": 8157,
      "뎀": 8158,
      "뎅": 8159,
      "뎌": 8160,
      "뎠": 8161,
      "도": 8162,
      "독": 8163,
      "돈": 8164,
      "돋": 8165,
      "돌": 8166,
      "돕": 8167,
      "돗": 8168,
      "동": 8169,
      "돼": 8170,
      "됌": 8171,
      "됐": 8172,
      "됔": 8173,
      "됖": 8174,
      "되": 8175,
      "된": 8176,
      "됟": 8177,
      "될": 8178,
      "됨": 8179,
      "됩": 8180,
      "됬": 8181,
      "됼": 8182,
      "두": 8183,
      "둑": 8184,
      "둔": 8185,
      "둘": 8186,
      "둠": 8187,
      "둡": 8188,
      "둥": 8189,
      "둬": 8190,
      "뒤": 8191,
      "뒷": 8192,
      "듀": 8193,
      "듈": 8194,
      "듌": 8195,
      "듐": 8196,
      "드": 8197,
      "득": 8198,
      "든": 8199,
      "듣": 8200,
      "들": 8201,
      "듦": 8202,
      "듬": 8203,
      "듭": 8204,
      "듯": 8205,
      "등": 8206,
      "딁": 8207,
      "디": 8208,
      "딕": 8209,
      "딘": 8210,
      "딛": 8211,
      "딜": 8212,
      "딝": 8213,
      "딥": 8214,
      "딧": 8215,
      "딨": 8216,
      "딩": 8217,
      "딪": 8218,
      "따": 8219,
      "딱": 8220,
      "딴": 8221,
      "딸": 8222,
      "땀": 8223,
      "땅": 8224,
      "때": 8225,
      "땐": 8226,
      "땠": 8227,
      "땼": 8228,
      "떄": 8229,
      "떠": 8230,
      "떡": 8231,
      "떤": 8232,
      "떨": 8233,
      "떵": 8234,
      "떻": 8235,
      "떼": 8236,
      "또": 8237,
      "똑": 8238,
      "똥": 8239,
      "뚀": 8240,
      "뚜": 8241,
      "뚝": 8242,
      "뚤": 8243,
      "뚫": 8244,
      "뚱": 8245,
      "뚴": 8246,
      "뛰": 8247,
      "뜀": 8248,
      "뜨": 8249,
      "뜬": 8250,
      "뜰": 8251,
      "뜻": 8252,
      "띄": 8253,
      "띈": 8254,
      "띠": 8255,
      "띤": 8256,
      "띨": 8257,
      "라": 8258,
      "락": 8259,
      "란": 8260,
      "랃": 8261,
      "랄": 8262,
      "람": 8263,
      "랍": 8264,
      "랐": 8265,
      "랑": 8266,
      "랗": 8267,
      "래": 8268,
      "랙": 8269,
      "랜": 8270,
      "램": 8271,
      "랩": 8272,
      "랫": 8273,
      "랬": 8274,
      "랭": 8275,
      "랴": 8276,
      "략": 8277,
      "랼": 8278,
      "럄": 8279,
      "량": 8280,
      "럌": 8281,
      "러": 8282,
      "럭": 8283,
      "런": 8284,
      "럴": 8285,
      "럼": 8286,
      "럽": 8287,
      "럿": 8288,
      "렀": 8289,
      "렁": 8290,
      "렇": 8291,
      "레": 8292,
      "렉": 8293,
      "렌": 8294,
      "렐": 8295,
      "렘": 8296,
      "렛": 8297,
      "렝": 8298,
      "려": 8299,
      "력": 8300,
      "련": 8301,
      "렬": 8302,
      "렴": 8303,
      "렵": 8304,
      "렷": 8305,
      "렸": 8306,
      "령": 8307,
      "례": 8308,
      "로": 8309,
      "록": 8310,
      "론": 8311,
      "롤": 8312,
      "롬": 8313,
      "롭": 8314,
      "롯": 8315,
      "롱": 8316,
      "뢰": 8317,
      "룅": 8318,
      "료": 8319,
      "룔": 8320,
      "룡": 8321,
      "루": 8322,
      "룩": 8323,
      "룬": 8324,
      "룰": 8325,
      "룸": 8326,
      "룹": 8327,
      "룻": 8328,
      "룽": 8329,
      "뤄": 8330,
      "뤘": 8331,
      "뤼": 8332,
      "뤽": 8333,
      "류": 8334,
      "륙": 8335,
      "륜": 8336,
      "률": 8337,
      "륨": 8338,
      "륭": 8339,
      "르": 8340,
      "른": 8341,
      "를": 8342,
      "름": 8343,
      "릅": 8344,
      "릇": 8345,
      "릈": 8346,
      "릉": 8347,
      "릎": 8348,
      "리": 8349,
      "릭": 8350,
      "린": 8351,
      "릴": 8352,
      "림": 8353,
      "립": 8354,
      "릿": 8355,
      "링": 8356,
      "마": 8357,
      "막": 8358,
      "만": 8359,
      "많": 8360,
      "말": 8361,
      "맑": 8362,
      "맗": 8363,
      "맘": 8364,
      "맙": 8365,
      "맛": 8366,
      "망": 8367,
      "맞": 8368,
      "맡": 8369,
      "매": 8370,
      "맥": 8371,
      "맨": 8372,
      "맵": 8373,
      "맷": 8374,
      "맹": 8375,
      "맺": 8376,
      "머": 8377,
      "먹": 8378,
      "먼": 8379,
      "멀": 8380,
      "멈": 8381,
      "멋": 8382,
      "멍": 8383,
      "멎": 8384,
      "메": 8385,
      "멕": 8386,
      "멘": 8387,
      "멜": 8388,
      "멤": 8389,
      "멧": 8390,
      "멩": 8391,
      "며": 8392,
      "멱": 8393,
      "면": 8394,
      "멸": 8395,
      "명": 8396,
      "몇": 8397,
      "모": 8398,
      "목": 8399,
      "몫": 8400,
      "몬": 8401,
      "몰": 8402,
      "몸": 8403,
      "몹": 8404,
      "못": 8405,
      "몽": 8406,
      "묘": 8407,
      "무": 8408,
      "묵": 8409,
      "묶": 8410,
      "문": 8411,
      "묻": 8412,
      "물": 8413,
      "뭇": 8414,
      "뭉": 8415,
      "뭐": 8416,
      "뭔": 8417,
      "뭘": 8418,
      "뮤": 8419,
      "뮨": 8420,
      "뮬": 8421,
      "뮰": 8422,
      "뮴": 8423,
      "므": 8424,
      "믈": 8425,
      "미": 8426,
      "믹": 8427,
      "민": 8428,
      "믿": 8429,
      "밀": 8430,
      "밋": 8431,
      "밌": 8432,
      "밍": 8433,
      "및": 8434,
      "밑": 8435,
      "바": 8436,
      "박": 8437,
      "밖": 8438,
      "반": 8439,
      "받": 8440,
      "발": 8441,
      "밝": 8442,
      "밤": 8443,
      "밥": 8444,
      "밧": 8445,
      "방": 8446,
      "밭": 8447,
      "배": 8448,
      "백": 8449,
      "밴": 8450,
      "밸": 8451,
      "밿": 8452,
      "뱃": 8453,
      "뱅": 8454,
      "버": 8455,
      "벅": 8456,
      "번": 8457,
      "벌": 8458,
      "범": 8459,
      "법": 8460,
      "벗": 8461,
      "벙": 8462,
      "벚": 8463,
      "벛": 8464,
      "베": 8465,
      "벡": 8466,
      "벤": 8467,
      "벨": 8468,
      "벳": 8469,
      "벼": 8470,
      "벽": 8471,
      "변": 8472,
      "별": 8473,
      "볍": 8474,
      "병": 8475,
      "볕": 8476,
      "볨": 8477,
      "볳": 8478,
      "보": 8479,
      "복": 8480,
      "볶": 8481,
      "본": 8482,
      "볼": 8483,
      "봄": 8484,
      "봅": 8485,
      "봇": 8486,
      "봉": 8487,
      "봐": 8488,
      "봤": 8489,
      "뵈": 8490,
      "뵙": 8491,
      "부": 8492,
      "북": 8493,
      "분": 8494,
      "불": 8495,
      "붐": 8496,
      "붓": 8497,
      "붕": 8498,
      "붙": 8499,
      "뷌": 8500,
      "뷔": 8501,
      "뷰": 8502,
      "브": 8503,
      "븐": 8504,
      "블": 8505,
      "비": 8506,
      "빅": 8507,
      "빈": 8508,
      "빌": 8509,
      "빔": 8510,
      "빕": 8511,
      "빗": 8512,
      "빙": 8513,
      "빚": 8514,
      "빛": 8515,
      "빠": 8516,
      "빨": 8517,
      "빵": 8518,
      "빼": 8519,
      "빽": 8520,
      "뺀": 8521,
      "뺄": 8522,
      "뺌": 8523,
      "뻐": 8524,
      "뻗": 8525,
      "뼈": 8526,
      "뽀": 8527,
      "뽁": 8528,
      "뽑": 8529,
      "뽕": 8530,
      "뿌": 8531,
      "뿐": 8532,
      "뿔": 8533,
      "쀄": 8534,
      "쀻": 8535,
      "쀽": 8536,
      "쁘": 8537,
      "쁜": 8538,
      "쁠": 8539,
      "쁨": 8540,
      "쁩": 8541,
      "삐": 8542,
      "사": 8543,
      "삭": 8544,
      "산": 8545,
      "살": 8546,
      "삶": 8547,
      "삼": 8548,
      "삽": 8549,
      "삿": 8550,
      "샀": 8551,
      "상": 8552,
      "새": 8553,
      "색": 8554,
      "샌": 8555,
      "샐": 8556,
      "샘": 8557,
      "생": 8558,
      "샤": 8559,
      "샴": 8560,
      "샵": 8561,
      "샷": 8562,
      "샹": 8563,
      "섀": 8564,
      "서": 8565,
      "석": 8566,
      "섞": 8567,
      "선": 8568,
      "섣": 8569,
      "설": 8570,
      "섬": 8571,
      "섭": 8572,
      "섯": 8573,
      "섰": 8574,
      "성": 8575,
      "세": 8576,
      "섹": 8577,
      "센": 8578,
      "셀": 8579,
      "셈": 8580,
      "셉": 8581,
      "셋": 8582,
      "셌": 8583,
      "셔": 8584,
      "션": 8585,
      "셜": 8586,
      "셨": 8587,
      "셰": 8588,
      "셸": 8589,
      "소": 8590,
      "속": 8591,
      "솎": 8592,
      "손": 8593,
      "솔": 8594,
      "솜": 8595,
      "솟": 8596,
      "송": 8597,
      "솥": 8598,
      "쇄": 8599,
      "쇠": 8600,
      "쇼": 8601,
      "숍": 8602,
      "숑": 8603,
      "수": 8604,
      "숙": 8605,
      "순": 8606,
      "술": 8607,
      "숨": 8608,
      "숫": 8609,
      "숭": 8610,
      "숲": 8611,
      "쉘": 8612,
      "쉡": 8613,
      "쉬": 8614,
      "쉴": 8615,
      "쉽": 8616,
      "슈": 8617,
      "슐": 8618,
      "슘": 8619,
      "슛": 8620,
      "스": 8621,
      "슥": 8622,
      "슨": 8623,
      "슬": 8624,
      "슭": 8625,
      "슴": 8626,
      "습": 8627,
      "슷": 8628,
      "승": 8629,
      "시": 8630,
      "식": 8631,
      "신": 8632,
      "싣": 8633,
      "실": 8634,
      "싫": 8635,
      "심": 8636,
      "십": 8637,
      "싰": 8638,
      "싱": 8639,
      "싶": 8640,
      "싸": 8641,
      "싹": 8642,
      "싼": 8643,
      "쌀": 8644,
      "쌈": 8645,
      "쌉": 8646,
      "쌍": 8647,
      "쌓": 8648,
      "썔": 8649,
      "써": 8650,
      "썬": 8651,
      "썰": 8652,
      "썸": 8653,
      "썼": 8654,
      "쎄": 8655,
      "쎈": 8656,
      "쏘": 8657,
      "쏟": 8658,
      "쑗": 8659,
      "쑤": 8660,
      "쓜": 8661,
      "쓰": 8662,
      "쓴": 8663,
      "쓸": 8664,
      "씀": 8665,
      "씁": 8666,
      "씌": 8667,
      "씨": 8668,
      "씩": 8669,
      "씬": 8670,
      "씹": 8671,
      "씻": 8672,
      "아": 8673,
      "악": 8674,
      "안": 8675,
      "앉": 8676,
      "않": 8677,
      "알": 8678,
      "앓": 8679,
      "암": 8680,
      "압": 8681,
      "앗": 8682,
      "았": 8683,
      "앙": 8684,
      "앞": 8685,
      "애": 8686,
      "액": 8687,
      "앤": 8688,
      "앨": 8689,
      "앰": 8690,
      "앱": 8691,
      "앴": 8692,
      "앵": 8693,
      "야": 8694,
      "약": 8695,
      "얀": 8696,
      "얄": 8697,
      "얇": 8698,
      "얏": 8699,
      "양": 8700,
      "얕": 8701,
      "얘": 8702,
      "어": 8703,
      "억": 8704,
      "언": 8705,
      "얹": 8706,
      "얻": 8707,
      "얼": 8708,
      "얽": 8709,
      "엄": 8710,
      "업": 8711,
      "없": 8712,
      "엇": 8713,
      "었": 8714,
      "엉": 8715,
      "에": 8716,
      "엑": 8717,
      "엔": 8718,
      "엘": 8719,
      "엠": 8720,
      "엣": 8721,
      "엩": 8722,
      "여": 8723,
      "역": 8724,
      "연": 8725,
      "열": 8726,
      "염": 8727,
      "엽": 8728,
      "였": 8729,
      "영": 8730,
      "옆": 8731,
      "예": 8732,
      "옐": 8733,
      "옛": 8734,
      "오": 8735,
      "옥": 8736,
      "온": 8737,
      "옩": 8738,
      "올": 8739,
      "옮": 8740,
      "옳": 8741,
      "옴": 8742,
      "옵": 8743,
      "옷": 8744,
      "옹": 8745,
      "와": 8746,
      "왁": 8747,
      "완": 8748,
      "왈": 8749,
      "왑": 8750,
      "왓": 8751,
      "왔": 8752,
      "왕": 8753,
      "왜": 8754,
      "왠": 8755,
      "외": 8756,
      "왼": 8757,
      "요": 8758,
      "욕": 8759,
      "욘": 8760,
      "욜": 8761,
      "용": 8762,
      "우": 8763,
      "욱": 8764,
      "운": 8765,
      "울": 8766,
      "움": 8767,
      "웁": 8768,
      "웃": 8769,
      "웅": 8770,
      "워": 8771,
      "웍": 8772,
      "원": 8773,
      "월": 8774,
      "웜": 8775,
      "웟": 8776,
      "웠": 8777,
      "웨": 8778,
      "웰": 8779,
      "웹": 8780,
      "위": 8781,
      "윅": 8782,
      "윈": 8783,
      "윌": 8784,
      "윖": 8785,
      "윗": 8786,
      "윙": 8787,
      "유": 8788,
      "육": 8789,
      "윤": 8790,
      "율": 8791,
      "융": 8792,
      "으": 8793,
      "은": 8794,
      "을": 8795,
      "음": 8796,
      "읍": 8797,
      "응": 8798,
      "의": 8799,
      "이": 8800,
      "익": 8801,
      "인": 8802,
      "일": 8803,
      "읽": 8804,
      "잃": 8805,
      "임": 8806,
      "입": 8807,
      "잇": 8808,
      "있": 8809,
      "잉": 8810,
      "잊": 8811,
      "잎": 8812,
      "자": 8813,
      "작": 8814,
      "잔": 8815,
      "잖": 8816,
      "잘": 8817,
      "잠": 8818,
      "잡": 8819,
      "잤": 8820,
      "장": 8821,
      "잦": 8822,
      "재": 8823,
      "잭": 8824,
      "쟁": 8825,
      "쟛": 8826,
      "저": 8827,
      "적": 8828,
      "전": 8829,
      "절": 8830,
      "젊": 8831,
      "젍": 8832,
      "점": 8833,
      "접": 8834,
      "젓": 8835,
      "정": 8836,
      "젖": 8837,
      "젚": 8838,
      "제": 8839,
      "젝": 8840,
      "젠": 8841,
      "젤": 8842,
      "젯": 8843,
      "져": 8844,
      "젼": 8845,
      "졌": 8846,
      "졍": 8847,
      "조": 8848,
      "족": 8849,
      "존": 8850,
      "졸": 8851,
      "좀": 8852,
      "좁": 8853,
      "종": 8854,
      "좋": 8855,
      "좌": 8856,
      "죄": 8857,
      "죠": 8858,
      "주": 8859,
      "죽": 8860,
      "준": 8861,
      "줄": 8862,
      "줌": 8863,
      "줍": 8864,
      "중": 8865,
      "줔": 8866,
      "줘": 8867,
      "줬": 8868,
      "쥐": 8869,
      "쥬": 8870,
      "즈": 8871,
      "즉": 8872,
      "즌": 8873,
      "즐": 8874,
      "즘": 8875,
      "증": 8876,
      "즴": 8877,
      "지": 8878,
      "직": 8879,
      "진": 8880,
      "짇": 8881,
      "질": 8882,
      "짊": 8883,
      "짐": 8884,
      "집": 8885,
      "짓": 8886,
      "징": 8887,
      "짖": 8888,
      "짙": 8889,
      "짚": 8890,
      "짜": 8891,
      "짝": 8892,
      "짤": 8893,
      "짧": 8894,
      "짬": 8895,
      "짭": 8896,
      "짰": 8897,
      "짱": 8898,
      "째": 8899,
      "쩀": 8900,
      "쩌": 8901,
      "쩍": 8902,
      "쩐": 8903,
      "쩔": 8904,
      "쩜": 8905,
      "쪼": 8906,
      "쪽": 8907,
      "쫄": 8908,
      "쫓": 8909,
      "쬐": 8910,
      "쭉": 8911,
      "쭤": 8912,
      "쯌": 8913,
      "쯔": 8914,
      "쯤": 8915,
      "찈": 8916,
      "찌": 8917,
      "찍": 8918,
      "찐": 8919,
      "찓": 8920,
      "찔": 8921,
      "찜": 8922,
      "찝": 8923,
      "찢": 8924,
      "차": 8925,
      "착": 8926,
      "찬": 8927,
      "찮": 8928,
      "찰": 8929,
      "참": 8930,
      "찹": 8931,
      "찻": 8932,
      "창": 8933,
      "찾": 8934,
      "채": 8935,
      "책": 8936,
      "챌": 8937,
      "챔": 8938,
      "챕": 8939,
      "챗": 8940,
      "챙": 8941,
      "챠": 8942,
      "처": 8943,
      "척": 8944,
      "천": 8945,
      "철": 8946,
      "첨": 8947,
      "첩": 8948,
      "첫": 8949,
      "청": 8950,
      "체": 8951,
      "첵": 8952,
      "첸": 8953,
      "첼": 8954,
      "첾": 8955,
      "쳇": 8956,
      "쳐": 8957,
      "쳤": 8958,
      "초": 8959,
      "촉": 8960,
      "촌": 8961,
      "촛": 8962,
      "총": 8963,
      "촬": 8964,
      "최": 8965,
      "쵸": 8966,
      "추": 8967,
      "축": 8968,
      "춘": 8969,
      "출": 8970,
      "춤": 8971,
      "춥": 8972,
      "충": 8973,
      "춰": 8974,
      "췄": 8975,
      "취": 8976,
      "츄": 8977,
      "츠": 8978,
      "측": 8979,
      "층": 8980,
      "츸": 8981,
      "칄": 8982,
      "치": 8983,
      "칙": 8984,
      "친": 8985,
      "칠": 8986,
      "침": 8987,
      "칩": 8988,
      "칫": 8989,
      "칭": 8990,
      "카": 8991,
      "칵": 8992,
      "칸": 8993,
      "칼": 8994,
      "캄": 8995,
      "캅": 8996,
      "캐": 8997,
      "캔": 8998,
      "캘": 8999,
      "캝": 9000,
      "캠": 9001,
      "캡": 9002,
      "캣": 9003,
      "컠": 9004,
      "커": 9005,
      "컨": 9006,
      "컫": 9007,
      "컬": 9008,
      "컴": 9009,
      "컵": 9010,
      "컷": 9011,
      "컸": 9012,
      "케": 9013,
      "켄": 9014,
      "켈": 9015,
      "켓": 9016,
      "켜": 9017,
      "켨": 9018,
      "켰": 9019,
      "코": 9020,
      "콕": 9021,
      "콘": 9022,
      "콜": 9023,
      "콤": 9024,
      "콩": 9025,
      "쾅": 9026,
      "쾌": 9027,
      "쿄": 9028,
      "쿠": 9029,
      "쿤": 9030,
      "쿨": 9031,
      "쿰": 9032,
      "쿵": 9033,
      "쿼": 9034,
      "퀀": 9035,
      "퀄": 9036,
      "퀘": 9037,
      "퀴": 9038,
      "퀸": 9039,
      "큇": 9040,
      "큐": 9041,
      "큘": 9042,
      "크": 9043,
      "큰": 9044,
      "클": 9045,
      "큼": 9046,
      "큽": 9047,
      "키": 9048,
      "킥": 9049,
      "킨": 9050,
      "킬": 9051,
      "킴": 9052,
      "킵": 9053,
      "킷": 9054,
      "킹": 9055,
      "타": 9056,
      "탁": 9057,
      "탄": 9058,
      "탈": 9059,
      "탐": 9060,
      "탑": 9061,
      "탔": 9062,
      "탕": 9063,
      "태": 9064,
      "택": 9065,
      "탠": 9066,
      "탬": 9067,
      "탭": 9068,
      "탯": 9069,
      "탱": 9070,
      "터": 9071,
      "턴": 9072,
      "털": 9073,
      "텀": 9074,
      "테": 9075,
      "텍": 9076,
      "텐": 9077,
      "텔": 9078,
      "템": 9079,
      "텟": 9080,
      "텨": 9081,
      "토": 9082,
      "톡": 9083,
      "톤": 9084,
      "톨": 9085,
      "톰": 9086,
      "톱": 9087,
      "통": 9088,
      "톻": 9089,
      "퇴": 9090,
      "투": 9091,
      "툭": 9092,
      "툰": 9093,
      "툴": 9094,
      "툼": 9095,
      "퉁": 9096,
      "퉈": 9097,
      "튀": 9098,
      "튜": 9099,
      "튠": 9100,
      "튬": 9101,
      "트": 9102,
      "특": 9103,
      "튼": 9104,
      "틀": 9105,
      "틈": 9106,
      "티": 9107,
      "틱": 9108,
      "틴": 9109,
      "틸": 9110,
      "팀": 9111,
      "팁": 9112,
      "팅": 9113,
      "파": 9114,
      "팍": 9115,
      "판": 9116,
      "팓": 9117,
      "팔": 9118,
      "팗": 9119,
      "팜": 9120,
      "팝": 9121,
      "팟": 9122,
      "팡": 9123,
      "팥": 9124,
      "패": 9125,
      "팩": 9126,
      "팬": 9127,
      "팸": 9128,
      "팹": 9129,
      "팻": 9130,
      "팽": 9131,
      "퍼": 9132,
      "펀": 9133,
      "펌": 9134,
      "펍": 9135,
      "펐": 9136,
      "펑": 9137,
      "페": 9138,
      "펙": 9139,
      "펜": 9140,
      "펠": 9141,
      "펩": 9142,
      "펭": 9143,
      "펴": 9144,
      "편": 9145,
      "펼": 9146,
      "평": 9147,
      "폐": 9148,
      "포": 9149,
      "폭": 9150,
      "폰": 9151,
      "폴": 9152,
      "폼": 9153,
      "폿": 9154,
      "표": 9155,
      "푸": 9156,
      "푼": 9157,
      "풀": 9158,
      "품": 9159,
      "풋": 9160,
      "풍": 9161,
      "풜": 9162,
      "퓨": 9163,
      "퓰": 9164,
      "프": 9165,
      "픈": 9166,
      "플": 9167,
      "픔": 9168,
      "피": 9169,
      "픽": 9170,
      "핀": 9171,
      "필": 9172,
      "핆": 9173,
      "핍": 9174,
      "핏": 9175,
      "핑": 9176,
      "하": 9177,
      "학": 9178,
      "한": 9179,
      "할": 9180,
      "핥": 9181,
      "함": 9182,
      "합": 9183,
      "핫": 9184,
      "항": 9185,
      "해": 9186,
      "핵": 9187,
      "핸": 9188,
      "핹": 9189,
      "햄": 9190,
      "햇": 9191,
      "했": 9192,
      "행": 9193,
      "향": 9194,
      "헅": 9195,
      "허": 9196,
      "헌": 9197,
      "헐": 9198,
      "험": 9199,
      "헛": 9200,
      "헝": 9201,
      "헤": 9202,
      "헥": 9203,
      "헨": 9204,
      "헬": 9205,
      "헴": 9206,
      "혀": 9207,
      "혁": 9208,
      "현": 9209,
      "혈": 9210,
      "혐": 9211,
      "협": 9212,
      "혔": 9213,
      "형": 9214,
      "혜": 9215,
      "호": 9216,
      "혹": 9217,
      "혼": 9218,
      "홀": 9219,
      "홈": 9220,
      "홉": 9221,
      "홋": 9222,
      "홍": 9223,
      "화": 9224,
      "확": 9225,
      "환": 9226,
      "활": 9227,
      "황": 9228,
      "회": 9229,
      "획": 9230,
      "횟": 9231,
      "횡": 9232,
      "효": 9233,
      "후": 9234,
      "훅": 9235,
      "훈": 9236,
      "훌": 9237,
      "훔": 9238,
      "훨": 9239,
      "훼": 9240,
      "휖": 9241,
      "휘": 9242,
      "휩": 9243,
      "휴": 9244,
      "흉": 9245,
      "흐": 9246,
      "흑": 9247,
      "흔": 9248,
      "흘": 9249,
      "흙": 9250,
      "흜": 9251,
      "흡": 9252,
      "흥": 9253,
      "흩": 9254,
      "희": 9255,
      "흰": 9256,
      "히": 9257,
      "힌": 9258,
      "힐": 9259,
      "힘": 9260,
      "힙": 9261,
      "": 9262,
      "": 9263,
      "": 9264,
      "": 9265,
      "": 9266,
      "": 9267,
      "": 9268,
      "": 9269,
      "": 9270,
      "": 9271,
      "": 9272,
      "": 9273,
      "": 9274,
      "": 9275,
      "": 9276,
      "": 9277,
      "": 9278,
      "": 9279,
      "": 9280,
      "": 9281,
      "": 9282,
      "": 9283,
      "": 9284,
      "": 9285,
      "": 9286,
      "": 9287,
      "": 9288,
      "": 9289,
      "": 9290,
      "": 9291,
      "": 9292,
      "ﬀ": 9293,
      "ﬁ": 9294,
      "ﬂ": 9295,
      "ﷲ": 9296,
      "ﷺ": 9297,
      "﷽": 9298,
      "︀": 9299,
      "︊": 9300,
      "︎": 9301,
      "️": 9302,
      "︵": 9303,
      "﹩": 9304,
      "ﺼ": 9305,
      "ﻟ": 9306,
      "ﻠ": 9307,
      "ﻪ": 9308,
      "﻿": 9309,
      "！": 9310,
      "＃": 9311,
      "％": 9312,
      "＆": 9313,
      "（": 9314,
      "）": 9315,
      "＊": 9316,
      "＋": 9317,
      "，": 9318,
      "－": 9319,
      "．": 9320,
      "／": 9321,
      "０": 9322,
      "１": 9323,
      "２": 9324,
      "３": 9325,
      "４": 9326,
      "５": 9327,
      "６": 9328,
      "７": 9329,
      "８": 9330,
      "９": 9331,
      "：": 9332,
      "；": 9333,
      "＜": 9334,
      "＝": 9335,
      "＞": 9336,
      "？": 9337,
      "Ａ": 9338,
      "Ｃ": 9339,
      "Ｄ": 9340,
      "Ｅ": 9341,
      "Ｇ": 9342,
      "Ｉ": 9343,
      "Ｍ": 9344,
      "Ｏ": 9345,
      "Ｐ": 9346,
      "Ｒ": 9347,
      "Ｓ": 9348,
      "Ｕ": 9349,
      "Ｖ": 9350,
      "Ｙ": 9351,
      "＼": 9352,
      "＾": 9353,
      "＿": 9354,
      "ｅ": 9355,
      "ｈ": 9356,
      "ｊ": 9357,
      "ｚ": 9358,
      "｜": 9359,
      "～": 9360,
      "｡": 9361,
      "･": 9362,
      "ﾄ": 9363,
      "ﾉ": 9364,
      "ﾎ": 9365,
      "ﾘ": 9366,
      "ﾙ": 9367,
      "ﾝ": 9368,
      "ﾞ": 9369,
      "ﾟ": 9370,
      "￡": 9371,
      "￣": 9372,
      "�": 9373,
      "￿": 9374,
      "𐀲": 9375,
      "𐉬": 9376,
      "𐌰": 9377,
      "𐌿": 9378,
      "𐍂": 9379,
      "𐍃": 9380,
      "𐍄": 9381,
      "𐎠": 9382,
      "𐎣": 9383,
      "𐎧": 9384,
      "𐎶": 9385,
      "𒀭": 9386,
      "𒅖": 9387,
      "𒉌": 9388,
      "𓀉": 9389,
      "𓁿": 9390,
      "𓂰": 9391,
      "𓃟": 9392,
      "𓋹": 9393,
      "𓎼": 9394,
      "𓎽": 9395,
      "𓏏": 9396,
      "𝄆": 9397,
      "𝌀": 9398,
      "𝍙": 9399,
      "𝐃": 9400,
      "𝐈": 9401,
      "𝐖": 9402,
      "𝐚": 9403,
      "𝐠": 9404,
      "𝐡": 9405,
      "𝐢": 9406,
      "𝐦": 9407,
      "𝐧": 9408,
      "𝐨": 9409,
      "𝐬": 9410,
      "𝐭": 9411,
      "𝐴": 9412,
      "𝐵": 9413,
      "𝐶": 9414,
      "𝐷": 9415,
      "𝐸": 9416,
      "𝐹": 9417,
      "𝐻": 9418,
      "𝐼": 9419,
      "𝐾": 9420,
      "𝐿": 9421,
      "𝑀": 9422,
      "𝑁": 9423,
      "𝑂": 9424,
      "𝑃": 9425,
      "𝑄": 9426,
      "𝑅": 9427,
      "𝑆": 9428,
      "𝑇": 9429,
      "𝑈": 9430,
      "𝑉": 9431,
      "𝑊": 9432,
      "𝑋": 9433,
      "𝑌": 9434,
      "𝑎": 9435,
      "𝑏": 9436,
      "𝑐": 9437,
      "𝑑": 9438,
      "𝑒": 9439,
      "𝑓": 9440,
      "𝑔": 9441,
      "𝑖": 9442,
      "𝑗": 9443,
      "𝑘": 9444,
      "𝑙": 9445,
      "𝑚": 9446,
      "𝑛": 9447,
      "𝑜": 9448,
      "𝑝": 9449,
      "𝑟": 9450,
      "𝑠": 9451,
      "𝑡": 9452,
      "𝑢": 9453,
      "𝑣": 9454,
      "𝑤": 9455,
      "𝑥": 9456,
      "𝑦": 9457,
      "𝑧": 9458,
      "𝑪": 9459,
      "𝑫": 9460,
      "𝑮": 9461,
      "𝑲": 9462,
      "𝑳": 9463,
      "𝑶": 9464,
      "𝑹": 9465,
      "𝒅": 9466,
      "𝒆": 9467,
      "𝒉": 9468,
      "𝒊": 9469,
      "𝒋": 9470,
      "𝒏": 9471,
      "𝒔": 9472,
      "𝒕": 9473,
      "𝒙": 9474,
      "𝒚": 9475,
      "𝒜": 9476,
      "𝒟": 9477,
      "𝒪": 9478,
      "𝒶": 9479,
      "𝒸": 9480,
      "𝒹": 9481,
      "𝒻": 9482,
      "𝒽": 9483,
      "𝒾": 9484,
      "𝓁": 9485,
      "𝓃": 9486,
      "𝓇": 9487,
      "𝓉": 9488,
      "𝓊": 9489,
      "𝓌": 9490,
      "𝓎": 9491,
      "𝓒": 9492,
      "𝓕": 9493,
      "𝓪": 9494,
      "𝓭": 9495,
      "𝓮": 9496,
      "𝓱": 9497,
      "𝓲": 9498,
      "𝓵": 9499,
      "𝓷": 9500,
      "𝓸": 9501,
      "𝓹": 9502,
      "𝓻": 9503,
      "𝓼": 9504,
      "𝓽": 9505,
      "𝔀": 9506,
      "𝔁": 9507,
      "𝔂": 9508,
      "𝔃": 9509,
      "𝔇": 9510,
      "𝔈": 9511,
      "𝔚": 9512,
      "𝔡": 9513,
      "𝔢": 9514,
      "𝔥": 9515,
      "𝔩": 9516,
      "𝔪": 9517,
      "𝔬": 9518,
      "𝔯": 9519,
      "𝔴": 9520,
      "𝕒": 9521,
      "𝕔": 9522,
      "𝕕": 9523,
      "𝕖": 9524,
      "𝕘": 9525,
      "𝕙": 9526,
      "𝕚": 9527,
      "𝕜": 9528,
      "𝕝": 9529,
      "𝕠": 9530,
      "𝕤": 9531,
      "𝕥": 9532,
      "𝕦": 9533,
      "𝕧": 9534,
      "𝕪": 9535,
      "𝕬": 9536,
      "𝕮": 9537,
      "𝕰": 9538,
      "𝕸": 9539,
      "𝕽": 9540,
      "𝖆": 9541,
      "𝖊": 9542,
      "𝖋": 9543,
      "𝖌": 9544,
      "𝖍": 9545,
      "𝖎": 9546,
      "𝖏": 9547,
      "𝖐": 9548,
      "𝖑": 9549,
      "𝖒": 9550,
      "𝖓": 9551,
      "𝖔": 9552,
      "𝖕": 9553,
      "𝖖": 9554,
      "𝖗": 9555,
      "𝖘": 9556,
      "𝖚": 9557,
      "𝖛": 9558,
      "𝖜": 9559,
      "𝖝": 9560,
      "𝖞": 9561,
      "𝖟": 9562,
      "𝗔": 9563,
      "𝗗": 9564,
      "𝗚": 9565,
      "𝗟": 9566,
      "𝗠": 9567,
      "𝗣": 9568,
      "𝗥": 9569,
      "𝗦": 9570,
      "𝗧": 9571,
      "𝗨": 9572,
      "𝗮": 9573,
      "𝗱": 9574,
      "𝗲": 9575,
      "𝗵": 9576,
      "𝗶": 9577,
      "𝗸": 9578,
      "𝗹": 9579,
      "𝗺": 9580,
      "𝗻": 9581,
      "𝗼": 9582,
      "𝗽": 9583,
      "𝗿": 9584,
      "𝘀": 9585,
      "𝘁": 9586,
      "𝘂": 9587,
      "𝘆": 9588,
      "𝙘": 9589,
      "𝙚": 9590,
      "𝙡": 9591,
      "𝙣": 9592,
      "𝙩": 9593,
      "𝙪": 9594,
      "𝙬": 9595,
      "𝙴": 9596,
      "𝙷": 9597,
      "𝚆": 9598,
      "𝚊": 9599,
      "𝚌": 9600,
      "𝚍": 9601,
      "𝚎": 9602,
      "𝚏": 9603,
      "𝚑": 9604,
      "𝚒": 9605,
      "𝚕": 9606,
      "𝚗": 9607,
      "𝚘": 9608,
      "𝚛": 9609,
      "𝚜": 9610,
      "𝚝": 9611,
      "𝚞": 9612,
      "𝚟": 9613,
      "𝚠": 9614,
      "𝚢": 9615,
      "𝛊": 9616,
      "𝛋": 9617,
      "𝛞": 9618,
      "𝛼": 9619,
      "𝛽": 9620,
      "𝛾": 9621,
      "𝛿": 9622,
      "𝜂": 9623,
      "𝜃": 9624,
      "𝜅": 9625,
      "𝜆": 9626,
      "𝜇": 9627,
      "𝜉": 9628,
      "𝜋": 9629,
      "𝜎": 9630,
      "𝜐": 9631,
      "𝜓": 9632,
      "𝜔": 9633,
      "𝜼": 9634,
      "𝜽": 9635,
      "𝝰": 9636,
      "𝟎": 9637,
      "𝟏": 9638,
      "𝟐": 9639,
      "𝟑": 9640,
      "𝟒": 9641,
      "𝟓": 9642,
      "𝟔": 9643,
      "𝟖": 9644,
      "🅚": 9645,
      "🅰": 9646,
      "🅱": 9647,
      "🅾": 9648,
      "🆓": 9649,
      "🆔": 9650,
      "🆙": 9651,
      "🇦": 9652,
      "🇧": 9653,
      "🇨": 9654,
      "🇩": 9655,
      "🇪": 9656,
      "🇫": 9657,
      "🇬": 9658,
      "🇭": 9659,
      "🇮": 9660,
      "🇯": 9661,
      "🇰": 9662,
      "🇱": 9663,
      "🇲": 9664,
      "🇳": 9665,
      "🇴": 9666,
      "🇵": 9667,
      "🇷": 9668,
      "🇸": 9669,
      "🇹": 9670,
      "🇺": 9671,
      "🇻": 9672,
      "🇼": 9673,
      "🇽": 9674,
      "🇾": 9675,
      "🇿": 9676,
      "🌀": 9677,
      "🌂": 9678,
      "🌃": 9679,
      "🌄": 9680,
      "🌅": 9681,
      "🌆": 9682,
      "🌇": 9683,
      "🌈": 9684,
      "🌉": 9685,
      "🌊": 9686,
      "🌋": 9687,
      "🌌": 9688,
      "🌍": 9689,
      "🌎": 9690,
      "🌏": 9691,
      "🌐": 9692,
      "🌑": 9693,
      "🌕": 9694,
      "🌖": 9695,
      "🌙": 9696,
      "🌝": 9697,
      "🌞": 9698,
      "🌟": 9699,
      "🌠": 9700,
      "🌡": 9701,
      "🌢": 9702,
      "🌤": 9703,
      "🌥": 9704,
      "🌦": 9705,
      "🌧": 9706,
      "🌨": 9707,
      "🌩": 9708,
      "🌪": 9709,
      "🌫": 9710,
      "🌬": 9711,
      "🌭": 9712,
      "🌮": 9713,
      "🌯": 9714,
      "🌱": 9715,
      "🌲": 9716,
      "🌳": 9717,
      "🌴": 9718,
      "🌵": 9719,
      "🌶": 9720,
      "🌷": 9721,
      "🌸": 9722,
      "🌹": 9723,
      "🌺": 9724,
      "🌻": 9725,
      "🌼": 9726,
      "🌽": 9727,
      "🌾": 9728,
      "🌿": 9729,
      "🍀": 9730,
      "🍁": 9731,
      "🍂": 9732,
      "🍃": 9733,
      "🍄": 9734,
      "🍅": 9735,
      "🍆": 9736,
      "🍇": 9737,
      "🍈": 9738,
      "🍉": 9739,
      "🍊": 9740,
      "🍋": 9741,
      "🍌": 9742,
      "🍍": 9743,
      "🍎": 9744,
      "🍏": 9745,
      "🍑": 9746,
      "🍒": 9747,
      "🍓": 9748,
      "🍔": 9749,
      "🍕": 9750,
      "🍖": 9751,
      "🍗": 9752,
      "🍘": 9753,
      "🍙": 9754,
      "🍚": 9755,
      "🍛": 9756,
      "🍜": 9757,
      "🍝": 9758,
      "🍞": 9759,
      "🍟": 9760,
      "🍡": 9761,
      "🍢": 9762,
      "🍣": 9763,
      "🍤": 9764,
      "🍥": 9765,
      "🍦": 9766,
      "🍨": 9767,
      "🍩": 9768,
      "🍪": 9769,
      "🍫": 9770,
      "🍬": 9771,
      "🍭": 9772,
      "🍮": 9773,
      "🍯": 9774,
      "🍰": 9775,
      "🍱": 9776,
      "🍲": 9777,
      "🍳": 9778,
      "🍴": 9779,
      "🍵": 9780,
      "🍶": 9781,
      "🍷": 9782,
      "🍸": 9783,
      "🍹": 9784,
      "🍺": 9785,
      "🍻": 9786,
      "🍼": 9787,
      "🍽": 9788,
      "🍾": 9789,
      "🍿": 9790,
      "🎀": 9791,
      "🎁": 9792,
      "🎂": 9793,
      "🎃": 9794,
      "🎄": 9795,
      "🎅": 9796,
      "🎆": 9797,
      "🎇": 9798,
      "🎈": 9799,
      "🎉": 9800,
      "🎊": 9801,
      "🎒": 9802,
      "🎓": 9803,
      "🎕": 9804,
      "🎖": 9805,
      "🎗": 9806,
      "🎙": 9807,
      "🎚": 9808,
      "🎛": 9809,
      "🎞": 9810,
      "🎟": 9811,
      "🎢": 9812,
      "🎣": 9813,
      "🎤": 9814,
      "🎥": 9815,
      "🎧": 9816,
      "🎨": 9817,
      "🎩": 9818,
      "🎬": 9819,
      "🎭": 9820,
      "🎮": 9821,
      "🎯": 9822,
      "🎲": 9823,
      "🎵": 9824,
      "🎶": 9825,
      "🎸": 9826,
      "🎹": 9827,
      "🎺": 9828,
      "🎻": 9829,
      "🎼": 9830,
      "🎾": 9831,
      "🎿": 9832,
      "🏀": 9833,
      "🏁": 9834,
      "🏂": 9835,
      "🏃": 9836,
      "🏄": 9837,
      "🏅": 9838,
      "🏆": 9839,
      "🏇": 9840,
      "🏈": 9841,
      "🏉": 9842,
      "🏊": 9843,
      "🏋": 9844,
      "🏌": 9845,
      "🏍": 9846,
      "🏎": 9847,
      "🏐": 9848,
      "🏑": 9849,
      "🏒": 9850,
      "🏓": 9851,
      "🏔": 9852,
      "🏕": 9853,
      "🏖": 9854,
      "🏗": 9855,
      "🏘": 9856,
      "🏙": 9857,
      "🏚": 9858,
      "🏛": 9859,
      "🏜": 9860,
      "🏝": 9861,
      "🏞": 9862,
      "🏟": 9863,
      "🏠": 9864,
      "🏡": 9865,
      "🏢": 9866,
      "🏣": 9867,
      "🏥": 9868,
      "🏦": 9869,
      "🏨": 9870,
      "🏪": 9871,
      "🏫": 9872,
      "🏭": 9873,
      "🏯": 9874,
      "🏰": 9875,
      "🏳": 9876,
      "🏴": 9877,
      "🏷": 9878,
      "🏸": 9879,
      "🏹": 9880,
      "🏺": 9881,
      "🏻": 9882,
      "🏼": 9883,
      "🏽": 9884,
      "🏾": 9885,
      "🏿": 9886,
      "🐀": 9887,
      "🐂": 9888,
      "🐄": 9889,
      "🐅": 9890,
      "🐇": 9891,
      "🐈": 9892,
      "🐉": 9893,
      "🐊": 9894,
      "🐋": 9895,
      "🐌": 9896,
      "🐍": 9897,
      "🐎": 9898,
      "🐏": 9899,
      "🐐": 9900,
      "🐑": 9901,
      "🐒": 9902,
      "🐓": 9903,
      "🐔": 9904,
      "🐕": 9905,
      "🐖": 9906,
      "🐗": 9907,
      "🐘": 9908,
      "🐙": 9909,
      "🐚": 9910,
      "🐛": 9911,
      "🐜": 9912,
      "🐝": 9913,
      "🐞": 9914,
      "🐟": 9915,
      "🐠": 9916,
      "🐡": 9917,
      "🐢": 9918,
      "🐣": 9919,
      "🐤": 9920,
      "🐥": 9921,
      "🐦": 9922,
      "🐧": 9923,
      "🐨": 9924,
      "🐩": 9925,
      "🐪": 9926,
      "🐫": 9927,
      "🐬": 9928,
      "🐭": 9929,
      "🐮": 9930,
      "🐯": 9931,
      "🐰": 9932,
      "🐱": 9933,
      "🐲": 9934,
      "🐳": 9935,
      "🐴": 9936,
      "🐵": 9937,
      "🐶": 9938,
      "🐷": 9939,
      "🐸": 9940,
      "🐹": 9941,
      "🐺": 9942,
      "🐻": 9943,
      "🐼": 9944,
      "🐽": 9945,
      "🐾": 9946,
      "🐿": 9947,
      "👀": 9948,
      "👁": 9949,
      "👂": 9950,
      "👃": 9951,
      "👄": 9952,
      "👅": 9953,
      "👆": 9954,
      "👇": 9955,
      "👈": 9956,
      "👉": 9957,
      "👊": 9958,
      "👋": 9959,
      "👌": 9960,
      "👍": 9961,
      "👎": 9962,
      "👏": 9963,
      "👐": 9964,
      "👑": 9965,
      "👒": 9966,
      "👓": 9967,
      "👔": 9968,
      "👕": 9969,
      "👖": 9970,
      "👗": 9971,
      "👙": 9972,
      "👚": 9973,
      "👛": 9974,
      "👜": 9975,
      "👞": 9976,
      "👟": 9977,
      "👠": 9978,
      "👡": 9979,
      "👢": 9980,
      "👣": 9981,
      "👤": 9982,
      "👥": 9983,
      "👦": 9984,
      "👧": 9985,
      "👨": 9986,
      "👩": 9987,
      "👪": 9988,
      "👫": 9989,
      "👬": 9990,
      "👭": 9991,
      "👮": 9992,
      "👯": 9993,
      "👰": 9994,
      "👱": 9995,
      "👳": 9996,
      "👴": 9997,
      "👵": 9998,
      "👶": 9999,
      "👷": 10000,
      "👸": 10001,
      "👹": 10002,
      "👺": 10003,
      "👻": 10004,
      "👼": 10005,
      "👽": 10006,
      "👾": 10007,
      "👿": 10008,
      "💀": 10009,
      "💁": 10010,
      "💂": 10011,
      "💃": 10012,
      "💄": 10013,
      "💅": 10014,
      "💆": 10015,
      "💇": 10016,
      "💉": 10017,
      "💊": 10018,
      "💋": 10019,
      "💌": 10020,
      "💍": 10021,
      "💎": 10022,
      "💏": 10023,
      "💐": 10024,
      "💑": 10025,
      "💓": 10026,
      "💔": 10027,
      "💕": 10028,
      "💖": 10029,
      "💗": 10030,
      "💘": 10031,
      "💙": 10032,
      "💚": 10033,
      "💛": 10034,
      "💜": 10035,
      "💝": 10036,
      "💞": 10037,
      "💟": 10038,
      "💠": 10039,
      "💡": 10040,
      "💢": 10041,
      "💣": 10042,
      "💤": 10043,
      "💥": 10044,
      "💦": 10045,
      "💧": 10046,
      "💨": 10047,
      "💩": 10048,
      "💪": 10049,
      "💫": 10050,
      "💬": 10051,
      "💭": 10052,
      "💯": 10053,
      "💰": 10054,
      "💳": 10055,
      "💴": 10056,
      "💵": 10057,
      "💷": 10058,
      "💸": 10059,
      "💺": 10060,
      "💻": 10061,
      "💼": 10062,
      "💾": 10063,
      "💿": 10064,
      "📁": 10065,
      "📂": 10066,
      "📃": 10067,
      "📄": 10068,
      "📅": 10069,
      "📆": 10070,
      "📈": 10071,
      "📉": 10072,
      "📊": 10073,
      "📋": 10074,
      "📌": 10075,
      "📍": 10076,
      "📎": 10077,
      "📏": 10078,
      "📐": 10079,
      "📑": 10080,
      "📒": 10081,
      "📓": 10082,
      "📕": 10083,
      "📖": 10084,
      "📘": 10085,
      "📚": 10086,
      "📜": 10087,
      "📝": 10088,
      "📞": 10089,
      "📟": 10090,
      "📡": 10091,
      "📢": 10092,
      "📣": 10093,
      "📤": 10094,
      "📥": 10095,
      "📦": 10096,
      "📧": 10097,
      "📩": 10098,
      "📬": 10099,
      "📮": 10100,
      "📰": 10101,
      "📱": 10102,
      "📲": 10103,
      "📷": 10104,
      "📸": 10105,
      "📹": 10106,
      "📺": 10107,
      "📻": 10108,
      "📽": 10109,
      "🔀": 10110,
      "🔁": 10111,
      "🔄": 10112,
      "🔅": 10113,
      "🔈": 10114,
      "🔊": 10115,
      "🔋": 10116,
      "🔌": 10117,
      "🔍": 10118,
      "🔎": 10119,
      "🔏": 10120,
      "🔐": 10121,
      "🔑": 10122,
      "🔒": 10123,
      "🔓": 10124,
      "🔔": 10125,
      "🔗": 10126,
      "🔛": 10127,
      "🔜": 10128,
      "🔝": 10129,
      "🔞": 10130,
      "🔟": 10131,
      "🔠": 10132,
      "🔡": 10133,
      "🔢": 10134,
      "🔤": 10135,
      "🔥": 10136,
      "🔦": 10137,
      "🔧": 10138,
      "🔨": 10139,
      "🔩": 10140,
      "🔪": 10141,
      "🔫": 10142,
      "🔬": 10143,
      "🔭": 10144,
      "🔮": 10145,
      "🔯": 10146,
      "🔰": 10147,
      "🔲": 10148,
      "🔳": 10149,
      "🔴": 10150,
      "🔵": 10151,
      "🔶": 10152,
      "🔷": 10153,
      "🔸": 10154,
      "🔹": 10155,
      "🔺": 10156,
      "🔻": 10157,
      "🔼": 10158,
      "🔽": 10159,
      "🔾": 10160,
      "🔿": 10161,
      "🕅": 10162,
      "🕉": 10163,
      "🕊": 10164,
      "🕐": 10165,
      "🕒": 10166,
      "🕙": 10167,
      "🕯": 10168,
      "🕰": 10169,
      "🕳": 10170,
      "🕵": 10171,
      "🕶": 10172,
      "🕷": 10173,
      "🕸": 10174,
      "🕹": 10175,
      "🕺": 10176,
      "🖀": 10177,
      "🖉": 10178,
      "🖋": 10179,
      "🖌": 10180,
      "🖐": 10181,
      "🖤": 10182,
      "🖥": 10183,
      "🖱": 10184,
      "🖼": 10185,
      "🗂": 10186,
      "🗑": 10187,
      "🗓": 10188,
      "🗝": 10189,
      "🗡": 10190,
      "🗣": 10191,
      "🗨": 10192,
      "🗳": 10193,
      "🗺": 10194,
      "🗻": 10195,
      "🗼": 10196,
      "🗽": 10197,
      "😀": 10198,
      "😁": 10199,
      "😂": 10200,
      "😃": 10201,
      "😄": 10202,
      "😅": 10203,
      "😆": 10204,
      "😇": 10205,
      "😈": 10206,
      "😉": 10207,
      "😊": 10208,
      "😋": 10209,
      "😌": 10210,
      "😍": 10211,
      "😎": 10212,
      "😏": 10213,
      "😐": 10214,
      "😑": 10215,
      "😒": 10216,
      "😓": 10217,
      "😔": 10218,
      "😕": 10219,
      "😖": 10220,
      "😗": 10221,
      "😘": 10222,
      "😙": 10223,
      "😚": 10224,
      "😛": 10225,
      "😜": 10226,
      "😝": 10227,
      "😞": 10228,
      "😟": 10229,
      "😠": 10230,
      "😡": 10231,
      "😢": 10232,
      "😣": 10233,
      "😤": 10234,
      "😥": 10235,
      "😦": 10236,
      "😧": 10237,
      "😨": 10238,
      "😩": 10239,
      "😪": 10240,
      "😫": 10241,
      "😬": 10242,
      "😭": 10243,
      "😮": 10244,
      "😯": 10245,
      "😰": 10246,
      "😱": 10247,
      "😲": 10248,
      "😳": 10249,
      "😴": 10250,
      "😵": 10251,
      "😶": 10252,
      "😷": 10253,
      "😸": 10254,
      "😹": 10255,
      "😺": 10256,
      "😻": 10257,
      "😼": 10258,
      "😽": 10259,
      "😾": 10260,
      "😿": 10261,
      "🙀": 10262,
      "🙁": 10263,
      "🙂": 10264,
      "🙃": 10265,
      "🙄": 10266,
      "🙅": 10267,
      "🙆": 10268,
      "🙇": 10269,
      "🙈": 10270,
      "🙉": 10271,
      "🙊": 10272,
      "🙋": 10273,
      "🙌": 10274,
      "🙍": 10275,
      "🙎": 10276,
      "🙏": 10277,
      "🙦": 10278,
      "🚀": 10279,
      "🚁": 10280,
      "🚂": 10281,
      "🚃": 10282,
      "🚄": 10283,
      "🚆": 10284,
      "🚉": 10285,
      "🚊": 10286,
      "🚌": 10287,
      "🚏": 10288,
      "🚑": 10289,
      "🚒": 10290,
      "🚓": 10291,
      "🚔": 10292,
      "🚕": 10293,
      "🚗": 10294,
      "🚘": 10295,
      "🚙": 10296,
      "🚚": 10297,
      "🚛": 10298,
      "🚜": 10299,
      "🚠": 10300,
      "🚢": 10301,
      "🚣": 10302,
      "🚤": 10303,
      "🚦": 10304,
      "🚧": 10305,
      "🚨": 10306,
      "🚩": 10307,
      "🚪": 10308,
      "🚫": 10309,
      "🚬": 10310,
      "🚭": 10311,
      "🚯": 10312,
      "🚰": 10313,
      "🚱": 10314,
      "🚲": 10315,
      "🚴": 10316,
      "🚵": 10317,
      "🚶": 10318,
      "🚷": 10319,
      "🚹": 10320,
      "🚽": 10321,
      "🚿": 10322,
      "🛀": 10323,
      "🛁": 10324,
      "🛃": 10325,
      "🛅": 10326,
      "🛋": 10327,
      "🛌": 10328,
      "🛍": 10329,
      "🛎": 10330,
      "🛏": 10331,
      "🛑": 10332,
      "🛒": 10333,
      "🛔": 10334,
      "🛠": 10335,
      "🛡": 10336,
      "🛢": 10337,
      "🛣": 10338,
      "🛤": 10339,
      "🛥": 10340,
      "🛩": 10341,
      "🛫": 10342,
      "🛬": 10343,
      "🛰": 10344,
      "🛴": 10345,
      "🛵": 10346,
      "🛶": 10347,
      "🛸": 10348,
      "🛹": 10349,
      "🟒": 10350,
      "🟡": 10351,
      "🟢": 10352,
      "🟣": 10353,
      "🟥": 10354,
      "🟩": 10355,
      "🤇": 10356,
      "🤉": 10357,
      "🤌": 10358,
      "🤍": 10359,
      "🤏": 10360,
      "🤐": 10361,
      "🤑": 10362,
      "🤒": 10363,
      "🤓": 10364,
      "🤔": 10365,
      "🤕": 10366,
      "🤖": 10367,
      "🤗": 10368,
      "🤘": 10369,
      "🤙": 10370,
      "🤚": 10371,
      "🤛": 10372,
      "🤜": 10373,
      "🤝": 10374,
      "🤞": 10375,
      "🤟": 10376,
      "🤠": 10377,
      "🤡": 10378,
      "🤢": 10379,
      "🤣": 10380,
      "🤤": 10381,
      "🤥": 10382,
      "🤦": 10383,
      "🤧": 10384,
      "🤨": 10385,
      "🤩": 10386,
      "🤪": 10387,
      "🤫": 10388,
      "🤬": 10389,
      "🤭": 10390,
      "🤮": 10391,
      "🤯": 10392,
      "🤰": 10393,
      "🤱": 10394,
      "🤲": 10395,
      "🤳": 10396,
      "🤴": 10397,
      "🤵": 10398,
      "🤷": 10399,
      "🤸": 10400,
      "🤹": 10401,
      "🤺": 10402,
      "🤼": 10403,
      "🤽": 10404,
      "🤿": 10405,
      "🥀": 10406,
      "🥁": 10407,
      "🥂": 10408,
      "🥃": 10409,
      "🥄": 10410,
      "🥅": 10411,
      "🥇": 10412,
      "🥈": 10413,
      "🥉": 10414,
      "🥊": 10415,
      "🥐": 10416,
      "🥑": 10417,
      "🥒": 10418,
      "🥓": 10419,
      "🥔": 10420,
      "🥕": 10421,
      "🥖": 10422,
      "🥗": 10423,
      "🥘": 10424,
      "🥚": 10425,
      "🥛": 10426,
      "🥜": 10427,
      "🥞": 10428,
      "🥢": 10429,
      "🥣": 10430,
      "🥤": 10431,
      "🥥": 10432,
      "🥦": 10433,
      "🥧": 10434,
      "🥩": 10435,
      "🥪": 10436,
      "🥬": 10437,
      "🥭": 10438,
      "🥮": 10439,
      "🥯": 10440,
      "🥰": 10441,
      "🥲": 10442,
      "🥳": 10443,
      "🥴": 10444,
      "🥵": 10445,
      "🥶": 10446,
      "🥸": 10447,
      "🥹": 10448,
      "🥺": 10449,
      "🥾": 10450,
      "🥿": 10451,
      "🦀": 10452,
      "🦁": 10453,
      "🦃": 10454,
      "🦄": 10455,
      "🦅": 10456,
      "🦆": 10457,
      "🦇": 10458,
      "🦈": 10459,
      "🦉": 10460,
      "🦊": 10461,
      "🦋": 10462,
      "🦌": 10463,
      "🦍": 10464,
      "🦎": 10465,
      "🦏": 10466,
      "🦐": 10467,
      "🦑": 10468,
      "🦒": 10469,
      "🦓": 10470,
      "🦖": 10471,
      "🦘": 10472,
      "🦙": 10473,
      "🦜": 10474,
      "🦝": 10475,
      "🦞": 10476,
      "🦟": 10477,
      "🦠": 10478,
      "🦢": 10479,
      "🦥": 10480,
      "🦮": 10481,
      "🦯": 10482,
      "🦰": 10483,
      "🦱": 10484,
      "🦲": 10485,
      "🦳": 10486,
      "🦴": 10487,
      "🦷": 10488,
      "🦸": 10489,
      "🦹": 10490,
      "🦺": 10491,
      "🦾": 10492,
      "🧀": 10493,
      "🧁": 10494,
      "🧂": 10495,
      "🧄": 10496,
      "🧈": 10497,
      "🧊": 10498,
      "🧌": 10499,
      "🧎": 10500,
      "🧐": 10501,
      "🧑": 10502,
      "🧒": 10503,
      "🧓": 10504,
      "🧔": 10505,
      "🧕": 10506,
      "🧖": 10507,
      "🧗": 10508,
      "🧘": 10509,
      "🧙": 10510,
      "🧚": 10511,
      "🧛": 10512,
      "🧜": 10513,
      "🧝": 10514,
      "🧞": 10515,
      "🧟": 10516,
      "🧠": 10517,
      "🧡": 10518,
      "🧢": 10519,
      "🧣": 10520,
      "🧤": 10521,
      "🧥": 10522,
      "🧦": 10523,
      "🧧": 10524,
      "🧨": 10525,
      "🧩": 10526,
      "🧪": 10527,
      "🧫": 10528,
      "🧬": 10529,
      "🧭": 10530,
      "🧮": 10531,
      "🧯": 10532,
      "🧰": 10533,
      "🧱": 10534,
      "🧳": 10535,
      "🧴": 10536,
      "🧵": 10537,
      "🧶": 10538,
      "🧸": 10539,
      "🧹": 10540,
      "🧺": 10541,
      "🧼": 10542,
      "🧽": 10543,
      "🧿": 10544,
      "🩗": 10545,
      "🩪": 10546,
      "🩱": 10547,
      "🩸": 10548,
      "🩺": 10549,
      "🪄": 10550,
      "🪐": 10551,
      "🪑": 10552,
      "🪛": 10553,
      "🪨": 10554,
      "🪵": 10555,
      "🫖": 10556,
      "🫣": 10557,
      "🫦": 10558,
      "🬪": 10559,
      "🳴": 10560,
      "𠀋": 10561,
      "􀀀": 10562,
      "􏿿": 10563,
      " t": 10564,
      " a": 10565,
      "he": 10566,
      "in": 10567,
      "re": 10568,
      "on": 10569,
      " s": 10570,
      "er": 10571,
      " c": 10572,
      " the": 10573,
      "at": 10574,
      "  ": 10575,
      "en": 10576,
      "or": 10577,
      "es": 10578,
      "nd": 10579,
      " p": 10580,
      "is": 10581,
      " d": 10582,
      "it": 10583,
      "ou": 10584,
      "an": 10585,
      " w": 10586,
      " o": 10587,
      " m": 10588,
      " and": 10589,
      " f": 10590,
      "al": 10591,
      "ing": 10592,
      " to": 10593,
      " b": 10594,
      " in": 10595,
      "ar": 10596,
      "le": 10597,
      "ic": 10598,
      "ion": 10599,
      "ed": 10600,
      " of": 10601,
      "ro": 10602,
      "as": 10603,
      " e": 10604,
      "ent": 10605,
      " h": 10606,
      "    ": 10607,
      " l": 10608,
      "el": 10609,
      "ct": 10610,
      "us": 10611,
      "om": 10612,
      " n": 10613,
      "\n\n": 10614,
      " th": 10615,
      " y": 10616,
      " re": 10617,
      " is": 10618,
      "et": 10619,
      "il": 10620,
      " I": 10621,
      " you": 10622,
      "id": 10623,
      "im": 10624,
      "ve": 10625,
      "am": 10626,
      " g": 10627,
      "AM": 10628,
      "E_": 10629,
      "NAM": 10630,
      "NAME_": 10631,
      "ot": 10632,
      " de": 10633,
      "ut": 10634,
      "st": 10635,
      " T": 10636,
      " pro": 10637,
      "ch": 10638,
      " that": 10639,
      "ol": 10640,
      "ation": 10641,
      "ow": 10642,
      "un": 10643,
      "qu": 10644,
      " for": 10645,
      " he": 10646,
      "ad": 10647,
      " be": 10648,
      "ce": 10649,
      " con": 10650,
      "od": 10651,
      "ig": 10652,
      "if": 10653,
      "os": 10654,
      "ul": 10655,
      " v": 10656,
      " st": 10657,
      " NAME_": 10658,
      " as": 10659,
      "ra": 10660,
      "ith": 10661,
      "ur": 10662,
      " an": 10663,
      " it": 10664,
      " com": 10665,
      "ay": 10666,
      " A": 10667,
      "ate": 10668,
      "ir": 10669,
      "ge": 10670,
      " on": 10671,
      "ers": 10672,
      "um": 10673,
      "est": 10674,
      " us": 10675,
      " or": 10676,
      " with": 10677,
      " can": 10678,
      " S": 10679,
      "ly": 10680,
      " al": 10681,
      "ant": 10682,
      "\n    ": 10683,
      "ess": 10684,
      " \"": 10685,
      "ri": 10686,
      " ex": 10687,
      "ab": 10688,
      " The": 10689,
      "em": 10690,
      "ist": 10691,
      "pe": 10692,
      "ort": 10693,
      " su": 10694,
      "ver": 10695,
      "ke": 10696,
      " C": 10697,
      " are": 10698,
      " ha": 10699,
      "res": 10700,
      "ment": 10701,
      " en": 10702,
      " qu": 10703,
      "ac": 10704,
      " se": 10705,
      "iv": 10706,
      "pp": 10707,
      "ere": 10708,
      "se": 10709,
      "her": 10710,
      " wh": 10711,
      "ction": 10712,
      "ld": 10713,
      "out": 10714,
      "``": 10715,
      "ity": 10716,
      "oc": 10717,
      "imp": 10718,
      "nt": 10719,
      " ne": 10720,
      "iz": 10721,
      "ust": 10722,
      " P": 10723,
      "ore": 10724,
      " your": 10725,
      " H": 10726,
      " r": 10727,
      " le": 10728,
      "ure": 10729,
      "age": 10730,
      "ill": 10731,
      "th": 10732,
      " NAME_1": 10733,
      "op": 10734,
      " not": 10735,
      "ter": 10736,
      " un": 10737,
      " =": 10738,
      " comp": 10739,
      "ical": 10740,
      "ide": 10741,
      "ud": 10742,
      "ain": 10743,
      "ies": 10744,
      "for": 10745,
      "and": 10746,
      "igh": 10747,
      " imp": 10748,
      "pt": 10749,
      " 1": 10750,
      " k": 10751,
      " u": 10752,
      "ive": 10753,
      " (": 10754,
      "ould": 10755,
      " have": 10756,
      "ial": 10757,
      "ine": 10758,
      " ch": 10759,
      "art": 10760,
      " me": 10761,
      "du": 10762,
      "end": 10763,
      " M": 10764,
      "pl": 10765,
      "ie": 10766,
      "ame": 10767,
      "form": 10768,
      " ab": 10769,
      "per": 10770,
      " res": 10771,
      "our": 10772,
      "ect": 10773,
      " her": 10774,
      " cont": 10775,
      "rom": 10776,
      "og": 10777,
      " D": 10778,
      " E": 10779,
      "cl": 10780,
      "ell": 10781,
      "are": 10782,
      " by": 10783,
      " B": 10784,
      " te": 10785,
      " ma": 10786,
      " was": 10787,
      " `": 10788,
      "ther": 10789,
      " sh": 10790,
      " at": 10791,
      " la": 10792,
      "ions": 10793,
      " tr": 10794,
      " L": 10795,
      " pl": 10796,
      "ich": 10797,
      " do": 10798,
      "able": 10799,
      " we": 10800,
      "ult": 10801,
      "\n        ": 10802,
      "ight": 10803,
      "ib": 10804,
      " int": 10805,
      " W": 10806,
      "all": 10807,
      " 2": 10808,
      "ile": 10809,
      "act": 10810,
      "ang": 10811,
      "so": 10812,
      "lp": 10813,
      " F": 10814,
      "cess": 10815,
      " ad": 10816,
      "ag": 10817,
      " fe": 10818,
      "elf": 10819,
      "ue": 10820,
      "xt": 10821,
      " des": 10822,
      " mod": 10823,
      " help": 10824,
      "ome": 10825,
      "ous": 10826,
      " cl": 10827,
      " wor": 10828,
      "ire": 10829,
      " my": 10830,
      " their": 10831,
      "ass": 10832,
      " j": 10833,
      "ific": 10834,
      "ind": 10835,
      " this": 10836,
      "his": 10837,
      "ata": 10838,
      " from": 10839,
      " prov": 10840,
      "ip": 10841,
      " produ": 10842,
      "00": 10843,
      " but": 10844,
      " other": 10845,
      " ar": 10846,
      " any": 10847,
      " R": 10848,
      "The": 10849,
      " will": 10850,
      " ac": 10851,
      "ations": 10852,
      "\n*": 10853,
      "ound": 10854,
      "ia": 10855,
      " G": 10856,
      "```": 10857,
      " che": 10858,
      "king": 10859,
      "ase": 10860,
      " use": 10861,
      "ry": 10862,
      " spe": 10863,
      "ans": 10864,
      " It": 10865,
      " kn": 10866,
      " used": 10867,
      " import": 10868,
      " all": 10869,
      "ff": 10870,
      " has": 10871,
      "vel": 10872,
      "ence": 10873,
      "ice": 10874,
      "ance": 10875,
      " incl": 10876,
      " per": 10877,
      "ack": 10878,
      " man": 10879,
      "ard": 10880,
      "int": 10881,
      " que": 10882,
      " -": 10883,
      "\n```": 10884,
      "ual": 10885,
      " app": 10886,
      " und": 10887,
      " also": 10888,
      " more": 10889,
      "ep": 10890,
      " NAME_2": 10891,
      "ient": 10892,
      " N": 10893,
      " U": 10894,
      " п": 10895,
      "ated": 10896,
      " am": 10897,
      " pre": 10898,
      " em": 10899,
      " ser": 10900,
      " и": 10901,
      " lo": 10902,
      " O": 10903,
      "ari": 10904,
      "ign": 10905,
      " ind": 10906,
      " so": 10907,
      "ime": 10908,
      " such": 10909,
      "ful": 10910,
      "ks": 10911,
      " includ": 10912,
      " inform": 10913,
      " This": 10914,
      " which": 10915,
      "ach": 10916,
      "ace": 10917,
      "ст": 10918,
      "ces": 10919,
      " they": 10920,
      "iff": 10921,
      " out": 10922,
      " cre": 10923,
      "ens": 10924,
      " в": 10925,
      " comm": 10926,
      " sc": 10927,
      " li": 10928,
      " model": 10929,
      " par": 10930,
      " dis": 10931,
      "pon": 10932,
      "ru": 10933,
      " know": 10934,
      "gh": 10935,
      "()": 10936,
      " sy": 10937,
      " its": 10938,
      " go": 10939,
      "te": 10940,
      "ition": 10941,
      " important": 10942,
      "\n\nI": 10943,
      "ress": 10944,
      "--": 10945,
      " spec": 10946,
      "ost": 10947,
      "ode": 10948,
      "ary": 10949,
      "lic": 10950,
      "ни": 10951,
      "ap": 10952,
      "gr": 10953,
      "ber": 10954,
      " may": 10955,
      " about": 10956,
      " his": 10957,
      "hen": 10958,
      "ong": 10959,
      "   ": 10960,
      " she": 10961,
      "av": 10962,
      "amp": 10963,
      "eth": 10964,
      "ize": 10965,
      " data": 10966,
      "ne": 10967,
      "ast": 10968,
      " fun": 10969,
      " Y": 10970,
      " с": 10971,
      "то": 10972,
      "ough": 10973,
      "ener": 10974,
      "one": 10975,
      " tra": 10976,
      " pos": 10977,
      " cons": 10978,
      " need": 10979,
      "put": 10980,
      "ite": 10981,
      "con": 10982,
      "mical": 10983,
      "ão": 10984,
      " ro": 10985,
      " if": 10986,
      "led": 10987,
      " diff": 10988,
      " quest": 10989,
      " est": 10990,
      " vari": 10991,
      " ev": 10992,
      " up": 10993,
      "ely": 10994,
      "ory": 10995,
      " ta": 10996,
      " would": 10997,
      " like": 10998,
      "low": 10999,
      " pr": 11000,
      " self": 11001,
      "ра": 11002,
      " di": 11003,
      " In": 11004,
      "ount": 11005,
      "ility": 11006,
      " new": 11007,
      " information": 11008,
      "ject": 11009,
      "        ": 11010,
      " feel": 11011,
      " product": 11012,
      "ange": 11013,
      "на": 11014,
      "\",": 11015,
      " using": 11016,
      "angu": 11017,
      " ass": 11018,
      "но": 11019,
      " provide": 11020,
      " some": 11021,
      "\n2": 11022,
      " could": 11023,
      " pers": 11024,
      " 3": 11025,
      " sa": 11026,
      " sp": 11027,
      " es": 11028,
      " el": 11029,
      " val": 11030,
      " langu": 11031,
      " rel": 11032,
      "ub": 11033,
      "ко": 11034,
      " str": 11035,
      "ample": 11036,
      "ok": 11037,
      " them": 11038,
      "stem": 11039,
      "NAME_1": 11040,
      " pe": 11041,
      " V": 11042,
      "ро": 11043,
      "olog": 11044,
      "ater": 11045,
      " chemical": 11046,
      " part": 11047,
      " under": 11048,
      " '": 11049,
      "velop": 11050,
      "ased": 11051,
      "ef": 11052,
      " num": 11053,
      " time": 11054,
      " inter": 11055,
      " um": 11056,
      " о": 11057,
      "ors": 11058,
      ".\"": 11059,
      "\n3": 11060,
      " language": 11061,
      " there": 11062,
      " inv": 11063,
      " ag": 11064,
      "ci": 11065,
      " para": 11066,
      "ays": 11067,
      "ating": 11068,
      "pect": 11069,
      " add": 11070,
      "erm": 11071,
      " col": 11072,
      "any": 11073,
      " process": 11074,
      " function": 11075,
      " respon": 11076,
      "ning": 11077,
      " make": 11078,
      "ail": 11079,
      "aus": 11080,
      "get": 11081,
      "ments": 11082,
      " no": 11083,
      "\n\nThe": 11084,
      "ents": 11085,
      " gener": 11086,
      "ft": 11087,
      "ert": 11088,
      " who": 11089,
      "ет": 11090,
      "ities": 11091,
      " gr": 11092,
      " person": 11093,
      " exper": 11094,
      " ob": 11095,
      "etw": 11096,
      " over": 11097,
      "cur": 11098,
      " |": 11099,
      "ord": 11100,
      "ll": 11101,
      " mo": 11102,
      "ys": 11103,
      " J": 11104,
      " {": 11105,
      " ke": 11106,
      "com": 11107,
      " How": 11108,
      "ade": 11109,
      " including": 11110,
      "les": 11111,
      " specific": 11112,
      " how": 11113,
      "ose": 11114,
      "ild": 11115,
      "\n\n1": 11116,
      " det": 11117,
      " develop": 11118,
      "ally": 11119,
      " requ": 11120,
      "yth": 11121,
      "urn": 11122,
      " text": 11123,
      " ph": 11124,
      "\n\nA": 11125,
      " form": 11126,
      " м": 11127,
      "ible": 11128,
      " example": 11129,
      "ak": 11130,
      "self": 11131,
      "ics": 11132,
      "ck": 11133,
      " д": 11134,
      "ings": 11135,
      " been": 11136,
      " You": 11137,
      "\n4": 11138,
      " into": 11139,
      " As": 11140,
      " ty": 11141,
      " had": 11142,
      " differe": 11143,
      "chn": 11144,
      " one": 11145,
      "ть": 11146,
      "ón": 11147,
      " i": 11148,
      "ates": 11149,
      " what": 11150,
      " eff": 11151,
      "enc": 11152,
      " AI": 11153,
      " system": 11154,
      " NAME_3": 11155,
      " att": 11156,
      "\":": 11157,
      "io": 11158,
      "arm": 11159,
      "lo": 11160,
      "ower": 11161,
      "ict": 11162,
      " code": 11163,
      " serv": 11164,
      "az": 11165,
      "\n  ": 11166,
      " off": 11167,
      " provid": 11168,
      "hes": 11169,
      " company": 11170,
      "own": 11171,
      " 5": 11172,
      "ре": 11173,
      " ra": 11174,
      " want": 11175,
      " sol": 11176,
      "oy": 11177,
      " é": 11178,
      "ear": 11179,
      "ath": 11180,
      " 0": 11181,
      "stand": 11182,
      " co": 11183,
      " im": 11184,
      "pr": 11185,
      "ark": 11186,
      "ython": 11187,
      "wn": 11188,
      "iqu": 11189,
      " inst": 11190,
      "cre": 11191,
      "те": 11192,
      "ures": 11193,
      "ety": 11194,
      " ent": 11195,
      "pport": 11196,
      "here": 11197,
      " set": 11198,
      " St": 11199,
      "gram": 11200,
      " z": 11201,
      "cri": 11202,
      "oth": 11203,
      "ever": 11204,
      "hat": 11205,
      "ices": 11206,
      "ли": 11207,
      " each": 11208,
      " He": 11209,
      " act": 11210,
      "ны": 11211,
      "ular": 11212,
      "ustom": 11213,
      " trans": 11214,
      " 4": 11215,
      "li": 11216,
      "ль": 11217,
      " She": 11218,
      " high": 11219,
      "ality": 11220,
      " fol": 11221,
      "ва": 11222,
      " expl": 11223,
      "ph": 11224,
      "rough": 11225,
      "ody": 11226,
      " way": 11227,
      " techn": 11228,
      "ng": 11229,
      " hand": 11230,
      " по": 11231,
      "ract": 11232,
      " products": 11233,
      " different": 11234,
      "lect": 11235,
      "iss": 11236,
      " reg": 11237,
      " conf": 11238,
      " then": 11239,
      " work": 11240,
      " understand": 11241,
      "\n5": 11242,
      " del": 11243,
      " indust": 11244,
      "arch": 11245,
      "ten": 11246,
      " +": 11247,
      "ative": 11248,
      " bu": 11249,
      "\n1": 11250,
      "rit": 11251,
      "ood": 11252,
      "ople": 11253,
      " sm": 11254,
      " just": 11255,
      " dep": 11256,
      "не": 11257,
      " experi": 11258,
      " program": 11259,
      "ree": 11260,
      "ues": 11261,
      "ado": 11262,
      " create": 11263,
      " custom": 11264,
      " ref": 11265,
      "ctions": 11266,
      "gg": 11267,
      "ise": 11268,
      "</": 11269,
      "\n\n#": 11270,
      " K": 11271,
      " lear": 11272,
      "lease": 11273,
      " rem": 11274,
      "ident": 11275,
      "gan": 11276,
      "der": 11277,
      " start": 11278,
      " ap": 11279,
      "rop": 11280,
      " cor": 11281,
      " av": 11282,
      " [": 11283,
      "ex": 11284,
      " et": 11285,
      " should": 11286,
      "ção": 11287,
      " comple": 11288,
      " questions": 11289,
      " fin": 11290,
      " well": 11291,
      " through": 11292,
      "row": 11293,
      " were": 11294,
      "to": 11295,
      " follow": 11296,
      "ка": 11297,
      " rep": 11298,
      "anc": 11299,
      " poss": 11300,
      ");": 11301,
      " him": 11302,
      " hum": 11303,
      " meth": 11304,
      " people": 11305,
      "ern": 11306,
      " If": 11307,
      "reat": 11308,
      " una": 11309,
      " number": 11310,
      " play": 11311,
      " let": 11312,
      "ock": 11313,
      " don": 11314,
      "ec": 11315,
      "wer": 11316,
      " train": 11317,
      "ick": 11318,
      "ential": 11319,
      "ves": 11320,
      "eng": 11321,
      " get": 11322,
      "ional": 11323,
      " these": 11324,
      "turn": 11325,
      " range": 11326,
      " best": 11327,
      "irst": 11328,
      " sk": 11329,
      "ble": 11330,
      " cur": 11331,
      " pol": 11332,
      "    self": 11333,
      " when": 11334,
      "lement": 11335,
      " char": 11336,
      "ause": 11337,
      " design": 11338,
      " pot": 11339,
      " bl": 11340,
      "\n\nIn": 11341,
      " list": 11342,
      " world": 11343,
      " fil": 11344,
      "ont": 11345,
      " на": 11346,
      " 20": 11347,
      " However": 11348,
      " method": 11349,
      " see": 11350,
      " cal": 11351,
      "ify": 11352,
      "ious": 11353,
      " exp": 11354,
      " po": 11355,
      "ish": 11356,
      " power": 11357,
      "ivid": 11358,
      "ied": 11359,
      " sub": 11360,
      "hed": 11361,
      "):": 11362,
      "een": 11363,
      " dec": 11364,
      "ved": 11365,
      "ión": 11366,
      "ext": 11367,
      " file": 11368,
      " find": 11369,
      "----": 11370,
      "ле": 11371,
      "ting": 11372,
      " tw": 11373,
      "ural": 11374,
      "ner": 11375,
      " ens": 11376,
      "iel": 11377,
      "fore": 11378,
      "//": 11379,
      "ption": 11380,
      "icult": 11381,
      " assist": 11382,
      " op": 11383,
      " based": 11384,
      "its": 11385,
      " ver": 11386,
      "ри": 11387,
      " Here": 11388,
      "etween": 11389,
      " than": 11390,
      " applic": 11391,
      "\n\nO": 11392,
      " lead": 11393,
      "ds": 11394,
      " between": 11395,
      "be": 11396,
      " car": 11397,
      " state": 11398,
      " consid": 11399,
      "vent": 11400,
      "alth": 11401,
      "vers": 11402,
      "ving": 11403,
      " rec": 11404,
      "го": 11405,
      "ake": 11406,
      " ans": 11407,
      " They": 11408,
      "ring": 11409,
      "als": 11410,
      "..": 11411,
      "\nI": 11412,
[...]
