{
  "version": "1.0",
  "truncation": null,
  "padding": null,
  "added_tokens": [
    {
      "id": 0,
      "content": "<pad>",
      "single_word": false,
      "lstrip": false,
      "rstrip": false,
      "normalized": false,
      "special": true
    },
    {
      "id": 1,
      "content": "<eos>",
      "single_word": false,
      "lstrip": false,
      "rstrip": false,
      "normalized": false,
      "special": true
    },
    {
      "id": 2,
      "content": "<bos>",
      "single_word": false,
      "lstrip": false,
      "rstrip": false,
      "normalized": false,
      "special": true
    },
    {
      "id": 3,
      "content": "<unk>",
      "single_word": false,
      "lstrip": false,
      "rstrip": false,
      "normalized": false,
      "special": true
    },
    {
      "id": 4,
      "content": "<start_of_turn>",
      "single_word": false,
      "lstrip": false,
      "rstrip": false,
      "normalized": false,
      "special": true
    },
    {
      "id": 5,
      "content": "<end_of_turn>",
      "single_word": false,
      "lstrip": false,
      "rstrip": false,
      "normalized": false,
      "special": true
    }
  ],
  "normalizer": {
    "type": "Sequence",
    "normalizers": []
  },
  "pre_tokenizer": {
    "type": "Split",
    "pattern": {
      "Regex": "\\s*\\w+|\\s*[^\\w\\s]+|\\s+"
    },
    "behavior": "Isolated",
    "invert": false
  },
  "post_processor": {
    "type": "TemplateProcessing",
    "single": [
      {
        "SpecialToken": {
          "id": "<bos>",
          "type_id": 0
        }
      },
      {
        "Sequence": {
          "id": "A",
          "type_id": 0
        }
      }
    ],
    "pair": [
      {
        "SpecialToken": {
          "id": "<bos>",
          "type_id": 0
        }
      },
      {
        "Sequence": {
          "id": "A",
          "type_id": 0
        }
      },
      {
        "SpecialToken": {
          "id": "<bos>",
          "type_id": 1
        }
      },
      {
        "Sequence": {
          "id": "B",
          "type_id": 1
        }
      }
    ],
    "special_tokens": {
      "<bos>": {
        "id": "<bos>",
        "ids": [
          2
        ],
        "tokens": [
          "<bos>"
        ]
      }
    }
  },
  "decoder": {
    "type": "Sequence",
    "decoders": [
      {
        "type": "ByteFallback"
      },
      {
        "type": "Fuse"
      }
    ]
  },
  "model": {
    "type": "BPE",
    "dropout": null,
    "unk_token": "<unk>",
    "continuing_subword_prefix": null,
    "end_of_word_suffix": null,
    "fuse_unk": true,
    "byte_fallback": true,
    "ignore_merges": false,
    "vocab": {
      "<pad>": 0,
      "<eos>": 1,
      "<bos>": 2,
      "<unk>": 3,
      "<start_of_turn>": 4,
      "<end_of_turn>": 5,
      "<0x00>": 6,
      "<0x01>": 7,
      "<0x02>": 8,
      "<0x03>": 9,
      "<0x04>": 10,
      "<0x05>": 11,
      "<0x06>": 12,
      "<0x07>": 13,
      "<0x08>": 14,
      "<0x09>": 15,
      "<0x0A>": 16,
      "<0x0B>": 17,
      "<0x0C>": 18,
      "<0x0D>": 19,
      "<0x0E>": 20,
      "<0x0F>": 21,
      "<0x10>": 22,
      "<0x11>": 23,
      "<0x12>": 24,
      "<0x13>": 25,
      "<0x14>": 26,
      "<0x15>": 27,
      "<0x16>": 28,
      "<0x17>": 29,
      "<0x18>": 30,
      "<0x19>": 31,
      "<0x1A>": 32,
      "<0x1B>": 33,
      "<0x1C>": 34,
      "<0x1D>": 35,
      "<0x1E>": 36,
      "<0x1F>": 37,
      "<0x20>": 38,
      "<0x21>": 39,
      "<0x22>": 40,
      "<0x23>": 41,
      "<0x24>": 42,
      "<0x25>": 43,
      "<0x26>": 44,
      "<0x27>": 45,
      "<0x28>": 46,
      "<0x29>": 47,
      "<0x2A>": 48,
      "<0x2B>": 49,
      "<0x2C>": 50,
      "<0x2D>": 51,
      "<0x2E>": 52,
      "<0x2F>": 53,
      "<0x30>": 54,
      "<0x31>": 55,
      "<0x32>": 56,
      "<0x33>": 57,
      "<0x34>": 58,
      "<0x35>": 59,
      "<0x36>": 60,
      "<0x37>": 61,
      "<0x38>": 62,
      "<0x39>": 63,
      "<0x3A>": 64,
      "<0x3B>": 65,
      "<0x3C>": 66,
      "<0x3D>": 67,
      "<0x3E>": 68,
      "<0x3F>": 69,
      "<0x40>": 70,
      "<0x41>": 71,
      "<0x42>": 72,
      "<0x43>": 73,
      "<0x44>": 74,
      "<0x45>": 75,
      "<0x46>": 76,
      "<0x47>": 77,
      "<0x48>": 78,
      "<0x49>": 79,
      "<0x4A>": 80,
      "<0x4B>": 81,
      "<0x4C>": 82,
      "<0x4D>": 83,
      "<0x4E>": 84,
      "<0x4F>": 85,
      "<0x50>": 86,
      "<0x51>": 87,
      "<0x52>": 88,
      "<0x53>": 89,
      "<0x54>": 90,
      "<0x55>": 91,
      "<0x56>": 92,
      "<0x57>": 93,
      "<0x58>": 94,
      "<0x59>": 95,
      "<0x5A>": 96,
      "<0x5B>": 97,
      "<0x5C>": 98,
      "<0x5D>": 99,
      "<0x5E>": 100,
      "<0x5F>": 101,
      "<0x60>": 102,
      "<0x61>": 103,
      "<0x62>": 104,
      "<0x63>": 105,
      "<0x64>": 106,
      "<0x65>": 107,
      "<0x66>": 108,
      "<0x67>": 109,
      "<0x68>": 110,
      "<0x69>": 111,
      "<0x6A>": 112,
      "<0x6B>": 113,
      "<0x6C>": 114,
      "<0x6D>": 115,
      "<0x6E>": 116,
      "<0x6F>": 117,
      "<0x70>": 118,
      "<0x71>": 119,
      "<0x72>": 120,
      "<0x73>": 121,
      "<0x74>": 122,
      "<0x75>": 123,
      "<0x76>": 124,
      "<0x77>": 125,
      "<0x78>": 126,
      "<0x79>": 127,
      "<0x7A>": 128,
      "<0x7B>": 129,
      "<0x7C>": 130,
      "<0x7D>": 131,
      "<0x7E>": 132,
      "<0x7F>": 133,
      "<0x80>": 134,
      "<0x81>": 135,
      "<0x82>": 136,
      "<0x83>": 137,
      "<0x84>": 138,
      "<0x85>": 139,
      "<0x86>": 140,
      "<0x87>": 141,
      "<0x88>": 142,
      "<0x89>": 143,
      "<0x8A>": 144,
      "<0x8B>": 145,
      "<0x8C>": 146,
      "<0x8D>": 147,
      "<0x8E>": 148,
      "<0x8F>": 149,
      "<0x90>": 150,
      "<0x91>": 151,
      "<0x92>": 152,
      "<0x93>": 153,
      "<0x94>": 154,
      "<0x95>": 155,
      "<0x96>": 156,
      "<0x97>": 157,
      "<0x98>": 158,
      "<0x99>": 159,
      "<0x9A>": 160,
      "<0x9B>": 161,
      "<0x9C>": 162,
      "<0x9D>": 163,
      "<0x9E>": 164,
      "<0x9F>": 165,
      "<0xA0>": 166,
      "<0xA1>": 167,
      "<0xA2>": 168,
      "<0xA3>": 169,
      "<0xA4>": 170,
      "<0xA5>": 171,
      "<0xA6>": 172,
      "<0xA7>": 173,
      "<0xA8>": 174,
      "<0xA9>": 175,
      "<0xAA>": 176,
      "<0xAB>": 177,
      "<0xAC>": 178,
      "<0xAD>": 179,
      "<0xAE>": 180,
      "<0xAF>": 181,
      "<0xB0>": 182,
      "<0xB1>": 183,
      "<0xB2>": 184,
      "<0xB3>": 185,
      "<0xB4>": 186,
      "<0xB5>": 187,
      "<0xB6>": 188,
      "<0xB7>": 189,
      "<0xB8>": 190,
      "<0xB9>": 191,
      "<0xBA>": 192,
      "<0xBB>": 193,
      "<0xBC>": 194,
      "<0xBD>": 195,
      "<0xBE>": 196,
      "<0xBF>": 197,
      "<0xC0>": 198,
      "<0xC1>": 199,
      "<0xC2>": 200,
      "<0xC3>": 201,
      "<0xC4>": 202,
      "<0xC5>": 203,
      "<0xC6>": 204,
      "<0xC7>": 205,
      "<0xC8>": 206,
      "<0xC9>": 207,
      "<0xCA>": 208,
      "<0xCB>": 209,
      "<0xCC>": 210,
      "<0xCD>": 211,
      "<0xCE>": 212,
      "<0xCF>": 213,
      "<0xD0>": 214,
      "<0xD1>": 215,
      "<0xD2>": 216,
      "<0xD3>": 217,
      "<0xD4>": 218,
      "<0xD5>": 219,
      "<0xD6>": 220,
      "<0xD7>": 221,
      "<0xD8>": 222,
      "<0xD9>": 223,
      "<0xDA>": 224,
      "<0xDB>": 225,
      "<0xDC>": 226,
      "<0xDD>": 227,
      "<0xDE>": 228,
      "<0xDF>": 229,
      "<0xE0>": 230,
      "<0xE1>": 231,
      "<0xE2>": 232,
      "<0xE3>": 233,
      "<0xE4>": 234,
      "<0xE5>": 235,
      "<0xE6>": 236,
      "<0xE7>": 237,
      "<0xE8>": 238,
      "<0xE9>": 239,
      "<0xEA>": 240,
      "<0xEB>": 241,
      "<0xEC>": 242,
      "<0xED>": 243,
      "<0xEE>": 244,
      "<0xEF>": 245,
      "<0xF0>": 246,
      "<0xF1>": 247,
      "<0xF2>": 248,
      "<0xF3>": 249,
      "<0xF4>": 250,
      "<0xF5>": 251,
      "<0xF6>": 252,
      "<0xF7>": 253,
      "<0xF8>": 254,
      "<0xF9>": 255,
      "<0xFA>": 256,
      "<0xFB>": 257,
      "<0xFC>": 258,
      "<0xFD>": 259,
      "<0xFE>": 260,
      "<0xFF>": 261,
      "\u0000": 262,
      "\u0001": 263,
      "\u0002": 264,
      "\u0003": 265,
      "\u0004": 266,
      "\u0005": 267,
      "\b": 268,
      "\t": 269,
      "\n": 270,
      "\r": 271,
      "\u000e": 272,
      "\u000f": 273,
      "\u0010": 274,
      "\u0011": 275,
      "\u0012": 276,
      "\u0013": 277,
      "\u0014": 278,
      "\u0015": 279,
      "\u0017": 280,
      "\u0018": 281,
      "\u0019": 282,
      "\u001b": 283,
      " ": 284,
      "!": 285,
      "\"": 286,
      "#": 287,
      "$": 288,
      "%": 289,
      "&": 290,
      "'": 291,
      "(": 292,
      ")": 293,
      "*": 294,
      "+": 295,
      ",": 296,
      "-": 297,
      ".": 298,
      "/": 299,
      "0": 300,
      "1": 301,
      "2": 302,
      "3": 303,
      "4": 304,
      "5": 305,
      "6": 306,
      "7": 307,
      "8": 308,
      "9": 309,
      ":": 310,
      ";": 311,
      "<": 312,
      "=": 313,
      ">": 314,
      "?": 315,
      "@": 316,
      "A": 317,
      "B": 318,
      "C": 319,
      "D": 320,
      "E": 321,
      "F": 322,
      "G": 323,
      "H": 324,
      "I": 325,
      "J": 326,
      "K": 327,
      "L": 328,
      "M": 329,
      "N": 330,
      "O": 331,
      "P": 332,
      "Q": 333,
      "R": 334,
      "S": 335,
      "T": 336,
      "U": 337,
      "V": 338,
      "W": 339,
      "X": 340,
      "Y": 341,
      "Z": 342,
      "[": 343,
      "\\": 344,
      "]": 345,
      "^": 346,
      "_": 347,
      "`": 348,
      "a": 349,
      "b": 350,
      "c": 351,
      "d": 352,
      "e": 353,
      "f": 354,
      "g": 355,
      "h": 356,
      "i": 357,
      "j": 358,
      "k": 359,
      "l": 360,
      "m": 361,
      "n": 362,
      "o": 363,
      "p": 364,
      "q": 365,
      "r": 366,
      "s": 367,
      "t": 368,
      "u": 369,
      "v": 370,
      "w": 371,
      "x": 372,
      "y": 373,
      "z": 374,
      "{": 375,
      "|": 376,
      "}": 377,
      "~": 378,
      "": 379,
      "": 380,
      "": 381,
      "": 382,
      "": 383,
      "": 384,
      "": 385,
      "": 386,
      "": 387,
      "": 388,
      "": 389,
      "": 390,
      "": 391,
      "": 392,
      "": 393,
      "": 394,
      "": 395,
      "": 396,
      "": 397,
      "": 398,
      "": 399,
      "": 400,
      "": 401,
      "": 402,
      " ": 403,
      "¡": 404,
      "¢": 405,
      "£": 406,
      "¤": 407,
      "¥": 408,
      "¦": 409,
      "§": 410,
      "¨": 411,
      "©": 412,
      "ª": 413,
      "«": 414,
      "¬": 415,
      "­": 416,
      "®": 417,
      "¯": 418,
      "°": 419,
      "±": 420,
      "²": 421,
      "³": 422,
      "´": 423,
      "µ": 424,
      "¶": 425,
      "·": 426,
      "¸": 427,
      "¹": 428,
      "º": 429,
      "»": 430,
      "¼": 431,
      "½": 432,
      "¾": 433,
      "¿": 434,
      "À": 435,
      "Á": 436,
      "Â": 437,
      "Ã": 438,
      "Ä": 439,
      "Å": 440,
      "Æ": 441,
      "Ç": 442,
      "È": 443,
      "É": 444,
      "Ê": 445,
      "Ë": 446,
      "Ì": 447,
      "Í": 448,
      "Î": 449,
      "Ï": 450,
      "Ð": 451,
      "Ñ": 452,
      "Ò": 453,
      "Ó": 454,
      "Ô": 455,
      "Õ": 456,
      "Ö": 457,
      "×": 458,
      "Ø": 459,
      "Ú": 460,
      "Û": 461,
      "Ü": 462,
      "Ý": 463,
      "Þ": 464,
      "ß": 465,
      "à": 466,
      "á": 467,
      "â": 468,
      "ã": 469,
      "ä": 470,
      "å": 471,
      "æ": 472,
      "ç": 473,
      "è": 474,
      "é": 475,
      "ê": 476,
      "ë": 477,
      "ì": 478,
      "í": 479,
      "î": 480,
      "ï": 481,
      "ð": 482,
      "ñ": 483,
      "ò": 484,
      "ó": 485,
      "ô": 486,
      "õ": 487,
      "ö": 488,
      "÷": 489,
      "ø": 490,
      "ù": 491,
      "ú": 492,
      "û": 493,
      "ü": 494,
      "ý": 495,
      "þ": 496,
      "ÿ": 497,
      "Ā": 498,
      "ā": 499,
      "Ă": 500,
      "ă": 501,
      "Ą": 502,
      "ą": 503,
      "Ć": 504,
      "ć": 505,
      "Ĉ": 506,
      "ĉ": 507,
      "Ċ": 508,
      "Č": 509,
      "č": 510,
      "Ď": 511,
      "ď": 512,
      "Đ": 513,
      "đ": 514,
      "Ē": 515,
      "ē": 516,
      "Ĕ": 517,
      "ĕ": 518,
      "Ė": 519,
      "ė": 520,
      "Ę": 521,
      "ę": 522,
      "Ě": 523,
      "ě": 524,
      "Ĝ": 525,
      "ĝ": 526,
      "Ğ": 527,
      "ğ": 528,
      "Ġ": 529,
      "ġ": 530,
      "ģ": 531,
      "Ħ": 532,
      "ħ": 533,
      "ĩ": 534,
      "Ī": 535,
      "ī": 536,
      "ĭ": 537,
      "Į": 538,
      "į": 539,
      "İ": 540,
      "ı": 541,
      "Ĳ": 542,
      "Ĵ": 543,
      "ĵ": 544,
      "Ķ": 545,
      "ķ": 546,
      "ĺ": 547,
      "Ļ": 548,
      "ļ": 549,
      "Ľ": 550,
      "ľ": 551,
      "Ŀ": 552,
      "Ł": 553,
      "ł": 554,
      "Ń": 555,
      "ń": 556,
      "ņ": 557,
      "ň": 558,
      "ŉ": 559,
      "Ŋ": 560,
      "ŋ": 561,
      "Ō": 562,
      "ō": 563,
      "ŏ": 564,
      "Ő": 565,
      "ő": 566,
      "Œ": 567,
      "œ": 568,
      "ŕ": 569,
      "ŗ": 570,
      "Ř": 571,
      "ř": 572,
      "Ś": 573,
      "ś": 574,
      "ŝ": 575,
      "Ş": 576,
      "ş": 577,
      "Š": 578,
      "š": 579,
      "ţ": 580,
      "ť": 581,
      "Ŧ": 582,
      "ũ": 583,
      "Ū": 584,
      "ū": 585,
      "Ŭ": 586,
      "ŭ": 587,
      "Ů": 588,
      "ů": 589,
      "Ű": 590,
      "ű": 591,
      "ų": 592,
      "Ŵ": 593,
      "ŷ": 594,
      "Ÿ": 595,
      "Ź": 596,
      "ź": 597,
      "Ż": 598,
      "ż": 599,
      "Ž": 600,
      "ž": 601,
      "ƒ": 602,
      "Ɠ": 603,
      "Ơ": 604,
      "ơ": 605,
      "Ư": 606,
      "ư": 607,
      "Ƶ": 608,
      "ƻ": 609,
      "ǎ": 610,
      "ǐ": 611,
      "ǒ": 612,
      "ǔ": 613,
      "ǚ": 614,
      "ǜ": 615,
      "ǝ": 616,
      "ǫ": 617,
      "ǵ": 618,
      "ǽ": 619,
      "Ȁ": 620,
      "Ȃ": 621,
      "ȃ": 622,
      "Ȅ": 623,
      "Ȇ": 624,
      "Ȋ": 625,
      "ȋ": 626,
      "Ȍ": 627,
      "Ȏ": 628,
      "ȏ": 629,
      "Ȑ": 630,
      "ȑ": 631,
      "Ȓ": 632,
      "ȓ": 633,
      "Ȕ": 634,
      "Ȗ": 635,
      "ȗ": 636,
      "Ș": 637,
      "ș": 638,
      "Ț": 639,
      "ț": 640,
      "ȩ": 641,
      "ȳ": 642,
      "ɐ": 643,
      "ɑ": 644,
      "ɒ": 645,
      "ɔ": 646,
      "ɕ": 647,
      "ɖ": 648,
      "ɘ": 649,
      "ə": 650,
      "ɛ": 651,
      "ɜ": 652,
      "ɟ": 653,
      "ɡ": 654,
      "ɣ": 655,
      "ɥ": 656,
      "ɦ": 657,
      "ɨ": 658,
      "ɪ": 659,
      "ɫ": 660,
      "ɲ": 661,
      "ɳ": 662,
      "ɴ": 663,
      "ɵ": 664,
      "ɹ": 665,
      "ɾ": 666,
      "ʀ": 667,
      "ʁ": 668,
      "ʂ": 669,
      "ʃ": 670,
      "ʇ": 671,
      "ʈ": 672,
      "ʊ": 673,
      "ʌ": 674,
      "ʍ": 675,
      "ʏ": 676,
      "ʐ": 677,
      "ʒ": 678,
      "ʔ": 679,
      "ʕ": 680,
      "ʖ": 681,
      "ʘ": 682,
      "ʙ": 683,
      "ʜ": 684,
      "ʞ": 685,
      "ʟ": 686,
      "ʦ": 687,
      "ʧ": 688,
      "ʰ": 689,
      "ʲ": 690,
      "ʳ": 691,
      "ʴ": 692,
      "ʷ": 693,
      "ʸ": 694,
      "ʹ": 695,
      "ʺ": 696,
      "ʻ": 697,
      "ʼ": 698,
      "ʾ": 699,
      "ʿ": 700,
      "˄": 701,
      "˅": 702,
      "ˆ": 703,
      "ˈ": 704,
      "ˊ": 705,
      "ˌ": 706,
      "ː": 707,
      "˘": 708,
      "˙": 709,
      "˚": 710,
      "˜": 711,
      "ˡ": 712,
      "ˢ": 713,
      "˥": 714,
      "˧": 715,
      "˨": 716,
      "˩": 717,
      "̀": 718,
      "́": 719,
      "̂": 720,
      "̃": 721,
      "̄": 722,
      "̅": 723,
      "̆": 724,
      "̇": 725,
      "̈": 726,
      "̉": 727,
      "̌": 728,
      "̐": 729,
      "̑": 730,
      "̓": 731,
      "̣": 732,
      "̤": 733,
      "̥": 734,
      "̨": 735,
      "̩": 736,
      "̪": 737,
      "̯": 738,
      "̸": 739,
      "͖": 740,
      "͜": 741,
      "͡": 742,
      "Ά": 743,
      "Έ": 744,
      "Ή": 745,
      "Ό": 746,
      "Ώ": 747,
      "ΐ": 748,
      "Α": 749,
      "Β": 750,
      "Γ": 751,
      "Δ": 752,
      "Ε": 753,
      "Ζ": 754,
      "Η": 755,
      "Θ": 756,
      "Ι": 757,
      "Κ": 758,
      "Λ": 759,
      "Μ": 760,
      "Ν": 761,
      "Ξ": 762,
      "Ο": 763,
      "Π": 764,
      "Ρ": 765,
      "Σ": 766,
      "Τ": 767,
      "Υ": 768,
      "Φ": 769,
      "Χ": 770,
      "Ψ": 771,
      "Ω": 772,
      "ά": 773,
      "έ": 774,
      "ή": 775,
      "ί": 776,
      "α": 777,
      "β": 778,
      "γ": 779,
      "δ": 780,
      "ε": 781,
      "ζ": 782,
      "η": 783,
      "θ": 784,
      "ι": 785,
      "κ": 786,
      "λ": 787,
      "μ": 788,
      "ν": 789,
      "ξ": 790,
      "ο": 791,
      "π": 792,
      "ρ": 793,
      "ς": 794,
      "σ": 795,
      "τ": 796,
      "υ": 797,
      "φ": 798,
      "χ": 799,
      "ψ": 800,
      "ω": 801,
      "ϊ": 802,
      "ϋ": 803,
      "ό": 804,
      "ύ": 805,
      "ώ": 806,
      "ϕ": 807,
      "Ϝ": 808,
      "ϝ": 809,
      "ϴ": 810,
      "ϵ": 811,
      "Ϸ": 812,
      "Ё": 813,
      "Ђ": 814,
      "Є": 815,
      "Ѕ": 816,
      "І": 817,
      "Ї": 818,
      "Ј": 819,
      "Њ": 820,
      "Ў": 821,
      "А": 822,
      "Б": 823,
      "В": 824,
      "Г": 825,
      "Д": 826,
      "Е": 827,
      "Ж": 828,
      "З": 829,
      "И": 830,
      "Й": 831,
      "К": 832,
      "Л": 833,
      "М": 834,
      "Н": 835,
      "О": 836,
      "П": 837,
      "Р": 838,
      "С": 839,
      "Т": 840,
      "У": 841,
      "Ф": 842,
      "Х": 843,
      "Ц": 844,
      "Ч": 845,
      "Ш": 846,
      "Щ": 847,
      "Ъ": 848,
      "Ы": 849,
      "Ь": 850,
      "Э": 851,
      "Ю": 852,
      "Я": 853,
      "а": 854,
      "б": 855,
      "в": 856,
      "г": 857,
      "д": 858,
      "е": 859,
      "ж": 860,
      "з": 861,
      "и": 862,
      "й": 863,
      "к": 864,
      "л": 865,
      "м": 866,
      "н": 867,
      "о": 868,
      "п": 869,
      "р": 870,
      "с": 871,
      "т": 872,
      "у": 873,
      "ф": 874,
      "х": 875,
      "ц": 876,
      "ч": 877,
      "ш": 878,
      "щ": 879,
      "ъ": 880,
      "ы": 881,
      "ь": 882,
      "э": 883,
      "ю": 884,
      "я": 885,
      "ё": 886,
      "ђ": 887,
      "є": 888,
      "ѕ": 889,
      "і": 890,
      "ї": 891,
      "ј": 892,
      "љ": 893,
      "њ": 894,
      "ћ": 895,
      "ќ": 896,
      "ѝ": 897,
      "ў": 898,
      "џ": 899,
      "Ѡ": 900,
      "ѡ": 901,
      "Ґ": 902,
      "ґ": 903,
      "ғ": 904,
      "Қ": 905,
      "қ": 906,
      "ң": 907,
      "Ү": 908,
      "ү": 909,
      "ұ": 910,
      "ҳ": 911,
      "ҷ": 912,
      "һ": 913,
      "ӏ": 914,
      "Ә": 915,
      "ә": 916,
      "Ө": 917,
      "ө": 918,
      "ӯ": 919,
      "ԃ": 920,
      "ԏ": 921,
      "Ա": 922,
      "Բ": 923,
      "Դ": 924,
      "Ե": 925,
      "Է": 926,
      "Ի": 927,
      "Հ": 928,
      "Ձ": 929,
      "Ն": 930,
      "Ո": 931,
      "Վ": 932,
      "Տ": 933,
      "Ք": 934,
      "՞": 935,
      "ա": 936,
      "բ": 937,
      "գ": 938,
      "դ": 939,
      "ե": 940,
      "զ": 941,
      "է": 942,
      "ը": 943,
      "թ": 944,
      "ժ": 945,
      "ի": 946,
      "լ": 947,
      "խ": 948,
      "ծ": 949,
      "կ": 950,
      "հ": 951,
      "ձ": 952,
      "ղ": 953,
      "ճ": 954,
      "մ": 955,
      "յ": 956,
      "ն": 957,
      "շ": 958,
      "ո": 959,
      "չ": 960,
      "պ": 961,
      "ջ": 962,
      "ռ": 963,
      "ս": 964,
      "վ": 965,
      "տ": 966,
      "ր": 967,
      "ց": 968,
      "ւ": 969,
      "փ": 970,
      "ք": 971,
      "օ": 972,
      "ֆ": 973,
      "և": 974,
      "։": 975,
      "֍": 976,
      "֔": 977,
      "֖": 978,
      "֙": 979,
      "֛": 980,
      "֣": 981,
      "֥": 982,
      "֨": 983,
      "֩": 984,
      "ְ": 985,
      "ֱ": 986,
      "ֲ": 987,
      "ִ": 988,
      "ֵ": 989,
      "ֶ": 990,
      "ַ": 991,
      "ָ": 992,
      "ֹ": 993,
      "ּ": 994,
      "ֽ": 995,
      "־": 996,
      "ׁ": 997,
      "ׂ": 998,
      "׃": 999,
      "א": 1000,
      "ב": 1001,
      "ג": 1002,
      "ד": 1003,
      "ה": 1004,
      "ו": 1005,
      "ז": 1006,
      "ח": 1007,
      "ט": 1008,
      "י": 1009,
      "ך": 1010,
      "כ": 1011,
      "ל": 1012,
      "ם": 1013,
      "מ": 1014,
      "ן": 1015,
      "נ": 1016,
      "ס": 1017,
      "ע": 1018,
      "ף": 1019,
      "פ": 1020,
      "ץ": 1021,
      "צ": 1022,
      "ק": 1023,
      "ר": 1024,
      "ש": 1025,
      "ת": 1026,
      "װ": 1027,
      "׳": 1028,
      "״": 1029,
      "،": 1030,
      "؛": 1031,
      "؜": 1032,
      "؟": 1033,
      "ء": 1034,
      "آ": 1035,
      "أ": 1036,
      "ؤ": 1037,
      "إ": 1038,
      "ئ": 1039,
      "ا": 1040,
      "ب": 1041,
      "ة": 1042,
      "ت": 1043,
      "ث": 1044,
      "ج": 1045,
      "ح": 1046,
      "خ": 1047,
      "د": 1048,
      "ذ": 1049,
      "ر": 1050,
      "ز": 1051,
      "س": 1052,
      "ش": 1053,
      "ص": 1054,
      "ض": 1055,
      "ط": 1056,
      "ظ": 1057,
      "ع": 1058,
      "غ": 1059,
      "ـ": 1060,
      "ف": 1061,
      "ق": 1062,
      "ك": 1063,
      "ل": 1064,
      "م": 1065,
      "ن": 1066,
      "ه": 1067,
      "و": 1068,
      "ى": 1069,
      "ي": 1070,
      "ً": 1071,
      "ٌ": 1072,
      "ٍ": 1073,
      "َ": 1074,
      "ُ": 1075,
      "ِ": 1076,
      "ّ": 1077,
      "ْ": 1078,
      "ٓ": 1079,
      "ٔ": 1080,
      "٠": 1081,
      "١": 1082,
      "٢": 1083,
      "٣": 1084,
      "٤": 1085,
      "٥": 1086,
      "٦": 1087,
      "٧": 1088,
      "٩": 1089,
      "٪": 1090,
      "٫": 1091,
      "٬": 1092,
      "ٰ": 1093,
      "ٱ": 1094,
      "ٹ": 1095,
      "پ": 1096,
      "چ": 1097,
      "ڈ": 1098,
      "ڑ": 1099,
      "ړ": 1100,
      "ژ": 1101,
      "ک": 1102,
      "گ": 1103,
      "ڵ": 1104,
      "ں": 1105,
      "ڼ": 1106,
      "ھ": 1107,
      "ہ": 1108,
      "ۂ": 1109,
      "ی": 1110,
      "ې": 1111,
      "ے": 1112,
      "۔": 1113,
      "ۚ": 1114,
      "ۡ": 1115,
      "ۢ": 1116,
      "ۤ": 1117,
      "۰": 1118,
      "۱": 1119,
      "۲": 1120,
      "۳": 1121,
      "۴": 1122,
      "۵": 1123,
      "۶": 1124,
      "۷": 1125,
      "۸": 1126,
      "۹": 1127,
      "ܐ": 1128,
      "ܒ": 1129,
      "ܕ": 1130,
      "ܘ": 1131,
      "ܚ": 1132,
      "ܝ": 1133,
      "ܟ": 1134,
      "ܠ": 1135,
      "ܡ": 1136,
      "ܢ": 1137,
      "ܣ": 1138,
      "ܦ": 1139,
      "ܩ": 1140,
      "ܫ": 1141,
      "ܬ": 1142,
      "ܲ": 1143,
      "ܶ": 1144,
      "݁": 1145,
      "ހ": 1146,
      "ރ": 1147,
      "ކ": 1148,
      "އ": 1149,
      "ވ": 1150,
      "މ": 1151,
      "ދ": 1152,
      "ލ": 1153,
      "ސ": 1154,
      "ޓ": 1155,
      "ޔ": 1156,
      "ަ": 1157,
      "ާ": 1158,
      "ި": 1159,
      "ު": 1160,
      "ެ": 1161,
      "ޮ": 1162,
      "ޯ": 1163,
      "ް": 1164,
      "ࣨ": 1165,
      "ँ": 1166,
      "ं": 1167,
      "ः": 1168,
      "अ": 1169,
      "आ": 1170,
      "इ": 1171,
      "ई": 1172,
      "उ": 1173,
      "ऊ": 1174,
      "ऋ": 1175,
      "ऍ": 1176,
      "ऎ": 1177,
      "ए": 1178,
      "ऐ": 1179,
      "ऑ": 1180,
      "ऒ": 1181,
      "ओ": 1182,
      "औ": 1183,
      "क": 1184,
      "ख": 1185,
      "ग": 1186,
      "घ": 1187,
      "ङ": 1188,
      "च": 1189,
      "छ": 1190,
      "ज": 1191,
      "झ": 1192,
      "ञ": 1193,
      "ट": 1194,
      "ठ": 1195,
      "ड": 1196,
      "ढ": 1197,
      "ण": 1198,
      "त": 1199,
      "थ": 1200,
      "द": 1201,
      "ध": 1202,
      "न": 1203,
      "प": 1204,
      "फ": 1205,
      "ब": 1206,
      "भ": 1207,
      "म": 1208,
      "य": 1209,
      "र": 1210,
      "ल": 1211,
      "ळ": 1212,
      "व": 1213,
      "श": 1214,
      "ष": 1215,
      "स": 1216,
      "ह": 1217,
      "़": 1218,
      "ा": 1219,
      "ि": 1220,
      "ी": 1221,
      "ु": 1222,
      "ू": 1223,
      "ृ": 1224,
      "ॅ": 1225,
      "े": 1226,
      "ै": 1227,
      "ॉ": 1228,
      "ो": 1229,
      "ौ": 1230,
      "्": 1231,
      "ॐ": 1232,
      "ॕ": 1233,
      "ज़": 1234,
      "ड़": 1235,
      "ढ़": 1236,
      "ॠ": 1237,
      "ॡ": 1238,
      "ॢ": 1239,
      "ॣ": 1240,
      "।": 1241,
      "॥": 1242,
      "०": 1243,
      "१": 1244,
      "७": 1245,
      "८": 1246,
      "ঁ": 1247,
      "ং": 1248,
      "ঃ": 1249,
      "অ": 1250,
      "আ": 1251,
      "ই": 1252,
      "ঈ": 1253,
      "উ": 1254,
      "এ": 1255,
      "ঐ": 1256,
      "ও": 1257,
      "ঔ": 1258,
      "ক": 1259,
      "খ": 1260,
      "গ": 1261,
      "ঘ": 1262,
      "ঙ": 1263,
      "চ": 1264,
      "ছ": 1265,
      "জ": 1266,
      "ঝ": 1267,
      "ঞ": 1268,
      "ট": 1269,
      "ঠ": 1270,
      "ড": 1271,
      "ঢ": 1272,
      "ণ": 1273,
      "ত": 1274,
      "থ": 1275,
      "দ": 1276,
      "ধ": 1277,
      "ন": 1278,
      "প": 1279,
      "ফ": 1280,
      "ব": 1281,
      "ভ": 1282,
      "ম": 1283,
      "য": 1284,
      "র": 1285,
      "ল": 1286,
      "শ": 1287,
      "ষ": 1288,
      "স": 1289,
      "হ": 1290,
      "঺": 1291,
      "়": 1292,
      "ঽ": 1293,
      "া": 1294,
      "ি": 1295,
      "ী": 1296,
      "ু": 1297,
      "ূ": 1298,
      "ৃ": 1299,
      "ে": 1300,
      "ৈ": 1301,
      "ো": 1302,
      "ৌ": 1303,
      "্": 1304,
      "ৎ": 1305,
      "ড়": 1306,
      "য়": 1307,
      "ৣ": 1308,
      "৤": 1309,
      "০": 1310,
      "১": 1311,
      "২": 1312,
      "৫": 1313,
      "৭": 1314,
      "৯": 1315,
      "ਂ": 1316,
      "ਅ": 1317,
      "ਆ": 1318,
      "ਇ": 1319,
      "ਈ": 1320,
      "ਉ": 1321,
      "ਕ": 1322,
      "ਗ": 1323,
      "ਚ": 1324,
      "ਜ": 1325,
      "ਟ": 1326,
      "ਠ": 1327,
      "ਡ": 1328,
      "ਣ": 1329,
      "ਤ": 1330,
      "ਦ": 1331,
      "ਧ": 1332,
      "ਨ": 1333,
      "ਪ": 1334,
      "ਫ": 1335,
      "ਬ": 1336,
      "ਭ": 1337,
      "ਮ": 1338,
      "ਯ": 1339,
      "ਰ": 1340,
      "ਲ": 1341,
      "ਵ": 1342,
      "ਸ਼": 1343,
      "ਸ": 1344,
      "ਹ": 1345,
      "਼": 1346,
      "ਾ": 1347,
      "ਿ": 1348,
      "ੀ": 1349,
      "ੁ": 1350,
      "ੂ": 1351,
      "ੇ": 1352,
      "ੈ": 1353,
      "ੋ": 1354,
      "੍": 1355,
      "ੰ": 1356,
      "ੱ": 1357,
      "ં": 1358,
      "આ": 1359,
      "ઇ": 1360,
      "એ": 1361,
      "ક": 1362,
      "ખ": 1363,
      "ગ": 1364,
      "છ": 1365,
      "જ": 1366,
      "ટ": 1367,
      "ડ": 1368,
      "ણ": 1369,
      "ત": 1370,
      "થ": 1371,
      "દ": 1372,
      "ધ": 1373,
      "ન": 1374,
      "પ": 1375,
      "બ": 1376,
      "ભ": 1377,
      "મ": 1378,
      "ય": 1379,
      "ર": 1380,
      "લ": 1381,
      "વ": 1382,
      "શ": 1383,
      "ષ": 1384,
      "સ": 1385,
      "હ": 1386,
      "ા": 1387,
      "િ": 1388,
      "ી": 1389,
      "ુ": 1390,
      "ૂ": 1391,
      "ે": 1392,
      "ો": 1393,
      "્": 1394,
      "ଇ": 1395,
      "ଡ": 1396,
      "ନ": 1397,
      "଼": 1398,
      "ି": 1399,
      "அ": 1400,
      "ஆ": 1401,
      "இ": 1402,
      "உ": 1403,
      "எ": 1404,
      "ஏ": 1405,
      "ஒ": 1406,
      "க": 1407,
      "ங": 1408,
      "ச": 1409,
      "ஜ": 1410,
      "ஞ": 1411,
      "ட": 1412,
      "ண": 1413,
      "த": 1414,
      "ந": 1415,
      "ன": 1416,
      "ப": 1417,
      "ம": 1418,
      "ய": 1419,
      "ர": 1420,
      "ற": 1421,
      "ல": 1422,
      "ள": 1423,
      "ழ": 1424,
      "வ": 1425,
      "ஷ": 1426,
      "ஸ": 1427,
      "ஹ": 1428,
      "ா": 1429,
      "ி": 1430,
      "ீ": 1431,
      "ு": 1432,
      "ூ": 1433,
      "ெ": 1434,
      "ே": 1435,
      "ை": 1436,
      "ொ": 1437,
      "ோ": 1438,
      "்": 1439,
      "ం": 1440,
      "అ": 1441,
      "ఆ": 1442,
      "ఇ": 1443,
      "ఈ": 1444,
      "ఉ": 1445,
      "ఎ": 1446,
      "ఏ": 1447,
      "ఒ": 1448,
      "ఓ": 1449,
      "క": 1450,
      "గ": 1451,
      "చ": 1452,
      "జ": 1453,
      "ట": 1454,
      "డ": 1455,
      "ణ": 1456,
      "త": 1457,
      "థ": 1458,
      "ద": 1459,
      "ధ": 1460,
      "న": 1461,
      "ప": 1462,
      "బ": 1463,
      "భ": 1464,
      "మ": 1465,
      "య": 1466,
      "ర": 1467,
      "ల": 1468,
      "వ": 1469,
      "శ": 1470,
      "ష": 1471,
      "స": 1472,
      "హ": 1473,
      "ా": 1474,
      "ి": 1475,
      "ీ": 1476,
      "ు": 1477,
      "ూ": 1478,
      "ృ": 1479,
      "ె": 1480,
      "ే": 1481,
      "ై": 1482,
      "ొ": 1483,
      "ో": 1484,
      "్": 1485,
      "ಂ": 1486,
      "ಅ": 1487,
      "ಆ": 1488,
      "ಇ": 1489,
      "ಈ": 1490,
      "ಉ": 1491,
      "ಊ": 1492,
      "ಋ": 1493,
      "ಌ": 1494,
      "಍": 1495,
      "ಎ": 1496,
      "ಒ": 1497,
      "ಓ": 1498,
      "ಔ": 1499,
      "ಕ": 1500,
      "ಖ": 1501,
      "ಗ": 1502,
      "ಘ": 1503,
      "ಙ": 1504,
      "ಚ": 1505,
      "ಛ": 1506,
      "ಜ": 1507,
      "ಝ": 1508,
      "ಟ": 1509,
      "ಠ": 1510,
      "ಡ": 1511,
      "ಢ": 1512,
      "ಣ": 1513,
      "ತ": 1514,
      "ಥ": 1515,
      "ದ": 1516,
      "ಧ": 1517,
      "ನ": 1518,
      "಩": 1519,
      "ಪ": 1520,
      "ಫ": 1521,
      "ಬ": 1522,
      "ಭ": 1523,
      "ಮ": 1524,
      "ಯ": 1525,
      "ರ": 1526,
      "ಲ": 1527,
      "ಳ": 1528,
      "ವ": 1529,
      "ಶ": 1530,
      "ಷ": 1531,
      "ಸ": 1532,
      "ಹ": 1533,
      "ಾ": 1534,
      "ಿ": 1535,
      "ೀ": 1536,
      "ು": 1537,
      "ೂ": 1538,
      "ೆ": 1539,
      "ೇ": 1540,
      "ೈ": 1541,
      "ೊ": 1542,
      "ೋ": 1543,
      "್": 1544,
      "ം": 1545,
      "അ": 1546,
      "ആ": 1547,
      "ഇ": 1548,
      "ഈ": 1549,
      "ഉ": 1550,
      "എ": 1551,
      "ഐ": 1552,
      "ഒ": 1553,
      "ഓ": 1554,
      "ക": 1555,
      "ഗ": 1556,
      "ങ": 1557,
      "ച": 1558,
      "ജ": 1559,
      "ഞ": 1560,
      "ട": 1561,
      "ണ": 1562,
      "ത": 1563,
      "ദ": 1564,
      "ധ": 1565,
      "ന": 1566,
      "പ": 1567,
      "ഫ": 1568,
      "ബ": 1569,
      "ഭ": 1570,
      "മ": 1571,
      "യ": 1572,
      "ര": 1573,
      "റ": 1574,
      "ല": 1575,
      "ള": 1576,
      "ഴ": 1577,
      "വ": 1578,
      "ശ": 1579,
      "ഷ": 1580,
      "സ": 1581,
      "ഹ": 1582,
      "ാ": 1583,
      "ി": 1584,
      "ീ": 1585,
      "ു": 1586,
      "ൂ": 1587,
      "ൃ": 1588,
      "െ": 1589,
      "േ": 1590,
      "ൊ": 1591,
      "ോ": 1592,
      "്": 1593,
      "ൻ": 1594,
      "ർ": 1595,
      "ൽ": 1596,
      "ൾ": 1597,
      "ං": 1598,
      "අ": 1599,
      "ආ": 1600,
      "ඇ": 1601,
      "ඉ": 1602,
      "ඊ": 1603,
      "උ": 1604,
      "එ": 1605,
      "ඒ": 1606,
      "ඔ": 1607,
      "ඕ": 1608,
      "ක": 1609,
      "ග": 1610,
      "ච": 1611,
      "ජ": 1612,
      "ට": 1613,
      "ඩ": 1614,
      "ණ": 1615,
      "ත": 1616,
      "ථ": 1617,
      "ද": 1618,
      "ධ": 1619,
      "න": 1620,
      "ඳ": 1621,
      "ප": 1622,
      "බ": 1623,
      "භ": 1624,
      "ම": 1625,
      "ය": 1626,
      "ර": 1627,
      "ල": 1628,
      "ව": 1629,
      "ශ": 1630,
      "ෂ": 1631,
      "ස": 1632,
      "හ": 1633,
      "ළ": 1634,
      "්": 1635,
      "ා": 1636,
      "ැ": 1637,
      "ෑ": 1638,
      "ි": 1639,
      "ී": 1640,
      "ු": 1641,
      "ෘ": 1642,
      "ෙ": 1643,
      "ේ": 1644,
      "ෛ": 1645,
      "ො": 1646,
      "ෝ": 1647,
      "ෞ": 1648,
      "෡": 1649,
      "ก": 1650,
      "ข": 1651,
      "ค": 1652,
      "ฅ": 1653,
      "ฆ": 1654,
      "ง": 1655,
      "จ": 1656,
      "ฉ": 1657,
      "ช": 1658,
      "ซ": 1659,
      "ฌ": 1660,
      "ญ": 1661,
      "ฎ": 1662,
      "ฏ": 1663,
      "ฐ": 1664,
      "ฑ": 1665,
      "ฒ": 1666,
      "ณ": 1667,
      "ด": 1668,
      "ต": 1669,
      "ถ": 1670,
      "ท": 1671,
      "ธ": 1672,
      "น": 1673,
      "บ": 1674,
      "ป": 1675,
      "ผ": 1676,
      "ฝ": 1677,
      "พ": 1678,
      "ฟ": 1679,
      "ภ": 1680,
      "ม": 1681,
      "ย": 1682,
      "ร": 1683,
      "ฤ": 1684,
      "ล": 1685,
      "ว": 1686,
      "ศ": 1687,
      "ษ": 1688,
      "ส": 1689,
      "ห": 1690,
      "ฬ": 1691,
      "อ": 1692,
      "ฮ": 1693,
      "ฯ": 1694,
      "ะ": 1695,
      "ั": 1696,
      "า": 1697,
      "ำ": 1698,
      "ิ": 1699,
      "ี": 1700,
      "ึ": 1701,
      "ื": 1702,
      "ุ": 1703,
      "ู": 1704,
      "ฺ": 1705,
      "฿": 1706,
      "เ": 1707,
      "แ": 1708,
      "โ": 1709,
      "ใ": 1710,
      "ไ": 1711,
      "ๅ": 1712,
      "ๆ": 1713,
      "็": 1714,
      "่": 1715,
      "้": 1716,
      "๊": 1717,
      "๋": 1718,
      "์": 1719,
      "ํ": 1720,
      "๏": 1721,
      "๐": 1722,
      "๑": 1723,
      "๔": 1724,
      "๕": 1725,
      "๖": 1726,
      "๗": 1727,
      "๘": 1728,
      "๙": 1729,
      "๜": 1730,
      "๝": 1731,
      "ກ": 1732,
      "ຂ": 1733,
      "ຄ": 1734,
      "ງ": 1735,
      "ຈ": 1736,
      "ຊ": 1737,
      "ຍ": 1738,
      "ດ": 1739,
      "ຕ": 1740,
      "ຖ": 1741,
      "ທ": 1742,
      "ນ": 1743,
      "ບ": 1744,
      "ປ": 1745,
      "ຜ": 1746,
      "ພ": 1747,
      "ມ": 1748,
      "ຢ": 1749,
      "ຣ": 1750,
      "ລ": 1751,
      "ວ": 1752,
      "ສ": 1753,
      "ຫ": 1754,
      "ອ": 1755,
      "ຮ": 1756,
      "ະ": 1757,
      "ັ": 1758,
      "າ": 1759,
      "ຳ": 1760,
      "ິ": 1761,
      "ີ": 1762,
      "ຶ": 1763,
      "ື": 1764,
      "ຸ": 1765,
      "ູ": 1766,
      "ົ": 1767,
      "ຼ": 1768,
      "ຽ": 1769,
      "ເ": 1770,
      "ແ": 1771,
      "ໂ": 1772,
      "ໃ": 1773,
      "ໄ": 1774,
      "ໆ": 1775,
      "່": 1776,
      "້": 1777,
      "ໍ": 1778,
      "་": 1779,
      "།": 1780,
      "༧": 1781,
      "༼": 1782,
      "༽": 1783,
      "ཀ": 1784,
      "ང": 1785,
      "ཉ": 1786,
      "ད": 1787,
      "ན": 1788,
      "པ": 1789,
      "བ": 1790,
      "མ": 1791,
      "ཙ": 1792,
      "ཡ": 1793,
      "ར": 1794,
      "ཤ": 1795,
      "ས": 1796,
      "ཧ": 1797,
      "ཨ": 1798,
      "ཱ": 1799,
      "ི": 1800,
      "ུ": 1801,
      "ེ": 1802,
      "ོ": 1803,
      "ྃ": 1804,
      "ྒ": 1805,
      "ྱ": 1806,
      "࿹": 1807,
      "က": 1808,
      "ခ": 1809,
      "င": 1810,
      "စ": 1811,
      "ဆ": 1812,
      "ည": 1813,
      "တ": 1814,
      "ထ": 1815,
      "န": 1816,
      "ပ": 1817,
      "မ": 1818,
      "ရ": 1819,
      "လ": 1820,
      "သ": 1821,
      "အ": 1822,
      "ာ": 1823,
      "ိ": 1824,
      "ီ": 1825,
      "ု": 1826,
      "ူ": 1827,
      "ေ": 1828,
      "ဲ": 1829,
      "ံ": 1830,
      "့": 1831,
      "း": 1832,
      "္": 1833,
      "်": 1834,
      "ျ": 1835,
      "ြ": 1836,
      "ွ": 1837,
      "။": 1838,
      "၏": 1839,
      "႔": 1840,
      "႕": 1841,
      "Ⴎ": 1842,
      "ა": 1843,
      "ბ": 1844,
      "გ": 1845,
      "დ": 1846,
      "ე": 1847,
      "ვ": 1848,
      "ზ": 1849,
      "თ": 1850,
      "ი": 1851,
      "კ": 1852,
      "ლ": 1853,
      "მ": 1854,
      "ნ": 1855,
      "ო": 1856,
      "პ": 1857,
      "ჟ": 1858,
      "რ": 1859,
      "ს": 1860,
      "ტ": 1861,
      "უ": 1862,
      "ფ": 1863,
      "ქ": 1864,
      "ღ": 1865,
      "ყ": 1866,
      "შ": 1867,
      "ჩ": 1868,
      "ც": 1869,
      "ძ": 1870,
      "წ": 1871,
      "ხ": 1872,
      "ჯ": 1873,
      "ჲ": 1874,
      "ჴ": 1875,
      "ჵ": 1876,
      "ჶ": 1877,
      "ჷ": 1878,
      "ჸ": 1879,
      "ჹ": 1880,
      "ჺ": 1881,
      "჻": 1882,
      "ჼ": 1883,
      "ჽ": 1884,
      "ჾ": 1885,
      "ჿ": 1886,
      "ᄀ": 1887,
      "ᄂ": 1888,
      "ᄃ": 1889,
      "ᄅ": 1890,
      "ᄇ": 1891,
      "ᄋ": 1892,
      "ᄒ": 1893,
      "ᅡ": 1894,
      "ᅣ": 1895,
      "ᅥ": 1896,
      "ᅧ": 1897,
      "ᅩ": 1898,
      "ᅲ": 1899,
      "ᅳ": 1900,
      "ᅴ": 1901,
      "ᆞ": 1902,
      "ᆫ": 1903,
      "ᆯ": 1904,
      "ᆷ": 1905,
      "ᇀ": 1906,
      "ሁ": 1907,
      "ሃ": 1908,
      "ህ": 1909,
      "ሆ": 1910,
      "ለ": 1911,
      "ሉ": 1912,
      "ላ": 1913,
      "ል": 1914,
      "ሓ": 1915,
      "መ": 1916,
      "ሙ": 1917,
      "ሚ": 1918,
      "ማ": 1919,
      "ሜ": 1920,
      "ም": 1921,
      "ሣ": 1922,
      "ረ": 1923,
      "ሩ": 1924,
      "ሪ": 1925,
      "ራ": 1926,
      "ር": 1927,
      "ሮ": 1928,
      "ሰ": 1929,
      "ሱ": 1930,
      "ሳ": 1931,
      "ስ": 1932,
      "ሽ": 1933,
      "ሾ": 1934,
      "ቀ": 1935,
      "ቅ": 1936,
      "በ": 1937,
      "ባ": 1938,
      "ቤ": 1939,
      "ብ": 1940,
      "ቦ": 1941,
      "ተ": 1942,
      "ቱ": 1943,
      "ቲ": 1944,
      "ታ": 1945,
      "ት": 1946,
      "ቶ": 1947,
      "ቸ": 1948,
      "ቻ": 1949,
      "ች": 1950,
      "ነ": 1951,
      "ኑ": 1952,
      "ና": 1953,
      "ን": 1954,
      "ኛ": 1955,
      "አ": 1956,
      "ኢ": 1957,
      "እ": 1958,
      "ከ": 1959,
      "ኪ": 1960,
      "ካ": 1961,
      "ክ": 1962,
      "ኮ": 1963,
      "ወ": 1964,
      "ዉ": 1965,
      "ዊ": 1966,
      "ው": 1967,
      "ዎ": 1968,
      "ዘ": 1969,
      "ዚ": 1970,
      "የ": 1971,
      "ዩ": 1972,
      "ያ": 1973,
      "ይ": 1974,
      "ዮ": 1975,
      "ደ": 1976,
      "ዲ": 1977,
      "ዳ": 1978,
      "ዴ": 1979,
      "ድ": 1980,
      "ጀ": 1981,
      "ገ": 1982,
      "ግ": 1983,
      "ጠ": 1984,
      "ጣ": 1985,
      "ጥ": 1986,
      "ጨ": 1987,
      "ጭ": 1988,
      "ጵ": 1989,
      "ፈ": 1990,
      "ፊ": 1991,
      "ፌ": 1992,
      "ፍ": 1993,
      "ፎ": 1994,
      "ፕ": 1995,
      "፡": 1996,
      "።": 1997,
      "፣": 1998,
      "፤": 1999,
      "፪": 2000,
      "፲": 2001,
      "Ꭰ": 2002,
      "Ꭱ": 2003,
      "Ꭴ": 2004,
      "Ꭹ": 2005,
      "Ꭺ": 2006,
      "Ꭼ": 2007,
      "Ꮇ": 2008,
      "Ꮋ": 2009,
      "Ꮍ": 2010,
      "Ꮎ": 2011,
      "Ꮕ": 2012,
      "Ꮖ": 2013,
      "Ꮝ": 2014,
      "Ꮣ": 2015,
      "Ꮤ": 2016,
      "Ꮦ": 2017,
      "Ꮧ": 2018,
      "Ꮨ": 2019,
      "Ꮩ": 2020,
      "Ꮮ": 2021,
      "Ꮯ": 2022,
      "Ꮲ": 2023,
      "Ꮳ": 2024,
      "Ꮵ": 2025,
      "Ꮶ": 2026,
      "Ᏹ": 2027,
      "Ᏺ": 2028,
      "Ᏼ": 2029,
      "ᐃ": 2030,
      "ᐅ": 2031,
      "ᐈ": 2032,
      "ᐉ": 2033,
      "ᐊ": 2034,
      "ᐐ": 2035,
      "ᐑ": 2036,
      "ᐓ": 2037,
      "ᐔ": 2038,
      "ᐕ": 2039,
      "ᐖ": 2040,
      "ᐗ": 2041,
      "ᐘ": 2042,
      "ᐙ": 2043,
      "ᐚ": 2044,
      "ᐥ": 2045,
      "ᐧ": 2046,
      "ᐻ": 2047,
      "ᓚ": 2048,
      "ᔤ": 2049,
      "ᕋ": 2050,
      "ᕼ": 2051,
      "ᖆ": 2052,
      "ᗢ": 2053,
      "ᗩ": 2054,
      "ᘏ": 2055,
      "ᚢ": 2056,
      "ᚱ": 2057,
      "ᚴ": 2058,
      "ក": 2059,
      "ខ": 2060,
      "គ": 2061,
      "ឃ": 2062,
      "ង": 2063,
      "ច": 2064,
      "ជ": 2065,
      "ឈ": 2066,
      "ញ": 2067,
      "ដ": 2068,
      "ឌ": 2069,
      "ណ": 2070,
      "ត": 2071,
      "ថ": 2072,
      "ទ": 2073,
      "ន": 2074,
      "ប": 2075,
      "ផ": 2076,
      "ព": 2077,
      "ភ": 2078,
      "ម": 2079,
      "យ": 2080,
      "រ": 2081,
      "ល": 2082,
      "វ": 2083,
      "ស": 2084,
      "ហ": 2085,
      "អ": 2086,
      "ា": 2087,
      "ិ": 2088,
      "ី": 2089,
      "ឺ": 2090,
      "ុ": 2091,
      "ូ": 2092,
      "ួ": 2093,
      "ើ": 2094,
      "ៀ": 2095,
      "េ": 2096,
      "ែ": 2097,
      "ៃ": 2098,
      "ោ": 2099,
      "ំ": 2100,
      "ះ": 2101,
      "ៈ": 2102,
      "៉": 2103,
      "់": 2104,
      "៍": 2105,
      "៏": 2106,
      "្": 2107,
      "។": 2108,
      "ᦟ": 2109,
      "Ა": 2110,
      "ᴀ": 2111,
      "ᴄ": 2112,
      "ᴅ": 2113,
      "ᴇ": 2114,
      "ᴏ": 2115,
      "ᴗ": 2116,
      "ᴘ": 2117,
      "ᴛ": 2118,
      "ᴜ": 2119,
      "ᴠ": 2120,
      "ᴡ": 2121,
      "ᴥ": 2122,
      "ᵀ": 2123,
      "ᵂ": 2124,
      "ᵃ": 2125,
      "ᵅ": 2126,
      "ᵇ": 2127,
      "ᵈ": 2128,
      "ᵉ": 2129,
      "ᵍ": 2130,
      "ᵏ": 2131,
      "ᵐ": 2132,
      "ᵒ": 2133,
      "ᵗ": 2134,
      "ᵘ": 2135,
      "ᵜ": 2136,
      "ᶜ": 2137,
      "ᶠ": 2138,
      "ᶦ": 2139,
      "ḁ": 2140,
      "Ḍ": 2141,
      "ḍ": 2142,
      "ḗ": 2143,
      "Ḥ": 2144,
      "ḥ": 2145,
      "Ḩ": 2146,
      "ḫ": 2147,
      "ḱ": 2148,
      "Ḳ": 2149,
      "ḵ": 2150,
      "ḷ": 2151,
      "ḻ": 2152,
      "ḿ": 2153,
      "ṁ": 2154,
      "ṃ": 2155,
      "ṅ": 2156,
      "ṇ": 2157,
      "ṓ": 2158,
      "ṛ": 2159,
      "ṟ": 2160,
      "Ṡ": 2161,
      "ṡ": 2162,
      "Ṣ": 2163,
      "ṣ": 2164,
      "Ṭ": 2165,
      "ṭ": 2166,
      "ṯ": 2167,
      "ṹ": 2168,
      "ẇ": 2169,
      "ẕ": 2170,
      "ẞ": 2171,
      "ạ": 2172,
      "Ả": 2173,
      "ả": 2174,
      "Ấ": 2175,
      "ấ": 2176,
      "ầ": 2177,
      "Ẩ": 2178,
      "ẩ": 2179,
      "ẫ": 2180,
      "Ậ": 2181,
      "ậ": 2182,
      "ắ": 2183,
      "ằ": 2184,
      "ẳ": 2185,
      "ẵ": 2186,
      "ặ": 2187,
      "Ẹ": 2188,
      "ẹ": 2189,
      "ẻ": 2190,
      "ẽ": 2191,
      "ế": 2192,
      "Ề": 2193,
      "ề": 2194,
      "Ể": 2195,
      "ể": 2196,
      "Ễ": 2197,
      "ễ": 2198,
      "Ệ": 2199,
      "ệ": 2200,
      "ỉ": 2201,
      "ị": 2202,
      "Ọ": 2203,
      "ọ": 2204,
      "Ỏ": 2205,
      "ỏ": 2206,
      "Ố": 2207,
      "ố": 2208,
      "Ồ": 2209,
      "ồ": 2210,
      "Ổ": 2211,
      "ổ": 2212,
      "ỗ": 2213,
      "ộ": 2214,
      "ớ": 2215,
      "ờ": 2216,
      "Ở": 2217,
      "ở": 2218,
      "ỡ": 2219,
      "ợ": 2220,
      "Ụ": 2221,
      "ụ": 2222,
      "Ủ": 2223,
      "ủ": 2224,
      "Ứ": 2225,
      "ứ": 2226,
      "Ừ": 2227,
      "ừ": 2228,
      "ử": 2229,
      "ữ": 2230,
      "Ự": 2231,
      "ự": 2232,
      "ỳ": 2233,
      "ỷ": 2234,
      "Ỹ": 2235,
      "ỹ": 2236,
      "ἀ": 2237,
      "ἁ": 2238,
      "ἄ": 2239,
      "Ἀ": 2240,
      "Ἄ": 2241,
      "ἐ": 2242,
      "ἑ": 2243,
      "ἔ": 2244,
      "ἕ": 2245,
      "ἡ": 2246,
      "ἢ": 2247,
      "ἧ": 2248,
      "Ἡ": 2249,
      "ἰ": 2250,
      "ἱ": 2251,
      "ἴ": 2252,
      "ἶ": 2253,
      "Ἰ": 2254,
      "Ἱ": 2255,
      "ὀ": 2256,
      "ὁ": 2257,
      "ὄ": 2258,
      "ὅ": 2259,
      "Ὀ": 2260,
      "Ὄ": 2261,
      "ὐ": 2262,
      "ὑ": 2263,
      "ὕ": 2264,
      "ὖ": 2265,
      "ὠ": 2266,
      "ὡ": 2267,
      "ὣ": 2268,
      "ὥ": 2269,
      "ὦ": 2270,
      "Ὡ": 2271,
      "ὰ": 2272,
      "ὲ": 2273,
      "ὴ": 2274,
      "ὶ": 2275,
      "ὸ": 2276,
      "ὺ": 2277,
      "ὼ": 2278,
      "ᾖ": 2279,
      "ᾳ": 2280,
      "ᾶ": 2281,
      "ῃ": 2282,
      "ῆ": 2283,
      "ῇ": 2284,
      "ῖ": 2285,
      "ῥ": 2286,
      "ῦ": 2287,
      "ῳ": 2288,
      "ῶ": 2289,
      "ῷ": 2290,
      " ": 2291,
      " ": 2292,
      " ": 2293,
      " ": 2294,
      "​": 2295,
      "‌": 2296,
      "‍": 2297,
      "‎": 2298,
      "‏": 2299,
      "‐": 2300,
      "‑": 2301,
      "‒": 2302,
      "–": 2303,
      "—": 2304,
      "―": 2305,
      "‖": 2306,
      "‘": 2307,
      "’": 2308,
      "‚": 2309,
      "‛": 2310,
      "“": 2311,
      "”": 2312,
      "„": 2313,
      "†": 2314,
      "‡": 2315,
      "•": 2316,
      "‣": 2317,
      "․": 2318,
      "‥": 2319,
      "…": 2320,
      "‧": 2321,
      " ": 2322,
      "‪": 2323,
      "‫": 2324,
      "‬": 2325,
      "‭": 2326,
      " ": 2327,
      "‰": 2328,
      "′": 2329,
      "″": 2330,
      "‵": 2331,
      "‹": 2332,
      "›": 2333,
      "※": 2334,
      "‼": 2335,
      "‿": 2336,
      "⁂": 2337,
      "⁃": 2338,
      "⁄": 2339,
      "⁇": 2340,
      "⁉": 2341,
      "⁏": 2342,
      "⁜": 2343,
      "⁠": 2344,
      "⁡": 2345,
      "⁣": 2346,
      "⁦": 2347,
      "ⁱ": 2348,
      "⁴": 2349,
      "⁵": 2350,
      "⁶": 2351,
      "⁷": 2352,
      "⁸": 2353,
      "⁺": 2354,
      "⁻": 2355,
      "⁼": 2356,
      "₀": 2357,
      "₁": 2358,
      "₂": 2359,
      "₃": 2360,
      "₄": 2361,
      "₅": 2362,
      "₆": 2363,
      "₇": 2364,
      "₈": 2365,
      "₉": 2366,
      "₊": 2367,
      "₋": 2368,
      "ₐ": 2369,
      "ₓ": 2370,
      "ₙ": 2371,
      "₡": 2372,
      "₦": 2373,
      "₩": 2374,
      "₪": 2375,
      "€": 2376,
      "₮": 2377,
      "₹": 2378,
      "₺": 2379,
      "₽": 2380,
      "⃗": 2381,
      "⃣": 2382,
      "℃": 2383,
      "℉": 2384,
      "ℊ": 2385,
      "ℋ": 2386,
      "ℌ": 2387,
      "ℏ": 2388,
      "ℐ": 2389,
      "ℒ": 2390,
      "ℓ": 2391,
      "ℕ": 2392,
      "№": 2393,
      "ℙ": 2394,
      "ℝ": 2395,
      "℠": 2396,
      "™": 2397,
      "ℤ": 2398,
      "Ω": 2399,
      "ℯ": 2400,
      "ℴ": 2401,
      "ℵ": 2402,
      "ℹ": 2403,
      "⅍": 2404,
      "⅓": 2405,
      "⅔": 2406,
      "⅕": 2407,
      "⅖": 2408,
      "⅗": 2409,
      "⅘": 2410,
      "⅙": 2411,
      "⅚": 2412,
      "⅛": 2413,
      "⅜": 2414,
      "⅝": 2415,
      "⅞": 2416,
      "⅟": 2417,
      "Ⅰ": 2418,
      "Ⅱ": 2419,
      "Ⅳ": 2420,
      "Ⅷ": 2421,
      "Ⅸ": 2422,
      "Ⅹ": 2423,
      "Ↄ": 2424,
      "←": 2425,
      "↑": 2426,
      "→": 2427,
      "↓": 2428,
      "↔": 2429,
      "↗": 2430,
      "↦": 2431,
      "↩": 2432,
      "↯": 2433,
      "↵": 2434,
      "⇆": 2435,
      "⇌": 2436,
      "⇐": 2437,
      "⇑": 2438,
      "⇒": 2439,
      "⇔": 2440,
      "∀": 2441,
      "∂": 2442,
      "∃": 2443,
      "∅": 2444,
      "∆": 2445,
      "∇": 2446,
      "∈": 2447,
      "∉": 2448,
      "∊": 2449,
      "∎": 2450,
      "∏": 2451,
      "∑": 2452,
      "−": 2453,
      "∕": 2454,
      "∖": 2455,
      "∗": 2456,
      "∘": 2457,
      "∙": 2458,
      "√": 2459,
      "∝": 2460,
      "∞": 2461,
      "∠": 2462,
      "∣": 2463,
      "∥": 2464,
      "∧": 2465,
      "∨": 2466,
      "∩": 2467,
      "∪": 2468,
      "∫": 2469,
      "∮": 2470,
      "∴": 2471,
      "∶": 2472,
      "∼": 2473,
      "∽": 2474,
      "≃": 2475,
      "≅": 2476,
      "≈": 2477,
      "≒": 2478,
      "≔": 2479,
      "≠": 2480,
      "≡": 2481,
      "≢": 2482,
      "≤": 2483,
      "≥": 2484,
      "≦": 2485,
      "≧": 2486,
      "≪": 2487,
      "≫": 2488,
      "≺": 2489,
      "⊂": 2490,
      "⊃": 2491,
      "⊆": 2492,
      "⊇": 2493,
      "⊕": 2494,
      "⊖": 2495,
      "⊗": 2496,
      "⊘": 2497,
      "⊢": 2498,
      "⊤": 2499,
      "⊥": 2500,
      "⊨": 2501,
      "⋀": 2502,
      "⋃": 2503,
      "⋅": 2504,
      "⋆": 2505,
      "⋐": 2506,
      "⋑": 2507,
      "⋘": 2508,
      "⋮": 2509,
      "⋯": 2510,
      "⌃": 2511,
      "⌈": 2512,
      "⌉": 2513,
      "⌐": 2514,
      "⌒": 2515,
      "⌓": 2516,
      "⌘": 2517,
      "⌚": 2518,
      "⌛": 2519,
      "⌥": 2520,
      "⌧": 2521,
      "⌨": 2522,
      "⌫": 2523,
      "⍝": 2524,
      "⍨": 2525,
      "⍴": 2526,
      "⍵": 2527,
      "⍺": 2528,
      "⎛": 2529,
      "⎜": 2530,
      "⎝": 2531,
      "⎞": 2532,
      "⎟": 2533,
      "⎠": 2534,
      "⎡": 2535,
      "⎢": 2536,
      "⎣": 2537,
      "⎤": 2538,
      "⎦": 2539,
      "⏏": 2540,
      "⏤": 2541,
      "⏩": 2542,
      "⏫": 2543,
      "⏰": 2544,
      "⏳": 2545,
      "⏹": 2546,
      "⑀": 2547,
      "⑁": 2548,
      "①": 2549,
      "②": 2550,
      "③": 2551,
      "④": 2552,
      "⑤": 2553,
      "⑥": 2554,
      "⑦": 2555,
      "ⓛ": 2556,
      "─": 2557,
      "━": 2558,
      "│": 2559,
      "┌": 2560,
      "┏": 2561,
      "┐": 2562,
      "└": 2563,
      "┘": 2564,
      "┛": 2565,
      "├": 2566,
      "┤": 2567,
      "┬": 2568,
      "┴": 2569,
      "┻": 2570,
      "┼": 2571,
      "═": 2572,
      "║": 2573,
      "╓": 2574,
      "╔": 2575,
      "╗": 2576,
      "╚": 2577,
      "╝": 2578,
      "╠": 2579,
      "╡": 2580,
      "╣": 2581,
      "╤": 2582,
      "╥": 2583,
      "╦": 2584,
      "╧": 2585,
      "╨": 2586,
      "╩": 2587,
      "╬": 2588,
      "╭": 2589,
      "╮": 2590,
      "╯": 2591,
      "╰": 2592,
      "▁": 2593,
      "▄": 2594,
      "█": 2595,
      "▉": 2596,
      "▌": 2597,
      "▐": 2598,
      "░": 2599,
      "▒": 2600,
      "▓": 2601,
      "■": 2602,
      "□": 2603,
      "▪": 2604,
      "▲": 2605,
      "△": 2606,
      "▶": 2607,
      "▼": 2608,
      "▽": 2609,
      "▾": 2610,
      "◀": 2611,
      "◁": 2612,
      "◆": 2613,
      "◇": 2614,
      "◊": 2615,
      "○": 2616,
      "◎": 2617,
      "●": 2618,
      "◔": 2619,
      "◕": 2620,
      "◠": 2621,
      "◡": 2622,
      "◦": 2623,
      "◯": 2624,
      "◻": 2625,
      "☀": 2626,
      "☁": 2627,
      "☂": 2628,
      "☄": 2629,
      "★": 2630,
      "☆": 2631,
      "☇": 2632,
      "☉": 2633,
      "☎": 2634,
      "☏": 2635,
      "☐": 2636,
      "☑": 2637,
      "☒": 2638,
      "☔": 2639,
      "☕": 2640,
      "☛": 2641,
      "☝": 2642,
      "☞": 2643,
      "☠": 2644,
      "☤": 2645,
      "☰": 2646,
      "☹": 2647,
      "☺": 2648,
      "☻": 2649,
      "♀": 2650,
      "♂": 2651,
      "♉": 2652,
      "♌": 2653,
      "♔": 2654,
      "♕": 2655,
      "♖": 2656,
      "♗": 2657,
      "♘": 2658,
      "♙": 2659,
      "♚": 2660,
      "♛": 2661,
      "♜": 2662,
      "♝": 2663,
      "♞": 2664,
      "♟": 2665,
      "♠": 2666,
      "♡": 2667,
      "♢": 2668,
      "♣": 2669,
      "♤": 2670,
      "♥": 2671,
      "♦": 2672,
      "♧": 2673,
      "♨": 2674,
      "♩": 2675,
      "♪": 2676,
      "♫": 2677,
      "♬": 2678,
      "♭": 2679,
      "♮": 2680,
      "♯": 2681,
      "♰": 2682,
      "♱": 2683,
      "♲": 2684,
      "♳": 2685,
      "♴": 2686,
      "♵": 2687,
      "♶": 2688,
      "♷": 2689,
      "♸": 2690,
      "♹": 2691,
      "♺": 2692,
      "♻": 2693,
      "♼": 2694,
      "♽": 2695,
      "♾": 2696,
      "♿": 2697,
      "⚀": 2698,
      "⚁": 2699,
      "⚂": 2700,
      "⚃": 2701,
      "⚄": 2702,
      "⚅": 2703,
      "⚆": 2704,
      "⚇": 2705,
      "⚈": 2706,
      "⚉": 2707,
      "⚊": 2708,
      "⚋": 2709,
      "⚌": 2710,
      "⚍": 2711,
      "⚎": 2712,
      "⚏": 2713,
      "⚐": 2714,
      "⚑": 2715,
      "⚒": 2716,
      "⚓": 2717,
      "⚔": 2718,
      "⚕": 2719,
      "⚖": 2720,
      "⚙": 2721,
      "⚛": 2722,
      "⚠": 2723,
      "⚡": 2724,
      "⚫": 2725,
      "⚰": 2726,
      "⚽": 2727,
      "⛅": 2728,
      "⛈": 2729,
      "⛰": 2730,
      "⛱": 2731,
      "⛳": 2732,
      "⛴": 2733,
      "⛵": 2734,
      "✂": 2735,
      "✅": 2736,
      "✈": 2737,
      "✊": 2738,
      "✌": 2739,
      "✍": 2740,
      "✏": 2741,
      "✓": 2742,
      "✔": 2743,
      "✕": 2744,
      "✖": 2745,
      "✗": 2746,
      "✘": 2747,
      "✥": 2748,
      "✦": 2749,
      "✧": 2750,
      "✨": 2751,
      "✴": 2752,
      "✿": 2753,
      "❀": 2754,
      "❁": 2755,
      "❄": 2756,
      "❇": 2757,
      "❌": 2758,
      "❎": 2759,
      "❏": 2760,
      "❑": 2761,
      "❒": 2762,
      "❓": 2763,
      "❖": 2764,
      "❗": 2765,
      "❜": 2766,
      "❝": 2767,
      "❞": 2768,
      "❣": 2769,
      "❤": 2770,
      "❥": 2771,
      "❯": 2772,
      "❶": 2773,
      "❷": 2774,
      "➔": 2775,
      "➕": 2776,
      "➖": 2777,
      "➞": 2778,
      "➡": 2779,
      "➢": 2780,
      "➥": 2781,
      "⟌": 2782,
      "⟨": 2783,
      "⟩": 2784,
      "⟪": 2785,
      "⟵": 2786,
      "⟶": 2787,
      "⠀": 2788,
      "⤵": 2789,
      "⥁": 2790,
      "⥽": 2791,
      "⦎": 2792,
      "⦏": 2793,
      "⦝": 2794,
      "⦽": 2795,
      "⦿": 2796,
      "⨝": 2797,
      "⩠": 2798,
      "⩽": 2799,
      "⬅": 2800,
      "⬆": 2801,
      "⬇": 2802,
      "⬜": 2803,
      "⭐": 2804,
      "Ɐ": 2805,
      "Ɒ": 2806,
      "Ⱶ": 2807,
      "ⱶ": 2808,
      "ⱷ": 2809,
      "Ⲳ": 2810,
      "ⴰ": 2811,
      "ⴼ": 2812,
      "ⵉ": 2813,
      "ⵎ": 2814,
      "ⵓ": 2815,
      "ⵔ": 2816,
      "ⵖ": 2817,
      "ⵙ": 2818,
      "ⵜ": 2819,
      "ⵣ": 2820,
      "⸿": 2821,
      "⺩": 2822,
      "⺬": 2823,
      "⺮": 2824,
      "⺯": 2825,
      "⻨": 2826,
      "⾊": 2827,
      "⾼": 2828,
      "⿕": 2829,
      "　": 2830,
      "、": 2831,
      "。": 2832,
      "々": 2833,
      "〇": 2834,
      "〈": 2835,
      "〉": 2836,
      "《": 2837,
      "》": 2838,
      "「": 2839,
      "」": 2840,
      "『": 2841,
      "』": 2842,
      "【": 2843,
      "】": 2844,
      "〒": 2845,
      "〔": 2846,
      "〕": 2847,
      "〖": 2848,
      "〗": 2849,
      "〜": 2850,
      "ぁ": 2851,
      "あ": 2852,
      "ぃ": 2853,
      "い": 2854,
      "ぅ": 2855,
      "う": 2856,
      "ぇ": 2857,
      "え": 2858,
      "ぉ": 2859,
      "お": 2860,
      "か": 2861,
      "が": 2862,
      "き": 2863,
      "ぎ": 2864,
      "く": 2865,
      "ぐ": 2866,
      "け": 2867,
      "げ": 2868,
      "こ": 2869,
      "ご": 2870,
      "さ": 2871,
      "ざ": 2872,
      "し": 2873,
      "じ": 2874,
      "す": 2875,
      "ず": 2876,
      "せ": 2877,
      "ぜ": 2878,
      "そ": 2879,
      "ぞ": 2880,
      "た": 2881,
      "だ": 2882,
      "ち": 2883,
      "っ": 2884,
      "つ": 2885,
      "づ": 2886,
      "て": 2887,
      "で": 2888,
      "と": 2889,
      "ど": 2890,
      "な": 2891,
      "に": 2892,
      "ぬ": 2893,
      "ね": 2894,
      "の": 2895,
      "は": 2896,
      "ば": 2897,
      "ぱ": 2898,
      "ひ": 2899,
      "び": 2900,
      "ぴ": 2901,
      "ふ": 2902,
      "ぶ": 2903,
      "ぷ": 2904,
      "へ": 2905,
      "べ": 2906,
      "ぺ": 2907,
      "ほ": 2908,
      "ぼ": 2909,
      "ぽ": 2910,
      "ま": 2911,
      "み": 2912,
      "む": 2913,
      "め": 2914,
      "も": 2915,
      "ゃ": 2916,
      "や": 2917,
      "ゅ": 2918,
      "ゆ": 2919,
      "ょ": 2920,
      "よ": 2921,
      "ら": 2922,
      "り": 2923,
      "る": 2924,
      "れ": 2925,
      "ろ": 2926,
      "わ": 2927,
      "を": 2928,
      "ん": 2929,
      "゙": 2930,
      "゚": 2931,
      "ァ": 2932,
      "ア": 2933,
      "ィ": 2934,
      "イ": 2935,
      "ゥ": 2936,
      "ウ": 2937,
      "ェ": 2938,
      "エ": 2939,
      "ォ": 2940,
      "オ": 2941,
      "カ": 2942,
      "ガ": 2943,
      "キ": 2944,
      "ギ": 2945,
      "ク": 2946,
      "グ": 2947,
      "ケ": 2948,
      "ゲ": 2949,
      "コ": 2950,
      "ゴ": 2951,
      "サ": 2952,
      "ザ": 2953,
      "シ": 2954,
      "ジ": 2955,
      "ス": 2956,
      "ズ": 2957,
      "セ": 2958,
      "ゼ": 2959,
      "ソ": 2960,
      "ゾ": 2961,
      "タ": 2962,
      "ダ": 2963,
      "チ": 2964,
      "ヂ": 2965,
      "ッ": 2966,
      "ツ": 2967,
      "テ": 2968,
      "デ": 2969,
      "ト": 2970,
      "ド": 2971,
      "ナ": 2972,
      "ニ": 2973,
      "ヌ": 2974,
      "ネ": 2975,
      "ノ": 2976,
      "ハ": 2977,
      "バ": 2978,
      "パ": 2979,
      "ヒ": 2980,
      "ビ": 2981,
      "ピ": 2982,
      "フ": 2983,
      "ブ": 2984,
      "プ": 2985,
      "ヘ": 2986,
      "ベ": 2987,
      "ペ": 2988,
      "ホ": 2989,
      "ボ": 2990,
      "ポ": 2991,
      "マ": 2992,
      "ミ": 2993,
      "ム": 2994,
      "メ": 2995,
      "モ": 2996,
      "ャ": 2997,
      "ヤ": 2998,
      "ュ": 2999,
      "ユ": 3000,
      "ョ": 3001,
      "ヨ": 3002,
      "ラ": 3003,
      "リ": 3004,
      "ル": 3005,
      "レ": 3006,
      "ロ": 3007,
      "ヮ": 3008,
      "ワ": 3009,
      "ン": 3010,
      "ヴ": 3011,
      "ヶ": 3012,
      "・": 3013,
      "ー": 3014,
      "ヽ": 3015,
      "ヾ": 3016,
      "ㄱ": 3017,
      "ㄴ": 3018,
      "ㄹ": 3019,
      "ㅅ": 3020,
      "ㅆ": 3021,
      "ㅇ": 3022,
      "ㅊ": 3023,
      "ㅋ": 3024,
      "ㅎ": 3025,
      "ㅏ": 3026,
      "ㅑ": 3027,
      "ㅓ": 3028,
      "ㅔ": 3029,
      "ㅕ": 3030,
      "ㅗ": 3031,
      "ㅛ": 3032,
      "ㅜ": 3033,
      "ㅝ": 3034,
      "ㅞ": 3035,
      "ㅟ": 3036,
      "ㅠ": 3037,
      "ㅡ": 3038,
      "ㅢ": 3039,
      "ㅣ": 3040,
      "ㅤ": 3041,
      "ㅥ": 3042,
      "ㅦ": 3043,
      "ㅧ": 3044,
      "ㅨ": 3045,
      "ㅰ": 3046,
      "ㆍ": 3047,
      "㈜": 3048,
      "㈱": 3049,
      "㈲": 3050,
      "㎡": 3051,
      "㎢": 3052,
      "一": 3053,
      "丁": 3054,
      "七": 3055,
      "万": 3056,
      "丈": 3057,
      "三": 3058,
      "上": 3059,
      "下": 3060,
      "不": 3061,
      "与": 3062,
      "丑": 3063,
      "专": 3064,
      "且": 3065,
      "世": 3066,
      "丘": 3067,
      "丙": 3068,
      "业": 3069,
      "丛": 3070,
      "东": 3071,
      "丝": 3072,
      "両": 3073,
      "丢": 3074,
      "两": 3075,
      "严": 3076,
      "並": 3077,
      "丧": 3078,
      "个": 3079,
      "丫": 3080,
      "中": 3081,
      "丰": 3082,
      "串": 3083,
      "临": 3084,
      "丶": 3085,
      "丸": 3086,
      "丹": 3087,
      "为": 3088,
      "主": 3089,
      "丼": 3090,
      "丽": 3091,
      "举": 3092,
      "乀": 3093,
      "乁": 3094,
      "乂": 3095,
      "乃": 3096,
      "久": 3097,
      "乇": 3098,
      "么": 3099,
      "义": 3100,
      "乊": 3101,
      "之": 3102,
      "乌": 3103,
      "乎": 3104,
      "乏": 3105,
      "乐": 3106,
      "乒": 3107,
      "乓": 3108,
      "乔": 3109,
      "乖": 3110,
      "乗": 3111,
      "乘": 3112,
      "乙": 3113,
      "九": 3114,
      "乞": 3115,
      "也": 3116,
      "乡": 3117,
      "书": 3118,
      "买": 3119,
      "乱": 3120,
      "乲": 3121,
      "乳": 3122,
      "乶": 3123,
      "乷": 3124,
      "乸": 3125,
      "乹": 3126,
      "乺": 3127,
      "乻": 3128,
      "乼": 3129,
      "乽": 3130,
      "乾": 3131,
      "乿": 3132,
      "亀": 3133,
      "了": 3134,
      "予": 3135,
      "争": 3136,
      "事": 3137,
      "二": 3138,
      "于": 3139,
      "亏": 3140,
      "云": 3141,
      "互": 3142,
      "五": 3143,
      "井": 3144,
      "亚": 3145,
      "些": 3146,
      "亜": 3147,
      "亞": 3148,
      "亡": 3149,
      "亢": 3150,
      "交": 3151,
      "亥": 3152,
      "亦": 3153,
      "产": 3154,
      "亨": 3155,
      "亩": 3156,
      "享": 3157,
      "京": 3158,
      "亭": 3159,
      "亮": 3160,
      "亲": 3161,
      "人": 3162,
      "亿": 3163,
      "什": 3164,
      "仁": 3165,
      "仄": 3166,
      "仅": 3167,
      "仆": 3168,
      "仇": 3169,
      "今": 3170,
      "介": 3171,
      "仍": 3172,
      "从": 3173,
      "仏": 3174,
      "仑": 3175,
      "仓": 3176,
      "仔": 3177,
      "仕": 3178,
      "他": 3179,
      "仗": 3180,
      "付": 3181,
      "仙": 3182,
      "代": 3183,
      "以": 3184,
      "仪": 3185,
      "们": 3186,
      "仮": 3187,
      "仰": 3188,
      "仲": 3189,
      "件": 3190,
      "价": 3191,
      "任": 3192,
      "份": 3193,
      "仿": 3194,
      "企": 3195,
      "伊": 3196,
      "伍": 3197,
      "伎": 3198,
      "伏": 3199,
      "伐": 3200,
      "休": 3201,
      "众": 3202,
      "优": 3203,
      "伙": 3204,
      "会": 3205,
      "伝": 3206,
      "伞": 3207,
      "伟": 3208,
      "传": 3209,
      "伤": 3210,
      "伦": 3211,
      "伯": 3212,
      "估": 3213,
      "伴": 3214,
      "伶": 3215,
      "伸": 3216,
      "伺": 3217,
      "似": 3218,
      "伽": 3219,
      "但": 3220,
      "佇": 3221,
      "佈": 3222,
      "位": 3223,
      "低": 3224,
      "住": 3225,
      "佐": 3226,
      "佑": 3227,
      "体": 3228,
      "何": 3229,
      "余": 3230,
      "佛": 3231,
      "作": 3232,
      "你": 3233,
      "佣": 3234,
      "佤": 3235,
      "佩": 3236,
      "佰": 3237,
      "佳": 3238,
      "併": 3239,
      "使": 3240,
      "侄": 3241,
      "來": 3242,
      "侈": 3243,
      "例": 3244,
      "侍": 3245,
      "侖": 3246,
      "供": 3247,
      "依": 3248,
      "侠": 3249,
      "価": 3250,
      "侣": 3251,
      "侦": 3252,
      "侧": 3253,
      "侬": 3254,
      "侮": 3255,
      "侯": 3256,
      "侵": 3257,
      "侶": 3258,
      "便": 3259,
      "係": 3260,
      "促": 3261,
      "俄": 3262,
      "俊": 3263,
      "俏": 3264,
      "俐": 3265,
      "俗": 3266,
      "俚": 3267,
      "保": 3268,
      "信": 3269,
      "俭": 3270,
      "修": 3271,
      "俯": 3272,
      "俱": 3273,
      "俳": 3274,
      "俺": 3275,
      "倉": 3276,
      "個": 3277,
      "倍": 3278,
      "們": 3279,
      "倒": 3280,
      "倘": 3281,
      "候": 3282,
      "倚": 3283,
      "借": 3284,
      "倣": 3285,
      "値": 3286,
      "倦": 3287,
      "倩": 3288,
      "倫": 3289,
      "债": 3290,
      "值": 3291,
      "倾": 3292,
      "偃": 3293,
      "假": 3294,
      "偈": 3295,
      "偉": 3296,
      "偌": 3297,
      "偏": 3298,
      "做": 3299,
      "停": 3300,
      "健": 3301,
      "側": 3302,
      "偶": 3303,
      "偷": 3304,
      "偿": 3305,
      "傅": 3306,
      "傍": 3307,
      "傑": 3308,
      "傘": 3309,
      "備": 3310,
      "傣": 3311,
      "储": 3312,
      "催": 3313,
      "傲": 3314,
      "傳": 3315,
      "債": 3316,
      "傷": 3317,
      "傻": 3318,
      "傾": 3319,
      "僅": 3320,
      "働": 3321,
      "像": 3322,
      "僕": 3323,
      "僚": 3324,
      "僵": 3325,
      "價": 3326,
      "儀": 3327,
      "億": 3328,
      "儉": 3329,
      "儒": 3330,
      "儘": 3331,
      "償": 3332,
      "優": 3333,
      "儲": 3334,
      "儿": 3335,
      "允": 3336,
      "元": 3337,
      "兄": 3338,
      "充": 3339,
      "兆": 3340,
      "先": 3341,
      "光": 3342,
      "克": 3343,
      "免": 3344,
      "兎": 3345,
      "児": 3346,
      "兑": 3347,
      "兒": 3348,
      "兔": 3349,
      "党": 3350,
      "兜": 3351,
      "兟": 3352,
      "入": 3353,
      "內": 3354,
      "全": 3355,
      "兩": 3356,
      "八": 3357,
      "公": 3358,
      "六": 3359,
      "兮": 3360,
      "兰": 3361,
      "共": 3362,
      "关": 3363,
      "兴": 3364,
      "兵": 3365,
      "其": 3366,
      "具": 3367,
      "典": 3368,
      "兹": 3369,
      "养": 3370,
      "兼": 3371,
      "兽": 3372,
      "冀": 3373,
      "内": 3374,
      "円": 3375,
      "冈": 3376,
      "冊": 3377,
      "册": 3378,
      "再": 3379,
      "冒": 3380,
      "冗": 3381,
      "写": 3382,
      "军": 3383,
      "农": 3384,
      "冠": 3385,
      "冥": 3386,
      "冨": 3387,
      "冬": 3388,
      "冯": 3389,
      "冰": 3390,
      "冲": 3391,
      "决": 3392,
      "冴": 3393,
      "况": 3394,
      "冶": 3395,
      "冷": 3396,
      "冻": 3397,
      "冽": 3398,
      "净": 3399,
      "凄": 3400,
      "准": 3401,
      "凉": 3402,
      "凋": 3403,
      "凌": 3404,
      "凍": 3405,
      "减": 3406,
      "凑": 3407,
      "凛": 3408,
      "凝": 3409,
      "几": 3410,
      "凡": 3411,
      "凤": 3412,
      "処": 3413,
      "凪": 3414,
      "凭": 3415,
      "凯": 3416,
      "凰": 3417,
      "凶": 3418,
      "凸": 3419,
      "凹": 3420,
      "击": 3421,
      "函": 3422,
      "凿": 3423,
      "刀": 3424,
      "刁": 3425,
      "分": 3426,
      "切": 3427,
      "刈": 3428,
      "刊": 3429,
      "刑": 3430,
      "划": 3431,
      "列": 3432,
      "刘": 3433,
      "则": 3434,
      "刚": 3435,
      "创": 3436,
      "初": 3437,
      "删": 3438,
      "判": 3439,
      "別": 3440,
      "利": 3441,
      "刪": 3442,
      "别": 3443,
      "刮": 3444,
      "到": 3445,
      "制": 3446,
      "刷": 3447,
      "券": 3448,
      "刹": 3449,
      "刺": 3450,
      "刻": 3451,
      "剁": 3452,
      "剂": 3453,
      "剃": 3454,
      "則": 3455,
      "削": 3456,
      "剋": 3457,
      "前": 3458,
      "剑": 3459,
      "剔": 3460,
      "剖": 3461,
      "剛": 3462,
      "剝": 3463,
      "剣": 3464,
      "剤": 3465,
      "剥": 3466,
      "剧": 3467,
      "剩": 3468,
      "剪": 3469,
      "副": 3470,
      "剰": 3471,
      "割": 3472,
      "創": 3473,
      "劃": 3474,
      "劇": 3475,
      "劈": 3476,
      "劍": 3477,
      "劑": 3478,
      "力": 3479,
      "劝": 3480,
      "办": 3481,
      "功": 3482,
      "加": 3483,
      "务": 3484,
      "劣": 3485,
      "动": 3486,
      "助": 3487,
      "努": 3488,
      "劫": 3489,
      "励": 3490,
      "劲": 3491,
      "劳": 3492,
      "労": 3493,
      "効": 3494,
      "势": 3495,
      "勁": 3496,
      "勃": 3497,
      "勇": 3498,
      "勉": 3499,
      "勋": 3500,
      "勒": 3501,
      "動": 3502,
      "勘": 3503,
      "務": 3504,
      "勝": 3505,
      "勞": 3506,
      "募": 3507,
      "勢": 3508,
      "勤": 3509,
      "勧": 3510,
      "勳": 3511,
      "勵": 3512,
      "勺": 3513,
      "勻": 3514,
      "勾": 3515,
      "勿": 3516,
      "匀": 3517,
      "匂": 3518,
      "包": 3519,
      "匆": 3520,
      "匈": 3521,
      "匕": 3522,
      "化": 3523,
      "北": 3524,
      "匙": 3525,
      "匝": 3526,
      "匠": 3527,
      "匪": 3528,
      "匯": 3529,
      "匹": 3530,
      "区": 3531,
      "医": 3532,
      "匿": 3533,
      "區": 3534,
      "十": 3535,
      "千": 3536,
      "升": 3537,
      "午": 3538,
      "卉": 3539,
      "半": 3540,
      "华": 3541,
      "协": 3542,
      "卑": 3543,
      "卒": 3544,
      "卓": 3545,
      "協": 3546,
      "单": 3547,
      "卖": 3548,
      "南": 3549,
      "単": 3550,
      "博": 3551,
      "卜": 3552,
      "卡": 3553,
      "卢": 3554,
      "卤": 3555,
      "卦": 3556,
      "卧": 3557,
      "卫": 3558,
      "卯": 3559,
      "印": 3560,
      "危": 3561,
      "即": 3562,
      "却": 3563,
      "卵": 3564,
      "卷": 3565,
      "卸": 3566,
      "卻": 3567,
      "厂": 3568,
      "厄": 3569,
      "厅": 3570,
      "历": 3571,
      "厉": 3572,
      "压": 3573,
      "厌": 3574,
      "厕": 3575,
      "厘": 3576,
      "厚": 3577,
      "原": 3578,
      "厢": 3579,
      "厦": 3580,
      "厨": 3581,
      "厭": 3582,
      "厲": 3583,
      "厳": 3584,
      "去": 3585,
      "县": 3586,
      "参": 3587,
      "參": 3588,
      "又": 3589,
      "叉": 3590,
      "及": 3591,
      "友": 3592,
      "双": 3593,
      "反": 3594,
      "収": 3595,
      "发": 3596,
      "叔": 3597,
      "取": 3598,
      "受": 3599,
      "变": 3600,
      "叙": 3601,
      "叛": 3602,
      "叠": 3603,
      "叢": 3604,
      "口": 3605,
      "古": 3606,
      "句": 3607,
      "另": 3608,
      "叨": 3609,
      "叩": 3610,
      "只": 3611,
      "叫": 3612,
      "召": 3613,
      "叭": 3614,
      "可": 3615,
      "台": 3616,
      "叱": 3617,
      "史": 3618,
      "右": 3619,
      "叶": 3620,
      "号": 3621,
      "司": 3622,
      "叹": 3623,
      "叼": 3624,
      "叽": 3625,
      "吁": 3626,
      "吃": 3627,
      "各": 3628,
      "合": 3629,
      "吉": 3630,
      "吊": 3631,
      "同": 3632,
      "名": 3633,
      "后": 3634,
      "吏": 3635,
      "吐": 3636,
      "向": 3637,
      "吓": 3638,
      "吕": 3639,
      "吖": 3640,
      "吗": 3641,
      "君": 3642,
      "吞": 3643,
      "吟": 3644,
      "吠": 3645,
      "否": 3646,
      "吧": 3647,
      "吨": 3648,
      "吩": 3649,
      "含": 3650,
      "听": 3651,
      "启": 3652,
      "吳": 3653,
      "吴": 3654,
      "吵": 3655,
      "吸": 3656,
      "吹": 3657,
      "吻": 3658,
      "吾": 3659,
      "呀": 3660,
      "呂": 3661,
      "呃": 3662,
      "呆": 3663,
      "呈": 3664,
      "呉": 3665,
      "告": 3666,
      "呐": 3667,
      "呑": 3668,
      "呔": 3669,
      "呕": 3670,
      "呗": 3671,
      "员": 3672,
      "呢": 3673,
      "呣": 3674,
      "呤": 3675,
      "周": 3676,
      "味": 3677,
      "呵": 3678,
      "呼": 3679,
      "命": 3680,
      "咀": 3681,
      "咆": 3682,
      "咋": 3683,
      "和": 3684,
      "咎": 3685,
      "咏": 3686,
      "咐": 3687,
      "咕": 3688,
      "咖": 3689,
      "咗": 3690,
      "咙": 3691,
      "咚": 3692,
      "咨": 3693,
      "咩": 3694,
      "咪": 3695,
      "咫": 3696,
      "咬": 3697,
      "咯": 3698,
      "咱": 3699,
      "咲": 3700,
      "咳": 3701,
      "咸": 3702,
      "咽": 3703,
      "哀": 3704,
      "品": 3705,
      "哄": 3706,
      "哇": 3707,
      "哈": 3708,
      "哉": 3709,
      "哋": 3710,
      "响": 3711,
      "哎": 3712,
      "哑": 3713,
      "哔": 3714,
      "哝": 3715,
      "哟": 3716,
      "員": 3717,
      "哥": 3718,
      "哦": 3719,
      "哩": 3720,
      "哪": 3721,
      "哭": 3722,
      "哮": 3723,
      "哲": 3724,
      "哺": 3725,
      "哼": 3726,
      "唆": 3727,
      "唇": 3728,
      "唉": 3729,
      "唐": 3730,
      "唔": 3731,
      "唤": 3732,
      "售": 3733,
      "唯": 3734,
      "唱": 3735,
      "唾": 3736,
      "啁": 3737,
      "啃": 3738,
      "啄": 3739,
      "商": 3740,
      "啊": 3741,
      "問": 3742,
      "啓": 3743,
      "啖": 3744,
      "啟": 3745,
      "啡": 3746,
      "啤": 3747,
      "啥": 3748,
      "啦": 3749,
      "啫": 3750,
      "啶": 3751,
      "啸": 3752,
      "啼": 3753,
      "啾": 3754,
      "喀": 3755,
      "喂": 3756,
      "喃": 3757,
      "善": 3758,
      "喇": 3759,
      "喉": 3760,
      "喊": 3761,
      "喋": 3762,
      "喔": 3763,
      "喘": 3764,
      "喙": 3765,
      "喚": 3766,
      "喜": 3767,
      "喝": 3768,
      "喧": 3769,
      "喩": 3770,
      "喪": 3771,
      "喫": 3772,
      "喬": 3773,
      "單": 3774,
      "喱": 3775,
      "喲": 3776,
      "喳": 3777,
      "喵": 3778,
      "営": 3779,
      "喷": 3780,
      "喹": 3781,
      "喺": 3782,
      "喻": 3783,
      "喽": 3784,
      "嗅": 3785,
      "嗎": 3786,
      "嗓": 3787,
      "嗜": 3788,
      "嗣": 3789,
      "嗨": 3790,
      "嗯": 3791,
      "嗷": 3792,
      "嗽": 3793,
      "嘅": 3794,
      "嘆": 3795,
      "嘈": 3796,
      "嘉": 3797,
      "嘌": 3798,
      "嘎": 3799,
      "嘔": 3800,
      "嘗": 3801,
      "嘘": 3802,
      "嘛": 3803,
      "嘢": 3804,
      "嘩": 3805,
      "嘱": 3806,
      "嘲": 3807,
      "嘴": 3808,
      "嘶": 3809,
      "嘻": 3810,
      "嘿": 3811,
      "噂": 3812,
      "噌": 3813,
      "噢": 3814,
      "器": 3815,
      "噩": 3816,
      "噪": 3817,
      "噬": 3818,
      "噴": 3819,
      "噺": 3820,
      "嚏": 3821,
      "嚣": 3822,
      "嚨": 3823,
      "嚮": 3824,
      "嚴": 3825,
      "嚼": 3826,
      "囉": 3827,
      "囊": 3828,
      "囍": 3829,
      "囚": 3830,
      "四": 3831,
      "回": 3832,
      "因": 3833,
      "団": 3834,
      "囤": 3835,
      "园": 3836,
      "困": 3837,
      "囱": 3838,
      "囲": 3839,
      "図": 3840,
      "围": 3841,
      "固": 3842,
      "国": 3843,
      "图": 3844,
      "圆": 3845,
      "圈": 3846,
      "國": 3847,
      "圍": 3848,
      "圏": 3849,
      "園": 3850,
      "圓": 3851,
      "圖": 3852,
      "土": 3853,
      "圡": 3854,
      "圣": 3855,
      "圧": 3856,
      "在": 3857,
      "圫": 3858,
      "圭": 3859,
      "地": 3860,
      "场": 3861,
      "址": 3862,
      "坂": 3863,
      "均": 3864,
      "坊": 3865,
      "坎": 3866,
      "坏": 3867,
      "坐": 3868,
      "坑": 3869,
      "块": 3870,
      "坚": 3871,
      "坛": 3872,
      "坝": 3873,
      "坞": 3874,
      "坟": 3875,
      "坠": 3876,
      "坡": 3877,
      "坤": 3878,
      "坦": 3879,
      "坩": 3880,
      "坪": 3881,
      "坯": 3882,
      "垂": 3883,
      "垄": 3884,
      "型": 3885,
      "垒": 3886,
      "垢": 3887,
      "垣": 3888,
      "垦": 3889,
      "垫": 3890,
      "垮": 3891,
      "埃": 3892,
      "埉": 3893,
      "埋": 3894,
      "城": 3895,
      "埔": 3896,
      "埕": 3897,
      "域": 3898,
      "執": 3899,
      "培": 3900,
      "基": 3901,
      "埼": 3902,
      "堀": 3903,
      "堂": 3904,
      "堅": 3905,
      "堆": 3906,
      "堕": 3907,
      "堡": 3908,
      "堤": 3909,
      "堪": 3910,
      "堰": 3911,
      "報": 3912,
      "場": 3913,
      "堵": 3914,
      "堺": 3915,
      "堽": 3916,
      "塊": 3917,
      "塌": 3918,
      "塑": 3919,
      "塒": 3920,
      "塔": 3921,
      "塗": 3922,
      "塘": 3923,
      "塚": 3924,
      "塞": 3925,
      "塩": 3926,
      "填": 3927,
      "塵": 3928,
      "塾": 3929,
      "境": 3930,
      "墅": 3931,
      "墊": 3932,
      "墓": 3933,
      "増": 3934,
      "墙": 3935,
      "墜": 3936,
      "增": 3937,
      "墟": 3938,
      "墨": 3939,
      "墩": 3940,
      "墻": 3941,
      "壁": 3942,
      "壃": 3943,
      "壊": 3944,
      "壌": 3945,
      "壑": 3946,
      "壓": 3947,
      "壖": 3948,
      "壞": 3949,
      "壤": 3950,
      "士": 3951,
      "壬": 3952,
      "壮": 3953,
      "壯": 3954,
      "声": 3955,
      "売": 3956,
      "壳": 3957,
      "壶": 3958,
      "壺": 3959,
      "壽": 3960,
      "处": 3961,
      "备": 3962,
      "夈": 3963,
      "変": 3964,
      "复": 3965,
      "夏": 3966,
      "夕": 3967,
      "外": 3968,
      "多": 3969,
      "夜": 3970,
      "够": 3971,
      "夠": 3972,
      "夢": 3973,
      "夥": 3974,
      "大": 3975,
      "天": 3976,
      "太": 3977,
      "夫": 3978,
      "夭": 3979,
      "央": 3980,
      "失": 3981,
      "头": 3982,
      "夸": 3983,
      "夹": 3984,
      "夺": 3985,
      "夻": 3986,
      "奇": 3987,
      "奈": 3988,
      "奉": 3989,
      "奋": 3990,
      "奏": 3991,
      "契": 3992,
      "奔": 3993,
      "奖": 3994,
      "套": 3995,
      "奠": 3996,
      "奢": 3997,
      "奥": 3998,
      "奨": 3999,
      "奪": 4000,
      "奭": 4001,
      "奮": 4002,
      "女": 4003,
      "奴": 4004,
      "奶": 4005,
      "她": 4006,
      "好": 4007,
      "如": 4008,
      "妄": 4009,
      "妆": 4010,
      "妇": 4011,
      "妈": 4012,
      "妊": 4013,
      "妍": 4014,
      "妒": 4015,
      "妓": 4016,
      "妖": 4017,
      "妙": 4018,
      "妝": 4019,
      "妞": 4020,
      "妥": 4021,
      "妨": 4022,
      "妪": 4023,
      "妮": 4024,
      "妳": 4025,
      "妹": 4026,
      "妻": 4027,
      "妾": 4028,
      "姆": 4029,
      "姉": 4030,
      "姊": 4031,
      "始": 4032,
      "姐": 4033,
      "姑": 4034,
      "姓": 4035,
      "委": 4036,
      "姚": 4037,
      "姜": 4038,
      "姥": 4039,
      "姨": 4040,
      "姫": 4041,
      "姬": 4042,
      "姻": 4043,
      "姿": 4044,
      "威": 4045,
      "娃": 4046,
      "娅": 4047,
      "娆": 4048,
      "娇": 4049,
      "娑": 4050,
      "娓": 4051,
      "娘": 4052,
      "娛": 4053,
      "娜": 4054,
      "娟": 4055,
      "娠": 4056,
      "娥": 4057,
      "娩": 4058,
      "娯": 4059,
      "娱": 4060,
      "娶": 4061,
      "婀": 4062,
      "婆": 4063,
      "婉": 4064,
      "婚": 4065,
      "婢": 4066,
      "婦": 4067,
      "婧": 4068,
      "婴": 4069,
      "婵": 4070,
      "婷": 4071,
      "婿": 4072,
      "媒": 4073,
      "媚": 4074,
      "媳": 4075,
      "媽": 4076,
      "嫁": 4077,
      "嫉": 4078,
      "嫌": 4079,
      "嫣": 4080,
      "嫦": 4081,
      "嫩": 4082,
      "嬉": 4083,
      "嬛": 4084,
      "嬢": 4085,
      "嬵": 4086,
      "子": 4087,
      "孔": 4088,
      "孕": 4089,
      "字": 4090,
      "存": 4091,
      "孙": 4092,
      "孚": 4093,
      "孝": 4094,
      "孟": 4095,
      "孢": 4096,
      "季": 4097,
      "孤": 4098,
      "学": 4099,
      "孩": 4100,
      "孪": 4101,
      "孫": 4102,
      "孵": 4103,
      "學": 4104,
      "孺": 4105,
      "宀": 4106,
      "宁": 4107,
      "它": 4108,
      "宅": 4109,
      "宇": 4110,
      "守": 4111,
      "安": 4112,
      "宋": 4113,
      "完": 4114,
      "宏": 4115,
      "宗": 4116,
      "官": 4117,
      "宙": 4118,
      "定": 4119,
      "宛": 4120,
      "宜": 4121,
      "宝": 4122,
      "实": 4123,
      "実": 4124,
      "宠": 4125,
      "审": 4126,
      "客": 4127,
      "宣": 4128,
      "室": 4129,
      "宫": 4130,
      "宮": 4131,
      "宰": 4132,
      "害": 4133,
      "宴": 4134,
      "宵": 4135,
      "家": 4136,
      "宸": 4137,
      "容": 4138,
      "宽": 4139,
      "宾": 4140,
      "宿": 4141,
      "寂": 4142,
      "寄": 4143,
      "寅": 4144,
      "密": 4145,
      "寉": 4146,
      "富": 4147,
      "寐": 4148,
      "寒": 4149,
      "寓": 4150,
      "寛": 4151,
      "寝": 4152,
      "寞": 4153,
      "察": 4154,
      "寡": 4155,
      "寢": 4156,
      "寥": 4157,
      "實": 4158,
      "寧": 4159,
      "寨": 4160,
      "審": 4161,
      "寫": 4162,
      "寬": 4163,
      "寵": 4164,
      "寸": 4165,
      "对": 4166,
      "寺": 4167,
      "寻": 4168,
      "导": 4169,
      "対": 4170,
      "寿": 4171,
      "封": 4172,
      "専": 4173,
      "射": 4174,
      "尅": 4175,
      "将": 4176,
      "將": 4177,
      "專": 4178,
      "尊": 4179,
      "尋": 4180,
      "對": 4181,
      "導": 4182,
      "小": 4183,
      "少": 4184,
      "尔": 4185,
      "尖": 4186,
      "尘": 4187,
      "尙": 4188,
      "尚": 4189,
      "尝": 4190,
      "尤": 4191,
      "尬": 4192,
      "就": 4193,
      "尴": 4194,
      "尷": 4195,
      "尸": 4196,
      "尹": 4197,
      "尺": 4198,
      "尻": 4199,
      "尼": 4200,
      "尽": 4201,
      "尾": 4202,
      "尿": 4203,
      "局": 4204,
      "屁": 4205,
      "层": 4206,
      "居": 4207,
      "屆": 4208,
      "屈": 4209,
      "屉": 4210,
      "届": 4211,
      "屋": 4212,
      "屌": 4213,
      "屏": 4214,
      "屑": 4215,
      "展": 4216,
      "属": 4217,
      "層": 4218,
      "履": 4219,
      "屬": 4220,
      "山": 4221,
      "屿": 4222,
      "岁": 4223,
      "岂": 4224,
      "岐": 4225,
      "岔": 4226,
      "岗": 4227,
      "岙": 4228,
      "岚": 4229,
      "岛": 4230,
      "岡": 4231,
      "岩": 4232,
      "岬": 4233,
      "岭": 4234,
      "岱": 4235,
      "岳": 4236,
      "岸": 4237,
      "峙": 4238,
      "峡": 4239,
      "峦": 4240,
      "峭": 4241,
      "峰": 4242,
      "島": 4243,
      "峻": 4244,
      "崇": 4245,
      "崎": 4246,
      "崔": 4247,
      "崖": 4248,
      "崩": 4249,
      "崽": 4250,
      "嵌": 4251,
      "嵐": 4252,
      "嵘": 4253,
      "嶺": 4254,
      "嶽": 4255,
      "巍": 4256,
      "巖": 4257,
      "川": 4258,
      "州": 4259,
      "巡": 4260,
      "巢": 4261,
      "巣": 4262,
      "工": 4263,
      "左": 4264,
      "巧": 4265,
      "巨": 4266,
      "巩": 4267,
      "巫": 4268,
      "差": 4269,
      "己": 4270,
      "已": 4271,
      "巳": 4272,
      "巴": 4273,
      "巷": 4274,
      "巻": 4275,
      "巽": 4276,
      "巾": 4277,
      "币": 4278,
      "市": 4279,
      "布": 4280,
      "帅": 4281,
      "帆": 4282,
      "师": 4283,
      "希": 4284,
      "帐": 4285,
      "帕": 4286,
      "帖": 4287,
      "帘": 4288,
      "帙": 4289,
      "帚": 4290,
      "帜": 4291,
      "帥": 4292,
      "带": 4293,
      "帧": 4294,
      "師": 4295,
      "席": 4296,
      "帮": 4297,
      "帯": 4298,
      "帰": 4299,
      "帳": 4300,
      "帶": 4301,
      "帷": 4302,
      "常": 4303,
      "帽": 4304,
      "幂": 4305,
      "幃": 4306,
      "幅": 4307,
      "幌": 4308,
      "幕": 4309,
      "幡": 4310,
      "幢": 4311,
      "幣": 4312,
      "幫": 4313,
      "干": 4314,
      "平": 4315,
      "年": 4316,
      "并": 4317,
      "幸": 4318,
      "幹": 4319,
      "幻": 4320,
      "幼": 4321,
      "幽": 4322,
      "幾": 4323,
      "广": 4324,
      "庁": 4325,
      "広": 4326,
      "庄": 4327,
      "庆": 4328,
      "庇": 4329,
      "床": 4330,
      "序": 4331,
      "库": 4332,
      "应": 4333,
      "底": 4334,
      "店": 4335,
      "庙": 4336,
      "庚": 4337,
      "府": 4338,
      "庞": 4339,
      "废": 4340,
      "度": 4341,
      "座": 4342,
      "庫": 4343,
      "庭": 4344,
      "庵": 4345,
      "康": 4346,
      "庸": 4347,
      "廁": 4348,
      "廃": 4349,
      "廈": 4350,
      "廉": 4351,
      "廊": 4352,
      "廓": 4353,
      "廖": 4354,
      "廟": 4355,
      "廠": 4356,
      "廢": 4357,
      "廣": 4358,
      "廳": 4359,
      "延": 4360,
      "廷": 4361,
      "建": 4362,
      "开": 4363,
      "弁": 4364,
      "异": 4365,
      "弃": 4366,
      "弄": 4367,
      "弊": 4368,
      "式": 4369,
      "弓": 4370,
      "弔": 4371,
      "引": 4372,
      "弗": 4373,
      "弘": 4374,
      "弛": 4375,
      "弟": 4376,
      "张": 4377,
      "弥": 4378,
      "弦": 4379,
      "弧": 4380,
      "弯": 4381,
      "弱": 4382,
      "張": 4383,
      "強": 4384,
      "弹": 4385,
      "强": 4386,
      "弾": 4387,
      "彈": 4388,
      "彌": 4389,
      "彎": 4390,
      "归": 4391,
      "当": 4392,
      "录": 4393,
      "彖": 4394,
      "彗": 4395,
      "彙": 4396,
      "彜": 4397,
      "形": 4398,
      "彤": 4399,
      "彦": 4400,
      "彩": 4401,
      "彫": 4402,
      "彭": 4403,
      "彰": 4404,
      "影": 4405,
      "彷": 4406,
      "役": 4407,
      "彻": 4408,
      "彼": 4409,
      "彿": 4410,
      "往": 4411,
      "征": 4412,
      "径": 4413,
      "待": 4414,
      "很": 4415,
      "徉": 4416,
      "徊": 4417,
      "律": 4418,
      "後": 4419,
      "徐": 4420,
      "徑": 4421,
      "徒": 4422,
      "従": 4423,
      "得": 4424,
      "徘": 4425,
      "徙": 4426,
      "徜": 4427,
      "從": 4428,
      "御": 4429,
      "復": 4430,
      "循": 4431,
      "微": 4432,
      "徳": 4433,
      "徴": 4434,
      "徵": 4435,
      "德": 4436,
      "徹": 4437,
      "徽": 4438,
      "心": 4439,
      "必": 4440,
      "忆": 4441,
      "忌": 4442,
      "忍": 4443,
      "志": 4444,
      "忘": 4445,
      "忙": 4446,
      "応": 4447,
      "忠": 4448,
      "忧": 4449,
      "快": 4450,
      "念": 4451,
      "忽": 4452,
      "怀": 4453,
      "态": 4454,
      "怅": 4455,
      "怎": 4456,
      "怒": 4457,
      "怕": 4458,
      "怖": 4459,
      "怜": 4460,
      "思": 4461,
      "怠": 4462,
      "怡": 4463,
      "急": 4464,
      "性": 4465,
      "怨": 4466,
      "怪": 4467,
      "总": 4468,
      "恆": 4469,
      "恇": 4470,
      "恋": 4471,
      "恍": 4472,
      "恐": 4473,
      "恒": 4474,
      "恕": 4475,
      "恙": 4476,
      "恢": 4477,
      "恤": 4478,
      "恥": 4479,
      "恨": 4480,
      "恩": 4481,
      "恫": 4482,
      "恬": 4483,
      "恭": 4484,
      "息": 4485,
      "恰": 4486,
      "恵": 4487,
      "恶": 4488,
      "恺": 4489,
      "恼": 4490,
      "悉": 4491,
      "悔": 4492,
      "悖": 4493,
      "悚": 4494,
      "悟": 4495,
      "悠": 4496,
      "患": 4497,
      "悦": 4498,
      "您": 4499,
      "悩": 4500,
      "悪": 4501,
      "悫": 4502,
      "悬": 4503,
      "悲": 4504,
      "悴": 4505,
      "悸": 4506,
      "悼": 4507,
      "情": 4508,
      "惆": 4509,
      "惊": 4510,
      "惑": 4511,
      "惕": 4512,
      "惚": 4513,
      "惜": 4514,
      "惟": 4515,
      "惠": 4516,
      "惡": 4517,
      "惧": 4518,
      "惨": 4519,
      "惩": 4520,
      "惫": 4521,
      "惬": 4522,
      "惯": 4523,
      "惰": 4524,
      "惱": 4525,
      "想": 4526,
      "惹": 4527,
      "愁": 4528,
      "愆": 4529,
      "愈": 4530,
      "愉": 4531,
      "意": 4532,
      "愔": 4533,
      "愕": 4534,
      "愚": 4535,
      "愛": 4536,
      "感": 4537,
      "愤": 4538,
      "愿": 4539,
      "慈": 4540,
      "態": 4541,
      "慌": 4542,
      "慎": 4543,
      "慕": 4544,
      "慢": 4545,
      "慣": 4546,
      "慧": 4547,
      "慨": 4548,
      "慮": 4549,
      "慰": 4550,
      "慶": 4551,
      "慾": 4552,
      "憂": 4553,
      "憊": 4554,
      "憋": 4555,
      "憎": 4556,
      "憑": 4557,
      "憔": 4558,
      "憤": 4559,
      "憧": 4560,
      "憩": 4561,
      "憬": 4562,
      "憲": 4563,
      "憶": 4564,
      "憾": 4565,
      "懁": 4566,
      "懂": 4567,
      "懇": 4568,
      "應": 4569,
      "懐": 4570,
      "懒": 4571,
      "懷": 4572,
      "懸": 4573,
      "懼": 4574,
      "戈": 4575,
      "戊": 4576,
      "戌": 4577,
      "戍": 4578,
      "戎": 4579,
      "戏": 4580,
      "成": 4581,
      "我": 4582,
      "戒": 4583,
      "或": 4584,
      "战": 4585,
      "戚": 4586,
      "戦": 4587,
      "截": 4588,
      "戯": 4589,
      "戰": 4590,
      "戲": 4591,
      "戳": 4592,
      "戴": 4593,
      "戶": 4594,
      "户": 4595,
      "戸": 4596,
      "戻": 4597,
      "房": 4598,
      "所": 4599,
      "扁": 4600,
      "扇": 4601,
      "扉": 4602,
      "手": 4603,
      "才": 4604,
      "扎": 4605,
      "扑": 4606,
      "扒": 4607,
      "打": 4608,
      "払": 4609,
      "托": 4610,
      "扣": 4611,
      "执": 4612,
      "扩": 4613,
      "扫": 4614,
      "扬": 4615,
      "扭": 4616,
      "扮": 4617,
      "扯": 4618,
      "扰": 4619,
      "扱": 4620,
      "扳": 4621,
      "批": 4622,
      "扼": 4623,
      "找": 4624,
      "承": 4625,
      "技": 4626,
      "抄": 4627,
      "抉": 4628,
      "抑": 4629,
      "抒": 4630,
      "抓": 4631,
      "投": 4632,
      "抖": 4633,
      "抗": 4634,
      "折": 4635,
      "抚": 4636,
      "抛": 4637,
      "抜": 4638,
      "択": 4639,
      "抢": 4640,
      "护": 4641,
      "报": 4642,
      "披": 4643,
      "抬": 4644,
      "抱": 4645,
      "抵": 4646,
      "抹": 4647,
      "押": 4648,
      "抽": 4649,
      "抿": 4650,
      "拂": 4651,
      "担": 4652,
      "拇": 4653,
      "拉": 4654,
      "拌": 4655,
      "拍": 4656,
      "拐": 4657,
      "拒": 4658,
      "拓": 4659,
      "拔": 4660,
      "拖": 4661,
      "拙": 4662,
      "招": 4663,
      "拜": 4664,
      "拝": 4665,
      "拟": 4666,
      "拠": 4667,
      "拡": 4668,
      "拢": 4669,
      "拥": 4670,
      "拦": 4671,
      "拨": 4672,
      "择": 4673,
      "括": 4674,
      "拭": 4675,
      "拮": 4676,
      "拯": 4677,
      "拱": 4678,
      "拳": 4679,
      "拶": 4680,
      "拼": 4681,
      "拽": 4682,
      "拾": 4683,
      "拿": 4684,
      "持": 4685,
      "挂": 4686,
      "指": 4687,
      "按": 4688,
      "挑": 4689,
      "挖": 4690,
      "挙": 4691,
      "挚": 4692,
      "挛": 4693,
      "挝": 4694,
      "挟": 4695,
      "挠": 4696,
      "挡": 4697,
      "挣": 4698,
      "挤": 4699,
      "挥": 4700,
      "挨": 4701,
      "挪": 4702,
      "挫": 4703,
      "挭": 4704,
      "振": 4705,
      "挺": 4706,
      "挽": 4707,
      "挿": 4708,
      "捆": 4709,
      "捉": 4710,
      "捍": 4711,
      "捏": 4712,
      "捐": 4713,
      "捕": 4714,
      "捗": 4715,
      "捜": 4716,
      "捞": 4717,
      "损": 4718,
      "捡": 4719,
      "换": 4720,
      "捧": 4721,
      "捨": 4722,
      "据": 4723,
      "捷": 4724,
      "掀": 4725,
      "掂": 4726,
      "掃": 4727,
      "授": 4728,
      "掉": 4729,
      "掌": 4730,
      "排": 4731,
      "掘": 4732,
      "掛": 4733,
      "採": 4734,
      "探": 4735,
      "接": 4736,
      "控": 4737,
      "推": 4738,
      "掩": 4739,
      "措": 4740,
      "掲": 4741,
      "掷": 4742,
      "掺": 4743,
      "掻": 4744,
      "掾": 4745,
      "揃": 4746,
      "揉": 4747,
      "描": 4748,
      "提": 4749,
      "插": 4750,
      "揚": 4751,
      "換": 4752,
      "揟": 4753,
      "握": 4754,
      "揭": 4755,
      "揮": 4756,
      "援": 4757,
      "揺": 4758,
      "揽": 4759,
      "搅": 4760,
      "損": 4761,
      "搏": 4762,
      "搓": 4763,
      "搔": 4764,
      "搖": 4765,
      "搜": 4766,
      "搞": 4767,
      "搬": 4768,
      "搭": 4769,
      "携": 4770,
      "搾": 4771,
      "摂": 4772,
      "摄": 4773,
      "摆": 4774,
      "摇": 4775,
      "摊": 4776,
      "摒": 4777,
      "摔": 4778,
      "摘": 4779,
      "摧": 4780,
      "摩": 4781,
      "摯": 4782,
      "摸": 4783,
      "摹": 4784,
      "撃": 4785,
      "撐": 4786,
      "撑": 4787,
      "撒": 4788,
      "撓": 4789,
      "撞": 4790,
      "撤": 4791,
      "撥": 4792,
      "撫": 4793,
      "播": 4794,
      "撮": 4795,
      "撰": 4796,
      "撲": 4797,
      "撻": 4798,
      "撼": 4799,
      "擁": 4800,
      "擅": 4801,
      "擇": 4802,
      "擊": 4803,
      "擎": 4804,
      "擔": 4805,
      "據": 4806,
      "擦": 4807,
      "擬": 4808,
      "擲": 4809,
      "擴": 4810,
      "擷": 4811,
      "攀": 4812,
      "攘": 4813,
      "攜": 4814,
      "攝": 4815,
      "攣": 4816,
      "攪": 4817,
      "支": 4818,
      "收": 4819,
      "改": 4820,
      "攻": 4821,
      "放": 4822,
      "政": 4823,
      "敁": 4824,
      "故": 4825,
      "效": 4826,
      "敌": 4827,
      "敏": 4828,
      "救": 4829,
      "敗": 4830,
      "教": 4831,
      "敛": 4832,
      "敞": 4833,
      "敢": 4834,
      "散": 4835,
      "敦": 4836,
      "敬": 4837,
      "数": 4838,
      "敲": 4839,
      "整": 4840,
      "敵": 4841,
      "敷": 4842,
      "數": 4843,
      "斂": 4844,
      "文": 4845,
      "斉": 4846,
      "斋": 4847,
      "斌": 4848,
      "斐": 4849,
      "斑": 4850,
      "斓": 4851,
      "斗": 4852,
      "料": 4853,
      "斜": 4854,
      "斟": 4855,
      "斤": 4856,
      "斥": 4857,
      "斧": 4858,
      "斬": 4859,
      "断": 4860,
      "斯": 4861,
      "新": 4862,
      "斷": 4863,
      "方": 4864,
      "於": 4865,
      "施": 4866,
      "旁": 4867,
      "旅": 4868,
      "旋": 4869,
      "族": 4870,
      "旗": 4871,
      "无": 4872,
      "既": 4873,
      "日": 4874,
      "旦": 4875,
      "旧": 4876,
      "旨": 4877,
      "早": 4878,
      "旬": 4879,
      "旭": 4880,
      "旱": 4881,
      "时": 4882,
      "旷": 4883,
      "旺": 4884,
      "昂": 4885,
      "昆": 4886,
      "昇": 4887,
      "昈": 4888,
      "昊": 4889,
      "昌": 4890,
      "明": 4891,
      "昏": 4892,
      "易": 4893,
      "昔": 4894,
      "昝": 4895,
      "星": 4896,
      "映": 4897,
      "春": 4898,
      "昧": 4899,
      "昨": 4900,
      "昭": 4901,
      "是": 4902,
      "昵": 4903,
      "昼": 4904,
      "显": 4905,
      "時": 4906,
      "晃": 4907,
      "晉": 4908,
      "晋": 4909,
      "晒": 4910,
      "晓": 4911,
      "晕": 4912,
      "晖": 4913,
      "晚": 4914,
      "晨": 4915,
      "晩": 4916,
      "普": 4917,
      "景": 4918,
      "晰": 4919,
      "晴": 4920,
      "晶": 4921,
      "智": 4922,
      "暁": 4923,
      "暂": 4924,
      "暇": 4925,
      "暈": 4926,
      "暑": 4927,
      "暖": 4928,
      "暗": 4929,
      "暢": 4930,
      "暦": 4931,
      "暫": 4932,
      "暮": 4933,
      "暴": 4934,
      "暹": 4935,
      "曇": 4936,
      "曖": 4937,
      "曜": 4938,
      "曝": 4939,
      "曦": 4940,
      "曰": 4941,
      "曱": 4942,
      "曲": 4943,
      "曳": 4944,
      "更": 4945,
      "書": 4946,
      "曹": 4947,
      "曼": 4948,
      "曾": 4949,
      "替": 4950,
      "最": 4951,
      "會": 4952,
      "月": 4953,
      "有": 4954,
      "朋": 4955,
      "服": 4956,
      "朔": 4957,
      "朗": 4958,
      "望": 4959,
      "朝": 4960,
      "期": 4961,
      "木": 4962,
      "未": 4963,
      "末": 4964,
      "本": 4965,
      "札": 4966,
      "术": 4967,
      "朱": 4968,
      "朴": 4969,
      "朵": 4970,
      "机": 4971,
      "朽": 4972,
      "杀": 4973,
      "杂": 4974,
      "权": 4975,
      "杆": 4976,
      "杉": 4977,
      "李": 4978,
      "杏": 4979,
      "材": 4980,
      "村": 4981,
      "杖": 4982,
      "杜": 4983,
      "杞": 4984,
      "束": 4985,
      "杠": 4986,
      "条": 4987,
      "来": 4988,
      "杨": 4989,
      "杭": 4990,
      "杯": 4991,
      "杰": 4992,
      "東": 4993,
      "杵": 4994,
      "松": 4995,
      "板": 4996,
      "极": 4997,
      "构": 4998,
      "析": 4999,
      "枕": 5000,
      "林": 5001,
      "枚": 5002,
      "果": 5003,
      "枝": 5004,
      "枠": 5005,
      "枢": 5006,
      "枣": 5007,
      "枪": 5008,
      "枫": 5009,
      "枯": 5010,
      "架": 5011,
      "枸": 5012,
      "柄": 5013,
      "柏": 5014,
      "某": 5015,
      "柑": 5016,
      "染": 5017,
      "柔": 5018,
      "柚": 5019,
      "柜": 5020,
      "柠": 5021,
      "查": 5022,
      "柬": 5023,
      "柯": 5024,
      "柱": 5025,
      "柳": 5026,
      "柴": 5027,
      "柵": 5028,
      "査": 5029,
      "柿": 5030,
      "栄": 5031,
      "栅": 5032,
      "标": 5033,
      "栈": 5034,
      "栋": 5035,
      "树": 5036,
      "栓": 5037,
      "栖": 5038,
      "栗": 5039,
      "栞": 5040,
      "校": 5041,
      "栩": 5042,
      "株": 5043,
      "样": 5044,
      "核": 5045,
      "根": 5046,
      "格": 5047,
      "栽": 5048,
      "桁": 5049,
      "桂": 5050,
      "桃": 5051,
      "框": 5052,
      "案": 5053,
      "桌": 5054,
      "桐": 5055,
      "桑": 5056,
      "桔": 5057,
      "桜": 5058,
      "档": 5059,
      "桥": 5060,
      "桧": 5061,
      "桨": 5062,
      "桩": 5063,
      "桵": 5064,
      "桶": 5065,
      "梁": 5066,
      "梅": 5067,
      "梓": 5068,
      "梗": 5069,
      "條": 5070,
      "梢": 5071,
      "梦": 5072,
      "梧": 5073,
      "梨": 5074,
      "梭": 5075,
      "梯": 5076,
      "械": 5077,
      "梱": 5078,
      "梳": 5079,
      "梵": 5080,
      "检": 5081,
      "棄": 5082,
      "棉": 5083,
      "棋": 5084,
      "棍": 5085,
      "棒": 5086,
      "棕": 5087,
      "棚": 5088,
      "棧": 5089,
      "森": 5090,
      "棲": 5091,
      "棵": 5092,
      "棺": 5093,
      "椅": 5094,
      "椋": 5095,
      "植": 5096,
      "椎": 5097,
      "椒": 5098,
      "検": 5099,
      "椭": 5100,
      "椰": 5101,
      "楂": 5102,
      "楊": 5103,
      "楔": 5104,
      "楕": 5105,
      "楚": 5106,
      "楠": 5107,
      "業": 5108,
      "極": 5109,
      "楼": 5110,
      "楽": 5111,
      "概": 5112,
      "榄": 5113,
      "榔": 5114,
      "榕": 5115,
      "榛": 5116,
      "榜": 5117,
      "榨": 5118,
      "榮": 5119,
      "榴": 5120,
      "槃": 5121,
      "槇": 5122,
      "構": 5123,
      "槐": 5124,
      "槑": 5125,
      "様": 5126,
      "槟": 5127,
      "槤": 5128,
      "槽": 5129,
      "樂": 5130,
      "樊": 5131,
      "樓": 5132,
      "標": 5133,
      "樟": 5134,
      "模": 5135,
      "樣": 5136,
      "権": 5137,
      "横": 5138,
      "樯": 5139,
      "樱": 5140,
      "樹": 5141,
      "樺": 5142,
      "樽": 5143,
      "橄": 5144,
      "橇": 5145,
      "橋": 5146,
      "橘": 5147,
      "橙": 5148,
      "機": 5149,
      "橡": 5150,
      "橱": 5151,
      "橹": 5152,
      "檎": 5153,
      "檐": 5154,
      "檔": 5155,
      "檢": 5156,
      "檬": 5157,
      "檯": 5158,
      "檸": 5159,
      "櫃": 5160,
      "櫛": 5161,
      "櫥": 5162,
      "櫻": 5163,
      "權": 5164,
      "欠": 5165,
      "次": 5166,
      "欢": 5167,
      "欣": 5168,
      "欧": 5169,
      "欲": 5170,
      "欺": 5171,
      "欽": 5172,
      "款": 5173,
      "歇": 5174,
      "歉": 5175,
      "歌": 5176,
      "歎": 5177,
      "歐": 5178,
      "歓": 5179,
      "歡": 5180,
      "止": 5181,
      "正": 5182,
      "此": 5183,
      "步": 5184,
      "武": 5185,
      "歧": 5186,
      "歩": 5187,
      "歪": 5188,
      "歯": 5189,
      "歲": 5190,
      "歳": 5191,
      "歴": 5192,
      "歷": 5193,
      "歸": 5194,
      "歹": 5195,
      "殆": 5196,
      "殊": 5197,
      "残": 5198,
      "殖": 5199,
      "殴": 5200,
      "段": 5201,
      "殺": 5202,
      "殻": 5203,
      "殿": 5204,
      "毀": 5205,
      "毁": 5206,
      "毂": 5207,
      "毅": 5208,
      "母": 5209,
      "毎": 5210,
      "每": 5211,
      "毒": 5212,
      "比": 5213,
      "毕": 5214,
      "毛": 5215,
      "毫": 5216,
      "毯": 5217,
      "氏": 5218,
      "民": 5219,
      "氓": 5220,
      "气": 5221,
      "氖": 5222,
      "気": 5223,
      "氛": 5224,
      "氟": 5225,
      "氢": 5226,
      "氣": 5227,
      "氦": 5228,
      "氧": 5229,
      "氨": 5230,
      "氩": 5231,
      "氪": 5232,
      "氮": 5233,
      "氯": 5234,
      "氰": 5235,
      "氲": 5236,
      "水": 5237,
      "氷": 5238,
      "永": 5239,
      "氹": 5240,
      "汀": 5241,
      "汁": 5242,
      "求": 5243,
      "汇": 5244,
      "汉": 5245,
      "汎": 5246,
      "汐": 5247,
      "汕": 5248,
      "汗": 5249,
      "汚": 5250,
      "汝": 5251,
      "汞": 5252,
      "江": 5253,
      "池": 5254,
      "污": 5255,
      "汤": 5256,
      "汪": 5257,
      "汭": 5258,
      "汰": 5259,
      "汶": 5260,
      "汹": 5261,
      "決": 5262,
      "汽": 5263,
      "沁": 5264,
      "沂": 5265,
      "沃": 5266,
      "沈": 5267,
      "沉": 5268,
      "沐": 5269,
      "沒": 5270,
      "沖": 5271,
      "沙": 5272,
      "沚": 5273,
      "沛": 5274,
      "沟": 5275,
      "没": 5276,
      "沢": 5277,
      "沥": 5278,
      "沧": 5279,
      "沪": 5280,
      "沫": 5281,
      "沮": 5282,
      "河": 5283,
      "沸": 5284,
      "油": 5285,
      "治": 5286,
      "沼": 5287,
      "沾": 5288,
      "沿": 5289,
      "況": 5290,
      "泄": 5291,
      "泉": 5292,
      "泊": 5293,
      "泌": 5294,
      "泗": 5295,
      "泛": 5296,
      "泞": 5297,
      "泠": 5298,
      "泡": 5299,
      "波": 5300,
      "泣": 5301,
      "泥": 5302,
      "注": 5303,
      "泪": 5304,
      "泰": 5305,
      "泳": 5306,
      "泵": 5307,
      "泻": 5308,
      "泼": 5309,
      "泽": 5310,
      "泾": 5311,
      "洁": 5312,
      "洋": 5313,
      "洒": 5314,
      "洗": 5315,
      "洛": 5316,
      "洞": 5317,
      "津": 5318,
      "洩": 5319,
      "洪": 5320,
      "洲": 5321,
      "洵": 5322,
      "洶": 5323,
      "活": 5324,
      "洼": 5325,
      "洽": 5326,
      "派": 5327,
      "流": 5328,
      "浄": 5329,
      "浅": 5330,
      "浇": 5331,
      "浊": 5332,
      "测": 5333,
      "济": 5334,
      "浏": 5335,
      "浑": 5336,
      "浒": 5337,
      "浓": 5338,
      "浜": 5339,
      "浦": 5340,
      "浩": 5341,
      "浮": 5342,
      "浯": 5343,
      "浴": 5344,
      "海": 5345,
      "浸": 5346,
      "涂": 5347,
      "涅": 5348,
      "消": 5349,
      "涉": 5350,
      "涌": 5351,
      "涕": 5352,
      "涙": 5353,
      "涛": 5354,
      "涡": 5355,
      "涣": 5356,
      "涤": 5357,
      "润": 5358,
      "涧": 5359,
      "涨": 5360,
      "涩": 5361,
      "涯": 5362,
      "液": 5363,
      "涵": 5364,
      "涶": 5365,
      "涼": 5366,
      "淀": 5367,
      "淄": 5368,
      "淅": 5369,
      "淆": 5370,
      "淇": 5371,
      "淋": 5372,
      "淌": 5373,
      "淑": 5374,
      "淘": 5375,
      "淚": 5376,
      "淡": 5377,
      "淨": 5378,
      "淫": 5379,
      "淮": 5380,
      "深": 5381,
      "混": 5382,
      "淹": 5383,
      "淺": 5384,
      "添": 5385,
      "淼": 5386,
      "清": 5387,
      "渇": 5388,
      "済": 5389,
      "渉": 5390,
      "渊": 5391,
      "渋": 5392,
      "渍": 5393,
      "渐": 5394,
      "渔": 5395,
      "渗": 5396,
      "渚": 5397,
      "減": 5398,
      "渝": 5399,
      "渠": 5400,
      "渡": 5401,
      "渤": 5402,
      "測": 5403,
      "渭": 5404,
      "港": 5405,
      "渲": 5406,
      "渴": 5407,
      "游": 5408,
      "湃": 5409,
      "湊": 5410,
      "湖": 5411,
      "湘": 5412,
      "湛": 5413,
      "湧": 5414,
      "湯": 5415,
      "湾": 5416,
      "湿": 5417,
      "満": 5418,
      "溃": 5419,
      "溅": 5420,
      "溈": 5421,
      "溉": 5422,
      "溏": 5423,
      "源": 5424,
      "準": 5425,
      "溜": 5426,
      "溝": 5427,
      "溢": 5428,
      "溪": 5429,
      "溯": 5430,
      "溶": 5431,
      "溺": 5432,
      "滁": 5433,
      "滅": 5434,
      "滋": 5435,
      "滑": 5436,
      "滔": 5437,
      "滕": 5438,
      "滚": 5439,
      "滞": 5440,
      "滟": 5441,
      "满": 5442,
      "滤": 5443,
      "滨": 5444,
      "滩": 5445,
      "滴": 5446,
      "滸": 5447,
      "滾": 5448,
      "滿": 5449,
      "漁": 5450,
      "漂": 5451,
      "漆": 5452,
      "漏": 5453,
      "漓": 5454,
      "演": 5455,
      "漕": 5456,
      "漠": 5457,
      "漢": 5458,
      "漩": 5459,
      "漫": 5460,
      "漬": 5461,
      "漱": 5462,
      "漳": 5463,
      "漸": 5464,
      "漾": 5465,
      "潁": 5466,
      "潇": 5467,
      "潍": 5468,
      "潑": 5469,
      "潔": 5470,
      "潘": 5471,
      "潜": 5472,
      "潟": 5473,
      "潢": 5474,
      "潤": 5475,
      "潦": 5476,
      "潭": 5477,
      "潮": 5478,
      "潰": 5479,
      "潺": 5480,
      "澄": 5481,
      "澈": 5482,
      "澎": 5483,
      "澜": 5484,
      "澡": 5485,
      "澤": 5486,
      "澳": 5487,
      "澹": 5488,
      "激": 5489,
      "濃": 5490,
      "濕": 5491,
      "濡": 5492,
      "濤": 5493,
      "濯": 5494,
      "濱": 5495,
      "濾": 5496,
      "瀏": 5497,
      "瀑": 5498,
      "瀟": 5499,
      "瀬": 5500,
      "瀰": 5501,
      "灌": 5502,
      "火": 5503,
      "灭": 5504,
      "灯": 5505,
      "灰": 5506,
      "灵": 5507,
      "灶": 5508,
      "灸": 5509,
      "灼": 5510,
      "灿": 5511,
      "炉": 5512,
      "炊": 5513,
      "炎": 5514,
      "炒": 5515,
      "炔": 5516,
      "炙": 5517,
      "炫": 5518,
      "炭": 5519,
      "炮": 5520,
      "炯": 5521,
      "点": 5522,
      "為": 5523,
      "炼": 5524,
      "烁": 5525,
      "烂": 5526,
      "烈": 5527,
      "烊": 5528,
      "烏": 5529,
      "烘": 5530,
      "烛": 5531,
      "烟": 5532,
      "烤": 5533,
      "烦": 5534,
      "烧": 5535,
      "烫": 5536,
      "烬": 5537,
      "热": 5538,
      "烯": 5539,
      "烷": 5540,
      "烹": 5541,
      "烽": 5542,
      "焉": 5543,
      "焊": 5544,
      "焕": 5545,
      "焗": 5546,
      "焙": 5547,
      "無": 5548,
      "焦": 5549,
      "焰": 5550,
      "然": 5551,
      "焼": 5552,
      "煉": 5553,
      "煌": 5554,
      "煎": 5555,
      "煙": 5556,
      "煜": 5557,
      "煞": 5558,
      "煤": 5559,
      "照": 5560,
      "煮": 5561,
      "煲": 5562,
      "煸": 5563,
      "熊": 5564,
      "熔": 5565,
      "熙": 5566,
      "熟": 5567,
      "熠": 5568,
      "熬": 5569,
      "熱": 5570,
      "熵": 5571,
      "熹": 5572,
      "燃": 5573,
      "燈": 5574,
      "燒": 5575,
      "燕": 5576,
      "營": 5577,
      "燥": 5578,
      "燦": 5579,
      "燭": 5580,
      "燮": 5581,
      "爆": 5582,
      "爐": 5583,
      "爛": 5584,
      "爪": 5585,
      "爬": 5586,
      "爭": 5587,
      "爱": 5588,
      "爲": 5589,
      "爵": 5590,
      "父": 5591,
      "爷": 5592,
      "爸": 5593,
      "爺": 5594,
      "爽": 5595,
      "爾": 5596,
      "牆": 5597,
      "片": 5598,
      "版": 5599,
      "牌": 5600,
      "牍": 5601,
      "牙": 5602,
      "牛": 5603,
      "牟": 5604,
      "牠": 5605,
      "牡": 5606,
      "牢": 5607,
      "牧": 5608,
      "物": 5609,
      "牲": 5610,
      "牵": 5611,
      "特": 5612,
      "牺": 5613,
      "犀": 5614,
      "犊": 5615,
      "犬": 5616,
      "犯": 5617,
      "状": 5618,
      "犹": 5619,
      "狀": 5620,
      "狂": 5621,
      "狄": 5622,
      "狐": 5623,
      "狗": 5624,
      "狙": 5625,
      "狡": 5626,
      "狩": 5627,
      "独": 5628,
      "狭": 5629,
      "狮": 5630,
      "狱": 5631,
      "狸": 5632,
      "狼": 5633,
      "猎": 5634,
      "猕": 5635,
      "猛": 5636,
      "猜": 5637,
      "猟": 5638,
      "猥": 5639,
      "猪": 5640,
      "猫": 5641,
      "献": 5642,
      "猲": 5643,
      "猴": 5644,
      "猶": 5645,
      "猾": 5646,
      "猿": 5647,
      "獄": 5648,
      "獅": 5649,
      "獎": 5650,
      "獣": 5651,
      "獨": 5652,
      "獲": 5653,
      "獴": 5654,
      "獸": 5655,
      "玄": 5656,
      "率": 5657,
      "玉": 5658,
      "王": 5659,
      "玛": 5660,
      "玩": 5661,
      "玫": 5662,
      "环": 5663,
      "现": 5664,
      "玲": 5665,
      "玺": 5666,
      "玻": 5667,
      "珀": 5668,
      "珂": 5669,
      "珊": 5670,
      "珍": 5671,
      "珑": 5672,
      "珠": 5673,
      "班": 5674,
      "現": 5675,
      "球": 5676,
      "琅": 5677,
      "理": 5678,
      "琉": 5679,
      "琥": 5680,
      "琦": 5681,
      "琪": 5682,
      "琳": 5683,
      "琴": 5684,
      "瑕": 5685,
      "瑚": 5686,
      "瑜": 5687,
      "瑞": 5688,
      "瑟": 5689,
      "瑪": 5690,
      "瑰": 5691,
      "瑶": 5692,
      "瑾": 5693,
      "璀": 5694,
      "璃": 5695,
      "璅": 5696,
      "璧": 5697,
      "璨": 5698,
      "環": 5699,
      "瓜": 5700,
      "瓣": 5701,
      "瓦": 5702,
      "瓶": 5703,
      "瓷": 5704,
      "甄": 5705,
      "甘": 5706,
      "甚": 5707,
      "甜": 5708,
      "生": 5709,
      "產": 5710,
      "産": 5711,
      "用": 5712,
      "甫": 5713,
      "田": 5714,
      "由": 5715,
      "甲": 5716,
      "申": 5717,
      "甴": 5718,
      "电": 5719,
      "男": 5720,
      "甸": 5721,
      "町": 5722,
      "画": 5723,
      "甾": 5724,
      "畅": 5725,
      "界": 5726,
      "畏": 5727,
      "畑": 5728,
      "畔": 5729,
      "留": 5730,
      "畜": 5731,
      "略": 5732,
      "番": 5733,
      "畫": 5734,
      "異": 5735,
      "畳": 5736,
      "當": 5737,
      "疆": 5738,
      "疎": 5739,
      "疏": 5740,
      "疑": 5741,
      "疗": 5742,
      "疟": 5743,
      "疡": 5744,
      "疫": 5745,
      "疮": 5746,
      "疯": 5747,
      "疱": 5748,
      "疲": 5749,
      "疵": 5750,
      "疹": 5751,
      "疼": 5752,
      "疾": 5753,
      "痂": 5754,
      "病": 5755,
      "症": 5756,
      "痈": 5757,
      "痉": 5758,
      "痕": 5759,
      "痘": 5760,
      "痙": 5761,
      "痛": 5762,
      "痢": 5763,
      "痤": 5764,
      "痩": 5765,
      "痪": 5766,
      "痫": 5767,
      "痰": 5768,
      "痴": 5769,
      "瘀": 5770,
      "瘍": 5771,
      "瘙": 5772,
      "瘡": 5773,
      "瘢": 5774,
      "瘤": 5775,
      "瘦": 5776,
      "瘫": 5777,
      "瘾": 5778,
      "療": 5779,
      "癌": 5780,
      "癒": 5781,
      "癖": 5782,
      "癣": 5783,
      "癫": 5784,
      "癸": 5785,
      "発": 5786,
      "登": 5787,
      "發": 5788,
      "白": 5789,
      "百": 5790,
      "皂": 5791,
      "的": 5792,
      "皆": 5793,
      "皇": 5794,
      "皋": 5795,
      "皎": 5796,
      "皑": 5797,
      "皓": 5798,
      "皮": 5799,
      "皱": 5800,
      "皿": 5801,
      "盅": 5802,
      "盆": 5803,
      "盈": 5804,
      "益": 5805,
      "盎": 5806,
      "盐": 5807,
      "监": 5808,
      "盒": 5809,
      "盔": 5810,
      "盖": 5811,
      "盗": 5812,
      "盘": 5813,
      "盛": 5814,
      "盟": 5815,
      "盡": 5816,
      "監": 5817,
      "盤": 5818,
      "盧": 5819,
      "目": 5820,
      "盲": 5821,
      "直": 5822,
      "相": 5823,
      "盼": 5824,
      "盾": 5825,
      "省": 5826,
      "眂": 5827,
      "眉": 5828,
      "看": 5829,
      "県": 5830,
      "眞": 5831,
      "真": 5832,
      "眠": 5833,
      "眨": 5834,
      "眩": 5835,
      "眸": 5836,
      "眺": 5837,
      "眼": 5838,
      "眾": 5839,
      "着": 5840,
      "睁": 5841,
      "睛": 5842,
      "睞": 5843,
      "睡": 5844,
      "督": 5845,
      "睹": 5846,
      "睾": 5847,
      "睿": 5848,
      "瞄": 5849,
      "瞅": 5850,
      "瞑": 5851,
      "瞒": 5852,
      "瞧": 5853,
      "瞬": 5854,
      "瞭": 5855,
      "瞰": 5856,
      "瞳": 5857,
      "瞻": 5858,
      "瞿": 5859,
      "矚": 5860,
      "矛": 5861,
      "矢": 5862,
      "矣": 5863,
      "知": 5864,
      "矩": 5865,
      "短": 5866,
      "矮": 5867,
      "石": 5868,
      "矶": 5869,
      "矿": 5870,
      "码": 5871,
      "砂": 5872,
      "砍": 5873,
      "研": 5874,
      "砕": 5875,
      "砖": 5876,
      "破": 5877,
      "砸": 5878,
      "砼": 5879,
      "础": 5880,
      "硅": 5881,
      "硒": 5882,
      "硕": 5883,
      "硝": 5884,
      "硫": 5885,
      "硬": 5886,
      "确": 5887,
      "硼": 5888,
      "碋": 5889,
      "碌": 5890,
      "碍": 5891,
      "碎": 5892,
      "碑": 5893,
      "碗": 5894,
      "碘": 5895,
      "碟": 5896,
      "碧": 5897,
      "碰": 5898,
      "碱": 5899,
      "碳": 5900,
      "確": 5901,
      "碼": 5902,
      "碾": 5903,
      "磁": 5904,
      "磅": 5905,
      "磊": 5906,
      "磚": 5907,
      "磨": 5908,
      "磯": 5909,
      "磷": 5910,
      "礁": 5911,
      "礎": 5912,
      "礙": 5913,
      "礦": 5914,
      "示": 5915,
      "礼": 5916,
      "社": 5917,
      "祈": 5918,
      "祐": 5919,
      "祖": 5920,
      "祝": 5921,
      "神": 5922,
      "祠": 5923,
      "祥": 5924,
      "票": 5925,
      "祭": 5926,
      "祷": 5927,
      "祹": 5928,
      "祺": 5929,
      "禁": 5930,
      "禄": 5931,
      "禅": 5932,
      "禍": 5933,
      "禦": 5934,
      "禮": 5935,
      "禹": 5936,
      "离": 5937,
      "禽": 5938,
      "禾": 5939,
      "秀": 5940,
      "私": 5941,
      "秉": 5942,
      "秋": 5943,
      "种": 5944,
      "科": 5945,
      "秒": 5946,
      "秘": 5947,
      "租": 5948,
      "秤": 5949,
      "秦": 5950,
      "秧": 5951,
      "秩": 5952,
      "积": 5953,
      "称": 5954,
      "移": 5955,
      "秽": 5956,
      "稀": 5957,
      "稅": 5958,
      "程": 5959,
      "稍": 5960,
      "税": 5961,
      "稚": 5962,
      "稟": 5963,
      "稠": 5964,
      "稣": 5965,
      "種": 5966,
      "稱": 5967,
      "稲": 5968,
      "稳": 5969,
      "稻": 5970,
      "稼": 5971,
      "稿": 5972,
      "穀": 5973,
      "穂": 5974,
      "穆": 5975,
      "積": 5976,
      "穎": 5977,
      "穏": 5978,
      "穗": 5979,
      "穩": 5980,
      "穫": 5981,
      "穴": 5982,
      "究": 5983,
      "穷": 5984,
      "穹": 5985,
      "空": 5986,
      "穿": 5987,
      "突": 5988,
      "窃": 5989,
      "窄": 5990,
      "窍": 5991,
      "窑": 5992,
      "窒": 5993,
      "窓": 5994,
      "窗": 5995,
      "窝": 5996,
      "窟": 5997,
      "窥": 5998,
      "窦": 5999,
      "窮": 6000,
      "竇": 6001,
      "立": 6002,
      "竖": 6003,
      "站": 6004,
      "竜": 6005,
      "竞": 6006,
      "竟": 6007,
      "章": 6008,
      "竣": 6009,
      "童": 6010,
      "竭": 6011,
      "端": 6012,
      "競": 6013,
      "竹": 6014,
      "笑": 6015,
      "笔": 6016,
      "笛": 6017,
      "笥": 6018,
      "符": 6019,
      "笨": 6020,
      "第": 6021,
      "笺": 6022,
      "笼": 6023,
      "筆": 6024,
      "等": 6025,
      "筋": 6026,
      "筐": 6027,
      "筑": 6028,
      "筒": 6029,
      "答": 6030,
      "策": 6031,
      "筛": 6032,
      "筝": 6033,
      "筹": 6034,
      "签": 6035,
      "简": 6036,
      "箇": 6037,
      "箋": 6038,
      "箍": 6039,
      "算": 6040,
      "管": 6041,
      "箪": 6042,
      "箫": 6043,
      "箭": 6044,
      "箱": 6045,
      "節": 6046,
      "範": 6047,
      "篇": 6048,
      "築": 6049,
      "篓": 6050,
      "篙": 6051,
      "篠": 6052,
      "篡": 6053,
      "篩": 6054,
      "篮": 6055,
      "篱": 6056,
      "篷": 6057,
      "簇": 6058,
      "簡": 6059,
      "簧": 6060,
      "簽": 6061,
      "簾": 6062,
      "簿": 6063,
      "籃": 6064,
      "籌": 6065,
      "籍": 6066,
      "籤": 6067,
      "籲": 6068,
      "米": 6069,
      "类": 6070,
      "籽": 6071,
      "粉": 6072,
      "粋": 6073,
      "粑": 6074,
      "粒": 6075,
      "粕": 6076,
      "粗": 6077,
      "粘": 6078,
      "粤": 6079,
      "粥": 6080,
      "粧": 6081,
      "粪": 6082,
      "粮": 6083,
      "粱": 6084,
      "粹": 6085,
      "粽": 6086,
      "精": 6087,
      "糊": 6088,
      "糍": 6089,
      "糕": 6090,
      "糖": 6091,
      "糗": 6092,
      "糙": 6093,
      "糜": 6094,
      "糞": 6095,
      "糟": 6096,
      "糧": 6097,
      "糯": 6098,
      "糸": 6099,
      "系": 6100,
      "紀": 6101,
      "約": 6102,
      "紅": 6103,
      "紊": 6104,
      "紋": 6105,
      "納": 6106,
      "紐": 6107,
      "純": 6108,
      "紙": 6109,
      "級": 6110,
      "紛": 6111,
      "素": 6112,
      "紡": 6113,
      "索": 6114,
      "紧": 6115,
      "紫": 6116,
      "累": 6117,
      "細": 6118,
      "紹": 6119,
      "終": 6120,
      "組": 6121,
      "絆": 6122,
      "経": 6123,
      "結": 6124,
      "絔": 6125,
      "絕": 6126,
      "絞": 6127,
      "絡": 6128,
      "絢": 6129,
      "給": 6130,
      "絮": 6131,
      "統": 6132,
      "絲": 6133,
      "絵": 6134,
      "絶": 6135,
      "經": 6136,
      "継": 6137,
      "続": 6138,
      "綜": 6139,
      "綠": 6140,
      "綡": 6141,
      "維": 6142,
      "綱": 6143,
      "網": 6144,
      "綺": 6145,
      "綻": 6146,
      "綾": 6147,
      "綿": 6148,
      "緊": 6149,
      "総": 6150,
      "緑": 6151,
      "緒": 6152,
      "線": 6153,
      "締": 6154,
      "編": 6155,
      "緩": 6156,
      "緯": 6157,
      "練": 6158,
      "緹": 6159,
      "緻": 6160,
      "縁": 6161,
      "縄": 6162,
      "縞": 6163,
      "縦": 6164,
      "縫": 6165,
      "縮": 6166,
      "縸": 6167,
      "總": 6168,
      "績": 6169,
      "繁": 6170,
      "繊": 6171,
      "繋": 6172,
      "織": 6173,
      "繕": 6174,
      "繚": 6175,
      "繞": 6176,
      "繫": 6177,
      "繰": 6178,
      "繼": 6179,
      "續": 6180,
      "纏": 6181,
      "纖": 6182,
      "纜": 6183,
      "纠": 6184,
      "红": 6185,
      "纤": 6186,
      "约": 6187,
      "级": 6188,
      "纪": 6189,
      "纬": 6190,
      "纯": 6191,
      "纱": 6192,
      "纲": 6193,
      "纳": 6194,
      "纵": 6195,
      "纶": 6196,
      "纷": 6197,
      "纸": 6198,
      "纹": 6199,
      "纺": 6200,
      "纽": 6201,
      "线": 6202,
      "练": 6203,
      "组": 6204,
      "细": 6205,
      "织": 6206,
      "终": 6207,
      "绊": 6208,
      "绍": 6209,
      "绎": 6210,
      "经": 6211,
      "绑": 6212,
      "绒": 6213,
      "结": 6214,
      "绕": 6215,
      "绘": 6216,
      "给": 6217,
      "绚": 6218,
      "络": 6219,
      "绝": 6220,
      "统": 6221,
      "绣": 6222,
      "继": 6223,
      "绩": 6224,
      "绪": 6225,
      "续": 6226,
      "绮": 6227,
      "绰": 6228,
      "绳": 6229,
      "维": 6230,
      "绵": 6231,
      "绷": 6232,
      "绸": 6233,
      "综": 6234,
      "绽": 6235,
      "绿": 6236,
      "缀": 6237,
      "缅": 6238,
      "缆": 6239,
      "缈": 6240,
      "缓": 6241,
      "编": 6242,
      "缘": 6243,
      "缚": 6244,
      "缝": 6245,
      "缠": 6246,
      "缥": 6247,
      "缩": 6248,
      "缪": 6249,
      "缬": 6250,
      "缭": 6251,
      "缴": 6252,
      "缶": 6253,
      "缸": 6254,
      "缺": 6255,
      "罐": 6256,
      "网": 6257,
      "罔": 6258,
      "罕": 6259,
      "罗": 6260,
      "罚": 6261,
      "罩": 6262,
      "罪": 6263,
      "置": 6264,
      "罰": 6265,
      "署": 6266,
      "罹": 6267,
      "羅": 6268,
      "羊": 6269,
      "羌": 6270,
      "美": 6271,
      "羚": 6272,
      "羟": 6273,
      "羡": 6274,
      "群": 6275,
      "羧": 6276,
      "羨": 6277,
      "義": 6278,
      "羰": 6279,
      "羽": 6280,
      "翁": 6281,
      "翅": 6282,
      "翊": 6283,
      "翘": 6284,
      "翠": 6285,
      "翡": 6286,
      "翩": 6287,
      "翰": 6288,
      "翹": 6289,
      "翻": 6290,
      "翼": 6291,
      "耀": 6292,
      "老": 6293,
      "考": 6294,
      "者": 6295,
      "而": 6296,
      "耍": 6297,
      "耐": 6298,
      "耕": 6299,
      "耗": 6300,
      "耦": 6301,
      "耳": 6302,
      "耶": 6303,
      "耸": 6304,
      "耻": 6305,
      "耽": 6306,
      "聆": 6307,
      "聊": 6308,
      "聋": 6309,
      "职": 6310,
      "联": 6311,
      "聖": 6312,
      "聘": 6313,
      "聚": 6314,
      "聞": 6315,
      "聡": 6316,
      "聩": 6317,
      "聪": 6318,
      "聯": 6319,
      "聰": 6320,
      "聲": 6321,
      "聴": 6322,
      "職": 6323,
      "聹": 6324,
      "聽": 6325,
      "肃": 6326,
      "肆": 6327,
      "肉": 6328,
      "肋": 6329,
      "肌": 6330,
      "肖": 6331,
      "肘": 6332,
      "肚": 6333,
      "肛": 6334,
      "肝": 6335,
      "肠": 6336,
      "股": 6337,
      "肢": 6338,
      "肤": 6339,
      "肥": 6340,
      "肩": 6341,
      "肪": 6342,
      "肮": 6343,
      "肯": 6344,
      "肱": 6345,
      "育": 6346,
      "肴": 6347,
      "肺": 6348,
      "肽": 6349,
      "肾": 6350,
      "肿": 6351,
      "胀": 6352,
      "胁": 6353,
      "胃": 6354,
      "胆": 6355,
      "背": 6356,
      "胍": 6357,
      "胎": 6358,
      "胖": 6359,
      "胚": 6360,
      "胜": 6361,
      "胞": 6362,
      "胡": 6363,
      "胫": 6364,
      "胭": 6365,
      "胰": 6366,
      "胱": 6367,
      "胴": 6368,
      "胶": 6369,
      "胸": 6370,
      "胺": 6371,
      "能": 6372,
      "脂": 6373,
      "脅": 6374,
      "脆": 6375,
      "脇": 6376,
      "脈": 6377,
      "脉": 6378,
      "脊": 6379,
      "脏": 6380,
      "脐": 6381,
      "脑": 6382,
      "脓": 6383,
      "脖": 6384,
      "脚": 6385,
      "脫": 6386,
      "脱": 6387,
      "脳": 6388,
      "脸": 6389,
      "脹": 6390,
      "脾": 6391,
      "脿": 6392,
      "腈": 6393,
      "腊": 6394,
      "腌": 6395,
      "腎": 6396,
      "腐": 6397,
      "腔": 6398,
      "腕": 6399,
      "腗": 6400,
      "腦": 6401,
      "腩": 6402,
      "腫": 6403,
      "腮": 6404,
      "腰": 6405,
      "腱": 6406,
      "腳": 6407,
      "腸": 6408,
      "腹": 6409,
      "腺": 6410,
      "腻": 6411,
      "腾": 6412,
      "腿": 6413,
      "膀": 6414,
      "膏": 6415,
      "膚": 6416,
      "膜": 6417,
      "膝": 6418,
      "膠": 6419,
      "膣": 6420,
      "膨": 6421,
      "膳": 6422,
      "膽": 6423,
      "膿": 6424,
      "臀": 6425,
      "臂": 6426,
      "臆": 6427,
      "臉": 6428,
      "臍": 6429,
      "臓": 6430,
      "臟": 6431,
      "臣": 6432,
      "臨": 6433,
      "臭": 6434,
      "至": 6435,
      "致": 6436,
      "臺": 6437,
      "舅": 6438,
      "舆": 6439,
      "與": 6440,
      "興": 6441,
      "舉": 6442,
      "舊": 6443,
      "舌": 6444,
      "舍": 6445,
      "舎": 6446,
      "舐": 6447,
      "舒": 6448,
      "舗": 6449,
      "舞": 6450,
      "舟": 6451,
      "航": 6452,
      "般": 6453,
      "舰": 6454,
      "舱": 6455,
      "舶": 6456,
      "船": 6457,
      "艇": 6458,
      "艘": 6459,
      "艦": 6460,
      "艮": 6461,
      "良": 6462,
      "艰": 6463,
      "色": 6464,
      "艳": 6465,
      "艺": 6466,
      "艾": 6467,
      "节": 6468,
      "芈": 6469,
      "芋": 6470,
      "芍": 6471,
      "芎": 6472,
      "芒": 6473,
      "芙": 6474,
      "芜": 6475,
      "芝": 6476,
      "芡": 6477,
      "芥": 6478,
      "芦": 6479,
      "芩": 6480,
      "芪": 6481,
      "芬": 6482,
      "芭": 6483,
      "芯": 6484,
      "花": 6485,
      "芳": 6486,
      "芸": 6487,
      "芹": 6488,
      "芽": 6489,
      "苄": 6490,
      "苈": 6491,
      "苍": 6492,
      "苏": 6493,
      "苑": 6494,
      "苒": 6495,
      "苓": 6496,
      "苔": 6497,
      "苗": 6498,
      "苛": 6499,
      "苞": 6500,
      "苟": 6501,
      "若": 6502,
      "苦": 6503,
      "苫": 6504,
      "苯": 6505,
      "英": 6506,
      "苷": 6507,
      "苹": 6508,
      "苺": 6509,
      "茁": 6510,
      "茂": 6511,
      "范": 6512,
      "茄": 6513,
      "茅": 6514,
      "茉": 6515,
      "茎": 6516,
      "茏": 6517,
      "茜": 6518,
      "茧": 6519,
      "茨": 6520,
      "茫": 6521,
      "茭": 6522,
      "茯": 6523,
      "茴": 6524,
      "茵": 6525,
      "茶": 6526,
      "茹": 6527,
      "荆": 6528,
      "草": 6529,
      "荏": 6530,
      "荐": 6531,
      "荒": 6532,
      "荔": 6533,
      "荘": 6534,
      "荟": 6535,
      "荡": 6536,
      "荣": 6537,
      "荧": 6538,
      "荫": 6539,
      "药": 6540,
      "荷": 6541,
      "莉": 6542,
      "莊": 6543,
      "莎": 6544,
      "莓": 6545,
      "莞": 6546,
      "莢": 6547,
      "莪": 6548,
      "莫": 6549,
      "莱": 6550,
      "莲": 6551,
      "莴": 6552,
      "获": 6553,
      "莹": 6554,
      "莺": 6555,
      "莽": 6556,
      "菁": 6557,
      "菅": 6558,
      "菇": 6559,
      "菊": 6560,
      "菌": 6561,
      "菓": 6562,
      "菜": 6563,
      "菠": 6564,
      "菩": 6565,
      "華": 6566,
      "菱": 6567,
      "菲": 6568,
      "菸": 6569,
      "萃": 6570,
      "萄": 6571,
      "萋": 6572,
      "萌": 6573,
      "萍": 6574,
      "萎": 6575,
      "萝": 6576,
      "营": 6577,
      "萧": 6578,
      "萨": 6579,
      "萩": 6580,
      "萬": 6581,
      "落": 6582,
      "葉": 6583,
      "著": 6584,
      "葛": 6585,
      "葡": 6586,
      "董": 6587,
      "葬": 6588,
      "葱": 6589,
      "葳": 6590,
      "葵": 6591,
      "葶": 6592,
      "蒂": 6593,
      "蒋": 6594,
      "蒙": 6595,
      "蒜": 6596,
      "蒲": 6597,
      "蒸": 6598,
      "蒼": 6599,
      "蒿": 6600,
      "蓄": 6601,
      "蓉": 6602,
      "蓋": 6603,
      "蓑": 6604,
      "蓝": 6605,
      "蓬": 6606,
      "蓼": 6607,
      "蔑": 6608,
      "蔓": 6609,
      "蔚": 6610,
      "蔡": 6611,
      "蔥": 6612,
      "蔬": 6613,
      "蔵": 6614,
      "蔻": 6615,
      "蔽": 6616,
      "蕁": 6617,
      "蕉": 6618,
      "蕊": 6619,
      "蕎": 6620,
      "蕦": 6621,
      "蕭": 6622,
      "蕴": 6623,
      "蕾": 6624,
      "薄": 6625,
      "薇": 6626,
      "薙": 6627,
      "薛": 6628,
      "薦": 6629,
      "薩": 6630,
      "薪": 6631,
      "薬": 6632,
      "薯": 6633,
      "薰": 6634,
      "藉": 6635,
      "藏": 6636,
      "藓": 6637,
      "藜": 6638,
      "藝": 6639,
      "藤": 6640,
      "藥": 6641,
      "藻": 6642,
      "藿": 6643,
      "蘋": 6644,
      "蘑": 6645,
      "蘭": 6646,
      "蘸": 6647,
      "虎": 6648,
      "虐": 6649,
      "虑": 6650,
      "處": 6651,
      "虚": 6652,
      "虛": 6653,
      "號": 6654,
      "虫": 6655,
      "虹": 6656,
      "虽": 6657,
      "虾": 6658,
      "蚀": 6659,
      "蚁": 6660,
      "蚊": 6661,
      "蚓": 6662,
      "蚕": 6663,
      "蚝": 6664,
      "蚣": 6665,
      "蚪": 6666,
      "蚯": 6667,
      "蚴": 6668,
      "蛇": 6669,
      "蛋": 6670,
      "蛍": 6671,
      "蛎": 6672,
      "蛔": 6673,
      "蛙": 6674,
      "蛛": 6675,
      "蛞": 6676,
      "蛮": 6677,
      "蛳": 6678,
      "蛹": 6679,
      "蛾": 6680,
      "蜀": 6681,
      "蜂": 6682,
      "蜇": 6683,
      "蜈": 6684,
      "蜒": 6685,
      "蜓": 6686,
      "蜗": 6687,
      "蜘": 6688,
      "蜜": 6689,
      "蜡": 6690,
      "蜥": 6691,
      "蜴": 6692,
      "蜷": 6693,
      "蜻": 6694,
      "蜿": 6695,
      "蝇": 6696,
      "蝌": 6697,
      "蝎": 6698,
      "蝓": 6699,
      "蝕": 6700,
      "蝙": 6701,
      "蝠": 6702,
      "蝦": 6703,
      "蝲": 6704,
      "蝴": 6705,
      "蝶": 6706,
      "蝸": 6707,
      "螃": 6708,
      "融": 6709,
      "螞": 6710,
      "螢": 6711,
      "螺": 6712,
      "蟜": 6713,
      "蟠": 6714,
      "蟲": 6715,
      "蟹": 6716,
      "蟻": 6717,
      "蠕": 6718,
      "蠡": 6719,
      "蠢": 6720,
      "血": 6721,
      "衆": 6722,
      "行": 6723,
      "衍": 6724,
      "術": 6725,
      "衔": 6726,
      "街": 6727,
      "衛": 6728,
      "衝": 6729,
      "衡": 6730,
      "衣": 6731,
      "补": 6732,
      "表": 6733,
      "衫": 6734,
      "衬": 6735,
      "衰": 6736,
      "衷": 6737,
      "袁": 6738,
      "袄": 6739,
      "袋": 6740,
      "袍": 6741,
      "袖": 6742,
      "袜": 6743,
      "被": 6744,
      "袭": 6745,
      "袱": 6746,
      "袴": 6747,
      "裁": 6748,
      "裂": 6749,
      "装": 6750,
      "裉": 6751,
      "裏": 6752,
      "裕": 6753,
      "裙": 6754,
      "補": 6755,
      "裝": 6756,
      "裡": 6757,
      "裤": 6758,
      "裸": 6759,
      "裹": 6760,
      "製": 6761,
      "裾": 6762,
      "褂": 6763,
      "複": 6764,
      "褐": 6765,
      "褒": 6766,
      "褪": 6767,
      "褲": 6768,
      "褶": 6769,
      "襟": 6770,
      "襯": 6771,
      "襲": 6772,
      "西": 6773,
      "要": 6774,
      "覅": 6775,
      "覆": 6776,
      "覇": 6777,
      "見": 6778,
      "規": 6779,
      "視": 6780,
      "覚": 6781,
      "覧": 6782,
      "親": 6783,
      "観": 6784,
      "覺": 6785,
      "覽": 6786,
      "觀": 6787,
      "见": 6788,
      "观": 6789,
      "规": 6790,
      "觅": 6791,
      "视": 6792,
      "觇": 6793,
      "览": 6794,
      "觉": 6795,
      "觑": 6796,
      "角": 6797,
      "觘": 6798,
      "觞": 6799,
      "解": 6800,
      "触": 6801,
      "觸": 6802,
      "言": 6803,
      "訂": 6804,
      "計": 6805,
      "訊": 6806,
      "討": 6807,
      "訓": 6808,
      "託": 6809,
      "記": 6810,
      "訝": 6811,
      "訣": 6812,
      "訪": 6813,
      "設": 6814,
      "許": 6815,
      "訳": 6816,
      "訴": 6817,
      "診": 6818,
      "註": 6819,
      "証": 6820,
      "評": 6821,
      "詞": 6822,
      "詢": 6823,
      "試": 6824,
      "詩": 6825,
      "詫": 6826,
      "詰": 6827,
      "話": 6828,
      "該": 6829,
      "詳": 6830,
      "詹": 6831,
      "誇": 6832,
      "誉": 6833,
      "誌": 6834,
      "認": 6835,
      "誓": 6836,
      "誕": 6837,
      "誘": 6838,
      "語": 6839,
      "誠": 6840,
      "誤": 6841,
      "說": 6842,
      "説": 6843,
      "読": 6844,
      "誰": 6845,
      "課": 6846,
      "調": 6847,
      "談": 6848,
      "請": 6849,
      "論": 6850,
      "諦": 6851,
      "諮": 6852,
      "諸": 6853,
      "諺": 6854,
      "諾": 6855,
      "謀": 6856,
      "謁": 6857,
      "謂": 6858,
      "謎": 6859,
      "謙": 6860,
      "講": 6861,
      "謝": 6862,
      "謡": 6863,
      "謹": 6864,
      "證": 6865,
      "識": 6866,
      "譜": 6867,
      "警": 6868,
      "譯": 6869,
      "議": 6870,
      "譲": 6871,
      "護": 6872,
      "譽": 6873,
      "讀": 6874,
      "變": 6875,
      "讓": 6876,
      "讚": 6877,
      "计": 6878,
      "订": 6879,
      "认": 6880,
      "讨": 6881,
      "让": 6882,
      "讪": 6883,
      "训": 6884,
      "议": 6885,
      "讯": 6886,
      "记": 6887,
      "讲": 6888,
      "讳": 6889,
      "讶": 6890,
      "许": 6891,
      "论": 6892,
      "讽": 6893,
      "设": 6894,
      "访": 6895,
      "诀": 6896,
      "证": 6897,
      "评": 6898,
      "识": 6899,
      "诈": 6900,
      "诉": 6901,
      "诊": 6902,
      "词": 6903,
      "译": 6904,
      "试": 6905,
      "诗": 6906,
      "诚": 6907,
      "话": 6908,
      "诞": 6909,
      "诡": 6910,
      "询": 6911,
      "该": 6912,
      "详": 6913,
      "诫": 6914,
      "语": 6915,
      "误": 6916,
      "诱": 6917,
      "说": 6918,
      "诵": 6919,
      "请": 6920,
      "诸": 6921,
      "诺": 6922,
      "读": 6923,
      "诽": 6924,
      "课": 6925,
      "谁": 6926,
      "调": 6927,
      "谅": 6928,
      "谈": 6929,
      "谊": 6930,
      "谋": 6931,
      "谎": 6932,
      "谐": 6933,
      "谑": 6934,
      "谓": 6935,
      "谔": 6936,
      "谚": 6937,
      "谜": 6938,
      "谢": 6939,
      "谣": 6940,
      "谤": 6941,
      "谥": 6942,
      "谦": 6943,
      "谧": 6944,
      "谨": 6945,
      "谬": 6946,
      "谭": 6947,
      "谱": 6948,
      "谷": 6949,
      "豆": 6950,
      "豊": 6951,
      "豐": 6952,
      "豚": 6953,
      "象": 6954,
      "豪": 6955,
      "豫": 6956,
      "豬": 6957,
      "豹": 6958,
      "貉": 6959,
      "貌": 6960,
      "貓": 6961,
      "貝": 6962,
      "貞": 6963,
      "負": 6964,
      "財": 6965,
      "貢": 6966,
      "貧": 6967,
      "貨": 6968,
      "販": 6969,
      "貫": 6970,
      "責": 6971,
      "貯": 6972,
      "貰": 6973,
      "貳": 6974,
      "貴": 6975,
      "買": 6976,
      "貸": 6977,
      "費": 6978,
      "貼": 6979,
      "貿": 6980,
      "賀": 6981,
      "賃": 6982,
      "賄": 6983,
      "資": 6984,
      "賑": 6985,
      "賓": 6986,
      "賛": 6987,
      "賜": 6988,
      "賞": 6989,
      "賢": 6990,
      "賣": 6991,
      "賦": 6992,
      "質": 6993,
      "賴": 6994,
      "賺": 6995,
      "購": 6996,
      "賽": 6997,
      "贈": 6998,
      "贊": 6999,
      "贝": 7000,
      "负": 7001,
      "贡": 7002,
      "财": 7003,
      "责": 7004,
      "贤": 7005,
      "败": 7006,
      "账": 7007,
      "货": 7008,
      "质": 7009,
      "贩": 7010,
      "贫": 7011,
      "贬": 7012,
      "购": 7013,
      "贮": 7014,
      "贯": 7015,
      "贰": 7016,
      "贴": 7017,
      "贵": 7018,
      "贷": 7019,
      "贸": 7020,
      "费": 7021,
      "贺": 7022,
      "贾": 7023,
      "贿": 7024,
      "赁": 7025,
      "资": 7026,
      "赋": 7027,
      "赌": 7028,
      "赎": 7029,
      "赏": 7030,
      "赔": 7031,
      "赖": 7032,
      "赚": 7033,
      "赛": 7034,
      "赞": 7035,
      "赠": 7036,
      "赢": 7037,
      "赣": 7038,
      "赤": 7039,
      "赫": 7040,
      "走": 7041,
      "赴": 7042,
      "赵": 7043,
      "赶": 7044,
      "起": 7045,
      "超": 7046,
      "越": 7047,
      "趋": 7048,
      "趣": 7049,
      "趨": 7050,
      "足": 7051,
      "趾": 7052,
      "跃": 7053,
      "跌": 7054,
      "跏": 7055,
      "跑": 7056,
      "距": 7057,
      "跟": 7058,
      "跡": 7059,
      "跨": 7060,
      "跪": 7061,
      "路": 7062,
      "跳": 7063,
      "践": 7064,
      "跹": 7065,
      "踊": 7066,
      "踏": 7067,
      "踐": 7068,
      "踝": 7069,
      "踞": 7070,
      "踢": 7071,
      "踩": 7072,
      "踪": 7073,
      "蹄": 7074,
      "蹈": 7075,
      "蹊": 7076,
      "蹟": 7077,
      "蹤": 7078,
      "蹦": 7079,
      "蹬": 7080,
      "蹲": 7081,
      "蹴": 7082,
      "躁": 7083,
      "躍": 7084,
      "身": 7085,
      "躯": 7086,
      "躲": 7087,
      "躺": 7088,
      "車": 7089,
      "軌": 7090,
      "軍": 7091,
      "軒": 7092,
      "軟": 7093,
      "転": 7094,
      "軸": 7095,
      "軽": 7096,
      "較": 7097,
      "載": 7098,
      "輔": 7099,
      "輕": 7100,
      "輛": 7101,
      "輝": 7102,
      "輩": 7103,
      "輪": 7104,
      "輯": 7105,
      "輳": 7106,
      "輸": 7107,
      "輻": 7108,
      "轉": 7109,
      "车": 7110,
      "轨": 7111,
      "轩": 7112,
      "转": 7113,
      "轮": 7114,
      "软": 7115,
      "轰": 7116,
      "轴": 7117,
      "轻": 7118,
      "轼": 7119,
      "载": 7120,
      "轿": 7121,
      "较": 7122,
      "辄": 7123,
      "辅": 7124,
      "辆": 7125,
      "辈": 7126,
      "辉": 7127,
      "辊": 7128,
      "辐": 7129,
      "辑": 7130,
      "输": 7131,
      "辖": 7132,
      "辙": 7133,
      "辛": 7134,
      "辞": 7135,
      "辣": 7136,
      "辦": 7137,
      "辨": 7138,
      "辩": 7139,
      "辫": 7140,
      "辭": 7141,
      "辰": 7142,
      "辱": 7143,
      "農": 7144,
      "边": 7145,
      "辺": 7146,
      "辻": 7147,
      "込": 7148,
      "辽": 7149,
      "达": 7150,
      "迁": 7151,
      "迅": 7152,
      "过": 7153,
      "迈": 7154,
      "迎": 7155,
      "运": 7156,
      "近": 7157,
      "返": 7158,
      "还": 7159,
      "这": 7160,
      "进": 7161,
      "远": 7162,
      "违": 7163,
      "连": 7164,
      "迟": 7165,
      "迦": 7166,
      "迪": 7167,
      "迫": 7168,
      "迭": 7169,
      "述": 7170,
      "迴": 7171,
      "迷": 7172,
      "迹": 7173,
      "追": 7174,
      "送": 7175,
      "适": 7176,
      "逃": 7177,
      "逄": 7178,
      "逅": 7179,
      "逆": 7180,
      "选": 7181,
      "逊": 7182,
      "逍": 7183,
      "透": 7184,
      "逐": 7185,
      "递": 7186,
      "途": 7187,
      "逗": 7188,
      "這": 7189,
      "通": 7190,
      "逛": 7191,
      "逝": 7192,
      "速": 7193,
      "造": 7194,
      "逢": 7195,
      "連": 7196,
      "逮": 7197,
      "週": 7198,
      "進": 7199,
      "逸": 7200,
      "逻": 7201,
      "逾": 7202,
      "遂": 7203,
      "遅": 7204,
      "遇": 7205,
      "遊": 7206,
      "運": 7207,
      "遍": 7208,
      "過": 7209,
      "遏": 7210,
      "道": 7211,
      "達": 7212,
      "違": 7213,
      "遗": 7214,
      "遙": 7215,
      "遞": 7216,
      "遠": 7217,
      "遣": 7218,
      "遥": 7219,
      "適": 7220,
      "遭": 7221,
      "遮": 7222,
      "遯": 7223,
      "遵": 7224,
      "遷": 7225,
      "選": 7226,
      "遺": 7227,
      "避": 7228,
      "邀": 7229,
      "邁": 7230,
      "邂": 7231,
      "邃": 7232,
      "還": 7233,
      "邊": 7234,
      "邏": 7235,
      "邑": 7236,
      "那": 7237,
      "邦": 7238,
      "邪": 7239,
      "邮": 7240,
      "邱": 7241,
      "邵": 7242,
      "邸": 7243,
      "邹": 7244,
      "邻": 7245,
      "郁": 7246,
      "郊": 7247,
      "郎": 7248,
      "郑": 7249,
      "郡": 7250,
      "部": 7251,
      "郵": 7252,
      "郷": 7253,
      "都": 7254,
      "鄉": 7255,
      "鄙": 7256,
      "鄭": 7257,
      "酉": 7258,
      "酊": 7259,
      "酌": 7260,
      "配": 7261,
      "酐": 7262,
      "酒": 7263,
      "酔": 7264,
      "酗": 7265,
      "酚": 7266,
      "酞": 7267,
      "酢": 7268,
      "酥": 7269,
      "酩": 7270,
      "酪": 7271,
      "酬": 7272,
      "酮": 7273,
      "酯": 7274,
      "酰": 7275,
      "酱": 7276,
      "酵": 7277,
      "酶": 7278,
      "酷": 7279,
      "酸": 7280,
      "酿": 7281,
      "醇": 7282,
      "醉": 7283,
      "醋": 7284,
      "醒": 7285,
      "醚": 7286,
      "醛": 7287,
      "醜": 7288,
      "醤": 7289,
      "醪": 7290,
      "醫": 7291,
      "醬": 7292,
      "釁": 7293,
      "采": 7294,
      "釈": 7295,
      "釉": 7296,
      "释": 7297,
      "釋": 7298,
      "里": 7299,
      "重": 7300,
      "野": 7301,
      "量": 7302,
      "金": 7303,
      "釗": 7304,
      "釘": 7305,
      "釜": 7306,
      "針": 7307,
      "釣": 7308,
      "鈍": 7309,
      "鈕": 7310,
      "鈴": 7311,
      "鉀": 7312,
      "鉄": 7313,
      "鉛": 7314,
      "鉦": 7315,
      "鉴": 7316,
      "銀": 7317,
      "銅": 7318,
      "銘": 7319,
      "銛": 7320,
      "銬": 7321,
      "銭": 7322,
      "銷": 7323,
      "銹": 7324,
      "鋁": 7325,
      "鋒": 7326,
      "鋭": 7327,
      "鋸": 7328,
      "鋼": 7329,
      "錄": 7330,
      "錘": 7331,
      "錠": 7332,
      "錢": 7333,
      "錦": 7334,
      "錫": 7335,
      "錬": 7336,
      "錯": 7337,
      "録": 7338,
      "錶": 7339,
      "鍊": 7340,
      "鍋": 7341,
      "鍛": 7342,
      "鍮": 7343,
      "鍵": 7344,
      "鍼": 7345,
      "鍾": 7346,
      "鎌": 7347,
      "鎖": 7348,
      "鎧": 7349,
      "鎮": 7350,
      "鏡": 7351,
      "鐘": 7352,
      "鐲": 7353,
      "鐵": 7354,
      "鑑": 7355,
      "鑰": 7356,
      "针": 7357,
      "钉": 7358,
      "钎": 7359,
      "钓": 7360,
      "钗": 7361,
      "钙": 7362,
      "钛": 7363,
      "钝": 7364,
      "钞": 7365,
      "钟": 7366,
      "钠": 7367,
      "钢": 7368,
      "钥": 7369,
      "钦": 7370,
      "钨": 7371,
      "钩": 7372,
      "钮": 7373,
      "钱": 7374,
      "钴": 7375,
      "钹": 7376,
      "钻": 7377,
      "钽": 7378,
      "钾": 7379,
      "铀": 7380,
      "铁": 7381,
      "铂": 7382,
      "铃": 7383,
      "铅": 7384,
      "铈": 7385,
      "铛": 7386,
      "铜": 7387,
      "铝": 7388,
      "铭": 7389,
      "铯": 7390,
      "铲": 7391,
      "铵": 7392,
      "银": 7393,
      "铸": 7394,
      "铺": 7395,
      "链": 7396,
      "销": 7397,
      "锁": 7398,
      "锂": 7399,
      "锄": 7400,
      "锅": 7401,
      "锈": 7402,
      "锋": 7403,
      "锌": 7404,
      "锐": 7405,
      "错": 7406,
      "锛": 7407,
      "锡": 7408,
      "锤": 7409,
      "锥": 7410,
      "锦": 7411,
      "键": 7412,
      "锯": 7413,
      "锰": 7414,
      "锶": 7415,
      "锻": 7416,
      "镀": 7417,
      "镁": 7418,
      "镂": 7419,
      "镇": 7420,
      "镍": 7421,
      "镐": 7422,
      "镖": 7423,
      "镜": 7424,
      "镶": 7425,
      "長": 7426,
      "长": 7427,
      "門": 7428,
      "閃": 7429,
      "閉": 7430,
      "開": 7431,
      "閎": 7432,
      "閏": 7433,
      "閑": 7434,
      "閒": 7435,
      "間": 7436,
      "閘": 7437,
      "閞": 7438,
      "関": 7439,
      "閣": 7440,
      "閤": 7441,
      "閩": 7442,
      "閱": 7443,
      "閲": 7444,
      "闇": 7445,
      "闊": 7446,
      "闘": 7447,
      "關": 7448,
      "门": 7449,
      "闪": 7450,
      "闭": 7451,
      "问": 7452,
      "闯": 7453,
      "闲": 7454,
      "间": 7455,
      "闵": 7456,
      "闷": 7457,
      "闸": 7458,
      "闹": 7459,
      "闺": 7460,
      "闻": 7461,
      "阀": 7462,
      "阁": 7463,
      "阅": 7464,
      "阈": 7465,
      "阐": 7466,
      "阑": 7467,
      "阔": 7468,
      "阖": 7469,
      "阙": 7470,
      "阜": 7471,
      "阪": 7472,
      "阱": 7473,
      "防": 7474,
      "阳": 7475,
      "阴": 7476,
      "阵": 7477,
      "阶": 7478,
      "阻": 7479,
      "阿": 7480,
      "陀": 7481,
      "附": 7482,
      "际": 7483,
      "陆": 7484,
      "陈": 7485,
      "陌": 7486,
      "降": 7487,
      "限": 7488,
      "陕": 7489,
      "陛": 7490,
      "陡": 7491,
      "院": 7492,
      "陣": 7493,
      "除": 7494,
      "陥": 7495,
      "陨": 7496,
      "险": 7497,
      "陪": 7498,
      "陰": 7499,
      "陳": 7500,
      "陵": 7501,
      "陶": 7502,
      "陷": 7503,
      "陸": 7504,
      "険": 7505,
      "陽": 7506,
      "隅": 7507,
      "隆": 7508,
      "階": 7509,
      "随": 7510,
      "隐": 7511,
      "隔": 7512,
      "隘": 7513,
      "隙": 7514,
      "際": 7515,
      "障": 7516,
      "隠": 7517,
      "隣": 7518,
      "隧": 7519,
      "隨": 7520,
      "險": 7521,
      "隶": 7522,
      "隻": 7523,
      "难": 7524,
      "雀": 7525,
      "雁": 7526,
      "雄": 7527,
      "雅": 7528,
      "集": 7529,
      "雇": 7530,
      "雌": 7531,
      "雍": 7532,
      "雑": 7533,
      "雕": 7534,
      "雖": 7535,
      "雙": 7536,
      "雛": 7537,
      "雜": 7538,
      "離": 7539,
      "難": 7540,
      "雨": 7541,
      "雪": 7542,
      "雯": 7543,
      "雰": 7544,
      "雲": 7545,
      "零": 7546,
      "雷": 7547,
      "電": 7548,
      "雾": 7549,
      "需": 7550,
      "霁": 7551,
      "霄": 7552,
      "霆": 7553,
      "震": 7554,
      "霉": 7555,
      "霊": 7556,
      "霍": 7557,
      "霓": 7558,
      "霜": 7559,
      "霞": 7560,
      "霧": 7561,
      "露": 7562,
      "霸": 7563,
      "霾": 7564,
      "靈": 7565,
      "青": 7566,
      "靖": 7567,
      "静": 7568,
      "靜": 7569,
      "非": 7570,
      "靠": 7571,
      "靡": 7572,
      "面": 7573,
      "靥": 7574,
      "革": 7575,
      "靭": 7576,
      "靴": 7577,
      "靶": 7578,
      "鞋": 7579,
      "鞘": 7580,
      "鞭": 7581,
      "韓": 7582,
      "韦": 7583,
      "韧": 7584,
      "韩": 7585,
      "韭": 7586,
      "音": 7587,
      "韵": 7588,
      "韶": 7589,
      "韻": 7590,
      "響": 7591,
      "頁": 7592,
      "頂": 7593,
      "頃": 7594,
      "項": 7595,
      "順": 7596,
      "須": 7597,
      "頌": 7598,
      "預": 7599,
      "頑": 7600,
      "頓": 7601,
      "頗": 7602,
      "領": 7603,
      "頚": 7604,
      "頬": 7605,
      "頭": 7606,
      "頷": 7607,
      "頸": 7608,
      "頻": 7609,
      "頼": 7610,
      "顅": 7611,
      "顆": 7612,
      "題": 7613,
      "額": 7614,
      "顏": 7615,
      "顔": 7616,
      "顕": 7617,
      "願": 7618,
      "類": 7619,
      "顧": 7620,
      "顫": 7621,
      "顯": 7622,
      "页": 7623,
      "顶": 7624,
      "顷": 7625,
      "项": 7626,
      "顺": 7627,
      "须": 7628,
      "顾": 7629,
      "顿": 7630,
      "颁": 7631,
      "颂": 7632,
      "预": 7633,
      "颅": 7634,
      "领": 7635,
      "颇": 7636,
      "颈": 7637,
      "颉": 7638,
      "颊": 7639,
      "颌": 7640,
      "颐": 7641,
      "频": 7642,
      "颖": 7643,
      "颗": 7644,
      "题": 7645,
      "颜": 7646,
      "额": 7647,
      "颞": 7648,
      "颠": 7649,
      "颡": 7650,
      "風": 7651,
      "飄": 7652,
      "飌": 7653,
      "风": 7654,
      "飓": 7655,
      "飕": 7656,
      "飘": 7657,
      "飙": 7658,
      "飛": 7659,
      "飞": 7660,
      "食": 7661,
      "飢": 7662,
      "飯": 7663,
      "飱": 7664,
      "飲": 7665,
      "飼": 7666,
      "飽": 7667,
      "飾": 7668,
      "餃": 7669,
      "餅": 7670,
      "養": 7671,
      "餐": 7672,
      "餓": 7673,
      "餚": 7674,
      "餡": 7675,
      "館": 7676,
      "饤": 7677,
      "饥": 7678,
      "饪": 7679,
      "饭": 7680,
      "饮": 7681,
      "饯": 7682,
      "饰": 7683,
      "饱": 7684,
      "饲": 7685,
      "饶": 7686,
      "饼": 7687,
      "饿": 7688,
      "馃": 7689,
      "馆": 7690,
      "馈": 7691,
      "馏": 7692,
      "馒": 7693,
      "首": 7694,
      "香": 7695,
      "馬": 7696,
      "馴": 7697,
      "駄": 7698,
      "駅": 7699,
      "駆": 7700,
      "駑": 7701,
      "駕": 7702,
      "駛": 7703,
      "駱": 7704,
      "騎": 7705,
      "騒": 7706,
      "験": 7707,
      "騨": 7708,
      "騰": 7709,
      "驗": 7710,
      "驚": 7711,
      "驟": 7712,
      "马": 7713,
      "驭": 7714,
      "驯": 7715,
      "驰": 7716,
      "驱": 7717,
      "驳": 7718,
      "驴": 7719,
      "驶": 7720,
      "驻": 7721,
      "驼": 7722,
      "驾": 7723,
      "骁": 7724,
      "骂": 7725,
      "骄": 7726,
      "骆": 7727,
      "骋": 7728,
      "验": 7729,
      "骏": 7730,
      "骑": 7731,
      "骖": 7732,
      "骗": 7733,
      "骚": 7734,
      "骛": 7735,
      "骤": 7736,
      "骥": 7737,
      "骨": 7738,
      "骰": 7739,
      "骶": 7740,
      "骸": 7741,
      "骼": 7742,
      "髂": 7743,
      "髄": 7744,
      "髋": 7745,
      "髓": 7746,
      "體": 7747,
      "高": 7748,
      "髪": 7749,
      "髭": 7750,
      "鬆": 7751,
      "鬓": 7752,
      "鬚": 7753,
      "鬥": 7754,
      "鬧": 7755,
      "鬱": 7756,
      "鬼": 7757,
      "魁": 7758,
      "魂": 7759,
      "魄": 7760,
      "魅": 7761,
      "魏": 7762,
      "魔": 7763,
      "魚": 7764,
      "魯": 7765,
      "鮫": 7766,
      "鮭": 7767,
      "鮮": 7768,
      "鯖": 7769,
      "鯛": 7770,
      "鰹": 7771,
      "鰻": 7772,
      "鱗": 7773,
      "鱼": 7774,
      "鱿": 7775,
      "鲁": 7776,
      "鲈": 7777,
      "鲜": 7778,
      "鲨": 7779,
      "鲫": 7780,
      "鲷": 7781,
      "鲸": 7782,
      "鳄": 7783,
      "鳆": 7784,
      "鳔": 7785,
      "鳕": 7786,
      "鳙": 7787,
      "鳝": 7788,
      "鳞": 7789,
      "鳥": 7790,
      "鳩": 7791,
      "鳳": 7792,
      "鳴": 7793,
      "鴻": 7794,
      "鵑": 7795,
      "鵝": 7796,
      "鶏": 7797,
      "鶴": 7798,
      "鷹": 7799,
      "鸟": 7800,
      "鸣": 7801,
      "鸥": 7802,
      "鸦": 7803,
      "鸭": 7804,
      "鸯": 7805,
      "鸳": 7806,
      "鸵": 7807,
      "鸽": 7808,
      "鸿": 7809,
      "鹅": 7810,
      "鹈": 7811,
      "鹉": 7812,
      "鹏": 7813,
      "鹤": 7814,
      "鹦": 7815,
      "鹰": 7816,
      "鹲": 7817,
      "鹳": 7818,
      "鹽": 7819,
      "鹿": 7820,
      "麗": 7821,
      "麥": 7822,
      "麦": 7823,
      "麵": 7824,
      "麹": 7825,
      "麺": 7826,
      "麻": 7827,
      "麼": 7828,
      "麽": 7829,
      "黃": 7830,
      "黄": 7831,
      "黎": 7832,
      "黏": 7833,
      "黑": 7834,
      "黒": 7835,
      "默": 7836,
      "黙": 7837,
      "黛": 7838,
      "點": 7839,
      "黮": 7840,
      "黯": 7841,
      "黱": 7842,
      "鼎": 7843,
      "鼓": 7844,
      "鼠": 7845,
      "鼻": 7846,
      "齊": 7847,
      "齋": 7848,
      "齌": 7849,
      "齐": 7850,
      "齒": 7851,
      "齡": 7852,
      "齢": 7853,
      "齿": 7854,
      "龄": 7855,
      "龋": 7856,
      "龍": 7857,
      "龐": 7858,
      "龙": 7859,
      "龜": 7860,
      "龟": 7861,
      "ꜣ": 7862,
      "ꜥ": 7863,
      "ꝼ": 7864,
      "Ᵹ": 7865,
      "Ꝿ": 7866,
      "ꟻ": 7867,
      "ꟾ": 7868,
      "ꦂ": 7869,
      "ꦩ": 7870,
      "ꦱ": 7871,
      "ꦼ": 7872,
      "가": 7873,
      "각": 7874,
      "간": 7875,
      "갇": 7876,
      "갈": 7877,
      "감": 7878,
      "갑": 7879,
      "값": 7880,
      "갓": 7881,
      "갔": 7882,
      "강": 7883,
      "갖": 7884,
      "같": 7885,
      "갚": 7886,
      "개": 7887,
      "객": 7888,
      "갤": 7889,
      "갬": 7890,
      "갭": 7891,
      "갯": 7892,
      "갱": 7893,
      "걀": 7894,
      "거": 7895,
      "걱": 7896,
      "건": 7897,
      "걷": 7898,
      "걸": 7899,
      "검": 7900,
      "겁": 7901,
      "것": 7902,
      "겉": 7903,
      "게": 7904,
      "겐": 7905,
      "겔": 7906,
      "겟": 7907,
      "겠": 7908,
      "겨": 7909,
      "격": 7910,
      "겪": 7911,
      "견": 7912,
      "결": 7913,
      "겸": 7914,
      "겹": 7915,
      "겼": 7916,
      "경": 7917,
      "곁": 7918,
      "계": 7919,
      "고": 7920,
      "곡": 7921,
      "곤": 7922,
      "곧": 7923,
      "골": 7924,
      "곰": 7925,
      "곱": 7926,
      "곳": 7927,
      "공": 7928,
      "곶": 7929,
      "과": 7930,
      "곽": 7931,
      "관": 7932,
      "괄": 7933,
      "광": 7934,
      "괜": 7935,
      "괴": 7936,
      "굉": 7937,
      "교": 7938,
      "구": 7939,
      "국": 7940,
      "군": 7941,
      "굳": 7942,
      "굴": 7943,
      "굵": 7944,
      "굽": 7945,
      "굿": 7946,
      "궁": 7947,
      "권": 7948,
      "궐": 7949,
      "궤": 7950,
      "귀": 7951,
      "귄": 7952,
      "규": 7953,
      "균": 7954,
      "귤": 7955,
      "그": 7956,
      "극": 7957,
      "근": 7958,
      "글": 7959,
      "긁": 7960,
      "금": 7961,
      "급": 7962,
      "긋": 7963,
      "긍": 7964,
      "기": 7965,
      "긴": 7966,
      "길": 7967,
      "김": 7968,
      "깁": 7969,
      "깃": 7970,
      "깅": 7971,
      "깊": 7972,
      "까": 7973,
      "깎": 7974,
      "깐": 7975,
      "깔": 7976,
      "깜": 7977,
      "깝": 7978,
      "깡": 7979,
      "깥": 7980,
      "깨": 7981,
      "깯": 7982,
      "꺼": 7983,
      "꺾": 7984,
      "껍": 7985,
      "껏": 7986,
      "껑": 7987,
      "께": 7988,
      "껴": 7989,
      "꼈": 7990,
      "꼌": 7991,
      "꼬": 7992,
      "꼭": 7993,
      "꼴": 7994,
      "꼽": 7995,
      "꽃": 7996,
      "꽈": 7997,
      "꽉": 7998,
      "꽐": 7999,
      "꽝": 8000,
      "꽤": 8001,
      "꾸": 8002,
      "꾼": 8003,
      "꿀": 8004,
      "꿈": 8005,
      "꿉": 8006,
      "꿔": 8007,
      "꿨": 8008,
      "뀌": 8009,
      "뀔": 8010,
      "뀜": 8011,
      "뀝": 8012,
      "끄": 8013,
      "끈": 8014,
      "끊": 8015,
      "끌": 8016,
      "끓": 8017,
      "끔": 8018,
      "끗": 8019,
      "끝": 8020,
      "끰": 8021,
      "끴": 8022,
      "끼": 8023,
      "끽": 8024,
      "낀": 8025,
      "낄": 8026,
      "낌": 8027,
      "낍": 8028,
      "낔": 8029,
      "나": 8030,
      "낙": 8031,
      "낚": 8032,
      "난": 8033,
      "날": 8034,
      "남": 8035,
      "납": 8036,
      "낫": 8037,
      "났": 8038,
      "낭": 8039,
      "낮": 8040,
      "낯": 8041,
      "낱": 8042,
      "낳": 8043,
      "내": 8044,
      "낵": 8045,
      "낸": 8046,
      "낼": 8047,
      "냄": 8048,
      "냅": 8049,
      "냇": 8050,
      "냈": 8051,
      "냉": 8052,
      "냐": 8053,
      "냥": 8054,
      "너": 8055,
      "넉": 8056,
      "넋": 8057,
      "넌": 8058,
      "널": 8059,
      "넓": 8060,
      "넘": 8061,
      "넚": 8062,
      "넛": 8063,
      "넣": 8064,
      "네": 8065,
      "넥": 8066,
      "넨": 8067,
      "넬": 8068,
      "넴": 8069,
      "넷": 8070,
      "넸": 8071,
      "녀": 8072,
      "녁": 8073,
      "년": 8074,
      "념": 8075,
      "녔": 8076,
      "녕": 8077,
      "노": 8078,
      "녹": 8079,
      "논": 8080,
      "놀": 8081,
      "놈": 8082,
      "놉": 8083,
      "농": 8084,
      "높": 8085,
      "놓": 8086,
      "놔": 8087,
      "놨": 8088,
      "뇌": 8089,
      "뇨": 8090,
      "뇴": 8091,
      "뇽": 8092,
      "누": 8093,
      "눅": 8094,
      "눈": 8095,
      "눌": 8096,
      "눔": 8097,
      "눕": 8098,
      "눗": 8099,
      "눠": 8100,
      "뉘": 8101,
      "뉜": 8102,
      "뉩": 8103,
      "뉴": 8104,
      "늄": 8105,
      "느": 8106,
      "늑": 8107,
      "는": 8108,
      "늘": 8109,
      "늙": 8110,
      "늠": 8111,
      "능": 8112,
      "늦": 8113,
      "늪": 8114,
      "늬": 8115,
      "늹": 8116,
      "니": 8117,
      "닉": 8118,
      "닌": 8119,
      "닐": 8120,
      "님": 8121,
      "닙": 8122,
      "닛": 8123,
      "닝": 8124,
      "다": 8125,
      "닥": 8126,
      "닦": 8127,
      "단": 8128,
      "닫": 8129,
      "달": 8130,
      "닭": 8131,
      "닮": 8132,
      "닳": 8133,
      "담": 8134,
      "답": 8135,
      "닷": 8136,
      "당": 8137,
      "닿": 8138,
      "대": 8139,
      "댄": 8140,
      "댐": 8141,
      "댑": 8142,
      "댓": 8143,
      "댜": 8144,
      "덍": 8145,
      "더": 8146,
      "덕": 8147,
      "던": 8148,
      "덜": 8149,
      "덟": 8150,
      "덤": 8151,
      "덥": 8152,
      "덧": 8153,
      "덩": 8154,
      "덫": 8155,
      "덮": 8156,
      "데": 8157,
      "덱": 8158,
      "덴": 8159,
      "델": 8160,
      "뎀": 8161,
      "뎅": 8162,
      "뎌": 8163,
      "뎠": 8164,
      "도": 8165,
      "독": 8166,
      "돈": 8167,
      "돋": 8168,
      "돌": 8169,
      "돕": 8170,
      "돗": 8171,
      "동": 8172,
      "돼": 8173,
      "됌": 8174,
      "됐": 8175,
      "됔": 8176,
      "됖": 8177,
      "되": 8178,
      "된": 8179,
      "됟": 8180,
      "될": 8181,
      "됨": 8182,
      "됩": 8183,
      "됬": 8184,
      "됼": 8185,
      "두": 8186,
      "둑": 8187,
      "둔": 8188,
      "둘": 8189,
      "둠": 8190,
      "둡": 8191,
      "둥": 8192,
      "둬": 8193,
      "뒤": 8194,
      "뒷": 8195,
      "듀": 8196,
      "듈": 8197,
      "듌": 8198,
      "듐": 8199,
      "드": 8200,
      "득": 8201,
      "든": 8202,
      "듣": 8203,
      "들": 8204,
      "듦": 8205,
      "듬": 8206,
      "듭": 8207,
      "듯": 8208,
      "등": 8209,
      "딁": 8210,
      "디": 8211,
      "딕": 8212,
      "딘": 8213,
      "딛": 8214,
      "딜": 8215,
      "딝": 8216,
      "딥": 8217,
      "딧": 8218,
      "딨": 8219,
      "딩": 8220,
      "딪": 8221,
      "따": 8222,
      "딱": 8223,
      "딴": 8224,
      "딸": 8225,
      "땀": 8226,
      "땅": 8227,
      "때": 8228,
      "땐": 8229,
      "땠": 8230,
      "땼": 8231,
      "떄": 8232,
      "떠": 8233,
      "떡": 8234,
      "떤": 8235,
      "떨": 8236,
      "떵": 8237,
      "떻": 8238,
      "떼": 8239,
      "또": 8240,
      "똑": 8241,
      "똥": 8242,
      "뚀": 8243,
      "뚜": 8244,
      "뚝": 8245,
      "뚤": 8246,
      "뚫": 8247,
      "뚱": 8248,
      "뚴": 8249,
      "뛰": 8250,
      "뜀": 8251,
      "뜨": 8252,
      "뜬": 8253,
      "뜰": 8254,
      "뜻": 8255,
      "띄": 8256,
      "띈": 8257,
      "띠": 8258,
      "띤": 8259,
      "띨": 8260,
      "라": 8261,
      "락": 8262,
      "란": 8263,
      "랃": 8264,
      "랄": 8265,
      "람": 8266,
      "랍": 8267,
      "랐": 8268,
      "랑": 8269,
      "랗": 8270,
      "래": 8271,
      "랙": 8272,
      "랜": 8273,
      "램": 8274,
      "랩": 8275,
      "랫": 8276,
      "랬": 8277,
      "랭": 8278,
      "랴": 8279,
      "략": 8280,
      "랼": 8281,
      "럄": 8282,
      "량": 8283,
      "럌": 8284,
      "러": 8285,
      "럭": 8286,
      "런": 8287,
      "럴": 8288,
      "럼": 8289,
      "럽": 8290,
      "럿": 8291,
      "렀": 8292,
      "렁": 8293,
      "렇": 8294,
      "레": 8295,
      "렉": 8296,
      "렌": 8297,
      "렐": 8298,
      "렘": 8299,
      "렛": 8300,
      "렝": 8301,
      "려": 8302,
      "력": 8303,
      "련": 8304,
      "렬": 8305,
      "렴": 8306,
      "렵": 8307,
      "렷": 8308,
      "렸": 8309,
      "령": 8310,
      "례": 8311,
      "로": 8312,
      "록": 8313,
      "론": 8314,
      "롤": 8315,
      "롬": 8316,
      "롭": 8317,
      "롯": 8318,
      "롱": 8319,
      "뢰": 8320,
      "룅": 8321,
      "료": 8322,
      "룔": 8323,
      "룡": 8324,
      "루": 8325,
      "룩": 8326,
      "룬": 8327,
      "룰": 8328,
      "룸": 8329,
      "룹": 8330,
      "룻": 8331,
      "룽": 8332,
      "뤄": 8333,
      "뤘": 8334,
      "뤼": 8335,
      "뤽": 8336,
      "류": 8337,
      "륙": 8338,
      "륜": 8339,
      "률": 8340,
      "륨": 8341,
      "륭": 8342,
      "르": 8343,
      "른": 8344,
      "를": 8345,
      "름": 8346,
      "릅": 8347,
      "릇": 8348,
      "릈": 8349,
      "릉": 8350,
      "릎": 8351,
      "리": 8352,
      "릭": 8353,
      "린": 8354,
      "릴": 8355,
      "림": 8356,
      "립": 8357,
      "릿": 8358,
      "링": 8359,
      "마": 8360,
      "막": 8361,
      "만": 8362,
      "많": 8363,
      "말": 8364,
      "맑": 8365,
      "맗": 8366,
      "맘": 8367,
      "맙": 8368,
      "맛": 8369,
      "망": 8370,
      "맞": 8371,
      "맡": 8372,
      "매": 8373,
      "맥": 8374,
      "맨": 8375,
      "맵": 8376,
      "맷": 8377,
      "맹": 8378,
      "맺": 8379,
      "머": 8380,
      "먹": 8381,
      "먼": 8382,
      "멀": 8383,
      "멈": 8384,
      "멋": 8385,
      "멍": 8386,
      "멎": 8387,
      "메": 8388,
      "멕": 8389,
      "멘": 8390,
      "멜": 8391,
      "멤": 8392,
      "멧": 8393,
      "멩": 8394,
      "며": 8395,
      "멱": 8396,
      "면": 8397,
      "멸": 8398,
      "명": 8399,
      "몇": 8400,
      "모": 8401,
      "목": 8402,
      "몫": 8403,
      "몬": 8404,
      "몰": 8405,
      "몸": 8406,
      "몹": 8407,
      "못": 8408,
      "몽": 8409,
      "묘": 8410,
      "무": 8411,
      "묵": 8412,
      "묶": 8413,
      "문": 8414,
      "묻": 8415,
      "물": 8416,
      "뭇": 8417,
      "뭉": 8418,
      "뭐": 8419,
      "뭔": 8420,
      "뭘": 8421,
      "뮤": 8422,
      "뮨": 8423,
      "뮬": 8424,
      "뮰": 8425,
      "뮴": 8426,
      "므": 8427,
      "믈": 8428,
      "미": 8429,
      "믹": 8430,
      "민": 8431,
      "믿": 8432,
      "밀": 8433,
      "밋": 8434,
      "밌": 8435,
      "밍": 8436,
      "및": 8437,
      "밑": 8438,
      "바": 8439,
      "박": 8440,
      "밖": 8441,
      "반": 8442,
      "받": 8443,
      "발": 8444,
      "밝": 8445,
      "밤": 8446,
      "밥": 8447,
      "밧": 8448,
      "방": 8449,
      "밭": 8450,
      "배": 8451,
      "백": 8452,
      "밴": 8453,
      "밸": 8454,
      "밿": 8455,
      "뱃": 8456,
      "뱅": 8457,
      "버": 8458,
      "벅": 8459,
      "번": 8460,
      "벌": 8461,
      "범": 8462,
      "법": 8463,
      "벗": 8464,
      "벙": 8465,
      "벚": 8466,
      "벛": 8467,
      "베": 8468,
      "벡": 8469,
      "벤": 8470,
      "벨": 8471,
      "벳": 8472,
      "벼": 8473,
      "벽": 8474,
      "변": 8475,
      "별": 8476,
      "볍": 8477,
      "병": 8478,
      "볕": 8479,
      "볨": 8480,
      "볳": 8481,
      "보": 8482,
      "복": 8483,
      "볶": 8484,
      "본": 8485,
      "볼": 8486,
      "봄": 8487,
      "봅": 8488,
      "봇": 8489,
      "봉": 8490,
      "봐": 8491,
      "봤": 8492,
      "뵈": 8493,
      "뵙": 8494,
      "부": 8495,
      "북": 8496,
      "분": 8497,
      "불": 8498,
      "붐": 8499,
      "붓": 8500,
      "붕": 8501,
      "붙": 8502,
      "뷌": 8503,
      "뷔": 8504,
      "뷰": 8505,
      "브": 8506,
      "븐": 8507,
      "블": 8508,
      "비": 8509,
      "빅": 8510,
      "빈": 8511,
      "빌": 8512,
      "빔": 8513,
      "빕": 8514,
      "빗": 8515,
      "빙": 8516,
      "빚": 8517,
      "빛": 8518,
      "빠": 8519,
      "빨": 8520,
      "빵": 8521,
      "빼": 8522,
      "빽": 8523,
      "뺀": 8524,
      "뺄": 8525,
      "뺌": 8526,
      "뻐": 8527,
      "뻗": 8528,
      "뼈": 8529,
      "뽀": 8530,
      "뽁": 8531,
      "뽑": 8532,
      "뽕": 8533,
      "뿌": 8534,
      "뿐": 8535,
      "뿔": 8536,
      "쀄": 8537,
      "쀻": 8538,
      "쀽": 8539,
      "쁘": 8540,
      "쁜": 8541,
      "쁠": 8542,
      "쁨": 8543,
      "쁩": 8544,
      "삐": 8545,
      "사": 8546,
      "삭": 8547,
      "산": 8548,
      "살": 8549,
      "삶": 8550,
      "삼": 8551,
      "삽": 8552,
      "삿": 8553,
      "샀": 8554,
      "상": 8555,
      "새": 8556,
      "색": 8557,
      "샌": 8558,
      "샐": 8559,
      "샘": 8560,
      "생": 8561,
      "샤": 8562,
      "샴": 8563,
      "샵": 8564,
      "샷": 8565,
      "샹": 8566,
      "섀": 8567,
      "서": 8568,
      "석": 8569,
      "섞": 8570,
      "선": 8571,
      "섣": 8572,
      "설": 8573,
      "섬": 8574,
      "섭": 8575,
      "섯": 8576,
      "섰": 8577,
      "성": 8578,
      "세": 8579,
      "섹": 8580,
      "센": 8581,
      "셀": 8582,
      "셈": 8583,
      "셉": 8584,
      "셋": 8585,
      "셌": 8586,
      "셔": 8587,
      "션": 8588,
      "셜": 8589,
      "셨": 8590,
      "셰": 8591,
      "셸": 8592,
      "소": 8593,
      "속": 8594,
      "솎": 8595,
      "손": 8596,
      "솔": 8597,
      "솜": 8598,
      "솟": 8599,
      "송": 8600,
      "솥": 8601,
      "쇄": 8602,
      "쇠": 8603,
      "쇼": 8604,
      "숍": 8605,
      "숑": 8606,
      "수": 8607,
      "숙": 8608,
      "순": 8609,
      "술": 8610,
      "숨": 8611,
      "숫": 8612,
      "숭": 8613,
      "숲": 8614,
      "쉘": 8615,
      "쉡": 8616,
      "쉬": 8617,
      "쉴": 8618,
      "쉽": 8619,
      "슈": 8620,
      "슐": 8621,
      "슘": 8622,
      "슛": 8623,
      "스": 8624,
      "슥": 8625,
      "슨": 8626,
      "슬": 8627,
      "슭": 8628,
      "슴": 8629,
      "습": 8630,
      "슷": 8631,
      "승": 8632,
      "시": 8633,
      "식": 8634,
      "신": 8635,
      "싣": 8636,
      "실": 8637,
      "싫": 8638,
      "심": 8639,
      "십": 8640,
      "싰": 8641,
      "싱": 8642,
      "싶": 8643,
      "싸": 8644,
      "싹": 8645,
      "싼": 8646,
      "쌀": 8647,
      "쌈": 8648,
      "쌉": 8649,
      "쌍": 8650,
      "쌓": 8651,
      "썔": 8652,
      "써": 8653,
      "썬": 8654,
      "썰": 8655,
      "썸": 8656,
      "썼": 8657,
      "쎄": 8658,
      "쎈": 8659,
      "쏘": 8660,
      "쏟": 8661,
      "쑗": 8662,
      "쑤": 8663,
      "쓜": 8664,
      "쓰": 8665,
      "쓴": 8666,
      "쓸": 8667,
      "씀": 8668,
      "씁": 8669,
      "씌": 8670,
      "씨": 8671,
      "씩": 8672,
      "씬": 8673,
      "씹": 8674,
      "씻": 8675,
      "아": 8676,
      "악": 8677,
      "안": 8678,
      "앉": 8679,
      "않": 8680,
      "알": 8681,
      "앓": 8682,
      "암": 8683,
      "압": 8684,
      "앗": 8685,
      "았": 8686,
      "앙": 8687,
      "앞": 8688,
      "애": 8689,
      "액": 8690,
      "앤": 8691,
      "앨": 8692,
      "앰": 8693,
      "앱": 8694,
      "앴": 8695,
      "앵": 8696,
      "야": 8697,
      "약": 8698,
      "얀": 8699,
      "얄": 8700,
      "얇": 8701,
      "얏": 8702,
      "양": 8703,
      "얕": 8704,
      "얘": 8705,
      "어": 8706,
      "억": 8707,
      "언": 8708,
      "얹": 8709,
      "얻": 8710,
      "얼": 8711,
      "얽": 8712,
      "엄": 8713,
      "업": 8714,
      "없": 8715,
      "엇": 8716,
      "었": 8717,
      "엉": 8718,
      "에": 8719,
      "엑": 8720,
      "엔": 8721,
      "엘": 8722,
      "엠": 8723,
      "엣": 8724,
      "엩": 8725,
      "여": 8726,
      "역": 8727,
      "연": 8728,
      "열": 8729,
      "염": 8730,
      "엽": 8731,
      "였": 8732,
      "영": 8733,
      "옆": 8734,
      "예": 8735,
      "옐": 8736,
      "옛": 8737,
      "오": 8738,
      "옥": 8739,
      "온": 8740,
      "옩": 8741,
      "올": 8742,
      "옮": 8743,
      "옳": 8744,
      "옴": 8745,
      "옵": 8746,
      "옷": 8747,
      "옹": 8748,
      "와": 8749,
      "왁": 8750,
      "완": 8751,
      "왈": 8752,
      "왑": 8753,
      "왓": 8754,
      "왔": 8755,
      "왕": 8756,
      "왜": 8757,
      "왠": 8758,
      "외": 8759,
      "왼": 8760,
      "요": 8761,
      "욕": 8762,
      "욘": 8763,
      "욜": 8764,
      "용": 8765,
      "우": 8766,
      "욱": 8767,
      "운": 8768,
      "울": 8769,
      "움": 8770,
      "웁": 8771,
      "웃": 8772,
      "웅": 8773,
      "워": 8774,
      "웍": 8775,
      "원": 8776,
      "월": 8777,
      "웜": 8778,
      "웟": 8779,
      "웠": 8780,
      "웨": 8781,
      "웰": 8782,
      "웹": 8783,
      "위": 8784,
      "윅": 8785,
      "윈": 8786,
      "윌": 8787,
      "윖": 8788,
      "윗": 8789,
      "윙": 8790,
      "유": 8791,
      "육": 8792,
      "윤": 8793,
      "율": 8794,
      "융": 8795,
      "으": 8796,
      "은": 8797,
      "을": 8798,
      "음": 8799,
      "읍": 8800,
      "응": 8801,
      "의": 8802,
      "이": 8803,
      "익": 8804,
      "인": 8805,
      "일": 8806,
      "읽": 8807,
      "잃": 8808,
      "임": 8809,
      "입": 8810,
      "잇": 8811,
      "있": 8812,
      "잉": 8813,
      "잊": 8814,
      "잎": 8815,
      "자": 8816,
      "작": 8817,
      "잔": 8818,
      "잖": 8819,
      "잘": 8820,
      "잠": 8821,
      "잡": 8822,
      "잤": 8823,
      "장": 8824,
      "잦": 8825,
      "재": 8826,
      "잭": 8827,
      "쟁": 8828,
      "쟛": 8829,
      "저": 8830,
      "적": 8831,
      "전": 8832,
      "절": 8833,
      "젊": 8834,
      "젍": 8835,
      "점": 8836,
      "접": 8837,
      "젓": 8838,
      "정": 8839,
      "젖": 8840,
      "젚": 8841,
      "제": 8842,
      "젝": 8843,
      "젠": 8844,
      "젤": 8845,
      "젯": 8846,
      "져": 8847,
      "젼": 8848,
      "졌": 8849,
      "졍": 8850,
      "조": 8851,
      "족": 8852,
      "존": 8853,
      "졸": 8854,
      "좀": 8855,
      "좁": 8856,
      "종": 8857,
      "좋": 8858,
      "좌": 8859,
      "죄": 8860,
      "죠": 8861,
      "주": 8862,
      "죽": 8863,
      "준": 8864,
      "줄": 8865,
      "줌": 8866,
      "줍": 8867,
      "중": 8868,
      "줔": 8869,
      "줘": 8870,
      "줬": 8871,
      "쥐": 8872,
      "쥬": 8873,
      "즈": 8874,
      "즉": 8875,
      "즌": 8876,
      "즐": 8877,
      "즘": 8878,
      "증": 8879,
      "즴": 8880,
      "지": 8881,
      "직": 8882,
      "진": 8883,
      "짇": 8884,
      "질": 8885,
      "짊": 8886,
      "짐": 8887,
      "집": 8888,
      "짓": 8889,
      "징": 8890,
      "짖": 8891,
      "짙": 8892,
      "짚": 8893,
      "짜": 8894,
      "짝": 8895,
      "짤": 8896,
      "짧": 8897,
      "짬": 8898,
      "짭": 8899,
      "짰": 8900,
      "짱": 8901,
      "째": 8902,
      "쩀": 8903,
      "쩌": 8904,
      "쩍": 8905,
      "쩐": 8906,
      "쩔": 8907,
      "쩜": 8908,
      "쪼": 8909,
      "쪽": 8910,
      "쫄": 8911,
      "쫓": 8912,
      "쬐": 8913,
      "쭉": 8914,
      "쭤": 8915,
      "쯌": 8916,
      "쯔": 8917,
      "쯤": 8918,
      "찈": 8919,
      "찌": 8920,
      "찍": 8921,
      "찐": 8922,
      "찓": 8923,
      "찔": 8924,
      "찜": 8925,
      "찝": 8926,
      "찢": 8927,
      "차": 8928,
      "착": 8929,
      "찬": 8930,
      "찮": 8931,
      "찰": 8932,
      "참": 8933,
      "찹": 8934,
      "찻": 8935,
      "창": 8936,
      "찾": 8937,
      "채": 8938,
      "책": 8939,
      "챌": 8940,
      "챔": 8941,
      "챕": 8942,
      "챗": 8943,
      "챙": 8944,
      "챠": 8945,
      "처": 8946,
      "척": 8947,
      "천": 8948,
      "철": 8949,
      "첨": 8950,
      "첩": 8951,
      "첫": 8952,
      "청": 8953,
      "체": 8954,
      "첵": 8955,
      "첸": 8956,
      "첼": 8957,
      "첾": 8958,
      "쳇": 8959,
      "쳐": 8960,
      "쳤": 8961,
      "초": 8962,
      "촉": 8963,
      "촌": 8964,
      "촛": 8965,
      "총": 8966,
      "촬": 8967,
      "최": 8968,
      "쵸": 8969,
      "추": 8970,
      "축": 8971,
      "춘": 8972,
      "출": 8973,
      "춤": 8974,
      "춥": 8975,
      "충": 8976,
      "춰": 8977,
      "췄": 8978,
      "취": 8979,
      "츄": 8980,
      "츠": 8981,
      "측": 8982,
      "층": 8983,
      "츸": 8984,
      "칄": 8985,
      "치": 8986,
      "칙": 8987,
      "친": 8988,
      "칠": 8989,
      "침": 8990,
      "칩": 8991,
      "칫": 8992,
      "칭": 8993,
      "카": 8994,
      "칵": 8995,
      "칸": 8996,
      "칼": 8997,
      "캄": 8998,
      "캅": 8999,
      "캐": 9000,
      "캔": 9001,
      "캘": 9002,
      "캝": 9003,
      "캠": 9004,
      "캡": 9005,
      "캣": 9006,
      "컠": 9007,
      "커": 9008,
      "컨": 9009,
      "컫": 9010,
      "컬": 9011,
      "컴": 9012,
      "컵": 9013,
      "컷": 9014,
      "컸": 9015,
      "케": 9016,
      "켄": 9017,
      "켈": 9018,
      "켓": 9019,
      "켜": 9020,
      "켨": 9021,
      "켰": 9022,
      "코": 9023,
      "콕": 9024,
      "콘": 9025,
      "콜": 9026,
      "콤": 9027,
      "콩": 9028,
      "쾅": 9029,
      "쾌": 9030,
      "쿄": 9031,
      "쿠": 9032,
      "쿤": 9033,
      "쿨": 9034,
      "쿰": 9035,
      "쿵": 9036,
      "쿼": 9037,
      "퀀": 9038,
      "퀄": 9039,
      "퀘": 9040,
      "퀴": 9041,
      "퀸": 9042,
      "큇": 9043,
      "큐": 9044,
      "큘": 9045,
      "크": 9046,
      "큰": 9047,
      "클": 9048,
      "큼": 9049,
      "큽": 9050,
      "키": 9051,
      "킥": 9052,
      "킨": 9053,
      "킬": 9054,
      "킴": 9055,
      "킵": 9056,
      "킷": 9057,
      "킹": 9058,
      "타": 9059,
      "탁": 9060,
      "탄": 9061,
      "탈": 9062,
      "탐": 9063,
      "탑": 9064,
      "탔": 9065,
      "탕": 9066,
      "태": 9067,
      "택": 9068,
      "탠": 9069,
      "탬": 9070,
      "탭": 9071,
      "탯": 9072,
      "탱": 9073,
      "터": 9074,
      "턴": 9075,
      "털": 9076,
      "텀": 9077,
      "테": 9078,
      "텍": 9079,
      "텐": 9080,
      "텔": 9081,
      "템": 9082,
      "텟": 9083,
      "텨": 9084,
      "토": 9085,
      "톡": 9086,
      "톤": 9087,
      "톨": 9088,
      "톰": 9089,
      "톱": 9090,
      "통": 9091,
      "톻": 9092,
      "퇴": 9093,
      "투": 9094,
      "툭": 9095,
      "툰": 9096,
      "툴": 9097,
      "툼": 9098,
      "퉁": 9099,
      "퉈": 9100,
      "튀": 9101,
      "튜": 9102,
      "튠": 9103,
      "튬": 9104,
      "트": 9105,
      "특": 9106,
      "튼": 9107,
      "틀": 9108,
      "틈": 9109,
      "티": 9110,
      "틱": 9111,
      "틴": 9112,
      "틸": 9113,
      "팀": 9114,
      "팁": 9115,
      "팅": 9116,
      "파": 9117,
      "팍": 9118,
      "판": 9119,
      "팓": 9120,
      "팔": 9121,
      "팗": 9122,
      "팜": 9123,
      "팝": 9124,
      "팟": 9125,
      "팡": 9126,
      "팥": 9127,
      "패": 9128,
      "팩": 9129,
      "팬": 9130,
      "팸": 9131,
      "팹": 9132,
      "팻": 9133,
      "팽": 9134,
      "퍼": 9135,
      "펀": 9136,
      "펌": 9137,
      "펍": 9138,
      "펐": 9139,
      "펑": 9140,
      "페": 9141,
      "펙": 9142,
      "펜": 9143,
      "펠": 9144,
      "펩": 9145,
      "펭": 9146,
      "펴": 9147,
      "편": 9148,
      "펼": 9149,
      "평": 9150,
      "폐": 9151,
      "포": 9152,
      "폭": 9153,
      "폰": 9154,
      "폴": 9155,
      "폼": 9156,
      "폿": 9157,
      "표": 9158,
      "푸": 9159,
      "푼": 9160,
      "풀": 9161,
      "품": 9162,
      "풋": 9163,
      "풍": 9164,
      "풜": 9165,
      "퓨": 9166,
      "퓰": 9167,
      "프": 9168,
      "픈": 9169,
      "플": 9170,
      "픔": 9171,
      "피": 9172,
      "픽": 9173,
      "핀": 9174,
      "필": 9175,
      "핆": 9176,
      "핍": 9177,
      "핏": 9178,
      "핑": 9179,
      "하": 9180,
      "학": 9181,
      "한": 9182,
      "할": 9183,
      "핥": 9184,
      "함": 9185,
      "합": 9186,
      "핫": 9187,
      "항": 9188,
      "해": 9189,
      "핵": 9190,
      "핸": 9191,
      "핹": 9192,
      "햄": 9193,
      "햇": 9194,
      "했": 9195,
      "행": 9196,
      "향": 9197,
      "헅": 9198,
      "허": 9199,
      "헌": 9200,
      "헐": 9201,
      "험": 9202,
      "헛": 9203,
      "헝": 9204,
      "헤": 9205,
      "헥": 9206,
      "헨": 9207,
      "헬": 9208,
      "헴": 9209,
      "혀": 9210,
      "혁": 9211,
      "현": 9212,
      "혈": 9213,
      "혐": 9214,
      "협": 9215,
      "혔": 9216,
      "형": 9217,
      "혜": 9218,
      "호": 9219,
      "혹": 9220,
      "혼": 9221,
      "홀": 9222,
      "홈": 9223,
      "홉": 9224,
      "홋": 9225,
      "홍": 9226,
      "화": 9227,
      "확": 9228,
      "환": 9229,
      "활": 9230,
      "황": 9231,
      "회": 9232,
      "획": 9233,
      "횟": 9234,
      "횡": 9235,
      "효": 9236,
      "후": 9237,
      "훅": 9238,
      "훈": 9239,
      "훌": 9240,
      "훔": 9241,
      "훨": 9242,
      "훼": 9243,
      "휖": 9244,
      "휘": 9245,
      "휩": 9246,
      "휴": 9247,
      "흉": 9248,
      "흐": 9249,
      "흑": 9250,
      "흔": 9251,
      "흘": 9252,
      "흙": 9253,
      "흜": 9254,
      "흡": 9255,
      "흥": 9256,
      "흩": 9257,
      "희": 9258,
      "흰": 9259,
      "히": 9260,
      "힌": 9261,
      "힐": 9262,
      "힘": 9263,
      "힙": 9264,
      "": 9265,
      "": 9266,
      "": 9267,
      "": 9268,
      "": 9269,
      "": 9270,
      "": 9271,
      "": 9272,
      "": 9273,
      "": 9274,
      "": 9275,
      "": 9276,
      "": 9277,
      "": 9278,
      "": 9279,
      "": 9280,
      "": 9281,
      "": 9282,
      "": 9283,
      "": 9284,
      "": 9285,
      "": 9286,
      "": 9287,
      "": 9288,
      "": 9289,
      "": 9290,
      "": 9291,
      "": 9292,
      "": 9293,
      "": 9294,
      "": 9295,
      "ﬀ": 9296,
      "ﬁ": 9297,
      "ﬂ": 9298,
      "ﷲ": 9299,
      "ﷺ": 9300,
      "﷽": 9301,
      "︀": 9302,
      "︊": 9303,
      "︎": 9304,
      "️": 9305,
      "︵": 9306,
      "﹩": 9307,
      "ﺼ": 9308,
      "ﻟ": 9309,
      "ﻠ": 9310,
      "ﻪ": 9311,
      "﻿": 9312,
      "！": 9313,
      "＃": 9314,
      "％": 9315,
      "＆": 9316,
      "（": 9317,
      "）": 9318,
      "＊": 9319,
      "＋": 9320,
      "，": 9321,
      "－": 9322,
      "．": 9323,
      "／": 9324,
      "０": 9325,
      "１": 9326,
      "２": 9327,
      "３": 9328,
      "４": 9329,
      "５": 9330,
      "６": 9331,
      "７": 9332,
      "８": 9333,
      "９": 9334,
      "：": 9335,
      "；": 9336,
      "＜": 9337,
      "＝": 9338,
      "＞": 9339,
      "？": 9340,
      "Ａ": 9341,
      "Ｃ": 9342,
      "Ｄ": 9343,
      "Ｅ": 9344,
      "Ｇ": 9345,
      "Ｉ": 9346,
      "Ｍ": 9347,
      "Ｏ": 9348,
      "Ｐ": 9349,
      "Ｒ": 9350,
      "Ｓ": 9351,
      "Ｕ": 9352,
      "Ｖ": 9353,
      "Ｙ": 9354,
      "＼": 9355,
      "＾": 9356,
      "＿": 9357,
      "ｅ": 9358,
      "ｈ": 9359,
      "ｊ": 9360,
      "ｚ": 9361,
      "｜": 9362,
      "～": 9363,
      "｡": 9364,
      "･": 9365,
      "ﾄ": 9366,
      "ﾉ": 9367,
      "ﾎ": 9368,
      "ﾘ": 9369,
      "ﾙ": 9370,
      "ﾝ": 9371,
      "ﾞ": 9372,
      "ﾟ": 9373,
      "￡": 9374,
      "￣": 9375,
      "�": 9376,
      "￿": 9377,
      "𐀲": 9378,
      "𐉬": 9379,
      "𐌰": 9380,
      "𐌿": 9381,
      "𐍂": 9382,
      "𐍃": 9383,
      "𐍄": 9384,
      "𐎠": 9385,
      "𐎣": 9386,
      "𐎧": 9387,
      "𐎶": 9388,
      "𒀭": 9389,
      "𒅖": 9390,
      "𒉌": 9391,
      "𓀉": 9392,
      "𓁿": 9393,
      "𓂰": 9394,
      "𓃟": 9395,
      "𓋹": 9396,
      "𓎼": 9397,
      "𓎽": 9398,
      "𓏏": 9399,
      "𝄆": 9400,
      "𝌀": 9401,
      "𝍙": 9402,
      "𝐃": 9403,
      "𝐈": 9404,
      "𝐖": 9405,
      "𝐚": 9406,
      "𝐠": 9407,
      "𝐡": 9408,
      "𝐢": 9409,
      "𝐦": 9410,
      "𝐧": 9411,
      "𝐨": 9412,
      "𝐬": 9413,
      "𝐭": 9414,
      "𝐴": 9415,
      "𝐵": 9416,
      "𝐶": 9417,
      "𝐷": 9418,
      "𝐸": 9419,
      "𝐹": 9420,
      "𝐻": 9421,
      "𝐼": 9422,
      "𝐾": 9423,
      "𝐿": 9424,
      "𝑀": 9425,
      "𝑁": 9426,
      "𝑂": 9427,
      "𝑃": 9428,
      "𝑄": 9429,
      "𝑅": 9430,
      "𝑆": 9431,
      "𝑇": 9432,
      "𝑈": 9433,
      "𝑉": 9434,
      "𝑊": 9435,
      "𝑋": 9436,
      "𝑌": 9437,
      "𝑎": 9438,
      "𝑏": 9439,
      "𝑐": 9440,
      "𝑑": 9441,
      "𝑒": 9442,
      "𝑓": 9443,
      "𝑔": 9444,
      "𝑖": 9445,
      "𝑗": 9446,
      "𝑘": 9447,
      "𝑙": 9448,
      "𝑚": 9449,
      "𝑛": 9450,
      "𝑜": 9451,
      "𝑝": 9452,
      "𝑟": 9453,
      "𝑠": 9454,
      "𝑡": 9455,
      "𝑢": 9456,
      "𝑣": 9457,
      "𝑤": 9458,
      "𝑥": 9459,
      "𝑦": 9460,
      "𝑧": 9461,
      "𝑪": 9462,
      "𝑫": 9463,
      "𝑮": 9464,
      "𝑲": 9465,
      "𝑳": 9466,
      "𝑶": 9467,
      "𝑹": 9468,
      "𝒅": 9469,
      "𝒆": 9470,
      "𝒉": 9471,
      "𝒊": 9472,
      "𝒋": 9473,
      "𝒏": 9474,
      "𝒔": 9475,
      "𝒕": 9476,
      "𝒙": 9477,
      "𝒚": 9478,
      "𝒜": 9479,
      "𝒟": 9480,
      "𝒪": 9481,
      "𝒶": 9482,
      "𝒸": 9483,
      "𝒹": 9484,
      "𝒻": 9485,
      "𝒽": 9486,
      "𝒾": 9487,
      "𝓁": 9488,
      "𝓃": 9489,
      "𝓇": 9490,
      "𝓉": 9491,
      "𝓊": 9492,
      "𝓌": 9493,
      "𝓎": 9494,
      "𝓒": 9495,
      "𝓕": 9496,
      "𝓪": 9497,
      "𝓭": 9498,
      "𝓮": 9499,
      "𝓱": 9500,
      "𝓲": 9501,
      "𝓵": 9502,
      "𝓷": 9503,
      "𝓸": 9504,
      "𝓹": 9505,
      "𝓻": 9506,
      "𝓼": 9507,
      "𝓽": 9508,
      "𝔀": 9509,
      "𝔁": 9510,
      "𝔂": 9511,
      "𝔃": 9512,
      "𝔇": 9513,
      "𝔈": 9514,
      "𝔚": 9515,
      "𝔡": 9516,
      "𝔢": 9517,
      "𝔥": 9518,
      "𝔩": 9519,
      "𝔪": 9520,
      "𝔬": 9521,
      "𝔯": 9522,
      "𝔴": 9523,
      "𝕒": 9524,
      "𝕔": 9525,
      "𝕕": 9526,
      "𝕖": 9527,
      "𝕘": 9528,
      "𝕙": 9529,
      "𝕚": 9530,
      "𝕜": 9531,
      "𝕝": 9532,
      "𝕠": 9533,
      "𝕤": 9534,
      "𝕥": 9535,
      "𝕦": 9536,
      "𝕧": 9537,
      "𝕪": 9538,
      "𝕬": 9539,
      "𝕮": 9540,
      "𝕰": 9541,
      "𝕸": 9542,
      "𝕽": 9543,
      "𝖆": 9544,
      "𝖊": 9545,
      "𝖋": 9546,
      "𝖌": 9547,
      "𝖍": 9548,
      "𝖎": 9549,
      "𝖏": 9550,
      "𝖐": 9551,
      "𝖑": 9552,
      "𝖒": 9553,
      "𝖓": 9554,
      "𝖔": 9555,
      "𝖕": 9556,
      "𝖖": 9557,
      "𝖗": 9558,
      "𝖘": 9559,
      "𝖚": 9560,
      "𝖛": 9561,
      "𝖜": 9562,
      "𝖝": 9563,
      "𝖞": 9564,
      "𝖟": 9565,
      "𝗔": 9566,
      "𝗗": 9567,
      "𝗚": 9568,
      "𝗟": 9569,
      "𝗠": 9570,
      "𝗣": 9571,
      "𝗥": 9572,
      "𝗦": 9573,
      "𝗧": 9574,
      "𝗨": 9575,
      "𝗮": 9576,
      "𝗱": 9577,
      "𝗲": 9578,
      "𝗵": 9579,
      "𝗶": 9580,
      "𝗸": 9581,
      "𝗹": 9582,
      "𝗺": 9583,
      "𝗻": 9584,
      "𝗼": 9585,
      "𝗽": 9586,
      "𝗿": 9587,
      "𝘀": 9588,
      "𝘁": 9589,
      "𝘂": 9590,
      "𝘆": 9591,
      "𝙘": 9592,
      "𝙚": 9593,
      "𝙡": 9594,
      "𝙣": 9595,
      "𝙩": 9596,
      "𝙪": 9597,
      "𝙬": 9598,
      "𝙴": 9599,
      "𝙷": 9600,
      "𝚆": 9601,
      "𝚊": 9602,
      "𝚌": 9603,
      "𝚍": 9604,
      "𝚎": 9605,
      "𝚏": 9606,
      "𝚑": 9607,
      "𝚒": 9608,
      "𝚕": 9609,
      "𝚗": 9610,
      "𝚘": 9611,
      "𝚛": 9612,
      "𝚜": 9613,
      "𝚝": 9614,
      "𝚞": 9615,
      "𝚟": 9616,
      "𝚠": 9617,
      "𝚢": 9618,
      "𝛊": 9619,
      "𝛋": 9620,
      "𝛞": 9621,
      "𝛼": 9622,
      "𝛽": 9623,
      "𝛾": 9624,
      "𝛿": 9625,
      "𝜂": 9626,
      "𝜃": 9627,
      "𝜅": 9628,
      "𝜆": 9629,
      "𝜇": 9630,
      "𝜉": 9631,
      "𝜋": 9632,
      "𝜎": 9633,
      "𝜐": 9634,
      "𝜓": 9635,
      "𝜔": 9636,
      "𝜼": 9637,
      "𝜽": 9638,
      "𝝰": 9639,
      "𝟎": 9640,
      "𝟏": 9641,
      "𝟐": 9642,
      "𝟑": 9643,
      "𝟒": 9644,
      "𝟓": 9645,
      "𝟔": 9646,
      "𝟖": 9647,
      "🅚": 9648,
      "🅰": 9649,
      "🅱": 9650,
      "🅾": 9651,
      "🆓": 9652,
      "🆔": 9653,
      "🆙": 9654,
      "🇦": 9655,
      "🇧": 9656,
      "🇨": 9657,
      "🇩": 9658,
      "🇪": 9659,
      "🇫": 9660,
      "🇬": 9661,
      "🇭": 9662,
      "🇮": 9663,
      "🇯": 9664,
      "🇰": 9665,
      "🇱": 9666,
      "🇲": 9667,
      "🇳": 9668,
      "🇴": 9669,
      "🇵": 9670,
      "🇷": 9671,
      "🇸": 9672,
      "🇹": 9673,
      "🇺": 9674,
      "🇻": 9675,
      "🇼": 9676,
      "🇽": 9677,
      "🇾": 9678,
      "🇿": 9679,
      "🌀": 9680,
      "🌂": 9681,
      "🌃": 9682,
      "🌄": 9683,
      "🌅": 9684,
      "🌆": 9685,
      "🌇": 9686,
      "🌈": 9687,
      "🌉": 9688,
      "🌊": 9689,
      "🌋": 9690,
      "🌌": 9691,
      "🌍": 9692,
      "🌎": 9693,
      "🌏": 9694,
      "🌐": 9695,
      "🌑": 9696,
      "🌕": 9697,
      "🌖": 9698,
      "🌙": 9699,
      "🌝": 9700,
      "🌞": 9701,
      "🌟": 9702,
      "🌠": 9703,
      "🌡": 9704,
      "🌢": 9705,
      "🌤": 9706,
      "🌥": 9707,
      "🌦": 9708,
      "🌧": 9709,
      "🌨": 9710,
      "🌩": 9711,
      "🌪": 9712,
      "🌫": 9713,
      "🌬": 9714,
      "🌭": 9715,
      "🌮": 9716,
      "🌯": 9717,
      "🌱": 9718,
      "🌲": 9719,
      "🌳": 9720,
      "🌴": 9721,
      "🌵": 9722,
      "🌶": 9723,
      "🌷": 9724,
      "🌸": 9725,
      "🌹": 9726,
      "🌺": 9727,
      "🌻": 9728,
      "🌼": 9729,
      "🌽": 9730,
      "🌾": 9731,
      "🌿": 9732,
      "🍀": 9733,
      "🍁": 9734,
      "🍂": 9735,
      "🍃": 9736,
      "🍄": 9737,
      "🍅": 9738,
      "🍆": 9739,
      "🍇": 9740,
      "🍈": 9741,
      "🍉": 9742,
      "🍊": 9743,
      "🍋": 9744,
      "🍌": 9745,
      "🍍": 9746,
      "🍎": 9747,
      "🍏": 9748,
      "🍑": 9749,
      "🍒": 9750,
      "🍓": 9751,
      "🍔": 9752,
      "🍕": 9753,
      "🍖": 9754,
      "🍗": 9755,
      "🍘": 9756,
      "🍙": 9757,
      "🍚": 9758,
      "🍛": 9759,
      "🍜": 9760,
      "🍝": 9761,
      "🍞": 9762,
      "🍟": 9763,
      "🍡": 9764,
      "🍢": 9765,
      "🍣": 9766,
      "🍤": 9767,
      "🍥": 9768,
      "🍦": 9769,
      "🍨": 9770,
      "🍩": 9771,
      "🍪": 9772,
      "🍫": 9773,
      "🍬": 9774,
      "🍭": 9775,
      "🍮": 9776,
      "🍯": 9777,
      "🍰": 9778,
      "🍱": 9779,
      "🍲": 9780,
      "🍳": 9781,
      "🍴": 9782,
      "🍵": 9783,
      "🍶": 9784,
      "🍷": 9785,
      "🍸": 9786,
      "🍹": 9787,
      "🍺": 9788,
      "🍻": 9789,
      "🍼": 9790,
      "🍽": 9791,
      "🍾": 9792,
      "🍿": 9793,
      "🎀": 9794,
      "🎁": 9795,
      "🎂": 9796,
      "🎃": 9797,
      "🎄": 9798,
      "🎅": 9799,
      "🎆": 9800,
      "🎇": 9801,
      "🎈": 9802,
      "🎉": 9803,
      "🎊": 9804,
      "🎒": 9805,
      "🎓": 9806,
      "🎕": 9807,
      "🎖": 9808,
      "🎗": 9809,
      "🎙": 9810,
      "🎚": 9811,
      "🎛": 9812,
      "🎞": 9813,
      "🎟": 9814,
      "🎢": 9815,
      "🎣": 9816,
      "🎤": 9817,
      "🎥": 9818,
      "🎧": 9819,
      "🎨": 9820,
      "🎩": 9821,
      "🎬": 9822,
      "🎭": 9823,
      "🎮": 9824,
      "🎯": 9825,
      "🎲": 9826,
      "🎵": 9827,
      "🎶": 9828,
      "🎸": 9829,
      "🎹": 9830,
      "🎺": 9831,
      "🎻": 9832,
      "🎼": 9833,
      "🎾": 9834,
      "🎿": 9835,
      "🏀": 9836,
      "🏁": 9837,
      "🏂": 9838,
      "🏃": 9839,
      "🏄": 9840,
      "🏅": 9841,
      "🏆": 9842,
      "🏇": 9843,
      "🏈": 9844,
      "🏉": 9845,
      "🏊": 9846,
      "🏋": 9847,
      "🏌": 9848,
      "🏍": 9849,
      "🏎": 9850,
      "🏐": 9851,
      "🏑": 9852,
      "🏒": 9853,
      "🏓": 9854,
      "🏔": 9855,
      "🏕": 9856,
      "🏖": 9857,
      "🏗": 9858,
      "🏘": 9859,
      "🏙": 9860,
      "🏚": 9861,
      "🏛": 9862,
      "🏜": 9863,
      "🏝": 9864,
      "🏞": 9865,
      "🏟": 9866,
      "🏠": 9867,
      "🏡": 9868,
      "🏢": 9869,
      "🏣": 9870,
      "🏥": 9871,
      "🏦": 9872,
      "🏨": 9873,
      "🏪": 9874,
      "🏫": 9875,
      "🏭": 9876,
      "🏯": 9877,
      "🏰": 9878,
      "🏳": 9879,
      "🏴": 9880,
      "🏷": 9881,
      "🏸": 9882,
      "🏹": 9883,
      "🏺": 9884,
      "🏻": 9885,
      "🏼": 9886,
      "🏽": 9887,
      "🏾": 9888,
      "🏿": 9889,
      "🐀": 9890,
      "🐂": 9891,
      "🐄": 9892,
      "🐅": 9893,
      "🐇": 9894,
      "🐈": 9895,
      "🐉": 9896,
      "🐊": 9897,
      "🐋": 9898,
      "🐌": 9899,
      "🐍": 9900,
      "🐎": 9901,
      "🐏": 9902,
      "🐐": 9903,
      "🐑": 9904,
      "🐒": 9905,
      "🐓": 9906,
      "🐔": 9907,
      "🐕": 9908,
      "🐖": 9909,
      "🐗": 9910,
      "🐘": 9911,
      "🐙": 9912,
      "🐚": 9913,
      "🐛": 9914,
      "🐜": 9915,
      "🐝": 9916,
      "🐞": 9917,
      "🐟": 9918,
      "🐠": 9919,
      "🐡": 9920,
      "🐢": 9921,
      "🐣": 9922,
      "🐤": 9923,
      "🐥": 9924,
      "🐦": 9925,
      "🐧": 9926,
      "🐨": 9927,
      "🐩": 9928,
      "🐪": 9929,
      "🐫": 9930,
      "🐬": 9931,
      "🐭": 9932,
      "🐮": 9933,
      "🐯": 9934,
      "🐰": 9935,
      "🐱": 9936,
      "🐲": 9937,
      "🐳": 9938,
      "🐴": 9939,
      "🐵": 9940,
      "🐶": 9941,
      "🐷": 9942,
      "🐸": 9943,
      "🐹": 9944,
      "🐺": 9945,
      "🐻": 9946,
      "🐼": 9947,
      "🐽": 9948,
      "🐾": 9949,
      "🐿": 9950,
      "👀": 9951,
      "👁": 9952,
      "👂": 9953,
      "👃": 9954,
      "👄": 9955,
      "👅": 9956,
      "👆": 9957,
      "👇": 9958,
      "👈": 9959,
      "👉": 9960,
      "👊": 9961,
      "👋": 9962,
      "👌": 9963,
      "👍": 9964,
      "👎": 9965,
      "👏": 9966,
      "👐": 9967,
      "👑": 9968,
      "👒": 9969,
      "👓": 9970,
      "👔": 9971,
      "👕": 9972,
      "👖": 9973,
      "👗": 9974,
      "👙": 9975,
      "👚": 9976,
      "👛": 9977,
      "👜": 9978,
      "👞": 9979,
      "👟": 9980,
      "👠": 9981,
      "👡": 9982,
      "👢": 9983,
      "👣": 9984,
      "👤": 9985,
      "👥": 9986,
      "👦": 9987,
      "👧": 9988,
      "👨": 9989,
      "👩": 9990,
      "👪": 9991,
      "👫": 9992,
      "👬": 9993,
      "👭": 9994,
      "👮": 9995,
      "👯": 9996,
      "👰": 9997,
      "👱": 9998,
      "👳": 9999,
      "👴": 10000,
      "👵": 10001,
      "👶": 10002,
      "👷": 10003,
      "👸": 10004,
      "👹": 10005,
      "👺": 10006,
      "👻": 10007,
      "👼": 10008,
      "👽": 10009,
      "👾": 10010,
      "👿": 10011,
      "💀": 10012,
      "💁": 10013,
      "💂": 10014,
      "💃": 10015,
      "💄": 10016,
      "💅": 10017,
      "💆": 10018,
      "💇": 10019,
      "💉": 10020,
      "💊": 10021,
      "💋": 10022,
      "💌": 10023,
      "💍": 10024,
      "💎": 10025,
      "💏": 10026,
      "💐": 10027,
      "💑": 10028,
      "💓": 10029,
      "💔": 10030,
      "💕": 10031,
      "💖": 10032,
      "💗": 10033,
      "💘": 10034,
      "💙": 10035,
      "💚": 10036,
      "💛": 10037,
      "💜": 10038,
      "💝": 10039,
      "💞": 10040,
      "💟": 10041,
      "💠": 10042,
      "💡": 10043,
      "💢": 10044,
      "💣": 10045,
      "💤": 10046,
      "💥": 10047,
      "💦": 10048,
      "💧": 10049,
      "💨": 10050,
      "💩": 10051,
      "💪": 10052,
      "💫": 10053,
      "💬": 10054,
      "💭": 10055,
      "💯": 10056,
      "💰": 10057,
      "💳": 10058,
      "💴": 10059,
      "💵": 10060,
      "💷": 10061,
      "💸": 10062,
      "💺": 10063,
      "💻": 10064,
      "💼": 10065,
      "💾": 10066,
      "💿": 10067,
      "📁": 10068,
      "📂": 10069,
      "📃": 10070,
      "📄": 10071,
      "📅": 10072,
      "📆": 10073,
      "📈": 10074,
      "📉": 10075,
      "📊": 10076,
      "📋": 10077,
      "📌": 10078,
      "📍": 10079,
      "📎": 10080,
      "📏": 10081,
      "📐": 10082,
      "📑": 10083,
      "📒": 10084,
      "📓": 10085,
      "📕": 10086,
      "📖": 10087,
      "📘": 10088,
      "📚": 10089,
      "📜": 10090,
      "📝": 10091,
      "📞": 10092,
      "📟": 10093,
      "📡": 10094,
      "📢": 10095,
      "📣": 10096,
      "📤": 10097,
      "📥": 10098,
      "📦": 10099,
      "📧": 10100,
      "📩": 10101,
      "📬": 10102,
      "📮": 10103,
      "📰": 10104,
      "📱": 10105,
      "📲": 10106,
      "📷": 10107,
      "📸": 10108,
      "📹": 10109,
      "📺": 10110,
      "📻": 10111,
      "📽": 10112,
      "🔀": 10113,
      "🔁": 10114,
      "🔄": 10115,
      "🔅": 10116,
      "🔈": 10117,
      "🔊": 10118,
      "🔋": 10119,
      "🔌": 10120,
      "🔍": 10121,
      "🔎": 10122,
      "🔏": 10123,
      "🔐": 10124,
      "🔑": 10125,
      "🔒": 10126,
      "🔓": 10127,
      "🔔": 10128,
      "🔗": 10129,
      "🔛": 10130,
      "🔜": 10131,
      "🔝": 10132,
      "🔞": 10133,
      "🔟": 10134,
      "🔠": 10135,
      "🔡": 10136,
      "🔢": 10137,
      "🔤": 10138,
      "🔥": 10139,
      "🔦": 10140,
      "🔧": 10141,
      "🔨": 10142,
      "🔩": 10143,
      "🔪": 10144,
      "🔫": 10145,
      "🔬": 10146,
      "🔭": 10147,
      "🔮": 10148,
      "🔯": 10149,
      "🔰": 10150,
      "🔲": 10151,
      "🔳": 10152,
      "🔴": 10153,
      "🔵": 10154,
      "🔶": 10155,
      "🔷": 10156,
      "🔸": 10157,
      "🔹": 10158,
      "🔺": 10159,
      "🔻": 10160,
      "🔼": 10161,
      "🔽": 10162,
      "🔾": 10163,
      "🔿": 10164,
      "🕅": 10165,
      "🕉": 10166,
      "🕊": 10167,
      "🕐": 10168,
      "🕒": 10169,
      "🕙": 10170,
      "🕯": 10171,
      "🕰": 10172,
      "🕳": 10173,
      "🕵": 10174,
      "🕶": 10175,
      "🕷": 10176,
      "🕸": 10177,
      "🕹": 10178,
      "🕺": 10179,
      "🖀": 10180,
      "🖉": 10181,
      "🖋": 10182,
      "🖌": 10183,
      "🖐": 10184,
      "🖤": 10185,
      "🖥": 10186,
      "🖱": 10187,
      "🖼": 10188,
      "🗂": 10189,
      "🗑": 10190,
      "🗓": 10191,
      "🗝": 10192,
      "🗡": 10193,
      "🗣": 10194,
      "🗨": 10195,
      "🗳": 10196,
      "🗺": 10197,
      "🗻": 10198,
      "🗼": 10199,
      "🗽": 10200,
      "😀": 10201,
      "😁": 10202,
      "😂": 10203,
      "😃": 10204,
      "😄": 10205,
      "😅": 10206,
      "😆": 10207,
      "😇": 10208,
      "😈": 10209,
      "😉": 10210,
      "😊": 10211,
      "😋": 10212,
      "😌": 10213,
      "😍": 10214,
      "😎": 10215,
      "😏": 10216,
      "😐": 10217,
      "😑": 10218,
      "😒": 10219,
      "😓": 10220,
      "😔": 10221,
      "😕": 10222,
      "😖": 10223,
      "😗": 10224,
      "😘": 10225,
      "😙": 10226,
      "😚": 10227,
      "😛": 10228,
      "😜": 10229,
      "😝": 10230,
      "😞": 10231,
      "😟": 10232,
      "😠": 10233,
      "😡": 10234,
      "😢": 10235,
      "😣": 10236,
      "😤": 10237,
      "😥": 10238,
      "😦": 10239,
      "😧": 10240,
      "😨": 10241,
      "😩": 10242,
      "😪": 10243,
      "😫": 10244,
      "😬": 10245,
      "😭": 10246,
      "😮": 10247,
      "😯": 10248,
      "😰": 10249,
      "😱": 10250,
      "😲": 10251,
      "😳": 10252,
      "😴": 10253,
      "😵": 10254,
      "😶": 10255,
      "😷": 10256,
      "😸": 10257,
      "😹": 10258,
      "😺": 10259,
      "😻": 10260,
      "😼": 10261,
      "😽": 10262,
      "😾": 10263,
      "😿": 10264,
      "🙀": 10265,
      "🙁": 10266,
      "🙂": 10267,
      "🙃": 10268,
      "🙄": 10269,
      "🙅": 10270,
      "🙆": 10271,
      "🙇": 10272,
      "🙈": 10273,
      "🙉": 10274,
      "🙊": 10275,
      "🙋": 10276,
      "🙌": 10277,
      "🙍": 10278,
      "🙎": 10279,
      "🙏": 10280,
      "🙦": 10281,
      "🚀": 10282,
      "🚁": 10283,
      "🚂": 10284,
      "🚃": 10285,
      "🚄": 10286,
      "🚆": 10287,
      "🚉": 10288,
      "🚊": 10289,
      "🚌": 10290,
      "🚏": 10291,
      "🚑": 10292,
      "🚒": 10293,
      "🚓": 10294,
      "🚔": 10295,
      "🚕": 10296,
      "🚗": 10297,
      "🚘": 10298,
      "🚙": 10299,
      "🚚": 10300,
      "🚛": 10301,
      "🚜": 10302,
      "🚠": 10303,
      "🚢": 10304,
      "🚣": 10305,
      "🚤": 10306,
      "🚦": 10307,
      "🚧": 10308,
      "🚨": 10309,
      "🚩": 10310,
      "🚪": 10311,
      "🚫": 10312,
      "🚬": 10313,
      "🚭": 10314,
      "🚯": 10315,
      "🚰": 10316,
      "🚱": 10317,
      "🚲": 10318,
      "🚴": 10319,
      "🚵": 10320,
      "🚶": 10321,
      "🚷": 10322,
      "🚹": 10323,
      "🚽": 10324,
      "🚿": 10325,
      "🛀": 10326,
      "🛁": 10327,
      "🛃": 10328,
      "🛅": 10329,
      "🛋": 10330,
      "🛌": 10331,
      "🛍": 10332,
      "🛎": 10333,
      "🛏": 10334,
      "🛑": 10335,
      "🛒": 10336,
      "🛔": 10337,
      "🛠": 10338,
      "🛡": 10339,
      "🛢": 10340,
      "🛣": 10341,
      "🛤": 10342,
      "🛥": 10343,
      "🛩": 10344,
      "🛫": 10345,
      "🛬": 10346,
      "🛰": 10347,
      "🛴": 10348,
      "🛵": 10349,
      "🛶": 10350,
      "🛸": 10351,
      "🛹": 10352,
      "🟒": 10353,
      "🟡": 10354,
      "🟢": 10355,
      "🟣": 10356,
      "🟥": 10357,
      "🟩": 10358,
      "🤇": 10359,
      "🤉": 10360,
      "🤌": 10361,
      "🤍": 10362,
      "🤏": 10363,
      "🤐": 10364,
      "🤑": 10365,
      "🤒": 10366,
      "🤓": 10367,
      "🤔": 10368,
      "🤕": 10369,
      "🤖": 10370,
      "🤗": 10371,
      "🤘": 10372,
      "🤙": 10373,
      "🤚": 10374,
      "🤛": 10375,
      "🤜": 10376,
      "🤝": 10377,
      "🤞": 10378,
      "🤟": 10379,
      "🤠": 10380,
      "🤡": 10381,
      "🤢": 10382,
      "🤣": 10383,
      "🤤": 10384,
      "🤥": 10385,
      "🤦": 10386,
      "🤧": 10387,
      "🤨": 10388,
      "🤩": 10389,
      "🤪": 10390,
      "🤫": 10391,
      "🤬": 10392,
      "🤭": 10393,
      "🤮": 10394,
      "🤯": 10395,
      "🤰": 10396,
      "🤱": 10397,
      "🤲": 10398,
      "🤳": 10399,
      "🤴": 10400,
      "🤵": 10401,
      "🤷": 10402,
      "🤸": 10403,
      "🤹": 10404,
      "🤺": 10405,
      "🤼": 10406,
      "🤽": 10407,
      "🤿": 10408,
      "🥀": 10409,
      "🥁": 10410,
      "🥂": 10411,
      "🥃": 10412,
      "🥄": 10413,
      "🥅": 10414,
      "🥇": 10415,
      "🥈": 10416,
      "🥉": 10417,
      "🥊": 10418,
      "🥐": 10419,
      "🥑": 10420,
      "🥒": 10421,
      "🥓": 10422,
      "🥔": 10423,
      "🥕": 10424,
      "🥖": 10425,
      "🥗": 10426,
      "🥘": 10427,
      "🥚": 10428,
      "🥛": 10429,
      "🥜": 10430,
      "🥞": 10431,
      "🥢": 10432,
      "🥣": 10433,
      "🥤": 10434,
      "🥥": 10435,
      "🥦": 10436,
      "🥧": 10437,
      "🥩": 10438,
      "🥪": 10439,
      "🥬": 10440,
      "🥭": 10441,
      "🥮": 10442,
      "🥯": 10443,
      "🥰": 10444,
      "🥲": 10445,
      "🥳": 10446,
      "🥴": 10447,
      "🥵": 10448,
      "🥶": 10449,
      "🥸": 10450,
      "🥹": 10451,
      "🥺": 10452,
      "🥾": 10453,
      "🥿": 10454,
      "🦀": 10455,
      "🦁": 10456,
      "🦃": 10457,
      "🦄": 10458,
      "🦅": 10459,
      "🦆": 10460,
      "🦇": 10461,
      "🦈": 10462,
      "🦉": 10463,
      "🦊": 10464,
      "🦋": 10465,
      "🦌": 10466,
      "🦍": 10467,
      "🦎": 10468,
      "🦏": 10469,
      "🦐": 10470,
      "🦑": 10471,
      "🦒": 10472,
      "🦓": 10473,
      "🦖": 10474,
      "🦘": 10475,
      "🦙": 10476,
      "🦜": 10477,
      "🦝": 10478,
      "🦞": 10479,
      "🦟": 10480,
      "🦠": 10481,
      "🦢": 10482,
      "🦥": 10483,
      "🦮": 10484,
      "🦯": 10485,
      "🦰": 10486,
      "🦱": 10487,
      "🦲": 10488,
      "🦳": 10489,
      "🦴": 10490,
      "🦷": 10491,
      "🦸": 10492,
      "🦹": 10493,
      "🦺": 10494,
      "🦾": 10495,
      "🧀": 10496,
      "🧁": 10497,
      "🧂": 10498,
      "🧄": 10499,
      "🧈": 10500,
      "🧊": 10501,
      "🧌": 10502,
      "🧎": 10503,
      "🧐": 10504,
      "🧑": 10505,
      "🧒": 10506,
      "🧓": 10507,
      "🧔": 10508,
      "🧕": 10509,
      "🧖": 10510,
      "🧗": 10511,
      "🧘": 10512,
      "🧙": 10513,
      "🧚": 10514,
      "🧛": 10515,
      "🧜": 10516,
      "🧝": 10517,
      "🧞": 10518,
      "🧟": 10519,
      "🧠": 10520,
      "🧡": 10521,
      "🧢": 10522,
      "🧣": 10523,
      "🧤": 10524,
      "🧥": 10525,
      "🧦": 10526,
      "🧧": 10527,
      "🧨": 10528,
      "🧩": 10529,
      "🧪": 10530,
      "🧫": 10531,
      "🧬": 10532,
      "🧭": 10533,
      "🧮": 10534,
      "🧯": 10535,
      "🧰": 10536,
      "🧱": 10537,
      "🧳": 10538,
      "🧴": 10539,
      "🧵": 10540,
      "🧶": 10541,
      "🧸": 10542,
      "🧹": 10543,
      "🧺": 10544,
      "🧼": 10545,
      "🧽": 10546,
      "🧿": 10547,
      "🩗": 10548,
      "🩪": 10549,
      "🩱": 10550,
      "🩸": 10551,
      "🩺": 10552,
      "🪄": 10553,
      "🪐": 10554,
      "🪑": 10555,
      "🪛": 10556,
      "🪨": 10557,
      "🪵": 10558,
      "🫖": 10559,
      "🫣": 10560,
      "🫦": 10561,
      "🬪": 10562,
      "🳴": 10563,
      "𠀋": 10564,
      "􀀀": 10565,
      "􏿿": 10566,
      " t": 10567,
      " a": 10568,
      "he": 10569,
      "in": 10570,
      "re": 10571,
      "on": 10572,
      " s": 10573,
      "er": 10574,
      " c": 10575,
      " the": 10576,
      "at": 10577,
      "  ": 10578,
      "en": 10579,
      "or": 10580,
      "es": 10581,
      "nd": 10582,
      " p": 10583,
      "is": 10584,
      " d": 10585,
      "it": 10586,
      "ou": 10587,
      "an": 10588,
      " w": 10589,
      " o": 10590,
      " m": 10591,
      " and": 10592,
      " f": 10593,
      "al": 10594,
      "ing": 10595,
      " to": 10596,
      " b": 10597,
      " in": 10598,
      "ar": 10599,
      "le": 10600,
      "ic": 10601,
      "ion": 10602,
      "ed": 10603,
      " of": 10604,
      "ro": 10605,
      "as": 10606,
      " e": 10607,
      "ent": 10608,
      " h": 10609,
      "    ": 10610,
      " l": 10611,
      "el": 10612,
      "ct": 10613,
      "us": 10614,
      "om": 10615,
      " n": 10616,
      "\n\n": 10617,
      " th": 10618,
      " y": 10619,
      " re": 10620,
      " is": 10621,
      "et": 10622,
      "il": 10623,
      " I": 10624,
      " you": 10625,
      "id": 10626,
      "im": 10627,
      "ve": 10628,
      "am": 10629,
      " g": 10630,
      "AM": 10631,
      "E_": 10632,
      "NAM": 10633,
      "NAME_": 10634,
      "ot": 10635,
      " de": 10636,
      "ut": 10637,
      "st": 10638,
      " T": 10639,
      " pro": 10640,
      "ch": 10641,
      " that": 10642,
      "ol": 10643,
      "ation": 10644,
      "ow": 10645,
      "un": 10646,
      "qu": 10647,
      " for": 10648,
      " he": 10649,
      "ad": 10650,
      " be": 10651,
      "ce": 10652,
      " con": 10653,
      "od": 10654,
      "ig": 10655,
      "if": 10656,
      "os": 10657,
      "ul": 10658,
      " v": 10659,
      " st": 10660,
      " NAME_": 10661,
      " as": 10662,
      "ra": 10663,
      "ith": 10664,
      "ur": 10665,
      " an": 10666,
      " it": 10667,
      " com": 10668,
      "ay": 10669,
      " A": 10670,
      "ate": 10671,
      "ir": 10672,
      "ge": 10673,
      " on": 10674,
      "ers": 10675,
      "um": 10676,
      "est": 10677,
      " us": 10678,
      " or": 10679,
      " with": 10680,
      " can": 10681,
      " S": 10682,
      "ly": 10683,
      " al": 10684,
      "ant": 10685,
      "\n    ": 10686,
      "ess": 10687,
      " \"": 10688,
      "ri": 10689,
      " ex": 10690,
      "ab": 10691,
      " The": 10692,
      "em": 10693,
      "ist": 10694,
      "pe": 10695,
      "ort": 10696,
      " su": 10697,
      "ver": 10698,
      "ke": 10699,
      " C": 10700,
      " are": 10701,
      " ha": 10702,
      "res": 10703,
      "ment": 10704,
      " en": 10705,
      " qu": 10706,
      "ac": 10707,
      " se": 10708,
      "iv": 10709,
      "pp": 10710,
      "ere": 10711,
      "se": 10712,
      "her": 10713,
      " wh": 10714,
      "ction": 10715,
      "ld": 10716,
      "out": 10717,
      "``": 10718,
      "ity": 10719,
      "oc": 10720,
      "imp": 10721,
      "nt": 10722,
      " ne": 10723,
      "iz": 10724,
      "ust": 10725,
      " P": 10726,
      "ore": 10727,
      " your": 10728,
      " H": 10729,
      " r": 10730,
      " le": 10731,
      "ure": 10732,
      "age": 10733,
      "ill": 10734,
      "th": 10735,
      " NAME_1": 10736,
      "op": 10737,
      " not": 10738,
      "ter": 10739,
      " un": 10740,
      " =": 10741,
      " comp": 10742,
      "ical": 10743,
      "ide": 10744,
      "ud": 10745,
      "ain": 10746,
      "ies": 10747,
      "for": 10748,
      "and": 10749,
      "igh": 10750,
      " imp": 10751,
      "pt": 10752,
      " 1": 10753,
      " k": 10754,
      " u": 10755,
      "ive": 10756,
      " (": 10757,
      "ould": 10758,
      " have": 10759,
      "ial": 10760,
      "ine": 10761,
      " ch": 10762,
      "art": 10763,
      " me": 10764,
      "du": 10765,
      "end": 10766,
      " M": 10767,
      "pl": 10768,
      "ie": 10769,
      "ame": 10770,
      "form": 10771,
      " ab": 10772,
      "per": 10773,
      " res": 10774,
      "our": 10775,
      "ect": 10776,
      " her": 10777,
      " cont": 10778,
      "rom": 10779,
      "og": 10780,
      " D": 10781,
      " E": 10782,
      "cl": 10783,
      "ell": 10784,
      "are": 10785,
      " by": 10786,
      " B": 10787,
      " te": 10788,
      " ma": 10789,
      " was": 10790,
      " `": 10791,
      "ther": 10792,
      " sh": 10793,
      " at": 10794,
      " la": 10795,
      "ions": 10796,
      " tr": 10797,
      " L": 10798,
      " pl": 10799,
      "ich": 10800,
      " do": 10801,
      "able": 10802,
      " we": 10803,
      "ult": 10804,
      "\n        ": 10805,
      "ight": 10806,
      "ib": 10807,
      " int": 10808,
      " W": 10809,
      "all": 10810,
      " 2": 10811,
      "ile": 10812,
      "act": 10813,
      "ang": 10814,
      "so": 10815,
      "lp": 10816,
      " F": 10817,
      "cess": 10818,
      " ad": 10819,
      "ag": 10820,
      " fe": 10821,
      "elf": 10822,
      "ue": 10823,
      "xt": 10824,
      " des": 10825,
      " mod": 10826,
      " help": 10827,
      "ome": 10828,
      "ous": 10829,
      " cl": 10830,
      " wor": 10831,
      "ire": 10832,
      " my": 10833,
      " their": 10834,
      "ass": 10835,
      " j": 10836,
      "ific": 10837,
      "ind": 10838,
      " this": 10839,
      "his": 10840,
      "ata": 10841,
      " from": 10842,
      " prov": 10843,
      "ip": 10844,
      " produ": 10845,
      "00": 10846,
      " but": 10847,
      " other": 10848,
      " ar": 10849,
      " any": 10850,
      " R": 10851,
      "The": 10852,
      " will": 10853,
      " ac": 10854,
      "ations": 10855,
      "\n*": 10856,
      "ound": 10857,
      "ia": 10858,
      " G": 10859,
      "```": 10860,
      " che": 10861,
      "king": 10862,
      "ase": 10863,
      " use": 10864,
      "ry": 10865,
      " spe": 10866,
      "ans": 10867,
      " It": 10868,
      " kn": 10869,
      " used": 10870,
      " import": 10871,
      " all": 10872,
      "ff": 10873,
      " has": 10874,
      "vel": 10875,
      "ence": 10876,
      "ice": 10877,
      "ance": 10878,
      " incl": 10879,
      " per": 10880,
      "ack": 10881,
      " man": 10882,
      "ard": 10883,
      "int": 10884,
      " que": 10885,
      " -": 10886,
      "\n```": 10887,
      "ual": 10888,
      " app": 10889,
      " und": 10890,
      " also": 10891,
      " more": 10892,
      "ep": 10893,
      " NAME_2": 10894,
      "ient": 10895,
      " N": 10896,
      " U": 10897,
      " п": 10898,
      "ated": 10899,
      " am": 10900,
      " pre": 10901,
      " em": 10902,
      " ser": 10903,
      " и": 10904,
      " lo": 10905,
      " O": 10906,
      "ari": 10907,
      "ign": 10908,
      " ind": 10909,
      " so": 10910,
      "ime": 10911,
      " such": 10912,
      "ful": 10913,
      "ks": 10914,
      " includ": 10915,
      " inform": 10916,
      " This": 10917,
      " which": 10918,
      "ach": 10919,
      "ace": 10920,
      "ст": 10921,
      "ces": 10922,
      " they": 10923,
      "iff": 10924,
      " out": 10925,
      " cre": 10926,
      "ens": 10927,
      " в": 10928,
      " comm": 10929,
      " sc": 10930,
      " li": 10931,
      " model": 10932,
      " par": 10933,
      " dis": 10934,
      "pon": 10935,
      "ru": 10936,
      " know": 10937,
      "gh": 10938,
      "()": 10939,
      " sy": 10940,
      " its": 10941,
      " go": 10942,
      "te": 10943,
      "ition": 10944,
      " important": 10945,
      "\n\nI": 10946,
      "ress": 10947,
      "--": 10948,
      " spec": 10949,
      "ost": 10950,
      "ode": 10951,
      "ary": 10952,
      "lic": 10953,
      "ни": 10954,
      "ap": 10955,
      "gr": 10956,
      "ber": 10957,
      " may": 10958,
      " about": 10959,
      " his": 10960,
      "hen": 10961,
      "ong": 10962,
      "   ": 10963,
      " she": 10964,
      "av": 10965,
      "amp": 10966,
      "eth": 10967,
      "ize": 10968,
      " data": 10969,
      "ne": 10970,
      "ast": 10971,
      " fun": 10972,
      " Y": 10973,
      " с": 10974,
      "то": 10975,
      "ough": 10976,
      "ener": 10977,
      "one": 10978,
      " tra": 10979,
      " pos": 10980,
      " cons": 10981,
      " need": 10982,
      "put": 10983,
      "ite": 10984,
      "con": 10985,
      "mical": 10986,
      "ão": 10987,
      " ro": 10988,
      " if": 10989,
      "led": 10990,
      " diff": 10991,
      " quest": 10992,
      " est": 10993,
      " vari": 10994,
      " ev": 10995,
      " up": 10996,
      "ely": 10997,
      "ory": 10998,
      " ta": 10999,
      " would": 11000,
      " like": 11001,
      "low": 11002,
      " pr": 11003,
      " self": 11004,
      "ра": 11005,
      " di": 11006,
      " In": 11007,
      "ount": 11008,
      "ility": 11009,
      " new": 11010,
      " information": 11011,
      "ject": 11012,
      "        ": 11013,
      " feel": 11014,
      " product": 11015,
      "ange": 11016,
      "на": 11017,
      "\",": 11018,
      " using": 11019,
      "angu": 11020,
      " ass": 11021,
      "но": 11022,
      " provide": 11023,
      " some": 11024,
      "\n2": 11025,
      " could": 11026,
      " pers": 11027,
      " 3": 11028,
      " sa": 11029,
      " sp": 11030,
      " es": 11031,
      " el": 11032,
      " val": 11033,
      " langu": 11034,
      " rel": 11035,
      "ub": 11036,
      "ко": 11037,
      " str": 11038,
      "ample": 11039,
      "ok": 11040,
      " them": 11041,
      "stem": 11042,
      "NAME_1": 11043,
      " pe": 11044,
      " V": 11045,
      "ро": 11046,
      "olog": 11047,
      "ater": 11048,
      " chemical": 11049,
      " part": 11050,
      " under": 11051,
      " '": 11052,
      "velop": 11053,
      "ased": 11054,
      "ef": 11055,
      " num": 11056,
      " time": 11057,
      " inter": 11058,
      " um": 11059,
      " о": 11060,
      "ors": 11061,
      ".\"": 11062,
      "\n3": 11063,
      " language": 11064,
      " there": 11065,
      " inv": 11066,
      " ag": 11067,
      "ci": 11068,
      " para": 11069,
      "ays": 11070,
      "ating": 11071,
      "pect": 11072,
      " add": 11073,
      "erm": 11074,
      " col": 11075,
      "any": 11076,
      " process": 11077,
      " function": 11078,
      " respon": 11079,
      "ning": 11080,
      " make": 11081,
      "ail": 11082,
      "aus": 11083,
      "get": 11084,
      "ments": 11085,
      " no": 11086,
      "\n\nThe": 11087,
      "ents": 11088,
      " gener": 11089,
      "ft": 11090,
      "ert": 11091,
      " who": 11092,
      "ет": 11093,
      "ities": 11094,
      " gr": 11095,
      " person": 11096,
      " exper": 11097,
      " ob": 11098,
      "etw": 11099,
      " over": 11100,
      "cur": 11101,
      " |": 11102,
      "ord": 11103,
      "ll": 11104,
      " mo": 11105,
      "ys": 11106,
      " J": 11107,
      " {": 11108,
      " ke": 11109,
      "com": 11110,
      " How": 11111,
      "ade": 11112,
      " including": 11113,
      "les": 11114,
      " specific": 11115,
      " how": 11116,
      "ose": 11117,
      "ild": 11118,
      "\n\n1": 11119,
      " det": 11120,
      " develop": 11121,
      "ally": 11122,
      " requ": 11123,
      "yth": 11124,
      "urn": 11125,
      " text": 11126,
      " ph": 11127,
      "\n\nA": 11128,
      " form": 11129,
      " м": 11130,
      "ible": 11131,
      " example": 11132,
      "ak": 11133,
      "self": 11134,
      "ics": 11135,
      "ck": 11136,
      " д": 11137,
      "ings": 11138,
      " been": 11139,
      " You": 11140,
      "\n4": 11141,
      " into": 11142,
      " As": 11143,
      " ty": 11144,
      " had": 11145,
      " differe": 11146,
      "chn": 11147,
      " one": 11148,
      "ть": 11149,
      "ón": 11150,
      " i": 11151,
      "ates": 11152,
      " what": 11153,
      " eff": 11154,
      "enc": 11155,
      " AI": 11156,
      " system": 11157,
      " NAME_3": 11158,
      " att": 11159,
      "\":": 11160,
      "io": 11161,
      "arm": 11162,
      "lo": 11163,
      "ower": 11164,
      "ict": 11165,
      " code": 11166,
      " serv": 11167,
      "az": 11168,
      "\n  ": 11169,
      " off": 11170,
      " provid": 11171,
      "hes": 11172,
      " company": 11173,
      "own": 11174,
      " 5": 11175,
      "ре": 11176,
      " ra": 11177,
      " want": 11178,
      " sol": 11179,
      "oy": 11180,
      " é": 11181,
      "ear": 11182,
      "ath": 11183,
      " 0": 11184,
      "stand": 11185,
      " co": 11186,
      " im": 11187,
      "pr": 11188,
      "ark": 11189,
      "ython": 11190,
      "wn": 11191,
      "iqu": 11192,
      " inst": 11193,
      "cre": 11194,
      "те": 11195,
      "ures": 11196,
      "ety": 11197,
      " ent": 11198,
      "pport": 11199,
      "here": 11200,
      " set": 11201,
      " St": 11202,
      "gram": 11203,
      " z": 11204,
      "cri": 11205,
      "oth": 11206,
      "ever": 11207,
      "hat": 11208,
      "ices": 11209,
      "ли": 11210,
      " each": 11211,
      " He": 11212,
      " act": 11213,
      "ны": 11214,
      "ular": 11215,
      "ustom": 11216,
      " trans": 11217,
      " 4": 11218,
      "li": 11219,
      "ль": 11220,
      " She": 11221,
      " high": 11222,
      "ality": 11223,
      " fol": 11224,
      "ва": 11225,
      " expl": 11226,
      "ph": 11227,
      "rough": 11228,
      "ody": 11229,
      " way": 11230,
      " techn": 11231,
      "ng": 11232,
      " hand": 11233,
      " по": 11234,
      "ract": 11235,
      " products": 11236,
      " different": 11237,
      "lect": 11238,
      "iss": 11239,
      " reg": 11240,
      " conf": 11241,
      " then": 11242,
      " work": 11243,
      " understand": 11244,
      "\n5": 11245,
      " del": 11246,
      " indust": 11247,
      "arch": 11248,
      "ten": 11249,
      " +": 11250,
      "ative": 11251,
      " bu": 11252,
      "\n1": 11253,
      "rit": 11254,
      "ood": 11255,
      "ople": 11256,
      " sm": 11257,
      " just": 11258,
      " dep": 11259,
      "не": 11260,
      " experi": 11261,
      " program": 11262,
      "ree": 11263,
      "ues": 11264,
      "ado": 11265,
      " create": 11266,
      " custom": 11267,
      " ref": 11268,
      "ctions": 11269,
      "gg": 11270,
      "ise": 11271,
      "</": 11272,
      "\n\n#": 11273,
      " K": 11274,
      " lear": 11275,
      "lease": 11276,
      " rem": 11277,
      "ident": 11278,
      "gan": 11279,
      "der": 11280,
      " start": 11281,
      " ap": 11282,
      "rop": 11283,
      " cor": 11284,
      " av": 11285,
      " [": 11286,
      "ex": 11287,
      " et": 11288,
      " should": 11289,
      "ção": 11290,
      " comple": 11291,
      " questions": 11292,
      " fin": 11293,
      " well": 11294,
      " through": 11295,
      "row": 11296,
      " were": 11297,
      "to": 11298,
      " follow": 11299,
      "ка": 11300,
      " rep": 11301,
      "anc": 11302,
      " poss": 11303,
      ");": 11304,
      " him": 11305,
      " hum": 11306,
      " meth": 11307,
      " people": 11308,
      "ern": 11309,
      " If": 11310,
      "reat": 11311,
      " una": 11312,
      " number": 11313,
      " play": 11314,
      " let": 11315,
      "ock": 11316,
      " don": 11317,
      "ec": 11318,
      "wer": 11319,
      " train": 11320,
      "ick": 11321,
      "ential": 11322,
      "ves": 11323,
      "eng": 11324,
      " get": 11325,
      "ional": 11326,
      " these": 11327,
      "turn": 11328,
      " range": 11329,
      " best": 11330,
      "irst": 11331,
      " sk": 11332,
      "ble": 11333,
      " cur": 11334,
      " pol": 11335,
      "    self": 11336,
      " when": 11337,
      "lement": 11338,
      " char": 11339,
      "ause": 11340,
      " design": 11341,
      " pot": 11342,
      " bl": 11343,
      "\n\nIn": 11344,
      " list": 11345,
      " world": 11346,
      " fil": 11347,
      "ont": 11348,
      " на": 11349,
      " 20": 11350,
      " However": 11351,
      " method": 11352,
      " see": 11353,
      " cal": 11354,
      "ify": 11355,
      "ious": 11356,
      " exp": 11357,
      " po": 11358,
      "ish": 11359,
      " power": 11360,
      "ivid": 11361,
      "ied": 11362,
      " sub": 11363,
      "hed": 11364,
      "):": 11365,
      "een": 11366,
      " dec": 11367,
      "ved": 11368,
      "ión": 11369,
      "ext": 11370,
      " file": 11371,
      " find": 11372,
      "----": 11373,
      "ле": 11374,
      "ting": 11375,
      " tw": 11376,
      "ural": 11377,
      "ner": 11378,
      " ens": 11379,
      "iel": 11380,
      "fore": 11381,
      "//": 11382,
      "ption": 11383,
      "icult": 11384,
      " assist": 11385,
[...]
