#version: 0.2
Ġ t
Ġ a
i n
h e
o n
r e
Ġ s
e r
Ġ Ġ
e n
a t
Ġt he
Ġ c
o r
o u
e s
Ġ w
a n
i t
i s
Ġ p
Ġ d
Ġa n
Ġ m
Ġ f
in g
Ġ b
a l
Ġ in
l e
Ġ o
a r
i on
Ġt o
i c
a s
e d
o m
Ġan d
en t
ĠĠ ĠĠ
Ġ e
Ġ n
Ġo f
Ġ y
Ġ h
s t
c t
Ġ l
e l
Ġ Ð
Ġ re
r o
Ġy ou
Ġt h
Ġ N
M E
A ME
e t
o w
Ð ¾
Ġ u
v e
i l
Ġ g
Ġ is
a m
Ġ I
ĠN AME
Ð µ
Ð °
o t
i d
i m
o l
Ċ Ċ
u t
Ġ on
Ġf or
Ð ¸
Ñ Ĥ
a y
Ġ "
c h
l y
s e
Ġ A
q u
it h
at ion
Ġ T
Ġs t
a d
c e
r i
o d
Ġw ith
Ġb e
Ġc on
Ġd e
u m
Ġa s
Ġ S
is t
v er
r a
Ð¾ Ð
Ġ C
es t
at e
Ġc om
Ñ ģ
i g
i f
Ñ Ģ
a g
Ð ½
e m
u l
i r
an t
ou t
u r
Ġw h
. Ċ
Ġth at
Ġp ro
Ġ he
o s
Ġa re
Ġe x
ĠĠ Ġ
p e
Ġ it
Ġ (
Ġa l
u n
k e
Ġ v
p t
i ve
ĠĠĠĠ ĠĠĠĠ
er s
p l
e x
Ġd o
Ġ or
s w
Ġm e
l d
u s
a b
ct ion
Ġ P
r om
Ġ qu
Ġu n
t er
p le
sw er
Ġ W
Ġ D
u st
es s
a c
re s
t h
il l
0 0
am e
â Ģ
an d
en d
Ġs h
it e
Ġh a
Ð° Ð
Ġa b
Ġs e
o re
i v
Ġ M
Ġan swer
Ġyou r
Ġn ot
Ġc h
' s
Ġw or
ou r
Ġ H
ex t
Ġn e
o c
he r
Ġc an
ou ld
Ġs u
Ġ B
l ow
or t
a in
r u
Ġ E
m ent
ĠT he
Ġ le
e re
n t
ar t
h t
Ñ ĥ
Ðµ Ð
. ĊĊ
it y
el l
- -
in e
p er
i e
ag e
Ġf rom
Ġu s
Ġ k
d s
Ġha ve
Ġ F
Ġ R
Ġa t
Ġ r
Ġth is
Ġ en
Y ou
as e
p p
Ġ j
Ġcon t
a ct
Ã ©
or m
Ġ L
Ġre s
Ġb y
an g
i z
Ġin t
Ġab out
h at
p ut
i es
r ite
u d
n d
u re
s ist
o g
id e
Ñ ı
i al
Ġw ill
Ġ =
2 0
Ġ G
: Ċ
ic al
Ñ Į
c ri
Ġ O
Ð »
Ġd es
N AME
he n
Ñ ĭ
Ġ '
Ġw e
Ġm a
Ġwh at
Ġ im
Ġp l
Ð º
. .
e ct
u e
Ġa r
Ġ -
ĠÐ ¿
Ġs om
" ,
ic h
p on
Ġw as
a re
ion s
f orm
Ġ out
Ġf ol
Ġhe r
al l
i a
Ġm y
Ġl i
d u
Ġon ly
ĠĠĠĠ ĠĠĠ
r y
o p
i le
Ġfol low
ab le
Ġa d
o st
Ġ Ċ
Ġ if
e p
u al
Ġs ay
' t
Ġg o
in d
ar y
Ġc l
k ing
as t
Ġcom ple
Ġan y
Ġ U
y st
en ce
an s
od e
Ġ Ñģ
i re
Ġt ext
as ed
Ġin st
c l
ic e
" :
k s
ction s
Ð ²
Ġcomple t
d er
as s
Ġm od
yst em
t her
Ġm ore
or y
Ġwor ds
sist ant
i b
c c
Ġl a
Ġn o
1 0
Ġs o
Ñ ĩ
on g
on e
a ch
Ġal l
o o
Ġ You
Ġh as
ul t
i p
Ġb ut
) Ċ
c es
ac k
Ġsh ould
ig ht
Ġs ent
Ġ [
ã ģ
im e
ou s
g e
Ġfollow ing
b er
at ed
Ġp er
Ñģ ÑĤ
in t
a p
Ġcom p
le ase
ĠÐ ²
f f
e ar
cri pt
en s
Ġe m
Ġh ow
ĠI n
on t
Ġ i
Ġp ar
an ce
Ġli ke
Ġm an
Ðµ Ð½
ĠÐ ½
n ow
Ġon e
Ġm ust
ation s
âĢ Ļ
Ġs ystem
est ion
Ð ¼
Ġqu e
Ġp re
et h
Ġ ro
a k
a il
p ort
en er
Ġs c
Ġw hen
Ġb ased
ar d
c om
at a
Ġs ame
v el
Ġb el
at ing
Ð¾Ð ²
Ġt r
Ġu p
Ġinst ru
Ġmod el
i ent
y th
Ġ {
a v
Ġres pon
res s
um m
um ent
Ġt e
Ġc he
s o
ig n
ou nd
Ġwh ich
Ð ´
el f
Ġth an
# #
ou g
Ġa m
, Ċ
Ġpro v
Ġd et
Ġ J
Ġ ver
Ġf e
T he
Ġe v
ĠÐ ¸
Ġd is
Ġk now
Ġu se
j ect
Ġsom e
Ġo ther
Ġs pe
Ġthe ir
Ġw ant
ĠĠĠĠĠĠĠĠ ĠĠĠĠĠĠĠĠ
Ġh is
ers on
ou nt
Ġfor m
ĠÐ ¾
g r
Ġs he
u b
Ġthe y
l l
Ġ V
a ce
Ġwh o
c on
Ġinstru ctions
Ġ |
Ġc ode
Ġas sistant
5 0
Ġp r
Ġex am
ĠÐ º
; Ċ
if ic
yth on
Ġne ed
Ġ ì
-- --
Ġin form
o ve
Ġe l
Ġex pl
el y
Ġc re
a u
n e
Ġin d
' ,
? Ċ
Ġw ould
Ã ¡
w e
it ion
Ã ³
ĠW hat
Ġma ke
20 2
er m
t e
i o
he re
Ġs er
Ġa g
Ġne w
. "
Ġre pe
Ġp art
Ã §
p h
Ø §
Ġp os
b e
ing s
ur n
Ġo ver
Ġ âĢ
Ġn um
Ġa cc
Ġb et
Ñ ħ
Ġthe m
f t
Ðµ ÑĤ
t ic
Ġcom m
le d
c k
Ġbel ow
a ke
ic t
Ġs p
Ã £
Ġt ime
Ġ ÑĤ
Ġa p
f ere
ir st
Ð ¿
Ġthe re
Ġ K
ay s
ver s
o b
Ðµ ÑĢ
cl ud
or d
Ġ Y
Ġch ar
Ġp erson
Ġ es
re e
Ã£ o
ĠS t
iz e
ĠT h
n g
Ġcomplet ion
Ġt w
o v
Ġb l
ĠÐ ´
Ð° Ð½
1 2
O N
Ġg et
Ġf un
Ġa ct
Ġc ol
at ive
Ġint o
Ġp e
ĉ ĉ
2 00
Ñ Ī
y s
is h
f ul
Ġ ent
in k
Ġout put
Ġl ist
Ġt ra
Ð° ÑĤ
c re
Ġg r
Ð¾Ð »
Ġg ener
Ġin ter
r it
Ġn ame
W rite
Ġqu estion
Ġy ear
l p
iv en
Ġd i
Ġ :
d e
eth ing
Ġ ke
en ces
Ġg ive
umm ary
c ess
Ġv al
Ġsom ething
Ġd ata
Ġp ython
E R
Ġ est
Ġp o
Ġw rite
Ġu m
Ġs a
Ġinform ation
Ġad d
Ġdo c
Ġre l
Ñ İ
oug h
I n
an y
ĠÐ¿ ÑĢ
Ġe ach
Ġd if
Ġo b
Ð¾ ÑĢ
o se
Ġst r
Ġal so
Ġj ust
Ġ .
Ã Ń
c i
Ġ ,
o y
Q u
pe ct
Ġhe lp
al e
is e
i an
Ġdoc ument
n ing
à ¸
s er
ĠA I
Ġtw o
Ġf irst
Ġpro du
Ð ·
Ġp h
pl es
ĠI t
or s
ar k
ad e
) ,
Ġof f
1 1
at es
Ġus er
Ġa pp
ic k
Ġus ing
y pe
ra ct
il d
Ġchar act
g et
Ġdo es
Ġun der
ro du
ent s
Ġ Ã
1 9
Ġspe c
in al
ri g
Ġthe n
Ð¾Ð ¼
Ġ <
Ġp rom
Ñ Ĩ
Ġdes cript
A N
at er
Ġd on
ĠH ow
o od
Ġre qu
Ġst ory
Ġal low
ang u
ĠÐ ¼
Ġf act
le ct
Ġre t
n o
: ĊĊ
Ð¾Ð ´
ĠĠĠĠĠĠĠĠ ĠĠĠ
Ġin clud
Ġpl ay
ow n
Ġ z
c he
oo k
_ _
l es
ual ly
is s
Ġh um
Ġ ÑĢ
ib le
Ġn ow
Ġit s
" Ċ
Ġc or
f ter
ment s
t ing
Ð¸ ÑĤ
Ġsent ences
Ġst art
ang e
P T
h o
Ġm ost
Ù Ħ
I N
Ġle t
ĠR e
angu age
un g
ÐµÐ »
Ġ ë
' re
Ð°Ð »
ig h
Ġre al
m ical
as k
Ġpar a
Ġtr ans
Ġs im
à ¤
t o
o ple
at h
we en
Ġe ver
Ġ /
b le
ol og
Ġex t
Ġs m
Ð ¹
a z
ĠI f
Ġ $
Ġc o
ĠH e
u p
Ġ ra
Ġbet ween
Ġw here
ro w
Ð°Ð º
ie w
W hat
p ro
Ġw ere
p en
Ġbe en
\ n
Ð ±
Ġat t
id ent
oc k
ic s
âĢ Ŀ
Ġprov ide
Ġo pt
ĠC h
` `
om e
Ġs end
Ġwor k
Ġd el
Ġ ?
Ġe t
Ġcon s
Ġs ol
Ġre m
en c
Ġsu b
Ġre c
Ġpe ople
Ġb u
Ġre p
Ġnum ber
it ies
au se
i er
S t
us er
= =
' m
gr am
] Ċ
Ġ our
Ġs ummary
Ġgo od
Ð½ Ð¾
Ġas s
Ġf l
i ous
1 00
Ġl anguage
Ġh im
) .
1 5
. d
Ġst ep
ĠA n
ï ¼
ã Ĥ
Ð½ Ñĭ
e c
Ġ ĊĊ
ri end
Ð¾ ÑĤ
Ġ er
Ġcomplet e
Ġche mical
s elf
ì Ŀ
Ð¾Ð ³
ur re
Ġs et
u g
Ġw ay
Ġex per
res ent
Ġrespon se
ar ch
Ġth ing
Ġde f
il ity
1 3
Ġcomp any
Ġsent ence
ĠTh is
en e
Ġin v
ĠÐ½ Ð°
Ġar tic
Ġ{ Ċ
Ġform at
ic es
Ġver y
Ġt ell
Ġdif fere
A T
Ġ }
S T
Ġh ad
Ġl ong
Ġprom pt
Ġallow ed
qu e
* *
ĠA s
d ay
i x
y our
Ġs elf
in es
Ġ +
ion al
w or
rig ht
Ġb ack
an c
Ġ #
Ġg u
p s
Ġc ould
ĠÐ ±
ÐµÐ½ Ð¸
ot h
it s
Ġpro per
pl ic
ĠÐ ·
1 8
u ch
Ġin put
n er
Ġp ol
3 0
Ġp lease
i ed
Ġ Ñ
Ġim port
ad o
Ġexam ples
Ġrepe at
Ġus ed
if y
I f
u es
Ġc ar
Ġre g
Ġa fter
Ġcharact er
Ġret urn
= "
Ġprodu ct
est ions
20 1
Ã ¼
ra ph
v ice
Ġthe se
âĢĻ s
ol d
Ġ end
Ġa c
ce pt
Ã ¤
on s
y p
ĠS he
Ġcont in
Ġartic le
Ġpos s
ĠE x
Ġse e
sist ent
Ġpro gram
Ñģ Ðº
w ays
Ġ Ø
Ġbe ing
Ġcont ent
Ġcl ass
Ġm at
Ġm ay
Ġc al
Ġsu ch
1 6
l ic
ar m
Ġcon f
t en
ust om
ir l
Ð ³
f ore
em ent
1 4
u res
p os
ate g
ch n
ul l
er y
Ġst ud
Ġ \
Ġth ink
A R
er t
Ġb re
ĠC an
Ġn am
Ã§ Ã£o
Ġa v
it ed
Ġexam ple
ĠâĢ ľ
Ġc a
us s
ow er
Ð¾Ð ¹
ÐµÐ ¼
Ġprov id
í ķ
Ù ħ
Ġf il
Ġas k
ag es
it t
Ġs ex
ot her
Ġfe el
Ġf ind
p r
en g
Ã ª
ÐµÐ ´
## #
as sistant
ul ar
Ġ Ã©
Ġg iven
Ġres ult
Ġto p
re at
Ġun d
ou n
Ġin s
if e
á »
A n
Ġ" [
.. .
cri be
ĠD o
Ġm in
i el
pp ort
P lease
O R
ĠP ro
i or
ĠĠĠĠ Ġ
2 5
ĠU n
od y
00 0
Ġst ate
a h
] "
---- ----
Ġw ell
Ġ *
Ġs k
s s
( )
g g
Ġrepe ating
Ġb est
E N
Ġ x
r ough
", Ċ
Ġa ut
Ġf r
st ru
w rite
Ġman y
Ġ Ñĩ
Ġm on
Ġpo int
re ct
Ġde c
in a
ã ĥ
Ġsh ow
vel op
Ð¾Ð ½
E S
Ð°Ð ²
v ent
Ġind ust
G PT
Ġ Ñĥ
.d on
ar i
ĠP lease
Ã³ n
v ing
Ġm ed
Ġwith out
an k
Ġd id
E x
st and
at ure
m e
Ġo ld
ter n
ut e
N o
ĠC om
Ġun a
Ġw om
Ġint rodu
Ġqu estions
ĠW e
a x
urre nt
Ġcon vers
Qu estion
Ġsh ort
Ġwh ile
Ġe ff
ä ¸
re d
> Ċ
Ġb r
Ġh igh
Ñ ī
Ġt em
1 7
Ġal ways
al s
Ù Ĭ
re n
h ip
ere d
ÑĤ Ð¾
t s
Ð ¶
Ġbe c
Ġre ad
Ġch at
Ġf riend
Ġke y
r ic
Ġd a
Ġcon sistent
i ence
al ity
Ġhum an
Ġt al
ĠD e
Ġt ake
Ġsa id
Ñ ĸ
, "
Ġro le
Ġyear s
Ġdiffere nt
Ġre f
Ġg irl
Ġen g
Ġth rough
t y
Ġd ie
Ð» Ð¸
a ve
Ġ right
Ġcre ate
i k
/ /
Ġd ire
Ġpl an
Ġever y
Ġwor ld
in ess
Ġcont ext
st r
Ġs ur
Ð¸ Ð¼
Ð°Ð ·
Ġex p
Ġt ype
Ġt ask
u c
and s
Â ł
pl ay
ad a
ur ing
Ġt est
oug ht
" .
ut ion
m er
v iew
o ad
p ar
w n
Ġbe h
Ð¾Ð ±
Ġdet ail
Ġpro f
ĠN o
c o
Ġfun ction
Ġindust ry
im ent
Ġexpl ain
Ġpro cess
l ine
Ġt ry
Ġag ain
Ġval ue
he s
Ġwor d
o ol
th ing
Ġan al
Ġdescript ion
ro p
Ġm uch
Ġfact ually
Ġd er
ar n
n ot
ĠW h
iv es
Ġgener ate
n ce
Ġs ing
Ġw rit
Ġm ain
Ġin f
t il
Ð°ÑĤ ÑĮ
ile d
.. ..
n ame
R e
v en
Y es
et s
Ġf in
Ñģ Ñı
ri b
Ġc ount
Ġd ay
Ġl oc
Ġ ×
o x
il y
Ġbec ause
Ġd own
Ġob ject
o k
as on
y m
Ð°Ð ¼
Ð¸ Ð½
w are
Ġdet erm
Ġs l
Ġp or
an n
Ġto ol
Ġo pen
a i
is m
Ġd u
Ġev en
g in
Ġany thing
Ġrespon s
l ish
ble m
Ġbe fore
v al
x ic
Ġg ame
Ġwh y
ent ion
Ġb us
a ir
ĠF or
Ġs oc
Ġspec ific
at or
Ġgo ing
T h
and o
w hat
Ġde velop
ur al
Ġ &
Ġunder stand
Ġm ess
g an
ĠA l
it ive
2 4
ĠW rite
s h
Ġl os
ru e
Ġte chn
n c
Ġth ree
r or
Ġm em
Ø§ ÙĦ
' :
u x
Ġto xic
am ent
b re
in ed
Ġm ark
A L
2 3
ÑĨ Ð¸
Ġcont ain
Ġme an
e w
ÐµÐ º
Ġoutput s
Ġc ap
) ;Ċ
Ù Ī
Ġn ext
un d
Ġar t
Ġ il
ire d
ical ly
ic a
y le
Ġs ign
R E
Ġl ast
Ġp ass
Ð° ÑĢ
Ġv is
v ed
Ð¾ Ñģ
. ,
Ġe le
2 2
b s
n ess
ã Ģ
Ġ Q
H ow
ou p
I D
Ġp at
ro l
Ġhe re
Ġt erm
Ġab ove
Ġc ustom
Ġl ine
it al
ation al
G ive
c ul
im es
Ù Ĩ
iz ed
a it
Ð°Ð½ Ð¸
4 0
a iled
l i
b ers
Ġpro blem
it le
) ĊĊ
i Ã³n
Ġha pp
Ġe in
con d
t t
Ġm et
Ġc urrent
Ġ ed
id er
p re
e ver
Ġposs ible
Ġ ve
al ly
Ġsing le
] ,
ar s
An swer
i que
Ġ ide
Ø ±
Ġinclud e
Ġum a
c ent
c ed
Ã ¶
Ġ ê
Ġl es
re am
Ġl ar
ere st
b ot
Ð¸ Ðº
Ġper form
ĠY our
z e
as h
ub lic
Ġp resent
com e
Ġde m
Ð» Ñı
er n
as es
Ġs it
- t
Ġcontin ue
ĠÐ °
he d
_ t
Ġrequ est
Ġ Â
0 1
d d
ĠThe y
Ġf ile
Ġch o
re ad
Ġ ident
ĠÐ¾ ÑĤ
C T
Ġdes ign
L E
el s
ä ½
ð Ł
Ġl ife
Ð¸ Ð²
Ġf am
Ġt ri
ell o
Ġb ody
a king
Ġconvers ation
ial og
Ġor der
am p
at ch
e k
Ġb oth
Ġintrodu ction
Ġcor rect
g er
Ġsu pport
Ġr un
Ġdis c
- b
ĠÃ ł
re m
( "
olog y
Ġm ade
Ġin cre
iz ation
Ġs ch
Ġd at
Ð°Ð ¿
ĠÐ ³
ĠE ng
Ġt able
at her
Ð¾Ð ¶
a pp
< /
v ant
I ON
in ing
al th
Ġm ov
ct ure
Ġr ate
r al
Ġcom o
Ġd ist
Ġ Z
ĠĠĠĠĠĠĠĠ ĠĠĠĠĠĠĠ
Ġhe ad
Ð¾Ð» ÑĮ
Ġsu re
eth od
Ġpro ject
R O
ĠS e
ur s
ul es
Ġc le
Ð° Ñģ
Ġ Î
Ð¾Ð³ Ð¾
Ġ --
umm ar
Ġne ver
pl oy
Ġbet ter
com m
o id
ĠI s
Ð¾ ÑģÑĤ
p y
ri e
Ġcom e
a ut
, ,
ou se
A S
h ow
Ġl o
Ġne g
in ce
al es
I T
I s
ĠÑ į
u f
Ġm ult
ÐµÐ ¹
b r
Ġrespon d
Ġbus iness
Ġinter n
Ġimport ant
d o
Ġc all
I C
itt le
en se
Ġp ri
Ġdeterm ine
Ġte am
iv id
Ġint erest
ĠD es
2 1
um e
Ġdire ct
c ont
w ay
ĠĠĠĠĠĠĠĠĠĠĠĠĠĠĠĠ ĠĠĠĠĠĠĠĠĠĠĠĠĠĠĠĠ
g s
p o
y l
r ans
Ġcon c
C h
`` `
Ġd ate
Ġl og
ĊĊ Ċ
ĠA nd
Ġim age
Ġle ad
Ġl oo
ĠS o
Ġo per
or n
Ġth ings
Ġo wn
il ar
Ġh ist
wor k
ar r
am ple
er g
Ġf inal
Ġe qu
um n
ent ial
oc ument
Ġle vel
h i
ĠB e
ÑģÑĤ Ð²
Ð½ Ð°
Ġim pro
f ic
Ġb ig
v es
Ġd ialog
ĠÐ½ Ðµ
ant s
Ġg l
C ont
Ġprovid ed
Ġbu ild
ab ility
ĠA r
6 0
." Ċ
ar ds
} Ċ
Ġde p
G iven
on d
- s
Ġim p
_ d
A I
i en
Ġ Ø§ÙĦ
m a
Ġf ound
Ø§ Ø
Ġ X
Ġro om
Ġl ook
Ġke ep
: //
c ial
Ġbeh av
ĠÐ »
Ð¸ Ñģ
Ġl im
ot e
Ð¾Ð º
t on
Ġwom an
Ġsm all
Ġm or
Ġar ound
A A
Ġh and
ĠC ont
t he
a is
ver t
stru ction
Ġdescript ive
v ices
Ã ¨
Ġopt ion
enc y
ÑĢ Ñĥ
ic it
in s
Ġl ove
et y
Ġn on
Ñ Ħ
ar ning
Ã ł
ĠU S
2 8
t a
Ġf em
Ġst ru
Ġcom put
u ra
ll o
. \
Ð¸ Ð»
ra g
s on
Ġinclud ing
e ad
Ġp ot
Ġre le
à ¦
g o
ab el
Ġor ig
Ġp ut
ĉĉ ĉĉ
Ġl ot
Ġeff ect
Ġv ide
C om
our ce
Ġbel ie
iv ing
ĠW ho
Ġan other
Ġre port
. s
u ed
Ġto o
iel d
Ġcharact ers
Ġp ower
Ġch ange
ë ĭ
Ġm en
Ġnam es
cri b
Ġa ction
le t
ĠI nd
O T
Ġc r
? ĊĊ
l ess
Ġp ost
v is
Ġj ob
Ġman ag
m in
Ð°Ð ¹
Ġse cond
ĠD AN
a Ã§Ã£o
á º
Ġre ason
) :Ċ
led ge
Ġpart ic
Ġst yle
Ġqu ery
Ġrespons es
Ġo s
Ġsu gg
or ies
== ==
Ġn a
Ġver s
3 2
Ġsome one
Ġc are
an ation
Ġmess age
Ġel se
Ġact iv
ĠR es
f or
Ġs i
ct or
Ġo k
our s
Ġlet ter
P ro
Ġap plic
Ġacc ess
' ll
_ s
Ġm ethod
Ġen c
h a
Ġwith in
S ON
h or
cc ess
Ġm o
2 6
Ġp a
Ġp ur
Ġh ome
Ġan sw
Ġm ar
Ġp ay
r on
ĠÐ¾ Ð±
Ġsu per
e e
Ġb o
Y our
ĠC hat
", "
Ġo p
t d
Ġsim ilar
es cript
´ ì
Ġst ill
Ġcon st
Ġcomm and
at iv
Ð°Ð ´
Ġmark et
a pt
Ġst and
A s
pl ain
m ed
at ic
Ġbl ack
Ġc u
Ġdes cribe
Ġto day
ĠC l
Ġpl ace
se arch
ï¼ Į
Ġd en
Ġwh ite
g al
con om
Ġt ak
ĠÑģ ÑĤ
Ġ ###
ĠC on
Ġopt ions
oo se
Ġt yp
Ġl ittle
Ġs on
Ġj o
f e
k es
Ġin c
Ġd uring
em ber
f er
ion e
Ġl ess
ĠL et
ĠB ut
Ġs w
Ġs cript
at ely
- d
2 7
Ġm us
i ver
Ġr is
o f
ar get
Ġdet ailed
b l
Ġcal led
c an
Ġmon th
Ġapp ro
Ġso ft
y d
c ol
ir t
Ġf ree
Ġdetail s
if ied
Ġca us
. com
4 5
Ġcomm un
Ġn orm
u ro
at o
Ġit em
Ġtal k
Ġch ild
Ġp res
Ġmult i
Ġv ari
ĠÐ µ
- m
Ġre st
Ġv i
ag raph
are d
ro ss
Ã º
Ġt urn
Ġre ce
Ä ±
Ġsoc ial
Ġbehav ior
Ġexpl icit
im port
x im
Ġex ist
Ġinv est
3 3
Ġis s
z a
ĠI N
Ġn et
ar ing
Ġw he
od el
Ġor gan
v ious
ĠW hen
Ġb ro
as ter
; ĊĊ
Ġt u
Ġg re
Ġs em
Ġcont rol
at t
Ġev ent
Ġab le
ä½ ł
u ation
a ction
" "
un a
Ġl ight
er ing
L L
Ġp op
ener ate
Ġph ys
0 5
Ġp ublic
Ġint e
ut put
Ġfriend s
w ard
r ong
ac iÃ³n
Î ±
ĠÐ¿ Ð¾
ĠThe re
C an
Ġth ose
E D
Ġrel ations
Ġbe gin
Ġma king
ĠĠ Ċ
Ġm om
W e
__ __
ple ment
Ġto t
Ġacc ount
ir on
Ġlar ge
Ù ĩ
h ing
Ġrep ly
Ġnam ed
ÑĪ Ð¸
ç ļ
âĢ ¢
Ġg reat
Ġw ater
y n
Ġse lect
Ġd om
8 0
ÐµÐ½Ð¸ Ñı
oc us
_ m
Ġp as
Ġcol umn
Ġp our
it ions
Ġre d
Ø ª
g u
Ġp ort
Ġle ft
i um
D ocument
çļ Ħ
ì Ĺ
Ð¸ÑĤ ÑĮ
Ġse arch
ĠH ere
Ġreal ly
Ġpol ic
ar io
ĠEng lish
ir d
Ð°Ð» ÑĮ
p or
y es
ĠJ SON
Ø ¯
Ġd ri
b o
Ġme et
m s
Ġb it
ict ion
Ġ â
Ġrel ated
Ġdes crib
Ġcon d
Ġansw ers
r am
Ġexper ience
ri es
Ġpar agraph
Ġth ought
S ummary
Ġche ck
- f
H ello
Ġf ull
ä »
Ġc ost
ĠP l
Ġg row
Ġt rue
Ġex c
Ġev al
Ġstr ing
ell ig
Ġ Ñı
u ck
Ġdo ing
Ġen v
Ã© s
Ġorig inal
c a
ad os
ĠÐ Ł
à ¥
ys is
Ġgr oup
Ġf ood
ition al
t ext
e ch
one y
r ay
g ent
Ġ à¤
Ġc ateg
Ġ Qu
ĠL e
Ġspec ial
Ġmodel s
Ġh arm
Ġ} Ċ
Ġc ent
Ġvide o
k en
Ġexp ress
Ð¾Ð ·
Ġperson al
ĠO n
Ã µ
pon d
Ð¸ Ð¹
ĠM y
ĠC O
id d
ill s
Ġk ind
ÐµÐ» ÑĮ
P I
2 9
u le
Ġother s
âĢĻ t
ĠE n
Ġ ru
a j
us ion
Ġknow ledge
Ġap pe
Ġf ut
Ġcustom er
Ġl as
Ġv ar
Ġser vice
Ð¸ Ñĩ
Ï Ħ
ver age
Ġg ot
in ation
ind ow
Ġcl ient
al se
ail able
T ext
Ġe as
a a
Ġw rong
Î ¿
Ġd ra
Ġen s
] .
am es
ord ing
Ġagain st
Ã¼ r
ist ic
che s
ummar ize
Ġb ul
ic ht
3 5
re ate
im ate
Ġs ens
er o
Ġem ail
^ ^
ĠAn swer
ut es
Ġun e
" ĊĊ
it er
Ġc our
Ġwrit ing
Ð°Ð ¶
Ġm it
Ġimpro ve
Ð°Ð ±
p ose
Ġre view
Ġch ang
S E
at ural
ĠS h
Ġhe alth
Ġres pect
Ġstr ong
Ġd as
Ð Ł
is ion
Ġb ad
Ãµ es
' ve
ÐµÐ ³
m ing
at ures
Ġb ook
end er
ĠU se
id o
ert ain
Ġext ract
rop ri
Ġsch ool
c ur
Ġr ange
Ġnum bers
Ġb as
Ġr ules
× Ļ
Ġex ec
Ġcons ider
in c
A D
h r
ĠY es
ë Ĭ
A M
Ġresult s
a im
C H
H i
Ã ±
W h
Ġrequ ire
Ðµ Ñģ
i vers
ol l
ÐµÐ ²
Ġch oose
C l
Ġproduct s
it o
n ect
Ġal g
Ġne cess
Ġle arning
_ f
Th is
i qu
Ġ/ /
Ġse par
Ġm ention
ĠÑ Ħ
9 9
Ð¸ Ð·
Ġv iew
ĠChat GPT
Ġm ag
Ġt imes
( '
Ġre pl
Ġtot al
Ġc ase
Ġadd ress
Ġ ou
fere nce
am b
Ġwhe ther
Ġfam ily
d ate
a f
ĠG ive
Ġe conom
iss ion
": "
Ġu til
comm end
Ġrelations hip
Ġa ff
Ġm ight
{ Ċ
Ġm ove
u ate
0 4
Ġpat ient
Ġma ch
Ð¾Ð ¿
Ġneed s
Ġj e
ĠT o
è ¯
he llo
Ġpoint s
a w
t ain
Ġh ard
Ġcan not
are nt
at s
ĠM an
Ġfe w
U R
å ı
Ġm ot
un t
ĠO pen
Ġsugg est
Ġprof ess
Ġexpl anation
Î ¹
Ð¸ ÑĢ
Ġg e
Ð½Ð¾ ÑģÑĤ
Ġpos itive
Ġis t
Ġcount ry
l t
Ġ >
à ¹
oc Ãª
-------- --------
Ñĥ Ñİ
Ġyour self
ater ial
Ġe th
ific ation
Ġe ar
eng th
v i
Ġt itle
ĠÐº Ð°Ðº
am et
ĠÑĩ ÑĤÐ¾
Ø ©
I t
s p
Ġb ot
Ġet c
ÐµÐ½ ÑĤ
un e
ver n
Ġneg ative
Ġwor king
Ġg ra
ab les
Ġex act
Ġf re
pt ion
ant e
Ġt er
Ġloo king
l o
Ġs ize
ĠÐ² Ñĭ
Ġrep resent
Ġb ra
Ġf ace
ore d
cre t
ĠP ython
Ġex pect
ĠC o
. p
w w
Ġpr int
Ġem ploy
n y
re t
_ p
Ġa ctions
c le
æ ĺ
Ġav ailable
Ġd ig
U S
it or
yth ing
- p
ĠI m
u se
EN T
3 4
Ġd ays
? "
F or
l ing
Ġso bre
Ġrele vant
l u
D o
Ġpre t
Ġpre vious
Ġsim ple
Ġv ol
Ġind ic
ĠÐ´ Ð»Ñı
_ l
Ġf ocus
ill ion
Ġcle ar
ÐµÐ½Ð¸ Ðµ
3 6
Ġme ans
ir m
re g
Ġp ain
ê ³
id ad
N ame
Ġdoes n
ro s
il i
Ð¿ ÑĢ
U T
de f
Ġus ers
ab or
Ġre search
Ġ `
id a
Ġpro t
ic i
ĠT e
Ġam ount
il ities
is c
Ġl ov
å Ĳ
r ing
Ġsu ccess
. g
pt ions
Ġem ot
o per
Ġha ving
Ġ í
Ġv o
ëĬ Ķ
ĠÐ Ĵ
Ðµ ÑĪ
Ġs al
Ġtr ad
Ġfem ale
D e
ĠâĢ ĵ
Ġwom en
it able
Ġyou ng
Ġcol or
Ġtop ic
Ðº Ð¸
× ķ
as ure
} ,
0 3
ou d
Ġs ince
ĠÑģ Ð»
Ġwe ek
l ate
Ġsc ene
Ġb i
e y
Ġle arn
ic o
Ġtem per
Ðº Ð°
0 6
.... ....
Ġpot ential
Ġbre ak
Ġsign ific
Ġ ess
er a
A C
Ĥ ¬
Ġident ify
n a
Ġev ents
Ð½Ñĭ Ñħ
1 50
S ay
IN G
b ack
m an
Ġh o
R I
Ġdisc uss
Ġa ud
. l
C on
Ġt arget
and om
au g
3 7
Ġsh are
ight s
iv ed
Ġdevelop ment
b y
Ġdialog ue
pon se
Ġrequ ired
E T
Ġf ac
r as
Ġsex ual
ï¼ ļ
0 7
o i
og le
m l
Ġla w
anc ial
Ġsoft ware
rodu ct
ĠS p
Q L
Ġz u
c ore
Ġcom b
out h
ic una
Ġre commend
Ġper cent
ÐµÐ ·
as ks
AT E
Ġb ene
Ġtra ining
ist er
l and
id ence
âĢ ľ
ĠG o
Ġpr ice
Ġp od
0 2
Ġcal cul
_ id
Ġim plement
Ġj son
Ġun til
ĠP h
Ġd r
Ġext rem
Ġexper t
Ġ ich
Ġint ellig
ĠC he
ro om
Ġe lect
6 4
ĠF r
ÑĢ Ð°
Ġpri v
Ġanal ysis
ad d
Ġneed ed
Ġeng ine
ĠN ew
Ġwe b
ĠT H
um ber
k t
Ġc e
Ġw on
o res
o ot
Ġg en
3 1
ê °
Ġval ues
Ġm oney
R es
Ð¾ Ñĩ
r ation
Ġwe bs
ol a
N T
ĠÐ¸ Ð·
ĠÐ ļ
os s
Ð¸ Ñħ
_ c
Ġm ind
Ġmulti ple
Ġw ait
v ol
å ¥
ĠÐ ¡
iron ment
Ã§ Ãµes
Ġas pect
iv ely
Ġf ore
Ð° ÐµÑĤ
Ġknow n
Ġstud ent
( )Ċ
Ġhist ory
> <
Ġs n
ĠCh ina
Ġm il
Ġask ed
Ġy es
an e
f ace
Ð° Ñı
v ide
Ġto get
am m
Ñĥ Ð´
Ġtoget her
3 8
- c
ul ation
Ġh ab
Ġhapp en
ke y
ĠI nt
Ġc ity
Ġrec ent
' '
Ġf ur
Ġsent iment
Ġnorm al
an ces
oc i
ãģ ®
Ġgu id
I S
Ġinstru ction
ĠA p
S e
Ñĥ ÑĤ
Ġmean ing
! Ċ
Ġtool s
ĠÐ Ŀ
s ystem
Ġan n
Ġm ale
Ð½ Ð¾Ð¹
v a
Ù ģ
us h
Ġf our
Ġ id
our ces
Ġfut ure
i od
Î µ
[ '
ç Ķ
ropri ate
ent e
æ ľ
Ġnew s
in f
Ġen erg
Ġsc en
Ġt re
Ġb oy
5 00
Ġha ir
Ġli k
Ġb ase
Ġp en
N D
c er
Ð¸ Ð´
ì Ħ
I d
íķ ĺ
f rom
Ġstru cture
) :
Ġh ours
ĠO k
at us
Ð¸ Ðµ
Ġsp ace
Ð ¡
Ġa ir
Ġind ivid
ĠR E
Ġspe ak
ens ive
d escript
ÐµÐ ±
he ad
Ġstate ment
Ġre du
5 5
ĠÐ¿ÑĢ Ð¾
Ġh ouse
g en
Ġstr ateg
U ser
m it
} }
Ġar g
ch ie
i ra
it her
Ġvi ol
ĠA dd
Ð½Ñĭ Ðµ
gr ound
Ġp ers
Ġcho ice
I m
n ces
Ġth in
ig o
Ġim m
ĠIn put
Ġbe aut
Ġb ed
Ġl ow
Ġa way
Ġget ting
Ġ Ä
Ġsc ore
Ġf ive
Ġin it
w ards
Ġfr ont
Ġf a
Ġh ot
. S
4 4
oun ds
read y
Ġins ide
Ġpos ition
Ġinv ol
Ġw in
ĠĠĠĠĠĠĠĠ Ġ
Ġw al
ä º
ĠÐ¿ ÐµÑĢ
æ ĸ
å ¤
ĠA m
Ġh tt
Ġcl os
ht t
s et
Ġs un
Ġp ast
Ġst op
Ġextrem ely
Ã§ a
ĠG r
Ġ Ùħ
Ġf av
Ø ¨
ĠN ow
g est
Ð¾ÑĤ Ð¾ÑĢ
Ġmach ine
Ġst re
ĠT hat
In put
Ġser vices
Ġcon cept
ĠĠĠĠ ĠĠ
w h
Ð Ŀ
Ù ĥ
Ġd ue
is hed
´ ë
** **
t ype
Ġvers ion
ĠA ct
ãĢ Ĥ
L M
ic ation
æ Ī
Î ½
Ġfl o
ag s
Ġnecess ary
ĠD on
Ð ŀ
ĠA d
Ġbre ast
æĺ ¯
c y
C O
ĠG PT
Ġav oid
Ġcomput er
Ñĥ Ñĩ
Ġe ine
ĠUn ited
9 0
Ġqu al
Ġgener al
Ġc od
ser v
A B
og n
ĠS er
Ġgo al
Ġterm s
g ress
ĠW or
Ġqu i
Ġp ract
Ġh old
Ġp ress
l a
ĠA re
Ġ{ "
Ġe yes
Ð½Ñĭ Ð¹
×ķ ×
\ \
ĠWh ich
Ġc ur
Ġfe atures
Ġan t
Ð¸ Ñı
Ġf ield
il t
Ġimp act
Ġbu y
Ġm aterial
Ġc rit
Ġo cc
ag ing
Ġle ast
Ġun ique
{ "
Ġperform ance
ne w
Ġcon nect
iz ing
pp ed
m et
Ġer ror
wor ds
ĠÐ± Ñĭ
ĠA ll
E L
Ġsay s
t ell
le ction
all s
Ġs ym
ament e
] ĊĊ
Ã¡ s
Ġs ide
pp ing
Ġcom ment
Ġok ay
Ġh yp
} ĊĊ
end ed
ac es
Ġtak es
Ġen j
s ide
Ġn ight
Ġst ay
Ġinst ead
at form
0 8
Ġd Ã©
Ġb oo
Ð Ĵ
Ġcomm on
an a
Ġn Ã£o
ut ions
pe cial
Ġwant s
ÃŃ a
el le
Ġal ready
_ name
id ade
end ing
å¥ ½
H ere
Ġtemper ature
( self
Ġp ued
on es
ig ure
Ġstud y
Ġindivid ual
Ġa ge
Ġma is
id es
Ð° ÑĨÐ¸
y nt
Å Ĥ
Ġsk ills
u ff
Ġse em
Ġh ig
Ġc as
Ġqu ality
Ġpre d
Ġsub ject
' ,Ċ
y ear
Ġide a
ì ł
vel oper
Ġma xim
Ġacc ording
Ġt asks
rie f
Û Į
ìĿ Ħ
Ġc ult
Ġanal y
Ġever ything
Ġsu itable
Ġc ut
Ġgo vern
Ġc at
Ġide as
oc ation
3 00
im al
Ð½ Ð¾Ð³Ð¾
Ġare a
os p
j e
Ġph ot
ĠE m
cur ity
Ð¸ ÑĪÐ¸
Ġplay er
Ġenv ironment
f r
Ġma kes
Ġem b
ra p
Ġse ver
ĠÐ¿ Ð¾Ð´
as ing
le ep
ĠHow ever
Ġnot hing
ï¼ Ł
Ġstep s
ustom er
Ġde ep
ur ance
St art
as ons
ìĹ Ĳ
o int
ĠÐº Ð¾ÑĤÐ¾ÑĢ
Ġm other
Ð² ÐµÑĤ
×Ļ ×
Ġg raph
ĠO r
Ġloc al
ĠS ch
Ġof ten
' Ċ
re l
fic ult
er c
O S
Ġaut om
Ġtry ing
Ġn atural
. m
Ġfin ancial
r im
Ġp age
Ġcomp et
Ġa uf
Ġdef in
Ġph r
ĠT ext
ist s
" )Ċ
Ġt en
Ġu r
3 9
j or
Ġv on
Ġc ell
f riend
Ġop in
Ġens ure
Ġcontain s
st ream
Ġ= =
Ġst e
Ġeval uate
Ð¸ ÑģÑĤ
Ġv ocÃª
in put
ĠM ake
Ġbe come
Ġvar ious
ĠA mer
Ġpro b
ro ll
ar c
Ġad v
t ers
al f
f ect
Ġr Ã©
in ter
Ġqu ant
ot es
N N
v o
Ġlim it
Ġm iss
ëĭ ¤
Ġrem ain
Ø ¹
ĠÑĤ Ð°Ðº
P E
clud e
T H
Ġenerg y
in o
g n
ou ble
Ġb ir
Ġmat ch
ud e
Ġem p
am a
ì ŀ
Cont ext
ul ate
ĠÐ ŀ
ip s
Âł Âł
ell a
Ġsystem s
ĠS u
n et
Ġsc he
7 0
Ġf Ã¼r
Ï ĥ
Ġtext o
Ġ ri
O L
Ġapplic ation
art ment
ic ro
Ġl ive
Ġs at
um an
Ġc ir
Ñģ Ð¿
Ġphys ical
Ġr andom
7 5
Ġc ertain
Ġmov ie
Ġch all
id s
ĠÑĤ Ñĭ
ell ing
Ġt aking
r ad
Ġintern et
Ġpr im
z y
ãģ Ħ
ĠD E
d en
Ġs ource
Ġinc or
Ðµ ÑģÑĤ
ÑĤ ÑĮ
Ġd one
Ġexact ly
ĠÑģ Ð²
ub e
if ul
Ġh or
u i
end o
Ġsh all
Ġus es
Ġf ul
Ġd est
ĠSt ates
ĠWh y
Ġa chie
Ġh yd
ic ient
Ġent re
Ġrole play
\ "
in ate
ĠÑĢ Ð°Ð·
: :
d own
Ġon line
ra ft
Ġpar amet
Ġsever al
Ø ³
og raph
ĠS T
Ġ Ñħ
âĢ ¦
ä½ł å¥½
Ġval id
Ġcre ative
Ġd ans
Ġcomple x
D es
ĠÐ ¶
a ur
is ed
ĠA t
op y
ĠM e
Ġm i
Ġmanag ement
Ġse g
Ġsol ution
Ġf low
p a
Ġfur ther
4 8
Ġre asons
l oad
rom pt
Ġtal king
iqu es
Ð¾Ð»ÑĮ Ð·
d iv
O utput
/ s
. j
- >
,, ,,
ĠĠĠĠĠĠĠĠĠĠĠĠĠĠĠĠ ĠĠĠ
ĠDes cribe
a ult
O b
ful ly
c hen
w ord
Ðº Ð¾
Ġpo em
Ġharm ful
) )
Ġd os
Ġreg ard
j et
Ġim ag
Ġì ŀ
Ġ ðŁ
Ġn arr
Ġp arent
Ġse cret
Ġchat bot
it ch
+ +
ot hes
Ðµ Ñĩ
Ġ !
or ith
Ġl in
ap an
5 6
ou ch
i res
u k
h ic
Ġtrans form
Ġed uc
T o
ear ch
Ġp ath
Ġcomp re
Ġwebs ite
ĠR ep
ĠThe n
Ġwor ks
Ġstud ents
Ġp le
Ġchild ren
Ġs ong
Ġas sist
Ð° Ñİ
g ing
j a
Ġcl aim
Ġì Ŀ
Ġbene f
che d
Ġcour se
U n
Ù Ĥ
D E
ë ¡
ĠB l
m o
ĠN e
Ġtechn ology
E r
ĠA PI
uro pe
Ġ )
Ġne ar
Ġs low
Ġexper i
Ġsc ient
d f
Ġtra vel
Ð ļ
Ġsignific ant
o ver
Ġhtt ps
ĠT rans
ob al
Ñĥ Ñģ
Ġpre c
Ġ ing
ac ion
if t
Ġprofess ional
Ġw atch
Ġto ld
ag er
Ġprogram ming
l im
ot s
5 4
Ġ _
it a
Ġc am
hen s
ĠÐ¸ Ð½
e ah
Ġl at
Ġl ater
s el
0 9
Ġe ither
Ġs ales
ĠN OT
Ġstart ed
nc ia
Ġde b
iv o
ĠO ne
Ġa verage
in ue
el t
ient e
Ġan g
A l
ser t
Ġmom ent
ra in
Ġpa per
íķ ľ
Ġper iod
Ġdis play
ch ar
. t
W ho
M P
ĠCom p
re ib
Ġs us
Ġnet work
Ġbl ue
M A
Ġad vent
19 9
ab ase
Ġw indow
Ġsu pp
Ġf it
s y
Ġcomplet ely
ì ļ
Ġcl ose
f ort
g re
' ]
ĠÐ¿ Ð¾Ð»
ĠC ol
ĠAI M
it ing
Ġwrit ten
p u
l er
Ġs ense
Ġm ass
R A
Ġw ar
A r
Ġlong er
Ġf ar
b b
or ing
Ã ¢
um p
Ġpercent age
ìĿ ĺ
pe c
Ġle g
Ġd iv
Ġp ack
Ġf ict
qu est
Ġincre ase
Ã ´
Ġro bot
Ġent ity
ON T
Ġtra in
ri ed
oun ter
anc ed
p ost
Ġp un
L ist
ĠÄ ĳ
Ġle ave
Ġloc ation
- l
L et
av a
ĠÑį ÑĤ
ut ral
Ġt i
Ġc ause
em pl
Ġcor res
ess age
Ġy et
f ile
es e
§ Ģ
o ke
k y
Ġm ir
Ġbeaut iful
Ð¸Ñĩ Ðµ
Ġadd itional
. c
Ġbuild ing
Ġsit uation
Ġar ch
D I
ar a
s ch
Ð¸ Ð¸
ot ic
``` Ċ
ad or
ac her
Ġfav or
u a
8 5
ab ly
ĠU ser
Ġenj oy
Ġ %
Ġqu ick
ãĢ ģ
Ġc ock
ri a
4 6
Ġal ong
is es
ivers ity
Ġa i
Ġsay ing
Ġar ray
m en
al y
Ġcon v
ic an
str ing
g ar
Ð½ Ðµ
Ġext ra
Ġd ark
Ð½ Ð¸Ðº
or al
m b
ĠH i
Ġb ar
ĠÐº Ð¾Ð¼
idd le
Ġaut hor
Ġp ie
Ġen ough
Ġt reat
Ðº Ñĥ
nd er
cl ass
O ptions
r ist
Ġ @
) .Ċ
Ġpro pos
o ff
Ġl ay
ĠS c
Ġref er
Ġprompt s
Ġdid n
ver se
Ġs ort
ìĿ ´
Ġlov es
ens ion
Ġag ent
Ġp air
Ġb rief
ĠL ist
ĉ Ċ
ĠS E
Ġc ard
ĠâĢ Ķ
ac ks
e b
Ġor d
Ġmat ter
is ing
st er
Ġspe ech
Ġpartic ip
( s
ĠÃ ¨
Ġarg ument
g es
Ġalg orith
ĠW ith
ry pt
- year
ĠÐ ¢
or ry
Ġmin utes
: \
int s
able d
j ust
Ñ ĳ
ĠA S
d a
Ï ģ
Ġin n
Ġa ve
Ġbl ock
D ata
Ġrem ember
el ines
Ġchang es
I ST
å ħ
ĠâĢ ĺ
at ory
Ġtyp es
Ġm as
ê³ ł
o le
! !
Ġcomp an
A Y
Ġcol l
g y
Ġpl atform
Ġcre ated
ĠIn struction
Ġc amp
ĠT ell
ant ic
ĠOpen AI
b ol
ce ed
Ġpol it
Ġm es
a ctions
Ġread y
val ue
ib ility
Ġag re
Ġcho ices
Ġse curity
. get
Ġon ce
ac c
un ction
ÐµÑĪ ÑĮ
Ġ ÙĪ
c ing
Ġp al
Ä Ļ
Ġsm art
Ð°Ð¿ Ð¸ÑĪÐ¸
k now
Ġdiffere nce
ul a
ast ic
Ġappe ar
Ġm ent
Ġpart y
Ġfict ional
Ġac ross
I G
ĠP r
g ed
E n
Ġcont act
is on
Ġab s
t ract
Ġpur pose
Ġab ility
U L
U se
i os
Ġmonth s
Ġbr ing
Ġass ume
Ġunderstand ing
Ġdif ficult
Ġmention ed
ĠØ ¨
Ġact ually
Ġo pp
ĠN ame
it es
==== ====
Ġpartic ular
Ġt ax
ail s
Ġitem s
ĠÂ ¿
U E
apt er
op h
ĠD ate
Ã© e
" )
x x
le gal
Ġm is
Ġw ays
Ġfil es
i i
Ð°Ð¼ Ð¸
ê ¸
ãģ ¦
Ġs ummarize
E X
G enerate
s ing
q l
Ġf ine
Ġac cept
Ġb ox
- st
A ction
Î ·
Ġm u
4 9
m ission
Ġv ul
4 7
4 2
Ġs qu
' d
Ġaspect s
ch an
Ñĭ Ð¹
ament o
Ġl ength
Ð¾ÑĢ Ð¼
ĠÐ ł
Ġph one
m on
Ġinte gr
: "
Ġbeh ind
Ð½ Ð¸
ĠA fter
Ġbelie ve
ë¡ ľ
! "
l ist
fere nces
Ð° ÑģÑĤ
AA AA
ĠE r
med i
C I
en n
Ġca pt
Ġplay ing
Ġfil ter
ĠH er
Ġd ir
Ġmus ic
Ġc y
Ġro w
' )
ĠÂ «
Ġm illion
i et
il es
ë ¥
Ġf ix
Ġmed ical
Ġiss ues
ĠM ay
Ð°Ð½Ð¸ Ñı
Ð Ĳ
Ġjo ke
Ġl ink
Ġpl us
Ġ} ,Ċ
ĠJ ust
Ġser ver
a pe
ĠR uss
Ġl ines
end s
The re
Ġoff er
Ð½ Ñı
ri o
Ġris k
ot al
m ost
Ġdo g
Ï Ģ
Ġcorres pond
Ã Ł
W hen
Ġcom pon
. py
Ð°Ð± Ð¾ÑĤ
Ġn icht
B ut
et ry
Ġapp ropriate
Ġgrow th
ĠL LM
ä ¹
Ð ¢
Ġe u
Ġpolic ies
l ight
Ġl oad
Ġwe aring
Ñĥ ÑĢ
Ġ- >
Ġse ed
ĠD ata
Ġpriv ate
Ġapp ly
y ou
Ġperson ality
ess ion
Ġal tern
Ñĥ Ð¼
ÐµÐº ÑģÑĤ
- h
Ġn om
m od
> </
A G
Ġdra w
_ b
Ġ[ "
ines e
Ġh ands
Ġg iving
Ñħ Ð¾Ð´
re en
' .
ang er
ĠA gent
Ġmed ia
ĠC reate
al t
ad as
æĸ ĩ
Ġc ou
AT ION
Ġappro ach
Ġacc ur
Ġcom es
us ed
C reate
Ġcap ital
Ġfeel ing
Ġd am
Ġ-- >
ì ĭ
Ġass oci
ĠS QL
l ation
Ġse qu
Ġser ies
Ġpri or
Ġpolic y
Ġas king
Ġcateg ory
ific ial
ĠO utput
ĠE l
r id
Ð½Ñĭ Ð¼
ÐŁ ÑĢ
Ġmaxim um
-- -
ĠÐ² Ñģ
ne y
Ñĥ Ð¶
Ġfr ame
Ġre write
id ity
5 8
d it
Ñĭ Ð²
Ġs leep
ac y
Ġcons id
Â »
Ġrequire ments
B e
ĠE ach
O D
Ġele ment
Ġlik ely
Ġiss ue
in ary
## ##
Ġprovid es
Ġf ire
Ġgre en
ĠN one
or der
Ġto m
pport un
ag n
Ġex cept
ict ions
at ter
ÐµÐº ÑĤ
Ġatt ention
ent ly
Ġpart s
ê ²
ed u
Ġl ower
_ n
f s
ment e
ur y
ĠÐ¼ Ð¾Ð¶
] :
Ð°Ð ³
i j
Ġconc ise
Ġth ird
ĠÑģ Ð¾
ĠO b
Ġcon se
l or
ra w
un ch
O P
Ġconc ern
Ġwho le
or k
ag ement
Ġa w
av es
.ĊĊ Ċ
bo ard
ere n
an ks
b on
Ġp u
å Ī
Ġdat as
Ġfe ed
Ġ= >
Ġinst all
Ġa us
an o
Ġobject s
Ġwe ight
Ð¾ Ðµ
Ġe at
le ts
Ġgovern ment
Ġn one
Ġes pecial
ist r
ap i
ĠThe se
Ġa f
Ġdo or
6 6
Ġeconom ic
) -
ĠE st
Ġdirect ly
ME NT
5 9
/ No
Ð°Ð½Ð¸ Ðµ
ĠÐ¿ÑĢ ÐµÐ´
m at
ĠIn tern
Ġ\ "
Ġc up
Ġf ant
Ġb row
Ġhe art
Ġd ot
Ġse en
Ġc Ã³
ĠÐ ľ
id th
ver y
C hat
Ġkey words
Ã© n
A P
Ġres ol
Ġdel iver
ĠC al
y e
æ ķ
ĠAl so
Ġthought s
4 1
iel ds
Ġoff ic
oc ks
Ġwant ed
ac ed
Ġm m
we et
Ġl ab
Ġse ction
ãĤ Ĵ
Ġh om
f l
Ġte acher
Ġas ks
or g
Ġdat abase
U LL
7 8
Ġopt im
Ġhapp y
ĠF rom
Ġma jor
Ġreason ing
Ġfollow s
Ð» Ñİ
ĠO N
Ġeth ical
Ġf ast
Ġatt rib
at ives
Ġp i
du ct
ar ter
ep end
cl us
ĠE urope
er ia
Ġpop ular
Ġh ol
U M
-b ased
s u
Ġw ent
Ġhum ans
w o
Ġve hic
^^ ^^
H e
Ġto wards
Ġcompre hens
is f
Ġfun ny
ur ation
Ġre ach
Ġgr and
ut o
pr int
a ff
å °
form ation
ĠM ed
- P
Ġm al
Ġ ill
th is
ra ge
ĠP ar
Ġdescript ions
- to
ĠP er
oc al
Er ror
d om
ĠS ystem
pl ace
az ione
ĠL a
Ġr ad
ch o
Ġst ore
Ġv ia
Ġcustom ers
c ion
Ġbreast s
b ody
ĠN ot
Ġb al
Ġ[ '
Ġvis ual
Ġrec ord
Ġmem bers
Ġil legal
g l
Ġproblem s
Ġsh y
ur t
Ġpret end
out put
t r
rodu ction
t ies
in ci
Ġsepar ated
Ġmor al
Ġb ab
ress ion
m art
Ñĭ Ðµ
ĠJ apan
Ġa u
Ġscen ario
Ġset ting
. âĢĿ
Ġs ound
Ð´ Ð°
or a
Ð¾Ð» Ð¶
Ġeas y
Ġf alse
iz es
ĠÐ Ķ
Ġre str
ri ve
ê° Ģ
5 7
sw ord
Ġpers pect
z en
Ð¸ÑĩÐµ ÑģÐº
ac he
i us
ĠOn ly
T ell
Ex ample
know n
c ast
m y
Ġinit ial
ĠP ol
as y
ĠTH E
em pt
Ġbot t
u ild
Ġdig ital
Ġexplicit ly
A nd
ĠU p
Ġloo ks
Ð¸ÑĢ Ð¾Ð²
ĠI T
Ġback ground
iment o
Ġcompan ies
Ġo pportun
Ġfun d
itt ed
Ġt one
Ġtop ics
O n
ÐµÐ½ ÑĮ
Ġl iving
Ġl abel
Ġguid elines
v as
Ġv irt
Ġgr ad
Ġc and
Ġg ain
M y
Ġvo ice
Ġ ir
Ġim ages
Ġave c
ire ct
Ġent er
ãģ ¯
è ¿
6 8
L Y
Ġre ve
st it
Ġstart ing
: descript
Ġt k
Ġgirl s
ãģ «
Ð½Ð° Ñı
Ġthin king
Ġf all
Ġam b
ak es
in it
Ġc ame
Ġle gal
p m
:descript ive
Ġstand ard
Ġactiv ities
Ġs il
ĠÐ Ĳ
Ġinter act
Ġp ub
Ġprovid ing
os ed
olog ical
Ä ħ
at ors
Ġbir th
Ġf uck
Ġt all
w ise
Ġlos s
Ð½Ð¾ÑģÑĤ ÑĮ
] ,Ċ
Ġinclud es
L O
Ġcle an
- se
Ġg ives
Ġin con
Ġmethod s
Į Ģ
ark et
:ĊĊ Ċ
Ġp el
Ġcol le
o h
Ġcons um
Ġstre ng
ar ies
ĠAs s
Ġs ist
Ġev idence
m m
pre t
Ġpres ident
n en
ÐµÐ ¿
Ġh alf
Ġf ill
= '
ung s
ut ed
4 00
Ġper fect
Ġ Question
Ġind ex
i as
il led
Ġh ost
ist ics
k ens
ĠL td
Ġcont rib
- B
ren ch
Ġes c
cl usion
âĢĿ ,
Ġent ire
Ġins urance
Ġconsid ered
ur b
ì ķ
cript ion
Ġdem on
Ġout side
ĠOk ay
Ġexec ute
Ï ħ
i ety
Ġintellig ence
Ġcurrent ly
li ke
Ġdesign ed
Ġmor ning
Ġm ode
b ox
Ġful ly
Ġrec ogn
Ġpl ot
ä¸ Ń
Ġele ments
Ð¾Ð»ÑĮÐ· Ð¾Ð²
T ype
Ġcont ract
S S
Ġf az
Ġs ite
Ġs ell
Ġpl ans
ig u
ãģ §
Ġc um
4 3
htt ps
iv ity
or row
Ġfor ward
er al
os a
ci Ã³n
Ġincor rect
I V
pon s
h old
N ow
ĠD is
." ĊĊ
he tic
Ġp ict
ĠCont inue
Ġth ough
il it
ĠM us
Ġchall eng
ĠGo ogle
Ġag o
Ġmess ages
um b
e es
F F
os ition
ð Ŀ
ri al
Ġhig her
st art
e ction
I nt
Ġp ick
le x
ĠÐ¾ Ð´
Ġse gu
Ø Ń
j i
ĠR em
L e
p are
A K
aug ht
I I
Ġcl imate
et imes
Ġgo als
g pt
å ®
es ch
Ġfact s
Wh ich
Ġm el
ac hes
Ġmain tain
Ġrun ning
Ġf oot
Ġd ress
ro id
ĠA ND
Ġcon sist
Ã© t
Ġintern al
Ġest Ã¡
arn ings
Å ¼
op s
Ï Ĥ
Ġdet ect
Ġinvest ig
6 5
Ġan im
RO M
om b
ung en
Ġpre m
al ing
b all
r s
Ġf ather
Ġcon vert
ĠÐ· Ð°
ÐµÐ³ Ð¾
Ġachie ve
Ġinterest ed
Ġaff ect
ĠÑį ÑĤÐ¾
Ġf ight
Ġw ide
M S
Ð¾Ð»ÑĮ ÐºÐ¾
ĠD O
Ġì ķ
Ġno vel
av ing
h ol
Ġgo es
Ġint ent
Ġsol ve
Ġer r
t ime
ì ĸ
Ġpass age
ì ľ
Ġmeet ing
× Ķ
Ġget s
Ġstart s
un k
om s
Ġli br
ĠÑĤ ÐµÐºÑģÑĤ
Ġpat tern
cre ate
Ð ł
Ð ĺ
Ġhist or
Ġd ru
uf act
t re
Ġt it
ut h
In struction
urre nc
Ġcol lect
Ġt ouch
Ġstr ings
plic ations
Ðº Ðµ
Ġcre ating
ÐµÐ ¶
ãģ Ĺ
ĠÑģ Ð¿
Ġra p
Ġdem and
Ġcond itions
Ġmin im
Ġp et
ĠÃ ¼
Ġs en
b ook
Ġg ames
Ġdist rib
Ġt im
Ġhe ar
Ġactiv ity
l ib
ĠP art
Ġstate ments
B C
im age
uss y
Ġl l
Ġ ÑĨ
ad em
re st
Ġl iter
ent ence
Ġs in
Ġrece ived
Ġer otic
T rans
y t
Ġd im
os is
Ġu t
Ġoff ice
w ho
Ġ .Ċ
Ġn ice
w here
enc ia
Î ¼
Ġde vice
C ol
inc ip
b en
" .Ċ
. NAME
Ġ rom
Ġcon ne
id ed
ch ange
s c
Ġb ank
Ġalgorith m
U ST
ãģ Ļ
Ġdec ision
stru ct
Ð¸Ð² ÐµÑĤ
m iss
M L
if f
umm er
c king
ĠInd ia
wor ks
Ġre ference
Ġsu ff
Ġest e
Ġhelp ful
d ata
Ġb ound
pl it
sy ch
Ġtak en
Ġinf lu
com ing
Ġshow s
Ġutil iz
ĠÐ± ÑĥÐ´
b ut
1 20
Ġcontin u
Ġsh o
Ġcomm ands
Ġme chan
Ġhigh ly
Ġqu est
Ġam ong
Ġì ł
Ġevery one
ab ilities
ag ram
Ġh ac
Ġvis it
tern al
ĠSt ate
Ġemot ions
l og
Ġover all
Ġfe et
Ġsk in
P l
× ¨
Ġprodu ce
Ġatt ract
Ġdis e
â Ķ
F rom
ĠĠĠĠ Ċ
A ct
Ġprodu ction
Ġbegin ning
oth ing
Ġrest aur
à ¨
ure d
Ġj our
ĠP re
Ġadd ition
Ġê °
erm an
Ġs um
Ġsa f
Ġact ual
Ġm aster
Ġlevel s
ĠI D
t ed
Ġnot e
- (
em a
ĠEx plain
ĠF irst
Ġdif f
Ġeng lish
ĠÐ¾ÑĤ Ð²ÐµÑĤ
Ġso il
Ġn ature
ÑĢ Ð¾Ñģ
Ġw ife
Ġpro gress
ĠM on
S er
Ġ< /
ĠÐº Ð¾Ð½
Ġest ab
Ġfeel ings
ĠR et
ĠT O
ĠP erson
s v
b al
Ġde ath
6 9
Ġun it
) ;
ww w
Ġexpect ed
Ñı ÑĤ
y ing
po int
ven ue
Ġj ud
Ġfe ature
Ġt ab
od es
t ra
ä¸ Ģ
r ast
Ġd ies
ĠO ff
........ ........
6 7
Ġdescrib ed
Ġh i
con f
Ġe p
\ u
Ġup date
. f
Ġass ign
Ġb en
com p
Ġenc ou
V al
g a
ers hip
Ġm ist
çĶ ¨
C E
Ñī Ðµ
ed d
Ġh y
e ks
i ro
Ġ" "
Ġ| Ċ
Ð° Ñħ
Ġpro te
Ġtrans late
() ;Ċ
c ar
Ġw el
r at
ap s
ĠG ener
port s
ëĭ Ī
Ġtr ust
Ġuse ful
Ġfil m
Ġrem ove
- old
o pt
ĠG l
ĠC or
Ġh ar
Ð½Ð¾ Ðµ
il s
S h
å Ń
Å Ł
AN T
ol o
] [
Ġart ificial
c ular
ie f
A d
ĠÐŁ ÑĢ
ë¥ ¼
Ġadvent ure
pt y
Ġpay ment
Ġsat isf
Ġs ummar
ou ps
Ġspe ed
Ġarch ite
Ġel im
ob ile
h ter
Ġ ...
Ġst ra
/ NAME
Ġmem ory
yn am
f low
ĠA cc
Ġbr and
Ġbul let
Ġm id
Ġf igure
Ġproper ty
ĠW here
Ġup d
Ġcorrespond ing
! ĊĊ
ĠN ULL
Ġsu a
Ġ{ {
Ġen abled
Ġsol utions
Ġmarket ing
Ã© m
Ġst atus
Ġli kes
u z
8 8
orm al
Ġto ok
Ġd in
an swer
ĠIn c
I A
ĠC ould
- M
et te
Ġme asure
Ã ¥
eth yl
ĠÐ¾ Ð¿
Ġrepl ace
am s
am os
c ks
ou l
ĠK e
IN E
Ġfun ctions
serv ation
Ġbro ther
Ġlat est
Ġne utral
Ã© c
ĠĠĠĠĠĠĠĠĠĠĠĠĠĠĠĠ ĠĠĠĠĠĠĠ
ar ia
Ġexpl ore
ĠÐ¿ÑĢ Ð¸
et t
Ġcolumn s
ĠH is
Å Ľ
act er
a res
ÑĤ ÐµÑĢ
u ge
ÑĢ Ð°Ð½
Æ °
Ġcom ments
h re
Ġpart ner
Ġreturn s
' )Ċ
( e
ĠC ons
ra z
ĠÑģÐ» Ð¾Ð²
Ġk ann
Ġt ip
ic ate
Ġinterest ing
Ġsc reen
( f
âĢ Ķ
Ġk iss
Ġt ick
Ġtechn iques
7 7
.. ."
st ar
____ ____
le ment
n es
Ġbul lets
ĠÐ¸ ÑģÐ¿
Ġa o
Ãª ncia
S he
ë ı
Ġp and
ĠAmer ican
Ġh on
est er
Ġm outh
I L
Ġsa ve
íķ ´ì
- in
Ġst at
_ C
b it
Ġm ix
Ð¾Ð± Ñĭ
Ð° Ñĩ
Ġsc ale
ol low
am ples
st ract
Ġsc ience
Ġgl obal
Ð½Ð¾ÑģÑĤ Ð¸
St ep
E m
Ġho pe
× ľ
Ġcomm a
A dd
ak ed
k a
t est
ateg ory
Ġp ussy
Ġl ives
Ġk ill
Ġal le
ĠChe mical
y r
- D
Ġc ases
Ġu lt
Ġst ream
Ġbl ood
Ġdom ain
Ġbenef its
Ġpro p
Ġco ver
le te
Ġeffect ive
ch a
ĠÑģ Ðº
X X
ĠD et
ĠPro cess
Ġparamet ers
Ġpur ch
Ġhum idity
Ġent ities
Ġde al
Ġgr ound
t ical
Ġconf ig
Ġstreng th
Ġs orry
Ð» ÑĮ
st e
enc ed
M odel
Ġatt ack
aa aa
Ġany one
Ġstrateg y
Ġres ources
Ð½ Ð¾Ð²
ove red
Ġregard ing
vis ed
ĠE s
Ġl and
Ġde ve
Ġoff ensive
ì §Ģ
en ing
Ġparent s
Ġacc om
ag em
Ġvirt ual
ist a
Ġst ock
ad es
Ex plain
Ñĭ Ñħ
ĠG u
Ġs ister
Ġl ate
olog ies
Ġpress ure
Ġs ix
P U
ac hed
ĠV er
Ġp ode
Ġto d
ãĥ ¼
u el
ic y
ĠO ur
ĠTh ank
Ġmem ber
Ã¨ re
ici ency
Ġpresent ed
Ġcomm it
Ġmanag er
ĠI S
Ġpl ant
sh ine
Ġpr inci
az on
Ġhe ight
ìĿ Ģ
Ġrequest s
Ġlim ited
in i
Ġaccur ate
Ġ ign
id ay
Ġf ail
ak er
er ate
Ġc ri
Ġk n
Ġespecial ly
9 8
Ġde cl
ann el
m ber
ĠÑĢ Ð°Ñģ
Ðº ÑĤ
ĠCh rist
L a
ĠV icuna
p art
Ġu pon
Ġcond ition
us iness
5 3
p ly
ig e
Ġd ouble
Ġd ella
o om
Ġs ample
com es
Ġte ach
Ġtra ined
19 8
A t
I nd
- w
Ġto kens
/ d
Ī ĺ
âĢ ĵ
ail y
Ġfor ce
Ġad vice
out es
f o
Ġv ir
ic ious
Ġc ross
Ġcount ries
Ġn ull
Ġadd ed
Ġperspect ive
Ġra inf
idd en
ci as
ĠRe g
Ġb all
clud ing
à¤ ¾
sel ves
v ar
in y
Ġopin ion
Ġexp and
Ġ ;
å Ĩ
12 3
Ġsun shine
Ġrainf all
Ð· Ñĭ
Ġher self
ast e
Ġgener ated
end e
ER T
Ġg i
D ate
Ġpr incip
Ġl ost
Ã© es
ĠĠĠĠĠĠĠĠĠĠĠĠĠĠĠĠĠĠĠĠĠĠĠĠĠĠĠĠĠĠĠĠ ĠĠĠĠĠĠĠĠĠĠĠĠĠĠĠĠĠĠĠĠĠĠĠĠĠĠĠĠĠĠĠĠ
é Ĺ
Ġprot ect
Ġtechn ical
Ġcap ac
et a
Ġconst ant
h ib
ĠĠĠĠĠĠĠĠ ĠĠĠĠ
- g
ĠWor ld
ĠA ust
Ġro ad
Ġwal k
l ich
Ġc it
ad er
a ks
Ġal s
Wh y
Ġw er
ri x
U N
Ġrem ov
â ĸ
pt h
ur ch
ë ¦
Ġad min
Ġ :Ċ
ab e
Ġ" <
ĠE nt
Ġ} ĊĊ
al ian
Ġare as
ĠC H
Ġits elf
Ġs ynt
} ,Ċ
oc ol
Ġgirl friend
/ p
Ġh at
iv a
ĠPro vide
p ir
Ġear ly
Ġ ME
Ġem pty
Ġnum er
Ġcateg ories
ri v
ĠØ ¹
Ġde g
l ished
ç »
is ions
ä¹ Ī
Ġf al
Ġr ound
ĠSt art
S o
Ġein en
Ġseem s
P S
Ġincon sistent
ë ĵ
_ to
St ate
ê¸ °
F T
ÑĥÑģ ÑģÐº
Ġintellig ent
ĉ L
Ġv icuna
" ?
Ġincre ased
rom etry
Ġh our
ĠF orm
Ġ __
ub ject
el low
Ġapplic ations
D A
Ġc opy
ay er
Ġf ields
ĠA nt
Ġpen is
A ll
ê µ
it em
Ġcommun ity
ï ¿
Ġt ags
Ð´ ÐµÐ»
Ñ Ĭ
æĪ ĳ
Ġdom in
Ġdatas et
u er
or th
Ġm Ã¡s
ĠG enerate
Ġhyd rometry
g ive
Ġg ave
Ñĥ Ð¿
EX T
5 2
im a
Ġgu ess
ess o
ĠS ol
Ð¸ÑĤ ÐµÐ»ÑĮ
C C
Ä ĩ
Ġm er
.. .Ċ
n al
ĠC ity
Ġst ories
Ġtri p
ĠCh inese
ĠIn ter
iz er
Ġsu p
Ġdemon str
Ġcons ult
aug hter
ĠTe chn
p ite
iv al
Ġsom etimes
Des cribe
Ġg ar
Ġen h
Ġp sych
Ġm ath
Ġboo ks
Ġrece ive
Ġpr ime
R ep
a Ã§Ãµes
or age
Ġor g
Ġquick ly
c el
g un
Ġass ess
pr ise
v est
ĠC ent
Ġbut ton
Ġcaus ed
Ġto ken
Ġinn ov
Y L
Ġsa fe
M e
ĠG iven
Ġform a
ĠB y
Ñĥ Ð½
Ġle gs
Ġorgan ization
ĠØ§ÙĦ Ø
Ġë °
Ġqu er
Ġphr ases
escript ion
ĠA b
ĠT V
Ð¸ ÑĨ
Ġte le
Ġd ia
Ġke ys
Ġh ate
Th ought
ĠA D
ple ase
Ġgr amm
Ġeff icient
ch at
ĠÐ½ Ð°Ð¿
Ġb an
ĠÐ ĺ
Ġun s
Ġequ ip
Ġadd ing
- C
Ġvari able
Ġch ain
/ c
t itle
ly ing
Ġm iddle
ĠM in
av as
ag ine
Ġ ÑĪ
Ġ ÏĦ
ok es
Ġo der
à¸ ²
Ġdescrib es
O U
ĠS ie
Ġmy self
ï¿ ½
Ġexist ing
Ġso on
m p
ient o
red ient
F A
Ġthan k
M ake
ĠUn iversity
Ð ķ
ë ł
Ġflo or
å Ľ
[ "
qu estion
Ġfre qu
Ġcon duct
Ġcom ing
pl anation
Ġpower ful
Ġrem ind
cept ion
Ġc ounter
it Ã©
Ġad ult
so ft
r is
Ġf at
re et
ĠDe veloper
Ġb ud
6 3
I P
T E
it ter
Ġfl u
Ġphr ase
? "Ċ
Ġis n
ag ue
b and
ĠComp any
Ġaud ience
oo king
ĠÐ¸ Ð»Ð¸
Ġest a
as m
ĠÑĢ ÑĥÑģÑģÐº
Ġset t
V ER
ition ally
F r
Ġt ree
ot he
Ġst ar
Ġman ner
ci ous
Ġt ut
Ġvehic le
Ġa ware
ĠIn st
r ate
æ ł
% Ċ
Ã¶ r
ĠA N
A re
Ġlead ing
im ents
Ġparagraph s
Ġd ont
Ã© d
in er
ri p
Ø§ ÙĨ
Ġsaf ety
Ġs ich
Ġk ids
, ĊĊ
ĠF in
- A
" ]
Ġbab y
Ġd anger
Ġlot s
w ith
ä¸ ĭ
Ð¸ ÑĪ
Ġh it
ĠÐ¿ÑĢ Ð¾Ð´
Ġlibr ary
ic on
ĠT rue
ff ect
Ġde v
ĠÐ¸ Ð¼
ĠN et
ĠAn y
pl ied
Ġpre vent
Ġch apter
Ġgr oups
Ġa im
Ð» Ð¾
Ġpred ict
ff ee
urrenc y
Ġatt empt
Ġtell ing
Ġdescrib ing
Î »
cont ent
ul o
Ġfriend ly
avas cript
ĠP e
Ġob tain
Ġconf irm
Ġp an
Ġsa w
Ġin come
ĠP res
P ar
ĠO F
ant o
Ġal one
i ers
f ol
- S
id ing
Ġw ie
Ġcommun ication
" >Ċ
( Ċ
Ġre se
er v
H ey
Ġgener ation
ĠÑģÐ² Ð¾
Ġm icro
ĠM ode
he st
ĠÃ¼ ber
O r
Ġes se
r ound
Ġc m
I M
Ġun c
ĠS w
Ġc ru
c ode
ob ject
Ġbas ic
fr ame
Ġd ro
Ġc ada
ĠH igh
() ĊĊ
ĠM od
ĠO h
Ġv ict
Ġrestr ictions
P h
C L
Ġstra ight
Ġtrans fer
ĠEx ample
Ġst ands
le y
b ro
Ġeng aging
f ix
ret urn
Ð» Ð°
ion i
Ġwe ar
-t ime
âĢĻ m
ì Ĭ
Ġg as
Ġmod ern
Ġreg ular
Ġc ra
Ġad just
2 50
ig en
Ġstr ict
ĠÐ· Ð°Ð¿
ens or
Ġread ing
ic as
le g
at i
it ude
n h
Ġe j
Ġallow s
i pp
on om
il ing
CT ION
Ð»Ñİ Ñĩ
ĠÐ¾ Ñģ
Ġsol d
ĠF ile
W S
s k
ind ex
= {
Ġh t
f it
Ġmod ule
Ġgu ide
qu ery
Ġwe ather
ĠG ood
ŀ ×
Ġt on
Ġp ow
ĠP roduct
ĠV al
Ġco ol
ĠKe ep
Ġw ild
Ġb alls
à §
Ġexpress ion
( x
Ġ **
Ġemploy ees
Ġfeed back
Ġconne ction
Ġsequ ence
en v
Ġn u
ĠI d
Ġhappen ed
iz ar
Ġev il
ĠÑĢ Ð°Ð±Ð¾ÑĤ
Ġco ord
m ore
c u
r un
Ð Ķ
Ġf ing
Ġon es
r c
Ġcand id
F orm
Ġche st
AR T
å ¼
f in
b i
r an
ph r
ust ain
reib e
ĠH ello
at ient
---------------- ----------------
Ġcaus es
_ st
C ustomer
est a
Ġdist ance
idad es
Ġme as
Ġwe eks
Ġar m
Ġman ufact
Ġf iction
Ġh orn
ãĤ ĭ
descript ion
ES S
p x
Ġpor n
Ġde vices
ist ory
Ġì ĭ
htt p
5 1
ÑģÑĤ ÑĮ
Ġdri ve
ĠF ed
Ġp ull
Ġr ather
qu is
eth ical
ĠI I
col or
ĠC ode
ud o
Ġcl othes
it ar
Ġhe av
ac a
Ġde ad
ĠR oad
Ġbl og
t es
( n
ve re
ĠA pr
Ġim medi
Ġfilter ing
ch ain
Ġhold ing
ri ous
Ġr out
Ġru le
Ð ľ
Ġf elt
Ġintrodu ce
Ġnarr ative
E M
Ġsit u
" >
g i
Ġhe ard
Ġcl in
Ġsoc iety
for ce
- Ċ
Ġs Ã£o
Ġs ources
Ġcalcul ate
Ġ ``
iver se
å ľ
ar p
el ine
Ġdocument s
Ġ\ Ċ
Ġb orn
T ime
n is
Ð½ Ð¾Ð¼
Ġcomprehens ive
k er
Ġtra ck
Ġar r
hr ase
g ative
Ġproject s
ÑĢÑĥ Ð³
Ġqu arter
Ġdra ft
Ġconnect ed
ĠMus lim
Ġequ al
Ġlet ters
P L
ĠÑı Ð·Ñĭ
Ġrecent ly
æķ °
Ġmo i
Ã¡ rio
Ġsym bol
l ar
ĠE ar
Ġpol ice
ĠØ ª
Ġl ic
ad y
ãģ Ł
- up
F I
Ġpro ced
ÑĢ Ð¾Ð²
Ñģ Ð»
ç Ń
Ġinter view
at io
Ġeas ily
å Ĭ
Ġpl aces
Ġto wn
am i
Ġref lect
el ow
Ðµ Ñħ
Ġf ra
Ñģ Ð»Ð¸
Ġvul ner
A gent
d igo
Ġn ode
Ġro ot
Ð°ÑĤ ÐµÐ»ÑĮ
Ġchalleng es
ĠD own
ĠInd ust
Ðº ÑĨÐ¸
Ġanaly ze
. e
ĠS ome
Ġoper ations
é ¢
Ġcor re
z i
Ġag ree
Ġtem pl
Â °
7 2
us es
ãģ ª
Ð¼ Ð¸
Ġ q
T ask
_ re
ĠAust ral
[ i
at en
ĠA pp
ÑĪ Ðµ
O C
Ġt ag
Ġë §
Ġë ĮĢ
Ð¶ Ðµ
ing u
Ġ× Ķ
L abel
Ġcl ar
Ġpatient s
T e
ra ints
Ġsh ape
ÙĬ Ø©
Ġse ason
Ġex pos
Ġun ethical
Ġht ml
10 1
OR T
) ;ĊĊ
ĠT r
ÑĢ Ð°Ð·
Ġus ually
Ġr ates
op ic
à¥ ĩ
Ġmov ing
Ġre act
Ġrespons ible
Ġassoci ated
Ġgraph ic
Ġal most
AS S
Ð°ÑĨÐ¸ Ð¸
Ġs ind
Ġcont ro
Ġd oll
Ġpre fer
res pect
Ñĸ Ð´
Ġbo ard
ra b
igh b
P erson
ÑĢ Ð°Ð²
ud io
Ġhand le
Ø§ Ø±
B ot
) ,Ċ
ãģ ¨
t rans
Ġdef ault
Ġelim inate
Ġfeel s
6 2
Ġc ute
ĠA ut
Ã¡ l
Ġcomp ared
Ġinf o
âĢ¦ âĢ¦
ĠÐ¿ Ð¾Ñģ
Ġdr ink
ag ed
n i
ĠA L
ĠĠĠĠĠĠĠĠ ĠĠ
ca pe
25 5
Ġthe ory
N ew
è¯ ·
Ð¸Ð» ÑĮ
Ġfact ors
Ġinv ent
ĠQ ual
Ġredu ce
ãģ ĭ
plic ation
Ġd an
ìĦ ľ
ĠA P
m es
Ġ Ùģ
Ġviol ence
ari os
Ġinclud ed
ĠJ une
Ġport ug
ÑĢ ÐµÐ¼
ĉĉ ĉ
ĠN O
ĠCom m
_t ype
n ers
af ety
8 4
Ġex erc
ĠF l
Ġcam era
Ġincre asing
Ġcou ple
ĠW ell
Ġd aughter
Ġìŀ Ī
Ġfavor ite
Ġthan ks
ĠÐļ Ð°Ðº
om en
ĠA f
post a
9 5
u y
Ġs yn
âĢĻ re
U s
Ġqu ite
il le
Ã¤ t
- le
Ġs ession
Ġdep artment
Ġs ounds
Ġple asure
Ġindividual s
Ġinter pret
Ġplan ning
x y
on o
Ð½Ð° Ñĩ
Ġerr ors
l in
ou b
ang le
Ġp ant
Ġar ous
ÐµÑĢ Ð¶
. [
i ar
Ġinvol ved
ĠM ar
ER E
Ġh us
iz z
Ġn os
Ġdi agn
Ġì Ĺ
Ġsex y
Ġth reat
Ġv or
ass age
ĠR ed
Ġman ip
ĠJ ew
Ġthem selves
oc ial
P er
Ġm ac
Ġst ates
Ġ à¦
ë §
Ġac adem
i ke
Ġver b
ĠU k
K ey
ĠS ing
Ġres ist
Ġconvers ations
ĠF OR
ÑĢ Ð°Ð¼
/ m
ë ³
r ar
Ġ[ Ċ
Ġsqu are
j our
Ġv s
D F
T T
ĠAr t
d es
us ing
c her
p ress
Ġproper ties
is ation
Ġal t
Ġ{ '
Ãª s
B ased
N A
ĠÐ´ Ð°Ð½
Ġw arm
it ation
Ġess ay
Ġt end
Ð°Ñİ ÑĤ
ok en
n s
Ġde veloper
ĠÑĩ ÑĤ
ing ly
z z
ĠĠĠĠĠĠĠĠ ĠĠĠĠĠ
19 7
Ġmat ure
Ġemot ional
Ġd ream
Ġother wise
ous ly
ĠT ra
Ġtreat ment
S mart
n ed
Ġsm oke
à¸² à¸
ĠÐ¼ Ð½Ðµ
Ġtest ing
Ġm ount
ic ks
ĠÐ´ Ð¾Ð»Ð¶
Ġhe llo
ur ity
Ġun f
Ġse c
Ð¾ÑģÑĤ Ð°Ð²
Ġmed ic
Ġhapp ens
âĶ Ģ
Ġse u
Ġanswer ing
ĠÐ¿ Ð¾Ð¼
Ã ¹
h as
ple te
ura cy
ro te
ĠU K
Ġsym pt
Ġo w
con st
Ġsit ting
Ġgl ass
ĠT R
Ġhelp ing
Ġs av
Ġoffic ial
ë Ĥ
Ġsepar ate
or ds
ĠÐ» Ñİ
Ġdir ty
k an
Ġind epend
Ġplay ers
Ġ ÙĦ
Ġwer den
éĹ ®
Ġc ab
Ġf et
pos ition
Ġd aily
ÑĦ Ð¾ÑĢÐ¼
Ġshow ing
c m
ric a
Ġadv anced
Ã¶ n
w rit
l en
Ġgu y
Ġrestaur ant
. The
a ign
ìļ Ķ
b a
ic ing
Ġv an
Ð¾Ð· Ð´
Ġhim self
ĠOb ject
ib ly
ÐµÐ¼ Ñĥ
' est
ĠG od
cre va
ĉĉĉĉ ĉĉĉĉ
ograph y
M M
is p
_ T
ri os
Ġpr on
Ġexpl an
Ġass um
7 9
ĠM odel
Ð°ÐµÑĤ ÑģÑı
Ġdevelop ed
ar ks
ÐµÑĤ ÑģÑı
Ġtrans port
ĠWh ile
Ġp ap
Ġcell s
1 10
Ġcom fort
Ġpas sword
N ot
Ø ¬
Ġd ry
Ġprim ary
Ġb illion
Ð» ÐµÐ½
Ġbra in
Ġcon clusion
ph as
Ø§Ø ª
ĠÐ ĳ
Ġprob ably
Ġn ur
ĠS afety
Ġstru ct
Ġson o
Ġsuggest s
. )
ativ ely
Ġcent er
Ġcre dit
Ġap ples
Ð°Ð» Ð°
ĠF alse
c al
ĠÐ £
Ġa uch
Ġeth ics
ru cture
ĠS ales
ĠRuss ian
. A
Ġe gg
i h
Ġdec ide
Ġs ont
ĠN E
Ġmot iv
indow s
Ġeff ort
) )Ċ
ĠT ime
Ġes pa
Ġscient ific
Ġbelie fs
Ġfaz er
× ª
co ver
Ġhorn y
ĠA g
ĠÐº ÑĢ
Ġsm ile
om an
Ġar ri
Ġsm o
Ġflo at
æ Ģ
en ge
Ġhum or
ĠEx tract
ĠcÃ³ digo
ĠP M
Ġwho se
enc ies
å Į
le ar
ĠT ype
ĠIn clude
x t
ĠH uman
p erson
ot t
on a
Ð¸Ð¼ ÐµÑĢ
ĠCh ar
Ġpop ulation
ĠÑĤ ÑĢ
Ġexper iment
tic a
£ ¼
é ĩ
ĠÃ© t
Ġint ended
l ier
e qu
Ġdep end
Ġh uge
w ort
Ġw at
8 9
l ig
Ġb ath
Ð³ Ð¾
Ġ-- -
Ð³ ÑĢ
Ġelect ric
Ġoff ers
ÐµÐ» Ñı
Ġopin ions
Ġdef ined
ĠRes ponse
P M
Ġs ie
Ġad vant
ĠÐ½ Ð¾Ð²
h ou
er ve
Ġhac er
Ġsh own
ĠS ynt
att le
Ġprinci ples
Ä ĥ
ĠP ort
Ġsim pl
Ch ar
osp ital
Ġ( '
Ð¾ Ñı
Î º
Ġexec ut
Ġwor th
- re
Ġo il
Ġgener ating
" }
ic ian
Ġhe at
Ġre ferences
Ġin j
Ġtom orrow
Ġd ar
**** ****
7 6
å ¹
Ġch air
ìĿ ¸
G B
if ically
Ch ina
Ð° ÑĪ
Ġd rag
Ġë Ĥ
or ia
Ġemploy ee
¤ ĺ
AB LE
Ġquer ies
Ã ²
Ġpie ce
Ġpict ure
Ġminim um
Ġv ac
Ø§ Ùħ
Ġloc ated
I O
Ġm ast
Ġb ill
Ġpret ty
ëĭĪ ëĭ¤
ç §
Ġdo ctor
or ch
è ¡
phr ase
Ġmaterial s
el p
ĠC ar
ens es
Ġcomp ar
ĊĊ ĊĊ
az ine
Ġselect ed
P O
. '
v oid
as se
Ġbed room
ĠÑĩÑĤ Ð¾Ð±Ñĭ
Ġconcept s
Ġpr ices
Ġob ser
Ð¾Ð´ Ð°
Ãª n
,,,, ,,,,
Ġeduc ation
so le
_ S
j o
angu ages
ĠEng ine
res ents
ĠE X
ĠS ub
Ġë ĭ
Ġemp res
ĠS outh
ci ence
ä» Ģ
Ġw ir
th ough
ÑģÑĤ ÑĢ
+ y
Ġf irm
con s
Ġrel ig
ëı Ħ
Ġtr uth
Ġtri ed
b ar
ĠY eah
ĠÐ° Ð½
ĠA G
Ġbut t
Ġinput s
Ġp y
Ġg od
m itted
ÑģÑĤÐ² Ð¾
ĠDe velop
ĠF rench
Ġdec ided
n am
ĠG et
ĠDo es
T A
Ġcour t
ĠGr oup
Ġar gs
Ġhelp s
Ġem erg
Ġprocess ing
Ġrelationship s
Ġmiss ing
Ġact ing
m odel
ĠJ an
ci pe
id os
Ð¸ÑĤ Ðµ
Î¿ Ïħ
Ġem o
Cl ass
ë¦ ¬
Ġinte ger
Ġear th
Ġc ook
Ġco ffee
z t
ìĭ ľ
Ġlaw s
Ġann oun
Ġd ass
per t
V ID
Ġp ra
N O
ve y
ĠY ork
Ġwindow s
ĠA c
ĠP roduction
Ġbel ong
it ary
Ġus u
oy al
AN D
Ġc art
ĠAdd itionally
edu ct
Cont ent
Ġb on
ĠFr ance
Ġd ynam
E Y
Ġoper ation
Ġtyp ical
P UT
ount ry
ĠÑĤ ÐµÐ±
Ġstand ing
Ġt ables
Ġsim ply
ä» ¥
( (
Ġne ighb
Ġser v
Ġprec is
i ance
Ñĥ Ð±
ĠF ind
c il
Ġw ood
Ġn ational
Ġad apt
Ġest im
', '
Ġreport ed
Ġthem es
Ġconf l
å ĵ
Ġt a
- F
Ġs igu
Ġc ert
ĠÑģÑĤ ÑĢ
Ġ íķ
Ġt ro
Ã¤ h
Ġfil led
Ġcomp are
Ġsp read
Ġfre ed
et ime
ĠB ased
Ġk it
Ġma x
ìľ ¼
Ġc iv
Ġc rypt
Ġl ie
" .ĊĊ
áº ¡
ativ a
Ġdefin ition
D escription
Ġimm oral
on na
ra py
ter m
- T
Ġmon itor
empl o
Ġf ig
ĠW H
Ġt our
ff ic
Ġdec isions
con ds
A pp
h ost
Ġfollow ed
Ġframe work
Ġcl oud
Ġphot o
Ġanim als
! "Ċ
Ġreg ion
ĠAp plications
y a
Ġcost s
à¤ °
Ġan imal
ĠS at
Ã© r
ent ify
und o
ONT ENT
ĠD ie
Ġinter face
Ġboy friend
Q Q
Ġf air
Ġb er
8 1
al a
Ġc ast
ĠN umber
. C
Ġd iction
Ġch ance
Ġcoll abor
anc ing
Ġgu ys
Ġm ur
Ġê ²
c raft
Ġt ight
ron ic
Ġpack age
Ġpro d
app ropriate
Ġhig hest
ä»Ģ ä¹Ī
l s
Ġexplan ations
Ġcl ick
Ġm ut
Ġappear ance
ĠApr il
Ġg pt
et er
ĠD el
6 00
ĠI ch
Ġw a
Ġt ail
ens ions
Ð°Ð¹ ÑĤ
Ġimport ance
Smart GPT
ĠDe f
ab et
Ġs ustain
res h
Ġrep resents
ĠÐ ĵ
Ġc ore
Ġinit i
ĠÐ· Ð°Ð´
Ġact ive
Ġgre ater
_ P
atter y
Ġre lease
ĠÐ´ Ð¾
ism o
y ond
Ġle d
Ġser ve
Ã§ o
Ġlog ic
Ġc atch
Ð°Ð» Ð¸
ĠS ec
Ġst age
ĠEurope an
Ð°Ð¶ Ð¸
Ä Ł
ĠÐ¼ ÐµÐ½
as c
im ited
st ate
h h
Ġpolit ical
% ,
Ġse a
z er
Ex planation
B y
ĠW as
ĠD ep
Ġpa id
ĠS et
f a
ant es
Ġreg ul
Ġeng age
Ġb es
19 6
ĠC our
al k
Ġv ot
00 1
Ġwrit er
Ġf ont
S QL
Ġcall s
Ġcolle ge
Ġhus band
Ġp ed
ĠM arket
_d ata
ĠJ u
Ġsol o
ë ¶
Ð¸ Ð¿
Ġein er
Ġclient s
. org
Ġexperi ences
Ġdise ase
Pro vide
E nt
Ð½ ÑĥÑİ
Ġintern ational
Ġhot el
Ġbal ance
Ġmay be
Ġj avascript
áº ¿
u ary
ĠT est
Ġbre ath
Ġr ating
But ton
on ym
Ġhe ld
UL T
Ġun iverse
Ġsl ight
Ġstru gg
Ãº mer
ĠMan agement
Ġoper ating
anc y
ĠØ§ÙĦ Ùħ
Ġtempl ate
ĠK ore
Ġopp os
Ġt amb
Ġwant ing
Ġagre ement
Ġs ad
ðŁ Ķ
Ġcult ure
Ġì Ħ
Ġab stract
Ġsupp ly
8 00
T rue
o pe
ativ o
z ione
Ġins ights
Ġn p
Ġl if
Ġindic ate
op en
Ġw et
ĠÑģ Ð°Ð¼
Ġinst it
ĠC E
ĠO R
Ġdire ction
vis ion
Ġout line
ed ia
Ġlin ks
ĠS un
Ġreg ist
O UR
Ġf arm
Ġn av
Ġl ang
Ġabs ol
Ġg old
Ġdes c
Ġcaus al
Ġvari ables
Ġing redient
Ġcontain ing
CH AR
ĠĠĠĠĠĠĠĠ Ċ
Ġpued es
> >
Ġsur face
Ġp ag
Ġra c
æľ ī
Ġap i
Val ue
re f
il os
Ġm obile
m osp
Ġsp an
on y
end en
comm and
Ġknow s
Ġev ol
icro soft
an ch
Ġm ill
Ġeffect s
h ola
Ġdanger ous
Ġsuccess ful
p ace
Ġhow ever
Ġmag ic
Ġv ill
ãģ ı
ĠÐºÐ¾Ð¼ Ð¿
Ġpand as
Ġprom ot
Ġcons ent
Ġcompon ents
du le
Ġcap abilities
Ġin appropriate
cont ext
Ġfant asy
ë °
Ðº Ð¾Ð²
Ġn ut
ĠIn formation
rel ated
Ġtrad ing
ĠM r
ĠF inal
ĠÐ´ ÐµÐ»
ÑģÑĤÐ² ÐµÐ½
Ġexc ited
G r
Ġorgan iz
H uman
it Ãł
Ġn ome
ag on
ĠF e
he nt
à¸ Ń
Ġex ternal
.j s
or ter
ĠG e
acion es
ic her
Ġth ick
N e
Ð £
re nt
ock ed
Ġengine ering
Ġpract ice
Ġconse qu
Ġespa Ã±
P C
por ate
Ġturn ed
Ġbro ken
he mat
m i
Ġsub s
a us
ë ©
in st
7 1
Ġê ³
S u
c or
Ġs ab
× ĳ
Ġg er
ÑĤ Ð¾ÑĢ
Ġpie ces
\ ":
ĉ C
Ġbec ame
Ġst uff
Ġal ign
or o
ust er
Ġsugg estions
ĠL ear
V E
Ġc i
Ġv ous
Ġreve al
Ġp esso
Ġd ates
St ring
o on
Ġlo op
ar g
ë ¬
Ġcar ry
ĠSynt hetic
ib r
ict ed
Ġup per
Ġdeliver y
Ñ Ĺ
Ġo t
ĠA tt
f il
Ġa plic
ĠAs sistant
é Ģ
W ith
Ġw rote
ĠÐ¿ Ð»
Ġpass ion
Ġg ender
O ver
å º
ĠPl an
å¤ §
Ġh idden
Ġl iv
Ġengine er
Ġl anguages
ĠA ir
ux u
Ġ" /
ðĿ ĳ
ĠEar th
Ġne ural
Ġinst al
Ġcamp aign
ĠS pe
18 0
Fr ame
le an
ĠRet urn
Ġma p
Ġob jet
Ġcompon ent
m ax
Ġspec ified
ĠDown stream
. h
Ù ī
Ġcom pl
Ġcl ub
sp an
Ġequip ment
an Ã§
Ġprof it
ĠUp stream
9 6
ì Ĥ¬
Ġvol ume
Ġencou rag
Ġth row
Ġwork ed
ic os
P r
Ġarchite cture
Ð¿ÑĢ Ð°Ð²
Æ° á»
ĠO ver
AAAA AAAA
Ġacc uracy
Ġac id
Ġslow ly
j s
k l
ent ity
Ġstrateg ies
Ġp ul
ĠM arch
mer ce
ĠA M
à¸ Ļ
Ġint ention
Ġkey word
G et
Ð¾Ð± Ñī
pro cess
Ġinvest ment
ain s
ra ine
Ġme ant
Ġe ye
Ġbe i
Ġperson a
ĠUS A
Ġm ig
i am
Ġm ood
ĠP RO
Ġst ri
Ġbe yond
ĠR outes
ĠChrist ian
in ct
Ġn ach
ĠW est
Ġjo in
Ġgo ogle
uild ing
Ġj okes
Ġt ru
E s
ĠÐ Ĺ
LE CT
r ink
ĠY ear
ĠØ £
Ġwon der
Ġwe ak
Ġlar gest
Ġdeg ree
re me
Ġf ear
× Ĳ
Ġre venue
Ġser ious
Ġw all
ÑģÑĤ Ð°Ð²
As sistant
Ġfin ds
Ø ´
Ġfin ish
Ġreport s
Ġsympt oms
c um
ot o
Ġpro s
r ont
Ġy ang
C ons
n atural
at om
end a
U P
| |
qu ire
Ġtri ple
Ġconv inc
ĠÐµ Ð³Ð¾
Ġs ql
er ation
Ġinst ance
ate ver
els ius
è °
Ġqu otes
er cial
Ð¸Ð¼ Ð¸
F ile
Ġclass es
ĠG reat
Ġaltern ative
ith ub
res ult
Ġh urt
ĠC ap
{ '
ãģ ķ
Ġconf ident
Ġein em
ic he
-b y
S c
Ġde i
Ġfam ous
Ú ©
ent a
Ð¸ Ð»Ð¸
ĠW ar
ãĥ ³
D on
Ġy eah
Ġpre par
Ġcall ing
ĠD u
Ï ī
_ h
Ġc ens
áº £
Ġli ber
Ġcap able
Ġ Ã¡
Ġb ag
Ð¾Ð¿ ÑĢÐ¾Ñģ
A ss
Ð¸Ñģ Ð°ÑĤÑĮ
Ġsecret ly
Ġtechn ologies
N et
Ġc os
Ġde ploy
un ic
ĠRe c
ĠPres ident
- sh
S earch
Ġst atic
Ġment al
Ġsur round
ÑģÑĤÐ² Ð°
Ġo d
ur g
Ġenh ance
Ġr ich
Ġfore st
Ġbu ilt
Ġbott om
Ġle aving
Ġtell s
Ġstud ies
Ġv oid
ĠC ustomer
ĠSo ft
othes is
ell ent
ier t
US ER
Ġf oi
Ġassist ance
h am
Ðµ Ðµ
Ð°Ð½ ÑĤ
Ġd ivid
ab il
Ð¾Ð» Ð¾Ð³
H T
_ D
ì Ľ
Ġnot ice
ĠB est
aj e
Ġst aff
ĠB usiness
an z
Ġsche ma
Ġn aked
Ġz ero
ĠDes ign
ru pt
ash ion
u h
Ġfinal ly
ãģ ¾
Ġde cre
Ð¾Ð¼ Ñĥ
_f ile
( d
ĠPro ject
ĉ E
che ck
Ġold er
in et
Ñĥ Ð¹
Ġer a
Ġrequ ires
ĠF eb
Ġrem ote
Ġchar ge
Ġsub st
ĠÐ² Ð¸Ð´
Ġtr ade
.s et
f unction
em p
ĠÐ´ ÑĢÑĥÐ³
pect ed
Î ¯
res ponse
Ġint el
Ġì Ĥ¬
Ġb ien
11 1
Ġdru g
Ġacadem ic
AS E
Ð´ Ðµ
ĠAm azon
in king
ĠQ ue
ĠCl ass
h ouse
om a
put er
Ġst orage
ra it
ÑĢÐ°Ð¼ Ð¼
Ġa Ã±
Ġdi vers
( t
? ?
Î ¬
Ġbe gan
Ġman age
ĠO ut
Ġinter action
Ġsmall er
ĠS ure
ĠHe alth
ĠM ach
á» ĩ
W AY
æ Ĺ
ag ent
en ed
Ġprocess es
ĠO ther
if ier
_p ath
Ġsn ipp
Ġtk inter
f ill
Ġy a
Ġbas is
Ġst o
ÑĥÑİ Ñī
10 5
Ġcontro vers
p et
Ġat mosp
re r
Ġk ne
Ġimmedi ately
ĠÎ ¼
Ġì Īĺ
F irst
P re
Ġclear ly
ĠC L
UE ST
> ĊĊ
ic ed
ä¸Ń æĸĩ
é¢ ĺ
Ġab ilities
at ically
it os
ĠÑģ Ð¼
Ð¾Ð² Ð¾ÑĢ
Ð¾Ñģ Ñģ
ph one
Ð°Ð¶ Ð´
oun s
st ood
Ġlov ed
- a
ar ily
Ġbe comes
ĠU N
Ġwatch ing
( a
un der
S F
Ġform er
ĠU m
Ġc op
Ġcom plain
Ġmot or
. b
7 3
ĠJapan ese
B O
Ð¸ Ð±
ĠÑģÐ» ÐµÐ´
ĥ ģ
ĠAn al
wh ich
Ġdown load
åĲ į
Ñĥ ÑĪ
nd e
c are
ĠÐ² Ð¾Ð·
cl es
Ġf ish
Ġf ailed
ĠÐ¿Ð¾Ð» ÑĥÑĩ
Ġpract ices
isc hen
ion es
Ġcan cer
IN T
( $
/ Ċ
w er
Ġchang ed
. n
Ġdes ire
Ġë ³
Ġre cipe
Ġpro ceed
Ġchat gpt
ĠK ing
ĠÐ´ Ð²
ä½ł æĺ¯
Ð Ĺ
Ġwor ry
ĠRe quest
ang es
Ġthrough out
k i
Ġdevelop ing
Q U
j ud
Ġ ,Ċ
Ġopportun ity
Ġr atio
Ġthem e
Ġbusiness es
Ġattrib utes
c ut
y nc
å ¦
Ġg ro
re ci
Ġf aster
Ġsur v
w as
Ġa x
Ġfor get
ock et
gun ta
Ġg onna
uc king
Ġn g
ĠT ry
ĠFr iday
Ġn Ãºmer
Ġcut ting
Ġf an
gn ore
ÑĮ Ñİ
Ġlist ed
ĠM UST
h al
Ġs weet
Ġ ?Ċ
Ġfa ire
C D
ĠÐ¿ÑĢ Ð°Ð²
gr ad
re al
ĠR el
Ġdri ving
- n
Ġartic les
- of
Ġr h
à¥ į
ë ª
Ġp ip
Ġw arnings
Ġsh arp
az ing
Ġcould n
Ġel abor
Ġsim ulate
ĠCO M
ĠespaÃ± ol
I R
_d ate
Ø µ
Ġmil itary
( ).
"" "Ċ
Ġcrit ical
Ġscient ist
Ġw idth
Ġprob ability
j ob
Ġle aves
Ġdiction ary
Ġex change
Ġess ential
è ¦
Ġmechan ism
, China
Ð» Ð°Ñģ
Ġla ug
Ġobject ive
Ob servation
ic king
int e
Ã¤ r
ĠMan ager
\ '
od ay
tic le
- E
ÐµÐ» Ð¸
Ġmar ried
/ A
à¹ Ī
çŃ Ķ
Ġdri ver
B l
Ġvide os
ĠW ould
ĠÐ¿ Ð¾Ð»ÑĮÐ·Ð¾Ð²
ra f
Ġb od
Ġb omb
Ġfact or
ens ity
Ġposs ess
Ã¨ s
il er
ĠO ct
Ġim pos
Ġch annel
e vent
yd ro
Ġtrad itional
Ġhyd ro
Ñģ ÑĮ
- de
Ġc ual
c n
im o
Ġconfl ict
pos itive
Res ponse
ĠG erman
Ġex ceed
j son
ìŀ Ĳ
, NAME
ON E
Ġcare er
ĠRem ember
ĠCour t
Ġe c
Ġart ist
Ġ Ø§Ø
ĠS H
art ic
Ġclass ify
ĠÐ²Ñģ Ðµ
Ġcon struction
ĠÐ½ Ð¾
è ®
Ġchall enge
Ġparamet er
T O
Ġread er
Ġhon est
Ġ+ =
id as
Ġcl othing
Ġeconom y
ĠRuss ia
ado res
ĠÐ¾ Ð½
Ġd rop
Ġth r
ĠS im
Ð» Ðµ
ond on
Ġb and
Ġl ose
' un
m os
Ð¾ ÑĪ
Ġord ers
Ġopportun ities
ç «
Ġh ospital
Ġstre et
iv os
Ġro ck
· ¸
Ð°ÑĢ ÑĤ
M an
Ð¾Ð½ Ð°Ð»ÑĮ
c ase
ÃŃ s
Ġplay ed
ĠT w
ia o
Ġpropos ed
Ġsen ior
R et
ĠÐ· Ð°Ðº
ÃŃ as
Ġrecommend ations
iz za
Ġper o
ak t
S ystem
i ang
u an
Ġw id
Ġrel ation
ĠL anguage
ÃŃ vel
Ġbud get
p an
in ks
ĠÃ º
ro ot
ra ce
Ġform ula
Ġw ish
Ġt un
ac ing
ãģ ł
- e
× ©
Ð¸ ÑĢÑĥ
is er
Ġsee ing
Ġstrict ly
b an
rom e
Ġk g
Ð» ÐµÐ½Ð¸Ñı
Ġra ce
Ġaud io
ru it
Ġset s
co in
D is
Ġsh ared
Ġsp ir
^^^^ ^^^^
_ w
Ġaut o
p rompt
Ġwh is
Ġpurch ase
- NAME
Ġun less
Ġturn s
ĠC S
Ġremain s
Ġf lex
Ġspe aking
ĠO K
ier o
ĠÑĥ Ñĩ
Ġbrow n
Ġa y
å° ı
6 1
m ake
T otal
ili ar
Se lect
Ĩ Į
ĠD ec
Ġdi verse
AR CHAR
el a
ĠI l
p ath
Ġqu ot
Ñı Ð·
ĠCont ent
b ed
7 4
A p
Ġn uc
ĠM aster
se qu
Ġow ner
Ġa th
Ġli ps
Ġ× ĳ
Ġcu rious
I Z
Ġd ent
us hing
Ġstart up
ĠON LY
O ne
Ġbehav i
ĠÐ±ÑĥÐ´ ÐµÑĤ
Ġgramm ar
ä¸ į
ĠCont ext
å Ģ
Ġk new
Ġright s
Ġimplement ation
Ġear lier
Ġsk ill
ĠP ower
12 8
Ġs ummer
Ġkeep ing
C RE
EN D
Ġà¤ ķ
Ġdam age
z ie
Ġsub t
Ġteam s
ĠSt reet
Ġval or
Ġvari ety
C S
_ in
Ġwh atever
Ð¾ÑģÑĤ Ð¸
, âĢĿ
Ġc elsius
ĠU s
Ġreal ity
NN NN
en as
Ġfund ament
m t
al le
ĠTh anks
ĠM ore
ht ml
íķ ´
è ĥ
erm any
vol ution
pec ific
m as
10 2
25 6
Ġmeas ures
qu i
Ġch a
ĠE very
Ġbelie ving
Ġvict im
Ġmast urb
ke it
ĠP ost
Ġem phas
um a
pl oad
Ð» Ð°Ð´
ĠS i
Ġlead er
Ġsw itch
Ġdistrib ution
Ġa head
Ġru de
p ublic
Ġus age
Ġdiffere nces
ut sch
ÐµÐ½Ð¸ Ð¹
R U
P assage
i ation
Ġhigh light
ĠAmer ica
ÑĢ ÐµÐ´
æĪ Ĳ
ĠÐ½ ÑĥÐ¶
Ġvis ion
act ers
Ġe ating
en a
Ġst able
Ġsh op
ĠCl ient
ÂłÂł ÂłÂł
Ġspec ifically
Ġsk y
stru ctions
ne gative
Ġcharacter istics
Ġcent ral
g t
ÐŁÑĢ Ð¸Ð²ÐµÑĤ
O M
S et
Ġ× ľ
- H
N umber
ol f
Ġdef ine
ï ¸
Ð¾ÑĤ ÑĢ
ĠPro gram
Ġ ÏĢ
Ġc ry
Ġmov ed
Ñ Ķ
ĠP a
ìľ¼ ë¡ľ
Ġh ang
Ġst ation
au x
conf ig
Ã ¬
er ror
à¸ £
Ġ< <
O f
Ġb ur
ä¸ ª
Ġclos ed
g ot
í Ļ
Ġlin ux
Us ers
Ġatmosp here
Ġseg ment
C ode
Ġfol der
Ġfind ings
======== ========
cri vi
Ġtrans lation
uxu ul
ĠA WS
Ġn el
nt e
ĠLear ning
T ool
in ated
Ex tract
Ġopen ing
( c
Ġbenef it
) .ĊĊ
ra u
Ġsh ip
Ġdis cl
Ġap plied
inf o
-st ep
W as
æ ±
ad ow
ug gest
ê² Į
. w
ce mber
Ġb right
Ġquant um
Ġtip o
d is
Ġris ks
âĶĢ âĶĢ
Ø ·
am ing
Ġst ress
Ġst ars
Ġro ll
Ġsp ot
S ummarize
ĠÐµ ÑģÑĤÑĮ
Ġcy ber
Ġkit chen
ĠÐ¿ÑĢ Ð¾Ð³
Ġfl at
Ġfem in
Ġse conds
id ge
Ġo h
ill a
ĠIntern et
r ics
ë ŀ
ĠSer vice
Ġconstant ly
al i
Ġce le
w a
Ð¾Ð³ Ð´Ð°
, P
Ġh ous
ĠÐ §
Ġsem antic
ct ors
Ġang ry
un s
Ġsur pr
Ġm ine
Ġpe e
Ġrepl aced
It em
Ġconcern s
. D
r t
Ŀ ¼
Ġd ed
gre ement
Ġargument s
Ñ į
Ġcon struct
ĠJ e
Ġdirect ory
Ġclass ification
Ð¸Ð½ Ð°
ĠD id
Ġprof ile
Ġtod os
E vent
on de
Ġmat hemat
pl ot
ĠAp ple
os en
Ġr ough
Ġcl im
Ġexperi enced
U p
Ġcomplet ed
be it
A cc
ge b
Ġpair s
Ġ Ïĥ
Ġlay er
d b
ãģ Į
sh ow
ure r
Ð´ Ñĥ
Ġap olog
Ġfind ing
Ð¾ÑģÑĤ ÑĮ
è° ģ
ĠRe write
Ġlook ed
Ł ¥
tic s
A b
Ġo l
om et
Ġbre aking
v ance
um s
ĠS how
ĠA C
Ġpart ir
ĠGener al
ĠÐ±Ñĭ ÑĤÑĮ
edd ing
ĠJan uary
Ġsub miss
g unt
.s ize
Ġact s
Ġsuper natural
Ġbegin s
Ġm ission
S ize
arc her
I F
In ter
Ġcult ural
ï¸ ı
ĠB rit
ĠDes cription
Ġs oul
ãĤ ĵ
Ġacc ident
Ġmov ies
G o
r d
Ġ ```
Ġch ick
ĠH ave
ĠE N
Ġmod ules
Ġcol d
Ġch art
Ð½ Ñĸ
å ¸
ĠB er
Ġsp end
Ġtest s
Ġn as
. app
R ec
_c ode
Ġì ľ
Ġan s
Ġform al
Ġplan et
{ {
ĠS cience
ĠC re
Ġeffect ively
Ġall a
D R
Ġm ens
Ġprofess or
E E
z es
ĠH istory
ĠB o
Ġro t
à¹ ī
Â ¿
i ere
ittle GPT
R em
z o
in clude
in ux
um er
âĢ ¨
IT Y
Ġp ants
ĠWe b
/ t
Ġte en
Ġrepl ies
se m
ex cluding
Ġë ¬
Ġill ust
Ġpar k
S entence
p ass
Ġpart ies
Ġident ity
Ġnom bre
ro y
Ġì ĺ
Ġan c
os ing
Ġv ent
Ġcre d
Ġspec ies
Ġwill ing
Ġnet works
Ġc ash
Ġ( Ċ
Ġcomm ercial
Ġstand ards
8 6
Ġw arn
Ġre nt
ex plain
Ġprevious ly
Ġinterest s
Ġtrans cript
Ġcontrovers ial
Ñĭ ÑĤ
Ġz ur
Ġand roid
Ġwe a
Ġgrow ing
Ġv acc
Ġlar ger
G ener
O W
Ġwas n
Qu ery
âĢĿ .
in ates
Ġst ick
Ġmark down
arr ay
Ġa ux
Ġp urs
ed e
Ġmat rix
Ġun its
gr ade
ĠHe y
R L
] (
id ents
Ġlimit ations
her n
ci pl
Ġguid ance
ul ated
ell s
S cript
ĠÐ ¯
H ola
ar gs
Ġtit les
m ark
Ġconf ront
pl an
ab ric
Ġnot es
Ġj u
Ġwal king
Ġsist ema
Ġr an
ĠÐ½ Ð°Ð·
Ġupd ated
9 4
Ġd ados
Ġcompet ition
= Ċ
ĠP rompt
Ġchang ing
Ġrow s
Y Z
es ome
M AR
is a
à¹ Ģ
ro t
Ġê ¸
er r
Ġp ush
f Ã¼
Ġfr ase
Ġs arc
Ġb ow
Ġret rie
Ġoppos ite
8 3
â Ĥ¬
ĠÐº Ð¾Ð´
Ġcar s
Ġdoll ars
z ing
ĠÐºÐ¾ÑĤÐ¾ÑĢ ÑĭÐ¹
Ġbirth day
ĠL T
Ġrese archer
N one
Ġcont roll
ÃŃ t
- com
å į
ch t
ĠÐ¿ Ð¾Ðº
Ġtre es
Ġplay ful
ĠÎ µ
ult ure
Ġed ge
Ġhealth y
ĠÐ² ÑĢÐµÐ¼
Ġtrans actions
at as
Ġcapac ity
n el
Ġbig gest
h ood
l abel
ĠE nd
Ġsens itive
ult i
Ġsnipp et
ra id
Ġeval u
i ans
Ġc in
Ġh all
Ġg est
Ġad vert
OR E
od er
19 2
vert ed
Ġrequire ment
E l
à¸ ģ
ĠAl ways
8 7
Å ¡
ç ī
Ġapplic able
ĠÑĤ Ð¾Ð»ÑĮÐºÐ¾
ri f
ãģ £
Ġjob s
T itle
p ython
Ġb ought
ĠS earch
ĠO f
Ġcol ors
Ġs ports
ang ed
Ġ Ùĩ
he l
h ai
pos es
Ġwait ing
Ob ject
Ġres ume
Ġper mit
Ð°Ð½ Ð¾Ð²
ĠUk raine
- v
m ar
} .
ĠU sing
ĠÐ± ÐµÐ·
ri er
Ġapp oint
æ ī
Ġk om
"" "
ilt ered
Ñĥ Ð»ÑĮ
Ġw ird
Ġd ick
ag en
' ],
Ġc oun
Ġi hre
Ġdat os
ut il
C A
ìŀ ¥
g ers
Ġap art
Ġlist a
Ġclin ical
ĠSt ud
B elow
is hes
Ġl oyal
Ġintrodu ced
ĠâĢ ¢
Ġse lection
Ġapp reci
19 5
Ġlab els
pl ies
Ġvul gar
P A
ĠA ug
Ġl ack
and a
Ġent ry
ÐµÐ» Ð¾Ð²
ific ations
lic he
P roduct
Ġli qu
Ġcomb ination
ĉ V
Ġy ellow
now ledge
Ġt ou
Ġt aste
Ġpart e
clus ive
13 0
Ġappro xim
ĠÐ¼ÐµÐ½ Ñı
G E
Ġt ips
Ġun able
Ġti ene
Ġtrans l
ìł ķ
Ġus ando
Ġlog ical
Ġput ting
ĠÐ¸ÑģÐ¿ Ð¾Ð»ÑĮÐ·Ð¾Ð²
Ġin cl
Ġu h
ay ment
ain er
g enerate
[ ]
w ear
Ġv end
å ĳ
Ġsh irt
Ġbra ck
åĽ ŀ
B A
Ġse es
ĠH and
ĠAustral ia
s ub
Ġf ed
cc iÃ³n
Ġsex ually
Ġperform ed
oc king
Ġclaim s
à¤¾ à¤
Ġexerc ise
_ NAME
ur l
Ġmen u
L oad
ĠJu ly
Ġ ~
Ð¾ÑĢ ÑĤ
lic hen
ĠÙħ ÙĨ
Ġhistor ical
ĠÑĤ Ð¾
Y Y
Ġtra v
Ð ĳ
Ġv ag
Ġne ces
Ġar ms
pu esta
Ġon to
Ġun known
Ġdi ed
Ġc raft
Ġp es
Ġcar bon
_t ime
Ġremov ed
Ġd ell
ĠO ld
ä ¼
Ġph ilos
n ov
ut ter
Ġus ar
pos it
Ġref ers
Ġcaus ing
ic ated
yp es
go ing
- th
Ġf ib
un to
Ñİ ÑĤ
14 0
æ Ŀ
Ġmin ute
. add
Ġallow ing
an ing
Ġte ch
Ġhum ili
Ð ĵ
Ġsigu iente
Ġciv il
ĠÐ ķ
Ñĥ Ð²
ĠF ROM
Ġk illed
o ber
ru ary
ĠRes pond
- term
Ġt ar
de vice
AN S
Ġlo an
F inal
Ġ ice
ðŁ ĺ
Ġbath room
" );Ċ
al low
Ġcons cious
Ġve ctor
y o
ĠC ON
Ġp ac
a ix
en u
Ġeval uation
ĠRep ort
r m
9 3
ĠW indows
. *
if orn
p roduct
Ġcas o
od o
Ġam azing
Ġtri es
Ġun iversity
ĠÑĢÑĥÑģÑģÐº Ð¾Ð¼
/ b
A m
Ġcontin ues
ãĢĤ Ċ
Ø ®
ĠB r
pon ent
D B
ãģ ĵ
Ð°Ð½Ð¸ Ð¸
â Ī
Ġestab lish
Ġg ard
ĠC are
Ġ& &
Ġnav ig
Ġh ay
Ġpre pare
Re write
Ø ²
Ġmet al
í ĸ
ĠA ng
ĠL ondon
ĠÃ ª
Ġpur poses
ĠÐµ ÑģÐ»Ð¸
. ex
ä ¿
Ġterm inal
h ab
Ġform s
ec ause
ÐµÐ½Ð¸ Ð¸
Ġexc el
Ġfore ign
éĹ® é¢ĺ
âĢ ĭ
Ð¾Ð² ÐµÑĢ
Ġdep art
ĠIn s
ä ¾
Ġde pth
Ġmel hor
i ant
ĠÐºÐ¾ÑĤÐ¾ÑĢ ÑĭÐµ
Ġconf idence
Ġfreed om
Ġslight ly
D S
Ġhy per
' a
á» Ļ
ĠM icrosoft
Ñĸ Ð²
ê³ ¼
Ġ ]
Ġm ol
ĠS en
Ġattrib ute
C R
k o
en ame
oo ks
Ġcontin ued
respect ing
Ġsent iments
Ġrele ased
ĠDevelop ment
Ġm ort
g ame
Ġsus p
s l
Ġhyp othe
à¥į à¤
ĠS an
Ġtra ffic
Ġann ual
Ġqu ando
Ġcre ation
ĠW ill
Ġpre ferences
Ġsol id
ĠN ote
il k
ĠÑĢ Ðµ
Ġcod igo
D et
O h
Ġlead s
ist ry
ĠU nder
ĠV ARCHAR
_ ID
Ġd f
ĠCom o
b aj
ãģ Ĩ
Ġend s
Ġf u
Ġbig ger
Ġdes pite
Ġreturn ed
Ġd ram
l am
Ġhe l
à¸ ±
ĠRe ad
à¤ ¿
Ġdel le
ten ance
Ð¸ÑģÑĤ ÐµÐ¼
ĠÙģ ÙĬ
Ġsu dd
ER S
ìĦ ±
el es
ist e
R ES
m essage
à¥ Ģ
Ġbro ad
Ġmag azine
Ser vice
Ġs Ã©
Ġte cn
qu er
ra v
ress ed
WAY S
Ġsh ot
Ġapp ropri
B S
Ġt ill
Ġd ur
Ġn i
Ġre phrase
ant er
ĠB ank
ĠL o
is che
Ġcol lection
Ġcorrect ly
Cl ient
Ġaf raid
Ġpi Ã¹
Ġbl ank
çĶ Ł
is is
ĠH T
Ġpo or
Ġgra v
S p
A fter
Ġdeterm ined
k g
Ġqu ote
form at
at in
êµ Ń
C P
ut ely
Ġequ ation
Ġre fere
Ġst ro
if orm
ĠB E
Ġinf rast
Ġinter actions
Ġmed ium
ĠRE G
qu ired
ĠInt e
#### ####
ĠÐ¾Ñģ Ð½Ð¾Ð²
ĠA greement
Ð² Ð¾Ð´
iven ess
Ð°Ð» Ð¸Ð·
Ġrem arks
Ġco verage
Ġdiscuss ed
Ġep is
Ġpl ug
Ġs ul
ĠÎ ±
Ġnorm ally
ìĿ ´ì
Ġimag ine
ĠCE O
at ura
Ġpl aced
olog ia
e le
Ġd il
am ine
Ġmil k
ç Ľ
Ä± n
Ġsmo oth
t i
Ġto do
Ġrom antic
Ġb attery
Ġas ian
ĠP DF
ĠÐº Ð¾ÑĢ
Ã³ w
Ġâ Ķ
Ġclos er
Ġbe ach
Ġ( "
Ð°ÑĤÑĮ ÑģÑı
Ġfocus ed
vent ure
P Y
Ġre in
ify ing
ĠZ e
re nd
Ġv a
Ġsk irt
ä¸ º
A CT
og en
Ġmo on
Ġconsider ing
................ ................
ĠÐ Ľ
Ġch am
ĠÑ ĸ
Ġinflu ence
Î Ń
ĠL og
ĠÐº Ð¾Ð»
99 9
ĠSer vices
Ġh ug
od ing
enc ing
Ġeff iciency
b u
á» ĳ
Ġc sv
Ġv ivid
a o
Ġcir cum
f ig
Ġres posta
Ġn or
§ Ħ
pr ice
ĠÐ»Ñİ Ð±
est e
_t ext
rim id
- qu
. M
ĠWh is
> ,
ĠD em
ro le
ĠD ire
ĠE d
Ġsett ings
Ï Į
ĠT erm
ester day
Ġtrans action
R S
Ġb are
Ġfing ers
ĠE S
Ġmo le
~ ~
Ġin ner
Ġdocument ation
Ġt weet
Ġm ild
ĠUS D
Ġappe ars
Ġimplement ed
Ġadv ance
_s ize
Ġbo ys
iforn ia
Ġen em
ĠÑıÐ·Ñĭ ÐºÐµ
( b
em ents
Ġqu Ã©
act ive
Ġpol ite
Ġreal istic
Ġsw ear
Ð¸ ÑģÐº
ĠP H
Ġun o
Ġrel ative
ÑģÐº Ð°Ð¶Ð¸
Ġsit es
Ġmove ment
L td
e v
Ġant i
ing er
Ġrec urs
Ġfil ters
9 1
ent es
Ġprogram s
Re ad
Ø Į
un c
Ġv el
Ġfol g
Ġprincip al
Ġp ad
I E
Ġs elling
Ġcon sole
ĠÐ¸ Ñħ
ĠÐ¼Ð¾Ð¶ ÐµÑĤ
Ġempres a
ag g
" ;Ċ
et e
Ġlist en
Ġ× ©
Ð¾Ð» Ð½
8 2
F O
Ġal ph
ÐµÑģ Ñģ
im m
Ġeas ier
Ġparticular ly
o ice
``` ĊĊ
Ġdru gs
Ġb urn
ed nes
Ġcomp act
Ġpo ol
ot a
Ġwebs ites
IG N
ë ħ
Ġe en
Ġsee k
ĠB oth
Ġbe m
Ġdif ere
Ġë ¶
ĠN on
aaaa aaaa
r ateg
Ġk Ã¶n
Ð¼ ÐµÐ½ÑĤ
Ġsudd en
et her
ĠS ummarize
ĠL ead
Ġbound aries
. r
y y
Ġs el
Ġse ctor
Ġnuc lear
Ġcateg or
T able
Ġb at
Ġl Ãł
Ġtick et
Ġl abor
os c
ell en
ĠIntern ational
g ment
Ġg ay
Ġfun cion
Ġf ucking
ĠO nce
ĠÃ ¤
16 0
ellig ence
Ġunder stood
Ġrac ist
en vol
we ight
Ġpos itions
Ġâ Ĥ¬
oc o
Ġpe ace
ĠÐ² Ð¾Ð¿ÑĢÐ¾Ñģ
Ġk id
ãģ Ĥ
Ġmodel o
Ġt eng
Ġs ou
Ġì ĸ
" },
Ġim mer
Ġra ise
ĠĠ ĊĊ
åĲ Ĺ
Ġsh ut
Ġ! =
ra ined
Ġtra bal
Ġsho es
Ġcandid ate
' ;Ċ
os it
ĠCal cul
hold ers
Ġmist akes
Ġmor ality
ograph ic
ĠN ational
ir ing
- ch
in ds
is ch
Ġth read
Ġres um
Com m
Ġcommun icate
Ġsol ar
ãĥ¼ ãĥ
Ġl ingu
Ġcon cent
Ð² ÐµÑĢ
.l og
ĠId entify
or gan
Ġb attle
ÑĤ ÑĢ
Ġpub lished
å¦ Ĥ
G ood
ask et
Ġcomfort able
ish ment
ednes day
Ġd al
ĠÑį Ðº
/ h
Ġrun s
l as
Ġp ages
ĠY OU
C he
a ire
Ġpos so
Ġtyp ically
ĠPh ys
e f
n ames
å Ł
ter ior
PE AK
ĠS ocial
Ġun t
Ġpre gn
Ġc overed
ĠÐ¼ Ð¾Ð³
in en
ĠA ction
Ġrep et
ĠÑĩ ÐµÐ»Ð¾Ð²
Ġjour ney
\ x
Ġr ank
Re quest
ĠÐ° Ð²
ë ²
Ġin sert
Ġha ven
air s
Ġimpro ved
Ġis so
id en
Ġpass ed
re view
Ġc ette
ĠÐ¿ÑĢÐ¾Ð³ ÑĢÐ°Ð¼Ð¼
ĠÐ½Ð° Ñĩ
Ġs plit
Ġe arnings
im iento
ur day
Ġê° Ģ
/ S
G O
u j
ser vice
Ġdisc rim
Ġl yr
å ¾
Ġm ad
ĠChe ck
Ã© g
Chat GPT
le vant
Ġsh aring
Ġsubmiss ive
n ormal
åı ¯
Ġgr ade
Ġphot os
Ġk ing
Ġap ple
ĠSec urity
Ġsu ck
ĠÐ» Ð¸
Ġutil ize
Con st
Ġan atom
Ġm and
ĠP y
() :Ċ
Ġdefin it
. st
_ g
Ġas sert
du c
ĠÐ± Ð¾Ð»ÑĮ
èĥ ½
Ġt ien
Ġj og
ìĬ ¤
Ð¸ÑĤ ÑģÑı
Ġdin ner
Ġhypothe tical
Ð² Ð»Ñı
ÑĨÐ¸ Ð¸
ÑĨ Ñĸ
Ġh op
ĠB it
U I
c s
ì ĺ
Ġconst it
Ġwin ning
V iew
ì ²
Ġb oss
p i
wh y
ĠSch ool
Ġyou t
ĠÐ¼ ÐµÑĤ
äº º
Ġtw ice
19 4
ĠDe cember
Ġunf iltered
g irl
oc r
Ġ× Ĳ
Ġlog in
y les
ĠÑģ Ð´ÐµÐ»
. T
9 7
ol it
Ġextract ed
Ġt rig
Ġy o
Ġit alian
ĠÐ¾ Ñĩ
ĠSu per
i eren
ĠN orth
Ġv oc
ire ction
Ġtem por
Com p
Ġpap ers
ĠD I
b lic
ell es
Ðļ Ð°Ðº
ĠÑģ ÐµÑĢ
íķĺ ëĬĶ
Ã¶ ch
Ġsche dule
P ython
á» ĭ
w d
ĠTechn ology
Ġh ung
ÐµÑĤ ÑĮ
Ġz um
Ġsupport ed
ĠÐ¾Ð± ÑĬ
can vas
Ġcrit eria
Ġpued o
Ġh ast
un ge
un ning
ä½łæĺ¯ è°ģ
Ðº Ð°Ð·
Ġpres ence
A PI
ĠM O
Ġc row
Ġf ashion
Ġe arn
ĠC urrent
stand ing
Ġpattern s
, S
r um
Ġh ur
Ð½ Ñĥ
Ġro b
ues day
ĠðŁ ĺ
oh n
Ġt ent
Ġth ous
Ġf art
Ġres er
Ġtext s
amet er
Ġfin ance
Ġt iny
ìĹĲ ìĦľ
Ġ| |
Ġ< =
ä¸ Ĭ
ĠWor k
Ġtra baj
Ġph ase
raz il
f ind
e ur
in ations
Ġj ug
pt ember
Ġaut hent
Trans late
PEAK ER
p ack
em b
ĠAL WAYS
if i
The y
Ġoff ering
âĢĿ Ċ
vent ion
je ction
he y
Ġs es
el ess
ain t
åľ ¨
Ġn h
ãģķ ãģĦ
t able
Ġst im
Ġag g
Ġag ency
Ġheav y
ï¿½ ï¿½
ig ital
ĠB et
ĠSc ot
S ub
o ys
Ġs we
Ġr ise
) \
f w
em ale
_l ist
ad ata
ĠPl ay
Ġv ida
isc al
ìł ģ
ĠÐ¸Ð½ ÑĦÐ¾ÑĢÐ¼
Ġsist ers
Ġad opt
Ġcomput ers
Ġindepend ent
Ġst d
å¤ ©
r ated
ĠI P
ĠInd ian
i ences
l ines
l ands
Ġel le
Ġpe ux
Ð»Ð¸ Ñĩ
Ġsens ual
ĠK ey
Ġconf ir
Ġcr im
å ķ
on ic
as sword
ren ds
n umber
ra el
Ġcr ime
Ġmar ks
- N
p g
se ction
: '
ĠE R
ĠÐ¿ Ð¾ÑģÑĤ
Ġatt ra
W here
am in
Ġme jor
Ġver ified
Ġmat ches
Ġhyp not
æ İ
ĉ T
Ã³ g
Ġposs ib
Ġdisc ount
l ac
ro g
ãĤ ¹
Ġcare fully
Ġaw ait
Ġval u
FA ULT
Ġs educt
Ġagre ed
æ± Ĥ
Ġco here
Ġass ets
Ġresult ing
Ġre nd
ĠF rau
ĠBl ack
ĠIndust rial
s he
Ġan x
Ġrespon der
m ap
Ġn odes
ĠG ermany
Ġpr Ã©
L P
Ġw it
se c
Î ³
Ġfam iliar
aw s
Ġpued e
S ol
c ategory
Re g
Ġsec ure
% .
G ame
Ġdiscuss ion
Ù İ
Ġgood s
ĠM et
ĠHT ML
ĉ P
Ġs an
Ġfl ight
Ġident ified
Ġn ip
ĠCl oud
but ton
ëĵ ¤
F ind
az ioni
Ġsol l
z hou
Ð» ÐµÐ¼
ĠJ ava
Ġbl onde
Ġrecogn ition
Î ´
ĠT wo
Ġsp aces
Ġlearn ed
Ġw ind
gr oup
Ġeven ing
Ġperform ing
- on
Ġs and
Ġinf er
Ġcir cle
Ġpal av
Ġp ens
am ily
en za
Ð¸ Ñİ
Ġloc ations
Ġor ient
Ġdata frame
AC K
re c
Ġla unch
Ġë ª
Ġphys ically
fol io
Ġo m
Ġj a
âĢĻ ve
Ġb is
ec ut
ĠIN T
.t xt
? \
Y S
p age
Ġ" ",Ċ
est s
Ġsh ares
Ġrequest ed
Ġscen arios
Ð½ÑĭÐ¼ Ð¸
Ġgra b
N ote
M essage
k u
u ous
Ġsl ut
í ĺ
v ince
Ġun ivers
end ant
ud a
20 4
in ar
ol es
ÑĢ Ð°ÑĤ
Ġdes ires
Ð°Ðº ÑĤ
AG E
ĠP or
ĠM A
ĠF ace
ĠYou T
Ġpre p
Ġs y
Ġre ject
Ġhe s
Ġinfrast ructure
Ġfor ces
ĠB Y
ap ore
ĠS a
Ġsuper ior
Ġs ale
Ġm ich
Ġlim its
ĠÐ¼Ð¾Ð¶ Ð½Ð¾
ad ent
Ġ> >
ĠCons ider
ac ional
pro ve
Ġlyr ics
' ai
ÑĥÐ»ÑĮ ÑĤ
qu es
ĠT otal
ĠH ouse
Ġlet s
Ġfin ished
u Ãªs
ĉ M
og ether
Ġall oc
Ġattract ed
Ġign ore
U ND
n ake
Ġc ities
--- Ċ
Ġ ÙĬ
co pe
Ġanal yst
i Ã¨re
Ġn an
Ġ" ""
con nect
à¦ ¾
Ġimprove ment
Ġbod ies
ĠÐ½ Ð°Ð¿Ð¸ÑĪÐ¸
Ġbeaut y
ĠÑĤÐµÐ± Ñı
el er
e per
Ġl en
Ġl ands
12 5
ÑĥÐ½ ÐºÑĨÐ¸
ĠĠĠĠĠĠĠĠ ĠĠĠĠĠĠ
end ar
ib t
ĠV ocÃª
Ġinform aciÃ³n
ĠNew s
Ġpel o
ëł ¤
] ;Ċ
ir ts
Ġview s
à¸ ĩ
Ġthin ks
Ġsitu ations
le ft
Ġsub mit
Ġocc ur
Ġprote ction
Ġtem po
Ġê µ
Ð¿ÑĢ ÐµÐ´
Ġinteract ive
Ġcele br
C al
is o
ĠC ount
ox y
ĠSoft ware
P oint
as i
ĠÐ Ń
ag o
Ġdo gs
Ã¡ n
we b
uro s
ist ration
Ð°Ð½ Ð´
Ġund ers
Ġdirect or
Ð°Ñİ Ñī
Ð Ľ
Ġg ut
Ġsu it
Ġê ·¸
ĠE ven
Ġrespond ing
Ġhab en
r Ã©
ĠT ur
Ġdis cipl
do or
Ġgu ard
N S
g ust
Ġan ime
Ġrec ords
Ġcon he
ìļ ©
Ġme ine
ĠM ax
act or
Ġ×Ķ ×
i ol
Ġcit iz
l ocal
Ġsu cc
co hol
19 0
. x
Ġre ached
ĠO per
Ġexplain ing
Ġadmin istr
Ġannoun ced
se lect
ĠA ccess
fere d
ĠAs ian
å Ĵ
in ating
Ġ( $
Ġme u
Ġsh oot
Ġse ven
Ðº ÑĢ
Ġbr ought
ĠT able
Ġest ud
ëª ħ
Ġincre d
Ġbo ot
ĠFeb ruary
Ġc osa
Cons ider
r ical
Ġext reme
ah r
Ġsupport s
Ġansw ered
Ġinvol ves
-le vel
Ġd ut
Ġsc ores
ĠG ame
pro per
SF W
Ð¸ Ð³
Ġent r
Ġlist s
ann a
Ġvis ible
lo at
Ġbrack ets
ĠT ake
ig er
ĠD irect
cre te
Ġsw im
OR Y
Ġweek end
Ġteach ing
Ġsign al
Ġmur der
an ish
Ġf resh
Ġse ctions
ep s
Ġspe ct
AL L
Ġadvant age
B E
] )
Ã ½
arch ar
Ġj ump
ĉĉ Ċ
Res ult
Ġp in
Ġm undo
et ic
ìł ľ
Ġfoot ball
ãģĹ ãģ¦
ĠCent er
è¦ ģ
/ or
Ġz one
ĠN ever
Ġpict ures
Char acters
k in
ap ed
Ġver se
au f
Ġshow ed
9 00
p arent
Ġal go
Ġens uring
u it
Ġch amp
Im age
Ġf on
il der
ĠaÃ± os
æ ı
Ġp ink
ĠF ollow
ĠB re
Ġap artment
Ġassign ed
el n
ce an
Ġmod ify
ĠĠĠĠĠĠĠĠĠĠĠĠĠĠĠĠ ĠĠĠĠĠĠĠĠĠĠĠ
Ġco ach
Ġlight s
Ġben ign
à¤¿ à¤
9 2
Ġgener ator
ash ing
Ġsynt ax
Ġb low
ort e
Ġrap id
Ġconfig uration
ìĽ Ĳ
Ġent ered
Ãº n
UEST ION
ĠT ABLE
ĠÑģÐ¾ Ð¾Ð±Ñī
- py
. ",Ċ
j is
aught y
Ġdomin ant
e ach
ress es
ĠHe ad
Ġindic ates
à¹Ģ à¸
Ð° ÐµÐ¼
Ð» Ð¾Ð¶
Ð¸Ðº Ð°
Ġconsequ ences
b ase
Ġ rig
ic ial
D P
ar ge
est o
ab ul
Ġfunction al
ĠI V
Ġk m
Ġinvol ve
f ast
l ock
en z
Ġh und
im it
pr ing
Ġcrit ic
ĠCal ifornia
- like
A tt
ĥ Ŀ
Ġh ier
and e
Ã³ ria
Ġext ension
Ġon de
Ġcomp ly
ĠK EY
ik ip
æ ŀ
Ġn ie
ĠM at
ÑĨÐ¸ Ð°Ð»ÑĮ
Ġwel come
Ġne ck
Ġcont rast
Ġdet ection
Ġput s
xx xx
" ><
s che
Ġ )Ċ
ce ived
ud d
el d
con c
Ġencou rage
Ġ ]Ċ
Ġinform aÃ§Ãµes
ĠAn aly
wh ile
Col or
s ure
Ġt out
Ġtext e
in sert
ĠRep ublic
Ġ íķľ
Ġs ed
ĠA R
ĠÐ¿ Ð¾Ð½
cl ose
Ġattract ive
Ġc ours
is co
ĠI A
Ġdis cover
.app end
a per
t rue
ãģ Ī
ĠN ext
/ w
ĠS O
Ġcont r
Ġed gy
Ġpod cast
Ġìĭ ľ
ĠS up
. (
_ F
ĠE ast
Ġpresent ation
ĠÐ¿ Ð¾Ð²
ĠIt alian
Ġrepresent ation
l ocation
er as
Ġp ure
Ġwe ars
ind ed
á» ĥ
Ind ex
f ord
Ġst ocks
Ġmed ication
Ġless on
Ġcommun ic
Ġarous ed
Ġprom ote
æľ Ģ
Ġintegr ation
b ound
f ess
ĠT ask
ĠÃ ī
Ġen cont
ak ers
Ġclient e
Ġhappen ing
l ik
se x
ĠD i
ĠSt and
Ġdon n
Ġend ing
Ġmu ito
ĠĠĠ Ċ
ìĿ ¼
Ġegg s
Ġsu iv
stit ute
Ġb il
ind o
ĠÑģ Ð¸ÑģÑĤÐµÐ¼
Ġtre nd
Ġreview s
- pro
ĠÐ· Ð½Ð°Ñĩ
ĠSh ould
ĠÑģÐ»ÐµÐ´ ÑĥÑİÑī
ë Ĳ
Ġ ĉ
Ġshe ll
Ġco in
ug ar
ĠCan ada
ÙĬ ÙĨ
Ġexist s
Ġviol ent
Ġ Ùĥ
Ġre action
ra c
anÃ§ ais
ot ion
Ġap enas
Ã´ ng
Ġresol ution
\ ",
Ĩ Ĵ
Ġm g
ent y
bl ank
O pen
pen se
Ġsal ary
or ation
lor o
oo per
Ġare n
ĠP C
ĠB i
art e
ect or
Ð¾ÑĤ Ð¾Ð²
Ġyout ube
ME TA
ÐµÐ¹ ÑģÑĤÐ²
Ġemot ion
ĠMon day
ĠForm at
Ġv en
Ġob serv
Ġdef y
col umn
ĠÑĦ Ð¾ÑĢÐ¼
Ġdifficult y
B M
Ġf if
ĠD isc
L og
ĠA bs
Ġab ide
ĠA uto
Ã³ s
Ġpant ies
Ø ¶
Ġan tic
Ġes p
Ġcapt ure
ĠGl obal
ÑĢ Ð°Ð±Ð¾ÑĤ
Do es
Ġcri ar
( [
os h
o in
ME TH
Ġocc as
åı Ĥ
Ret urn
Ġper man
Ð §
ï »
Ġw est
Ġg al
Ġi h
Ġreport ing
/ lib
i endo
Ġspir it
* Ċ
S core
Ġp izza
Ð¼ Ð¾Ð¶
Ġ× ŀ×
Ã©c n
E lement
Ġd ance
Ġbe coming
Ġma il
[ Instruction
Ġe ll
hen yl
rodu ce
ret end
Ġarchite ct
ĠL inux
Ġautom atically
riv ate
ĠÐ¾ ÑĢ
Ġgr ant
Ġdec ides
- ex
S ome
´ Ģ
Ġf ell
ĠN ove
Ġde vi
Ġtechn ique
Ġenvironment al
F ollow
th at
Ġcont ents
Ġatt end
Ġtest o
Ġdevelop ers
Ġocc up
Ġmark ets
D O
Ġp m
Ġd ich
ĠKore a
ans ion
Ġdefinit ely
_ M
Ġret ail
ÐĿ Ð°Ð¿Ð¸ÑĪÐ¸
ĠÑĩÐµÐ»Ð¾Ð² ÐµÐº
le tic
ĠE U
Ðº Ð»ÑİÑĩ
Ġgener ally
cha ft
Q ual
ãĤ Į
urs day
S pe
T R
× ł
est amp
em ory
ĠP ark
ĠD a
. canvas
E ach
O ur
m ind
em e
por ation
Ġpriv acy
Ġ ..
Ġd ad
ant i
Ġhelp ed
" ]Ċ
% )
Ġm Ã¡
ab s
stru cture
Im agine
ĠAug ust
Ġw enn
im um
âĢ ĺ
ĠÑĤ ÐµÐ¼
m all
em os
ĠB ack
ĠE conom
ativ ity
ikip edia
: NAME
w hen
Ġthere fore
- L
ic io
Ġrel ax
ĠÐĿ Ð°Ð¿Ð¸ÑĪÐ¸
Ġboo king
ĠS ince
def ined
Ġhyp othesis
ãģ§ ãģĻ
ìĸ ´
Ġpow ers
Ġfig ures
S ubject
å ĩ
è Ģ
if ficult
ÃŃ cul
Ġf ake
Ġse in
ile t
Ġexc ellent
De f
Ġesse re
2 20
S PEAKER
Ġdes de
te e
ìĦ ¸
ĠÐ¸Ð½ ÑĤÐµÑĢ
ol ic
Ġro les
×ķ× ª
ĠD ay
ĠÐ² Ð¾
Ġmus cular
Ġevent ually
Ġassess ment
il o
Ð¸Ðº Ð¸
ĠÐŀ ÑĤ
ë Ŀ¼
at z
ĠP O
ĠL ittleGPT
-t he
ĠOr gan
Ġs am
Ġdes cri
, Model
ĠM ain
ign ed
vis or
ĠB razil
Ġess a
Ġregard less
Ġjud ge
ĠÃª tre
Ġth ro
Ð¾ Ñī
10 3
ĠÐ¼ Ñĭ
ĠSu pport
M ed
M ay
Ġon t
ĠD ES
cre en
Ġexp ensive
Ġdest roy
Ġfundament al
he it
Ðº ÑĢÐ°
ĠÑĤ Ð²
Ġdel imited
Ġcent ury
å¤ ļ
Ġll ama
B OT
c ity
i pped
Ġf are
ed y
Ġappropri ately
' .Ċ
ĠEx p
M od
Ġm erc
ot ica
Ġ" Ċ
ian o
Ġupd ates
Ġord ered
ç ¤
re w
Ġn aughty
Ġsp ent
-g ener
Ġconf ines
Ġphilos oph
F ive
b t
æ ¡
Ġc aught
Ġg ru
ë© ´
h ors
Ġrec ip
- R
Ġd oub
ĠÑģ Ð¾Ð·Ð´
ÃŃ n
Ġele v
Î ¸
ĠW el
ĠR oom
Ġar rest
ĠÑģ Ð¾Ð±
à¸ ¡
Ð¸Ñģ ÑĮ
åĴ Į
Ġof fered
Ġen able
Ġve z
ĠWhis ky
c io
Ġthe rapy
ay out
f ield
ĠÑĩ ÐµÑĢ
Î± Î¹
Ġfix ed
Ġwhat s
Ġany more
Ġinc ident
Ġdynam ic
ĠD ocument
Ġtri angle
ord ance
Ġobtain ed
Ġpro jet
ĠB uilding
ĠB ecause
ĠĊ ĠĊ
Ġinst r
Ġaccom pl
ĠYouT ube
ack ages
áº ¥
Ã ī
ìĿ ´ë
Ġsee king
ĠUn ion
Ħ ì
Ġconsist s
ĠMarket ing
m nc
ãĤ ¤
Ġpain ting
Ġl it
ri as
anc er
Ã¼ ck
ĠÑĩ Ð°ÑģÑĤ
Ġline ar
ĠSe cond
Ġappro aches
ĠF re
á» §
Ġprec ise
ÐµÐ´ Ð¸
ĠP al
ĠG PU
Ġjo int
Ġhtt p
ic er
ear s
ĠRes earch
Ġsignificant ly
Ġp ou
Ġsc an
Ġful fill
ĠD uring
Ã¤ nd
- j
Ġb anter
Ġy esterday
ĠØ ¯
Ġref use
ĠEn ron
Ġsho pping
Ġinstal led
ĠnÃºmer o
. P
o ir
Ġc ow
ang hai
Ġmot ion
Ġbrief ly
. de
A IN
Be gin
ãģı ãģł
im g
Ð» Ð°Ð²
kt op
Ġimm ers
Ġseduct ive
Ġl ived
ild ren
IST ER
m ask
ĠC ONT
ĠR est
Ġres ource
Ġdi et
Ġcy cle
ãģıãģł ãģķãģĦ
Ġ iron
åŃ Ĳ
Ġt ong
Ġhe ro
Ġcod es
ĠAN Y
Ġê¸ °
z ure
Ġc urrency
Ġcon ver
Ð» ÐµÐ½Ð¸Ðµ
[ META
Ġinf lation
Ġpal ab
ĠÐ¾Ð´ Ð¸Ð½
Ġvir gin
å¹ ´
Ġrecommend ed
Ġcod ing
Ð°ÑĨÐ¸ Ñı
Ġneighb or
. y
at al
Ġn erv
Ġde lete
å ¯
Ġcontext o
Ġprot ocol
_C ONTENT
> "Ċ
Ï ĩ
ĠSt ring
ens ored
ãĢ Ģ
ĠÑĦ ÑĥÐ½ÐºÑĨÐ¸
Ã¢ n
ĠBrit ish
l ie
Ġf ly
ĠØ ³
T C
im i
ĠS al
ĠM al
ud ent
ÑģÐº Ð¾Ð¹
Ġmain tenance
Ġequ ival
gunt as
i Ã§Ã£o
se curity
Ġaccur ately
IV E
_ r
Ġ ...Ċ
Ġs ull
Ġpro of
Ġdes envol
Ġla pt
Ġaccount s
h ar
è ĭ
Ġconvinc ingly
ĠÐ¿Ð¾Ð»ÑĮÐ·Ð¾Ð² Ð°ÑĤ
ĠS te
ÑĢ Ð¾Ð±
ĠB BC
ĠÐ¿ Ð°ÑĢ
Ġìķ Į
Ġa id
Ð» ÐµÐ´
ĠCOM MENT
Ġf rag
ĠTh ought
Ġrespect ively
Ġnarr atives
o ch
Ġmod o
Ġcol on
ĠØ ±
ç İ
Ġno ch
Ġproper ly
Ġmass ive
ĠSat urday
ĠE u
Ġocc urre
et ing
ul s
Ġalgorith ms
es se
ĠÑģ ÐµÐ±
ple x
Ġtod as
Ġfrequ ency
ë į
Ġve get
F alse
h and
Ġf ait
se mb
Ġpro ve
ĠÐº Ð°Ð¶Ð´
Î¹ Î±
ĠÐł Ð¾ÑģÑģ
Gr oup
Ġinstr ument
Ġc ant
Ġk on
ors hip
ĠFinal ly
I ME
an i
ĠN SFW
ient es
ĠÂ £
ĠDire ctor
il ter
Ġmin or
arr ass
à§ ĩ
oc he
Ġra in
ĠSp anish
Ġcomb ined
Ġinnov ative
V er
ĠÑĥ Ð¼
Ġjour nal
Ġportug ues
om ach
Ġdi agram
å ī
ĠB ar
à¤ Ĥ
z ed
ve is
Ġfact ual
-t u
Ġpod er
Ob j
ĠSE O
Ġaffect ed
Ġelabor ate
- related
= True
O ut
Ġ Ú©
ic ion
ent le
ĠĠĠĠĠĠĠĠĠĠĠĠĠĠĠĠ Ġ
Ġtal ks
Ġcontain er
Ġdist inct
ĠIs rael
empl ate
Ġd ess
ĠC up
Ġstr ange
Ġconst raints
Ġur l
as a
Ġlight ing
åŁ º
ific ar
n um
t hen
ĉ if
em per
Ġpre fix
Ġre v
ric an
ĠEn ter
Ð¸Ð· Ð½
ĉ NAME
Ñı ÑĤÑĮ
Ġhab e
Ġfail ure
å ·
ĠM ag
ide o
Ġbene fic
s pe
an ia
ĠA void
ind er
ĠÐ² ÐµÑĢ
åĮ º
Ġdrag on
Const raints
ne h
ĠEng land
7 00
E CT
m ain
× §
Ġit er
ĠP at
Ġper t
P H
ĠM ont
Ġpr ison
Ġfun ds
Ġconvers ational
Ġportug uÃªs
Ġobser ved
. ",
E A
Ġre ward
Ġfra ud
l n
é ģ
ÑģÐº Ð°Ð·
Ġmain ly
Ġj ava
ĠV ers
or se
Ġm ont
In st
Ġinn oc
ĠAcc ount
ĠC ome
Ġph p
Ġorig in
Ġlink ed
Ġtut or
Ġstruct ures
Ġemo jis
ĠE lect
Ġint imate
Ġc er
Ġf rench
am era
ĠD ist
oc a
Ġvehic les
r ut
Ġ ÙĨ
he ther
Ġsl ave
Ġremain ing
E ng
H elp
O k
AN G
Ġliter ature
Ġut ter
' ]Ċ
ar row
ĠEx per
it ors
U RE
ĠAs k
Ex ception
ifficult y
g ener
Ġcas ual
Ġmist ake
Ġy ield
Ġlead ership
ĠÐ½ÑĥÐ¶ Ð½Ð¾
Ġpro pose
Ġj s
ional ly
ĠLLM s
_ v
is k
Ġformat ted
O G
Ġst ack
Ġexpl oring
Ġpart ners
Ġsupp osed
ĠP rem
ĠM L
Ã¡ c
ĠÑĩ Ð¸Ñģ
Ġpron ouns
n ic
ent i
Ġth igh
am iento
ut os
ĠTw itter
. B
P rompt
c up
i pping
f its
Ġre verse
Ġcon stru
ir ty
Ġprodu ced
Ġchat GPT
ĠTe am
à¸ ¢
g le
Ġob lig
le vel
ocol ate
/ L
à¸ §
à¸ µ
Ġra ised
ik i
hol der
im p
Ġsh ift
ĠL ast
Ġes col
á» ģ
ÐĴ Ñĭ
R ID
Ġg ather
Ġformat o
Ġquest o
- r
ex ample
Ġrel i
à¦ °
ĠÑı Ð²Ð»Ñı
Ġf o
medi ate
Ġb esch
ÑĤ Ðµ
ëĤ ĺ
U sing
ÑĨ Ð°
val id
H S
ĠThere fore
Ġf alls
ĠW ednesday
Ġredu ced
L T
Ã¨ me
Ġapolog ize
y c
ru ct
Ġprom otes
Ġco vers
Ġfam il
Ġcod ice
Ġbott le
Rep hrase
Ã ĥ
ang ers
ÙĦ Ùī
Ġatt acks
Ġg erman
ex pected
ĠÐ¿ÑĢ Ð¸Ð¼ÐµÑĢ
Ġexper ts
Ġcontain ed
Ġvulner able
Ġp are
ason ing
- W
Ġun iform
av or
Ġpr Ã³
Ġpor que
Î ®
Ġd ann
Ġad vised
Ph one
Ġa jud
-t un
Ġdiff usion
' une
- be
ĠF ood
red it
Ġt ired
Ġc ro
Ġ" .
us amm
wor ld
gre es
ĠREG ISTER
_ input
am en
Ġdis cret
åıĤ æķ°
C urrent
æ °
Ġindust rial
Ġh ack
__ (
Ġcas a
m ates
ĠT EXT
Ġdo is
Ġdes ired
Ġinvol ving
Ġingredient s
P art
ĠIn vest
Ġra w
Pro ject
Ġcab inet
plic it
Ġ`` (
Ġd ating
Ġh ide
Ð² Ð¾Ð»
cho ice
ĉ B
em ploy
Ñĥ ÑīÐµ
Ġout come
cont rol
Ġemb arrass
ĠTrans form
íķ´ì ¤ĺ
U D
Ġh an
ĠD om
vers ion
Ġent ertain
ÃŃ st
ser ver
ho le
ĠCap ital
ic ar
Ġcomplet es
vers ation
red ict
ĠÎ º
Ð¸Ð» Ð°
× ĵ
ul ations
How ever
ĠNove mber
he ight
Ġcomm e
Ġfr anÃ§ais
Ġcu enta
Ġcrim inal
i at
Ġsh orter
10 8
Ġmost ly
ãĤ Ĭ
ĠÐ³ Ð¾ÑĢ
Com o
} {
Ä į
est ic
Ġ: =
p ie
Ġc amb
ĠT rad
Ġst ated
Ġar rive
Ġepis ode
" )ĊĊ
em ic
ĠÑĢ ÐµÑĪ
I ES
id get
ĠP o
âĢĻ ll
Ġâ Ī
Ġtransform ation
Ġcru cial
ĠS l
ĠB ras
Ð°ÑĢ Ð¸
po ints
_ e
ĠP ut
Ã© l
rit o
Ġcircum st
E nd
Ñĥ Ñħ
Ġpropos al
Q A
Ġb le
AT A
Ġplan e
è ¨
ĠL ong
gr ic
Ġincre ases
ĠAr ticle
Ġme ets
ĠÐ¸ ÑģÑĤ
Ġke pt
Ġimp ress
en o
ĠT uesday
ive red
ĠThe ir
Ġtem a
Ġpersonal ized
ĠC AN
ed ing
Ġwork ers
St ory
Ġprof iciency
Ġexpert ise
t op
¹ Ħ
Ġf abric
ĠD at
Ġtre ated
ĠAcc ording
Ġs port
Ġd urch
Ġl ock
Ġj ak
åĨ Ļ
Ġtamb Ã©m
Ġch osen
Ġimpro ving
Ġexc iting
Ġvill age
Ġvalu able
i Ã©n
or ig
Ġbe at
Ġphys ics
Ġult imate
i ot
Ġsp ell
com o
ĠÑĤ ÐµÑħ
ĠSe ptember
Ġchick en
Ġver d
19 3
ÑĨ ÐµÐ½
a fter
Ġscen es
Ġcoord inates
Ġunders core
d y
Ġw arning
Ġb order
ĠS ay
ĠJ ob
Ġag ents
app ing
Ġreason able
Ġhard ware
ĠÐ¿ÐµÑĢ ÐµÐ´
U ID
c ount
Ġw ave
à¸ Ķ
ater al
Ġpres ents
ĠComm un
ĠÑģ ÑĤÐ¾
Ġbit te
Ġsn ake
if ies
ĠH ome
Ġins pir
ĉ S
ĠIm age
On ly
Ð° ÐµÑĪÑĮ
Ġ" ,
Ñĭ Ð¼
ĠÐ¼ Ð¾Ð´
-m inded
l ights
æ Ń
Ġfor th
amb da
Ġpl ays
åŃ Ĺ
Ġproced ure
/ Action
= [
ĠÐ² Ð½
Ã¡ g
Ġdel icious
ym bol
Ġsupport ing
s hip
× ¢
Ġre ct
Ġse vere
åĢ ¼
( B
] ;
20 3
ĠPar is
Ġestab lished
W ER
o ption
Å ¾
Ġj et
Ġwe ights
ĠÐ¿ Ð¾ÑĤ
Ġexp enses
Ġinf l
ĠÐ¢ Ñĭ
re i
ĠD er
ĠH R
cl ient
Ġap resent
ĠÐ³ ÑĢ
Ġpay ing
ĠEm p
- play
A ut
ĠRe f
Ġsyn onym
ul ative
ur ther
our se
Ġbel ly
Ġwould n
.l ocation
Ġinvestig ation
Ġintel ig
ĠâĢ ¦
Ġaud iences
Ġj ed
Ġdatas ets
Ġresol ve
ĠObject ive
Ġm ater
Ġb ird
ur ous
Ġhe t
ĠAd min
Ġparticip ant
istr ict
L ine
Ġin ser
Ġmov es
Ġcompar ison
E ffect
t ask
ĠL A
Ġed itor
Ġth or
Ġfl or
ĠSun day
Ġorganiz ations
M AT
Ñı Ð´
Re f
T est
Ġm Ã©d
Ġsu gar
all o
ish ing
Ġwhen ever
Ġsp r
ãĤ ī
Ġmar gin
. ',
Ġ íķĺ
Ġp us
Ġusu ario
ë¶ Ģ
í Ĭ
he t
Ġc ats
Ġp df
Ġfor ced
Ġshe et
Ġrec over
Ġ( -
Ġele ction
Ġc ooking
Ġg ift
Ġpl ate
ĠCh ange
Ġbuy ing
Ġtr ouble
ĠSt ar
ĠÑĥ Ð´
ĠÐ» ÐµÑĤ
ÑħÐ¾Ð´ Ð¸Ð¼
L A
Ġu pload
ĠÐ¿ Ð¾Ð¿
Ġra re
app y
Ġabsol utely
- G
c ustomer
i ate
s fw
Ġm im
Ġcomput ing
O K
ĠM ac
be c
. I
T wo
Ġen f
Ġag gress
In structions
ÙĦ ÙĬ
Ġreal iz
rib ute
C ould
Ð ¯
Ġcontrib ute
ĠÐ¸ÑģÐ¿ Ð¾Ð»ÑĮÐ·
Ġw ine
nt es
Ġr Ã©s
Ġpl ants
Ðµ Ñī
Ġst ret
Ġch i
ap es
Ġcar ds
Ġmin ha
Ġorg asm
ë§ Į
ĠS S
Ġr ing
The se
. F
d raw
pl ays
ĠG en
ord ers
AI L
æĪ ·
Ġanc ient
' ĊĊ
( m
Ġs ig
ĠB as
ĠØ Ń
. --
v il
Ġconcern ed
é Ļ
ĠS om
Ġla v
Ġpe ut
ĠLe ague
ĠCO MP
ri or
Ġpre gunta
Ġenj oys
I B
Ġs ir
Ġsp ring
ÐµÑĢ Ð°ÑĤ
Ġsong s
T hat
w ide
ĠÐ± Ð¾Ð»
Ġdiscret ion
ĠÐ¿ Ð¾Ð·
Ġneg ot
Ġp s
ãģ į
Ġte a
Ø§ ÛĮ
Ġprem ise
Ġsu as
Ġk h
arm e
Ġtri al
âĢ¦âĢ¦ âĢ¦âĢ¦
S ch
ĠC oun
Ã¡ rios
Ġprovid er
Ġfil t
ĠìĿ ´ì
Ġb in
ad ing
Ġfl ag
Ġsur g
Ð¸Ð´ ÑĥÐ¼
ĠÐ¶ Ðµ
, H
I gnore
P R
d i
ut en
ĠS ex
.g ame
ÑĤ Ð¸
ĠO pt
Ġdep ending
-p ackages
ë¬ ¸
atas et
Ġn ation
Ġfant as
Ġmonitor ing
a fe
f ood
Ġt or
Ġg one
ĠL La
Ġsp ending
ĠSt ep
in ent
rag en
Ġton ight
abul ary
iss ions
Ġset up
ĠìĿ ´ë
Ġmanufact uring
re a
ri z
d et
Ġm ob
ĠN a
ĠN av
Ġres puesta
Ð² ÐµÑģÑĤ
ìĬ µ
abet es
) ?
u ber
Ġg ig
ĠP ay
form ance
L C
Ġn orth
ÑģÐº Ð¸Ð¹
" ;
k om
s cript
ÐµÐ½ Ð°
ĠSing apore
E st
w an
ĠIN PUT
L ocation
Y PE
. In
qu in
Ġsign s
Ø§Ø ¯
L OR
Ġn ative
il ot
em on
ph p
Ġt ur
all a
ĠEm ploy
at ar
Ġl unch
Ġfor t
ĠT ax
Ġeconom ist
Ġs ac
Ġv it
ĠV e
Ð¾Ñģ ÑĮ
Ġexec ution
Ġno ise
Ġimportant e
ĠPart y
f alse
ë Ł
Ġ .ĊĊ
am o
Ġtrans ition
Ġide al
Ġspeak er
wh ite
Ġunc ertain
Ġeffort s
ç ½
ri age
Ġr ide
ĠL os
ĠdÃ© c
Ġvac ation
Ġvot re
Ġhe aring
Ġsh it
Ġyour s
ĠSe ction
Ġconduct ed
Ġcont ra
og a
10 4
ĠÐ· Ð½Ð°
Î¹ Îº
Ġhistor ia
D D
P ath
U NT
Ġan not
ul ating
Ġint ric
Ġsem en
ĠÐ²Ñĭ Ð¿
ill ing
Ñĥ Ð³
ĠInd ones
b um
ple t
Ġcomp osition
Ġë ĵ
le ge
Ġex it
Ñı Ð¼
ĠÙĪ Ø§ÙĦ
ĠS U
Ġqu el
Ġspe aks
ĠÐ¾ Ð½Ð°
Ð± Ð¾ÑĢ
bb ing
Ġìł ľ
D id
Ġb asket
Ġcomp os
val ues
Ġtrust ed
f en
ext ract
ann els
s core
im pl
ĠB u
ĠE L
Ġarri ved
Ġh ip
Ġal cohol
hes is
Ġenc ounter
ĠOff ice
ĠÐ¿ÑĢÐ¾Ð´ Ð¾Ð»Ð¶
) The
. R
F OR
s ible
Ġc el
ĠL ike
11 5
up date
è¡ ¨
_ B
c d
Ġre new
Ġex emplo
Ġal though
Ġpar se
ĠSing le
å ½
ê ±
Ġex cess
åĲ ¦
ĠB el
Ġfunction ality
Ġopen ed
ĠCO VID
ĠVal ue
, C
Ġf asc
IN D
Ġadvent urous
Ġwa ist
ĠÐ²ÑĢÐµÐ¼ Ñı
Ġt ast
Ġche cking
Ġins p
Ġe cho
Ġmes mo
ii ii
usamm en
Ġn ous
und en
Ġaccom mod
Ġunc ensored
S A
le e
ĠR ES
ck er
è¯ ´
Ġeduc ational
ĠP oint
iz ont
Ġpr icing
Ġì ļ
ç« Ļ
ĠC A
ac king
ĠĊĊ Ċ
Ġnear ly
ĠÐ·Ð°Ð´ Ð°Ñĩ
V AC
å Ŀ
æ Ł¥
it ial
Ġch ief
Ġj est
": {"
bl ing
S O
n ie
ÙĪ ÙĨ
: ".
M I
Ġb old
ĠP atient
ful l
Ð± ÐµÑĢ
Ġqui et
d ep
Ġre form
ru ption
ont o
Ġreal ized
olog ist
Ġaut onom
= >
ë ĮĢ
ol der
ĠU RL
to ken
ĠÐ³ Ð¾Ð´
ĠTrans late
Ġgard en
Ġ ip
Ġl ung
og ram
Ġspec ify
ĠB ig
com fort
ub b
Ġmed i
Ġdisc overed
×Ļ× Ŀ
Ñı Ñģ
ĠÐ¿ÑĢ Ð¾Ð±
ĠÐ¿ÑĢ Ð¾ÑģÑĤ
ĠPe ople
g ithub
l ast
r ict
Ġinform ed
Ġest ate
Ġpers u
Ġme al
Ġinnov ation
Ġtru ly
Ġcan cel
Ġus o
ĠTh ink
ìĹ ħ
O ther
Ġs Ã³
Ð¿ÑĢ Ð¸Ð²ÐµÑĤ
Ġliqu id
( C
L U
Ġth us
ol id
ÐµÑĢ Ð°
** Ċ
Ġexpect ations
ĠDE FAULT
ãģ« ãģ
, '
P RO
l ong
an Ã§a
ĠD igital
Ġar qu
Ġreal ize
Ġdiagn osis
) (
s en
v y
ĠÐ¾Ñĩ ÐµÐ½ÑĮ
E C
u ing
Ġt Ã©cn
an ci
em as
/c ell
Ġadjust ed
( i
h ome
æ ¯
Ñĥ Ñī
Ġbr as
SE LECT
ĠB ox
IC E
writ er
aix o
ĠF ore
ĠRe al
Ã¤ n
Ġfour th
Ġrecord ed
' .ĊĊ
T ok
Ġd uration
ul er
un ci
Ð» ÐµÐºÑĤ
Ġconscious ness
R ule
Æ ¡
Ġw ur
Ġparticip ants
Ġcra zy
å ¿
Ġg li
Ġis ol
Ġso le
In fo
Ġlik ed
ĠBl ue
b est
Ġl ui
Ġdri ven
Ġstrong er
Ġprote in
ĠDep artment
¤ ĳ
put e
Ġte asing
ÑĢÑĥ Ð¿
ĠCon f
Ġpen et
Ġrelig ion
un te
Ġman ual
Ġrele vance
Ġho le
å¼ ı
ĠKing dom
Ġt rends
Ġpos it
ï¼ļ Ċ
( NAME
T hen
Ø °
Ġt v
Ġa ck
Ġhuman ity
Ġclos ely
Ġcon j
ĠM ost
Ġper mission
hor a
ÐµÐ½ÑĤ Ð°
Ġapproxim ately
Load er
it as
ind a
Ġexpress ions
Ġcompet itive
Ġb ib
ĠD rive
ĠÑģ ÑĢÐµÐ´
Ð¾Ð± ÑħÐ¾Ð´Ð¸Ð¼
Ġben ch
Ġvel oc
Ġlapt op
( p
it ement
Ġn ella
ĠT oday
Ġsub sequ
ĠUn ter
Ġpel a
2 30
ol s
ix el
Ġtal ent
Ġdeb t
âĸ Ī
Ġ( (
Ġse ja
og raf
Ġrespons ibility
Ġpain t
Ġcert ific
O ption
ĠT itle
os es
Ġexpl o
tic o
16 8
Ġbrow ser
W or
ĠC ong
Ġsm ell
Ġend ed
ĠSh ort
# include
, s
em ail
Ġwas te
ations hip
ç Ĳ
Ø§Ø ¨
Ġmanag ed
as p
Ġr id
ens ional
Ã± o
Ġmu y
CRE ATE
m al
æ į
Ġc ere
Ġde grees
ac ci
ĠM er
Ġincor por
ìķ Ħ
; ;
D AN
H ead
st en
Ñģ Ñĭ
Ġactiv ely
Ð ¤
Ġst ored
Ġv ie
Ġcor ner
Ġcar ing
Ġdire ctions
Ġsl ang
rid ine
Ð¸ÑĪ ÑĮ
Ġun ter
âĢĻ ,
Ġsuccess fully
Ġbe ar
Ġab er
Ġcont en
ap pe
ap hrase
Ġca ption
Ð¸Ð» ÑģÑı
Ġrecommend ation
" I
Ġfe e
ĠÐ³ Ð¾Ð²Ð¾ÑĢ
Ġsustain able
l ab
ÙĪ Ø±
rag on
ji ang
Ġsudden ly
Ġb inary
Ġg host
ĠV is
Ġent ailed
ĠTe le
ĠA uf
Ð°ÑĤ Ð¸
Ġke ine
Ġs amples
ĠM id
ib les
Ġconf usion
Ð¸ÑĤÑĮ ÑģÑı
Ġhor se
ac le
Ġbl ind
Ġent h
Ġconfirm ation
ĠÐ´Ð°Ð½ Ð½ÑĭÑħ
Ġflor ida
1 12
Ħ ľ
ĠB ay
Ġconf ess
Ġproblem a
ĠAnal ysis
m ate
ĠT u
Ġw anna
res se
à¸ Ħ
char ge
j u
m ay
è §
Ġt udo
Ġh oney
ri ble
Ġout fit
ãĥ Ī
Ġmathemat ical
B ER
u pt
are a
Ġdis co
Ġcre ates
IT E
Ġrepresent ing
Ġdig it
Ġmatch ing
Ġfet ish
3 60
? :
_ of
o z
Ġre b
Ġsend ing
Ġdesign er
Ġcr isis
ĠPh arm
Ġauthor ity
m itt
w ell
_m ap
Ġru b
iang su
C or
Ġd b
Îµ Î¹
ĠM i
add ress
ĠFace book
ĠBras il
Ġgr at
Ġdel ivered
" ),
ê ¹
ĠU I
Ġlet ting
_m odel
Ġclaim ed
C u
Ġp d
ĠIt aly
19 1
Ġdon de
.l ength
C RI
Ġs outh
ĠÐ ¤
Ġcl uster
Ġche cks
ĠTh ursday
fort un
Ġwor se
ick ed
Ġconsum er
QQ QQ
d el
Ġhor ror
C ount
] )Ċ
l ag
s is
em por
Ġsh ower
Ġpregn ant
ĠS k
Ġpol y
ĠBe gin
Ġste el
Ġhol ds
Ġc ooper
Ġsh adow
Ġse ar
+ )
ĉ D
Ġc ogn
ch ing
Ã© ri
Ġbelie ves
Ġ(' _
Ġhous ing
× ŀ×
Ġc v
ĠA us
Ġfe es
ĠÐ¾ Ðº
AS K
.p ack
T S
m atic
Ġse us
ÑģÑĤ ÑĢÑĥ
tic ks
Ġmet a
Ġadvant ages
MAR Y
M et
st d
ME R
Ġì £¼
IT H
Ġmanag ing
Res pond
Ġhab it
comp any
ĠOct ober
A V
O ff
í Ħ
Ġst ake
us ic
Ġdis pon
ĠÐ¼Ð¾Ð¶ ÐµÑĪÑĮ
ĉ F
ĠT ogether
ĠÑĤÐ°Ðº Ð¾Ðµ
Ġg an
ĠI II
Ġpro ces
Ġres et
ĠÐ² ÑĸÐ´
Ġes cape
no on
Ġìķ Ħ
Ġsp oken
Ġchar ged
Ġgr id
S how
Ġqu ad
Ã¡ tica
ÐµÐ½Ð¸ Ñİ
Ð¾Ð± ÑĢ
ai res
Ġang le
ç¤ º
Ġ[ ]Ċ
In s
ĠØ§ÙĦ Øª
Ãº blic
Ġsto pped
ay ers
st ell
ĠÑĢ ÐµÐ·
ĠRe ader
ĠCom puter
Ġpassion ate
' );Ċ
- Ch
w ater
Ġl uck
ĠD as
Ġch ose
Ġad ject
ne utral
Ġsp elling
ÐµÐº Ñģ
ill er
and er
Ġsi ÄĻ
Ġoffic er
c urrent
it i
ĠC y
ang ing
Ġser Ã¡
ĠAf rica
Ġs au
ah l
aur ant
ĠâĶ Ĥ
¯ ¸
Ġl ÃŃ
Ġde be
ĠL E
åĽŀ çŃĶ
× ¤
Ġpr oud
ĠâĢ ŀ
bl ack
Ġhealth care
Ġmag ical
Ġmach ines
ĠkÃ¶n nen
Ġvoc abulary
is se
Ġal ter
ROM PT
> ",
Ġk il
Ã¼ n
Ġnip ples
Ġcitiz ens
C ome
Ġ à¨
ĠM essage
ĠØ ¥
Ġsem pre
ĠÑįÑĤ Ð¾Ð¼
P ER
ig keit
ĠB ase
Ġroom s
Ġsegu ir
Ġe ight
Ġwh om
ac ity
ìĹ ¬
Ġtong ue
st ra
Ġpred ictions
| Ċ
Ġb ust
ĠC ard
Ġgener ates
ĠAn ything
ec ute
ÙĪ ÙĦ
ad der
ĠS ur
ant a
ĠL es
ĠSe lect
Ã± a
Ġ> =
" NAME
Ġto ilet
Ġ- ĊĊ
ĠV iet
row n
Ġmem ories
é ¡
Ġe ager
ĠV I
Ġunder wear
w ood
Ġp yt
ex per
Ġat Ã©
Ġexist ence
äº Ĩ
P e
Ġw ire
Ġn od
Ð· Ð°
Ġatt ached
Ġkeep s
Ġmus cle
Ġrece iving
ĠÐ¿Ð¾ Ñĩ
Ġten nis
íĻ Ķ
Q ue
Ġmedic ine
,,,,,,,, ,,,,,,,,
c at
Ġdel ay
ativ as
ĠD istrict
ĠL ab
Ð¼ ÐµÐ½
Ġref und
b ra
ĠC u
ÑģÑĤ Ð°Ð½Ð¾Ð²
Ġmil es
ĠMach ine
n ode
ĉ A
Ġfor got
ov es
Ġamount s
Ġpotential ly
Ġtab oo
Ġfemin ine
ĠH VAC
Ġfac ilit
Ġfa ith
. ]
æ Ĭ
is i
ĠH a
ĠE le
iz aÃ§Ã£o
ÑģÐº Ð¾Ð³Ð¾
Ġconc er
ĠInst ead
Ġs ans
Ġsc al
ĠÐ° ÑĢ
U nder
Ġa z
Ġì §Ģ
ĠPr ice
Ġsuff icient
ä¿ ¡
Ø «
Ñĥ Ðº
ail ability
ĠWh ite
Ġvis iting
ĠAr ch
aim er
Ġplatform s
Ġcomprehens ible
Ġnumer ous
Ġqu ais
Ġsur vey
g ue
æ µ
Ġb ash
Ġb ond
Ġh ob
ad ium
ĠM iss
ĠÐ¿ÑĢ Ð¸Ð½
Ġë ı
Ġext ensive
Ġposs ibly
ĠDes pite
Ġyoung er
Ġfolg enden
3 50
a Ã§a
Ġc es
Ġo g
Ġbr anch
Ġpod r
Ġmaintain ing
/p ython
Ġëĭ ¤
ied er
add ing
Ð°ÑĤ Ð°
Ġgener ative
Ġpro por
ĠQu ant
ĠÑĤÐ°Ðº Ð¶Ðµ
çĶ¨ æĪ·
Ġsab er
e ed
i est
Â º
é Ŀ
Ġan os
êµ ¬
2 10
p us
ĠS orry
ĠH elp
Ġdef e
ĠÑĩ ÐµÐ¼
Ġment ions
l ook
Ġb ull
Ġpre v
Ġpre st
Ġdis s
Ġel a
St ay
ãĤ Ĥ
Ġconsum ption
Ġsurround ing
× ŀ
ex p
ĠÎ ´
Ġcomput e
Ġwal ks
Ġlic ense
Ġprep ared
ĠL ocation
Ġfr ust
ĠCS V
à ©
me an
semb ly
Ðµ ÑĨ
çĶ µ
ÃŃt ulo
N E
[ Context
Ġ\ >
ĠInt elligence
è¿ Ļ
j ar
s ource
t arget
Ġe res
ÑĢ Ð¾
ĠF ig
.. /
Ġob vious
W H
o pp
ì Īĺ
Ġrepe ated
ĠÐ´ ÐµÐ²
Ġprot agon
Ġcomb ine
P ON
Ġa st
Ġn ue
ut or
ĠP R
Ġfight ing
Ġappreci ate
Ġf iscal
Ġsc ope
Ġins ult
Ġsu ic
hen g
ĠÐ¿ÐµÑĢ Ð²
Ġoptim ization
Ġmal icious
" The
D C
Ġ ç
rom o
ĠE val
Ġr ust
å° ĳ
Ļ Ģ
ĠA v
ĠØ§ÙĦ Ø¹
ĠQu ery
Ġfore ver
force ment
_ L
Ġg entle
Ġknow ing
ĠCh oose
Ġsn acks
Ġrout ine
$ {
Ġj ur
Ġfac ing
c r
Ĥ °
ĠT op
Ġint ense
Ð°Ð½ Ð°
eng an
Âł Ċ
Ġcoun sel
íĸ ī
ŀ ĭ
Ġs od
ĠW omen
Ġche m
unt u
Ġautom atic
Ġsleep ing
Ä Ľ
re ak
Ġs ne
Ġg es
ut ional
artic le
D U
S k
u ciÃ³n
is z
Ġp ounds
are n
Ġman e
ĠÐ½ Ð°Ð´
Ġexam ination
ued es
Ġappe ared
Ġbir ds
Ġd ict
Ġme at
ĠW ie
ä½ ķ
J ust
â Ĺ
ĠS mart
Ġex hib
Ġfem me
Ġcommun ities
_ pro
Ġ' ]
Ġfore cast
Rem ember
Ġtien es
ri r
ri ven
ant ly
Ġz e
äº İ
net ic
Ġcollabor ation
s g
ĠE ner
Ġ\ <
Ġmus cles
Ġpract ical
Ġbehavi our
Ġdonn Ã©es
u Ã§Ã£o
Ġc urs
Ġprogram med
ĠÑĥ ÑģÐ»
æ Ħ
ĠM S
Ġwe alth
Ġstrateg ic
P age
emper ature
p at
or ge
Ġre ven
ĠC PU
Ġun se
ru p
ĠSh anghai
b oy
Ġf ruit
Ð½ Ð¸Ñħ
Ġcomm itted
clud ed
anc o
ou ve
ent iment
ĠÐ¿ÑĢ Ð¾Ð²
ĠLe vel
Ġperson s
ĠIm agine
Ġcomplex ity
Ġdim ensions
ĠAnt wort
f irst
Ġj er
Ġcont rad
Ġ' ['
Ġconfir med
- day
Ġp hen
ĠC ONTENT
ãĤ Ī
met al
D T
ot to
AR D
ãĥ «
ĠAut om
( ),
he ll
Ġs ides
Ġe ast
.ĊĊ ĊĊ
ĠÑĤ ÐµÐ»
Ġstudy ing
Ġmiss ed
Ġri ver
Ġresearcher s
P G
i Ã³
u ries
Ġs ick
ia Ã§Ã£o
ëĭ ¨
ĠCoun cil
_ de
Ġt ort
an ie
oc ide
Ġr uss
Ġlaw y
, e
D ATE
f all
od ed
ist ical
iz ard
Ġprogram a
Ġsens ations
Ġc ad
ÑĤ Ð¾Ð¼
ĠF ire
ĠF ull
ann ed
Ġoptim ize
. create
l ink
o e
ir th
Ġle ur
ound ing
ĠAP Is
ãģ¾ ãģĻ
Ġra pe
Ġsol ving
Ġdiscuss ing
Ġpesso as
. Text
A Z
Ġ ig
Ġre con
Ġper met
Ġdis gust
Ġappe al
irect ory
Ġequival ent
v id
ĠM ark
Ġch inese
Ġnum py
ik a
Ġmet rics
go ogle
Ġfuck ed
AAAAAAAA AAAAAAAA
ĠRequest ing
al ous
ĠS A
ÐµÑģ Ð¿
Ġath letic
- off
ĠA T
em po
F R
W ell
Ġa qu
Ġthe ore
Ġo ch
ĠRe act
Ġpalab ras
n osis
it ure
Ġwor st
Ġcontin ua
Ġed it
ern el
Ġexcept ion
- end
b ug
Ġto ys
ĠOr der
è¯· æ±Ĥ
Ġlang chain
n ight
Ġcomp r
à¸ Ĺ
ĠIt s
? .
Â ·
Â Ń
Ġresist ance
he lp
Ġha z
ĠE qu
que e
Ġins ight
Ġcontinu ous
ĠFed eral
ĠAustral ian
\ Ċ
ì £¼
Ġm ic
à¤ ķ
Ġrepresent ative
. v
Ġl oud
Ġg un
ĠR oman
ĠÐ» ÑĥÑĩ
Ġquant ity
-qu ality
m ut
íĬ ¸
s i
Ġst omach
Ġcom un
pl ant
bre ak
Ġsuggest ed
Ġchalleng ing
íĦ °
' h
? ",
_ H
Ġcr Ã©
å İ
ric ht
Ġslow down
ĠLLa MA
m g
ĠB ro
Ġcomp rom
ĠĠĠĠĠĠĠĠĠĠĠĠĠĠĠĠ ĠĠĠĠĠĠĠĠĠĠĠĠĠĠĠ
ĠÐ¼ Ð¸Ð½
Ġposs ibility
Ġdr inks
Ġteng o
[ Chat
Ġcre am
ĠBe fore
Ø§Ø ³
Ġpay ments
ĠÐ¿ÑĢÐ¾ Ð¸Ð·
Form at
/ v
G u
é ĥ
ĠA rab
Ð½ Ð¸Ð¹
Ġ/ >Ċ
uc ks
ĠMed ical
ĠÃ©t Ã©
ĠT re
ÐµÑĤ Ð¸
Ġutil is
æĹ ¥
Ġm Ã©t
ĠW arning
Ġli b
Ġsol icit
wor king
Ġsimilar ity
rimid ine
" ).
' Ã©
. _
or i
Ġst yles
Ġexpress ed
Ġsubject s
Ġrecogn ize
ĠEngine er
ï» ¿
ìĬµ ëĭĪëĭ¤
ad i
Ġimprove ments
âĸĪ âĸĪ
O per
_ V
c imento
ĉ return
ATE G
åĪ Ĩ
Add ress
Ġw aves
Ġg ym
ĠL arge
ia is
Ġnum ero
// //
gl ich
Ġcollect ed
Ġnerv ous
t here
Ġcon ference
Ġro se
Ġchat ting
mod ule
Ġmajor ity
' }
_ key
å ŀĭ
Ġc ss
Ġp on
Ġn ada
Ã¡ vel
Ġbu ff
Ġmeaning ful
B R
P atient
Ġg olf
ĠT ool
12 1
Pro cess
Ġay ud
Ġanx iety
Ġs ib
ut ch
Ġor ange
11 4
ĠAf rican
Ġìł ķ
, B
et o
ĠS ummary
Ġbu ck
( text
T r
s ubject
pp ose
Ġpart ial
áº Ń
Ġport folio
Ġmove ments
Ġquant o
ĠInst agram
ĠÐ¸Ð¼ Ðµ
osit ory
] .Ċ
Ġc rie
ĠM a
Ġapp s
ĠÐ´Ð¾Ð»Ð¶ ÐµÐ½
! --
M T
ar se
Ġh ips
ci os
ĠAss oci
Ġdemonstr ate
Ġinvent ory
Ġcrypt oc
or ph
à§ į
Ġwea pons
ä¾ ĭ
I LL
i pe
Ġt am
Ð¾Ð² Ð°Ð½Ð¸Ñı
Ġest imate
Ð°Ð½Ð¸ Ð¹
Ġelect ro
Ġcult ures
er ra
Ġn ine
ort hern
Ġprocess o
ÑĢÐ° ÑĦ
[ Characters
Ġin ches
ĠÐº ÑĤÐ¾
ÐµÐ½Ð¸ ÐµÐ¼
ĠÂ ·
× Ĺ
tic k
ĠCom mission
Ġsche me
Ġm ouse
and on
Ġse at
ue go
Ïĥ ÏĦ
" :Ċ
k k
Ġrespon de
Ġam er
Pro gram
Ġaddress es
ĠMay be
è ª
an al
Ġf ir
Ġnot iced
Ġdes k
Ġall erg
ens ation
ll a
ĠY OUR
Ùĩ Ø§
++ )
Ġdent ro
ĠJava Script
w idth
om etry
pl ier
": [
Î¼ Îµ
. You
Ġla un
åĲ Ī
En ter
B ack
Ġà¤ ¹
Ġtransport ation
ĠPort ug
G R
R ole
ve ctor
Ġg ibt
Ġfil ms
ãĥ ª
def ault
Or der
B ox
Ġredu ction
Ġad m
Ð´ Ð¸
ä½ ľ
ĠSe e
cle ar
Ġlik able
. N
u ri
in formation
ĠF ocus
Ð» Ð°ÑģÑĤ
à¤ ¨
ym ph
on ly
um erate
AR G
17 0
Ġbus y
w ar
Ġp ir
ĠâĢ Ŀ
ĠEx pl
Ġobject ives
iff usion
ĠÑĢÐ°Ð±Ð¾ÑĤ Ñĭ
Ġfon ction
structure d
Ñģ Ð¾Ð²
Ð½ Ð°Ðº
ab a
ĠL ight
Ġover view
Ġlos ing
Ġexecut ive
Ġinnoc ent
ost er
IN ES
Ġele g
Ġclar ity
] :Ċ
Ã ¦
ä¼ ļ
P osition
Ġfor ne
IG HT
ãģ£ ãģ¦
Ð½ ÐµÐ¹
Ġgi ant
æł ¼
( A
a udio
us i
13 5
Th ank
Ġm uss
Ðº Ð¾Ð¼
Re ady
UR L
Ð°ÑĨÐ¸ Ñİ
ĠÐ¿Ð¾Ð¼ Ð¾Ñī
Ġp ace
ĠS il
Ġdialog ues
æĺ İ
_l og
Ø £
ĠS ER
Ġex port
ĠF ac
Ġman if
Ġinv oice
ah ren
Ġfa Ã§a
ìĸ ´ì
ìĸ ´ë
Ġrestaur ants
________ ________
? âĢĿ
um ps
ph a
Ġrel acion
., .,
Ġmix ed
Ġor al
ĠrÃ© ponse
Ġprior it
Ð¼ÐµÐ½ÑĤ Ð°ÑĢ
f ont
Ðº Ð°Ðº
Ġel if
íķ ł
c ap
h aps
Ġa er
ĠA BC
out e
Ð¾Ð² Ð°ÑĢ
ree k
Ð¾Ð´ ÐµÑĢÐ¶
Ġgen ocide
ĠÑĢÐ°Ð· Ð²
ĠA LL
ÐµÐ» ÐµÐ¹
Ġsummar ies
Ġd ol
Ġin ference
ur as
Ġexplain s
à¦ ¿
Ġmen os
in struction
Ġappro ved
ÐµÑģ ÑĮ
Ġappoint ment
Ġpac iente
åı¯ ä»¥
Ġatt itude
IC AL
Ġll am
Ġcontinu ing
edd ings
Ġcours es
/ l
I X
` ,
ĠCom ment
Ġmount ain
Ġglass es
. re
u ir
Ġs rc
Ġg all
Ġcon ce
Ġse cre
ĠÐ´ Ð¾Ðº
-d im
æĸ ¹
ĠÐ¿Ð¾Ð»ÑĮÐ·Ð¾Ð²Ð°ÑĤ ÐµÐ»Ñı
ì ¹
ut a
Ð¾Ð² Ð°ÑĤÑĮ
Ġdis pos
ĠÐ´ ÐµÐ½ÑĮ
Ġest as
Ġinform ative
Ġpass eng
Ġb atch
Ġo cean
ĠÐ¿ Ð¾ÑĢ
Ġ[ {"
riend ly
33 3
ĠÑħ Ð¾Ñĩ
Ġpan el
, x
s ummarize
ial e
ath y
ìĿ Į
R T
ol i
Ġcon oc
ĠE in
ÐµÐ½ ÐµÑĢ
ĠÐ´ Ð¾ÑģÑĤ
ĠØ ´
br id
Ġhar der
, t
: The
Ġv ary
ĠE vent
á» ±
Ġproced ures
fortun ately
/ D
Ġ Âł
re levant
ĠDAN s
Ġvol t
ĠÑĤÐµÐ± Ðµ
on th
ĠB en
quis ition
NNNN NNNN
alle l
/ ?
w ick
ì ĥģ
Ġt ener
Ġs now
un de
Ġcre ator
Ġdialog s
Ġh al
Ġv ai
ĉĉĉĉ ĉ
Ġcu ando
Ġà¤ ¸
Ġdivid ed
Ġvag ina
. co
g b
Ġp ump
ĠE V
Ġbi as
New s
- image
M ap
b es
erm ine
à¸ ¥
Ġafter noon
iel en
und a
Ġsign ed
LO C
ĠÑĢÐ°Ñģ ÑģÐºÐ°Ð·
R el
è ½
ĠV ert
ĠÐ· Ð°Ð²
ÙĬ Ø¯
, F
M ain
M ax
b et
Ġf ox
Ġg Ã©n
Ġst up
ĠF igure
og y
cri re
ier ung
à¥ ĭ
Ġdr inking
Ġachie ved
Ġh á»
Ġv ote
Ġreve aling
Ġofficial s
h os
ĠÑ ī
24 0
Ġej ac
åŁº ç«Ļ
Ġ('_ ')
pl ing
Ġcomp at
Ġgr ass
Ġprodu ces
Ġindic ating
Ġhes it
Ġlands cape
. sh
on acci
ĠL ife
Ð² ÐµÑĩ
ff icient
Ġunder lying
Ġdise ases
Ġexpos ure
- O
in ity
ol y
se e
ec d
Ġer otica
ÙĬ Ø±
ek t
à¹ Ħ
Ġreveal ed
Ġinstru ct
ar ant
im os
ly mp
Ġse i
ĠM ethod
ĠL ib
Ġdes ar
Ġrad i
: [
Ġl ust
im ately
ĠM ex
Ġk an
ĠìĿ ´
Ġconfront ation
Ġf uel
ain e
Ġent ering
Ġrespect ful
Ð¸ÑĨ Ð°
Ġunt uk
Ġconcer ning
d ing
ì ¤ĺ
Ġs cri
ri ver
Ñĥ ÐµÑĤ
itt y
IST ANT
H z
× ĺ
Ġc ort
it ting
Ð°Ð½ Ð½Ñı
Ġback ticks
ateg or
Ġter ror
Ġple as
ĠÐ¾Ð¿ Ð¸Ñģ
Ġmill ions
l ass
Ġl ying
Ġlist e
Ġdec adent
Ġder iv
Ġlead ers
, -
ol icy
Ġch ocolate
Ġagre es
/ *
Ġj Ã¡
Ġcontrol s
def ine
ĠA zure
ĠR O
---- --
ĠÐ¼ Ð°ÑĤ
in em
Ġcho osing
Ð¸ÑĢÐ¾Ð² Ð°ÑĤÑĮ
Ġelectric ity
èĭ ±
i u
t k
Ġas leep
iss ue
ĠAl though
Ġturn ing
Ġmag n
ãģĻ ãĤĭ
Ġkann st
Ġestim ated
' il
ist as
à¸ ļ
t Ã³
ç º
Ġp Ã¥
Ġre volution
rit er
amet ers
Ġdeep ly
TT P
Ġsimpl ify
C ES
Ġo dd
Ġn arrow
Ġinform ations
Ġej emplo
ãģĪ ãģ¦
Ġm eng
ĠL ink
ect ed
Ġaut or
LE ASE
-f ree
af o
æķ Ļ
Ġdies e
Ġantic ip
- word
ÑĢÐ° Ñī
roll er
Ġrefer red
Ġprem ium
Ġgar ant
Ġagg reg
ĠR ob
ĠÐ¿ÑĢÐ¾ ÑĨ
Ġsort ed
Ġstat istics
Ġlaug h
g ender
Ġus ual
ĠÐ¸ Ð³ÑĢ
Ġbre ad
Ä± r
Ġnur se
ang zhou
IN S
Ġextra ord
, b
P o
Ġl ig
ĠÐ½Ðµ Ð¾Ð±ÑħÐ¾Ð´Ð¸Ð¼
ĠRes ult
ĠÐ±Ñĭ Ð»Ð¾
Ġenter prise
ĠState ment
Ġefficient ly
B RE
Ġf est
Ġcon ven
ĠM ot
ĠÐ¸ Ñģ
Ġra bb
Ġhol iday
Ġbrother s
Ġobjet ivo
Ġl ift
ĠÑĤ Ð¾Ñĩ
ĠÐ¼ Ð¾
plic ated
Ġmin imal
Ġwarn ed
( input
Ġa ug
ut ton
bl ock
Ġsal t
ĠÐ¿ÑĢÐ¾ ÐµÐºÑĤ
Ġalloc ated
Ġthor ough
ĠN ach
ĠE duc
anc ia
Ġlog o
p ers
ĠÑĤ Ð¾Ð½Ð°Ð»ÑĮ
Å¼ e
oub les
, f
T oken
Ġcor porate
Ġeng agement
Le vel
h av
ist ent
Ġqu iero
Ãª me
Ġlay out
ĠChemical s
S i
b in
b ian
Ġm ant
Ġl ies
Ġpl ain
Ġtw ist
à¸ ª
Ð¸Ð½ Ð³
Ġflow ers
Ġaltern atives
h um
u is
ed s
ol ar
ĠV ol
ace ut
Ð¾Ð½ Ð°
Ġmem or
ĠEn sure
Ġfocus ing
ëĵ ľ
ðŁĶ Ĵ
Ġenem y
} :
Ġform ed
Ġemerg ency
Ġc her
ient os
fic o
Ġclean ing
ĠÐ§ ÑĤÐ¾
ĠÐ¾ÑĢ Ð³
- [
ï Ĥ
ed er
Ġg ently
ĠP RI
Ðº Ð¾Ð¹
ew er
Ġalg um
Ġmoment o
, m
en ario
Ġab use
Ġbuild ings
Ġdiv ision
c ale
Ġa le
ut t
ĠT ik
um in
Ġag ora
Ġshort s
ann st
ĠLe g
I US
el se
ro ph
Ġv ast
ÑĥÑĤ ÑĮ
ĠM aterial
ĠJ ul
12 2
ateg ories
ax y
ond ition
Ġpun ct
W E
Ġcon form
Ġ' ''
Ġdis plays
ĠPro fess
bs ite
Ġoper ator
oi Bot
Ġll m
r us
Ġout comes
ĠÃº lt
W ork
l Ã¡
¡ °
ol ine
ig os
ĠP ara
ĠÐ½ ÐµÑĤ
Ġser vers
rig er
ash board
ĠìĦ ¤
ĠT E
Ñĥ ÑģÑĤ
Ġup set
trans late
ex as
iv ate
Ġem issions
Ġsearch ing
ĠÐ½Ð°Ð· Ð²
Ġt ensor
ad s
Ġv Ãł
Ġch annels
ĠH y
Ġk o
Ġpar king
Ġnum b
Ġë ²
× ¡
â Ħ
ĠL and
og atory
ĠDe utsch
bot t
ĠCont rol
Ġexc itement
Ġapply ing
re p
ig t
Ġat e
Ġpl astic
Ġ{ }
fere nt
Ġreal izar
áº §
Ġcalcul ation
Ġsil ver
ĠÑģÐ»Ð¾Ð² Ð°
ĠÐ²Ð¸Ð´ Ðµ
ur d
ĠÐ¾ Ð¿ÑĢÐµÐ´
Ġmonth ly
Ġrad io
ĠCor poration
ĠÐ²Ð¾Ð· Ð¼Ð¾Ð¶
s m
Ġs ess
ag ens
Ġass et
Ð»Ð¸ Ð²
Ġcu i
åħ ³
Ġteacher s
Ġfing er
åĵ ģ
Ent ity
Ġpalav ras
Ġde utsch
ĠS pec
Ġwrit es
Ġdat etime
Ġaff ord
hic le
æĢ §
Ġ" \
ra ining
ĠP ER
ĠÐĿ Ðµ
Æ°á» £
Ġsull a
, c
Ġt ied
ĠI MP
Ġcon crete
Ġde eper
Ġë Ĳ
Ġinj ury
0 10
w hel
os ure
ĠÃ ¶
ÑģÐº Ð¾Ð»ÑĮÐºÐ¾
ĠÐ¶ ÐµÐ½
P P
et ch
Ġst ores
Ġappro val
Ġexec uted
Ġdifere ntes
I l
ì ĨĮ
Ġu b
Ð¼ Ð°
Ġes per
St atus
Ġprot est
Ġemo ji
Ġstrugg le
i ac
Ġan terior
Ġv archar
Ġqu ero
Ġj apan
vern ment
Ġautom ation
Ġê² ĥ
Ġsurpr ised
Ġb a
Ġn urs
Ġex em
ĠRe view
Ġreg ards
ĠB elow
Ġr ic
ib ilities
ĠX YZ
ira ble
Ġpred iction
Ġfed eral
Ġv om
Ġk inds
11 6
.p ng
Ġí Ļ
Ġcir cu
Ġfit ness
E d
H and
Ġm ate
Ð¾Ð± Ð°Ð²
Ġparticip ate
ĠKore an
Comp any
ie res
Ġsc ared
à¦¾ à¦
k it
Ġt ank
Ġs ow
Ġhead line
Ġvol unte
ici ans
Ġcommon ly
_ IN
b ies
Ġh ref
Ġcont e
ult ural
ĠSt atus
Ð¾Ð» Ð¾Ð²
ĠØ ®
á» ¥
ron ics
Ð¸ÑĢÑĥ Ð¹
M ethod
g res
Ġc ake
Ġc á»§
ĠÑģ Ð¾Ð´ÐµÑĢÐ¶
Ġbut ter
ÐµÐ½ Ð½Ñı
- line
M ID
d ocument
Ġto y
Ġto ward
ĠG it
Ġopt imal
Ġread ers
Ġplan ned
ha ust
Ġant ib
æį ®
D ie
F ER
M C
Ľ i
Ġa ward
Ġf er
Ġpro se
Ġv ibr
ĠR ad
te en
ĠÐ¾ÑĤ Ð½Ð¾
ĠMed ic
Ġarous al
ĠP S
Ġsu c
Ġsu is
Ġmet ers
-d riven
45 6
D ec
Com plete
_n umber
ĠìķĮ ëł¤
Ġexp ansion
Ġvalid ate
Ï į
Ġl le
ch ter
act ory
Ġob s
Ġenc ount
Ġfac es
Ġreach ing
Ġsatisf y
Ġimmers ive
H A
a e
Ġs or
it is
ĠS pecial
Ġdis h
ĠÐ¼ ÐµÑģÑĤ
ë¶ Ħ
Ġreser ved
ĠÐ¼ Ð¸ÑĢ
Ġsend s
Ã¤ d
Ġop ens
Ġter rit
Ġwid ely
re write
Ġs umm
ud i
Ġtalk ed
ĠÐ¿Ð¾Ñģ Ð»ÐµÐ´
Ġsustain ability
) "
om o
Ġh un
Ġre put
ir y
ĠR ight
ĠL imited
à¸ °
Ġdec ir
Ġoper ational
Ġbit coin
a ft
st ore
Ġl on
Ġcan vas
ĠÐ³ Ð¾Ð´Ð°
RA CT
Ġcens orship
Ġpip eline
Ġaggress ive
C o
Ġt es
ch ant
ug g
Ġbelie ved
Ġrepresent ed
Ġdest ination
Ġsarc asm
B I
Ġm ism
ĠI F
à¸ ´
Ġbreak fast
ĠInt el
Ġìľ Ħ
Ġcá»§ a
T erm
est yle
Ġal ive
nd en
Ġmy ster
Ġser ved
ĠTh rough
Ġbr ings
Ġjo ined
Ġwhe el
Ġitalian o
# :
C ON
l ia
om ic
Ġg ast
Ġbe er
ĠC ost
ĠÑĤ Ð°
ĠSt able
Ġsim ulation
ug ging
Ġ} ,
Ð°Ñģ ÑģÐºÐ°Ð¶Ð¸
ĠÐ¿ÑĢÐµÐ´ Ð»Ð¾Ð¶
& D
Ġw ra
it ud
Ġm Ã¶ch
Ġde ar
Ġpr Ã©s
ĠÐ¿ÑĢ Ð¸Ð²
-com merce
r il
Ĩ µ
Ġab aixo
Ð¼ ÐµÑĢ
Ġcre ativity
eng u
Ġref used
Ġdur ante
f ire
s ize
ĠÑĤ Ð¾Ð¼
Ġfac ility
-c ar
Ġcat al
ìķ Ī
ĠÏĦ Î·
ĠDef ine
ĠP L
ĠIn f
Ġax is
ation ale
Ġad here
ĠÑĦ Ð°Ð¹
ĠÑģÐ² ÑıÐ·
Â» ,
c ia
ions hip
Ġgreat est
Ġexperi encing
ĠCount y
ĠÐ±Ð¾Ð» ÐµÐµ
Ø Ł
at ical
am ed
ict s
Ġaccount ing
Ñĳ ÑĤ
Ġcrypt o
M in
P os
f aces
Ġb ist
An aly
Ġauthor ities
Ġcha os
Ġpropor cion
O O
r ating
ì ¶
Ġj oy
Ġprofess ion
A c
Ġan ecd
Ġm ask
Ġf t
ÑĢ Ð¾Ð½
ind ing
An al
Ġhead er
Ġopp on
Ġadvert ising
Ġs ag
Ġest ar
Ð¾ÑĢ Ð¸Ð¸
Ġdecre ase
Ġdiscrim ination
ĠÃ ľ
Ïĥ Î·
Ġ ä½ł
re qu
ĠP et
Ġwe igh
ak an
lect ed
Ġded icated
Ġ ____
Ð¼ Ñĥ
ç ł
ch i
10 6
com plete
ĠÐ¿ÑĢ Ð¾ÑĤ
Ð°Ñģ ÑĮ
íķĺ ê³ł
Ġpu zz
stit ution
Ġoccurre d
-be ing
Ġintric ate
ì §
ĠS ign
Ġopen ai
pre m
ĠCol or
Ġìĸ ´ë
) );Ċ
Ĥ ¹
Ġcom pt
Ġmod er
ÐµÑĤ Ð°
Ġworld wide
CT ED
ĠÑįÑĤ Ð¾Ð³Ð¾
Ġcandid ates
ç§ °
l it
ĠC am
ĠF A
ðŁ Ĵ
Ġgrand e
urrenc ies
Ġnumer ical
Ġtrabal ho
Ġphen omen
w atch
Ġt in
Ġsp ark
ov ing
Ġsuff ering
ĠÑĤÐµÑħ Ð½
N ext
T X
b as
ç ®
ĠÐ ¥
Ġwork er
Ġrelig ious
Ġthro at
s uch
w ing
it ative
ra pe
Ã§ os
Ð°ÑĤ Ð¸Ð²
Ð¾ÑĢ Ð¾Ð½
app oint
ĠìĿ ¸
O UT
p c
Ġp ic
Ġst ating
ĠG B
11 7
Ġdraw ing
Ġconne ctions
Ġme re
ell er
oun ce
Ġsign ature
_t est
Ch ange
åľ °
id ant
ĠF und
AR E
Ġamb igu
Ġa ument
un known
ĠÐ´ ÐµÐ¹ÑģÑĤÐ²
Ġstay ing
Ġprior ity
A ge
ar ian
Ġst one
Ġun us
sh ort
Ġtax es
: Which
t ure
Ġs out
Ñģ Ð°
Ġfall ing
Ġan che
Ġal ert
Ġche ss
Ġperson as
Ġrel atively
ĠÐ¾Ð± Ñī
_m od
AC E
Ġdiv ide
V ers
Ġ" ",
Ġver ify
ĠV iew
Ġdi abetes
á» ©
pre ne
for ward
Ġinte gers
Ġwin ner
n ership
Ðµ ÑģÑı
Ġsur prise
Ġcount s
Ġdeterm ining
Ġenv iron
ðŁĶ ĵ
Ã ®
Ġs quee
ĠN LP
qu al
Ġal bum
ie g
Ġfin anci
Ġincreasing ly
i ÃŁ
Ġinvest ors
_c ount
Ġanaly tics
Ġcircumst ances
V A
W ie
c z
Ġt orch
qu ier
Ġvers ions
Ġview er
Ġing les
Ġhands ome
edu ce
ÅĽ ci
âĪ Ĵ
Ġt f
ĠA h
Ġv ÃŃ
Ġper m
ãĤ ¢
ĠEx c
Ġflu id
Ġsubt le
w s
Ġw y
ĠM any
å ±
Ġexpect ing
Ġtransform er
3 20
M O
h u
× Ľ
ĠC ho
Ñı Ð²
Ġ[ ]
Ġact ors
Ġtrans mission
ST ER
Ġgen re
rel ation
des cribe
aceut ical
P N
l Ã¤
qu Ã©
Ġbl ocks
### Ċ
gg i
Ġtarget s
ê² ½
Ġpsych ological
. net
h ot
Ġc age
Ġp c
ist o
Ñĭ ÑĪ
Ðº Ð¸Ð¹
Ãªn cias
Ġkne e
Ġm eth
Ġmod ified
ĠTH AT
. body
r Ã¡
Ġcon vey
ĠW ater
ĠF un
12 7
ĠCont in
ĠÑģÑĤÑĢ Ð¾Ðº
J e
ress ing
ãĥ ©
Ġpack ages
Ġcapt ured
/ C
ind i
ism s
Ġcomb at
res hold
Ġj un
Ġche er
Ex p
Ġvulner ability
Ġrob ust
ê¹ Į
Ð¾Ð½ Ð¾Ð¼
Ġant es
- al
J ul
h an
Ġdo it
Ġpre ced
be gin
Se cond
h l
Ġ icon
Ġre com
ib er
ĠUn it
Ð¾Ñģ Ð¾Ð±
rypt o
+) ."Ċ
s ql
Ġa uss
Ġa ster
ĠI gnore
Ð¾ÑĢ Ð°
à¸ «
Ġph arm
Ġfact ory
Ġstud io
OR D
Ġconsider ation
ĠSystem s
Ġfet ch
x ide
Ġne ur
AT ES
Ġcar acter
Ð°Ð½Ð¸ Ð·
xim o
ĠPl atform
. to
G IN
00 2
ĠF urther
Ġacc ordance
âĢĿ :
let ter
Ġaccept ed
Ġpet ite
Ġbow l
Ġw ake
Ġg it
Ġsk illed
Ġbeh alf
Ġsl og
Ġdra wn
Ã´ n
ĠÐ¿Ð¾Ñģ Ð»Ðµ
w end
Ġch ips
Ñĩ Ð¸ÑĤ
ĠÐº Ð¾Ð³Ð´Ð°
Ġob t
Ġconvinc ing
Ð½ Ð°Ð¿Ð¸ÑĪÐ¸
ĠO lymp
ĠÐ¼ ÐµÐ¶
Ġinv al
pr im
iment os
Ġclos ing
Ġfamil ies
T ER
b urg
Ø º
Ġun expected
ÑĨ Ñĭ
è¡ Į
ĠÑģÐ´ÐµÐ» Ð°ÑĤÑĮ
Ã ¸
ĠC R
ĠO S
Ġad equ
Ġìŀ Ĳ
Ġexpos ed
Ġtrabaj o
T u
_ {
a id
Ġthe rm
Ġin coming
ĠS che
com merce
Ġext ent
Ġmir ror
Ïģ Î¿
Ġtick ets
item s
( int
. html
Ġde ux
Ġreturn ing
Ġemail s
åĨ ħ
Ġaim s
_ N
b n
ĠE sp
Ġrep air
Ġrandom ly
ĠÐŁ ÐµÑĢ
Ġcent re
Ġt ense
ic ol
el led
ere r
row s
ĠÐ± Ð»
Ġcarry ing
Ġdut y
G ER
S ource
ĠI r
Ð¸ Ð¶
ang o
rig inal
c ule
ĠM en
ĠH ong
ãĥ ĥ
Ġge ht
Ġse le
ÑĨÐ¸ Ñı
Ġhor as
ÏĢ Î¿
Ġbrow se
áº¡ n
2 11
3 10
h y
ut s
Ġpro c
Ġsc ored
ãĤ ¯
Ġmar riage
Ġsell er
Ġ"" "Ċ
Ġevol ution
ĠCong ress
on jour
iz a
tic as
Ð½ Ð¸Ð¼
os o
ĠD aten
âĢĻ un
ĠÐ³ Ð´Ðµ
Ġbo ost
Ġsimilar ly
Ġbelong s
I ch
_ cl
æ ģ
Ġ ÙĤ
ru g
Ġtest ed
ze it
Ġemploy ment
Ġseem ed
Ġconv ince
Ġsymbol s
Ġabsol ute
Ġcontroll ing
Ġnavig ate
B u
V ocÃª
v ell
ac o
_ info
r Ã¤
Ġd engan
Ġre actions
iz ado
ĠG old
ĠÐ´ ÐµÑĤ
Ġob servation
igh ter
par am
Ġspecial ized
Ġfav our
Col umn
Ġdream s
Ġtail ored
- choice
id i
Ġ( )
Ġse hr
du led
Ġser ia
ĠSt ory
ĠSe cret
ĠÐ¾Ð± ÑĢÐ°Ð·
Ġc ul
Ġd it
il ty
ĠC all
ab ases
Ñĥ ÑģÐº
Ġcont est
Ð² ÐµÐ´
Ġcu rios
ÐºÐ° Ñħ
Ġbon ds
Ġhund red
, y
r ank
Ġf ond
Ġover whel
Ġconf igure
Ġsw allow
Ġstructure d
Ar t
ĠÐ¿ÑĢÐ¾Ð´ Ñĥ
' )ĊĊ
ĠI h
ocr atic
PT ION
Ġjet zt
Ġ ],Ċ
ic ans
Ġre n
ä½ ¿
Ġhead aches
lim ited
Ġtouch ing
Ġrout e
agg io
Ġreli able
ÑĥÑīÐµ ÑģÑĤÐ²
impl ify
_ ex
b ow
n ull
Ġp Ãºblic
ĠS D
ĠB al
Ġz w
Ġsl ide
ness es
Ġdeb ate
ĠEnt ity
Ġmood y
' app
M ore
Ġs its
il a
per ty
Ġap ro
az e
Ñĸ Ð½
" ],
. /
| >
æ Į
Ġlist ening
ĠA u
10 9
Ġsp in
pro vide
Ġinvestig ate
izont al
Ġf lying
iv as
ĠÑĤ Ð¾Ð³Ð¾
ho ot
.s nake
Ġimpact s
ĠEr ror
ìĦ¸ ìļĶ
g as
an as
Ġidentify ing
ÂłÂł Âł
UID EL
, M
Ġal ien
Ġdeterm in
ÑĢÑĥ Ð´
Ġaff ection
R est
ĠM ad
Ð¼ ÐµÑĤ
Ġact or
17 5
ĠDe ep
Ġgre w
Ġvo ce
Ġihre r
ĠÃ¤ r
u elle
ķ Į
Ġd ensity
Ġle ver
ĠU lt
Acc ount
Ġlaun ched
b or
Ġan ger
Ġto w
Ġis land
ĠD utch
Ã³ mo
Ġser ving
ĠSt ay
Ġmet ap
Ġrece ives
_ x
u ent
Ġa os
Ġg ost
bre vi
ĠMed ia
w in
Ġt um
Ġb io
Ġent ers
Ġcar ried
Ġstud ied
Ġbr ands
ÏĦ Î±
Ġscient ists
ĠSE LECT
G RO
X Y
v ironment
Ġe ars
ow ered
est ra
Ġco ins
Ġí Į
æĺ¯ ä»Ģä¹Ī
Ġmasturb ating
METH YL
UIDEL INES
c ite
p es
æ ¬
Ġinter val
Ġconf used
Ġmon olog
_t rain
Ġoper ate
Ġbas ically
DI V
Ġaccompl ish
M D
ë £
Ġpro port
ĠG reen
pon ents
Ġindust ries
Ġdep ends
Ġhand ling
ĠÐµ Ðµ
ilit Ãł
h ore
u pp
ĠÐ¾ Ð½Ð¸
Ġes crib
ĠĠĠĠĠĠĠĠĠĠĠĠĠĠĠĠĠĠĠĠĠĠĠĠĠĠĠĠĠĠĠĠ ĠĠĠĠĠĠĠĠĠĠĠĠĠĠĠĠ
è¯ ¢
. L
F ield
Ġmodel ing
ov id
Ġinf ection
Ġaware ness
Ġbutt ons
rateg y
" }Ċ
t otal
ut z
em bers
Ġes cre
ï¼Ł Ċ
.âĢĿ Ċ
ĠWH ERE
= (
an ity
ĠF ound
Ġche ese
Ġac ord
aut hor
Ġpost er
Ġentire ly
Ġliter ary
åĬ ¨
_ RE
Ġr am
ard o
Ġdu plic
ĠÐ° ÐºÑĤ
.j pg
ĠInter face
Ð°Ð¹ÑĤ Ðµ
Ġh int
ĠT arget
Ġk ur
ÐµÐ½ Ð´
ÐµÐ½ÑĤ Ð¾Ð²
ĠÐ¸ÑģÐ¿Ð¾Ð»ÑĮÐ·Ð¾Ð² Ð°ÑĤÑĮ
Ġswe at
ĠFig ur
ï ¬
Ġf ellow
st ep
ĠH E
ÐµÐ½ Ð½Ð¾
Ð°ÑĤ ÐµÐ³
ÑĨ Ðµ
ĠSE C
Ġpesso a
Ġwur de
P or
Ġ× ¢
Ġsecond ary
Ġelect rical
ĠÐĿ Ð°
.âĢĿ ĊĊ
Ġë¬ ¸
ĠÑģÐµÐ± Ñı
ic hen
ent er
Ġg ust
ri le
ĠC D
Ġpro hib
ak i
Ġcomm ission
Ġreg ions
ĠCom mit
Ġtot ally
Ġsubst ance
U AL
m el
Ġt ough
Ġw alls
Ġjust ice
AT H
b el
Ġte ase
Ġchar ges
Ġcar act
ĠÐ½Ð°Ð¿ Ð¸ÑģÐ°ÑĤÑĮ
Pr ice
Ġpul led
' :Ċ
- class
. Your
æ ĭ
Ġp itch
Ġin du
ter y
Ġdis ag
Ġ$ {
ĠÐ· Ð²
ah a
ech o
ĠSp ace
!! !
Ġê³ ł
/ B
R ight
q rt
Ġ ^
ent al
Ġv as
ĠO s
Ġtra cking
Ġret ire
.j son
Ġenjoy ing
Ġlay ers
ĠPerson al
Ġphilosoph y
Ġg ap
ĠC OR
Ġany way
Ġì ¶
ĠEx cel
play er
ĠÐ±Ñĭ Ð»
ãģĹ ãģŁ
' S
ĠS entence
ĠM ulti
ru its
Ġdes per
Ġsoc iet
ãĢ Į
Ġboo bs
Ġabs or
Ġreve als
Ġmechan ics
Ġhall uc
G l
Ġa cess
le arn
ĠM OD
Ġboo lean
Ġcamp o
Ġretrie ve
éĿ ¢
K e
Ġg em
ĠS em
Ġes pec
Ġd ys
art s
ĠG al
ĠAs ia
Ġevery day
28 0
reib en
Ġleg is
Ð½Ð¸Ðº Ð°Ð»ÑĮ
Ġinitial ly
éĩ ı
Ġimpos sible
Ġhumili ation
Y eah
en ess
ĠD en
ãģ Ĭ
V is
r ide
Ð Ń
Ġat ual
ia z
ĠÐ½ ÐµÐ¹
Ġdis respect
Ġpand emic
Ġwat ched
åĲį ç§°
Ġthous ands
Ġ Ã§a
ay a
ĠT ai
Qu Ã©
ĠIt em
Ð¸ÑĢÐ¾Ð² Ð°Ð½
X YZ
ÐµÐ½ Ñĭ
St yle
Ġfl irty
Ġdisplay ed
ĠFin ancial
C ategory
d ers
Ġf ro
ĠH as
ãĢ į
ĠAnd roid
Ġsens or
Ġaccept able
Ġdrag ons
ol ution
Ġab andon
ĠV ery
vent ional
ĠX XX
ib il
ĠÐº Ð»ÑİÑĩ
Ġbro ke
ĠAss ume
) /
< <
Ġt orn
ul ing
ĠÐ½ ÐµÐ´
Ġche ap
be i
rop y
Ġpros pect
Ġdivers ity
ĠC redit
Ġ* /Ċ
Ð°Ñģ Ñģ
ĠUS ER
-f riendly
Ġstrong ly
kt ion
ĠrÃ© pond
( -
L I
T op
ĠL abel
ap a
Ð°Ð» Ð¾
az z
k n
l at
Ġcre ar
Ġpe u
ident ial
Ġaccording ly
Ġprefer red
ĠTur key
Ġincred ibly
am il
Ġim plications
ak a
Ġacc el
par se
ÑĪÐ¸ Ð±
Ġste al
C ar
N ormal
Ġd ice
Ġb om
Ġme hr
Ġwor ried
Ġad ds
Ñİ Ñī
ING S
vide o
Ġinterpret ation
Ġregul ations
Ïī Î½
Ġquot ation
. :
æ Ļ
ĉ c
Ġu int
ur pose
Ġob st
Ġrem ark
Ġaccess ible
" ></
( r
Ġt ous
he alth
Ñĥ Ð»Ñı
ĠR ate
ĠIs lam
Ð¸Ñģ Ð¾Ðº
apt ers
Ġmaxim ize
rain ian
Ġextraord inary
/ F
B est
J ob
Ċ ĠĊ
Ġshould n
Ãº de
Ġimplement ing
mon th
Ġsatisf action
Ġvir us
æŀ ľ
Ġstake holders
and id
ĠÑģ Ð¾Ð²
Ġtr at
Ø§Ø ¹
-m eth
ìŀ ħ
Ġcommit ment
Ġwea pon
Ġstro ke
Cal cul
M s
_ by
Ġp ill
ĠN Ã£o
ist an
Ġtra its
ÏĦ Î·
Wh ile
Ġlow est
Ġsegu inte
H I
Ġt id
Ġre vis
Ġas sembly
ĠS qu
Ġtr ick
Ġì ĥģ
Ð°Ð» Ð»
We b
Ġredu cing
Ġfant astic
ĠìŀĪ ëĬĶ
Ð°ÑİÑĤ ÑģÑı
Ġbehavi ors
as ion
ant ial
ĠP os
ĠSe a
Ġhist Ã³ria
Ġtamb iÃ©n
Ġsuic ide
? "ĊĊ
al ty
Ġas ync
Ġexpl os
Ġest o
RE E
Ġcontrol led
ĠF ree
Ġj ew
ĠV AL
Ġexper iments
Con fig
Ð°Ñĩ Ðµ
ĠÐºÐ¾Ð» Ð¸ÑĩÐµ
ĠÐłÐ¾ÑģÑģ Ð¸Ð¸
Ġsurg ery
æŁ¥ è¯¢
Ġc ough
es creva
ĠE ver
.d ata
ĠÐ½Ð° Ñģ
Ġed iting
ond a
Ġpost s
TH ING
Ġbox es
Ġwalk ed
Ġst rive
ĠÐ· Ð°Ð¼
Ã¼ t
Ġproblem as
Ġdirect ed
Ġcr imes
irt ual
Ãĥ O
i pt
Ã ĵ
ĠA RE
Ġab normal
Ġleg ality
_ value
y ch
ĠW ITH
ĠB esch
ĠB oiBot
Ġen cl
Ġì §Ħ
ament os
Ġmo an
lo or
Ġpod em
ĠIndust ry
çĶŁ æĪĲ
ple ments
ĠÑĥ Ð½Ð¸ÐºÐ°Ð»ÑĮ
ä» ¶
Ġmit ig
Ġkn ife
ĠNet work
ÑĥÐ»ÑĮÑĤ Ð°ÑĤ
- yl
æ Ľ
ķ ¼
Ġg ene
Ãª m
Ġdist rict
ĠO UT
Ġsome what
Ġhyp nosis
ë² ķ
d ouble
Ġst unning
ang a
() )
ĉĉĉĉ ĉĉ
ĠFr anc
Ġflow er
Ġopp osition
ĠEngine ering
- ÑĤÐ¾
m other
Ġf ue
Ġn ap
Ġr ice
ĠMin ister
Ġcrow d
ĠÑĩÐµÑĢ ÐµÐ·
\ t
m ic
Å Ħ
æ ®
ĠL ook
10 7
Ġ[ [
Ġprogram me
cent er
_m essage
ĠCol lection
Ġrefer ring
Ġinstall ation
Ġanecd otes
p ower
Ġc ouch
and ong
ov en
Ġext end
cont ainer
Ġprinci ple
Ġb anks
if ferent
us r
Ġfun Ã§Ã£o
Ġprodu cing
ÑģÐº Ð¾Ð¼
Ar ticle
Ġsatisf ied
proper ties
- ce
u ar
Ġcon clus
ist or
20 6
Ð¼ Ð¾ÑĤÑĢ
yp othesis
Ġbre aks
Ġord inary
ĠFin ance
ch ron
un o
AM P
Ġocc urs
ij ing
å¤ļ å°ĳ
_ se
Ġl ol
Ġ: ĊĊ
Ġpo se
Ġatt ach
Ð¾ÑĤ Ð°
Ð¾ÑĤ Ð²ÐµÑĤ
ê° Ħ
Ġpromot ion
Ġn ig
au c
Ġlibr aries
Ġcohere nt
Ġtask ed
Ġpa ÃŃs
ĠÐ¾Ð± ÑĥÑĩ
ĠÑħ Ð¾ÑĢ
' ).
/ g
L ocal
Ġa gric
Ġe fic
ĠS P
ate ur
Ġnot ed
ick et
Ġsim ult
ĠAn other
Ġbi ases
Ġcalcul ations
ĠÐºÐ¾Ð¼ Ð¼ÐµÐ½ÑĤÐ°ÑĢ
gy pt
quire ments
v t
om ain
ĠE ND
ĠO P
ĠV ideo
St udent
Ġloc ally
)ĊĊ Ċ
Ġbit ch
acc ount
-------------------------------- --------------------------------
Ġcompl iance
ĠC V
ir as
Ġsc ream
de v
Ġbu g
app ed
Ø§Ø ¡
Ġur ban
P ost
st yle
ra cial
ĠM eta
ĠH aw
Ġ' ',
Ġì ¤ĳ
Com ment
aaaaaaaa aaaaaaaa
Ð¸Ð´ÑĥÐ¼ Ð°Ð¹
à§į à¦
, <
h uman
Ġs ke
ro verted
ĠU til
AT ED
ĠÐ· Ð°Ð³
Ġâ Ħ
.l oad
ĠPol ice
c ard
è ´
Ġqu ieres
Ġiss ued
unt os
Ġtrad u
Ġelect ronic
Id entify
ê¸ Ī
inst all
^^^^^^^^ ^^^^^^^^
Ġsynonym s
Ï Ĩ
Ġd umb
ĠC NN
lect ual
Ġreg ression
Ġthr ust
orig inal
Ġsecre ts
l os
ĠN Y
ĠS pring
Ä± nd
un it
Ġk ernel
() )Ċ
Ð½Ð¸Ðº Ð°
Ġimpos ed
ëŀ ĺ
O B
Ġ âĢĻ
Ġa ds
ĠW hether
art en
Ġby pass
12 4
Ġuser name
- and
Ġf ert
Ġst rip
Ġì ĨĮ
ON G
Ġgu ilty
Ġmeet ings
Ar ray
_ entity
s ummary
Ġs as
Ġdes irable
Ġcl ust
Ġve ux
ĠIm port
Ġnear by
jour ney
Ġsav ed
arant ee
) ),
4 50
u u
ic ism
Ġon going
Ð¸ ÑĦ
Ġaut hors
Ġdem o
Ġbo at
ĠEner gy
7 50
E dit
ļ ©
it als
Ġv iv
ĠP resent
Ġfriends hip
RI MID
char acter
Ġdim ension
ĠChrist mas
Ġsarc astic
S ales
i op
he m
it led
Ġn un
Ġqu em
ĠF ast
ĠR AM
Ġ= ==
com ment
Ãª t
Ġre play
ĠL ine
20 5
Ġper gunta
ific a
arr ant
ĠAdd ress
ĠST AN
othe rapy
. text
P retend
v ia
ì ĻĢ
Ġc ust
Ġw ishes
ĠÐ· Ð´
Ġlov ing
Ġstup id
ĠS core
ul f
Ġhas ht
Ġexpl oration
Ġdef ense
Ã¤ re
ĠÑĥ Ð¶Ðµ
Ġterm in
ĠÑĤÐ°Ðº Ð¾Ð¹
íķ´ì Ħľ
s d
Ġs ous
Ġo be
im ages
Ñĩ Ð°Ñģ
vel y
z ip
Ã ĩ
Ġs ight
Ġf ÃŃs
Ġe ld
Ġam pl
Ã¢ ncia
ĠÐºÐ¾Ð¼Ð¿ Ð°Ð½Ð¸Ð¸
ĠÐ¼ÐµÑĤ Ð¾Ð´
Ġthigh s
Ġimpress ive
U B
i y
Ġp se
Ġst uck
Ġde re
un ta
iv el
ov a
Ġn ude
ĠB a
Ġint rig
here d
ÃŃ d
les h
enc ial
Ġsepar ately
Ġhydro gen
Ġcry st
Ġ ________
Ġe ines
Ġg am
to k
Ã¶ glich
Ġm ul
Ð¸ Ð½Ñĭ
Ġser vi
Ġrec ording
bo ot
fr ont
n ap
Ġthe rap
ĠĠĠĠ ĠĠĊ
ĠM or
Ġhas n
Ġposs ÃŃvel
ä½ į
Ġdefin itions
Ġpub lish
h n
om in
ad ed
ig a
ĠP ot
art ers
ĠSt yle
Ġdat abases
ÐµÑģÑĤ Ð¸
Ġpi pe
Ġimmer se
re ds
ĠS her
Ġha ce
ĠB ot
ak en
Ã¼ ss
Ġsoc cer
AD E
ĠÑģÐ¾ ÑĨÐ¸Ð°Ð»ÑĮ
ëı Ļ
Ġgrant ed
C U
_ ch
ĠC apt
Ġex haust
An y
Ġí ı
Ġdetect ed
Em ploy
- te
Ñĸ Ð¹
oll en
Ġdiscuss ions
Ġtarget ed
Ġpolit ics
Ġaw esome
åĵ ª
Ġregist ered
F in
im er
act s
Ġint im
Ġint ensity
Ġav ailability
ìķ ¼
ĠÑģÐ»Ð¾Ð² Ð°Ð¼Ð¸
ĠAc adem
d r
ç ±
ri an
ĠP AR
cc ion
Ġsp ots
ĠÐ´ Ð¾Ð¼
Ġcare ful
Ġje alous
ĠMod els
Ġmanufact ure
I ENT
o ptions
ì ¦
ess a
ĠB an
ry ption
ãģ ©
ĠÑģÐ» ÑĥÑĩ
Ġfail ing
ĠÐ°Ð½ Ð³
Ġannoun ce
Ġw edding
ub ble
ST M
pr ises
Ex amples
Ġexplain ed
Ġrespect ive
ĠDet ails
Ġë§ Į
Ġë¶ Ģ
æİ ¥
Ġc ited
it Ã©s
ST R
Re view
Te chn
M B
y cl
ç ¨
Ġb un
Ġcon serv
iss ance
ST RU
Ġdom estic
ĠÑı Ðº
Ġindic ated
ĠÐ¿ÑĢÐµÐ´ Ð¾ÑģÑĤÐ°Ð²
Ġstrength s
çĲ Ĩ
h alt
Ġw rap
Ġne uro
30 4
Ġclass ic
ialog ue
Ġfa ult
ett ings
f ers
w ill
are house
-m ethyl
ĠÑįÑĤ Ð¾ÑĤ
ĠÐ·Ð°Ð¿ ÑĢÐ¾Ñģ
Ġbare ly
Ġcere mon
í ĥ
Ġp icking
Ġout ros
Ġany where
Ġacc used
ov o
Ġgener ic
-t ext
ä» Ĭ
Ïģ Î±
Ġencourag ed
Ġcens ored
Ġdram atic
ëĲ ĺ
, N
K E
iz ations
Ġout door
Ġad mitted
ĠÑĤ Ð¾Ð²Ð°ÑĢ
Ġbl adder
Ġ\ '
Ġassum ptions
Ġa inda
is d
Ġpar allel
Ġextra ction
O IN
P ress
ul as
Ġex clus
Ġwe ird
Ð´ Ð¸Ð½
Ġser ial
Ġfun c
Ġclass room
Ġhab its
Ġperiod s
ĠAut hor
, L
. in
: /
s entence
re quest
Ġsc r
Ã¡ p
Ġgl ad
Ġmor als
Ġvict ory
Ġwhis per
neh men
( D
. io
k m
n on
Ġs yst
Ġ" #
Ġconf idant
Ġgramm atical
sfw GPT
/ V
c all
Ġa hora
os ystem
int ent
.d ifficulty
ĠPro blem
pons es
Ġkn ock
¿ »
Ðµ ÑĦ
Ġr it
ĠÐ¿ ÑĤ
ge ar
Ġinform al
Ġresult ado
Ġhead s
Ġsus pect
ĠSol utions
Ġutter ance
' ),
c rit
Ġc oc
ic iÃ³n
ĠH ot
Ġcl ause
ĠÂ »
-s ource
ĠÑģÑĤ Ð°ÑĤÑĮ
ĠRep ly
Ġblock chain
ĠIndones ia
ì °
er d
Ġc av
Ġc ache
Ġra cial
icht e
ĠÐ¿ÐµÑĢ ÐµÐ²
ìļ °
c p
Ġs ÃŃ
Ġli p
ĠÑĥ Ð¿
ĠÐ° Ð´
aut o
Ġsugg estion
Ġsignific a
) =
Ġg ol
Ġg ross
ra is
ĠF unction
act ual
ach t
Ð¾Ð¶ Ðµ
ĠSh are
Ø³ ÙĦ
Ġsear ches
F low
ī ¤
Ġf ans
as ive
Ġre cept
ĠD A
ĠD an
ĠD ark
ĠH an
ĠH TTP
Ġam oral
Ð¾Ð¶ Ð°Ð»
Ġconc ert
Ġorgan ize
Ġhast a
Ġbenefic ial
æ ĥ
Ġe rect
ĠD iffusion
Ġtra pped
Ġdec ent
ĠPh D
' ].
or ient
am ount
Ġ" $
ĠT it
Ġj ack
ĠÐ² Ð¾Ð´
11 9
Ġcons ens
ĠUn ivers
Ġvers es
36 5
Che ck
S ec
Ñģ Ðµ
ĠP ROMPT
ap se
à¤ ¸
è¯ Ń
Î½ Î±
ĠBo ard
Ġdesenvol v
. -
l io
Ġt abel
Ð¸ ÑĨÐ¸
ĠP ack
ĠW ord
ĠM as
ĠH ar
ÐµÑĢ ÑĤ
Ġes o
Ġmet ab
Ġmet adata
ĠCon vert
ìĭ ł
Ġlate x
Ġinj uries
ëį °
Ġajud ar
plet ion
Ġnumb ered
F ound
Ġm osh
ĠC ategory
out er
ĠR ome
Ġby tes
Ġshe l
Ġfl ames
rib ution
M ilk
m ail
è Ĳ
ut ure
ĠL O
Ġfe ver
ĠEx press
Ãº s
.c sv
áº¿ t
Ġsurv ive
Ġbib li
ĠCy ber
ĠE T
ĠÐº Ð»Ð°Ñģ
ÙĪ Ø¯
ĠUse ful
Ġsignific ance
Ġsubst antial
çĶ¨æĪ· éĹ®é¢ĺ
D i
Ġp ushing
ut ing
Ġas c
ac et
Ġreg ional
met ic
ĠÐŀ Ð±
empl os
Char acter
] ]
Ġf le
qu ant
ĠS uggest
Ġab brevi
Ġreg ister
ãģĦ ãģ¦
Ġti empo
Ġmedic ations
Ġprotagon ist
w al
è Ĥ
Ġw ise
ĠP rodu
ĠM iddle
ph ones
ĠÐ¿ÐµÑĢ Ñģ
Ġtravel ing
y ect
00 3
ip o
Ġfl ash
Ġpun to
âĶ Ĥ
æ® µ
m ov
Ġan Ã¡l
Ġm Ãªme
ĠF emale
Ġad mit
Ġinter racial
Ġet was
Ùħ Ø§
Ġrecogn ized
ams ung
ĠTik Tok
ch anged
int erest
ÐµÐ¹ ÑĩÐ°Ñģ
ĠÑģÐº Ð°Ð·
Ġsuc ceed
- K
J SON
u um
é ľ
Ġl ugar
el ing
ĠE v
Ġad vers
Ġte eth
Ġprecis o
Comm and
æı Ĳ
: ",
A nt
ĠE nc
Ġsummar ization
Ġrepet ition
D own
U G
t w
è ģ
st ation
ĠG es
Ġrec all
Se ction
ĠMO ST
Ġmonolog ue
per iod
are st
Ġpr Ã©c
ĠCh amp
Ġmet ric
Ġmus ical
ĠÐµ ÑīÐµ
Ġschool s
Ġesc rit
. id
s ed
Â «
Ġv oy
Ã¤ ng
Ġeng aged
Ġart ists
.p df
ĠS V
ĠC os
ph ant
ĠCl ub
Ġorgan ized
Ġanaly zing
ĠÐºÐ¾ÑĤÐ¾ÑĢ Ð°Ñı
Ġstream ing
Ġcover ing
Ġclim b
ist ing
ĠÐ½Ð° ÑĪ
Ø± Ø¨
Ġmo ans
× Ŀ
om ent
ol ve
est as
Ġder ogatory
Ġfound ation
Ġsche duled
Pl an
F L
Ã »
Ġw o
an j
Ġan o
ĠC r
Ġap rend
U C
_ CO
Ġin hib
ig ung
Ġpol l
Ġpartic les
Ġinte ress
ĠÐºÐ°Ðº Ð¾Ð¹
Ġfur ry
Ġintegr ated
ĠArt ificial
ĠER R
Ġenviron ments
Ġtr oubles
gr id
ier a
Cont inue
.p ath
ĠÐ¿Ð¾Ð´ ÑĢÐ¾Ð±
,P ct
ĠInte ger
C all
Ġt res
Ġm Ã©
ĠT own
ĠT exas
ad ian
Ġhe x
Ġshould er
Ð°Ð» Ð¾Ð³
Ġprof anity
Ġed ges
Ġdiff Ã©
Ġsmo king
Ġlingu agem
Ġarrest ed
ĠÐ´ÐµÐ² ÑĥÑĪ
( P
) ':
H E
e ven
an za
Ġin se
Ġv ou
Ġproduct ivity
ĠÎ ½
åı £
Ġspan king
Ġspan ish
Ġc ensor
Ġd ÃŃa
Ġf ract
row th
å¼ Ģ
Ġtar jet
Ġplug in
Ġsimult ane
W el
b ag
g ood
Ġs oph
Ġst ere
ab en
ach ine
Ġcomp ort
à¤ ®
Ġmark ed
Ġtrig ger
Ġt an
ab out
Ġsim ples
Ġsub mitted
rib utes
ÑĢÑĥ Ð·
ĠPr int
Ġillust ration
Ð°ÑĢÐ¸ Ð°Ð½ÑĤ
. name
g ency
h op
v anced
st elle
im en
Ñĥ Ð·
ĠF ort
ĠIn itial
Ġprom ise
Ġtest ic
Ġsing ular
Ġentre prene
Ġvalid ation
lor ide
Ser ver
Ġdecl ine
áº¡ i
Ġprepar ing
Ã¬ nh
. <
è ¾
ag ues
Ġres erv
Ġcl ock
ast s
Ġro d
av en
Ġprogram mer
ĠPro vince
ĠÑĥ ÐºÐ°Ð·
ux t
Ġdist ingu
IT LE
Ġà¤ ®
ĠëĤ ĺ
plot lib
. read
Ġm ud
Ġle an
ĠL ove
Ġres id
Ñı Ð½
Ġdet al
ĠV or
Ġì §
ĠTh ree
Ġwork flow
sh ot
ĠIS O
al o
enc er
Ġdress ed
nam ed
Ġvacc ine
, p
Ĩ į
ĠM ens
ĠG O
Ġro l
Ġtem p
Ġfund ing
H igh
M ASK
p ow
Ġa str
Ġan th
Ġin sist
un os
ĠÐº Ð°ÑĩÐµ
ĠÐ´ Ð°
Ġmin ds
Ġdr unk
ĠAm ount
Ġtransform ers
Ġult imately
ä»¥ ä¸ĭ
Ġcommunic ations
H ub
K S
l ings
Ġs urre
ĠS ha
Ġv c
Ġk a
Ð½Ðµ Ðµ
ops is
ĠnÃºmer os
H D
R ed
z one
out ube
Ġpol ÃŃ
åı ĸ
ĠCol lege
ÃŁ e
Ġmyster ious
Ġ ile
Ġal i
Ġno se
ÑģÑĤ Ð°
Ġman era
ne ction
Ġag ed
ï¼ ī
Ġconvers ion
Ġvis ited
Ġdig its
Con f
ĠST OP
2 15
at ore
Ġk i
ĠRe venue
Ġsign als
ĠAr ray
Ġred es
De vice
Ðŀ ÑĤ
Ð°ÑĨÐ¸ Ð¾Ð½
ĠÑģÐ² Ð¾Ð¹
O nce
Q UESTION
Ŀ i
is ine
Ġn Ã©
am ps
low er
Ġes e
ï¼ Ī
() ;ĊĊ
Ġí ĺ
- I
} \
ĠN or
Ġbe re
ĠS UM
Ġhe y
Ġdif fer
ĠØ ¬
Ð³ Ð¾ÑĤÐ¾Ð²
Ġchatbot s
Ġfrequ ently
Ġfir ms
ĠP RE
Ġk tÃ³
ber g
Ġi o
Ġnew sp
cul es
Ġran king
names e
Ġunus ual
ĠC ert
ĠP LEASE
Ġsc hed
Ġap re
Ã¤ ch
Ġloss es
ĠÑĤÐµÐºÑģÑĤ Ð°
ĠWest ern
Ġalph abet
unge on
s a
ess ages
Ġr um
Ġcomp osed
Ġmat ters
Ġmay or
Ġcal m
Ġautom ated
Ġresol ved
G e
p ol
Ġg ang
ĠS it
Ġmy st
Ġli ability
Ð² Ð¾ÑĢ
âĢĻ :
Ð°Ð½Ð¸ Ñĩ
Ġtele vision
Ġmanip ulate
ĠëĤ ´ì
Ġ Ø§
ĠG raph
Ġma ior
ĠÐ· Ð°Ð±
Ġclass ified
-p erson
yt es
Ġpromot ing
D ES
Ġl u
ĠT ok
ĠÑģ Ð¸Ð¼
Ġsm iling
Cont rol
Ġgold en
Ġthous and
Å Ļ
Ġ á
Ġa h
Ġcom ent
ĠW all
ia vell
12 9
Ġdi pl
ĠÐ¼ Ð½
Ð½Ð¸Ðº Ð¾Ð²
UM BER
Ġprepar ation
ĠØ§Ø ³
e res
ar Ã¡
Ġst ability
if ts
Ð» ÐµÐ¹
ĠU r
ass en
Ġcal endar
ÑĪÐ¸ Ñħ
Ġir relevant
PON SE
` Ċ
l ung
Ġs izes
at rix
ĠA lp
Ø± ÙĬ
less ly
Ġê² ½
ecut ive
ĠANY THING
åĨĻ ä¸Ģ
,x uxuul
Ġt act
Ġm ismo
Ġg rip
pl iance
Ġperson nel
Ġapp end
pro ject
ĠSp ain
part yt
Ġcoord inate
E V
in cluding
ou ver
es o
Ġk l
pon ds
Ġtext ure
Ġcre atures
old ing
Ġsk ip
ai i
Ġfac ed
. Rephrase
Ġs v
is her
Ġp ound
ch ts
ĠÐ² Ð·
ĠÑĤ ÐµÑĢ
11 3
Ġread s
Ġair craft
ĠÐ¿ÑĢÐµÐ´ ÑģÑĤÐ°Ð²
ĠcÃ³ mo
ìľ Ħ
-j Ã¤h
D ep
d ir
f ish
f ica
p ira
v ise
Ġpl ag
Ð¼ Ð¾
Ġdec or
ok ed
Ġdesign s
Ġoriginal ly
Ġcur ly
ador a
Ġwel che
B usiness
n A
Ġc Ã¡c
Ġp ig
Ġb ah
ac er
ĠL MS
ĠG esch
Ġque en
Ð± ÑĢ
ik es
play ed
Ġport ion
ĠIm plement
ĠAre a
pie ce
I AL
al d
Ġg el
Ġi Phone
Ġgr an
\\ \\
Ġpu Ã²
ë³ ´
- out
I FI
ar o
op olit
cl am
Ñĩ Ð¸Ðº
Ġser ves
Ġvo or
ÅĽ Äĩ
b rit
Ġb ored
ad vant
th ought
ĠM il
Ġsu ite
Ġus a
ial s
Ñĩ ÐµÑĤ
Ġ{ ĊĊ
Ġì °
Ġcalcul ated
Ġstat istical
ĠÑıÐ²Ð»Ñı ÐµÑĤÑģÑı
ĠÐ¿ÑĢÐ¾Ð± Ð»ÐµÐ¼
! ",
G ET
c ell
× Ĵ
ĠI ll
Ġne ither
ru ction
ÑģÑĤ ÑĥÐ¿
Ġbr idge
hes es
ĠUk rainian
Ġmotiv ation
s ite
ro se
Ġart igo
Ġavoid ing
Ġmix ture
Ġkill ing
Ġban ana
Ġuns ure
ĠëĮĢ íķľ
Ġfif th
( S
d at
n ah
ed ge
Ġcom unic
Ġz ip
ĠQ UESTION
Ġê ´Ģ
Ġfac ilities
ĠDel iver
Ġg ate
Ġhe ll
Ġdis hes
Ġest Ã£o
Ġgrow n
gn i
Ġprim arily
Ġwonder ful
Ġsubsequ ent
ĠmÃ¶ch te
[ Ċ
Ġn ick
Ġre nder
Ġth y
ĠA B
ĠT a
Ġar my
ge ben
Ġcre ature
ĠÐ± Ð°Ð·
ĠÑĥ Ð²
d on
ou v
ĠI CD
ĠP OL
As k
Ġden ied
ato es
Do ctor
Ġseg ur
Ġtim estamp
Ġrom ance
IZ E
ashing ton
ĠÐ¿ÑĢÐ¾Ð´Ñĥ ÐºÑĤ
, T
O lÃ¡
R ules
Y ear
Ï İ
om bre
ĠÐ ¨
ir us
ab y
âĢĻ âĢĻ
ĠSt op
Ġlist ing
vo ice
Ġusu Ã¡rio
åķ Ĩ
Ġb ool
al g
od os
Ġcon ve
ĠC RE
ell t
Ġrel ate
Ġgre et
CL ASS
Ġt ender
Ġthe sis
ĠT om
Ġcon n
ĠS on
ra cy
art y
ĠÑĤ Ð°Ð±
Ġval ores
Ð¾ÑĢ Ð¾Ð²
ĠÃł s
aa S
Ġwin ter
Ġmut ual
ĠÐ¿Ð¾Ðº Ð°Ð·
/ Observation
Ġdo ctors
ĠÑĢ ÐµÐ³
Ġë Ħ
ëĬ ¥
ìĭ Ŀ
Ġlif estyle
en h
Ð¾ ÑĦ
Ġma i
ĠÐ¾ ÑĪÐ¸Ð±
18 5
Ġprec ision
bb ed
II I
Ġfal a
ĠProduct s
ĠÑĢÐµÐ· ÑĥÐ»ÑĮÑĤÐ°ÑĤ
partyt imes
A g
Ì ģ
ë ¹Ħ
Ã¼ nd
ÑĭÐ² Ð°ÑĤÑĮ
ĠPol icy
Ġdistrib uted
Ġkiss es
Ġt us
ĠR o
umm y
åı ĳ
!! !!
cion es
Ġmeasure ments
ĠAb out
ĠÑĢÑĥÑģÑģÐº Ð¸Ð¹
ç½ ®
æ Ķ
Ġd ame
Ġe urope
em pre
à¤ ¤
Ġdisc ord
comm un
ê° ľ
Ġann i
Ġbuy er
Ġimag ery
Ad venture
C ho
w ind
ĠP od
Ġpar l
ik an
æĢ İ
Ġdisrespect ful
Ġt á»
Ġh Ã¡
Ġg ior
Ð¾Ð² Ð°Ð½Ð¸Ðµ
Ġexist e
ĠCalcul ate
INS ERT
? ,
t ag
ĠP ass
ĠD ann
iv ation
__ _
-------- ----
Ġtem ps
Ġvers us
rid ge
Ġimmedi ate
åĩ ł
ow e
Ġ" "Ċ
ĠA ge
Ġ= Ċ
Ð¿ Ð¾Ð»
ik u
Ġrepl acing
Ġleg end
Ð½Ð¸Ðº Ð¸
. )Ċ
B reak
d ated
Ġg at
ĠW er
15 5
æľ ¬
Ġfal ar
Ġhang ing
W idget
ç Ł¥
Ġc ub
Ġhe m
ĠE uro
Ġr iding
now led
Ġsub mission
Ġconsum ers
Â° C
ĠÙĦ ÙĦ
writ ing
å¸ ®
( X
ç ľ
ì Ĥ°
at ur
ĠS ize
Ġex pense
ĠO p
Ġtr Ã¨s
ĠSt ock
Ġhigh lights
ĠÐ½Ð¾Ð² Ð¾ÑģÑĤÑĮ
Ġflex ible
" },Ċ
T ake
_ con
r ange
ut f
ĠS ubject
Ð½ ÐµÑĢ
ĠD B
oc s
ĠÑĢ ÐµÐº
Ġê ±
fil ename
BO X
ĠÐ¿ÑĢÐ°Ð² Ð¸Ð»ÑĮ
Ġaccommod ation
Ġcertific ate
he jiang
Ġsh ipping
ĠÐ² Ð°ÑĢÐ¸Ð°Ð½ÑĤ
Ġz a
Ġpost ed
ĠOff icer
Ġdal am
ĠìķĮëł¤ ì¤ĺ
Ġs z
ch Ã©
ĠC ase
âĢĻ est
Ġel ig
Ġover l
ĠDe v
äº §
Ġmechanism s
Ġ'] '.ĊĊ
Ġlawy er
. start
g ly
Ĵ Ī
Ġt rem
Ġs op
Ġde com
ĠS C
ĠÑģ Ð¾ÑģÑĤÐ°Ð²
ĠIn nov
Ġexpl ic
Ġag es
16 5
Ð¾Ð¶ Ð´
.S implify
Ġadult s
Ġkne es
ÑĢÑĥÐ¿ Ð¿
L S
M R
ļ Į
um es
Ñĥ Ð°Ð»ÑĮ
ĠSt at
Ġpa ired
Ġexpress ing
Ġinval id
© ëĭĪëĭ¤
é £
ag ers
ĠM o
Ġcomp ensation
12 6
che ma
== =Ċ
ĠAp plication
Ġeduc ated
( file
/ .
B ook
F C
P ay
d ess
Ġback up
Ġmon ster
Ġ× ª
pre ad
ĠÐ£ ÐºÑĢÐ°
Ġprod uto
Ġsurround ed
hal ten
. 'Ċ
I RE
é Ľ
Ġa qui
Ġ$ \
14 5
ren ce
Ġhead ing
Ġcr ush
Ġhor a
Ġ__ _
Ġmac ro
L es
N ode
ĉ Ġ
in as
in th
Ġch apters
ĠL oad
Ġsc oring
Ġmal ware
Ġassign ment
Ġtou ched
ĠÐ´Ð¾Ðº ÑĥÐ¼
Ġscr atch
b st
m ath
Ġab dom
per form
Ġx ml
.s core
ĠMach iavell
éĥ ¨
. is
A E
í Ĺ
ri fic
Ġdes e
cl aim
Ġtr an
Ġexam ine
è¯ ĳ
Ġintegr ate
éĢ ļ
Man ager
Ġenth usi
C rie
ç Ļ
Ġt its
Ġb aj
Ġand eren
ĠT ech
Ġha i
act ivity
Ġcomp elling
Ġbo ots
Ġorgan ic
Ġhol es
Ġëª ¨
Ġcogn itive
k le
Ġd educt
el o
et z
Ð½ ÐµÑĤ
Ġim per
ĠÐ² ÐºÐ»ÑİÑĩ
Ġinter pre
à¥ ģ
Ġrobot s
ĠìĹ Ĩ
Ġencourag ing
Ġdoub t
( *
Ġp ont
em o
em and
th y
Ġle wd
Ñĥ Ð»
ĠÑĢ ÑĥÐ±
Ġhapp iness
Ġair port
ĠNe gative
Ġadject ives
R Y
ot ive
ch ildren
ke ys
ĠE C
ãĤ ·
18 6
Ġmult ip
ĠÑģÑĤ ÑĢÐ°Ð½
Ġinvest ments
ĠIN C
Ġfood s
Ġë° ©
ÑģÑĤÑĢÑĥ ÐºÑĨÐ¸
/ min
æ ¨
ç ©
ĠP rom
pp ly
Ġ: )
ĠÂ °
Ġcorrect ed
ĠÑħ Ð¾ÑĤ
Ġmeasure d
ĠÑĤÐ² Ð¾
( data
_ query
c os
Ġt ens
Ġs ia
Ġd ari
ĠA V
ri ft
ĠW enn
ne cess
arm ful
ãĥ Ĺ
Ġhighlight ing
Ġencont rar
f Ã©
Ġt ard
ĠE ss
Ġ? ĊĊ
Ġass im
Ġ× ķ
Ġdem ands
IT ION
Ġconc is
Ġsuggest ive
_b utton
Ġjud g
omet ric
ĠÐ¾Ð¿ÑĢÐµÐ´ ÐµÐ»
: **
y olo
Ġt ension
Ġf Ã¼
Ġde ce
ĠG ender
Ġpo is
Ġoff set
ãĤ ³
par ams
Ġaff ili
Ġeth nic
Ġsell s
ĠØ¹ ÙĦÙī
Ġmac hen
Ġdynam ics
åº Ķ
ĠPH P
' an
L o
Ð ¨
id or
ĠC ountry
ab ling
âĸ ĳ
Ġcru el
ĠÎ¼ Îµ
¯ ¼
Ġto ler
ff e
Ġì ¢
ĠChe m
Ġdecl ar
ĠTR Y
Ġec osystem
FER EN
æģ ¯
P ORT
Ġl ob
et ary
est ed
if s
Ġpro bl
ĠÐ¸ ÑģÐº
Ġdecl ined
Ġassum ed
######## ########
ĠNav y
H ome
ĉ ĠĠĠĠĠĠĠ
om atic
st ory
pe g
iv ating
ost en
Ġcomp aring
te il
ivid ades
brit ies
l ife
Ġp ier
ĠF il
ĠL as
Ġdi as
Ġz usammen
Ġvol upt
Ġadmin istration
ĠCH AR
................................ ................................
âĹ ı
æķĻ ãģĪãģ¦
st atus
Ġla p
Ġup coming
ĠJ iangsu
Ġrel ief
Ġresult ados
po on
Ġimm ature
Ġgain ed
Ġpunct uation
B o
C iao
ç ³
Ġs ap
Ġre vert
ĠI ss
Ġle ague
ĠL abor
ĠÑģ ÐµÑĤÐ¸
Ġover come
Ġback end
18 8
rem ove
lu or
×ķ× ¨
Ġoffic ers
F ood
P ort
Ġp it
ÐµÑĢ ÑĮ
Ġ× Ļ
Ġlog s
Ġbring ing
Ġreplace ment
Ġdeploy ment
-de pth
Ġinspir ation
G L
Y D
Ġt rop
Ġre de
ot ed
ol ly
ad min
ĠC SS
ul ates
Ġup grade
Ġdis abled
Ġra il
Ġprogram m
ÑģÐº Ð¸Ñħ
Ġpur ple
ativ os
ĠÐĴ Ñĭ
ĠIntern al
Ġinstit utions
ëħ ķ
ĠArch ite
b age
Ġt el
Ġf ier
ess ed
âĢĻ d
Ġsc re
ĠÐº Ð»Ð¸
Ġext ended
EN S
Ġown ers
ÑĤÑĮ ÑģÑı
Ġhon or
ĠBr and
, d
/ M
> \
f un
t u
ing e
im b
Ġk ick
Ġinst agram
Ġent ries
Ġactiv ation
åĨ Ĩ
ĠÐ»Ñİ Ð´
Ġempres as
Ġsess ions
- che
P ower
Ġl ors
ad ies
ĠOff er
ĠÑĤÐ¾Ð½Ð°Ð»ÑĮ Ð½Ð¾ÑģÑĤÑĮ
A w
Ġg aming
ĠA CT
em ia
ac cess
ain ed
Ġì ĥĿ
Re asoning
rol og
Ġinvest ing
gi ene
Ġclin ic
ĠOver all
Sc ene
5 12
D M
_ index
h igh
at ial
Ġu k
Ġad vis
Ġpart nership
ĠÐ³ Ð»Ð°Ð²
Ġgl ob
Ð¢ Ñĭ
Ġperfect ly
Em ail
ĠØ§ÙĦØ £
- pl
R ow
e led
r ant
Ġn ouns
ĠN PC
ig ma
Ġqu oi
Ġch ip
ĠB und
ĠSt rait
ĠCom plete
Ð»Ð¸ Ð¹
Ġclient es
ĠÑģÐ¿ Ðµ
Ġmechan ical
arg ument
ĠÑĥÑĩ Ð°ÑģÑĤ
Ġanatom y
ê± °
Ġinsp ired
may be
= self
T ra
i enced
v ille
ç ´
Ġt ant
Ġn ost
ch ied
pl ess
ĠD M
ĠG irl
Ġdis appoint
Ġsp oke
Ð°Ð» ÑģÑı
Ġca ution
mer cial
Com pose
Ġcr ash
ĠRE ST
Ġpu oi
Ġperspect ives
ĠRem ove
Ð¾Ñı Ð½
Ġnp c
ãģĵ ãĤĵ
åī į
L ast
S im
j er
æ ³
ĠT i
ate ful
olog ie
Ġgu itar
Ġlog ging
uff er
Ġcred ential
Ġjog o
Ġo tra
Ġre vised
Ġ( !
ĠR ole
cl ick
ric o
Ġsem i
Ġcomb inations
Ġdiv is
ĠUp date
ĠÑģÐ¿ Ð¾ÑģÐ¾Ð±
çŃ ī
ĠÐºÐ¾ÑĢ Ð¾ÑĤ
. php
Ġa kt
re ason
Ġf its
ĠT ag
Ġar bit
Ġhas h
Ġam or
IN O
EN ER
Ġsch on
'' '
Ġid i
íķĺ ìĹ¬
init ely
fin ition
Ġstrugg ling
Ġcomplain t
Ġsurpr ising
ĠÐ°Ð² ÑĤÐ¾Ð¼
Ġswim ming
, J
E ve
l oc
} ]
¡ ľ
end ers
Ð¾Ð½ ÑĤ
ĠInt erest
ĠÄ Ĳ
Ġfill ing
box y
Ġsubs cription
¿» è¯ĳ
C ap
Ġe ase
Ġde ix
ĠÐ´ Ð°Ð²
Ġdec imal
SE CTION
å¥ ³
ĠAmer icans
Ġkiss ing
Ġwat ches
-a ware
çł ģ
Ġceremon y
S ign
as hes
Ġme in
ĠB ene
Ġper haps
ff ff
ement e
() ;
Ð¸Ð½ Ðµ
Ġaddress ing
ê³ µ
Ġgrad ient
ĠÐ¼Ð¾Ð³ ÑĥÑĤ
ĠÐ¸ÑģÐ¿Ð¾Ð»ÑĮÐ· Ñĥ
S al
f loat
r ition
ĠSt ation
ï¼ ģ
Ġdec iding
ĠSc ient
Ð½Ð¾Ð¼ Ñĥ
ĠSH ORT
Ġmathemat ics
å¯ ¹
_ W
t n
v ari
Ġ ä½łå¥½
Ġsh ocked
ĠM it
Ð» ÐµÑĤ
int es
ear ing
ĠÑĢ Ð¾Ð·
Ġfl irt
By Id
ĠÐ±Ð¾Ð»ÑĮ ÑĪÐµ
ĠSecret ary
ĠM ust
ment ion
ĠF amily
Ġ' '
Ġter rible
ĠÐĿ Ð°Ð¿
ÅĤ a
Ġdiv or
Sh ort
ĠÐºÑĢ Ð°Ñģ
ĠDesign er
Ġobserv ations
ĠLMS YS
_ a
u ated
Ġb att
ed a
im estamp
Ġdis order
str ument
not e
Ġdep ression
Ġenc rypt
ĠÐ¾Ð± Ð»Ð°ÑģÑĤ
Ġkind ly
Ġsold iers
ĠÐķ ÑģÐ»Ð¸
Ġhug ging
ĠBet ter
r ations
ed it
Ġhe ating
Ġch ronic
ĠÐ· Ð°Ð½
ÑģÑĤÐ² Ðµ
åı ¥
áº¥ t
ë Ħ
Ġd angers
Ġm ales
Ġë į
ÑģÐº Ð°Ñı
Ġevery where
Ġrespons ibilities
ux ury
_l ength
Ġrestr icted
Î¼ Î±
Ġdro pped
Ġcook ies
Ġruss ian
Ġf el
Ġin i
ĠC amp
ĠW ars
ĠM ilk
Ã³ rio
Ð°Ðº Ñģ
Ġlong est
18 1
14 4
Ġeffect iveness
Ġfocus es
Ġconnect ing
×Ļ× ª
ĠCent ral
- color
B L
Ġì ²
15 6
Ġanal og
Ġtyp escript
unt ime
Ġcra ck
Ġiniti atives
Ġcontroll er
Ġíķľ êµŃ
M ode
u ct
Ġen ables
ĠWhat s
18 4
ĠPro v
Ġste am
Ġutiliz z
4 20
C ONT
Q t
re ng
Ġb its
ĠM alt
ĠL uc
az a
ĠCh apter
Ġbre ve
Ġshort est
Ġfound ed
Ġincor porate
Ø³ Øª
Ġgrad ually
Ġconsist ing
ÑģÑĤÑĢ Ð¾
Ġliber al
t ail
x i
re act
Ġm art
Ġin ch
ap ple
ĠÑĤ ÐµÐ¼Ñĥ
Ġcap ability
Ġmo aning
ĠInte gr
/ T
8 45
B onjour
_ com
f ather
p act
Ċ ĠĠĠĠĊ
om y
Ġg ithub
ĠP ok
ĠG UIDELINES
Ġro z
ĠÐº Ð²
Ã§ as
ÐµÑĢ Ð¸
Ġact ress
Ġstory tell
He alth
Ġremov ing
Ġgrav ity
Ġperman ent
Ok ay
ĠÐ¼ÐµÐ¶ Ð´Ñĥ
/ n
S H
r ame
Ġwith draw
à¸ ķ
Ùħ ÙĦ
me asure
Ġmem br
Ġpass o
Ġsw ord
æľ Ī
post as
_n um
su per
Ġìł Ħ
Acc ording
ĠBit coin
empor ary
Ins urance
Ġreput ation
- o
n one
Ġw Ã¼r
ĠC ustom
Ġcom edy
iv il
Ġform ation
ÃŃcul o
Ð¾ Ð¾Ð±Ñī
Ġ" @
ul os
ĠP A
ĠW ikipedia
ĠE gypt
ĠÑģ Ð¾ÑģÑĤ
Ġwork out
Ġdef endant
oss ible
ĠSer ver
Ġemp at
There fore
-tun ing
A ccess
[ device
ow a
Ġun iqu
ĠB ra
Ġmod erate
Ġpre nd
umb ai
t ake
u per
ut i
Ġde let
ĠE NT
Ġ' /
Ġim it
Ġper guntas
ap plication
Ġpre guntas
Ġver tical
Ġ< -
Ġz we
az i
ĠPro te
Ġsoc ks
ĠÑģÐ¿ Ð¸ÑģÐ¾Ðº
Ġpy game
Ġstri ke
ĠSen ior
Ġdil uted
Ġêµ ¬
Ġtarjet a
v able
ĉ G
Ġh ub
ĠE t
ĠÐ¾ ÑģÑĤ
ĠÐº ÑĥÑĢ
Ġinv ited
Ġdu ct
. a
p unk
Ġle ather
Ġequ ity
ĠInd ex
Ġdeg li
Ġadministr ative
ĠìĦ¤ ëªħ
J ECT
on al
ith metic
Ġdi am
Ġfl avor
Ġesc al
ilit Ã©
ĠQual ity
sex ual
Ð§ ÑĤÐ¾
Ġrecip es
. H
r Ã³
re b
Ġf urn
ĠH ERE
cri e
Ġgr am
ĠÑĢÐ°Ð· ÑĢÐ°Ð±Ð¾ÑĤ
Ġpick ed
ĠNE VER
GRO UND
í Į
Ġì Ľ
lect ric
Ġown ed
writ ten
geb ra
I ng
g ument
â ĨĴ
Ġs abe
Ġ" -
ĠW ashington
ort s
Ġma pping
ap ing
ĠÐ´ Ð¾Ð±Ð°Ð²
Ġdon ne
Ġintrodu cing
17 2
Ð¸Ð¼ Ð°Ð»ÑĮ
Ġfound er
ins i
Ġexperiment al
ist ance
ĠC it
11 8
pro gram
** *
Ġac qu
âĢĭ Ċ
s al
Ġm ice
al and
ri ge
ĠE th
Ġinst ances
Ġdon ner
Ġmin ister
ãĥ ķ
Spe aker
/ P
b ul
c od
re land
om es
Ġun comfort
Ġmod ello
Ġso y
Ð¾Ð² Ð°
Ġsome where
cons cious
ĠTai wan
B it
C ondition
Ġf Ã¶r
et c
Ġfe at
Ġì ¹
ĠÑĤ ÑĢÐ°Ð½
iss y
Ġra pport
Ġaud it
Ġpath s
ĠON E
ĠÑģÐ²Ð¾ Ð¸Ð¼Ð¸
al led
Ð¿ ÐµÑĢ
Ġdesign ing
Ġqual quer
Ġattempt s
Ġauthent ic
metal gear
( {
- J
: {
F ly
å ģ
í Ķ
Ġs aving
em ed
ðŁ ¤
ĠTo chter
Ġcup s
Ġdecre ased
Ġteen age
. E
O ct
Ġpro yect
ĠÐ¸ Ð³
Ġload ed
Ġutiliz ando
ORT ANT
ĠSpe ech
Ġauthent ication
éľ Ģ
- ,
p assword
ro ad
ul um
ĠP ublic
ĠâĢ ĭ
Ġgener ar
/s ite
ĠFac ility
Ġespec ÃŃ
he art
Ġg ew
Ġde ck
ĠD r
SE T
Or gan
Ġmanufact urer
fÃ¼ hr
Ġembarrass ed
< |
w indow
ĠN atural
ub us
ne um
ĠÑĥ Ð¿ÑĢÐ°Ð²
ĠÐ½Ðµ ÑģÐºÐ¾Ð»ÑĮÐºÐ¾
Ġexpress es
ACK GROUND
Ġarqu ivo
Ġaug ment
Ġ Ã³
Ġp adding
Ġf i
Ġo c
Ð°Ðº ÑĤÐµÑĢ
Ġdem oc
ĠÎ ³
Ġport rait
Ġí Ķ
ĠÐ´ÐµÐ» Ð°ÑĤÑĮ
Ġhous es
ĠLT D
Ġwit ness
ï¬ ģ
Ġhasht ags
boxy lic
H R
d k
m arket
he et
ĠT al
un i
ĠEx t
() );Ċ
Ġbr ut
´ì Ĺ
Ġextract ing
å® ¹
Ġclar ify
ĠTr ade
Ġbras ile
ĠLink ed
S ure
W N
p op
on i
Ġ[ -
ĠÐ½ ÐµÐ¿
ER ATION
Ġprom ising
ĠÐ¾ÑĤ ÑĢ
Ġenc oding
ĠTH IS
RID INE
Sch reibe
íĹ ĺ
: ,
h ire
è µ
Ġm enc
Ġb orrow
Ġre ly
ra ction
ĠP ract
Ġsh ame
Ġcl asse
Ð´ ÐµÑĢÐ¶
ci i
Ġsend o
ug in
Ġdef ect
Ġprof its
Ġhead ings
Ġequ ations
Ġmanag ers
à¥ Ī
è¿ °
Ġutiliz ar
xy gen
ÂłÂłÂłÂł ÂłÂłÂłÂł
Ġìľ ł
Ġbuck et
ĠT or
Ġad j
Ġprov ince
14 1
gg ed
Ð¸Ð¼ ÐµÐ½
Ch oose
ĠCont ract
Ġarg ue
Ġprim a
Ġprop ri
ĠÐ¾ÑĢÐ³ Ð°Ð½Ð¸Ð·
. If
F e
S I
w i
Ù ı
Ġw izard
ed i
Ġbe g
pe at
we ek
ĠÐ¿ÑĢ Ð¾Ð²ÐµÑĢ
Ġreg ex
ê³ Ħ
ĠÐ½Ð°Ð¿ Ð¸Ñģ
Ġenem ies
Ġcohere nce
Ġconte Ãº
ĠH P
Ġno v
ne a
Ð¿ Ð¾Ð²
Ġspecial ist
ĠSer ies
ĠÐ´Ð°Ð½ Ð½ÑĭÐµ
PO ST
Over all
ĠÑįÐº ÑģÐ¿
ĠÐ±Ð¾Ð»ÑĮ ÑĪ
ĠCommit tee
/ E
M iss
am ide
ri j
av g
ĠSt ream
ĠÑĢ Ð¾ÑģÑģ
\n I
Ġhuman o
icht ig
Ġfac ial
ĠSch reibe
Ġroleplay ing
ĠìĿ ¼
Ġinteract ing
ĠChar acter
ëħ Ħ
ĠFranc isco
, \
it en
Ġde posit
Ġdis advant
ĠĠĠĠĠĠĠĠĠĠĠĠĠĠĠĠ ĠĠĠĠ
ĠK nowledge
Ġanal ys
ĠBe ijing
gent ina
head er
Ġcolle agues
Sol ve
-Ch loro
âĸĳ âĸĳ
- at
é Ķ
Ġb ol
ĠW al
Ġi hr
Ġdemand e
ĠAng eles
ĠPhys ician
, D
b at
ĠN ice
ir k
ĠIn stitute
ĠV i
ili pp
isp iel
Ġmand atory
æ¡ Ī
Ġig ual
Ġtestic les
ê ´Ģ
Ġw ieder
im ientos
Ġres idents
Ġout ro
Ġpar ole
ĠÐµ Ñĳ
}, {"
vo ir
miss ions
Ġmeasure ment
ĠDet ection
Ph ys
Ġprod otto
' Ã¨
K EY
Ġo v
Ġy oga
Ġst ats
ĠB ook
Ġpe ak
Ġsoc i
Ġaddress ed
( l
ĉ The
Ġw arehouse
ĠC ERT
if ique
ail le
Ġcol our
Ġra z
Ġchemical s
á» Ľi
bl ue
Ġport ray
Ġphot ography
Ð¸ÑĢÐ¾Ð² Ð°Ð½Ð¸Ñı
Ġgrad uate
ĠUs ers
Ġvictim s
ãģ«ãģ ¡
- V
s im
u v
Ġp ilot
ul ent
Ġal p
art a
Ġr at
Ġad visor
ian a
ĠÃ ¢
Ġformat ting
Ġconse cut
ASS ISTANT
ĠAG AIN
ĠÐ¿Ð» Ð°Ð½
Ġg ere
ra gs
Ġent ails
Ð¾ÑĢ Ð³
Ġfl ask
ĠÐºÐ°Ðº Ð¸Ðµ
init ial
Ġdomain s
Ġsigu ientes
================ ================
ĠEconom ics
æĦ ı
ä½¿ çĶ¨
w ich
Ġst yl
ĠC a
Ġfe ather
Ġgr in
Ġest ado
Ñĸ ÑĤ
thing ton
Ġvari ations
ĠĠĠĠĠĠĠĠĠĠĠĠĠĠĠĠĠĠĠĠĠĠĠĠĠĠĠĠĠĠĠĠĠĠĠĠĠĠĠĠĠĠĠĠĠĠĠĠĠĠĠĠĠĠĠĠĠĠĠĠĠĠĠĠ ĠĠĠĠĠĠĠĠĠĠĠĠĠĠĠĠĠĠĠĠĠĠĠĠĠĠĠĠĠĠĠĠĠĠĠĠĠĠĠĠĠĠĠĠĠĠĠĠĠĠĠĠĠĠĠĠĠĠĠĠĠĠĠĠ
æł ¹
Ġdraft s
Ð¾Ð¶Ð°Ð» ÑĥÐ¹
c ido
h ang
Ø ¸
ĠM ath
ÐµÐ½ Ð½ÑĭÑħ
Ġob j
à¸ Ī
iment al
ĠÐ¢ Ð°Ðº
åĬ Ľ
å¸® æĪĳ
s ome
é ħ
Ġst ages
ant wort
Ġi k
cont inue
Ø§Ø ¦
ĠOn line
Ġann oy
Ġimag in
Ġpun ishment
ĠÐ´Ð¾Ð»Ð¶ Ð½Ñĭ
Ġhop ing
w all
Ġh orm
Ġprovid ers
ĠAr beit
. from
n ung
al ia
od al
Ġbe ating
Ġbel t
arch y
Ġmin i
Ġperform s
Ã¨ res
Î¿ Î½
Ġaff irm
De veloper
Ġcyber security
Ġc ite
ĠL aw
Ġwe iter
Ð¸Ð½ Ñĥ
Ġemb edding
Ġland ing
Ġdemonstr ated
Ġban king
Ġíķ ł
conc ert
Ġbuff er
2 60
` .
o be
at ie
am l
ot ype
Ġde le
Ġun ity
Ġla ke
Ġcur ve
ìł Ħ
Ġcual quier
Ġd orm
est ination
Ġal arm
ĠW E
Ġnot ices
reg ard
Ġpair ing
Ġconvert ed
ĠÐ¿Ð¾Ð»ÑĮÐ·Ð¾Ð² Ð°ÑĤÐµÐ»ÑĮ
ĠÐŃ ÑĤÐ¾
Ġmerc ado
Ð¸Ð·Ð½ ÐµÑģ
Ġpus hed
FOR M
ë£ Į
" \
: If
S D
S P
_ y
Ù Ĳ
ĠC T
ĠGo vernment
Ġenjoy ed
ffect ive
ĠvÃŃ de
èĲ ¥
Ġb unch
st orm
Ġit iner
ach ing
Ġap are
Ġjust ify
Ä± l
Ġrobot ic
Ġhy giene
Ŀ ¤
Ġf ale
Ġf als
ÑĢ Ð¾Ðº
Ð² Ð°
Ġcomp ose
ob j
ãĥ Ń
Ġbeh ave
ĠInt roduction
ìŀ ¬
pu estas
.f ind
Ġregul atory
ãģĵãĤĵ ãģ«ãģ¡
> :
i ros
l ined
r ich
ĠK ong
ÑĢÑĥ Ð¶
Ġdoll ar
Ġbur st
Ġoh ne
G en
Ġt anto
Ġthe ories
es c
Ġw itty
ore r
ĠH u
ĠR ust
iz i
Ġper ce
Ġrel aÃ§Ã£o
Ġmass age
Ġquest a
Ġtend ency
cal cul
Ġbasket ball
Ġexem ple
Analy ze
T oday
f re
l ama
ĉ N
Ġl ick
qu iry
Ġcl ip
Ġprov en
ĠEx amples
hip s
Ġincre ment
Ġvolupt uous
F unction
S C
f rac
Ġt s
in ho
ĠC as
ĠC ir
ur se
Ġint ens
Ġdes p
Ġrespon ds
Ġdro ps
èĭ± æĸĩ
Ġauss i
D ear
y me
in ner
Ġs ys
Ġh am
os se
ber t
Ġbl o
Ġrel ie
pro vince
ĠÐ· Ð°ÑĢ
ĠÑĥ Ð³
Ġmethod ology
CO M
Ġpued en
Ġtall er
Ġjud gment
Ġdepend encies
ĠìĤ¬ ìļ©
H allo
h d
r ado
z u
Ġe ats
ĠT urn
Ġes creva
Ch apter
for der
back ground
--- +
gl ass
ĠSw ed
Ġuncomfort able
ĉ R
ar an
Ġcont rat
Ġav oir
Ġmer ge
ĠÐ¾ÑģÐ½Ð¾Ð² Ðµ
Ġfrag ment
z za
Ġt ack
Ġd ip
Ġb g
Ġn oss
Ġg estion
Ġcom plicated
Ġhe ter
Ġr ural
ãĤ ¿
Ġer ro
ä» £
Ġfast est
Ġgru po
ĠVis ual
y lp
ç Ĥ¹
è ī
Ġs ocket
Ġl ady
Ġl ocked
Ġpar am
Ġdel ight
Ġmo ist
ĠMan ufact
Ġdeliver ing
è¿ Ĳ
Ġpurch ased
Ġcurios ity
. print
: You
B B
G C
g ang
i Ã§Ãµes
Ġd io
Ġpre ference
Ġte as
Ġpo ison
ock er
Ġdec is
Ġcap it
Ġimm ig
Ġadv oc
fl ix
aca o
ĠTransform er
vid ia
= None
} ")Ċ
ĠR d
Ġdis appe
Ġent Ã£o
Ġ} );Ċ
Ġscript s
ĠTrans ited
eb ook
Le ft
ÑıÑĤ ÐµÐ»ÑĮ
urch ase
_to ken
bro oke
ÑģÐ» ÐµÐ´
) )ĊĊ
. </
H as
S l
U DE
è ·
Ġyou th
ri ent
ĠS in
Ġno body
ÐµÐ½ Ð½ÑĭÐ¹
Ð¸ÑĤ Ñĥ
Ġclass mates
Ġframe works
Ġalle ged
Ġdead line
ĠComm and
â ľ
ģ ¬
ar ial
Ġto wer
um ing
us age
ĠP V
ĠM ass
Ġ| \
Ã¤ lt
Ġuna ware
Re al
Ġpat ent
IC K
Cl ick
Ġprint s
ET H
Ġexceed ing
ĠScot ch
Ġrapid ly
" "Ċ
U til
Ġh ired
Ġre vers
Ġre aches
Ġun limited
ĠM el
Ġj ail
ĠL i
Ġsem ant
Øª Ø±
Ġâ ĸ
DI A
Ġep ic
Ġconfig ur
Ġcommit tee
Ġdiscl aimer
Ġconcent ration
ãģ§ãģĻ ãģĭ
ĠÐ°Ð½Ð³ Ð»Ð¸Ð¹
2 12
Ġt y
Ġb act
ĠC oll
Ġme iner
ĠÑģ Ð¿ÑĢ
Ġsome body
ĠUn ity
RE CT
Ġrespond a
Ġpod eria
ĠSup reme
ĠMex ico
Ð¾Ð¶Ð°Ð»ÑĥÐ¹ ÑģÑĤÐ°
' in
_ start
z ia
st a
Ġdo cker
Ġder ived
Ġinf in
Ch annel
Ð¸ÑĩÐµÑģÐº Ð¸Ñħ
ĠÑģÑĤÐ¾ Ð¸Ð¼
. ).
G A
M on
Ġ ],
Ġt rib
al ed
Ġh ook
Ġv ital
Ġk le
IN A
Ġass ault
Ġfl our
Ġclass Name
ĠZ one
-P Y
ibr ary
Ġmane ira
Ġdisgust ing
æĢİ ä¹Ī
# Ċ
_ end
c am
Ġw is
Ġo ct
Ġe uros
AN K
Ġmat plotlib
ĠÂ §
LE D
Com ponent
. ),
B ase
í ĴĪ
Ġm os
per m
Ġper d
ĠÑĤ Ð¸Ð¿
Ġent itled
ĠÐ¼ Ð°ÑĢ
Ð°Ð½Ð¸ ÐµÐ¼
Ġviol ates
Ġfrequ ent
Ġarr ang
ĉĉĉĉĉĉĉĉ ĉĉĉĉĉĉĉĉ
unic ip
ĠMont real
prem ise
b f
Ġo x
if iers
Ð» Ð°ÑĤ
ĠÑģ Ð°Ð¹ÑĤ
Ñħ ÑĢÐ°Ð½
ĠÑĢ Ñĭ
Ġprompt ed
Ġmem b
ica Ã§Ã£o
ivid ual
Ġpolit ely
Ġalign ment
ĠÐ¿Ð¾Ð½ Ð¸Ð¼
Ġinfl amm
Ġnewsp aper
= False
g it
â ĳ
Ġl y
Ġl ign
Ġdo se
ĠP retend
ĠB ody
io res
ĠY o
ÃŃ veis
13 2
ÑĦ ÐµÑĢ
Ġcertain ly
Ġgain s
Ð½Ð¾ÑģÑĤÑĮ Ñİ
Ġplant ation
Ġfantas ies
Ġsoph istic
- CH
. Button
} },
Ġs pl
ar as
se y
Ġv et
ĠP an
Ġj ou
Ġloo se
Cont ainer
Be fore
Ġpron unci
Ġacord o
CLASS IC
it ivity
ĠI reland
og rap
St ream
Ġ× ŀ
ĠÐºÐ¾Ð¼ Ð°Ð½Ð´
Ġhy brid
Ġë§ Ĳ
in os
Ġm ia
Ġin cent
ar ity
ent ry
ĠN arr
qu ot
ĠC I
Ġor den
ĠD iv
Ġr iddle
Ġr anges
Ġout standing
here nt
Ġdec ade
apt ion
Ġsupp ress
åº ¦
BRE AK
_ i
i em
l anguage
u en
Ġch im
Ġart if
Ġcalcul ator
ÅŁ t
ĠIns urance
F P
is ks
Ġin clusive
ĠT es
ĠÐ½ Ð°Ð²
Ġsp ray
Ġgu est
16 1
ĠÑĥ ÑģÑĤÐ°Ð½Ð¾Ð²
Ġengine ers
Ġspeak ers
ĠÐ¶ Ð¸Ð²
Ġill ness
Ġsib lings
Ġpir ate
ĠÑĥÐ½Ð¸ÐºÐ°Ð»ÑĮ Ð½ÑĭÐ¼
' aut
- answer
N I
f m
Ġa j
Ġan om
ĠP our
Ġel es
rig in
Ð¸Ð» Ðµ
yd iving
ÑĪÐ¸ Ð¹
à¹ ģ
Ġpriv ile
Ġprop ag
So ft
ih ood
Ġbesch reibe
ĠÑģÐ¸Ð¼ Ð²Ð¾Ð»
' es
S M
ì Ī
in yl
Ġg ear
ĠC ool
ĠL ow
Ġdis orders
Ġcomm as
Ãł nh
_s core
Ġpret ending
ros c
De velop
edd ed
opt im
ĠAnt i
Ð¾Ð¾Ð±Ñī ÐµÐ½Ð¸Ðµ
. o
. root
G s
l ang
m ens
ou red
Ġm ie
ĠS elf
ÑĢ Ñĭ
ag ger
Ġsh r
Ð» Ð¾Ð²
are r
Ġgr ay
Ġco ast
Ġcontext ual
_d ir
Ġing l
ÃŁ en
-tun ed
ä¿¡ æģ¯
ĠIh nen
" A
Y ST
d am
ĉ W
ĠA ff
ĠS ad
Ġle ak
Ñĥ Ð»Ð¸
Ġint u
du ctor
ĠĠĠĠĠĠĠĠĠĠĠĠĠĠĠĠ ĠĠĠĠĠ
Ġtw itch
Ġfr anc
ID E
Ġlo vely
cont ract
uel a
Ġmole cules
Ġchamp ion
ĠÐ¿ÑĢÐ¾ÑĨ ÐµÑģÑģ
V e
h Ã¶
el ihood
ĠT ri
Ġcan al
ak ter
Ã³ m
comm on
Ġpublic ation
ĠÐ¡ Ðº
Ð°Ñı Ð²
Ġdest ruction
Ġparent heses
éĩ ĳ
Ġpag ina
Ġwonder ing
} }Ċ
Ľ Ħ
Ġm old
ĠN ode
ĠN orthern
se g
ĠS y
ĠC ore
ER R
Ġrel at
\n C
gre en
Ġot ro
~~ ~~
ĠÐ¿ÑĢÐ¾Ð¸Ð· Ð²Ð¾Ð´
Ġeleg ant
, z
- k
M ost
ro c
am ino
ĠP rim
ac les
Ġse o
ĠB ur
Ġk ink
Ġar ts
ĠU nt
ĠÐ¾ ÑĨÐµÐ½
ĠSt ill
.d raw
14 9
Ð¾Ð½ Ðµ
ĠÐ¾ÑĤÐ²ÐµÑĤ Ð°
Ġpes quis
ĠAnaly ze
F ix
r ary
Ã ģ
Ĭ ¤
Ġb oring
Ġto e
ie val
ĠF low
iz aciÃ³n
ass ion
Ġgr ounds
ÐµÐºÑĤ Ð¸Ð²
Ġpurs ue
Ã³g ica
S uggest
b ank
v or
Ġf ails
Ġun necess
ĠÐ¿ Ð»Ð¾
Ġro of
Ġdif eren
Ġcor relation
ĠRe place
á» ĵ
Ð°ÑĢ Ð°ÐºÑĤÐµÑĢ
ÑĥÑİ ÑĤ
ĠðŁ Ĵ
åĪ °
ĠÑĨ Ð²ÐµÑĤ
Ġut f
ëł ¥
_ reg
m un
n ext
er os
ol le
Ġst ead
Ġv ig
ĠD ynam
Ġle cture
ĠF L
ĠÑĤ Ðµ
crib ed
Ġoptim ized
Ġign oring
ĠìĹ °
Ġadopt ed
ÃŃst icas
Ġpyt orch
w ie
Ġ Å¼e
in cess
it z
ĠW ales
Ġres il
Ġint ents
ĠK om
ĠAr m
Ġfut an
Ġfre ely
Im plement
ãĢĤ ĊĊ
-play ing
_ un
b acks
d im
n pm
ĭ ħ
Ġt ah
Ġs ido
as hed
st ers
ÑĤ Ð°
ex port
ang an
Ġdes ktop
Ø§ Ùģ
Ð°Ð½ Ð¾
Ġident ification
à¥ ¤
Ġpress ing
ĠCor p
Ġdepart ments
3 30
D rink
F l
H ave
Ä ģ
Ġc ous
ĠE M
ĠR ule
ĠIn form
Ġsp okes
Ġconsider ations
Ġmag netic
epend ent
Ġsuff ered
Ġsurv ival
Ġattra ction
è§ £
Ġd alla
ag gi
Ġal ta
Ġv iel
ĠP ub
Ġacc eler
Ãł y
ĠGr and
ÐŁÑĢ Ð¸Ð¼ÐµÑĢ
ìķ ½
Ġliter ally
ĠÐ·Ð½Ð° ÐµÑĪÑĮ
_ str
Ú ¯
en os
Ġm use
Ġst orm
ĠS ist
ĠS ud
Ġco al
cent age
Cor rect
on ia
Ġf ot
Ġe re
Ġk ont
ĠF ragen
Ġshe ep
Ġap plies
Ġrep ository
Ùħ Ø¯
ron ym
Ġbi ological
'' 'Ċ
Ġachie ving
Ġprofessional s
ĠQue bec
çī ©
/ H
en ne
Ġd ump
Ġle verage
Ġsent ient
com puter
23 4
-m ail
ĠPer fect
Ġmur d
å· ¥
Ġveloc ity
ĠEduc ation
) ]Ċ
. config
0 11
Ġc ot
ra fo
ĠC rit
ĠP ick
ĠW ait
\n B
-f i
Îµ ÏĤ
Ġut ility
Ġencourag es
âĶĢâĶĢ âĶĢâĶĢ
riz ona
ĠÐ»ÑĥÑĩ ÑĪÐµ
ĠÐºÐ¾Ð»Ð¸ÑĩÐµ ÑģÑĤÐ²Ð¾
- Z
D ay
W ill
_ at
r Ã¨s
s um
Ġc ord
om as
ag a
ĠB rief
Ġout ras
ont e
Ġind eed
Ã¡ ria
à¤ ª
gu ard
ĠÑĤÑĢ ÐµÐ±
- world
c iao
é «
ĠI BM
Ġex clusive
ser vices
Ġreal izes
Ġsl im
_t itle
Ġbi ke
Ġweb page
Ġcy cl
Ġassoci ate
Â» .
å® ļ
Ġregular ly
Ġliv ro
æī Ģ
reng th
( v
Ġin ject
ong o
ap h
ĠÐ½ Ð¸
az u
Ġgra bs
Ġcalcul ating
sch ool
ANS WER
Ġconhe cimento
Ġdisco very
Ġub untu
- me
E P
í ħ
on der
Ġs int
an h
Ġun l
iz ione
Ġcomple ment
Ġunder ne
Ġcor ruption
ric os
Ñĸ Ð·
Ã¶ s
Ġos c
Ġneces ito
Ġdestroy ed
ĠÐ¿Ð¾Ð¼Ð¾Ñī ÑĮÑİ
Ġcompt e
ĠPos itive
mention ed
% D
Ā Ā
Ġe y
ĠB ang
Ġpar aphrase
ĠÐ´ Ð¾Ð¿
13 1
-s ize
Ġcheck ed
Ġpersonal ities
|| Ċ
Ġëĵ ±
Ġrabb it
_ string
Ġre vol
ĠS AY
ĠD NA
Ġdes ert
Ð¸ÑĤ Ð¸
ĠÐ³ ÑĢÑĥÐ¿Ð¿
Ġorgan isation
ĠPl us
_to kens
áº£ n
Ġrecover y
ĠVI OL
S L
b uild
Ġt are
ar am
ig are
Ġtw itter
Ð³ Ð¸
Ãł o
Ġmanip ulative
Ġwood en
ĠÑħÐ¾ÑĢ Ð¾ÑĪ
J ohn
T arget
e en
g os
Å ĵ
Ġd ÃŃas
Ġl engu
ĠO ption
ĠRe ceived
Ġë Ķ
18 9
-s cale
ĠCon nect
Ġthreat s
ĠgÃ©n Ã©
: A
C oll
O s
e a
Ġ ÑĨÐ¸
Ġf ruits
Ġpull ing
Ġrh ym
Ġevalu ating
Ġcircu it
C M
Ġt we
Ġres postas
Ñĭ Ð¼Ð¸
Ġver t
Ġapp arent
ĠÃ© gal
Ð°Ð¶ Ðµ
Ġemploy ed
-st yle
Ġcha que
Ġdram a
Ġrev ise
Ġack nowled
Ġ åĲ¦
Ġw ound
Ġfor n
Ġde ine
ÑĢ Ð¾Ð¼
ud ad
Ġam azon
ĠK ont
Ġsl am
ĠÐ¾ÑĤ ÐºÑĢ
ĠÐ¶ ÐµÐ»
Ġconv in
Ġgreen house
Ġcontrib utions
Ġsuff er
Ġsynt hes
ĠìĹ ¬
Ġ×© ×ľ
Ġrenew able
Ġreven ues
Ġtensor flow
Ġapre nder
) ]
at ro
as tern
ad en
Ñı Ñī
Ġexpl ique
ER Y
Ġprof es
Ġexcept ional
su it
ĠÐ½Ð°Ð¿ ÑĢÐ°Ð²
Ġhur ts
ĠP ress
ĠD HS
Ġav al
Ġspecific ations
Th ree
Ġmar ry
Ġsn ap
Ø¨ ÙĬ
ĠÐ¿Ð¾Ð» Ð¾Ð¶
Go ogle
ĠAssoci ation
ĠÑħÐ¾Ñĩ Ñĥ
ĠÐ¿ÐµÑĢÑģ Ð¾Ð½
' ex
. O
. value
B ody
r ants
w est
x ual
Ġw oke
al ah
Ġth reshold
ĠS ource
Ġch rom
ĠL ic
ĠG ed
Ġdis se
Ġdis pute
ov ed
Th anks
Ġsi empre
Ġchild hood
æľ º
Ġethical ity
Ð¸ÑĩÐµÑģÐº Ð¾Ð¹
Up date
ĠExc ellent
- art
- form
5 50
L ength
Ù ĭ
on ces
ent re
el en
Ġab ord
Ġch ances
Ġcol oc
Ġob sc
Qu ant
Ġcons pira
Ġ× Ľ
ÑĭÐ² Ð°ÐµÑĤ
Ġbreath ing
Ġking dom
ĠPRI MARY
Ġphenomen on
Ġre ck
Ġpl t
Ġreal m
\n D
ĠEx pert
ĠÃ© l
Ġgrand mother
Äĥ ng
áº¿ n
Ġë³ ´
Ã¤d chen
Ġlon ely
. run
F i
c amera
Ġd iz
ĠP en
iz able
ail and
Ġext roverted
ĠÐ± Ð°Ð»Ð»
Ġend point
Ġenc uent
ÐµÐ½ÑĤ Ñĭ
Ġemp athy
Ġê³ µ
exper ienced
ĠMedic ine
Ġh ire
Ġch urch
ĠE p
ĠR ating
Ġbl ushing
Ġinter rupt
Ġob ed
ĠQu estions
ĠPh ilipp
Ġmind ful
Pl ayer
Ġprotect ed
Ġnu est
ĠÐ¸ÑģÑĤ Ð¾ÑĢ
ãģĵãĤĵãģ«ãģ¡ ãģ¯
Ġ ;Ċ
ĳ ľ
Ġc z
it Ã¤t
Ġand ere
ĠI de
ĠT imes
Ġst ood
ĠW atch
ĠF I
ass y
Ġown ership
Ġnorm s
'' .
net es
Ġesc aped
Ġsen za
Su pport
å¤§ åĮº
Ġwid get
geb ung
ĠPharm aceutical
Ġplag iar
r ons
v imi
Ù ¾
Ń Ĳ
Ġl ens
Ð½ Ñİ
Ġsu cks
ĠL STM
Ġtw in
Ġac quisition
Ġsmall est
ĠÐ±Ñĭ Ð»Ð¸
Ġadvent ures
Ġprime ira
Ġmasturb ate
Def ault
, ,Ċ
S ince
Ã į
in nen
Ġde ber
15 3
13 4
ze ug
Ġpresent ing
Ġdep icts
AD O
ç» ĵ
ĠZe aland
Ġìĸ´ë ĸ
B T
D isc
v an
Ġa k
Ġm arch
Ġqu ien
ãģ ¤
Ġ{ \"
Ã³ p
IC Y
Ġsens ation
Ġcolor ful
Ġnatural ly
åŃ ¦
Ġrh yme
âĦ ¢
Ġobe y
) [
. z
W indows
Ġc res
Ġhe nce
ĠO ptions
ĠÑģ ÐµÐ¹ÑĩÐ°Ñģ
Ġext ends
Ġrec ru
Ġhab il
? ĊĊĊ
O F
on ing
Ġm amm
ĠN othing
ĠC ross
Ġv u
Ġdis k
Ġdu as
IC A
Ġbelie f
Ġenc ryption
ydro xy
Ġtransl ated
Ġunderne ath
Ġo ven
ic ip
Ġst oria
ĠF all
Ġsent ido
ÐµÐ½ Ð½ÑĭÐµ
Ã¡ t
Ġshort ly
Ġref ine
Ġsing er
Ġdat i
aj or
à¹ ĥ
ane ous
ĠÙħ ØŃ
ĠST R
ÙĤ Ø¯
Ð¸ÑĩÐµÑģÐº Ð¸Ðµ
ĠTr ust
Ġwra pped
' T
2 17
B ar
Ġd ungeon
em Ã¡s
Ġar gu
Ġche ating
Ġcre atively
Ġer g
ĠDo ctor
22 2
ìĦ ł
ĠÐºÐ¾Ð½ ÑĤ
Class ify
Ġcoun cil
3 45
en en
Ġin jection
Ġl inger
ib e
ÐµÐ½ Ð½Ð¾Ð¹
Ġposs a
14 3
Ġmar ca
Ġgovern ments
Al so
ĠAS S
åħ ĥ
ĠSol ution
******** ********
Ġdiscipl ine
Ġspirit ual
Hand ler
D u
ì §Ħ
in ha
ĠI o
Ġde grad
ÑĢ Ð°Ñģ
ere rs
ĠÐ¿ÑĢ Ð¸Ð»
user name
ĠĊĊ ĠĊĊ
17 9
ĠMy SQL
Ġsens ory
Ġter ra
Des ign
Ġlab eled
Ġarri val
ĠÐ·Ð°Ðº Ð¾Ð½
Ġattra ctions
ĠÑĤÐ°Ð± Ð»Ð¸
Ŀ¤ ï¸ı
c ould
Ġc pu
Ġp ale
ĠT er
ÑĢ Ð¸
ul gar
Ñĥ ÑĢÐ°
ĠĠĠĠĠĠĠĠĠĠĠĠĠĠĠĠ ĠĠ
ft on
Ġsub section
Ġindic ators
Ġpast e
ĠÑįÑĤ Ð¾Ð¹
Ġintent ions
ĠId ent
éģ ĵ
Ġghost writer
-dim ensional
ĠAlp aca
Ġfutan ari
/ f
v als
Ġc rop
Ġn em
il ation
Ġg esch
ĠA rizona
ig ious
ĠD IS
Ġse am
Ġpr ayer
Ġinter ior
Ġass hole
ĠQ U
LE FT
Ġgen u
abe i
ĠMod ule
Ġsimpl er
Ġfavour ite
RIMID INE
f on
è £
Ġin complete
ĠS ET
Ġsh out
ĠF rage
ĠO UR
Ġma id
.. .ĊĊ
ip her
In formation
Ġac ima
Ġsl urs
Ġlog ically
ê° Ŀ
Ġcur vy
Ġsat ell
Ġsupp ose
Ġdiagn osed
Ġger ne
Ġpossib ilities
AIL BREAK
Ġnurs ing
ĠÑĤÐµÑħÐ½ Ð¾Ð»Ð¾Ð³
Insurance XYZ
) *
. cl
Ġa irl
Ġh oy
Ġme io
Ġqu it
Ġqu iz
ĠÐ¾ Ð³ÑĢ
Ã¤ ll
ĠÐ¾ÑĤ Ð²ÐµÑĩ
ĠĠĠĠĠĠĠĠĠĠĠĠĠĠĠĠĠĠĠĠĠĠĠĠĠĠĠĠĠĠĠĠ ĠĠĠ
ny a
ĠPr ime
Ġincred ible
Ġeld er
e fficient
Ġt ie
Ġs ink
Ġs educe
er pt
ĠI ran
ĠH ard
ia a
15 1
Ġclass ical
Ġpun ch
ĠDis play
Ġvir al
ĠBit te
ì¹ ĺ
uxt ap
3 11
_ sh
Î ¾
al so
ĠC e
ex amples
us hes
Ġfe cha
de c
ĠÑĢ Ð°Ð²
ĠCh ief
Ġport al
Ġprecis a
ĠrÃ©pond re
Ġw ings
Ġo gni
ra q
ĠM and
Ġtw enty
Ġ* /
Ġrest art
Ġselect ing
Ġcur se
ĠCol lected
empt y
Ġf oss
Ġun w
Ġsu cking
Ġnew ly
Ġdef end
med ia
ĠAct ive
ĠÐ±Ñĭ Ð»Ð°
Ġemb ar
Ġseg undo
ĠWith in
åħ ¨
Ġsqu ir
-B romo
Ġcontract s
Ġtab la
Ġverb ose
Ġprojet o
ĠExper ience
Æ°á»£ c
C V
b ild
g les
æ ´
Ġw ww
Ġl un
ĠW rit
ĠÐ½ Ð¸Ðº
Ð°Ð» Ð¸ÑģÑĤ
AL S
Ġreview ing
room s
Ġdam aging
ĠÑıÐ·Ñĭ Ðº
ĠÃº n
Ġhung ry
-gener ated
Ġentertain ment
ĠSher brooke
" ":
D el
U SE
Ġm l
Ġf iled
Ġcom ando
iv amente
Ġque ue
ĠCO LL
Ġmot s
Ġhouse hold
.j ava
Ġstreng then
Ġregist ration
è¨ Ģ
Ġcompat ible
Ġs issy
Ġf ais
Ġb id
ul d
Ġse ats
iv i
ĠB R
ĠÑģ ÑĥÐ´
ber ry
ors es
ax is
17 8
Ġpass ing
Ġìŀ ĳ
Ġconse gu
ĠPer form
Ġlav oro
Ġtherap ist
c ountry
Ġde po
ess er
ĠV ale
ãĥ ¬
Cl iente
_f iles
_l ocation
Ð¸Ñı ÑĤ
Ġur ine
pa per
ĠÃ©t ait
ç³ »
0 12
7 20
Â ´
Ġthat s
ĠM obile
Ðº Ð¾Ð»
ich a
AN CE
ĠÐ¼ ÐµÑģÑı
Ġevery body
ĠUS B
Ġpast a
Ġpull s
Ġemphas is
IFI ED
( {Ċ
j ekt
Ġt aught
Ġw ins
an ic
ĠN um
Ġj uxtap
ard en
ĠĠĠĠĠĠĠĠĠĠĠĠĠĠĠĠ ĠĠĠĠĠĠĠĠ
Ġsim ul
Ġcons olid
Ġbr ill
Ġdist urb
ĠFr ont
Un it
QQQQ QQQQ
Ġamer ican
ĠëĲ ĺ
id ays
us p
Ġpl enty
Ġsol ved
nc y
ĠMus ic
Ã¡g ina
Ġoppon ent
- lo
L ab
f uck
st atic
ro tic
ir ma
Ġ' \
Ġdis posit
." .
ĠÑĤ ÐµÑģÑĤ
ãĥ »
Ġcontext s
Ġ-- Ċ
Ġ Ñİ
Ġt il
ĠS ummer
ĠD C
Ġ- Ċ
Ġsoc ied
ĠEn vironment
met a
Ġcomment ary
CI I
Ġhar ass
IM IT
à¦¿ à¦
Ġsow ie
. ](
b old
Î ĳ
ot ypes
Ġun ion
ĠV oice
Ġra g
ah n
ĠÑĥ ÑĢÐ¾Ð²
}} .
TE GER
ĠBest InsuranceXYZ
à§ĩ à¦
( id
s rc
ri ff
Ġun ited
Ġrem orse
ĠCan adian
ĠAl right
ĠX uxuul
ĉĉĉĉ Ċ
fr fr
-se a
Gener al
Ġhob bies
ĠEver ything
M arket
j in
or it
Ġb ast
Ġb atter
pe ction
ĠW ow
ĠR iver
ĠG reek
ãģ ĳ
15 4
ĠÐ± Ð¸Ð·Ð½ÐµÑģ
ÑģÐº Ð¸Ðµ
Ġref uses
app ro
Ġcu isine
Ġexc erpt
ĠÐ¸Ð· Ð¼ÐµÐ½
ĠØ¨ Ø§ÙĦ
ĠPer formance
Ass ume
Ġevalu ated
Ġdesenvolv imento
C re
L ead
Ġs age
Ġf ic
ĠR ock
Ġout ra
ind e
Ġest oy
olog ÃŃa
Ð°Ð½Ð¸ Ñİ
_t able
ĠÐ¾ÑĤ Ð´
AS H
ĠÑį Ð»ÐµÐ¼
Ġris ing
Im port
rap per
Ġseg ments
Ġfall en
Ġdies er
Ġdeve m
Ġporn ographic
itar ian
ĠStand ard
Ġluck y
Ġvolt age
- z
V ar
] py
Ð ¥
Ġin experienced
em i
ĠK on
Ġtrans parent
ĠÐ³ Ð»
ÑĥÑĢ Ñĭ
Ab out
ç¤º ä¾ĭ
B et
Q UEST
l ers
Ð ¦
Ġb ang
Ġin clus
ĠS m
ĠS Ã£o
ĠB uild
ain ing
ĠL ocal
Ġprov oc
Ġdoes nt
AN Y
ier ten
Ġread ability
Ġequ ally
ĠÐŁ Ð¾
aw a
Ġtemper atura
Ġemb race
dom ain
Ġconduct ing
ÑİÑĤ ÑģÑı
P y
i ene
n ament
é ĸ
Ġst em
ĠM AR
ÃŃ m
ĠAs sist
Ġrequest ing
ĠØ¨ ÙĨ
Per form
Ġsav ings
Ġstrugg les
ĠÐ¿Ð¾Ð»ÑĥÑĩ Ð¸Ð»ÑģÑı
Ġautonom ous
Ġproport ion
) }
h yd
u ant
¥ ¼
st op
ĠN A
Ð¸ Ñī
ĠT ITLE
ĠC at
pl ane
ĠW i
ĠG R
Ġinter vention
Ġlar g
Ġtri ps
æĸ °
pec ies
UST O
Ġdies em
> "
he iro
en ishment
Ġj am
ÑĮ Ñı
ÃŃ nh
ÐµÐ» Ð°
18 2
Ð³ Ð¾ÑĢ
Ġ* Ċ
Ġsuggest ing
Ġclos est
Int e
ĠAC ID
ĠDES IGN
ÑģÑĭ Ð»
. write
_ response
he res
Ġc ient
ou ri
Ġd ual
Ġo xygen
am er
ĠS ports
Ġche ek
tic os
ĠK annst
ĠÑĢ Ñĥ
}} '
ĠDO B
ÑģÑĤÐ°Ð² ÑĮ
ëŁ ¬
Ġscre ens
Ġunnecess ary
2 13
4 80
ore n
ie le
Ñĭ Ñĩ
Ġwe ite
ĠU P
Ġcomplet ing
Ġtr as
ĠK now
ÑĨ Ñĥ
13 6
Ġfil le
ĠÐ²Ñĭ Ñģ
Ġblock ed
onym ous
ĠFurther more
_ ST
d ed
it ious
el on
ra Ã§Ã£o
ĠP ers
ĠD oll
Ġsh ock
ĠØ µ
ivid ade
Ġpres cription
Ġâ ĨĴ
Ġremain ed
car bon
Ġsold ier
dis play
Ġobvious ly
ĠTok yo
G S
x is
Ġle urs
ÐµÐ½ Ð¾
ĠÐ´ Ðµ
Ġest ou
à¸ Ľ
Ùħ Ø©
-s pe
äº Ľ
Ġmis le
Ġcontrib ution
Ġheav ily
Ġmount ains
Ġaccident ally
ĠMOD ERATION
-che cking
R ob
n n
è Ĭ
ine ering
Ġsome how
ĠK ind
Ġinv ite
Ġkey board
ced ure
Ġpresent e
Ġdri vers
Ġê° ľ
ĠÐºÐ¾Ð½ ÑĤÑĢ
Ġpan els
cor rect
'a ime
pack age
ĠÑĢÐ°Ð·Ð² Ð¸ÑĤ
ĠHaw aii
ĠÃ©gal ement
, n
h ypothesis
t opic
Ġa insi
Ġd ashboard
st ack
ose xual
Ġlo ver
ÑĦ ÑĦ
-m aking
edu ction
Ġmanip ulation
Ġalph a
Ġelig ible
ĠVIOL ATES
6 50
6 01
D irection
p ing
Â ²
ê ·¸
Ġp ep
Ġv os
âĢ ²
20 7
Ġdis so
Ġbu gs
40 1
Ġident ific
Ġdist ract
Ġhor izontal
Ġgal axy
Ġsimilarly Now
ĠÐºÐ»ÑİÑĩ ÐµÐ²
C at
E very
V I
\ lib
Ġt ale
Ġt urb
Ġp iss
Ġdo v
ĠD im
00 4
ĠM ult
Ġplan ets
ĠEn h
Ġcou rage
ĠÐ´Ð¾Ð»Ð¶ Ð½Ð°
Ġinj ured
or ie
Ġun ic
ĠD ATE
Ð°ÑĤ Ðµ
Ġele phant
Con vert
ĠPh ot
ĠÐ¾Ñģ Ð¾Ð±
abil idade
ç¨ ĭ
FEREN CES
P olicy
Ġbe ings
Ġby te
Ġag enda
Ġcor pus
13 3
EN E
Ġnecess arily
Ġmention ing
Ġcompet e
Ġamb ient
_w idth
Ġcred its
Ġtutor ial
. pre
W B
d og
m usic
Ġh ij
ĠC ATEG
pe red
Ġal gu
ĠL u
ĠG ames
vent ions
Ġprint ing
log o
Ġexerc ises
Eng lish
a Ã±
b orn
d p
im et
ĠS ummar
ver b
ĠJ a
ĠRe commend
Ġpol ish
ĠÐ° Ð±
.t itle
Ġpredict ed
Ã² ng
ë© °
å¦Ĥ ä½ķ
ĠâĪ Ĵ
ĠCommun ity
ĠÑĥÑģÐ» Ð¾Ð²
- col
D ER
n ummer
o or
r ates
Ġto da
ĠC reat
oo oo
à¸ ¸
ĠAn n
ĠBe ach
66 6
Ġhom es
ĠMon itor
ĠAg ain
Ġfuncion a
Ġassert ive
iiii iiii
ì¦ Ŀ
ĠÎ½ Î±
Ġcredential s
( h
- one
} ;Ċ
Ġthe ft
st Ã¤nd
ĠF ive
ost a
av ed
16 4
ä½ ĵ
ĠRes pons
Ġtyp ing
uz ione
Ġtecn ologia
ĠEmploy ee
" This
c ris
p ip
ĠÐ ¦
ig ation
ac ific
Ġres puestas
Ġinform azioni
Ġind ia
Ġdon c
Ġbr an
Ġdifferent ly
Ð»Ð¸ Ð½
Ġmar g
Ġrece ipt
ĠAt l
Ġcoll ar
Ġsequ ences
Ġgrand ma
_st ate
ĠZe it
Ġentr ance
æŃ £
Ġmanif est
Ġslog an
W ater
g ree
ë ¯¼
er i
ell i
Ġest ilo
ĠÑĩ Ð°Ñģ
Ġvi ene
Ġparticip ating
Ġaffect s
Ġreflect s
Ġcry ing
Ġack nowledge
' av
. Data
G T
T ech
n ement
at ile
ÑĤ Ñĭ
Ġal ors
Ġover head
ĠØ§ÙĦ Ø³
_f rom
ĠFr ame
Ġanaly se
ĠWith out
ÑħÐ¾Ð´ Ð¸ÑĤ
uz z
LOR O
ĠdiffÃ© rent
ĠCOLL ATE
_ k
m u
at isf
ĠS uch
Ġne ut
iz ada
og urt
Ġmy th
Ġper ception
ĠÃ Ĺ
Ġra ces
ator i
Ġhead qu
ien st
Ġmom ents
Ġrad ius
Ġcooper ation
I MP
T EXT
Ġu pt
ol ver
Ġ( âĢľ
Ġv amos
Ġdo ve
us ers
Ġqu ale
ĠW at
ĠÐ¿ Ð¾Ð³
Ġprov ision
ĠÐº Ð°ÑĢÑĤ
ĠPl ayer
Ġchair man
VID IA
arrant y
b ere
Ġt issue
ra ch
res a
Ġli bre
ap at
ĠÑĤ ÐµÐ¿
ĠTh ird
ĠÐ· Ð°ÑıÐ²
18 3
Ġless ons
Ð¡ Ð¾Ð¾Ð±ÑīÐµÐ½Ð¸Ðµ
ĠWor ks
Ġri val
ĠÄĳ Æ°á»£c
Ġvisit ors
Ġhund reds
Ġconspira cy
Ġplagiar ism
. out
? !
V EL
Ġd ancing
ar beit
il ib
ĠR ED
Ġche eks
Ġsl ip
ĠQ A
Ä± m
Øª Ø¨
Ġë¶ Ħ
Ġconcis ely
æł¹ æį®
d t
z ioni
{ NAME
Ġsh apes
ĠH ub
ĠB ERT
Ð¼ ÐµÑģÑĤ
Ġac ronym
ĠAl g
ĠÐ° ÑĤ
Îµ Ïģ
Ñĳ Ð¼
(n um
ë° ©
Ġrefere nc
ĠViet namese
ìķĪ ëħķ
O pt
g age
Ġb pm
Ġext ensions
íķ ¨
Ġprocess ed
uck et
Ġbreast ed
cy cle
åħ ¥
Ġabs ence
Ġdiff ers
Su ppose
Role play
STRU CTION
( image
/ j
/ re
Ġc able
an es
Ġp iano
Ġn oun
us hed
th rough
ov ie
arm s
Ġ× Ĺ
ĠÐ° Ð»
Ð¸ÑĩÐµÑģÐº Ð¾Ð³Ð¾
ä¸Ģ ä¸ĭ
Æ° Æ¡
á»ĩ t
Ġtempor ary
rep resent
Ġvibr ant
. res
J AILBREAK
le v
ic ul
Ġl uxury
am t
ĠP assage
ĠE UR
Ġout er
Ġsp ends
ĠTh ose
par ser
att ered
vi ol
Ġgen etic
ÐĿ Ðµ
_T YPE
Net work
Ġopposite ley
Ġdevi ation
Ġverd ade
Ġdefe at
Ġconserv ative
a que
e urs
Ġb aking
nt en
ĠL I
ĠIn cre
av ailable
ĠJ our
Ð¿ Ð¸Ñģ
get to
ãĤ ģ
cul o
Ġâ ĭħ
ï¼ļ ĊĊ
add y
Ġìĺ ¤
Ġorient ation
spe aker
Ã©l Ã©
" ],Ċ
pt on
ĠP riv
Ġab und
Ġwor ship
ĠF lor
ĠU nd
Ġper mitted
ĠÐ² Ð¾Ð»
Ġpos ible
ĠÐ´ Ð¸
Ġatt ending
ĠBe aut
Ġrepresent ations
Ġstop s
ĠÐ¾Ð±ÑĬ ÐµÐºÑĤ
Ġexplo it
) {Ċ
P a
g iven
g raph
if ting
ener gy
Ġhapp ier
æľ Ł
Al ways
Ġmas cul
ĠÐ²Ñģ ÐµÑħ
ĠÑģÐ¾ Ð¾ÑĤÐ²ÐµÑĤ
Ġstruct ural
ĠUm gebung
Ġteen ager
à¥įà¤ ¯
ogen ic
# define
A H
f as
Ġt ang
Ġm um
Ġf uer
Ġcon clude
Ġj an
Ñĩ Ðµ
ĠÐ¼ ÑĥÐ¶
Ex t
Ġmem e
Ġpass ive
ron es
Ġpas o
sp ace
Ġwal let
ĠSu ite
Ġimag ination
ĠÑģÐº Ð¾Ð»ÑĮÐºÐ¾
Ġdepend ency
Ġintel lectual
ĠmÃ¡ ximo
æ¨ ¡
B ound
k ish
m oral
Ġn ing
ĠP age
ĠP ayment
ast y
Ð°Ð» Ð¾ÑģÑĮ
ãĤ µ
ãĤ ¸
RO S
Ġmor ally
by e
new s
Ġaw s
è¿ ĩ
ĠÐĲ Ð½
Ġconsist ency
Ð°Ð¹ÑĤ Ð¸
Ġdiscount s
uber netes
Ġsau ce
ĠÐ¿Ð¾Ñĩ ÐµÐ¼Ñĥ
he nd
Ġw ifi
le ich
Ġo cor
Ġcon ect
ab l
ab bro
oc iaÃ§Ã£o
Ġinst ant
ĠĠĠĠĠĠĠĠĠĠĠĠĠĠĠĠ ĠĠĠĠĠĠ
22 1
.l ayers
}} :
Ġtransfer red
Ġvulner abilities
Ġreject ed
Ġjuxtap osition
E qu
s es
ĠN am
Ġfor am
pl ique
ĠB at
Ġdi ary
Ġsa Ãºde
St and
Ġour selves
17 7
Ġcle ver
Ġdr one
Ġautom at
Ġcoll ision
Ġintegr al
Ġassoci ation
Ġremind er
ĠAN S
Ġfib onacci
ĠÑĩÐµÐ»Ð¾Ð²ÐµÐº Ð°
- known
] -
Ġs crivi
um en
ĠS M
ĠF R
iz en
** :
### \
Ġfr ames
Ġvis its
IC S
Ġcomput ational
Ġconsult a
Ġfarm ers
Ġpasseng er
ĠÑī Ð¾
Ġitiner ary
= tk
E nc
_ url
f et
p ed
Ġn yl
ro llo
Ġas ÃŃ
ĠC opy
ur istic
Ġv eter
ac cept
ort ed
Ġk am
Ġmod al
ĠIn fo
Ġpar ag
Ã¡ veis
Ġfl ood
-s pecific
Ġfut uro
åı ·
De v
ĠGr ade
ÐĿ Ðŀ
ĠMe an
Col lection
Ġrough ly
ĠBer lin
ĠViet nam
ï»¿ ï»¿
- x
= ?
E val
R ate
h ydro
í Ĩµ
Ġl s
ĠI raq
ra int
âĢĻ une
Ã¡ rias
any a
à¸ ·
Ġx xx
ĠWe ek
Ġbas eline
Ġstay ed
bi ased
ĠÑĦÑĥÐ½ÐºÑĨÐ¸ Ð¸
ubb orn
ĠMiss ouri
ĠÐ´Ð¾ÑģÑĤ ÑĥÐ¿
ç ¿»è¯ĳ
Ġh unt
ĠD ies
ĠB in
ĠG AME
Ð°Ð½ Ñģ
17 1
Ġles bian
ÏĦ Î¿
Ġho je
Ġant wort
') ,Ċ
Ġpu is
Ġbound ing
Ġpow der
P RE
Q UE
p f
Ġw rest
ĠS UP
Ġmod Ã¨
Ġsp atial
ä¸ ļ
iqu er
Ġnarr ation
Ġcapt ivating
Ġë° ı
Ġìĺ Ī
Ġhung er
ĠScot land
ĠFA Q
] ['
Ġm Ã³
ĠM ale
ĠG ewer
form a
Ġent ender
ĠÐ· Ð½
ãĢ Ĳ
Ġcompet itors
Ġìķ Ī
Ġminim ize
Ġconsult ing
çİ °
ĠOpt im
Ġdesar roll
ĠÐ½ÐµÐ¾Ð±ÑħÐ¾Ð´Ð¸Ð¼ Ð¾
YST EM
Ġlinger ie
d c
l iv
n ies
ost ic
Ġdet all
ĠV en
âĢĿ ĊĊ
Ġreg ulation
Ġimp erson
27 0
ĠìĿ ĺ
ĠÑģÑĤÑĢ Ð°Ð½Ð¸
Ġserious ly
á»Ļ i
Ġexcess ive
Ġaggreg ate
ĠconteÃº do
j am
Ġt ear
Ġm io
Ġres on
ĠIn come
Ð¼ Ñĭ
Ð¾Ð» Ð¾Ð´
15 2
ĠØ ¢
Ġactiv ate
uff y
à¸²à¸ £
akt ion
ĠTrad ing
A X
ÑĢ ÐµÐ½
ÑĢ Ð¸ÑĤ
Ġtr ong
Ã§ ar
Ã¶ t
Ġmen y
ĠIN TO
key word
Ġtre ating
ogn ition
Ġcur ves
Ġpoem a
Ġcampaign s
ĠÐ¸Ð½ÑĦÐ¾ÑĢÐ¼ Ð°ÑĨÐ¸Ð¸
ĠBay watch
ĠGit Hub
< div
P D
P F
T rad
im ation
ĠS aaS
if en
Ġcomplet o
Ġsc ar
Ġche f
OT AL
Ġaccom pan
Ġadmin ist
process ing
iam o
ĠaÃ± o
Ġconflict s
Ġconsecut ive
. V
j Äħ
Ġd are
Ġe bon
Ġro ots
ĠSt an
Ġgr asp
14 6
Ġdeterm ination
Ġvis a
ĠÐ¾ÑĤ Ð¿ÑĢÐ°Ð²
ÅĤ o
--- ĊĊ
Ġconsult ant
ĠCent re
-sh irt
Ġrh yth
Final ly
Ġpowers hell
B IT
O p
Î ²
ç Ī
er ves
oc re
ĠR oll
ĠÐ½ ÐµÐ³Ð¾
Ġ/ *
Ġra cing
Ġprof itable
è¯ Ŀ
Ġtemper atures
Ġcur so
Ġmaintain ed
Act ive
ĠCons ult
ĠAnal yst
Ġresum en
ĠEmp ire
Ð±ÐµÑĢ Ð¸ÑĤÐµ
Ġcryptoc urrencies
Ġambigu ity
Ġì¶ Ķ
O ps
æ ²
ê ·
Ġw ars
an ies
ru ck
ĠL ord
Ġout fits
Ġper verted
Ġdel icate
Ġmin ing
Ġein f
ĠÙħ Ø§
Ġrein forcement
ĠDisc uss
' util
_ per
g on
ra ble
ĠL LC
pon de
ĠÐ² Ð¾Ñģ
IN IUS
ê° ģ
ĠÃ¡ rea
.ex e
b res
Ġp om
il ds
ol v
ol ved
Ġhe els
Ġit u
Ġwas hing
Ġgo ver
Ġag encies
Ġcor po
pro of
Ġold est
ĠChat bot
Ġview ers
lu oro
Ġhab lar
Ġgovern ance
Ġdeb ug
Ġadvert is
Det ails
Ġrecurs os
Ġpalav ra
Ġnegot i
Back ground
Ġdepo is
Y ES
t x
ĠR io
ĠG er
Ġbl ouse
Ġent reg
Ġrec her
ĠCom b
IC H
ÐµÐ³ Ð´Ð°
}, {
ĠÐĿ Ð¾
Ġviol ation
ĠBl ock
Ġabs urd
Ġaltern ate
ĠApp ro
Ġhypnot ist
Ġfacilit ate
Ġsimultane ously
ĠPOL ICY
U ES
_ and
Ġw akes
Ġst ubborn
are m
vel opp
Ġinter mediate
AR BOX
Ġsur ve
RO BOT
ici os
vol ume
ĠØ¨ Ø±
ĠÐł Ð°ÑģÑģÐºÐ°Ð¶Ð¸
Ġintegr ity
\ Python
a ud
Ġ" (
ke ep
Ġun changed
ĠJ er
Ġsub stit
ues e
Ġ\ \
ĠÐ¾ÑĤ Ð»Ð¸Ñĩ
ĠÐ³ Ð¾ÑĤÐ¾Ð²
Ġimp ression
åħ ¬
Ġpel os
Ã¤h le
Ġvacc ines
ĠÐ¿ÑĢÐ¾ÑģÑĤ Ð¾
ĠÐ¿ÑĢÐ¸Ð» Ð¾Ð¶
' int
M aster
T opic
l uss
y cle
Ġp neum
Ġf Ã¡
qu ence
Ñģ Ð¸Ñħ
Ġex terior
ĠB ob
Ġpar ser
Ġtr im
be at
Qu estions
ĠÐ¼ Ð°Ð³
Ġ/ >
40 4
.s ub
ms ys
hold ing
ĠPe ux
Ġassum ption
ĠAccess ion
Ġfilt ration
ĠÐ¾ÑĤÐ½Ð¾ ÑĪ
Ġcaract eres
N a
e ctions
ĠI Q
Ġde aling
ĠB es
IN PUT
the y
Ġtarget ing
Ġadv ances
ĠðŁ ¥
ðĿ Ĳ
ĠÑĢÐ°Ñģ ÑģÐºÐ°Ð¶Ð¸
Ġprotocol s
Ġjack et
D at
L ear
V AL
ĺ ħ
Ġp H
Ġf ool
ĠN ormal
Ġde pos
Ġas pir
Ġres c
Ġ[ ],
Ġtra ject
ĠRe cent
pro b
ĠÃ© s
Ñĸ Ð»ÑĮ
Ġsl ot
Ġphys ician
Ġí Ĭ
Con versation
ui Ã§Ã£o
Ġcool ing
Ġcorre ta
ĠëĮĢ íķ´
ë§ Ī
ĠTra ining
Not Found
ĠReport ed
sec ure
Ġcelebr ate
ĠEnter prise
Ġpriorit ize
Ġencl osed
. update
M a
in one
Ġn ations
ĠI hre
Ġen abling
ĠÐ² ÑĤÐ¾ÑĢ
ĠV ent
ĠY ES
Ġest rut
Ġref lection
Ġhard core
Ã´ le
ÄĻ d
Ġsmart phone
Ġaim ed
iol ence
Ġsophistic ated
- res
f ar
k ers
u id
ĠP ak
-- Ċ
ĠL atin
du ino
Ġshould ers
Ġacc um
ãĤ °
ene z
ĠAr my
Ġsw it
ĠPl ace
Ð¾Ñĩ ÑĮ
uk an
ĠØ§ÙĦØ ´
Ġdisag ree
> .
D uring
M W
Ã Ĺ
ì ĥĿ
Ġp ix
st ellen
ĠM ann
Ġr Ã¡p
Ñı Ñħ
Ġli bro
gg ing
Ġsur ge
urs or
Pro v
26 2
Ġutil izing
---------------- ----
Ġqual i
fl ag
ĠÐ´Ð² Ð°
ĠÐ¸Ð½ÑĤÐµÑĢ ÐµÑģ
ĠÐ¸Ð¼Ðµ ÐµÑĤ
bott om
_mod ules
ç± »
W R
Ġs our
an aly
el ry
Ġre plic
ive au
ĠR om
Ã© rie
ĠEx ecutive
Ġdu ck
ĠFor ce
24 1
Ġenc oder
ĠQu ais
US D
Ġten ho
arc el
Ġlin ha
OD O
yr inth
ĠØ¹ ÙĨ
Ġiniti ative
Ġrent al
Pe ople
ĠEval uate
ĠvÃŃde o
U m
ç ¼
Ġd Ãª
ĠR un
ens ed
Ġacc ent
ĠSt ore
Âł ĊĊ
ĠÑĦ ÑĢÐ°Ð·
Ġphot ograph
ĠNe ural
bb bb
ĠEl le
Ġsad istic
ìĺ ¤
ĠprÃ³ p
.snake Obj
ĠAcadem y
- orient
L ayout
p atient
Ġc ob
Ġst oring
Ġv ess
ab ad
Ġneed ing
ĠÑĤ Ð°Ð¼
ick en
Ġë ¹Ħ
Ð± Ñĭ
íķ Ļ
Ġmed ieval
24 5
Ġsch reibe
Ðŀ Ð±
Ġsho e
Ġattack ed
phas ize
Ġincl u
ĠBas ic
ĠLinked In
' en
b c
Ġan us
om orph
ÑĤ Ð²
Ġnot re
nd rome
ign ment
Ġes pecific
á» Ŀi
_t rans
Ġsw ollen
á»ĩ n
æı ı
Ġinvolve ment
ĠÑĥÐ¼ Ðµ
Ġafford able
) {
P ara
é ¦
ĠR NA
Ñı Ð¶
ĠÐ¿ Ð¸ÑĪ
Ġwas h
Ġad option
Ġdis p
Ġra cc
\n F
ock ets
Ġpol sk
ÐºÐ¸ Ñħ
Ġrad iation
Ġdeath s
quire ment
Ġsam pling
AAAAAAAAAAAAAAAA AAAAAAAAAAAAAAAA
Ġzw ischen
ĠanÃ¡l ise
3 40
_ content
p ot
ï ½
un as
ĠM ine
Ġmod ification
13 8
ĠCom mon
Ġbus ca
pre fix
Ġorder ing
Ġbase ball
ĠÙħ Ø¹
AK E
ĠMA STER
Ġintelig encia
Ġsole ly
ÐµÑģÐ¿ ÐµÑĩ
ĠRob ot
Ġtabel a
Ġproyect o
USTO MER
( y
7 05
F S
| C
Ġ )ĊĊ
ou ds
Ġsu jet
ĠF ill
ĠÐ½Ð° ÑħÐ¾Ð´
Ġsk learn
Ð»Ñı ÐµÑĤ
Ġhead ache
Ġgreat ly
Cl ose
Tool s
á»Ļ t
ĠWel che
ĠSche dule
0 80
C Ã³mo
z n
æ ¶
Ġ ),
at p
ĠT ags
ĠF IND
ud y
Ð¾Ð³ Ð»Ð°Ñģ
Ġca ve
ĠÑį Ð»ÐµÐºÑĤ
Ġcur ric
State ment
nis se
Ġinstrument s
ĠÐ³Ð¾ÑĢ Ð¾Ð´
' ?
H O
h in
it ro
Ġd av
ic ional
ĠI st
ĠP rivate
ĠD EL
low ing
Ġpr ide
Ġes emp
ho res
13 9
=" #
ĠIs land
Ġfem boy
IS O
mb H
Ġload ing
OD EL
Ġaw a
ÑīÐµ Ðµ
Ġaffection ate
$ Ċ
G abbro
\ r
f i
Ġp up
Ġp oco
ing le
Ġas cii
pl t
âĢĻ Ã©
ĠJ S
ĠÐ¿ÑĢ Ð¾Ð¿
\n H
Ġbu ys
Ġgu ests
ĠPro t
bre lla
ĠCl ose
reg ister
Ġtip os
ĠÏĦ Î¿Ïħ
jo in
å¦Ĥ ä¸ĭ
åĨħ å®¹
, Task
k ument
Ġm ari
Ġin ici
Ġto es
as istent
Ġh ilar
ol en
ĠT en
ĠP ART
og o
ĠÐ² Ð°Ð¼
Ġpo ver
che ster
() :
Ġmon de
17 6
fe el
Ġgen es
.get Element
ĠÐ²Ñģ ÐµÐ³Ð¾
Ð¸ÑĢÐ¾Ð² Ð°Ð½Ð¸Ðµ
Ġinstit ution
Ġsab es
Ð¸Ð± Ð¾
connect ed
5 20
N on
[ NAME
k al
u ais
æ £
om at
ind ust
de cess
Ġpen alty
ÑĢÐ°Ð² Ð½
Ġuncertain ty
Ġtheore tical
" /
' elle
M IN
c ourse
d ale
i per
ÑĢ ÐµÑģ
Ġformat s
ari as
Ġtechn ological
Ġtravel s
Ġsegu ente
Ġcryptoc urrency
RACT OR
ĠSit uation
- control
_ user
e val
â Ļ
Ġe g
Ġn ell
st ars
Ġha ha
ĠE ROBOT
Ġpos es
Ġent end
ĠÃ ®
str ong
ĠÂ ¡
ĠRes erve
Ġemb eddings
Ġmoment um
Å¼ y
Ġcorre ction
ĠìŀĪ ëĭ¤
Ġrating s
ä¸Ńæĸĩ åĲĹ
ĠÐ½Ð°Ñĩ Ð¸Ð½
ĠProfess ional
Ġjapan ese
ĠÐ¾Ð±Ð»Ð°ÑģÑĤ Ð¸
( df
l le
Å ĳ
Ġf err
ar on
om ethyl
Ġn il
ut ils
ĠS AP
ul in
ĠD ear
Ġch ina
pp ers
ĠL imit
Ġgo at
Ġla zy
ĠÐ² ÐµÐ´
Ġest os
16 7
.s plit
Ġqual ified
mod els
_st atus
æĢ Ŀ
Ġobser ve
Ġteas poon
L ittleGPT
V IC
Ġs le
Ġb ic
Ġg ente
im agine
Ġen umerate
ĠÑģÑĤ Ð¸Ð»Ðµ
Ġanim ation
ĠGu ide
Ġneighbor hood
ĠDESIGN ER
O cc
z ial
Ġ Ã§
ent o
Ð° ÑĶ
ĠA UT
ĠS oci
ig li
ĠP op
Ġ' ,
ous ing
cript ions
ĠJ ud
Ġver ification
ÃŃ p
pro ving
16 6
pos ed
ĠÐ¿Ð¾Ð´ Ð´ÐµÑĢÐ¶
Ġcam eras
Ġrecip ient
LT D
ÑıÑģ Ð½
u int
Ġt ik
ad venture
Ñı ÐµÑĤ
Ġmake up
Ġcor n
Ġfr ases
what what
atch ing
Ġharm less
Ġce iling
Ġsil ly
Ġpeace ful
NNNNNNNN NNNNNNNN
äº§ åĵģ
J S
M AN
_ image
es k
Ġin her
ÑĢ Ð¸Ð¼ÐµÑĢ
ĠL lama
av y
Ġev ident
Ġshe ets
Ġpr Ã¡
Ġsm ells
Ġsl ender
Ġsupport ive
do es
ĠNe utral
reib ung
pare ncy
ĠGener ation
ĠDet ermine
Ġprincip ais
æł ĩ
Ġconfident ial
sem ble
- GPT
} &
Ġm L
Ġin equ
sw e
oc cup
Ġar c
inal s
Ġeff ic
ÙĬ Ùģ
let es
ĠÑĨ ÐµÐ»
Ġprogress ion
Ġmeas les
Ġhonest ly
Ġbroad cast
ĠCERT IFIED
Ġbact eria
V ol
\ w
× ¦
Ù Ĵ
Ġs is
Ġd ow
Ð¾ ÑģÐº
ĠC ivil
Ġme g
Ġso it
Ġsc am
Ġform e
à¤ ¹
ann y
23 1
-t ype
ðŁ ĳ
Cont act
ÑĢÑĥ ÐºÑĤ
Ġweek ly
Ġseg unda
ĠNe ed
Ã´ t
Ð¸ÑĩÐµÑģÐº Ð¸Ð¹
Ġachieve ments
Ð°ÑĪ Ð°
Ġresum o
lie ÃŁ
ĠAdmin istr
Ġencount ers
Ġoverwhel ming
ìĪ ł
N G
m ig
Ġt une
un ks
pp y
ost o
int o
ĠĠĠĠĠĠĠĠĠĠĠĠĠĠĠĠ ĠĠĠĠĠĠĠĠĠĠĠĠ
Ġes a
rit t
ĠÑĢ Ð¾Ð´
Ġprompt ing
Ex per
bs p
Ġve c
Ð¸Ð² Ð°ÑĤÑĮ
Ġpress ed
Ġdam aged
Ġchick ens
Ġdepart ure
ĠRest aurant
Ġincorpor ating
) :ĊĊ
f ree
p iel
Ġa ver
Ġh iding
od ies
ĠC ele
ĠD raw
ac ious
Ġ[ {
Ġrequ is
to ol
Ġhead ers
ĠÎ ²
-s ol
Un ited
Ġconse gue
conf idence
Ġwhis ky
ĠEu rop
æ¯ Ķ
eto oth
á»© c
C ard
Ġen er
Ġtra cks
Ð°ÑĤ Ð¾ÑĢ
Ġë ¯¸
Ġfl utter
14 8
Ġpass ages
Ġsaf ely
ÑĥÐ½ ÐºÑĤ
Ġtru ck
Ġretrie val
Ġvend or
sen al
ïĤ ·
- DI
A ng
A pr
k ind
l ength
Ġt ub
Ġp Ã¡gina
ol ars
Ġst er
Ġv otes
Ġav ant
ym pt
ÏĦ Î¹
ãģ® ãĥ
Ġstre ets
ĠEst ado
Ġpub l
Ġprime iro
column s
+ Ċ
. Get
T emplate
Ġp ixel
Ġb ru
el ly
Ġv ic
ĠR ub
ĠÐ½ ÐµÐ¼
Ġro y
Ġdec ades
ãĢ ĳ
xim a
-c ulture
AB C
-h arm
Rep ly
Ð¾ÑĤÑĢ ÐµÐ±
Ġrot ation
Ġ($ ),
Ġentr ada
iÃŁ t
- il
a way
h ung
n ia
it us
Ġan kle
ĠS ep
ur ities
ĠP sych
Ġun clear
ĠH A
Ġr im
Ġrel uct
ĠRE FERENCES
gress ion
TH E
ĠST ATE
ĠðŁ ¤
Un known
onom y
Ġarr anged
******** ****
ĠAG I
Ġtou ches
íĸ Ī
æ ¸
Ġf ought
le m
Ġto i
Ġn arc
Ġst adium
Ġhe ute
Ġal gebra
ĠH on
Ġne arest
Ġind irect
clud es
Th ink
Ã¶ g
ze ich
Ġsn ack
je ctions
gre SQL
Ġliv re
Am ount
ĠPrem ier
ĠFore ign
Ġpenet ration
Ġlengu aje
5 10
_ (
h ate
ĠJ un
ĠK n
Ġca ptions
und le
arr ing
Ġur gent
ĠÐľ Ð¾Ð¶
Ġhom em
ĠDisc ord
Ġkil omet
ĠANS WER
' e
? ",Ċ
n Ã©
in ator
ac ent
Ġle m
Ġla id
Ġam end
Ġam ended
Ġph ones
Ð¾Ñĩ ÐµÐ¼Ñĥ
ĠÑĢÐ°Ð· Ð»Ð¸Ñĩ
åĪ ¶
ĠÐŁÑĢ ÐµÐ´
åĬ ł
Ġmens agem
Ð¿Ð¾Ð² ÑĸÐ´
( &
E MA
M oon
R ationale
l td
z el
Ġf lesh
ĠB ed
ĠR Ã©
ĠÐ² Ð°Ð¶
Ġpar ad
Ġsm ut
Ġopt ional
Ã¤ ft
UR N
Ġpain ful
Ġsummar izing
ĠTechn ical
Ġpsych ology
é« ĺ
ĠÑģÐ¾Ð¾ÑĤÐ²ÐµÑĤ ÑģÑĤÐ²
C ase
S om
ĠN sfwGPT
od a
ĠS amsung
ĠC ond
Ġun related
ĠM ars
Ġcl one
ãģ Ŀ
Ġcomp ra
fere n
ÃŃ cio
vent ory
Ġworld s
Ġunderstand able
Ġelement os
Ġep id
Ġdepend ent
Ġneighb ors
Ġliber t
ograf ia
ĠResult s
Ġcatal og
( row
) If
. K
V icuna
u pload
Ġin hum
ch or
Ġnot ebook
ĠB uy
ĠE ST
Ġk not
oo lean
Ð¼ Ð¸Ð½
Ġself ish
Ġpass es
IS S
pecial ly
artic ip
ĠÐ¼Ð¾Ð³ Ñĥ
Ġpuzz le
Ġfeather s
Ġwis dom
Ġpover ty
5 60
_ line
g abe
i ology
v ous
er ies
Ġl oro
Ġre cess
Ġha iku
Ġ' <
Ð°ÑĤ Ñĭ
Ġret ro
che m
Ġfl av
Ã¨ mes
ĠRes ources
Ġge ometry
ĠSp ot
Ġdecl ared
.r andom
Ġveget ables
ĠÐ¼Ð¸Ð½ ÑĥÑĤ
Cho ices
T urn
r and
Ġan ge
Ġf usion
Ġre ar
ĠC rie
ĠF riend
Ġint ra
ĠÑģ ÑĥÑīÐµÑģÑĤÐ²
Ġper f
Ġbet a
ĠK it
ĠÐ¿ÑĢ Ð¾Ñģ
ert a
ÙĪ Ùħ
Ġemploy er
head ing
") ,Ċ
ij n
ĠPol it
ĠÐ²Ð¾Ð¿ÑĢÐ¾Ñģ Ñĭ
ĠOrgan ization
Ġmedi ocre
Ġisol ated
Ø³ÙĦ Ø§Ùħ
A fton
b ased
g ered
o ire
Ġs ons
Ġb anco
Ġh ood
ot ec
est hetic
ĠG mbH
Ġexpl or
we g
cre ated
à¸ ¹
Ġprodu cer
ĠHe art
=" /
lic ht
ìĹ Ń
Ġter se
×ķ× ĳ
ĠAS CII
Ġtit led
ÑģÑĤÑĢ Ð¾Ð¹
Ap plication
Ġhel per
Ġtien en
Ke ep
ĠìĽ Ĳ
Ġreck less
Ġ Ø§ÙĨ
ri um
Ġqu elle
ru le
cl ar
ors ch
ÙĦ Ùħ
AR N
Ġ× §
RE DA
br idge
Ġadv ise
Ġbab ys
Ġpresident e
Ġhit ting
ESS ION
Ġinvent ed
Ent ry
æľĢ å°ı
. position
C ause
F E
L anguage
] \
f ight
w ner
æ º
Ġh its
Ġst a
Ġex ited
ĠM umbai
Ġcomp assion
ĠÐ½ Ð¸Ñħ
Ġsc roll
Ø§ ÙĤ
Ð°Ð½ Ñĭ
Ġval ued
Ġdifferent ial
ĠÎ ¿
_d et
Ġjo ining
Ġorgan is
Ġà¤ Ĩ
ĠPh one
Ġclaim ing
Ġult ra
ĠSat z
Ġmole cular
áº§ n
ĠÑĦÐ°Ð¹ Ð»
ĠMachiavell ian
Ġinfin ite
.getElement ById
f unc
g ie
r ice
ç ¥
Ġen um
Ġint ro
Ġall es
Ġë ķĮ
Ð°Ð» Ðµ
ÑģÐº Ð¸
ĠIm prove
RI G
Ġcontract or
Ġë° ľ
Ġnu anced
Ġìĭ ł
Ġot ros
ĠØ£ ÙĨ
ĠØ§Ø³ Øª
: ',
> (
A CTION
he at
Ġf osse
ĠT alk
ĠS out
ĠS mall
sw ers
us ive
ĠH o
ĠB io
ĠF our
Ġim pr
ĠV QA
Ġdevelop ments
Ð¸Ð» Ð°ÑģÑĮ
Ġleg it
_re view
ĠFOR E
ë³ Ħ
Ġexecut ing
anÃ§ as
æĹ ¶
Ġperman ently
Ġfo is
âĢ¦âĢ¦âĢ¦âĢ¦ âĢ¦âĢ¦âĢ¦âĢ¦
èī ²
/ ex
Ġc ocks
or ney
el ve
se cond
ĠL ie
Ġres pir
ĠV R
16 3
Ġident ical
Ġtable t
Ġown s
ha pe
å¤ į
Ġìŀ ħ
ĠÄĳ i
Ġlab yrinth
Ġbal anced
Ġexpand ed
Ñį ÑĤ
Ġlabor atory
Ġhesit ate
ĠÑģÐ¾ÑĨÐ¸Ð°Ð»ÑĮ Ð½Ð¾Ð¹
Sec urity
Ġfeat uring
Ġimagin ative
-orient ed
REDA CTED
y h
in h
Ġs pons
an ol
Ġd ign
Ġl ing
Ġbe z
act ic
ĠO x
An other
Ġbest e
Ġpost ing
Ġface book
ĠÐ¸Ð½ ÑĤ
pu Ã©s
-P y
Ġsist emas
ĠInformation en
ĠEconom ic
Ġconclus ions
YD RO
2 23
A v
D ragon
F ilter
b ad
Ġ íķ´ì
ľ âĶĢâĶĢ
Ġg ag
art o
ĠG DP
ĠĠĠĠĠĠĠĠĠĠĠĠĠĠĠĠ ĠĠĠĠĠĠĠĠĠĠ
ll ama
Ġcomm od
Ġaut re
Ġbr ush
uc ose
Ch ain
Ġenv iar
Ġlearn s
uff icient
.m odel
ĠPer iod
Sh ould
ĠÐ´ÐµÐ» Ð°
Ġpersu asive
ĠÐ°ÐºÑĤ Ð¸Ð²
/ o
; city
L ook
å ĸ
as is
ĠA ud
Ġde als
Ġcom ed
con vert
Ġtra p
Ġsub stitute
14 2
Ġpost gres
ĠCon duct
fe ature
Ġalg orit
-B ROM
Ġfig ur
Ġger ar
ĠHead line
Ġstret ch
Employ ee
[ j
_ DI
l oss
â ł
Ġ ##
Ġre wards
um ab
ĠS end
ĠP rior
ĠH em
Ġsp icy
ĠSt udio
ÙĪ ÛĮ
ĠÐ¡ ÑĤ
ĠWor thington
ĠÑħ Ð²
Ġmis chie
Ġprem ier
Pl ay
Ġfal ta
ĠØ§ÙĦØ ¥
Ġoccas ion
mitt el
DU CT
ĠÐ½Ð°Ð·Ð² Ð°Ð½Ð¸Ðµ
: ~
? '
P ossible
t urn
st udent
ve c
Ġfor b
ĠT oy
ĠH um
ĠV o
Ġbet ray
Ġbl ush
Ġdocument o
15 9
lic her
ower ing
ä¸ ī
æĺ¯ åĲ¦
.m enu
ĠClass ify
ĠAnaly tics
ĠÐ²ÑĭÐ¿ Ð¾Ð»Ð½
âĸĪâĸĪ âĸĪâĸĪ
ĠIMP ORTANT
ĠHan oi
ĠSad ly
! ,
. env
P al
h ops
Ġdo ors
Ġse per
ĠB I
Ġmy sql
ĠU t
ĠV ector
ĠÐº Ð°Ð¼
up s
arm i
.s c
Ġ### Ċ
Ġsens ors
set t
Ġcompan ion
kl Ã¤r
Ġcin ema
.game Over
Ġcontrad ict
M i
i Ã£o
Ġof ere
Ġh ates
ow el
ĠC AR
âĢĻ il
Ġser ie
16 2
Ġmuch o
app ly
ĠSe oul
amb ience
Ġanaly tical
Ġprem iÃ¨re
Ġcontinu ously
Ġestim ates
c ie
h ad
m ac
t or
Ġm erg
ĠN ut
ĠI L
ĠD ue
Ġk ar
ĠF ix
Ġim aging
ĠK I
ĠCh all
ĠÑĥ Ð±
oid s
Pro blem
Ġgra ce
.p ush
_p rompt
Ġbi ology
Ġpow ered
Ġindepend ently
Ġaplic aciÃ³n
Ġthorough ly
m ble
½ Ķ
Ġc udd
Ġv ice
Ġun lock
Ġdes erve
ĠÐ¾ ÑģÑĤÐ°Ð²
á» Ł
EN Z
ĠWe ight
Ãł i
ĠÐ¾Ð± ÐµÑģÐ¿ÐµÑĩ
ÐŁ ÐµÑĢ
ĠRep resent
Ġtim eline
Ġdies en
chat gpt
Ġindepend ence
ĠÑģÐ¸ÑģÑĤÐµÐ¼ Ð°
//// ////
Ġgol ang
ograp her
" {
' am
D er
T V
d as
m ethod
Â ®
Ġ );Ċ
re place
or ous
or no
am an
ch ool
ĠF it
ĠF oot
ĠO riginal
Ġim pl
Ã¡ nt
Ð¾Ð» Ð¸
ĠRe ference
13 7
cont in
ĠSh andong
roduct ive
ÐĿ Ð°
ĠØ¨ Ùĩ
Ġload s
Ã©t Ã©
Ġstream s
ãģª ãģĦ
Ġemerg ed
ĠÐ¸Ð½ÑĦÐ¾ÑĢÐ¼ Ð°ÑĨÐ¸Ñİ
Ġpasseng ers
Ġmyst ery
. api
C ountry
S up
t f
ĠD Ã©
Ġle v
ãģ Ľ
ÐµÑĤ Ñĭ
ÐµÐ» Ð¸Ñĩ
Ġloc ate
Ġsem icon
Ġdom inate
-p owered
CI AL
Ġcontrib uted
Ġserv icio
Ġrac ism
Es creva
æĿ ¡
.r and
Ġboot y
Ġobt ener
$ .
w right
z w
» åĬ¨
Ġn esse
Ġun hing
res pons
Ġat en
Ġem pre
Ġpar Ã¡g
eth oxy
ĠSt rategy
Ġcor on
Ġart istic
Ġmet e
Ð°Ð´ Ð¸
ĠCO UNT
Ġamb iente
hol ds
Ġproces o
: In
S ee
c v
j ango
Ð ¬
ë ¯¸
Ġw and
ch loride
Ġle i
Ġel astic
ãĥ ī
Ġref riger
Ġbro ader
ny ch
Ġviol ate
Ġresol ver
Î¯ Î½
Ġawait ing
Ġkh Ã´ng
æ¬ ¡
Ġosc ill
Ġbrill iant
Ġener get
2 18
Î ķ
é Ĥ
Ġc et
ĠA i
ĠP uedes
ĠM ember
Ġma ps
ĠÐ¿ Ð¾Ð¶Ð°Ð»ÑĥÐ¹ÑģÑĤÐ°
cc iones
ens itive
ĠÐ¸ Ð´
ĠTh us
Ġext ens
Ġgu arantee
uch t
Ġins pect
_f unction
CO UNT
ĠCol umn
Ġhumor ous
Ġcart a
\": \"
ĠOther wise
Ġemphas ize
Ġmole cule
Ġtempor al
Ġsuiv ant
Ġven ue
ĠPal est
Ġa rab
on ed
Ġw itch
ĠT IME
00 5
Ġunder ground
ivid ad
Ġparticip ation
ĠÑĸ Ð½
Ġalgum as
Ġaster isks
ĠâĦ ĸ
Ġtroubles hoot
Ġmarg inal
N um
P od
s uggest
Ð ĸ
Ø ¦
Ġd azu
Ġb ubb
be its
"" "ĊĊ
Ġreview er
reg unta
Ġflow ing
Ġlater al
_n ames
Ġsegu intes
Ġfair ly
Ġvent ure
ĠÑģÐµÐ± Ðµ
gener al
ĠÑĥÑģÐ» ÑĥÐ³
Ġere ction
. chat
[ -
\ ,
h ave
j oy
s ign
in n
Ġp ai
Ġf is
Ġf ired
ion a
Ġal to
Ġj umps
Ñı Ð¼Ð¸
15 7
ĠÑĥ ÐºÑĢÐ°
bre w
ĠÑģÑĤ Ð¾ÑĢÐ¾Ð½
Ġsubject ive
Ġtim id
Ġpurch asing
abe led
Ġprod utos
ÐĴÑĭ Ð±ÐµÑĢÐ¸ÑĤÐµ
Ġsout hern
2 25
Ġd Ã©s
Ġde leg
ir s
ĠM Ã¤dchen
Ġsu g
Ġat oms
ĠIn structions
Ð¾ÑĤ ÑĢÑĥÐ´
Ġmin utos
Ġprocess or
Ġmet er
Ġgre eting
Ġalg una
äº ĭ
ĠÑĨ ÐµÐ»ÑĮ
ĠCould n
ĠTra vel
Ġìĺ ģ
çĽ ¸
à¸µ à¹Ī
Ġmob il
Ġmemor able
ì¶ ľ
Vers ion
Ġclust ers
ĠTes la
Moon Bound
( side
S ur
at to
or r
Ġd ying
Ġb anc
ĠT Ã¶ch
un ct
ĠF ine
ĠÐ¿ ÑĥÐ½ÐºÑĤ
Ġser a
ĠTh ailand
Ð· ÑĭÐ²
co res
Re ason
Ġvari ants
ĠIN TEGER
ÐµÐ³ Ð¾Ð´
amm i
Ġgar age
Ġweak ness
ĠSim ilar
lik es
ĠSom etimes
isd iction
Ġempat hetic
Ġly ric
Ġunhing ed
E AR
j ours
Ġ" *
Ġun biased
âĢ Į
ĠV PN
ĠÐ¼ Ð½Ð¾Ð³Ð¾
Ġinv asion
AT O
Ġbi om
ĠPh ase
Ġtransform ed
Ġeat en
Ġtour nament
Ġinser ting
T ry
U V
_ agent
m n
í ļĮ
Ġp ent
ĠT opic
Ġdo po
Ã¡ ch
ĠK o
In vest
pro blem
-b l
ĠUS NS
Ġgra bbed
Ġcir cul
ç» Ļ
Ġburn ing
Ġchem istry
ĠFound ation
E ven
f ang
re quired
Ġsu e
ĠÐ¿ ÑĥÑĤ
Ġout going
ak h
ĠJ avascript
Ġra pp
Ùħ ÙĨ
ĠPro perty
Ġmed ian
40 9
Ð°Ð´ Ð°
ĠEm b
ĠSub s
Pr int
IE W
Ġsand wich
ĠÎº Î±Î¹
è¿Ļ ä¸ª
& #
, \"
ç ĥ
Ġl ac
ĠC U
ĠF aÃ§a
ud es
Ġmin us
Ġcap az
po ch
Ã± os
Ġtre asure
Ø¨ Ø±
Ġcoll apse
xx x
ĠÑģÐ»Ð¾Ð² Ð¾
Ġhour glass
çĽ ®
Ġpregn ancy
ĠWel come
ĠEval uation
ç© º
ĠwÃ¼r de
, .
0 20
3 80
] {
d ates
v et
í ģ¬
is en
Ġp ine
Ġb ubble
Ġo port
Ġo Ã¹
Ġex cluding
Ġnot ification
ĠL at
20 8
Ġdes se
Ġtr icks
á» Ń
ĠQ UE
Ġcho oses
Ġsch reiben
Ãł ng
Ġsqu ad
Ġsummar ise
VER S
ker as
ĠNE ED
åĮ ĸ
Ġgather ing
Ð¾Ð±ÑĢ Ð°Ð¶
ĠÐ»ÑİÐ´ ÐµÐ¹
h Ã¶r
Ġs chn
Ġu l
Ġsu o
Ġk or
.. ...
Ð² Ñĭ
ãģ ¡
Ġver bs
Ġdis miss
ĠÎ Ń
import ant
Ġsens itivity
oll ip
Ġfew er
ĠTH EN
Ġflo ating
ĠList e
ãģª ãģŁ
Ġpap el
ĠInvest ment
ĠtÃ©cn icas
Ä±nd a
) py
, a
. ]ĊĊ
Ġp ays
Ġm sg
ĠS W
op ing
te am
Ġsp o
pro v
Ġrec ruit
chn ology
Ġbre at
ĠUn structured
Ġintrodu ces
uc ed
Ð¸Ðº Ðµ
for get
Ġcur tain
ĠOr d
sch aft
ĠCH EM
ĠTR ANS
Ġbes ides
ĠÐ·Ð°Ðº Ð°Ð·
Set ting
Ġstick y
Ġbil ateral
Ġvie le
Ġreserv ation
ĠÑĢÐ¾ÑģÑģ Ð¸Ð¹
ĠFlor ida
M ulti
] .ĊĊ
Ð «
ì ħ
st rap
Ġcon du
ĠS ave
ĠS ky
te le
Ġrel ating
Ġgu erra
Ġris posta
37 5
OS S
Ġsleep y
Ġhol idays
XX XX
Î¿Ïħ Î¼Îµ
ĠReturn s
ĠBrit ain
ĠØ¯ Ø±
åĿ Ģ
Ġescrib ir
Ġmetab ol
ĠMens chen
à¥ģ à¤
Aw esome
è¿Ĳ èĲ¥
) ^
) ",
f g
ĉ H
ĭ ľ
at ica
Ġd izer
ĠF ib
": ["
Ġi Ã§
Ġtra ce
à¸ Ĥ
ĠÐ¼ Ð¾Ð¼
Ġrep ublic
á» ¯
Ð¸Ñģ Ð»
Ġvisual ization
ĠPol y
Ġìķ Ĭ
Ġdin ero
zz o
Ġcin em
ĠÐŀÑĤ Ð²ÐµÑĤ
ĠMark down
Ġscri vere
Ġgat hered
Ġinhum ane
- right
z Äħ
Ċ ĠĠĠĠĠĠĠĠĊ
re as
ot yp
im prove
se a
ĠS hi
ÑĢ Ðµ
Ġ( +
ĠM ount
ĠH ung
Ġad oles
umm ing
Ġuse State
Ġì ¡°
tt p
Ġhead lines
Ġequ als
ond ers
Ġpay load
ĠÐ¿ÑĢÐ¾ Ð¸Ñģ
fr ast
Ġprotect ing
Ġmer ch
LU OR
- over
/ a
: Give
b ooks
h ren
im mer
Ġde ver
ir gin
ĠH angzhou
Ġcan n
ĠG ot
ĠK y
Ġcharacter ized
ody nam
ENT E
ë¡ Ŀ
ĠMon th
ĠInst all
ĠFollow ing
èĢ ĥ
Ð½Ð°Ðº Ð¾
@ @
v icuna
Ġd ial
Ġcon vention
Ġpro xim
res pond
Ġad alah
Ġshe er
Ġoff ended
ãĤ ı
EN CE
Ġele tt
US DT
Ġcab in
Ġcast ell
Ġsel bst
Ġwest ern
Ġìļ Ķ
ĠUnter nehmen
Ġimit ating
Ġawa its
es h
is ure
Ġd abei
Ġm und
ĠC C
ĠP E
ĠG eb
Ġcomp ression
\n E
Ð¾Ð± ÑĢÐ°Ð·
Ġreason ably
Ð¾Ð¿ Ð°Ñģ
Ġpopular ity
ĠInc or
Ġenh anced
frame work
Æ°á» Ľ
Ġtrav ail
Ġanx ious
ĠcrÃ© er
Ġ iz
Ġd la
al is
ust ral
iv ated
Ġmodel os
Ġcre w
Ø§ Ùĩ
Ġlet z
Ãª te
iel le
ĠDe vice
ðŁ Į
Ð°Ð¹ Ð´
55 5
Ġamb ience
pert ension
Ġrank ed
Ġearn ed
ĠÐ¶ÐµÐ½ Ñī
Ġnig ger
ĠChamp ionship
Æ°Æ¡ ng
& amp
( new
R NA
_ class
ç Ĺ
Ġ Ù¾
in ion
Ġs ync
it les
le ist
ic ago
qu anto
ĠS ov
Ġr ational
ĠJ o
ĠÐ´ ÑĥÐ¼
ER N
Ã´ i
Ġcit ations
ĠNet flix
Ġemerg ing
Ġë³ ´ì
xxxx xxxx
vil upp
L ong
c as
f rage
è ©
Ġp ada
Ġm á»Ļt
al ance
Ð» Ð°Ð³
ĠV ari
Ġover s
ob re
Ġrec ib
30 5
ik el
_d escription
Ġaccept s
ache lor
ĠPlan ning
result s
ðŁĺ Ń
Sk ydiving
thought s
, [
. ]Ċ
N C
S orry
\ site
ĉ b
Ġ !Ċ
Ġy az
ĠT yp
os ph
ĠB us
Ġpar sed
Ġsc i
ier te
cond ition
-t rained
ĠZ hejiang
ĠÑįÑĤ Ð¸
Ñĳ Ð½
OP H
Ġsup pl
ãģĤ ãģªãģŁ
ãģĹãģ¦ ãģıãģłãģķãģĦ
" ]ĊĊ
T P
m aster
m ethyl
s ent
Ä °
Ġs ail
Ġor b
ĠD SS
ÑĨ ÐµÐ¿
âĢĿ )
Ġ+ Ċ
Cont roller
Ø§Ø ²
AA P
-f ound
reib st
Ġcontact s
ilit ary
Ġcomplain ts
-gener ation
ĠQuant um
Ð¾ÑĢÐ³ Ð¾Ð²
. col
S ocial
c in
t rain
re port
as ma
om eter
Ġl uc
ow ers
ĠA venue
Ġqu and
ĠW ILL
Ġar row
Ġbl ess
Ġpol ar
Ð¸Ð½ Ð¸
AS A
ï¼Į ä»
Ġsw ift
OL D
'] )Ċ
.f ood
quis ite
Ġci udad
Bl ack
æĿ ¥
Ġdescri Ã§Ã£o
æİ¥ åı£
Ing redient
Ġhilar ious
) |
) ',
v d
y z
is as
ri ers
Ġcom plications
Ġafter wards
Ġinf ant
Ġrepl enishment
Ġtim ing
ĠSen ate
plex ity
ĠÐ¿ÑĢÐ¾Ð´Ð¾Ð»Ð¶ Ð°Ð¹
( model
- per
M ar
d oc
g em
p al
r ada
ĠN VIDIA
Ġg pu
ch anges
us a
ĠP vt
Ġat rib
ĠÑģ ÑĩÐ¸ÑĤ
Ġpr ay
Ġcre a
ĠRe ady
à¤ Ĺ
Ġpod emos
78 9
Ġcollect ive
Ġdies es
Ġloyal ty
Ġconj unto
Ġfaith ful
W indow
â ķ
Ġre vel
ĠM I
Ġcomp ound
Ġum brella
Ġac quire
Ġac quired
_s et
Ġmar ine
Ġvol unt
54 1
à¨ ¾
Ġrecurs ive
Rest aurant
: (
B D
f alls
Ġthe ater
ĠA verage
est one
ess ment
ore an
ĠH D
Ġar ise
ĠÐ½ ÐµÐ³
ĠÐ¾ Ð·
AR I
cont act
Ġdom ande
Ð¡ Ð¢
rel ationship
omb ia
Ġaffect ing
aps ed
Ġrese mb
Ġhur ting
Ġinfer ior
Ġcritic ism
ĠÐ¾Ð³ÑĢ Ð°Ð½Ð¸Ñĩ
! "ĊĊ
) +
n p
Ġp ause
ĠA lex
ĠS ugar
ĠC ash
ĠM C
Ġfr idge
tt i
Ġemb ra
×Ļ× ¨
ĠÐŀ Ð½
Ġcir cular
MA X
Ġmes h
ãģĭ ãĤī
Ġcollabor ate
×ĳ ×¨
CRI PTION
Ġsod a
Ġtherm al
Ġë§Į ëĵ¤
ä»Ĭ å¤©
K nowledge
es a
it u
Ġin herent
ar lo
ĠN ob
Ġbe ef
Ġme inen
ĠP ath
ĠÑģ ÑģÑĭÐ»
ĠÐ´ Ð¾Ð»
Ġstr anger
Ġhum ble
Ġlet ra
\n G
li ament
Ġcorrect ness
Ð¾Ðº Ð°
44 4
Ġemb edded
Ġbott les
des ign
ç§ ģ
á»ĭ ch
èĢ ħ
Inst ance
ĠÐ¿Ð¾Ð· Ð²Ð¾Ð»
Ġdivor ce
Soft ware
ĠíĬ ¹
( this
b les
en ci
en cias
Ġp ets
Ġl ion
ro at
Ġr ush
ĠÐ¿ ÑģÐ¸Ñħ
Ġsom ente
Ġap Ã³s
Ġcor por
pro t
Ġequ ipped
Ġexc use
ĠSh op
Î¹ Î¿
Ġann ivers
Ġcut s
ĠEm ail
ĠÐ²Ñģ ÐµÐ³Ð´Ð°
board ing
Ġhost s
Ġhac king
ĠRel ationship
ĠFrau en
ëĲ ľ
æ° ´
Ġescre ver
Ġcryst al
( value
g el
p ay
Ġ ..."
Ġw s
Ġy uan
il en
Ġg aps
ĠT ian
ĠE lement
Ġfollow ers
Ð¼ Ðµ
Ġind ica
Ð¿ ÐµÑĢÐ°ÑĤ
Ġchar ging
ree ce
Ġfil ename
ze ch
Ġremain der
Ġang ular
Ġdraw ings
Ġcolle ague
Ġsup plement
Ġsup plies
ĠThrough out
íĥ Ģ
& &
- cl
2 24
? ".
G AN
f iction
Ġcont emporary
Ġpl aus
Ġcl ues
der n
ĠÐº Ð¾
Ġcre are
we bsite
Ġ$ (
Ġdef ining
Ġcount y
Ġpublic ly
Ġindic ator
ĠAd venture
Ġexpand ing
ãģĵ ãģ¨
Ġmol to
ĠFORE IGN
3 21
c ient
f old
Ġb ell
Ġb ases
im s
Ġch rome
ĠL IMIT
Ġres ident
20 9
op sy
Ġdis comfort
ÃŃ da
Ð¸Ð² Ð°ÐµÑĤ
Ø§Ø Ń
Ġnet working
ĠOr t
ĠSu ppose
ĠÑħ Ð°ÑĢÐ°ÐºÑĤÐµÑĢ
Ġrestr ict
Ġhost ing
Ġorg as
ĠPortug uese
Ġinflamm ation
Ġcous in
Ġargu ing
% ),
F ull
a Ã±a
Ġd ining
ĠA U
Ġim plements
pon t
Ġno vo
Ñĩ ÑĤÐ¾
Ġ[ ðŁĶĵ
Ġper pet
Ġdis rupt
ific aÃ§Ã£o
Ġperson ally
ĠÐ¼ Ð°ÐºÑģ
ĠRe volution
Ġë ŃĲ
Ġpat ch
ðŁ ¥
cur ities
Ġsun ny
Ġworks hops
å® ¶
Ã¥ r
Agent e
person al
Î¯ Î±
æ¡ £
ĠMid journey
ä½į ç½®
Ġobed ient
' ;
l Ä±
è ³
Ġn sfw
ĠC lean
ĠD ar
and ed
ĠR ules
ĠG ar
king s
ÙĦ Ùĥ
up y
ec ution
Ġproduct os
Th read
IC O
-d own
Ġgra cias
åĲ Į
ÐĿ Ð°Ð¿
Add itionally
Ab stract
BE GIN
. ChatGPT
6 55
] +
] }
at tern
le b
Ġl amp
ĠN UMBER
Ġst ones
Ġr ated
Ġen orm
Ġj ag
ĠL ED
ĠG RO
ĠO CR
Ġad a
Ġfe as
ĠK ur
eng er
Ġsur f
Ġfin et
Ġsl ides
yd ney
Ġlas er
Ġbene ath
Ġalong side
Ġmes mer
åĪ Ĺ
Ġnumer ic
ĠAg ency
ï¿½ï¿½ ï¿½ï¿½
Ġstorytell ing
Ġmoist ure
" You
- con
c ir
f c
Ġc ube
il ly
Ð° ÑģÐº
ol utely
out s
ĠD ense
Ġar ithmetic
ĠIn sp
Ġdis cre
30 2
Ñī Ñĳ
Ġspecific ation
áº ¯
Ġimag en
ATION S
Ġsup plier
Ġmig ration
Ġtalent ed
Ġnun ca
Ġconsens us
Ġlarg ely
n elle
p ool
à ²
ç ¯
í ŀ
Ġto oth
pe ople
Ġal c
ac i
ĠM ON
ĠB ible
iz ers
Ġ[ (
ĠEx tra
Ñĸ ÑĤÑĮ
sh it
Ġident ifier
Ġsal iva
Ġimag em
Ġsyn opsis
ĠStud ent
Ġslut ty
Ġsne akers
åľ° åĿĢ
[ /
Ġe con
Ġex clude
Ġ( `
Ġal iment
Ġun cover
ĠH om
Ġle af
ĠG i
Ġim pre
Ġform ulate
ne ed
Ġperson ne
ĠÑĢ Ð¾Ð±
ĠWe bsite
Ġsign ing
Ġbad ly
Ġprint f
Ġindic ation
ĠGr ad
Des ktop
Ġsecret ary
Ġpropos ition
Ġdam it
_n odes
Ġdemand ing
Val id
ĠÑģÐ²Ð¾ Ñİ
zer land
ĠìĦ ľ
Ġsucc ubus
ĠBack ground
ĠÐ¿ÑĤ Ð¸ÑĨ
, r
/ N
k on
Ġh iring
qu el
ĠT enn
ĠT Ã¤t
ĠB ad
Ġj ury
à¸ Ĭ
Ġatt ended
Ġsub tract
rem ark
ëĭ ¹
Ġinvest or
bo ards
Con nect
ÑģÐ¿ Ð¾ÑĢÑĤ
ĠDO ES
à¸Ń à¸ĩ
osc ow
Ġshadow s
.,., .,.,
Ġintrig uing
.print ln
ĠÑħÐ¾ÑĢÐ¾ÑĪ Ð¾
/ x
b ind
é ķ
ou pe
and as
ĠM ill
ĠR isk
Ã© ct
int a
Ġtri als
ĠCon c
Ð¸ÑĤÐµÐ»ÑĮ Ð½Ð¾
onom ic
Ġvot ing
Ġlaug hing
ĠÐ²ÑĢÐµÐ¼ ÐµÐ½Ð¸
Ġhel pless
Ġcommunic ating
Ġproporcion ado
super vised
$ ,
N P
O H
d rop
g ic
é »
he ro
at os
Ġl ado
Ã© ment
iz on
ĠÑĥ Ð·
Ġprof ound
Ġoper ators
ĠÑĦ Ð¸Ð»ÑĮ
Im prove
Ġleg acy
mon ary
Ġsummar ized
-M M
Ġserv idor
Ġcatch ing
ÑĮÑİ ÑĤÐµÑĢ
Ð¸ÑģÐº Ð°
Ġterrit ory
Ġmetap hors
Ġali ens
' Ã©t
/ ĊĊ
4 10
W ould
c ery
an agement
Ġe uro
Ġl id
Ð°Ð½ ÑĮ
de velop
__ .
ST ART
ĠCom put
Øª Ùħ
"} ,"
å¹ ³
employ ment
ĠAdmin istration
ĠRES PONSE
Ġencount ered
pow ied
Ġenthusi astic
Ġalp aca
A F
Ġp Ã¡
Ġb icy
ce m
Ġun re
ĠD ise
Ġsh ots
Ġ[ ðŁĶĴ
Ġdi ameter
17 3
Ġcount ing
ðŁ ĩ
Ġpartic le
ìĹ Ī
Ġmother s
Ġautom ate
ĠÐ±ÑĥÐ´ ÐµÑĪÑĮ
Ġê° Ļ
Ġë§ Ī
ĠÐ²ÑĸÐ´ Ð¿Ð¾Ð²ÑĸÐ´
anj ing
Ġabdom en
Ġcastell ano
! \
b attery
g io
w oman
Ġ ia
Ġs oup
Ġn ic
Ġth ong
ĠS MS
ĠM emory
ĠG re
Ġso ap
ress ive
Ġexam ined
Ġ: :
Ġcor ret
Ġimport s
Ġcar ro
Ġprof iles
Ġvari ant
ĠÐ¶ Ð¸Ð·
Ġhi king
Ġchain s
ĠÏĦ Î¿
Ġfra ction
ë³ Ģ
Ġtrav elling
proper ty
ĠÐ½Ð°Ð´ Ð¾
Ġtid ak
ãĥķ ãĤ
V ideo
_ on
q a
ĵ ľ
he x
Ġb ite
ar ante
og gle
Ġtr ay
Ġexpl ores
ðŁ ı
Ġdist ances
ĠÑģÐ» Ð¾Ð¶
Context o
Ġnarr ator
List ener
æĸĩ æ¡£
Ġsatisf ying
Ġrecurs ively
Ġcategor ize
she et
Met ric
ĠCos m
( E
- content
4 40
M emory
b d
b pm
he ast
er ge
el ta
ig it
Ġpr incess
Ñī Ð¸Ðº
Ġeng ines
Ġhist Ã³
Ġden y
att i
Ġalg uma
Ġgen res
ĠrÃ© g
Ġappear ances
su pport
Ġdemonstr ation
Ġorg ans
_D ATE
ĠÑĩÐ¸Ñģ Ð»Ð¾
Ġlever aging
Ġaccel eration
Ġdistingu ish
ĠStan ford
3 12
v archar
it rile
Ġl ambda
Ð¾ Ñħ
Ġg ib
Ġst ato
ĠS ono
ĠW ohn
ast ers
ob il
Ġval ve
Ġest rat
ĠUn a
Ġconsistent ly
LE TE
We ight
AM INO
Ġcomb ining
Ġaccept ance
MENT S
Ġsil ence
Ġcatch y
Ġcop ies
ĠCurrent ly
æıı è¿°
- own
Ġ rib
om men
Ġst ays
ie urs
Ð¸ÑĤ ÐµÐ»Ñı
ãĥ ŀ
Ġdep ressed
ĠÑģÑĤ Ð¾Ð»
ĠCO MM
aj es
Ġge ben
ĠdÃ© t
Ġpun ish
Ġconven ient
ĠProfess or
/ r
P articip
d ist
Ġcon ventional
Ġex emplos
pl o
ang ular
ĠÐ¿ Ð¸ÑĤ
ĠÐ´ Ð°Ð¶Ðµ
Ġpe er
Ġpo i
30 1
Ġproduct o
Ġpoint ed
Ġperform ances
Ġrele ases
ĠAm b
ĠÑģÐº ÑĢ
Ġclar ification
ĠChar akter
Ġalign ed
Ġath letes
ĠÐ³Ð¾Ð´ Ñĥ
-CH LORO
aktion en
ĠÑĥÐ¼Ðµ ÐµÑĪÑĮ
C r
_ DE
È Ļ
é ĵ
Ġc zy
Ġb ik
Ġb áº¡n
Ġn ivel
ĠC ur
pe x
ĠP acific
ĠR andom
Ġj ul
og ene
Ġ= "
Ġwork place
ĠUn fortunately
gg y
Ð°Ð¼ ÐµÑĤ
ĠdÃ© velopp
ä¸Ń çļĦ
Ġpron oun
Ġwire less
Ġdesar rollo
ĠÐ¾Ð¿Ð¸Ñģ Ð°Ð½Ð¸Ðµ
( _
F ace
N ER
m d
p rivate
t res
ç ¾
Ġh orses
Ġde vo
Ġv á»Ľi
ĠP osition
Ġsh ake
ĠM c
ĠÐ½ ÐµÐ±
Ġam id
." )Ċ
Ġest ava
Ã¤ hre
OR K
ĠÑĥ Ð»
fe atures
Ġsw ap
Ġgrow s
Ġmag net
ĠAm ong
ĠAd just
output s
Ġkill er
Ġmeas uring
éĢ ī
è® ¡
ĠðŁĺ Ī
Ġunivers al
ĠÐ²Ð½ ÑĥÑĤ
Ġjun ior
è¿ĲèĲ¥ åķĨ
f ahren
j as
r Ã©s
è «
Ġ è¯·
st able
Ġth umb
us c
ĠP ed
Ġma j
Ġim plies
Ġli able
Ġman ually
ord inate
ĠØ ²
ts dale
what s
aut h
ett i
Ġiniti ating
ĠMore over
Ġsusp icious
Ġjer k
ãĤĪ ãģĨ
ĠTool s
ĠIr ish
Ġanth rop
Ġmultip ly
' ;ĊĊ
J an
a used
u che
Ġt ears
ĠN orm
Ð½ ÐµÐ¼
Ġv ita
ĠW ay
ĠH or
Ġr anging
ĠO ra
ĠÐ¿ ÐµÑģ
Ġad icion
ĠÐ² Ð°ÑĪ
ens M
Ġpar sing
ÐµÑĤ Ðµ
ï¼ Ľ
Ġneg lig
Ġdig est
ĠÐ¿ÑĢÐ¾ ÑĪ
Ġaw k
Ġnode js
Ġlif etime
ĠElect ric
Ġtast es
anal ysis
Ġê³ł ê°Ŀ
Gs ensM
ĠÐ¶Ð¸Ð· Ð½Ð¸
F ont
K ET
l agen
ĳ Ĳ
Ġt et
Ġe fect
Ġh ill
st ick
ĠD og
Ġdet r
ĠSt r
Ġdel ta
Ġimportant es
28 2
Ð¸Ð» Ð¾
27 9
Ġvari ation
Ġstrong est
Ġlin has
Ġsil ent
ĠGl ue
à¤¾ à¤°
ĠDirect ors
Ġservi Ã§os
' },
) You
/ im
> =
S ymbol
V ous
b aren
j an
l ior
y an
ou rage
Ġf oto
ing o
Ġin hab
ic lo
ve z
Ġv id
Ġor anges
ĠB on
Ġ[ {'
Ġche aper
Ġacc idents
ĠÐ¼ ÐµÐ´
ĠRe quirements
ĠÐ· Ð¾Ð²
Ġclass ifier
16 9
Ġx uxuul
Ġsem ana
key words
Ġredu ces
aught ers
ĠTechn ologies
Ġà¤ķ à¤°
Ð°ÑİÑī Ð¸Ð¹
Ġperm ite
Ġretire ment
Ġdesper ate
Ġpronunci ation
ÐµÐ³Ð¾Ð´ Ð½Ñı
Ġoport un
= f
R un
p redict
Ġc igare
ig m
ĠM AT
op her
ast a
Ñĩ Ð¸
Ñĩ Ð°ÑģÑĤ
ĠÐ½ ÐµÐ²
Ġunderstand s
Ġcomb ines
Ġfit ting
Ðĺ Ð½
ĠÐ¿Ð¾Ð¼ Ð¾Ð³
YY YY
ĠÑĢÐµ Ð°Ð»Ð¸Ð·
Ġstro kes
ĠÐºÐ¾Ð¼Ð¼ÐµÐ½ÑĤÐ°ÑĢ Ð¸Ð¹
ARBOX YL
/ no
E mb
F ore
S ample
[ Answer
Ġp rag
Ġb ars
ac on
ĠH ugging
Ġar te
ass in
ĠÐ² Ð¸Ðº
ĠÐº Ð°ÑĢ
Ã¡ m
Ġrep o
fic as
ĠØ§ÙĦ ØŃ
Ø§Ø µ
ĠCont act
Ġà¤ ª
urt le
izz are
g ence
ĉ f
Ġb end
ic ia
ant h
âĢ ©
ĠR PG
ãĥ Ĩ
24 2
Ġmet od
Ġve ctors
AD A
US ION
Ġcand y
Ġchest ed
_h istory
ĠURL s
ãģ¾ãģĻ ãģĭ
éľĢ è¦ģ
- for
. LEFT
= -
D im
X T
z ens
è į
Ġf en
ĠT ab
Ġcon qu
Ð½ ÑĥÑĤÑĮ
ul ife
ĠSt orage
Ġent ra
ĠRe lease
ĠFor ces
_d ot
Ġpas se
Ġvar ied
Ġeconom ics
IS H
Ġpers ist
Ġaltern ativa
Ġgod dess
Ġphilosoph ical
ĠÐºÐ°Ð¶Ð´ ÑĭÐ¹
rape ut
Ġrit ual
ĠëĤ´ì ļ©
Ġmart ial
æľĢå°ı åĢ¼
ĠDSS WB
H istory
N ever
n ut
è ¶
Ġb anned
Ġde in
pe re
ĠL ake
ĠG rowth
Ġtrans c
Ġsub set
Ġass unto
ãĤ «
Ġhuman os
ĠÐ» Ð¸Ñĩ
ĠCon struction
ĠCon versation
Ġbot s
ÐµÐ¶ Ð´
ĠÐ°Ð½ Ð°Ð»Ð¸Ð·
ĠPost greSQL
Ġmens aje
ĠØ¥ ÙĦÙī
Ġethnic ity
ĠÐ¸ÑģÐ¿Ð¾Ð»ÑĮÐ·Ñĥ Ñı
6 56
A h
I LY
m arks
Î Ł
Ġt ap
ou vel
ve led
Ġal unos
ĠB orrow
hen e
Ġall er
ap or
Ġgr ams
iss ues
other s
ĠSc ene
Ġabs ent
åĪ «
ĠEst ate
Ġcollect ing
Ġinflu enced
ĠÐ±ÑĥÐ´ ÑĥÑĤ
Ġdemonstr ates
Ġheav ier
Person ality
Ġassum ing
Ġstartup s
Ġblow job
ÃŃcul os
ĠÏĦÎ· Î½
Ġcaracter ÃŃsticas
æĥ ħ
ĠÑģÐ¿Ðµ ÑĨÐ¸
enez uela
C ounter
H er
p od
ĉ for
Ġ ä½łæĺ¯è°ģ
Ġt Ã³p
ot ional
Ġv ista
ĠW in
ac ial
ĠM ove
ĠF loor
Ġpl ata
ens chaft
Ġsp a
Ġmost rar
eng ine
Ġlo ans
ĠAr gentina
Ð°Ð¹ Ð½
Ġenerg ia
ĠÐŁÑĢ Ð¸
ĠPa per
ev ents
ĠXuxuul iaa
( R
S ummar
d est
ĉ at
Ġ ```Ċ
Ġa ce
Ġp il
Ġd ime
Ġn ud
ĠN BA
per ties
ĠF uture
Ġcont a
Ã¡ nd
Ġover flow
ĠK en
ĠÐ¿ÑĢ ÐµÐ·
Ġcal ories
AR IO
Ġdig a
reg ular
åĲ İ
ĠÐ¿ÑĢÐ¾ ÑĦ
Ġqual idade
Ġgraph s
ÑĥÐ¶ Ð´
ĠÐĲ ÑĢ
Ġtut ti
ÐµÑĢÐ¶ Ð´
Ġtun ing
Ġclim ax
Ġunivers ities
Ġpure ly
ĠIndones ian
Ġvolunte er
ĠUlt ra
Ġabandon ed
D ist
ou st
Ġo re
ad t
ĠÑģ Ð¸ÑĤÑĥ
Ġso fa
Ġnum s
Ġsp ouse
ĠÐ´ ÑĢ
ÃŃ an
Ġoff line
Ġfl uffy
18 7
Ġmed io
Ġshort en
for ced
ĠÐ¾Ð± ÑīÐµ
Ġbra ve
Ġshare holders
ĠSu pply
Ġdam ages
Ġpresident ial
Ġih ren
.de lete
Ġscal able
ìŀħ ëĭĪëĭ¤
Ġbran ches
R C
S crivi
l age
s plit
Ì £
Ġ æľĢå°ıåĢ¼
im ated
Ġst ir
ĠR am
ĠG a
Ġsc ent
ĠÐ¼ Ð¾ÑĢ
ĠDo kument
ĠX ML
ha ite
Ġphys ique
ĠÐ²Ñĭ Ð²Ð¾Ð´
ras ing
ĠSch w
ĠÐ¸Ð½ ÑģÑĤÑĢÑĥÐºÑĨÐ¸
Ġcapt ain
ÑĭÐ² Ð°ÐµÑĤÑģÑı
Ġhar vest
Ġalle g
Ġcook ed
Ġdut ies
ĠÑģÐ¸ÑģÑĤÐµÐ¼ Ñĭ
Ġdisadvant ages
Ġlign e
Ġinequ ality
.rand int
D omain
G F
f und
z yst
è ħ
ĉ What
Ġt ÃŃtulo
Ġc idade
st one
et ite
am azon
ĠS I
Ġ( [
Ġ( %)
Ġpre view
Ð´ Ð¶
Ġ. /
Ġë Ī
Ġdep uis
Com b
Ġred und
Ġaf irm
Ġtransl ator
Ġingles e
Ġpse udo
ERR OR
Ġtwe ets
ĠÐ¿ÐµÑĢÑģÐ¾Ð½ Ð°Ð¶
g h
Ġ ries
Ġd irt
ÑĢ Ð°Ð¶
ant os
ĠR M
Ġli ver
Ġno ble
Ġte k
Ġpo et
Ġsee ks
Ġvis ually
ĠØ§ÙĦ ÙĤ
Ġna o
ĠÑģÑĤ Ð°Ð²
ĠIN CL
ĠMan ulife
Ġprint ed
ĠRE C
Ġsyn chron
icher ung
ĠOper ations
Ġhob by
P rem
T race
u o
ì Ķ
is ons
Ġd á»¥
le ctions
ĠN ight
et he
am ous
ot lin
ÑĤ Ð¾Ð²
ĠĠĠĠĠĠĠĠ ĠĠĠĠĊ
ĠW and
ĠM AN
ĠM RT
oc c
Ġj uego
ies z
Ð¿ Ð¸ÑĪÐ¸
Ġwhere in
ĠAn ge
Ġer re
ST RA
Ġproduct ive
Ġac ute
Ġprof iss
Ġdri ves
Ġbul ge
Ġgraph ics
Ã¢ u
ìĭ ¤
Te am
Ġëĭ µ
Ġthrow ing
ĠTerm s
ĠCalcul ator
requ ency
L ow
P RI
P ayment
T D
^ {
h ong
k te
Ġm Ãºs
Ġpre decess
vel te
ne ys
à¸ ³
Ġtrans mit
Ġve zes
Ġident ificar
Ġdress es
ĠÑģÐ²Ð¾ Ð¸
ÑĥÐ± Ð»Ð¸
hh hh
Dis play
ĠÐ²Ð¸Ð´Ðµ Ð¾
Ġmanufacture rs
Ġmembr ane
Ġingl Ãªs
Ġestrat Ã©g
( H
- ray
_ price
t ically
Ġg a
Ġch ast
iz io
og rÃ¡
Ġso b
ĠSt ructure
ĠÐ± Ð°Ð½
=" "
]" .
ÙĬ ÙĦ
vis ual
ĠÐ²Ñĭ Ð±Ð¾ÑĢ
Ġess ence
Ġcalcul ates
ĠÙħ ÛĮ
ĠST ART
Ġlat ter
Ġseed s
ĠEst e
UN K
åĳ ¨
kom men
Ġrecom end
Ġíı ¬
F aÃ§a
L D
M ark
å §
å ĭ
in ical
Ġb oun
ol er
ĠS ci
un ctions
Ġv ocal
ĠM ind
ort ion
ĠF ield
gr ay
ĠV irtual
ĠK und
Ġdi vert
Ġmin ist
Ġmed itation
ank ed
ĠCO DE
Ġanaly zed
/s rc
comp ass
Ġtempl ates
fil ter
grad uate
æī ĭ
Help ful
Ġëı Ļ
Ġstead y
. google
: -
e g
f ly
Å º
ul u
un ter
Ġv ive
ple ted
ĠD ub
ĠR TX
ĠÐ¿ Ð¾ÑģÑĤÐ°Ð²
Ġcl ouds
ener ation
ĠK unden
Ġbl ast
ĠÐ¼ Ð°ÑĪ
ĠÐ½Ð° ÑĢ
Ġmat ched
Ġê ·
04 4
Ġcut off
Ġpun ished
uh an
Ġju ice
Ġfib er
ĠSa udi
ĠNarr ative
. index
im iter
ol ves
Ġst ations
ĠC amb
ĠG ra
cri ber
ĠÐ¿ Ð¾Ð±
Ġdis put
Ġel Ã©ct
à¤ ²
Ġ} ;Ċ
Ġshow c
Ġneg ation
Ġelect ron
ĠGr und
ĠAct ually
la ub
Ġmes es
-h igh
ĠCor rect
ĠSw iss
ĠFOR MAT
Ġsimpl ified
Ġobjet o
Ġanatom ically
Ġlegis l
Ġbatter ies
frast ructure
Ġannivers ary
) NAME
- edge
p any
Ġm ug
Ġn ÃŃvel
ab c
Ġch ill
Ð» Ð°Ð½
ost on
Ġpr zy
Ġcomm ence
ÃŃ c
Ġprom inent
ath on
Ġbre ach
Ġlo be
Ø¯ Ùĩ
Ġens ino
Ġalg uns
ĠÑĦ Ð¾ÑĤ
ìĸ ĳ
trans form
Ġwood s
Ġconstruct ed
Ġadject ive
ĠOlymp ics
AMP LE
Ġg ee
qu estions
Ġst olen
ĠC ategories
ĠB ern
Ġat om
Ġat rav
ĠÐ¸ Ð´Ðµ
au pt
Ġcar go
Ð³ Ð»Ñı
cent e
ĠAdd itional
Ġcult ura
-le ft
Î´ Î¿
" ?Ċ
E urope
N Y
W ord
_ color
r n
r ust
Ġm ente
Ġf Ã©
Ġg ir
ĠR a
ĠÐ² Ð¾ÑĤ
Ġ{ {"
ĠJ OIN
Ġexpl icar
Ġcons ume
Ġreg istr
red iction
ik t
par agraph
Ġmean ings
26 4
Ġsem ester
80 8
Ð¾Ð· Ð½
Ġposition ed
Ġcorres ponds
ãĤĴ æķĻãģĪãģ¦
Ġmotiv ated
ç§ ĳ
Ġtro v
Ġbright ness
Item s
Ġcraft ing
Ġpad r
ĠVers ion
ĠDeutsch land
Ġprohib ited
ĠëĦ Ī
( province
. state
P ASS
m ove
w u
ĉ self
Ġs ang
Ġp eng
Ġn at
Ġn ights
Ġg aze
ig her
Ġch unk
Ġcl a
Ġpre y
pro p
Ùħ Ø±
CH A
Ùĥ Ùħ
Ġple ased
Ġenjoy able
Ġhom eless
Det ermine
rimid in
íĺ ¸
Ġhá» į
Ġkink y
.menu Frame
( name
- In
} )
Î ¶
ç µ
Ġt Ã¢
at ility
Ð¾ Ñİ
ch osen
ĠA qu
un an
Ġv ague
Ġsh ack
ĠH old
ph oto
Ġrep roductive
Ġsex ist
ÙĬ Ùħ
Ġcompre nd
ĠSc ott
ê¸ ī
ĠÐĶ Ð»Ñı
-se e
Ġcontrib uting
_re quest
ĠNE W
ĠWH AT
Ġsou haite
ĠTele gram
ĠÐ¿ÑĢÐ¾ÑĤ Ð¸Ð²
Ãĩ ÃĥO
Ġpoll ution
Ġtah un
Ġmete or
remark able
- cent
V O
d em
p it
Ġe igen
Ġn az
et en
ĠC and
Ð½ ÐµÐ³Ð¾
Ġwor n
her lands
ĠE astern
ell schaft
ie ce
ĠÑģ Ñĭ
ces ito
ak ort
ĠÐ¾ ÐºÐ°Ð·
Ġpo k
Ġfl ir
Ġword ing
ism a
22 9
br and
ĠÐ¿ÐµÑĢ ÐµÐ¼
TH ER
Ġdest ro
Ġpack aging
know ledge
agn osis
oh l
SS AGE
Ġsix th
ĠÐ¿ÑĢÐ¾Ð³ÑĢÐ°Ð¼Ð¼ Ñĥ
ĠpÃºblic o
arcel ona
ÑĤÐ² ÐµÑĢÐ¶Ð´
E ST
S entiment
h m
l ord
Ġd ust
Ġm s
Ġb Ã¡s
Ġg Ã©
am ination
ch air
Ġst iff
ĠM oney
Ġj ede
Ðº Ð°Ð¼Ð¸
Ġprov isions
Ġest er
Ġrel ates
rig en
Ġcal c
Ġsoc iais
ION E
Ġrespond ed
Ġfem ales
ĠIN FO
_l abel
Ġcat ches
osp el
Ġsever ity
Ġbab ies
Ġutiliz a
ĠÙĩ Ø°
Ġmob ility
Ġadj acent
Ã¤hre nd
- organ
/ G
/ text
: M
Ù ĳ
ì ¡°
í ı
ig ue
Ġv uel
ĠM AD
Ġk od
Ġim g
ays ia
ĠÐ¿ÑĢ Ðµ
Ġrec ur
.d irection
Ġinv iting
par ameters
Ġinf ra
ÐµÐº Ð¾ÑĤÐ¾ÑĢ
Ø§Ø ¬
col o
Ġens ures
ĠÐºÐ¾ÑĤÐ¾ÑĢ Ð¾Ð¹
Ġtom ar
Ġrad ical
Ġupd ating
ĠÑģÐ²Ð¾ ÐµÐ¹
Ġarm or
ĠMuslim s
Ġcorre ctions
izz azione
ĠPa ulo
çī ¹
& P
. user
. board
< br
P ack
S te
_ with
e q
s ay
it age
it ung
Ġp ocket
Ġn orthern
Ġg ly
Ġbe im
ĠD am
ie j
Ġem oc
Ġcre ators
Ġfr ance
ĠÑĩ ÐµÐ³Ð¾
ãĥ ¡
ĠÐ³ ÐµÐ½ÐµÑĢ
Ġdirect ives
ca uses
29 0
Ġbas ics
Ġgen itals
åĽ ¾
Ġemotional ly
Ġtrav Ã©s
forget table
B as
E U
G G
b us
f ass
in ternal
ou rier
Ġst y
ir ation
ĠR ights
Ġen act
ĠO d
Ġout break
ĠÐ½ Ð¾Ð¼
ĠÐ´ Ð¾ÑĢ
Ġfr iction
Ġsw ing
è¯ į
ÑĢÐ° Ñħ
ĠÐŀ Ð´
Ġflow s
Ġgrand es
ste in
ĠEs creva
Ġsympt om
Ġgod s
Ġestim ation
ĠDel hi
ĠÑįÐº Ð¾Ð½Ð¾Ð¼
á»± c
Ġagric ulture
- ended
/ (
/ an
O riginal
^ n
_ array
h appy
Ġc ela
Ġm Ã¶glich
al er
ĠT ensor
ĠS PE
pe z
pl us
ĠE AS
now ned
ĠÐ¼ Ð°ÑģÑģ
ĠEx ception
_d f
-m onth
Ġje ans
Ġemp ire
.j oin
Ġskin ny
Ġattempt ed
åĮ ħ
Ġsoll te
lik ely
Ġtrend ing
ĠSom ething
Ġgost aria
ĠÐ¸ÑģÑĤÐ¾ÑĢ Ð¸Ñİ
Ġmisle ading
, Z
- int
A U
D oc
m aking
z ess
× Ł
at im
ĠR ange
Ð¾Ð² Ð°ÑĤÐµÐ»ÑĮ
Ġthere by
ĠK ar
Ġoff ices
ĠÐ¼ ÐµÑĢ
Ð°Ðº ÑĤÐ¾ÑĢ
Ġcar ries
Ġca res
tt a
min o
Pro perty
Ãº a
Ġâ ī¤
ä» ·
Ġalg Ãºn
lo op
Ġconsum ed
Ġsynt hetic
Ġfont e
Ġadequ ate
æĽ ¸
ollip ops
_ .
on aut
Ġl ub
ĠN ature
ĠW ir
Ġint end
ĠÐ² Ð¾Ð·Ð´
ĠJ ohn
Ġplay back
Ġplace holder
ĠCon fig
gu a
Ġbas ement
íķĺ ê²Į
Pl ace
ðŁĺ Ĥ
Ġshoot ing
ĠLeg end
. util
. keras
> ,Ċ
? ',
C are
M icrosoft
z ym
Ð Ļ
Ġt Ãº
or us
Ġb ible
ĠÑģ ÐµÐ¼
ens ing
ĠÐ½ Ð°Ð±
ĠÐ½ Ð¾ÑĢÐ¼
Ġbl oom
pre c
ura ble
Ġenc oded
Øª ÙĪ
Ð°Ð»ÑĮ Ð½Ð¾
def in
ĠAd vanced
Ġmix ing
Ġadvance ments
Ġtum or
Ġentreprene urs
ĠBene fits
ĠSov iet
$ (
C opy
_ item
f b
en ch
Ġn iet
Ġre un
ol is
pe ed
our ne
ĠB ere
ĠJ UST
Ġinter faces
ath olic
Ġexper to
ĠZ ero
Ch ild
Ġop Ã§Ã£o
ĠCon cept
AC ION
ĠrÃ© ponses
Ġdifficult ies
âĸ Ģ
æĪĳ çļĦ
ocr ats
Tr ade
Ġobs essed
andid ate
opolit an
ĠIo T
' \
- y
/ sh
_ rate
Ġs lee
Ġm unicip
al one
ct s
Ġg orge
ir al
ĠG ET
Ð» ÐµÐº
Ġsc rew
Ġel ic
Ġag ile
Ġund ress
Ġdark ness
ÐŁÑĢ ÐµÐ´
Ġgain ing
Ġpsych ologist
ĠSw ift
Ġcart e
Ð¾Ð²ÐµÑĢ ÑĪ
Ġmelhor ar
girl s
Ġstim ul
Att ribute
Wor ks
ĠíĮ Į
aaaaaaaaaaaaaaaa aaaaaaaaaaaaaaaa
Ġsop orte
Ġdecom position
Ġë°© ë²ķ
H ost
u est
u ating
Ġs qrt
ĠN FT
ĠS ho
th read
Ġper vert
ĠTh ings
ĠÐ¿ÑĢ Ð¸Ð²ÐµÑĤ
ÑĨ ÐµÐ²
Ġresult ed
Ġge f
56 7
ĠRep hrase
fa Ã§a
Ġthrow s
Ġsegment ation
à¹ī à¸²à¸
Ġnip ple
Aut hor
quin oline
Ġlob by
> ",Ċ
R R
b ird
k w
m is
Ġd aughters
Ġb one
Ġn Âº
Ġh ola
ĠP ORE
ĠM Y
ĠM Ã¼
ĠB uk
ĠF uck
ĠR atio
Ġint r
ast ro
23 3
Ġequ ilib
fic os
×Ļ× Ķ
Ġcross ing
ĠØ¹ ÙĦÙĬ
Ġroll ing
Ġentertain ing
Ġtort ure
Ġannounce ment
Ġdiam ond
ĠJour nal
. ai
S w
Ġt ac
Ġp iv
Ġin icial
Ġy e
ĠD ragon
ĠB P
Ġr ay
Ġ' "
ĠÑģ Ð¸Ð½
gr as
olog ically
anc el
Ġinf ections
ĠSe g
Ġsimilar ities
.p aused
×ķ× ĵ
den ly
ĠComp are
Ġsynt hesis
Ġuns afe
Ġinstal ar
Ġhydro chloride
Ġemphas izing
ĠÐ±ÐµÐ· Ð¾Ð¿Ð°Ñģ
Ġêµ Ń
Ġfasc inating
Ġfurn iture
Ġdio xide
( root
E u
N OT
N ames
O XY
d irectory
Ġin quiry
ĠT reat
Ġst ove
if er
ĠL ive
ĠG M
Ð² Ð¸Ñģ
Ġdi ver
Ġtrans cription
urre d
Ð³ ÐµÐ½ÐµÑĢ
Ġplan o
ada pt
AL SE
Ġcap s
Ġoper ates
ĠBe ispiel
ĠÐŁ Ð¾Ð´
\\ \
ê² ¬
Ġprogress ive
Ġadventure rs
inst ance
Ġemphas izes
åį ķ
Ġalloc ate
stell ung
Ġduplic ate
ĠëĶ °
T ags
V P
f ahr
u ations
Ġ ib
Ġe ing
Ġl ag
Ġl ymph
ĠN amen
Ġv est
Ġun forgettable
av age
Ġes cribe
cre ased
Ġplay fully
Ġsm iles
pr Ã¼
Ãª tre
par a
Ġna ive
26 5
vious ly
ĠestÃ¡ n
ĠAtt ack
ĠCre ative
-ch loro
-py rid
Ġinsp ire
.sh ape
Ġsag t
Ġdemoc racy
feel ings
- inf
3 25
4 60
C ustom
V ari
_ point
Ġ ÃŃ
Ġd ado
al pha
ar ÃŃa
ow s
ĠS ÃŃ
ill ance
ĠÐ² ÐµÑģ
ail ure
Ġ{ :
ser ve
Ġrequ iring
ĠRe aktionen
Ġdist ant
Ġpued a
Ġstream lit
reet ings
Ġflex ibility
Ġfif ty
Ġrare ly
ĠRad io
ĠHot el
quant ity
ä»£ çłģ
ĠÐ·Ð¾Ð² ÑĥÑĤ
F G
P ass
_ R
Ġa an
Ġl ately
ol ina
ĠS am
ĠS ab
Ġnum Ã©
ier no
Ð¾Ð³ ÑĢÐ°ÑĦ
raph ic
Ġfil os
Ġcap ÃŃtulo
AI M
abor ate
Ġcompet ing
Î¼ Î¿
Ġremov es
ĠDel ta
ĠDec ision
Ġillust rate
Ġtou jours
Ġpeu vent
èģ Ķ
ĠFib onacci
upy ter
- an
3 22
: Set
d ot
n bsp
ç ¡
re q
ĠN V
Ġg Ã¶
Ġun con
Ġse ule
Ġdes af
âĢĻ en
ict ure
In itial
ĠÐ¿ÑĢ Ð¸Ð¼ÐµÐ½
Ġra ising
Ġcar re
Ġac ab
Ġread able
mer ican
rol led
ĠÑį ÑĦÑĦ
Ġpri ze
Ġbegin ner
Ġcent ers
ĠÑĦ Ð¸Ð·
-p arty
Ġmes ma
Ġsequ ential
Ġporn stars
ĠÐºÐ¾Ð¼Ð¿ ÑĮÑİÑĤÐµÑĢ
ĠClass ification
Ġquot ed
-v ous
è½ ¦
Ġdelet ed
ĠÑĤÐµÐ¿ ÐµÑĢÑĮ
ç¼ ĸ
ĠTÃ¤t igkeit
' ]ĊĊ
0 30
? )
G U
n ier
p n
â £
Ġt ube
Ġp onto
Ġin ev
ic l
Ġe k
Ġl uz
qu ina
Ġas ide
Ġme ille
âĢ ¯
ĠM T
Ġnot able
Ã© mat
Ã³ i
Ġperson agem
In clude
\n Question
und ere
Ġmet tre
Ġed ition
Ð¸Ðº Ñĥ
ĠÑģÑĤ Ð¸Ñħ
fer red
Ġeduc aÃ§Ã£o
ĠPre pare
wick lung
Ġneur ons
ÑĥÐ»Ñı ÑĢ
Ġterse but
ç¯ ĩ
[ Rationale
c aption
d ays
f u
m ember
Ġp sy
Ġh id
Ġre nov
ri ving
um Ã©
ant ed
ĠH aving
ĠF ant
oo f
Ġper chÃ©
Ġacc eso
Ð°Ð» Ð°ÑģÑĮ
ĠÐ½Ð° ÑģÑĤ
OR IZ
22 6
ĠÐ° ÐºÑĨÐ¸
_p roduct
Ġí Ĩµ
ĠÐ¡ Ð¿
ÑĥÑĤ ÑģÑĤÐ²
ĠPerson en
Ġarri ves
Ġhop es
Ġlaunch ing
ĠMA X
Ġjournal ist
Ġpare ce
Ġallerg ies
hu ang
Ġzwe i
Ġferr ament
d rink
k ill
in ale
ct ic
ĠA ctions
ĠT rain
Ġst all
ĠS ever
un kt
ac co
th al
ĠM M
Ġdes em
Ġsp y
ĠÑĤ ÑĥÑĢ
Ġchar ity
Ð¾Ð´ Ð¾Ð»Ð¶
Ġreg ime
Ġroom mate
ĠÑģÑĤ ÑĢÑĥÐºÑĤ
Ġpres erve
ĠIN S
åı «
×ķ× ľ
Ã´ m
sing le
ĠÑĨ ÐµÐ½
Ġkiss ed
Ġremov al
ç§ »åĬ¨
ĠDef ault
Ġpus hes
ĠBund es
( g
. end
6 78
D ialogue
s crivi
Ġn iveau
ĠE mer
cl er
port e
Ġel f
ĠÐ´ Ð°ÑĤ
Ġca ressing
Ġbr at
Ä± ÅŁ
Ùĥ ÙĨ
/s he
Ġevol ving
Ġfemin ist
Ġju icy
Ġnavig ation
Ġcham ber
Ġaccel erate
ĠnÃ© cess
) ?Ċ
Y OUR
a verage
n av
ç Į
ĺ Ĳ
re asoning
Ġh osp
Ġv ed
ĠW ind
Ġmod ifications
ĠJ ag
to ols
25 3
ĠÐ» Ð¸ÑĨ
ĠIm pact
Ġsal ad
06 8
ĠÄ į
hens ive
Ġcy cles
è¿ ĺ
Ġapproxim ate
Ġpes o
DS M
ĠLo an
Ġbras il
Ġprest igious
Ã¼ss en
Ġaprend iz
ãĤ· ãĥ
Ġenerget ic
Ġplaus ible
( arr
/ rem
m aker
r ices
å ł
Ġt ue
en ium
en Ã§a
Ġre ass
end es
ĠM IN
ĠM oscow
Ġres pe
ĠÑģ ÑĥÐ¼
Ġper tain
ĠÐ´ Ð°Ð»ÑĮ
-------- -Ċ
ĠBe ing
_s um
ram es
Ġà¤ ¨
ÑĥÐ´ Ð°
Ġguid ing
load s
ĠPart icip
éĩ Į
Ġoccur ring
è¯·æ±Ĥ ç¤ºä¾ĭ
Ġstere otypes
Ġpep per
ĠCreat or
ĠMean while
STRA INT
% ',
) "Ċ
o que
r g
} )Ċ
Ġs vilupp
Ġd all
Ġe go
et erm
od ium
Ġme als
ĠB U
Ġle y
stand ard
sh ould
Ġop ciÃ³n
We ek
ĠEm phasize
ĠSu ccess
Ġsort s
Ġsort ing
rest i
raz ione
Ġpsych iat
Ġrout er
ĠIndust ries
Ġsto pping
ä¸Ńæĸĩ åĲįç§°
Ġpurs uant
ĠDom in
ĠÑĢÑĥÐ± Ð»ÐµÐ¹
Ġjudg ement
F ROM
Ġa esthetic
Ġm ile
Ġf ucks
ĠÐ ¹
ĠS cript
ĠP u
âĢ İ
ĠM om
Ġr ou
Ġen compass
Ġim plicit
Ð¾Ð² ÑĭÑħ
ĠJ ak
Ð¿ ÑĤ
ÐµÑĢ Ð¾Ð²
Ð¾Ð» Ð½Ñı
ĠÐ· Ð°ÑĤ
Ð»Ñı ÑĤÑĮ
Ġpop ulations
Ġport s
Ġpract icing
Ġsil icon
Ġprecis ely
Ġsubst ances
Ġmotor cycle
çİ ĩ
reb be
Ġesemp io
* .
< p
H ot
_ no
p aste
s creen
t an
} =
è Ħ
Ġf aut
ĠN ov
um i
Ġv á»ģ
ĠF ul
Ġat au
ĠL ess
Ð» ÐµÐºÑģ
Ġcl oth
Ġem ission
Ð¾Ð² Ð¾Ð¹
Ġexam s
Ġinform aÃ§Ã£o
Ġco efficient
ĠÐ³ Ð°Ð·
ENT ITY
ĠComp anies
Ġtim er
Ġign ored
cons ider
Ġtour ist
agon al
Ġko ala
Ġexclus ively
,J iangsu
ĠCele brities
p d
Ġd ense
Ġb ills
Ġh in
id ine
Ġ" {
ĠT ower
Ġex clam
Ġsh aped
ĠH ospital
Ð» Ð°Ð¼
Ġup side
ph ys
cre d
St op
St rategy
AR Y
Ġ* ĊĊ
23 2
ĠZ usammen
Ġvi Ãªn
Ġbit ter
åı ª
ĠÐ¿ÐµÑĢ Ðµ
uer do
ĠÑĪ ÑĤ
lar Ä±
Ġspread ing
Ġdesc end
Ġgro cery
osc opic
"}, {"
Ġerg onomic
ĠCosm opolitan
. query
K T
W A
n as
Ġs perm
ĠD aily
Ġse asons
ĠH el
ĠE asy
Ġdes cre
Ġ' .
âĢĻ av
ĠV it
ĠV ict
Ġsp ieg
Ð°Ð½ Ð½ÑĭÐµ
Ġsol uc
ever age
Ġdesign ated
à¦ ¨
áº ·
33 1
oll o
Ġcontro le
abil idad
Ġsusp ension
Ġarchitect ural
Ġcamb i
Ġsod ium
Ġhabil idades
( user
M achine
j ets
Ġan ts
Ġb ounds
ion ale
od ia
ĠM ah
pp o
Ġj us
Ġdes puÃ©s
ĠÐ¿ Ð¸ÑģÑĮ
Ġser vant
ÙĦ Ø§
ĠEx planation
Ġdirect ors
OT H
Ġprot ests
Ġbreak down
Ġdiv ine
Int roduction
Ġdim in
ĠRet ail
ÑıÑĤ ÑģÑı
éĩ į
Ġcert ification
Ġtight ly
Ġmig lior
rog ant
Ġwealth y
ĠSqu ad
ĠGirl s
g ra
s up
¤ Ħ
Ġt ir
Ġw olf
Ġb ard
ut ers
ch os
end or
ĠThe ma
ĠF ilter
Ġind ones
Ġë ©
row se
Ġhigh school
Ġdeterm ines
ÑĨÐ¸ Ñİ
ĠMan chester
Ġlik elihood
ĠÐºÐ¾ÑĤÐ¾ÑĢ Ð¾Ð¼
×Ļ× ľ
ĠÐ²Ñģ Ñĳ
Act ivity
Ġcounter part
ĠSw it
Key words
Ġmount ed
ĠDec adent
eles cope
ÑĨÑĸ ÑĹ
Ġsy ll
Ġpartial ly
ĠXXX X
ĠÑĢÑĭ Ð½
Ġconvin ced
Ġresemb les
/ cl
P OR
W ait
_ E
_ o
m aterial
Ġs ar
er k
Ġc raw
Ġbe aten
ĠF E
ĠU h
ĠÑģ Ð¾ÑĤÑĢÑĥÐ´
ĠRe ason
Ġcar atter
25 4
Ñĸ ÑĢ
rop ic
Ġil s
ars i
Ġmarket place
ĠÐµ ÑīÑĳ
Ġrepl ied
Ġcrit ically
ĠdÃ© f
Ġanaly zer
ĠðŁ ĳ
Ġpack et
Ġdraw er
Ġir Ã¡
Ġhost ed
bal ance
Ġdomin ated
ĠNet works
Î» Î·
ëĤ ´ì
Ġbes ide
Select or
Ġ×Ĳ ×ª
Ġelev ator
burg h
ĠÐ°Ð´ ÑĢÐµÑģ
heart ed
- Ðº
/ her
D ialog
n ome
v oc
} ;
Ġ ÅĽ
Ġa pt
Ġb ent
Ġn hi
Ñģ Ñģ
ag le
ĠE TH
ĠR ene
Ġat end
ĠG reece
ĠÐ¿ ÑĸÐ´
Ġper ÃŃ
Ġcomp art
Ã¡ tico
Ġap rÃ¨s
Ġchar ming
Ġgener ations
az o
ÑģÑĤÐ² Ð¾Ð¼
Ġcour ts
_l oad
Ġste ering
.c pp
oph ren
ĠÐºÐ¾Ð½ ÑĦ
ĠGener ative
Ġarr ays
Ġta vern
Ġlang age
íĻ ĺ
ĠLT G
PY RIMIDINE
ACT ER
Ġê°Ģ ëĬ¥
Ġwithdraw al
Ġarrang ement
ĠSTR ING
Ġgenu ine
Ġkilomet ers
" T
, ---
_ KEY
t c
Î Ļ
Ġt ons
Ġs ore
Ġc d
Ġc ure
Ġw ider
Ġo z
ĠĠĠĠ ĠĊ
el and
ac ciÃ³n
ĠH appy
ĠH istor
ĠB L
ĠJ ail
ĠĠĠĠĠĠĠĠĠĠĠĠĠĠĠĠ ĠĠĠĠĠĠĠĠĠ
ull an
Ġsl iding
24 4
Ø± Ùģ
-b it
Ġgre y
att ice
erc ise
Ġfeed ing
epend ant
ç» Ĩ
æķ° æį®
Ġvac uum
-F i
Ġot ras
Ġfraud ulent
Head er
Ġayud ar
ĠCho ice
auc oup
CONT EXT
Ġsemicon ductor
ĠScott ish
A CH
G ender
È Ľ
Ġa unt
Ġs ic
Ġd ub
Ġf oul
ĠS cre
rom a
Ġle ct
ep age
Ġtr ash
Ġdis charge
Ġthere of
ĠÐ¿ÑĢ Ð¸Ñĩ
ĠÐ¼ Ð°Ð»
== Ċ
Ã¼ ber
ĠAl tern
ID AD
ĠÐ³ Ð¾Ð»
Ġpop ul
Ġgot ten
ĠCo ord
Ġtrain er
asy nc
vas cular
ĠSol ar
Rep ort
Ġcual es
ĠÙĩ ÙĪ
ĠHy per
ĠInnov ation
Ġarbit rary
ĠÐ°Ð²ÑĤÐ¾Ð¼ Ð¾Ð±
ĠmodÃ¨ le
ĠfÃ¡ cil
ĠÐ¼Ð°ÐºÑģ Ð¸Ð¼Ð°Ð»ÑĮ
_dot env
g aben
t ry
ĉ In
Ġb inding
Ġn ouve
Ġl uego
ol Ã³g
ir ror
Ġwh ore
Ġpro xy
ĠP arent
âĢ ı
Ð» Ð¾Ð¼
get s
IN FO
Ġco h
St r
Ġfl ags
ĠÑĥ ÑģÑĤ
23 5
Ġlot tery
ĠCo ffee
Ġimm un
ij k
Ġgar bage
Ġflu ent
Ġverb atim
/m ain
Ġrelax ed
ĠNach richt
Ãĵ N
ĠGesch ichte
Ġpix els
' acc
) #
A ir
M G
m us
Ġn er
Ġg ifts
Ġcon ex
Ġun defined
00 8
ĠM art
Ġnot a
Ġch ron
Ġus b
Ġbu ilds
Ġnam ens
Ġlos es
Ġbi ased
}} ĊĊ
}} .Ċ
Ġtreat ments
ê² °
bon jour
Ġpurch ases
Ã¶r per
Ġnut rition
Ġestablish ing
ĠDat abase
ĠÐ¿Ð¾ÑĢ ÑıÐ´
H um
_ order
p as
Ķ Ķ
Ġt outes
Ġc abe
Ġm Ã¨re
Ġf im
Ġ" ĊĊ
ag ina
iv itÃł
Ġle ar
Ġres idential
ual es
ual mente
Ġpar le
\n Based
Ã¤ hr
ten ant
co very
_d b
ä» ĭ
ĠQu el
Ġexpress ive
Cl oud
ÐµÐ· Ð´
Ġroad s
å¼ ķ
Ġearth qu
hent ication
Ġfear s
ĠES G
Ġcitiz en
ÐºÑĢ ÐµÑĤ
../ ../
Ġvary ing
Ġobst acles
- write
H ate
m ale
er re
Ġf ighter
Ġn ails
st ed
Ġbe ans
Ð½ Ð¸Ðµ
Ġse curities
Ġen se
ĠÐ² ÑģÑĤÑĢ
ĠÐ½ Ð°Ð¼
Ġwhere as
Ġsing ing
Ġ× ł
ĠAl low
li qu
ĠÐ¾Ð± ÑıÐ·
Ġtrad es
Ø¹ Ø¯
lar ge
ÄŁ Ä±
ãģ£ ãģŁ
PY RIDINE
yy yy
Ġenf erm
Ġbench mark
ìĸ´ë ¡ľ
ĠÐ´ÐµÐ¹ÑģÑĤÐ² Ð¸Ñı
Ġglob ally
ĠCit izen
C ell
æ ·
Ġ ĉĉ
Ġp end
Ġbe am
ĠS ent
Ġcom ic
ĠW inter
00 7
ĠR en
Ġat omic
Ã© o
Ġpre jud
Ġind ices
Ġ: -
Ġob rig
Ġz ones
Ġfl aws
li est
Ġhapp ily
Ġdist ress
Ġmen or
Ġsoft ly
ĠÐµ Ð¼Ñĥ
CO MP
Ġnovel s
Ġdin heiro
Ġbon us
Ġdeploy ed
Ġspect rum
Inst all
Ġannot ation
Cu Ã¡l
ĠÐ¸Ñģ ÑģÐ»ÐµÐ´
ïĤ §
Ġrecept or
ĠDoll ar
ĠSoci ety
. br
. show
/ R
C PS
U LE
f ound
p end
ĠC AP
Ġcomp ile
ĠÐ½ Ð°Ð¹ÑĤÐ¸
ĠV enezuela
ĠSt ars
Ġ/ ><
ãĤ ¦
Ġmulti plication
Ġrest ore
Ġguid es
IS ION
'] ['
ĠÐ¾Ð¿ ÑĭÑĤ
App Data
ĠFe atures
ĠÑģÐ¼ Ð¾ÑĤÑĢ
ĠÎ± ÏĢ
Ġfro zen
Wel come
Ġchast ity
' ar
. Label
/ vis
f one
Ú Ĩ
ĉ a
Ġc Ã´ng
Ġc ovid
Ġe commerce
Ġor bit
ill o
ĠL ets
Ġres idence
Ġgo bl
ĠV ision
Ġsp am
Ġlist ener
Ġ< |
enc il
Ġbu ilder
Ġinv itation
Ġgu i
Ġav atar
str icted
Ġlog istic
ĠAr beits
Ġenc ore
Ġreview ed
oper ation
Ġelect ronics
Ġachie ves
.t rans
Ġmel hore
Î¼ ÎŃ
å¾ Ĺ
ìĺ ģ
Def ine
Oct ober
NotFound Error
H F
L ib
_ level
at ique
Ġw ikipedia
is y
Ġf ato
ed uc
ad amente
ĠS ustain
ĠS ydney
Ġal can
ill es
ĠM icro
cl ip
ST ATE
ĠEx change
á» į
rag ons
27 7
bl og
Ð°Ð»ÑĮ Ð½ÑĭÐ¹
Ġí ĥ
ĠÄ °
Ġste ak
Ġprim era
Ġing res
Ġpack ed
Ġtom ato
Ġattempt ing
Ġdiscl osure
ĠÚ© ÙĨ
Ġfrust rated
Ġhun ter
Ġsele ccion
ĠÐ·Ð°Ð½ Ð¸Ð¼
( str
2 14
S pace
_ group
p ciÃ³n
} "
Ġt iger
Ġre dd
ĠN anjing
Ġst ain
Ġbe aucoup
ĠC lear
un es
ĠP as
Ġper ceived
ĠJ ahr
ĠK unde
ĠÐ¿ÑĢ Ð¾Ð¼
ĠÃ ¥
Ġsur faces
_d ict
ĠQu iero
Wh ite
_f lag
_f rame
ĠRE AD
ĠGr Ã¼
Ġìĭ ¤
ĠÐļÐ°Ðº Ð¸Ðµ
Ġà¦ ķ
OUR CE
Ġstim ulate
ĠÐ¿ÑĢÐ¾Ð² ÐµÐ´
Ġweigh s
èĤ ¡
Ġì¢ ĭ
Ġpesquis a
ĠÐ²ÑĭÑģ Ð¾Ðº
' }ĊĊ
T ag
_ min
_ col
m id
t wo
Ġg anz
ÑĢ Ð¾Ð»ÑĮ
ir ical
Ġhe ars
Ġun real
ĠW ort
ĠL OC
Ġcol oured
Ġtrans parency
ah re
ĠCom ponent
Ġ× ¨
-d emand
iction ary
Ġge b
CO DE
ìŀ ĳ
Ġlength y
ĠPol ish
FF FF
Ġassess ments
FI LE
Äĥ n
Ġpra ise
zie he
Ġcivil ization
Ġrein force
Ġell a
Ġpleas ant
Ġlegis lation
Ġmitig ate
Ġpse ud
Ġmul her
Ġsyst Ã¨me
Ġsegur anÃ§a
Ġebon y
< int
A uto
C ity
G um
P OS
d ict
Ġw ow
Ġv ra
ĠD ong
end as
ite c
ĠB ridge
ĠF act
Ġint Ã©
ĠU pon
ĠÑģ Ð¾Ð³Ð»Ð°Ñģ
ap it
Ġpr z
ĠÐº Ð½Ð¸
Ġpart es
Ġover se
17 4
Ġvers chied
-m oi
34 2
ï¼ļ æŁ¥è¯¢
äº Į
ÛĮ ÙĨ
Ġhor rible
ĠÑħ Ð¾Ð´
Ġbound ary
Ġdro ve
Ð»ÐµÐ½ Ð°
Ġpag ar
ĠâĶ ľâĶĢâĶĢ
Ġoccas ionally
teil ung
. check
6 20
P our
id el
ru d
ĠG as
be fore
Ġtra ins
Ġke en
Ġret ired
Ġcomplex ities
oph ag
çĶ¨ ä¸Ńæĸĩ
ĠÐ´Ð² ÑĥÑħ
Ġlinked in
_e commerce
ĠEL ITE
Ġtwist ed
I MA
_ O
x it
se gment
ĠF air
ĠR P
Ġver acity
Ġchar m
Ġes qu
Ġrem embers
ĠÐ½Ð° ÑĥÑĩ
á» ħ
Ð¾Ð»ÑĮ ÑĪ
gu y
ĠQu ando
For ce
Ġcard io
Ġave z
Ġcamp us
Ġdetect ive
ĠØ§ÙĦØ ®
Ġcm d
Ġtun nel
Ġmine craft
Ġvend ors
à¸± à¸ļ
ĠMat rix
Ġoccup ation
Ġcow ork
ĠÐ¼Ð¾Ð´ ÐµÐ»ÑĮ
det ailed
Ġìļ °
Ġunse re
ĠMot or
ĠfÃŃs ica
Ġdere cho
ĠÐºÐ»Ð°Ñģ Ñģ
Ġheadqu arters
K V
V ICE
i ri
µ ľ
us o
ĠH ust
ĠL ang
ĠG PE
ĠO il
Ġcl it
ĠÐº Ð°Ð½
ne j
ĠK ategor
Ð°Ð½ ÑģÐ¾Ð²
ĠCh ildren
Ġrec ount
arn ess
Ø± ÙĪ
Ġgl ucose
Ġpot atoes
Ġrele asing
ĠÐ¾Ð± Ð¾ÑĢ
Ġâ ľ
Ġdiscuss es
âĢ¦ Ċ
UL D
OP Y
place ment
FA CT
Bl ock
Ġswitch ing
Ġinsert ed
Ġ.. .ĊĊ
Ġcircumst ance
WH ERE
ĠCho ices
Ġpont os
ĠProte ction
Ġeinf ach
ĭľ ê²½
, E
T ile
w alt
Ġc s
Ġw ounds
Ġan te
Ġn ad
am ina
ĠP ri
ĠW elt
and ing
Ġim plant
Ġout look
Ġdis able
urn ame
ĠSt rateg
Ġopt ical
Com pare
ĠBut ton
Ġrespect ed
Ġyoung est
Al tern
oph y
Ġplus ieurs
ollow ing
Ġbill ing
Ġcos as
/b in
Ġattend ance
ĠSex ual
Ġdisco vers
ĠOlymp ic
Ġcav ity
yh ose
ĠGRO UP
íŀ Ī
â ī¤
qu oi
ĠT our
Ġcon gress
ĠS ite
ĠD ienst
ĠB O
ĠR L
Ġres ign
ĠO cean
Ġsay a
ous es
ber y
Ġsc rap
com ponents
ĠJ oint
In tern
Ð°Ð» Ð¸ÑģÑĮ
30 7
Ġav ons
.\ \
conom ic
ĠÑģÑĤ Ð°ÑĢ
ĠPl ot
Ġ` <
åĲ «
na ire
ester ol
ĠÑģÐº Ð¾ÑĢ
æł ·
Ġstri king
ÃŃst ica
appe ar
Ġacess o
D as
U K
\ ',
_ up
c ot
c ke
e lement
h is
í ĳľ
Ġa uc
et to
et ta
ĠT rip
ĠS AL
Ġex tern
ĠB US
Ġpre re
Ġsc ales
Ġz oom
Ġsim ulated
ank a
ĠÐ» Ð¸ÑĨÐ°
28 5
Ġeas iest
Cl ause
Ġsexual ity
ëł ¹
ĠÑĢÑĥÑģÑģÐº Ð¸
Ġpredict ive
Ġessential ly
Ġincl uir
Ġconten ido
Calcul ate
Calcul ator
ĠOP EN
olly wood
Ġëį Ķ
bild ung
& A
- min
- value
/ de
9 60
C ore
l an
ç ħ
Ġ ï¬ģ
er te
Ġm ex
as ury
Ġor th
ĠF O
ĠL ooking
Ñı Ð»
ak ah
Ġprom ises
Ġra ck
15 8
Âł ĠÂł
Ġpor k
LL O
Ġprim er
Ġslow er
box yl
ãģ§ ãģį
comp et
Ġenh ancing
à¥ĩ à¤Ĥ
Ð¸Ð»ÑĮ Ð½Ð¾
ĠJew s
Ġneighb our
Ġtro ops
ë° ĺ
path y
Ġps ic
rypto C
Ġdece ased
. on
/ in
0 90
H el
L ight
P uedes
g end
z ug
Ġ ."
os i
ke pt
ĠW W
Ġper fe
Ġtw elve
cre ase
ĠRe ally
Ġatt orney
Ġdef ines
Ġnam ing
25 9
ä» ĸ
'' ''
Ġflo ors
Ġqual ities
ĠÐºÐ¾ÑĤÐ¾ÑĢ ÑĭÑħ
vo ke
Ar gument
åħ ¶
Ġtax able
-B ot
Ad min
Ġpant yhose
ott we
æľĢ å¤§
Ġbooking s
Mod ule
ĠÐ²ÐµÑĢ Ñģ
;; ;;
Ġnue vo
Ġcurs or
Ġfinanci era
Ġcient ÃŃ
-sol ving
3 23
R ange
_ new
_ area
c ers
ic iones
Ġu gly
ot ing
ĠB udd
Ġle gg
Ġle mon
ĠR ottwe
ĠV M
Ġind ent
Ġtra it
ÐµÐ» ÐµÐ½
ĠAs set
Ùĩ ÙĬ
ĠPl ant
Ġnecess Ã¡rio
Ġpred icate
å® ī
Ġtut to
ĠPres erve
qui ries
Ġdess a
Ġgrat u
Ġsib ling
ĠFigure n
itud es
Ġaffirm ative
Ġtack le
ĠÐ´Ðµ ÑıÑĤÐµÐ»ÑĮ
BIT DA
' on
( key
S pec
f oot
j os
m ot
Ġa ula
il ia
il ateral
ĠE ffect
ĠL ater
ĠÑģ Ð²ÐµÑĤ
Ġform ing
cess o
Ġz ÅĤ
uss ian
pr ime
Ġaut res
23 8
ÙĨ ÙĬ
ĠÐ³ ÑĢÐ°ÑĦ
ien za
Ġsuper vision
ms g
Ġbi opsy
Ġess as
íķĺ ê¸°
ĠÐ·Ð° Ñī
Ġhar sh
ĠFl at
ĠÐ½Ð¾Ð² Ð¾ÑģÑĤÐ¸
ĠFe el
Ġfilt ered
Ġrepeated ly
Ġforne cer
Ġske pt
Ġsched uling
Ð¾Ð¶Ð´ ÐµÐ½Ð¸Ñı
Ġdeduct ed
-BROM O
. )ĊĊ
E res
S YSTEM
T orch
o j
p ub
å »
in ib
Ġs are
Ġc rot
ar f
Ġas sistent
ist en
Ġun supervised
Ã© mon
Ġad mission
." ],
Ġinv ention
chn ung
br ing
ÑĢÐ° Ñĩ
ĠÐ¸Ð· Ð²ÐµÑģÑĤ
ĠÐļ ÑĤÐ¾
ges ch
Ð¸ÑĩÐµÑģÐº Ð¸
Par ser
under stand
Comm ands
Ġintelig Ãªncia
Ġisol ation
æł¼ å¼ı
Ġremark able
Ġdisappoint ed
Ġfranc ais
ĠWrit ing
/rem oving
( M
. ru
G P
S end
V C
] );Ċ
ï ĥ
Ġd ific
Ġn est
ĠC F
Ġv amp
Ġqu indi
ĠL im
ĠO THER
ĠÑģ ÑĬ
Ġtext os
Ġall en
Ġcomp ress
Ð¼ Ð¾Ð²
Ġsc ul
au er
Ġsa is
Ġstr at
ĠÑĢ ÐµÑģ
row ave
30 8
Ġcar rier
cept ions
Ð°Ð² Ð°Ð¹
ãģĦ ãĤĭ
Ġattrib uted
UM AN
ĠÐºÐ¾Ð½ ÐºÑĢÐµÑĤ
Ġzur Ã¼ck
Ġestablish ment
à¸± à¸Ļ
:' "
ĠÐ¸Ð½ÑĤÐµÑĢ Ð½ÐµÑĤ
ĠPAR A
Ġcurric ulum
/im proving
% %
' NAME
/ fix
7 10
I H
L imit
b uilding
r v
t mp
le ader
ed back
ĠS av
ĠD ual
00 6
ĠF ox
ĠÐ¿ Ð¸ÑģÐ°ÑĤÑĮ
Ġcomp ares
Ġprov ed
be an
enc ode
30 3
Re commend
Ġbus car
ĠAl pha
Ã¶ l
Ġdat o
do ors
Ġstru ck
Ġcu ck
ÐĿ Ðĺ
Ġlay ing
ĠDis ney
FF ECT
Ġped ido
Ġwilling ness
Ġhack er
Ġbun nies
Ġencrypt ed
Ġox id
ĠCHEM ICAL
Ġorgas ms
' inter
Z Z
d os
l ace
z ahl
ĉ e
in ery
Ġan onymous
Ġm Ã£
ic le
Ġg eral
Ġst icking
ĠD ress
Ġsh irts
ĠH yp
ĠR ab
": {Ċ
Ġte aches
ci um
âĢĿ .Ċ
Ġinv o
Ġback pack
Ġback story
Ġsk ate
Ġmon key
ĠDe lete
ator io
Ġmo is
ĠQu ick
Ã¼r k
Ġgra bbing
ĠTe il
gen es
met ry
å® ŀ
Ġtele gram
Ġban anas
with out
ĠSpe ak
Ap ple
Ġspaces hip
ĠTur kish
Ġhan no
' -
- en
- gu
4 36
: |
G reat
_ for
h one
n ÃŃ
r b
v in
Ġthe r
Ġd ated
est re
ur an
Ġv ain
ab ile
and al
ĠR T
Ġj ung
cri vimi
ia ce
Ġno ite
ĠÐ² Ð¾Ð¹
ĠV ill
ĠÐº Ð°ÑĤÐµÐ³
Ġpe ers
Ġob ten
Ð¸ÑĤ ÐµÐ»ÐµÐ¹
Ð°Ðº Ð¾Ð²
14 7
() ,Ċ
ãĥ ł
23 6
ĠÐµ Ð´Ð¸Ð½
Ġutil ized
à¹ Į
ĠÑĢÐ°Ð· ÑĢ
Ġimag ens
ĠÐ¾Ð´ Ð½Ñĥ
Ġdiscl aim
á»ĳ i
ĠprÃ©s ent
FORM ATION
Ġconfigur ations
Ġrhyth m
Ġatrav Ã©s
ĠSwit zerland
( Q
< bold
= utf
B P
C Y
w y
ĠP T
ĠB ah
ĠÑģ Ð¸Ð»
ip eline
ãģ ¿
Ġpar ams
Ġ{ }Ċ
Ġpr ze
ĠÃ Ħ
Ġcor rupt
Ġimport Ã¢ncia
Ġposs ession
arm a
Ġref res
Ġinf ected
ĠX X
ĠÐ» Ð¾Ð³
ÛĮ Ø¯
'] [
Ñĳ Ð»
Ġreflect ing
Gr ade
Ġsucc inct
áºŃ n
Ġnurs es
é¦ ĸ
Ġlyric ist
2 19
J un
k at
t ypes
Ħ ë¡ľ
Ġw en
Ġst ole
ra che
ĠC amera
est ers
ĠH ola
ĠB ACKGROUND
ĠR s
op es
ĠJ ur
Ġpart ition
Ġgr ateful
Ġz ie
à¤ µ
Ġco hes
Ġco isas
Ġfl ame
Ġda i
Ð¾Ñģ ÑĥÐ´
Ġcustom ization
Ġactiv ated
ĠCl aim
ĠIN D
Ġsens es
Ġcondition er
Ġë° Ķ
Ġcru de
anch ise
Ġconsequ ential
ìĽ Ķ
ëŀ Į
ĠEN G
Ġrot ate
Ġpurs uit
Ġmort gage
Ġsan ctions
á»ģ u
ĠÐ¼Ð¾Ð´ ÐµÐ»Ð¸
ĠmÃ©t odo
Ġpharm ac
Ġabsor b
ĠIss ue
Ġrag az
Ġflir ting
H g
Ġs og
Ġg ri
ĠI C
ol ute
ĠT AK
ĠW A
ĠH ab
ĠB lu
ass er
Ġtr am
Ġche at
ĠÐº Ð°Ð¿
Ġdocument os
Ġtem as
rie ve
Ġappro ached
aj a
Ð¾Ð¿ ÑĢ
ĠOr ange
ÐµÑĩ Ðµ
Ġbud ding
Ġflu ct
Ġaqu ÃŃ
Ġjew elry
Ġabbrevi ations
Ð½ÐµÑĢ Ð³
Ġabund ance
D raw
I ss
ç ²
ķ Ī
ĠT I
ple d
ĠR is
ĠL iter
Ġdis aster
Ã¡ ng
Ġent onces
Ð¾Ð¼ Ð¸Ð½
íķ ©ëĭĪëĭ¤
-------- -
Ġbr on
Ġpres er
Ġvo ices
Ðļ ÑĤÐ¾
Ġjour n
Ġfort une
Ġtast y
Ġhalluc inate
Ġgrip per
ĠDeliver y
bpm n
/fix ing
( T
, Sh
. service
4 90
5 32
6 21
G D
_ search
in at
es ia
is play
Ġb ind
Ġl ou
Ġex pon
Ġsc ary
Ġph on
Ġunder way
ĠÐ¼ Ð»
ĠÐ¼ Ð°Ñģ
ÐµÐ» Ñİ
Ġfl aw
** ĊĊ
Ġcontext e
Ġê ¹
Ġhard ly
Ġvol ta
rypt oc
ĠJust ice
print f
ĠDis order
incip al
ĠReg ular
Ġsett le
ĠìŀĪ ìĬµëĭĪëĭ¤
ç« ł
Ġappoint ed
ĠDocument ation
rific ation
Ġtraject ory
ĠELITE BOT
Ġdisclaim ers
[ [
b ig
Ġw ides
Ġd ib
Ġf ai
Ġb ands
Ġn ymph
ĠS yn
ĠC AL
ĠM ix
Ġus eless
Ð» Ð¾Ð½
ĠU b
Ġpar ler
Ġperson nes
AR B
Ġimp uls
SE C
Ð½Ð¾ÑģÑĤ ÐµÐ¹
ĠCo ver
Ġguid ed
×ķ× Ł
ograph ical
Ġaf in
su ccess
Î» Î¿
IF IC
ðŁĺ Ī
Ġestud i
Ġcounsel or
ĠÐ¸Ð³ÑĢ Ñĭ
ĠMad rid
Trace back
ĠÑĢÐµÑģ ÑĥÑĢ
( N
7 80
S ettings
_ address
r ise
² ģ
le ur
om i
Ġth u
ult y
ific ate
Ġtra uma
ãĤ Ħ
Ġmult im
Ġnames pace
Ġinc est
ĠOpen Al
Ġconnect s
Ġìŀ ¥
Ġcapt ures
Ġcomprehens ion
Ġcand le
LO B
Ġinvestig ating
Ġprincip ales
Ġtoken izer
ĠMod ern
Ġexpos ing
ih ydro
Ġcast le
ĠÑģÐµÑĢ Ð²ÐµÑĢ
Ġminor ity
ĠQuant ity
Ġallerg ic
ĠÐ¼Ð°ÑĢ Ðº
ĠÐ¿Ð¾Ð»Ð¾Ð¶ Ð¸ÑĤÐµÐ»ÑĮ
Ġestrut ura
Æ°á»Ľ c
R andom
Ġ íķĺëĬĶ
is Ã©
Ġf ich
Ġf ence
Ġy ap
ĠN otes
am ic
Ġfor cing
Ġbe ats
ĠC ast
ĠP orn
Ġse ine
ĠH at
Ġpl asma
Ġout perform
Ġpre val
Ġì Ĭ¤
Ġinform acion
Ġperson aje
Ġfl ip
Ġback ed
ĠÐ± ÑĢ
Ġreg ret
ĠÃ© p
Ġbul b
ĠGo al
add itional
IS C
äº ¤
88 8
Ġweak nesses
inte ger
ĠÏĥ Ïħ
Ġplug ins
Ġteng a
ĠPO ST
ãģ«ãģ ¤
Ġlawy ers
ĠSpec ifically
S ex
r andom
u je
é ¾
Ġ ðĿĳ
Ġt ic
et ra
ĠH O
elf are
ĠK ay
rit ten
Ġest able
Ġapp are
Ġret ain
ĠCh icago
wor thy
EN G
24 3
IT A
à¹ Ĥ
Ġheart s
umb led
Ġsin ful
Trans form
ĠÐĺ Ð·
Ġequip o
open ai
ĠBel g
Ġinsult ing
ĠâĢĿ Ċ
Ġgall ons
Ġgarant ir
Ġoppon ents
Ġelder ly
Ġcrot ch
. k
F IN
R ating
n est
Î £
Ġ ion
in ction
Ġs ought
Ġs á»ĳ
Ġl ore
ĠI R
id elines
im as
Ġex ig
pl atform
ĠB ill
ĠL ength
ĠÐ² Ð»Ð¸
." ""Ċ
Ð°Ð½ Ð½ÑĭÑħ
ÃŃ o
ug s
Ġcharacter istic
Ð³ Ð°
ï¼Į è¯·
Ġâ Ŀ¤ï¸ı
Ġge gen
´ë ĵľ
ĠAct ivate
AP S
Ġhost ile
Ġtim ely
Ġrom an
Ġinflu ential
ĠGu ard
Ġflu ids
Ġpul se
ĠØ§Ø ²
åķ ı
Ġê± °
Ġgorge ous
5 30
8 50
P AR
x in
} $
ĠS icher
ĠS aint
sw ords
ac cur
ĠM aria
ĠH IV
Ġr outes
ĠG UI
Ġar med
Ġpre oc
ph y
Ġent ren
Ġunder t
Ġret ention
Ġanal is
-d t
Ġkind ness
Ġsal ud
Ġten ha
itch ing
Ġ) ,Ċ
ĠTrans port
Ġopp osed
Ġcit ation
ĠAM D
Ġsensual ity
ç® Ĺ
Ġsurre al
akort ol
( len
L ESS
S ER
x a
Ġc ater
Ġw i
Ġd ou
ol in
Ġde emed
ĠS ix
ag ar
ĠM ap
Ġby e
ip ment
vel ope
Ġì Ļ
ÐµÑĢ Ñģ
Ġsub process
St orage
ãĤ ª
Ġref using
uc ing
Ġkind a
ĠRE AL
aur ants
Ġseg uro
Ġcamp ing
OP ER
isp ers
Ġhurt ful
Ġseek ers
ì² Ń
=> "
åİ »
Ġelectro ly
Ġfoss il
Ġìŀĳ ìĦ±
ĠMonitor ing
ĠMine craft
5 40
a vel
e z
Â §
ç ¬
ô Ģ
Ġl attice
ra ved
ex press
ĠM D
ĠE sc
ĠSt age
Ġbl end
\n The
ĠUn known
ÑĨÐ¸ Ð¿
Ġve ut
ien es
Ġfront end
ĠPre c
ĠÐĺ Ð½
Ġinstit uciÃ³n
ĠÐ´ÑĢÑĥÐ³ Ð¸Ñħ
hal te
ĠÐ¡Ðº Ð¾Ð»ÑĮÐºÐ¾
ðŁĺŃ ðŁĺŃ
- Story
- METHYL
/ month
3 90
W O
m ode
x s
× ĸ
Ġw ichtig
it et
Ġst ance
Ġsh ips
Ġne u
ĠE la
Ġ' -
ÐµÐ½ Ð½Ð¾Ð³Ð¾
Ġover ride
Ġco isa
ĠCh ang
24 8
Ġrun time
ĠSe attle
Ã¨ ne
-d ate
_m ode
Des pite
Ġsus cept
rid azine
Ġgrad uated
ĠÑĢÐ°Ñģ Ñģ
Ġcopy right
ĠAb stract
ĠÐ´Ð¾Ð»Ð¶ Ð½Ð¾
Inter mediate
Ġassert ion
ĠÑģÐ¾Ð¾Ð±Ñī ÐµÐ½Ð¸Ðµ
Ġportugues e
ĠÑĢÐµÑĪ ÐµÐ½Ð¸Ñı
Ġnegot iation
ĠÐ·Ð°Ð´Ð°Ñĩ Ð¸
å¿ ħ
Ġbust y
Anal ysis
ĠÙħØŃ ÙħØ¯
< h
W ir
W riter
k c
l ais
} /
é ©
ĠS tick
ĠM B
ĠM s
ĠL ibrary
ĠÐ² Ð°Ñģ
âĢĻ .
Ġinter course
rit is
Ġve gan
Ġwhe els
Ġsuccess or
ï¼ļ http
ane iro
Ġvan illa
ĠÐºÑĢ Ð°ÑĤ
ä¾ Ľ
Ġtrig gered
Ġdoub les
Ġkil ogram
OUT PUT
Ġadvertis ement
. info
3 24
X R
] ."
_ answer
m akers
u pport
x sl
Ġd rew
Ġb other
Ġn iche
ot ics
ith ium
ĠC i
ab b
ht ra
ĠG ospel
Ð² ÑĢÐ°Ñī
ib o
Ġag ua
ob i
Ð¾Ð´ Ñĥ
Ġac et
Ġmin ors
Ġwell ness
Ñĸ Ñı
Ġexp end
Ġfunction ing
Re ader
Ġsl a
fic i
AI S
Ùĩ Ùħ
ca o
Ġview ing
Ġfre und
Ġvol umes
ĠTe ams
na issance
Ġdeep est
ĠÑįÑĤ Ñĥ
Ġir rit
ris k
Ġclub s
Æ°á» Ŀ
Ġsy ndrome
á»ĥ m
Ġdispos al
Ġlift ed
ĠEsp aÃ±a
Ġexplos ion
Ġrol led
.Data Frame
Ġroy al
+ |
M enu
[ instruction
s ur
è Ī
Ģ ìĤ¬
em n
ĠD ialog
th yl
Ġsh aft
ĠB oston
ĠE D
Ġk al
ak u
Ġover ly
ĠÑĤ Ð¾Ð¶Ðµ
Ġent s
Ġ? ?
Ġgu arante
Ġav ait
Ġsch olars
âĢľ Ċ
_c sv
uz umab
ĠĠĠĠĠĠĠĠĠĠĠĠĠĠĠĠĠĠĠĠĠĠĠĠĠĠĠĠĠĠĠĠĠĠĠĠĠĠĠĠĠĠĠĠĠĠĠĠĠĠĠĠĠĠĠĠĠĠĠĠĠĠĠĠ ĠĠĠĠĠĠĠĠĠĠĠĠĠĠĠĠĠĠĠĠĠĠĠĠĠĠĠĠĠĠĠĠ
Ġath lete
Follow ing
Ġreli ability
Ġble eding
Ġgast ric
Ġconfigure d
æº Ĳ
è« ĭ
ĠëĪ Ħ
, and
. parse
/ -
: #
b oth
Ã ¯
à ®
re ement
Ġw arranty
Ġm og
Ġb ags
ut er
ut et
ÑĢ Ð¾Ð¿
Ġal umin
ĠH alf
Ġfol ders
ĠIn strument
Ġassistant s
io x
Ġfun ciÃ³n
Ð°ÑĤ ÐµÐ»Ñı
Ġpo le
ĠÐ· Ð°Ð»
ĠØ§ÙĦ Ø¯
Ð¡ Ð¿
Ġautom otive
Ġri ass
Ġseg Ãºn
Ġmis represent
ĠPart ner
ĠGl en
Ind ust
iling ual
Ġarr ange
ĠÐ¿Ð¾Ð»ÑĥÑĩ Ð¸ÑĤÑĮ
ĠPortug al
Ġrabb its
prim ary
ĠSha res
Ġxml ns
Ġforb idden
Ġscul pt
N ome
Ġd p
Ġm ÃŃn
Ġn en
ĠS mo
ver ter
ĠO l
ip es
ress ure
ĠÐº Ð¾Ñģ
ĠÐ´ ÐµÐ½
Ġent ropy
ĠCh rome
St ore
St ack
Ġ} )Ċ
ĠÐ± ÐµÐ»
Ġeff usion
Ġref lex
Ġexp ose
Ġvis ibility
Ġident ifies
_s plit
Ġpolic ing
Ġparticip ated
Ġdress ing
Ġconsult ation
Ġfirm ly
ĠÐ´ÑĢÑĥÐ³ Ð¸Ðµ
ĠProgram ming
ĠCare er
ĠkÃ¶n nte
ĠÐ¿Ð¾Ð² ÑĤÐ¾ÑĢ
Ġtam an
Bo ard
Ġarab ic
Æ°á»Ŀ ng
P assword
_ config
Ġf ry
il st
se q
un ds
Ð¾Ð² Ð¾Ð³Ð¾
Ġtr Ãªs
be ing
ĠK h
ÃŃ cios
Ġplay list
Ġz ona
Ġins pection
Ġsl ots
Ð°ÑĢ Ð°
-t op
Ġop Ã§Ãµes
col a
Ġtu a
pa id
ÐºÑĥ ÑĢ
Ġcondition ing
ĠSol ve
Ġwat erm
Ġcook ie
ë¬ ¼
Ġfish ing
Ġnegot iate
ç½ ĳ
ĠÑģÐ»ÑĥÑĩ Ð°
Ġseam less
! âĢĿ
C NN
F igure
n ans
Ã ľ
Ġ ic
Ġf rage
Ġf ancy
ĠT s
ri k
pl a
ab i
ab ilitÃł
Ġun cle
ĠH armful
Ġle aning
Ġall ocation
Ġcomp ounds
ens piel
ĠJ in
Ġver ste
we is
Ġrel aciÃ³n
30 6
ä¸ »
IC INIUS
ĠDes k
Ġhome work
ä» ¬
.g enerate
ĠInt ent
Ġang les
Ġaccept ing
aff ordance
ìľ ł
Ġcontinu ar
She ll
Ðķ ÑģÐ»Ð¸
Ġpossess es
ĠRepublic an
ĠÐ¿Ð°ÑĢ Ð°Ð¼ÐµÑĤ
ĠCommun ication
Ġreb ell
hav ior
Ġë² Ī
prob ability
ĠÐ½ÐµÐ³ Ð°ÑĤÐ¸Ð²
- cons
C rit
E lect
t rad
æ ¼
re ne
ĠG um
Ġdis ability
Ġreal izing
Ġwere n
AT T
ĠÃ© crire
ES E
Ġ× ¤
Ġjo ints
ìĦ Ŀ
ĠAct ual
ii i
Ġau ction
Int erest
Ġhy pertension
ĠAD Milk
cher s
ĠÐ¿Ð» Ð°ÑĤ
Ġbod ily
Ġnuc le
ĠÐ°Ð² ÑĤÐ¾ÑĢ
íĺ Ħ
local host
áº§ u
Ġrail way
åģ ļ
Ġbrasile iro
Ġairl ine
Ġsuppl iers
( start
D ir
Y C
_ A
c en
t yp
Ġh ints
Ġre ais
ab lish
ĠB DSM
ĠÐ¿ Ð¾Ð¹
Ġind ian
Ġnew est
ob l
Ġbl anks
ank en
Ġline a
iver y
Ġdisplay ing
-l ife
Ġti áº¿
ador as
ë¥ ĺ
log in
ls x
ĠUnder stand
Ġgrav itec
Ġsel enium
Eng ine
Ġspr int
ĠBesch reibe
ĠSwed en
ĠBuk it
' article
_ res
c orn
Ġ ÅŁ
Ġf ocal
st an
ĠB and
ĠL ou
Ð¾Ð» Ñı
Ġco inc
pos itions
Ġbre ed
ĠÐ° Ðº
Ġsocial ist
att ribute
sp am
Ġess es
Ġelect ed
OD OD
UM N
ĠRem ote
ĠReg eln
Ġprotect ive
Ã¤t z
Ġthick ness
ACT ED
ĠPhys ical
ĠPrem ium
éĻ Ĳ
Ġposter ior
ylp y
Ġprofes ional
ĠASS ISTANT
ĠBat ok
Ġwides pread
C up
ç Ł
Ġ Ïĩ
Ġs sh
Ġb amb
ĠA ve
ĠS creen
and roid
Ġse vent
ĠH air
Ġk ullan
Ġat ividades
ĠL iqu
ĠÑĢ Ð°Ð±
olog ic
ĠDe finition
AL E
-b ack
Ġvide og
Ġpartic ul
ĠLe i
Ð°Ð± Ð°ÑĤ
ĠÑĢÐ°Ð· Ð´ÐµÐ»
orith m
54 3
ë¥ ¸
Ġesc rito
ĠÐ¸Ð¼ ÐµÐ½Ð¸
Ġofficial ly
Ġdar f
Ġevol ve
ĠÐ·Ð½Ð°Ñĩ ÐµÐ½Ð¸Ñı
-W riter
ĠÐ·Ð°Ð´Ð°Ñĩ Ð°
ĠScient ist
ĠBetter DAN
---+ ---+
Ġnoss a
Ġsquir rel
Ġdow nt
. ;
/ O
2 16
8 40
: </
J OIN
M any
M ood
f k
l ay
r ine
ĉ ĊĊ
Ġt xt
re k
ch io
ĠA udio
od b
Ġde vol
ĠC ause
ig an
ĠB ow
ĠF an
ĠL AB
Ġdet er
Ġver bal
con sole
ĠÐº ÑĥÐ¿
St ock
Ġconvers a
line ar
Ø± Ø©
Ġneg Ã³
Ġhand led
ÑĢÑĥ ÑĪ
Ġcr ashed
Ġsuper computer
aa a
Ġje u
'] ,Ċ
") ;ĊĊ
Ġcapt uring
Ġhom bre
Te acher
Ġ×ľ ×Ķ
á»ģ n
ĠÑģÑĤÐ¾ Ð¸ÑĤ
ĠDev Ops
ĠÐĿÐ°Ð¿ Ð¸ÑģÐ°ÑĤÑĮ
Ġrecher che
Ġdá»¥ ng
, h
- Pro
9 01
B uild
S ave
_ amount
t v
t te
w ire
} .Ċ
on io
Ġw r
as pect
Ġl ively
ĠT emperature
ab ama
ĠH in
Ġsu ited
ĠF UND
cl uster
Ġcomplet a
Ġper missions
ree ze
ĠÐ¿ÑĢ Ð°ÐºÑĤ
ĠÐ¿ÑĢ Ð¸Ð´ÑĥÐ¼
Ġca ut
ÑĪÐ¸ Ðµ
ĠLe ave
04 3
-c ase
Ġri f
He ight
Ġdetect ing
ĠÐ¾Ð¿ ÐµÑĢ
ĠÐ·Ð°Ð¿ Ð¸Ñģ
ë§ ¤
Ġsav oir
ĠëĤ ´
Ġcomplain ing
Ġrock et
Ġrepet itive
irts chaft
Ġkur z
-te ch
ĠArchite ct
Ġsocied ade
H y
b ur
h ma
è İ
Ġl Ã¤
el i
if ference
Ġv Ã©
ĠH mm
Ġres erve
ure au
ĠG ro
Ð² Ð¸Ð´
Ġact ed
Ġz omb
Ñĸ Ñĩ
Ġris pond
ĠÐ¿Ð¾ ÑĪ
Ġenv i
Ġru bbing
ÏĦ Îµ
CO MM
ĠÐºÐ¾ÑĤÐ¾ÑĢ Ð¾Ð³Ð¾
Int ent
Î» Îµ
ë§ Ĳ
Ġbelong ing
Ġconstruct ive
ĠStud y
ĠOper ating
çĲ ĥ
Ġpodr ÃŃa
Bu ilder
Ġuniqu ement
lieÃŁ lich
Ġmischie vous
. .Ċ
0 23
H int
N av
S n
S ounds
[ :
h ui
u ccess
¤ Ģ
Ġt Ã¡
Ġa ura
Ġm ars
le arning
Ġe h
Ġre q
et zt
Ġg ases
Ġst are
âĢ ĥ
ĠM ajor
ĠB ounding
ĠThe ory
Ġtext ual
ĠÐ² Ð¼ÐµÑģÑĤ
ĠÐ½ ÑĢÐ°Ð²
Ġam igo
Ġdis par
ft en
Ġplay wright
Ġfl ux
Ð¾Ð³ Ð¾Ð²Ð¾ÑĢ
Ġback gr
Ġimport ed
ĠØ ·
Ð°Ð² Ð°ÑĤÑĮ
ĠÎ ¸
Î± Î½
ÑĥÐ´ ÑĮ
Ġcrit ique
Ġvalid ity
Ar senal
Ðł Ðķ
Ġnos so
Class ification
Ġevol ved
Ġthrow n
Ġvit amin
ĠÐ¿ÑĢÐ¾Ð´Ð¾Ð»Ð¶ Ð¸
Ġartif act
Ġresil ience
.env iron
" Action
. new
6 40
? âĢĿĊ
K A
M at
· ¨
Ġa Ã§Ã£o
Ġp ing
Ġf res
qu et
ĠS ame
Ġpo etry
Ġsm iled
Ð½Ð¾ ÑĹ
25 2
uc hen
Ġwrit ers
comm ands
Ġna j
ĠIN ST
_m et
Ġgra ve
Ġpain ted
}} ,Ċ
ĠÑĤÐ°Ðº Ð¸Ðµ
Ġdeb ut
-l ist
ìĿ´ ëĭ¤
Ġcou ples
ĠApp ly
Ġber ates
Ġped est
ĠAir port
Result s
ì° ¨
ãģ«ãģ¤ ãģĦãģ¦
" ].
( string
H ERE
R ad
W in
_ height
p ark
s in
â ĺħ
Ġl Ã¡
ĠA st
ĠC atholic
ĠM P
ĠH ol
ĠR oyal
ans om
ĠÐ² ÑħÐ¾Ð´
Ġev id
ub a
Ġdi Ã¡
ĠÃ ĸ
AN A
ox ic
Ġimp ly
Ġappro ve
Ġsocial es
idd ing
]. [
?" ],
Ġquant itative
Ġarch ivo
Ïģ Î·
Ġbrow sing
ĠProcess ing
Ġadapt ation
Ġkom mt
Ġsusp ended
DO CT
Ver se
Ġsear ched
æµ ĭ
Ġinstruct ed
ĠWhats App
& quot
_ action
s mall
Ġa zi
Ġs agen
it ants
Ð¸ Ð¾Ð½
ur bo
âĢ ī
low job
ap el
Ġpo op
Ġz ijn
Ø± Ùĥ
Ġà¤ ²
Ġharm ed
aj o
_id s
Ġdim ensional
comp at
Ġdemonstr ating
ĠNet herlands
Par ameter
Ġlaug hter
Inter val
ĠsÃ© rie
Ġjog os
------ +
bott le
Ġelic its
\ NAME
_ z
r ules
z ir
{ \
ì ¡
in ja
on ds
Ġs q
Ġw ages
Ġp ond
Ġl ollipops
ol are
ĠT rib
ra ck
em in
Ġqu ed
Ġnot ation
Ġman iÃ¨re
Ġtr ata
ĠK an
Ġgr Ã¡
Ġapp etite
ĠÑĢ ÐµÐ¶
up per
Ġwork force
Ġmat t
ÐµÐ´ Ð¶
Ð°Ð· Ð²
par ameter
Ġsl aves
und ry
ĠÐ» ÐµÐ³
Ġeth ic
vol utional
met ric
En sure
Ġcolle ctions
Ġmer chant
PL AN
Ð¸Ð»Ð¸ ÑģÑĮ
Ġthr ill
Ġphilos opher
ĠCalcul us
ef initely
Ġtrig gers
ĠtÃ©cn ica
ĠÐ¼Ð°ÑĤ ÐµÑĢÐ¸
Ġslog ans
Ġminds et
Ġtoler ance
aras htra
ĠOra cle
. Add
E v
H ar
_ en
p in
at est
at etime
Ġn acional
se ver
ĠS L
ĠD ouble
ac onda
ĠH ope
ĠE ine
Ġcl icking
Ġla ce
Ġind oor
Ġag reg
ĠÑĩ ÑĥÐ²
Ġport a
reg ression
37 0
Ġhair y
Ġimpact ed
object s
jour d
Äĥ m
Ġsad ness
Ġpossess ive
Ġbat aille
Ġlust ful
Ġfest ival
ĠCr ime
Ġbicy cle
Ġprofiss ional
6 25
V ert
i Äħ
k h
l c
n u
z Ã¤h
Â £
he ter
Ġw Ã¤re
Ġun mittel
Ġse ctors
Ġr icer
Ġam ino
Ġag ente
ĠY et
iss en
Ġend orse
Ġfin ancing
33 5
tain ment
Ġí ĽĦ
×ķ× Ŀ
ĠÐł Ð¤
Ġaf irma
Ġinflu ences
98 7
Ġball oon
ĠSec urities
ĠCL I
Ġcop ied
å¸ ¸
Ð¾Ð»Ð½ Ð¸ÑĤÐµÐ»ÑĮ
Ġdiscover ing
ĠAbs atz
Med ical
Ġelev ated
çŁ¥ éģĵ
Disc uss
Ġimpr ison
klÃ¤r ung
ĠWohn ung
( O
F amily
M ail
W idth
v m
z ent
Ġ ....
Ġt ends
is me
Ġd rei
Ġan ten
Ġb aix
ct x
ĠN ap
ĠN ations
Ġhe d
Ġun likely
ĠM use
Ġres ort
ĠÑģ Ð¿ÑĢÐ°Ð²
Ð± Ð°
Ġcontin ent
Ġsex o
ĠPro f
Ġref resh
Ġdire ito
ĠAl Ã©m
ðŁ İ
ĠAr ts
45 5
Document s
Ġdra in
lu ent
Ġho ch
Ð¡ ÑĤ
Ġsun light
Ġquant idade
Ġtreat y
Ð»Ñİ Ð´
ĠWH EN
Ġlif ting
Ġobjet ivos
Ġcompl iment
çŃĶ æ¡Ī
ĠEvery one
Rem ove
ĠSS D
Ġmedi ante
æĸ¹ å¼ı
Ġescrit a
Coll ision
ĠLic ense
Ġpolsk u
ĠSugar less
- service
V M
} ;ĊĊ
Ġs no
Ġc umming
Ġan ak
Ġn ause
Ġn ons
ĠA gric
ĠB arcelona
ĠF actory
ĠG ib
Ġwe il
ĠÑģ ÐµÐºÑģ
ĠÐ² ÐµÑĩ
Ð´ Ð¾ÑĤ
Ġcor ps
ÙĬ Ø³
Ġexp ed
Ġsl ur
RE AD
Ġtri ples
ĠÑģÑĤ Ð°ÑĤ
Ġless er
Ġcent ro
Ġprec ip
Ġdraw s
ĠEl astic
ĠPol and
Ġpick up
ĠÑĨ ÐµÐ½ÑĤ
ĠFin land
Par se
Ġwild fire
Person al
ĠTra ce
ĠOver view
Ġembarrass ing
Ġrect angle
Ġstret ching
Ġreven ge
ĠVAL UES
Ġdestro ying
ĠÐ¼Ð°ÑģÑģ Ð¸Ð²
& E
4 11
E le
d n
n els
Ã «
á Ī
Ġt ape
in ic
Ġs ÅĤ
Ġs assy
an ut
Ġb ones
st airs
ĠC op
ĠB C
ĠG ate
Ġmod es
Ð¾Ð² ÑĭÐ¹
Ġest amos
Ġca ress
par ated
Ġsl ay
Con clusion
ĠSp ark
Ġfa Ã§
ĠSer ving
×ķ× ł
Ġcrit er
ìł Ĳ
Ġpoem s
Ġespecial ista
Ġìł Ģ
Ġdro it
inet ic
Ġcham ado
ìłģ ìĿ¸
ìłģ ìľ¼ë¡ľ
ĠKey words
Ġdiscount ed
ĠBre ak
æ° Ķ
Ġforgot ten
LOC ATION
Ġconform e
ĠÃºlt imo
ouvel le
ç¡ ®
- api
- equ
/ _
: n
G rid
H om
O i
O ULD
b uy
c osa
ç Ĭ
é ĺ
Ġt ier
Ġb um
Ġl acks
Ġre gras
ĠN ig
Ġu i
Ð° Ñī
ĠA ber
ĠT em
ver so
Ġhe iÃŁt
ab stract
rom ag
ĠW ood
Ġsh aking
ell ar
Ġmod est
Ġmost re
Ġhad n
ĠÐ· Ð½Ð°Ðº
Ġhuman a
Ġdire t
Ġpat ience
Ġhere in
Ġcr ÃŃ
ĠCl imate
Ġcomb in
IST ORY
Ġnom bres
Ġhi ke
Ġign or
Ġcapac idade
ĠÑĢÐ°Ð±Ð¾ÑĤ Ñĥ
ÑĥÑĪ ÐºÐ°
è® ¾
×© ×¨
Ġtecn olog
Ġthread s
.game Frame
Ġreform uler
Ġjur isdiction
- U
- do
/ app
_ j
e u
l abeled
ĉ d
Ġbe e
Ġv ow
ĠP OS
ĠH az
ĠF IR
Ġar duino
Ġout lined
ific aciÃ³n
Ġpo etic
eng o
me aning
Ġref uge
ĠØ§ÙĦ ÙĪ
ĠÐ¾Ð± ÑĢÐ°Ð±Ð¾ÑĤ
Ġcaus a
Ġappe aling
Cl aim
Ð¾Ñĩ ÐºÐ¸
df s
post e
Ġnom es
Ġmel hores
ynam ic
êµ Ĳ
Ġlic king
Ġíķ ´
Ġappreci ation
Ġmort al
ĠUnder standing
Ġclimb ing
ĠgÃ©nÃ© ral
ÑįÑĤ Ð¾Ð¼Ñĥ
Ġjus qu
* ,
4 21
: "Ċ
} "Ċ
Ġ ----
Ġd ude
Ġm am
Ġl uxu
Ġre nowned
ch ild
ĠT el
ĠS r
em bre
un que
ex planation
Ã© tica
og lio
Ð» ÐµÑĢ
form e
Ġem ple
Ġche z
Ġform ul
ll m
ĠÑĤ ÑĢÑĥ
Ġtra um
de bug
Ġval ore
Ġatt ent
ãĤ Ń
ĠPro b
Ġ& #
ĠQ ing
], [
ĠBe at
AM A
Ġtrad ition
cer al
Ġimm une
ĠðŁ Ķ
MP LO
Ġment ally
Ġtele phone
Ġë§ İ
Ġtruth fully
Ġappoint ments
Ġrend ering
ĠÑĦÑĥÐ½ÐºÑĨÐ¸ Ñİ
ĠArab ic
ĠÐ¿Ð»Ð¾ Ñħ
ĠFrame work
ç¥ ¨
- ĊĊ
. error
F ill
S B
[...]
