{"<|dummy_0|>":0,"<|endoftext|>":1,"<|fim_prefix|>":2,"<|fim_middle|>":3,"<|fim_suffix|>":4,"<|dummy_1|>":5,"<|dummy_2|>":6,"<|dummy_3|>":7,"<|im_start|>":8,"<|im_end|>":9,"<|im_sep|>":10,"<|dummy_4|>":11,"<|dummy_5|>":12,"<|dummy_6|>":13,"<|dummy_7|>":14,"<|dummy_8|>":15,"<|dummy_9|>":16,"<|dummy_10|>":17,"<|dummy_11|>":18,"<|dummy_12|>":19,"<|endofprompt|>":20,"<|dummy_13|>":21,"<|dummy_14|>":22,"<|dummy_15|>":23,"<|dummy_16|>":24,"<|dummy_17|>":25,"<|dummy_18|>":26,"<|dummy_19|>":27,"<|dummy_20|>":28,"<|dummy_21|>":29,"<|dummy_22|>":30,"<|dummy_23|>":31,"<|dummy_24|>":32,"<|dummy_25|>":33,"<|dummy_26|>":34,"<|dummy_27|>":35,"<|dummy_28|>":36,"<|dummy_29|>":37,"<|dummy_30|>":38,"<|dummy_31|>":39,"<|dummy_32|>":40,"<|dummy_33|>":41,"<|dummy_34|>":42,"<|dummy_35|>":43,"<|dummy_36|>":44,"<|dummy_37|>":45,"<|dummy_38|>":46,"<|dummy_39|>":47,"<|dummy_40|>":48,"<|dummy_41|>":49,"<|dummy_42|>":50,"<|dummy_43|>":51,"<|dummy_44|>":52,"<|dummy_45|>":53,"<|dummy_46|>":54,"<|dummy_47|>":55,"<|dummy_48|>":56,"<|dummy_49|>":57,"<|dummy_50|>":58,"<|dummy_51|>":59,"<|dummy_52|>":60,"<|dummy_53|>":61,"<|dummy_54|>":62,"<|dummy_55|>":63,"<|dummy_56|>":64,"<|dummy_57|>":65,"<|dummy_58|>":66,"<|dummy_59|>":67,"<|dummy_60|>":68,"<|dummy_61|>":69,"<|dummy_62|>":70,"<|dummy_63|>":71,"<|dummy_64|>":72,"<|dummy_65|>":73,"<|dummy_66|>":74,"<|dummy_67|>":75,"<|dummy_68|>":76,"<|dummy_69|>":77,"<|dummy_70|>":78,"<|dummy_71|>":79,"<|dummy_72|>":80,"<|dummy_73|>":81,"<|dummy_74|>":82,"<|dummy_75|>":83,"<|dummy_76|>":84,"<|dummy_77|>":85,"<|dummy_78|>":86,"<|dummy_79|>":87,"<|dummy_80|>":88,"<|dummy_81|>":89,"<|dummy_82|>":90,"<|dummy_83|>":91,"<|dummy_84|>":92,"<|dummy_85|>":93,"<|dummy_86|>":94,"<|dummy_87|>":95,"!":96,"\"":97,"#":98,"$":99,"%":100,"&":101,"'":102,"(":103,")":104,"*":105,"+":106,",":107,"-":108,".":109,"/":110,"0":111,"1":112,"2":113,"3":114,"4":115,"5":116,"6":117,"7":118,"8":119,"9":120,":":121,";":122,"<":123,"=":124,">":125,"?":126,"@":127,"A":128,"B":129,"C":130,"D":131,"E":132,"F":133,"G":134,"H":135,"I":136,"J":137,"K":138,"L":139,"M":140,"N":141,"O":142,"P":143,"Q":144,"R":145,"S":146,"T":147,"U":148,"V":149,"W":150,"X":151,"Y":152,"Z":153,"[":154,"\\":155,"]":156,"^":157,"_":158,"`":159,"a":160,"b":161,"c":162,"d":163,"e":164,"f":165,"g":166,"h":167,"i":168,"j":169,"k":170,"l":171,"m":172,"n":173,"o":174,"p":175,"q":176,"r":177,"s":178,"t":179,"u":180,"v":181,"w":182,"x":183,"y":184,"z":185,"{":186,"|":187,"}":188,"~":189,"¡":190,"¢":191,"£":192,"¤":193,"¥":194,"¦":195,"§":196,"¨":197,"©":198,"ª":199,"«":200,"¬":201,"®":202,"¯":203,"°":204,"±":205,"²":206,"³":207,"´":208,"µ":209,"¶":210,"·":211,"¸":212,"¹":213,"º":214,"»":215,"¼":216,"½":217,"¾":218,"¿":219,"À":220,"Á":221,"Â":222,"Ã":223,"Ä":224,"Å":225,"Æ":226,"Ç":227,"È":228,"É":229,"Ê":230,"Ë":231,"Ì":232,"Í":233,"Î":234,"Ï":235,"Ð":236,"Ñ":237,"Ò":238,"Ó":239,"Ô":240,"Õ":241,"Ö":242,"×":243,"Ø":244,"Ù":245,"Ú":246,"Û":247,"Ü":248,"Ý":249,"Þ":250,"ß":251,"à":252,"á":253,"â":254,"ã":255,"ä":256,"å":257,"æ":258,"ç":259,"è":260,"é":261,"ê":262,"ë":263,"ì":264,"í":265,"î":266,"ï":267,"ð":268,"ñ":269,"ò":270,"ó":271,"ô":272,"õ":273,"ö":274,"÷":275,"ø":276,"ù":277,"ú":278,"û":279,"ü":280,"ý":281,"þ":282,"ÿ":283,"Ā":284,"ā":285,"Ă":286,"ă":287,"Ą":288,"ą":289,"Ć":290,"ć":291,"Ĉ":292,"ĉ":293,"Ċ":294,"ċ":295,"Č":296,"č":297,"Ď":298,"ď":299,"Đ":300,"đ":301,"Ē":302,"ē":303,"Ĕ":304,"ĕ":305,"Ė":306,"ė":307,"Ę":308,"ę":309,"Ě":310,"ě":311,"Ĝ":312,"ĝ":313,"Ğ":314,"ğ":315,"Ġ":316,"ġ":317,"Ģ":318,"ģ":319,"Ĥ":320,"ĥ":321,"Ħ":322,"ħ":323,"Ĩ":324,"ĩ":325,"Ī":326,"ī":327,"Ĭ":328,"ĭ":329,"Į":330,"į":331,"İ":332,"ı":333,"Ĳ":334,"ĳ":335,"Ĵ":336,"ĵ":337,"Ķ":338,"ķ":339,"ĸ":340,"Ĺ":341,"ĺ":342,"Ļ":343,"ļ":344,"Ľ":345,"ľ":346,"Ŀ":347,"ŀ":348,"Ł":349,"ł":350,"Ń":351,"Ġt":352,"Ġa":353,"in":354,"he":355,"on":356,"re":357,"Ġs":358,"er":359,"ĠĠ":360,"en":361,"at":362,"Ġthe":363,"Ġc":364,"or":365,"ou":366,"es":367,"Ġw":368,"an":369,"it":370,"is":371,"Ġp":372,"Ġd":373,"Ġan":374,"Ġm":375,"Ġf":376,"ing":377,"Ġb":378,"al":379,"Ġin":380,"le":381,"Ġo":382,"ar":383,"ion":384,"Ġto":385,"ic":386,"as":387,"ed":388,"om":389,"Ġand":390,"ent":391,"ĠĠĠĠ":392,"Ġe":393,"Ġn":394,"Ġof":395,"Ġy":396,"Ġh":397,"st":398,"ct":399,"Ġl":400,"el":401,"ĠÐ":402,"Ġre":403,"ro":404,"Ġyou":405,"Ġth":406,"ĠN":407,"ME":408,"AME":409,"et":410,"ow":411,"Ð¾":412,"Ġu":413,"ve":414,"il":415,"Ġg":416,"Ġis":417,"am":418,"ĠI":419,"ĠNAME":420,"Ðµ":421,"Ð°":422,"ot":423,"id":424,"im":425,"ol":426,"ĊĊ":427,"ut":428,"Ġon":429,"Ġfor":430,"Ð¸":431,"ÑĤ":432,"ay":433,"Ġ\"":434,"ch":435,"ly":436,"se":437,"ĠA":438,"qu":439,"ith":440,"ation":441,"ĠT":442,"Ġst":443,"ad":444,"ce":445,"ri":446,"od":447,"Ġwith":448,"Ġbe":449,"Ġcon":450,"Ġde":451,"um":452,"Ġas":453,"ĠS":454,"ist":455,"ver":456,"ra":457,"Ð¾Ð":458,"ĠC":459,"est":460,"ate":461,"Ġcom":462,"Ñģ":463,"ig":464,"if":465,"ÑĢ":466,"ag":467,"Ð½":468,"em":469,"ul":470,"ir":471,"ant":472,"out":473,"ur":474,"Ġwh":475,".Ċ":476,"Ġthat":477,"Ġpro":478,"Ġhe":479,"os":480,"Ġare":481,"Ġex":482,"ĠĠĠ":483,"pe":484,"Ġit":485,"Ġ(":486,"Ġal":487,"un":488,"ke":489,"Ġv":490,"pt":491,"ive":492,"ĠĠĠĠĠĠĠĠ":493,"ers":494,"pl":495,"ex":496,"Ġdo":497,"Ġor":498,"sw":499,"Ġme":500,"ld":501,"us":502,"ab":503,"ction":504,"ĠP":505,"rom":506,"Ġqu":507,"Ġun":508,"ter":509,"ple":510,"swer":511,"ĠW":512,"ĠD":513,"ust":514,"ess":515,"ac":516,"res":517,"th":518,"ill":519,"00":520,"ame":521,"âĢ":522,"and":523,"end":524,"Ġsh":525,"ite":526,"Ġha":527,"Ð°Ð":528,"Ġab":529,"Ġse":530,"ore":531,"iv":532,"ĠM":533,"Ġanswer":534,"Ġyour":535,"Ġnot":536,"Ġch":537,"'s":538,"Ġwor":539,"our":540,"ĠH":541,"ext":542,"Ġne":543,"oc":544,"her":545,"Ġcan":546,"ould":547,"Ġsu":548,"ĠB":549,"low":550,"ort":551,"ain":552,"ru":553,"ĠE":554,"ment":555,"ĠThe":556,"Ġle":557,"ere":558,"nt":559,"art":560,"ht":561,"Ñĥ":562,"ÐµÐ":563,".ĊĊ":564,"ity":565,"ell":566,"--":567,"ine":568,"per":569,"ie":570,"age":571,"Ġfrom":572,"Ġus":573,"Ġk":574,"ds":575,"Ġhave":576,"ĠF":577,"ĠR":578,"Ġat":579,"Ġr":580,"Ġthis":581,"Ġen":582,"You":583,"ase":584,"pp":585,"Ġj":586,"Ġcont":587,"act":588,"Ã©":589,"orm":590,"ĠL":591,"Ġres":592,"Ġby":593,"ang":594,"iz":595,"Ġint":596,"Ġabout":597,"hat":598,"put":599,"ies":600,"rite":601,"ud":602,"nd":603,"ure":604,"sist":605,"og":606,"ide":607,"Ñı":608,"ial":609,"Ġwill":610,"Ġ=":611,"20":612,"ĠG":613,":Ċ":614,"ical":615,"ÑĮ":616,"cri":617,"ĠO":618,"Ð»":619,"Ġdes":620,"NAME":621,"hen":622,"Ñĭ":623,"Ġ'":624,"Ġwe":625,"Ġma":626,"Ġwhat":627,"Ġim":628,"Ġpl":629,"Ðº":630,"..":631,"ect":632,"ue":633,"Ġar":634,"Ġ-":635,"ĠÐ¿":636,"Ġsom":637,"\",":638,"ich":639,"pon":640,"Ġwas":641,"are":642,"ions":643,"form":644,"Ġout":645,"Ġfol":646,"Ġher":647,"all":648,"ia":649,"Ġmy":650,"Ġli":651,"du":652,"Ġonly":653,"ĠĠĠĠĠĠĠ":654,"ry":655,"op":656,"ile":657,"Ġfollow":658,"able":659,"Ġad":660,"ost":661,"ĠĊ":662,"Ġif":663,"ep":664,"ual":665,"Ġsay":666,"'t":667,"Ġgo":668,"ind":669,"ary":670,"Ġcl":671,"king":672,"ast":673,"Ġcomple":674,"Ġany":675,"ĠU":676,"yst":677,"ence":678,"ans":679,"ode":680,"ĠÑģ":681,"ire":682,"Ġtext":683,"ased":684,"Ġinst":685,"cl":686,"ice":687,"\":":688,"ks":689,"ctions":690,"Ð²":691,"Ġcomplet":692,"der":693,"ass":694,"Ġmod":695,"ystem":696,"ther":697,"Ġmore":698,"ory":699,"Ġwords":700,"sistant":701,"ib":702,"cc":703,"Ġla":704,"Ġno":705,"10":706,"Ġso":707,"Ñĩ":708,"ong":709,"one":710,"ach":711,"Ġall":712,"oo":713,"ĠYou":714,"Ġhas":715,"ult":716,"ip":717,"Ġbut":718,")Ċ":719,"ces":720,"ack":721,"Ġshould":722,"ight":723,"Ġsent":724,"Ġ[":725,"ãģ":726,"ime":727,"ous":728,"ge":729,"Ġfollowing":730,"ber":731,"ated":732,"Ġper":733,"ÑģÑĤ":734,"int":735,"ap":736,"Ġcomp":737,"lease":738,"ĠÐ²":739,"ff":740,"ear":741,"cript":742,"ens":743,"Ġem":744,"Ġhow":745,"ĠIn":746,"ont":747,"Ġi":748,"Ġpar":749,"ance":750,"Ġlike":751,"Ġman":752,"ÐµÐ½":753,"ĠÐ½":754,"now":755,"Ġone":756,"Ġmust":757,"ations":758,"âĢĻ":759,"Ġsystem":760,"estion":761,"Ð¼":762,"Ġque":763,"Ġpre":764,"eth":765,"Ġro":766,"ak":767,"ail":768,"port":769,"ener":770,"Ġsc":771,"Ġwhen":772,"Ġbased":773,"ard":774,"com":775,"ata":776,"Ġsame":777,"vel":778,"Ġbel":779,"ating":780,"Ð¾Ð²":781,"Ġtr":782,"Ġup":783,"Ġinstru":784,"Ġmodel":785,"ient":786,"yth":787,"Ġ{":788,"av":789,"Ġrespon":790,"ress":791,"umm":792,"ument":793,"Ġte":794,"Ġche":795,"so":796,"ign":797,"ound":798,"Ġwhich":799,"Ð´":800,"elf":801,"Ġthan":802,"##":803,"oug":804,"Ġam":805,",Ċ":806,"Ġprov":807,"Ġdet":808,"ĠJ":809,"Ġver":810,"Ġfe":811,"The":812,"Ġev":813,"ĠÐ¸":814,"Ġdis":815,"Ġknow":816,"Ġuse":817,"ject":818,"Ġsome":819,"Ġother":820,"Ġspe":821,"Ġtheir":822,"Ġwant":823,"ĠĠĠĠĠĠĠĠĠĠĠĠĠĠĠĠ":824,"Ġhis":825,"erson":826,"ount":827,"Ġform":828,"ĠÐ¾":829,"gr":830,"Ġshe":831,"ub":832,"Ġthey":833,"ll":834,"ĠV":835,"ace":836,"Ġwho":837,"con":838,"Ġinstructions":839,"Ġ|":840,"Ġcode":841,"Ġassistant":842,"50":843,"Ġpr":844,"Ġexam":845,"ĠÐº":846,";Ċ":847,"ific":848,"ython":849,"Ġneed":850,"Ġì":851,"----":852,"Ġinform":853,"ove":854,"Ġel":855,"Ġexpl":856,"ely":857,"Ġcre":858,"au":859,"ne":860,"Ġind":861,"',":862,"?Ċ":863,"Ġwould":864,"Ã¡":865,"we":866,"ition":867,"Ã³":868,"ĠWhat":869,"Ġmake":870,"202":871,"erm":872,"te":873,"io":874,"here":875,"Ġser":876,"Ġag":877,"Ġnew":878,".\"":879,"Ġrepe":880,"Ġpart":881,"Ã§":882,"ph":883,"Ø§":884,"Ġpos":885,"be":886,"ings":887,"urn":888,"Ġover":889,"ĠâĢ":890,"Ġnum":891,"Ġacc":892,"Ġbet":893,"Ñħ":894,"Ġthem":895,"ft":896,"ÐµÑĤ":897,"tic":898,"Ġcomm":899,"led":900,"ck":901,"Ġbelow":902,"ake":903,"ict":904,"Ġsp":905,"Ã£":906,"Ġtime":907,"ĠÑĤ":908,"Ġap":909,"fere":910,"irst":911,"Ð¿":912,"Ġthere":913,"ĠK":914,"ays":915,"vers":916,"ob":917,"ÐµÑĢ":918,"clud":919,"ord":920,"ĠY":921,"Ġchar":922,"Ġperson":923,"Ġes":924,"ree":925,"Ã£o":926,"ĠSt":927,"ize":928,"ĠTh":929,"ng":930,"Ġcompletion":931,"Ġtw":932,"ov":933,"Ġbl":934,"ĠÐ´":935,"Ð°Ð½":936,"12":937,"ON":938,"Ġget":939,"Ġfun":940,"Ġact":941,"Ġcol":942,"ative":943,"Ġinto":944,"Ġpe":945,"ĉĉ":946,"200":947,"ÑĪ":948,"ys":949,"ish":950,"ful":951,"Ġent":952,"ink":953,"Ġoutput":954,"Ġlist":955,"Ġtra":956,"Ð°ÑĤ":957,"cre":958,"Ġgr":959,"Ð¾Ð»":960,"Ġgener":961,"Ġinter":962,"rit":963,"Ġname":964,"Write":965,"Ġquestion":966,"Ġyear":967,"lp":968,"iven":969,"Ġdi":970,"Ġ:":971,"de":972,"ething":973,"Ġke":974,"ences":975,"Ġgive":976,"ummary":977,"cess":978,"Ġval":979,"Ġsomething":980,"Ġdata":981,"Ġpython":982,"ER":983,"Ġest":984,"Ġpo":985,"Ġwrite":986,"Ġum":987,"Ġsa":988,"Ġinformation":989,"Ġadd":990,"Ġdoc":991,"Ġrel":992,"Ñİ":993,"ough":994,"In":995,"any":996,"ĠÐ¿ÑĢ":997,"Ġeach":998,"Ġdif":999,"Ġob":1000,"Ð¾ÑĢ":1001,"ose":1002,"Ġstr":1003,"Ġalso":1004,"Ġjust":1005,"Ġ.":1006,"ÃŃ":1007,"ci":1008,"Ġ,":1009,"oy":1010,"Qu":1011,"pect":1012,"Ġhelp":1013,"ale":1014,"ise":1015,"ian":1016,"Ġdocument":1017,"ning":1018,"à¸":1019,"ser":1020,"ĠAI":1021,"Ġtwo":1022,"Ġfirst":1023,"Ġprodu":1024,"Ð·":1025,"Ġph":1026,"ples":1027,"ĠIt":1028,"ors":1029,"ark":1030,"ade":1031,"),":1032,"Ġoff":1033,"11":1034,"ates":1035,"Ġuser":1036,"Ġapp":1037,"ick":1038,"Ġusing":1039,"ype":1040,"ract":1041,"ild":1042,"Ġcharact":1043,"get":1044,"Ġdoes":1045,"Ġunder":1046,"rodu":1047,"ents":1048,"ĠÃ":1049,"19":1050,"Ġspec":1051,"inal":1052,"rig":1053,"Ġthen":1054,"Ð¾Ð¼":1055,"Ġ<":1056,"Ġprom":1057,"ÑĨ":1058,"Ġdescript":1059,"AN":1060,"ater":1061,"Ġdon":1062,"ĠHow":1063,"ood":1064,"Ġrequ":1065,"Ġstory":1066,"Ġallow":1067,"angu":1068,"ĠÐ¼":1069,"Ġfact":1070,"lect":1071,"Ġret":1072,"no":1073,":ĊĊ":1074,"Ð¾Ð´":1075,"ĠĠĠĠĠĠĠĠĠĠĠ":1076,"Ġinclud":1077,"Ġplay":1078,"own":1079,"Ġz":1080,"che":1081,"ook":1082,"__":1083,"les":1084,"ually":1085,"iss":1086,"Ġhum":1087,"ĠÑĢ":1088,"ible":1089,"Ġnow":1090,"Ġits":1091,"\"Ċ":1092,"Ġcor":1093,"fter":1094,"ments":1095,"ting":1096,"Ð¸ÑĤ":1097,"Ġsentences":1098,"Ġstart":1099,"ange":1100,"PT":1101,"ho":1102,"Ġmost":1103,"ÙĦ":1104,"IN":1105,"Ġlet":1106,"ĠRe":1107,"anguage":1108,"ung":1109,"ÐµÐ»":1110,"Ġë":1111,"'re":1112,"Ð°Ð»":1113,"igh":1114,"Ġreal":1115,"mical":1116,"ask":1117,"Ġpara":1118,"Ġtrans":1119,"Ġsim":1120,"à¤":1121,"to":1122,"ople":1123,"ath":1124,"ween":1125,"Ġever":1126,"Ġ/":1127,"ble":1128,"olog":1129,"Ġext":1130,"Ġsm":1131,"Ð¹":1132,"az":1133,"ĠIf":1134,"Ġ$":1135,"Ġco":1136,"ĠHe":1137,"up":1138,"Ġra":1139,"Ġbetween":1140,"Ġwhere":1141,"row":1142,"Ð°Ðº":1143,"iew":1144,"What":1145,"pro":1146,"Ġwere":1147,"pen":1148,"Ġbeen":1149,"\\n":1150,"Ð±":1151,"Ġatt":1152,"ident":1153,"ock":1154,"ics":1155,"âĢĿ":1156,"Ġprovide":1157,"Ġopt":1158,"ĠCh":1159,"``":1160,"ome":1161,"Ġsend":1162,"Ġwork":1163,"Ġdel":1164,"Ġ?":1165,"Ġet":1166,"Ġcons":1167,"Ġsol":1168,"Ġrem":1169,"enc":1170,"Ġsub":1171,"Ġrec":1172,"Ġpeople":1173,"Ġbu":1174,"Ġrep":1175,"Ġnumber":1176,"ities":1177,"ause":1178,"ier":1179,"St":1180,"user":1181,"==":1182,"'m":1183,"gram":1184,"]Ċ":1185,"Ġour":1186,"Ġsummary":1187,"Ġgood":1188,"Ð½Ð¾":1189,"Ġass":1190,"Ġfl":1191,"ious":1192,"100":1193,"Ġlanguage":1194,"Ġhim":1195,").":1196,"15":1197,".d":1198,"Ġstep":1199,"ĠAn":1200,"ï¼":1201,"ãĤ":1202,"Ð½Ñĭ":1203,"ec":1204,"ĠĊĊ":1205,"riend":1206,"Ð¾ÑĤ":1207,"Ġer":1208,"Ġcomplete":1209,"Ġchemical":1210,"self":1211,"ìĿ":1212,"Ð¾Ð³":1213,"urre":1214,"Ġset":1215,"ug":1216,"Ġway":1217,"Ġexper":1218,"resent":1219,"Ġresponse":1220,"arch":1221,"Ġthing":1222,"Ġdef":1223,"ility":1224,"13":1225,"Ġcompany":1226,"Ġsentence":1227,"ĠThis":1228,"ene":1229,"Ġinv":1230,"ĠÐ½Ð°":1231,"Ġartic":1232,"Ġ{Ċ":1233,"Ġformat":1234,"ices":1235,"Ġvery":1236,"Ġtell":1237,"Ġdiffere":1238,"AT":1239,"Ġ}":1240,"ST":1241,"Ġhad":1242,"Ġlong":1243,"Ġprompt":1244,"Ġallowed":1245,"que":1246,"**":1247,"ĠAs":1248,"day":1249,"ix":1250,"your":1251,"Ġself":1252,"ines":1253,"Ġ+":1254,"ional":1255,"wor":1256,"right":1257,"Ġback":1258,"anc":1259,"Ġ#":1260,"Ġgu":1261,"ps":1262,"Ġcould":1263,"ĠÐ±":1264,"ÐµÐ½Ð¸":1265,"oth":1266,"its":1267,"Ġproper":1268,"plic":1269,"ĠÐ·":1270,"18":1271,"uch":1272,"Ġinput":1273,"ner":1274,"Ġpol":1275,"30":1276,"Ġplease":1277,"ied":1278,"ĠÑ":1279,"Ġimport":1280,"ado":1281,"Ġexamples":1282,"Ġrepeat":1283,"Ġused":1284,"ify":1285,"If":1286,"ues":1287,"Ġcar":1288,"Ġreg":1289,"Ġafter":1290,"Ġcharacter":1291,"Ġreturn":1292,"=\"":1293,"Ġproduct":1294,"estions":1295,"201":1296,"Ã¼":1297,"raph":1298,"vice":1299,"Ġthese":1300,"âĢĻs":1301,"old":1302,"Ġend":1303,"Ġac":1304,"cept":1305,"Ã¤":1306,"ons":1307,"yp":1308,"ĠShe":1309,"Ġcontin":1310,"Ġarticle":1311,"Ġposs":1312,"ĠEx":1313,"Ġsee":1314,"sistent":1315,"Ġprogram":1316,"ÑģÐº":1317,"ways":1318,"ĠØ":1319,"Ġbeing":1320,"Ġcontent":1321,"Ġclass":1322,"Ġmat":1323,"Ġmay":1324,"Ġcal":1325,"Ġsuch":1326,"16":1327,"lic":1328,"arm":1329,"Ġconf":1330,"ten":1331,"ustom":1332,"irl":1333,"Ð³":1334,"fore":1335,"ement":1336,"14":1337,"ures":1338,"pos":1339,"ateg":1340,"chn":1341,"ull":1342,"ery":1343,"Ġstud":1344,"Ġ\\":1345,"Ġthink":1346,"AR":1347,"ert":1348,"Ġbre":1349,"ĠCan":1350,"Ġnam":1351,"Ã§Ã£o":1352,"Ġav":1353,"ited":1354,"Ġexample":1355,"ĠâĢľ":1356,"Ġca":1357,"uss":1358,"ower":1359,"Ð¾Ð¹":1360,"ÐµÐ¼":1361,"Ġprovid":1362,"íķ":1363,"Ùħ":1364,"Ġfil":1365,"Ġask":1366,"ages":1367,"itt":1368,"Ġsex":1369,"other":1370,"Ġfeel":1371,"Ġfind":1372,"pr":1373,"eng":1374,"Ãª":1375,"ÐµÐ´":1376,"###":1377,"assistant":1378,"ular":1379,"ĠÃ©":1380,"Ġgiven":1381,"Ġresult":1382,"Ġtop":1383,"reat":1384,"Ġund":1385,"oun":1386,"Ġins":1387,"ife":1388,"á»":1389,"An":1390,"Ġ\"[":1391,"...":1392,"cribe":1393,"ĠDo":1394,"Ġmin":1395,"iel":1396,"pport":1397,"Please":1398,"OR":1399,"ĠPro":1400,"ior":1401,"ĠĠĠĠĠ":1402,"25":1403,"ĠUn":1404,"ody":1405,"000":1406,"Ġstate":1407,"ah":1408,"]\"":1409,"--------":1410,"Ġwell":1411,"Ġ*":1412,"Ġsk":1413,"ss":1414,"()":1415,"gg":1416,"Ġrepeating":1417,"Ġbest":1418,"EN":1419,"Ġx":1420,"rough":1421,"\",Ċ":1422,"Ġaut":1423,"Ġfr":1424,"stru":1425,"write":1426,"Ġmany":1427,"ĠÑĩ":1428,"Ġmon":1429,"Ġpoint":1430,"rect":1431,"Ġdec":1432,"ina":1433,"ãĥ":1434,"Ġshow":1435,"velop":1436,"Ð¾Ð½":1437,"ES":1438,"Ð°Ð²":1439,"vent":1440,"Ġindust":1441,"GPT":1442,"ĠÑĥ":1443,".don":1444,"ari":1445,"ĠPlease":1446,"Ã³n":1447,"ving":1448,"Ġmed":1449,"Ġwithout":1450,"ank":1451,"Ġdid":1452,"Ex":1453,"stand":1454,"ature":1455,"me":1456,"Ġold":1457,"tern":1458,"ute":1459,"No":1460,"ĠCom":1461,"Ġuna":1462,"Ġwom":1463,"Ġintrodu":1464,"Ġquestions":1465,"ĠWe":1466,"ax":1467,"urrent":1468,"Ġconvers":1469,"Question":1470,"Ġshort":1471,"Ġwhile":1472,"Ġeff":1473,"ä¸":1474,"red":1475,">Ċ":1476,"Ġbr":1477,"Ġhigh":1478,"Ñī":1479,"Ġtem":1480,"17":1481,"Ġalways":1482,"als":1483,"ÙĬ":1484,"ren":1485,"hip":1486,"ered":1487,"ÑĤÐ¾":1488,"ts":1489,"Ð¶":1490,"Ġbec":1491,"Ġread":1492,"Ġchat":1493,"Ġfriend":1494,"Ġkey":1495,"ric":1496,"Ġda":1497,"Ġconsistent":1498,"ience":1499,"ality":1500,"Ġhuman":1501,"Ġtal":1502,"ĠDe":1503,"Ġtake":1504,"Ġsaid":1505,"Ñĸ":1506,",\"":1507,"Ġrole":1508,"Ġyears":1509,"Ġdifferent":1510,"Ġref":1511,"Ġgirl":1512,"Ġeng":1513,"Ġthrough":1514,"ty":1515,"Ġdie":1516,"Ð»Ð¸":1517,"ave":1518,"Ġright":1519,"Ġcreate":1520,"ik":1521,"//":1522,"Ġdire":1523,"Ġplan":1524,"Ġevery":1525,"Ġworld":1526,"iness":1527,"Ġcontext":1528,"str":1529,"Ġsur":1530,"Ð¸Ð¼":1531,"Ð°Ð·":1532,"Ġexp":1533,"Ġtype":1534,"Ġtask":1535,"uc":1536,"ands":1537,"Âł":1538,"play":1539,"ada":1540,"uring":1541,"Ġtest":1542,"ought":1543,"\".":1544,"ution":1545,"mer":1546,"view":1547,"oad":1548,"par":1549,"wn":1550,"Ġbeh":1551,"Ð¾Ð±":1552,"Ġdetail":1553,"Ġprof":1554,"ĠNo":1555,"co":1556,"Ġfunction":1557,"Ġindustry":1558,"iment":1559,"Ġexplain":1560,"Ġprocess":1561,"line":1562,"Ġtry":1563,"Ġagain":1564,"Ġvalue":1565,"hes":1566,"Ġword":1567,"ool":1568,"thing":1569,"Ġanal":1570,"Ġdescription":1571,"rop":1572,"Ġmuch":1573,"Ġfactually":1574,"Ġder":1575,"arn":1576,"not":1577,"ĠWh":1578,"ives":1579,"Ġgenerate":1580,"nce":1581,"Ġsing":1582,"Ġwrit":1583,"Ġmain":1584,"Ġinf":1585,"til":1586,"Ð°ÑĤÑĮ":1587,"iled":1588,"....":1589,"name":1590,"Re":1591,"ven":1592,"Yes":1593,"ets":1594,"Ġfin":1595,"ÑģÑı":1596,"rib":1597,"Ġcount":1598,"Ġday":1599,"Ġloc":1600,"Ġ×":1601,"ox":1602,"ily":1603,"Ġbecause":1604,"Ġdown":1605,"Ġobject":1606,"ok":1607,"ason":1608,"ym":1609,"Ð°Ð¼":1610,"Ð¸Ð½":1611,"ware":1612,"Ġdeterm":1613,"Ġsl":1614,"Ġpor":1615,"ann":1616,"Ġtool":1617,"Ġopen":1618,"ai":1619,"ism":1620,"Ġdu":1621,"Ġeven":1622,"gin":1623,"Ġanything":1624,"Ġrespons":1625,"lish":1626,"blem":1627,"Ġbefore":1628,"val":1629,"xic":1630,"Ġgame":1631,"Ġwhy":1632,"ention":1633,"Ġbus":1634,"air":1635,"ĠFor":1636,"Ġsoc":1637,"Ġspecific":1638,"ator":1639,"Ġgoing":1640,"Th":1641,"ando":1642,"what":1643,"Ġdevelop":1644,"ural":1645,"Ġ&":1646,"Ġunderstand":1647,"Ġmess":1648,"gan":1649,"ĠAl":1650,"itive":1651,"24":1652,"ĠWrite":1653,"sh":1654,"Ġlos":1655,"rue":1656,"Ġtechn":1657,"nc":1658,"Ġthree":1659,"ror":1660,"Ġmem":1661,"Ø§ÙĦ":1662,"':":1663,"ux":1664,"Ġtoxic":1665,"ament":1666,"bre":1667,"ined":1668,"Ġmark":1669,"AL":1670,"23":1671,"ÑĨÐ¸":1672,"Ġcontain":1673,"Ġmean":1674,"ew":1675,"ÐµÐº":1676,"Ġoutputs":1677,"Ġcap":1678,");Ċ":1679,"ÙĪ":1680,"Ġnext":1681,"und":1682,"Ġart":1683,"Ġil":1684,"ired":1685,"ically":1686,"ica":1687,"yle":1688,"Ġsign":1689,"RE":1690,"Ġlast":1691,"Ġpass":1692,"Ð°ÑĢ":1693,"Ġvis":1694,"ved":1695,"Ð¾Ñģ":1696,".,":1697,"Ġele":1698,"22":1699,"bs":1700,"ness":1701,"ãĢ":1702,"ĠQ":1703,"How":1704,"oup":1705,"ID":1706,"Ġpat":1707,"rol":1708,"Ġhere":1709,"Ġterm":1710,"Ġabove":1711,"Ġcustom":1712,"Ġline":1713,"ital":1714,"ational":1715,"Give":1716,"cul":1717,"imes":1718,"ÙĨ":1719,"ized":1720,"ait":1721,"Ð°Ð½Ð¸":1722,"40":1723,"ailed":1724,"li":1725,"bers":1726,"Ġproblem":1727,"itle":1728,")ĊĊ":1729,"iÃ³n":1730,"Ġhapp":1731,"Ġein":1732,"cond":1733,"tt":1734,"Ġmet":1735,"Ġcurrent":1736,"Ġed":1737,"ider":1738,"pre":1739,"ever":1740,"Ġpossible":1741,"Ġve":1742,"ally":1743,"Ġsingle":1744,"],":1745,"ars":1746,"Answer":1747,"ique":1748,"Ġide":1749,"Ø±":1750,"Ġinclude":1751,"Ġuma":1752,"cent":1753,"ced":1754,"Ã¶":1755,"Ġê":1756,"Ġles":1757,"ream":1758,"Ġlar":1759,"erest":1760,"bot":1761,"Ð¸Ðº":1762,"Ġperform":1763,"ĠYour":1764,"ze":1765,"ash":1766,"ublic":1767,"Ġpresent":1768,"come":1769,"Ġdem":1770,"Ð»Ñı":1771,"ern":1772,"ases":1773,"Ġsit":1774,"-t":1775,"Ġcontinue":1776,"ĠÐ°":1777,"hed":1778,"_t":1779,"Ġrequest":1780,"ĠÂ":1781,"01":1782,"dd":1783,"ĠThey":1784,"Ġfile":1785,"Ġcho":1786,"read":1787,"Ġident":1788,"ĠÐ¾ÑĤ":1789,"CT":1790,"Ġdesign":1791,"LE":1792,"els":1793,"ä½":1794,"ðŁ":1795,"Ġlife":1796,"Ð¸Ð²":1797,"Ġfam":1798,"Ġtri":1799,"ello":1800,"Ġbody":1801,"aking":1802,"Ġconversation":1803,"ialog":1804,"Ġorder":1805,"amp":1806,"atch":1807,"ek":1808,"Ġboth":1809,"Ġintroduction":1810,"Ġcorrect":1811,"ger":1812,"Ġsupport":1813,"Ġrun":1814,"Ġdisc":1815,"-b":1816,"ĠÃł":1817,"rem":1818,"(\"":1819,"ology":1820,"Ġmade":1821,"Ġincre":1822,"ization":1823,"Ġsch":1824,"Ġdat":1825,"Ð°Ð¿":1826,"ĠÐ³":1827,"ĠEng":1828,"Ġtable":1829,"ather":1830,"Ð¾Ð¶":1831,"app":1832,"</":1833,"vant":1834,"ION":1835,"ining":1836,"alth":1837,"Ġmov":1838,"cture":1839,"Ġrate":1840,"ral":1841,"Ġcomo":1842,"Ġdist":1843,"ĠZ":1844,"ĠĠĠĠĠĠĠĠĠĠĠĠĠĠĠ":1845,"Ġhead":1846,"Ð¾Ð»ÑĮ":1847,"Ġsure":1848,"ethod":1849,"Ġproject":1850,"RO":1851,"ĠSe":1852,"urs":1853,"ules":1854,"Ġcle":1855,"Ð°Ñģ":1856,"ĠÎ":1857,"Ð¾Ð³Ð¾":1858,"Ġ--":1859,"ummar":1860,"Ġnever":1861,"ploy":1862,"Ġbetter":1863,"comm":1864,"oid":1865,"ĠIs":1866,"Ð¾ÑģÑĤ":1867,"py":1868,"rie":1869,"Ġcome":1870,"aut":1871,",,":1872,"ouse":1873,"AS":1874,"how":1875,"Ġlo":1876,"Ġneg":1877,"ince":1878,"ales":1879,"IT":1880,"Is":1881,"ĠÑį":1882,"uf":1883,"Ġmult":1884,"ÐµÐ¹":1885,"br":1886,"Ġrespond":1887,"Ġbusiness":1888,"Ġintern":1889,"Ġimportant":1890,"do":1891,"Ġcall":1892,"IC":1893,"ittle":1894,"ense":1895,"Ġpri":1896,"Ġdetermine":1897,"Ġteam":1898,"ivid":1899,"Ġinterest":1900,"ĠDes":1901,"21":1902,"ume":1903,"Ġdirect":1904,"cont":1905,"way":1906,"ĠĠĠĠĠĠĠĠĠĠĠĠĠĠĠĠĠĠĠĠĠĠĠĠĠĠĠĠĠĠĠĠ":1907,"gs":1908,"po":1909,"yl":1910,"rans":1911,"Ġconc":1912,"Ch":1913,"```":1914,"Ġdate":1915,"Ġlog":1916,"ĊĊĊ":1917,"ĠAnd":1918,"Ġimage":1919,"Ġlead":1920,"Ġloo":1921,"ĠSo":1922,"Ġoper":1923,"orn":1924,"Ġthings":1925,"Ġown":1926,"ilar":1927,"Ġhist":1928,"work":1929,"arr":1930,"ample":1931,"erg":1932,"Ġfinal":1933,"Ġequ":1934,"umn":1935,"ential":1936,"ocument":1937,"Ġlevel":1938,"hi":1939,"ĠBe":1940,"ÑģÑĤÐ²":1941,"Ð½Ð°":1942,"Ġimpro":1943,"fic":1944,"Ġbig":1945,"ves":1946,"Ġdialog":1947,"ĠÐ½Ðµ":1948,"ants":1949,"Ġgl":1950,"Cont":1951,"Ġprovided":1952,"Ġbuild":1953,"ability":1954,"ĠAr":1955,"60":1956,".\"Ċ":1957,"ards":1958,"}Ċ":1959,"Ġdep":1960,"Given":1961,"ond":1962,"-s":1963,"Ġimp":1964,"_d":1965,"AI":1966,"ien":1967,"ĠØ§ÙĦ":1968,"ma":1969,"Ġfound":1970,"Ø§Ø":1971,"ĠX":1972,"Ġroom":1973,"Ġlook":1974,"Ġkeep":1975,"://":1976,"cial":1977,"Ġbehav":1978,"ĠÐ»":1979,"Ð¸Ñģ":1980,"Ġlim":1981,"ote":1982,"Ð¾Ðº":1983,"ton":1984,"Ġwoman":1985,"Ġsmall":1986,"Ġmor":1987,"Ġaround":1988,"AA":1989,"Ġhand":1990,"ĠCont":1991,"the":1992,"ais":1993,"vert":1994,"struction":1995,"Ġdescriptive":1996,"vices":1997,"Ã¨":1998,"Ġoption":1999,"ency":2000,"ÑĢÑĥ":2001,"icit":2002,"ins":2003,"Ġlove":2004,"ety":2005,"Ġnon":2006,"ÑĦ":2007,"arning":2008,"Ãł":2009,"ĠUS":2010,"28":2011,"ta":2012,"Ġfem":2013,"Ġstru":2014,"Ġcomput":2015,"ura":2016,"llo":2017,".\\":2018,"Ð¸Ð»":2019,"rag":2020,"son":2021,"Ġincluding":2022,"ead":2023,"Ġpot":2024,"Ġrele":2025,"à¦":2026,"go":2027,"abel":2028,"Ġorig":2029,"Ġput":2030,"ĉĉĉĉ":2031,"Ġlot":2032,"Ġeffect":2033,"Ġvide":2034,"Com":2035,"ource":2036,"Ġbelie":2037,"iving":2038,"ĠWho":2039,"Ġanother":2040,"Ġreport":2041,".s":2042,"ued":2043,"Ġtoo":2044,"ield":2045,"Ġcharacters":2046,"Ġpower":2047,"Ġchange":2048,"ëĭ":2049,"Ġmen":2050,"Ġnames":2051,"crib":2052,"Ġaction":2053,"let":2054,"ĠInd":2055,"OT":2056,"Ġcr":2057,"?ĊĊ":2058,"less":2059,"Ġpost":2060,"vis":2061,"Ġjob":2062,"Ġmanag":2063,"min":2064,"Ð°Ð¹":2065,"Ġsecond":2066,"ĠDAN":2067,"aÃ§Ã£o":2068,"áº":2069,"Ġreason":2070,"):Ċ":2071,"ledge":2072,"Ġpartic":2073,"Ġstyle":2074,"Ġquery":2075,"Ġresponses":2076,"Ġos":2077,"Ġsugg":2078,"ories":2079,"====":2080,"Ġna":2081,"Ġvers":2082,"32":2083,"Ġsomeone":2084,"Ġcare":2085,"anation":2086,"Ġmessage":2087,"Ġelse":2088,"Ġactiv":2089,"ĠRes":2090,"for":2091,"Ġsi":2092,"ctor":2093,"Ġok":2094,"ours":2095,"Ġletter":2096,"Pro":2097,"Ġapplic":2098,"Ġaccess":2099,"'ll":2100,"_s":2101,"Ġmethod":2102,"Ġenc":2103,"ha":2104,"Ġwithin":2105,"SON":2106,"hor":2107,"ccess":2108,"Ġmo":2109,"26":2110,"Ġpa":2111,"Ġpur":2112,"Ġhome":2113,"Ġansw":2114,"Ġmar":2115,"Ġpay":2116,"ron":2117,"ĠÐ¾Ð±":2118,"Ġsuper":2119,"ee":2120,"Ġbo":2121,"Your":2122,"ĠChat":2123,"\",\"":2124,"Ġop":2125,"td":2126,"Ġsimilar":2127,"escript":2128,"´ì":2129,"Ġstill":2130,"Ġconst":2131,"Ġcommand":2132,"ativ":2133,"Ð°Ð´":2134,"Ġmarket":2135,"apt":2136,"Ġstand":2137,"As":2138,"plain":2139,"med":2140,"atic":2141,"Ġblack":2142,"Ġcu":2143,"Ġdescribe":2144,"Ġtoday":2145,"ĠCl":2146,"Ġplace":2147,"search":2148,"ï¼Į":2149,"Ġden":2150,"Ġwhite":2151,"gal":2152,"conom":2153,"Ġtak":2154,"ĠÑģÑĤ":2155,"Ġ###":2156,"ĠCon":2157,"Ġoptions":2158,"oose":2159,"Ġtyp":2160,"Ġlittle":2161,"Ġson":2162,"Ġjo":2163,"fe":2164,"kes":2165,"Ġinc":2166,"Ġduring":2167,"ember":2168,"fer":2169,"ione":2170,"Ġless":2171,"ĠLet":2172,"ĠBut":2173,"Ġsw":2174,"Ġscript":2175,"ately":2176,"-d":2177,"27":2178,"Ġmus":2179,"iver":2180,"Ġris":2181,"of":2182,"arget":2183,"Ġdetailed":2184,"bl":2185,"Ġcalled":2186,"can":2187,"Ġmonth":2188,"Ġappro":2189,"Ġsoft":2190,"yd":2191,"col":2192,"irt":2193,"Ġfree":2194,"Ġdetails":2195,"ified":2196,"Ġcaus":2197,".com":2198,"45":2199,"Ġcommun":2200,"Ġnorm":2201,"uro":2202,"ato":2203,"Ġitem":2204,"Ġtalk":2205,"Ġchild":2206,"Ġpres":2207,"Ġmulti":2208,"Ġvari":2209,"ĠÐµ":2210,"-m":2211,"Ġrest":2212,"Ġvi":2213,"agraph":2214,"ared":2215,"ross":2216,"Ãº":2217,"Ġturn":2218,"Ġrece":2219,"Ä±":2220,"Ġsocial":2221,"Ġbehavior":2222,"Ġexplicit":2223,"import":2224,"xim":2225,"Ġexist":2226,"Ġinvest":2227,"33":2228,"Ġiss":2229,"za":2230,"ĠIN":2231,"Ġnet":2232,"aring":2233,"Ġwhe":2234,"odel":2235,"Ġorgan":2236,"vious":2237,"ĠWhen":2238,"Ġbro":2239,"aster":2240,";ĊĊ":2241,"Ġtu":2242,"Ġgre":2243,"Ġsem":2244,"Ġcontrol":2245,"att":2246,"Ġevent":2247,"Ġable":2248,"ä½ł":2249,"uation":2250,"action":2251,"\"\"":2252,"una":2253,"Ġlight":2254,"ering":2255,"LL":2256,"Ġpop":2257,"enerate":2258,"Ġphys":2259,"05":2260,"Ġpublic":2261,"Ġinte":2262,"utput":2263,"Ġfriends":2264,"ward":2265,"rong":2266,"aciÃ³n":2267,"Î±":2268,"ĠÐ¿Ð¾":2269,"ĠThere":2270,"Can":2271,"Ġthose":2272,"ED":2273,"Ġrelations":2274,"Ġbegin":2275,"Ġmaking":2276,"ĠĠĊ":2277,"Ġmom":2278,"We":2279,"____":2280,"plement":2281,"Ġtot":2282,"Ġaccount":2283,"iron":2284,"Ġlarge":2285,"Ùĩ":2286,"hing":2287,"Ġreply":2288,"Ġnamed":2289,"ÑĪÐ¸":2290,"çļ":2291,"âĢ¢":2292,"Ġgreat":2293,"Ġwater":2294,"yn":2295,"Ġselect":2296,"Ġdom":2297,"80":2298,"ÐµÐ½Ð¸Ñı":2299,"ocus":2300,"_m":2301,"Ġpas":2302,"Ġcolumn":2303,"Ġpour":2304,"itions":2305,"Ġred":2306,"Øª":2307,"gu":2308,"Ġport":2309,"Ġleft":2310,"ium":2311,"Document":2312,"çļĦ":2313,"ìĹ":2314,"Ð¸ÑĤÑĮ":2315,"Ġsearch":2316,"ĠHere":2317,"Ġreally":2318,"Ġpolic":2319,"ario":2320,"ĠEnglish":2321,"ird":2322,"Ð°Ð»ÑĮ":2323,"por":2324,"yes":2325,"ĠJSON":2326,"Ø¯":2327,"Ġdri":2328,"bo":2329,"Ġmeet":2330,"ms":2331,"Ġbit":2332,"iction":2333,"Ġâ":2334,"Ġrelated":2335,"Ġdescrib":2336,"Ġcond":2337,"Ġanswers":2338,"ram":2339,"Ġexperience":2340,"ries":2341,"Ġparagraph":2342,"Ġthought":2343,"Summary":2344,"Ġcheck":2345,"-f":2346,"Hello":2347,"Ġfull":2348,"ä»":2349,"Ġcost":2350,"ĠPl":2351,"Ġgrow":2352,"Ġtrue":2353,"Ġexc":2354,"Ġeval":2355,"Ġstring":2356,"ellig":2357,"ĠÑı":2358,"uck":2359,"Ġdoing":2360,"Ġenv":2361,"Ã©s":2362,"Ġoriginal":2363,"ca":2364,"ados":2365,"ĠÐŁ":2366,"à¥":2367,"ysis":2368,"Ġgroup":2369,"Ġfood":2370,"itional":2371,"text":2372,"ech":2373,"oney":2374,"ray":2375,"gent":2376,"Ġà¤":2377,"Ġcateg":2378,"ĠQu":2379,"ĠLe":2380,"Ġspecial":2381,"Ġmodels":2382,"Ġharm":2383,"Ġ}Ċ":2384,"Ġcent":2385,"Ġvideo":2386,"ken":2387,"Ġexpress":2388,"Ð¾Ð·":2389,"Ġpersonal":2390,"ĠOn":2391,"Ãµ":2392,"pond":2393,"Ð¸Ð¹":2394,"ĠMy":2395,"ĠCO":2396,"idd":2397,"ills":2398,"Ġkind":2399,"ÐµÐ»ÑĮ":2400,"PI":2401,"29":2402,"ule":2403,"Ġothers":2404,"âĢĻt":2405,"ĠEn":2406,"Ġru":2407,"aj":2408,"usion":2409,"Ġknowledge":2410,"Ġappe":2411,"Ġfut":2412,"Ġcustomer":2413,"Ġlas":2414,"Ġvar":2415,"Ġservice":2416,"Ð¸Ñĩ":2417,"ÏĦ":2418,"verage":2419,"Ġgot":2420,"ination":2421,"indow":2422,"Ġclient":2423,"alse":2424,"ailable":2425,"Text":2426,"Ġeas":2427,"aa":2428,"Ġwrong":2429,"Î¿":2430,"Ġdra":2431,"Ġens":2432,"].":2433,"ames":2434,"ording":2435,"Ġagainst":2436,"Ã¼r":2437,"istic":2438,"ches":2439,"ummarize":2440,"Ġbul":2441,"icht":2442,"35":2443,"reate":2444,"imate":2445,"Ġsens":2446,"ero":2447,"Ġemail":2448,"^^":2449,"ĠAnswer":2450,"utes":2451,"Ġune":2452,"\"ĊĊ":2453,"iter":2454,"Ġcour":2455,"Ġwriting":2456,"Ð°Ð¶":2457,"Ġmit":2458,"Ġimprove":2459,"Ð°Ð±":2460,"pose":2461,"Ġreview":2462,"Ġchang":2463,"SE":2464,"atural":2465,"ĠSh":2466,"Ġhealth":2467,"Ġrespect":2468,"Ġstrong":2469,"Ġdas":2470,"ÐŁ":2471,"ision":2472,"Ġbad":2473,"Ãµes":2474,"'ve":2475,"ÐµÐ³":2476,"ming":2477,"atures":2478,"Ġbook":2479,"ender":2480,"ĠUse":2481,"ido":2482,"ertain":2483,"Ġextract":2484,"ropri":2485,"Ġschool":2486,"cur":2487,"Ġrange":2488,"Ġnumbers":2489,"Ġbas":2490,"Ġrules":2491,"×Ļ":2492,"Ġexec":2493,"Ġconsider":2494,"inc":2495,"AD":2496,"hr":2497,"ĠYes":2498,"ëĬ":2499,"AM":2500,"Ġresults":2501,"aim":2502,"CH":2503,"Hi":2504,"Ã±":2505,"Wh":2506,"Ġrequire":2507,"ÐµÑģ":2508,"ivers":2509,"oll":2510,"ÐµÐ²":2511,"Ġchoose":2512,"Cl":2513,"Ġproducts":2514,"ito":2515,"nect":2516,"Ġalg":2517,"Ġnecess":2518,"Ġlearning":2519,"_f":2520,"This":2521,"iqu":2522,"Ġ//":2523,"Ġsepar":2524,"Ġmention":2525,"ĠÑĦ":2526,"99":2527,"Ð¸Ð·":2528,"Ġview":2529,"ĠChatGPT":2530,"Ġmag":2531,"Ġtimes":2532,"('":2533,"Ġrepl":2534,"Ġtotal":2535,"Ġcase":2536,"Ġaddress":2537,"Ġou":2538,"ference":2539,"amb":2540,"Ġwhether":2541,"Ġfamily":2542,"date":2543,"af":2544,"ĠGive":2545,"Ġeconom":2546,"ission":2547,"\":\"":2548,"Ġutil":2549,"commend":2550,"Ġrelationship":2551,"Ġaff":2552,"Ġmight":2553,"{Ċ":2554,"Ġmove":2555,"uate":2556,"04":2557,"Ġpatient":2558,"Ġmach":2559,"Ð¾Ð¿":2560,"Ġneeds":2561,"Ġje":2562,"ĠTo":2563,"è¯":2564,"hello":2565,"Ġpoints":2566,"aw":2567,"tain":2568,"Ġhard":2569,"Ġcannot":2570,"arent":2571,"ats":2572,"ĠMan":2573,"Ġfew":2574,"UR":2575,"åı":2576,"Ġmot":2577,"unt":2578,"ĠOpen":2579,"Ġsuggest":2580,"Ġprofess":2581,"Ġexplanation":2582,"Î¹":2583,"Ð¸ÑĢ":2584,"Ġge":2585,"Ð½Ð¾ÑģÑĤ":2586,"Ġpositive":2587,"Ġist":2588,"Ġcountry":2589,"lt":2590,"Ġ>":2591,"à¹":2592,"ocÃª":2593,"----------------":2594,"ÑĥÑİ":2595,"Ġyourself":2596,"aterial":2597,"Ġeth":2598,"ification":2599,"Ġear":2600,"ength":2601,"vi":2602,"Ġtitle":2603,"ĠÐºÐ°Ðº":2604,"amet":2605,"ĠÑĩÑĤÐ¾":2606,"Ø©":2607,"It":2608,"sp":2609,"Ġbot":2610,"Ġetc":2611,"ÐµÐ½ÑĤ":2612,"une":2613,"vern":2614,"Ġnegative":2615,"Ġworking":2616,"Ġgra":2617,"ables":2618,"Ġexact":2619,"Ġfre":2620,"ption":2621,"ante":2622,"Ġter":2623,"Ġlooking":2624,"lo":2625,"Ġsize":2626,"ĠÐ²Ñĭ":2627,"Ġrepresent":2628,"Ġbra":2629,"Ġface":2630,"ored":2631,"cret":2632,"ĠPython":2633,"Ġexpect":2634,"ĠCo":2635,".p":2636,"ww":2637,"Ġprint":2638,"Ġemploy":2639,"ny":2640,"ret":2641,"_p":2642,"Ġactions":2643,"cle":2644,"æĺ":2645,"Ġavailable":2646,"Ġdig":2647,"US":2648,"itor":2649,"ything":2650,"-p":2651,"ĠIm":2652,"use":2653,"ENT":2654,"34":2655,"Ġdays":2656,"?\"":2657,"For":2658,"ling":2659,"Ġsobre":2660,"Ġrelevant":2661,"lu":2662,"Do":2663,"Ġpret":2664,"Ġprevious":2665,"Ġsimple":2666,"Ġvol":2667,"Ġindic":2668,"ĠÐ´Ð»Ñı":2669,"_l":2670,"Ġfocus":2671,"illion":2672,"Ġclear":2673,"ÐµÐ½Ð¸Ðµ":2674,"36":2675,"Ġmeans":2676,"irm":2677,"reg":2678,"Ġpain":2679,"ê³":2680,"idad":2681,"Name":2682,"Ġdoesn":2683,"ros":2684,"ili":2685,"Ð¿ÑĢ":2686,"UT":2687,"def":2688,"Ġusers":2689,"abor":2690,"Ġresearch":2691,"Ġ`":2692,"ida":2693,"Ġprot":2694,"ici":2695,"ĠTe":2696,"Ġamount":2697,"ilities":2698,"isc":2699,"Ġlov":2700,"åĲ":2701,"ring":2702,"Ġsuccess":2703,".g":2704,"ptions":2705,"Ġemot":2706,"oper":2707,"Ġhaving":2708,"Ġí":2709,"Ġvo":2710,"ëĬĶ":2711,"ĠÐĴ":2712,"ÐµÑĪ":2713,"Ġsal":2714,"Ġtrad":2715,"Ġfemale":2716,"De":2717,"ĠâĢĵ":2718,"Ġwomen":2719,"itable":2720,"Ġyoung":2721,"Ġcolor":2722,"Ġtopic":2723,"ÐºÐ¸":2724,"×ķ":2725,"asure":2726,"},":2727,"03":2728,"oud":2729,"Ġsince":2730,"ĠÑģÐ»":2731,"Ġweek":2732,"late":2733,"Ġscene":2734,"Ġbi":2735,"ey":2736,"Ġlearn":2737,"ico":2738,"Ġtemper":2739,"ÐºÐ°":2740,"06":2741,"........":2742,"Ġpotential":2743,"Ġbreak":2744,"Ġsignific":2745,"Ġess":2746,"era":2747,"AC":2748,"Ĥ¬":2749,"Ġidentify":2750,"na":2751,"Ġevents":2752,"Ð½ÑĭÑħ":2753,"150":2754,"Say":2755,"ING":2756,"back":2757,"man":2758,"Ġho":2759,"RI":2760,"Ġdiscuss":2761,"Ġaud":2762,".l":2763,"Con":2764,"Ġtarget":2765,"andom":2766,"aug":2767,"37":2768,"Ġshare":2769,"ights":2770,"ived":2771,"Ġdevelopment":2772,"by":2773,"Ġdialogue":2774,"ponse":2775,"Ġrequired":2776,"ET":2777,"Ġfac":2778,"ras":2779,"Ġsexual":2780,"ï¼ļ":2781,"07":2782,"oi":2783,"ogle":2784,"ml":2785,"Ġlaw":2786,"ancial":2787,"Ġsoftware":2788,"roduct":2789,"ĠSp":2790,"QL":2791,"Ġzu":2792,"core":2793,"Ġcomb":2794,"outh":2795,"icuna":2796,"Ġrecommend":2797,"Ġpercent":2798,"ÐµÐ·":2799,"asks":2800,"ATE":2801,"Ġbene":2802,"Ġtraining":2803,"ister":2804,"land":2805,"idence":2806,"âĢľ":2807,"ĠGo":2808,"Ġprice":2809,"Ġpod":2810,"02":2811,"Ġcalcul":2812,"_id":2813,"Ġimplement":2814,"Ġjson":2815,"Ġuntil":2816,"ĠPh":2817,"Ġdr":2818,"Ġextrem":2819,"Ġexpert":2820,"Ġich":2821,"Ġintellig":2822,"ĠChe":2823,"room":2824,"Ġelect":2825,"64":2826,"ĠFr":2827,"ÑĢÐ°":2828,"Ġpriv":2829,"Ġanalysis":2830,"add":2831,"Ġneeded":2832,"Ġengine":2833,"ĠNew":2834,"Ġweb":2835,"ĠTH":2836,"umber":2837,"kt":2838,"Ġce":2839,"Ġwon":2840,"ores":2841,"oot":2842,"Ġgen":2843,"31":2844,"ê°":2845,"Ġvalues":2846,"Ġmoney":2847,"Res":2848,"Ð¾Ñĩ":2849,"ration":2850,"Ġwebs":2851,"ola":2852,"NT":2853,"ĠÐ¸Ð·":2854,"ĠÐļ":2855,"oss":2856,"Ð¸Ñħ":2857,"_c":2858,"Ġmind":2859,"Ġmultiple":2860,"Ġwait":2861,"vol":2862,"å¥":2863,"ĠÐ¡":2864,"ironment":2865,"Ã§Ãµes":2866,"Ġaspect":2867,"ively":2868,"Ġfore":2869,"Ð°ÐµÑĤ":2870,"Ġknown":2871,"Ġstudent":2872,"()Ċ":2873,"Ġhistory":2874,"><":2875,"Ġsn":2876,"ĠChina":2877,"Ġmil":2878,"Ġasked":2879,"Ġyes":2880,"ane":2881,"face":2882,"Ð°Ñı":2883,"vide":2884,"Ġtoget":2885,"amm":2886,"ÑĥÐ´":2887,"Ġtogether":2888,"38":2889,"-c":2890,"ulation":2891,"Ġhab":2892,"Ġhappen":2893,"key":2894,"ĠInt":2895,"Ġcity":2896,"Ġrecent":2897,"''":2898,"Ġfur":2899,"Ġsentiment":2900,"Ġnormal":2901,"ances":2902,"oci":2903,"ãģ®":2904,"Ġguid":2905,"IS":2906,"Ġinstruction":2907,"ĠAp":2908,"Se":2909,"ÑĥÑĤ":2910,"Ġmeaning":2911,"!Ċ":2912,"Ġtools":2913,"ĠÐĿ":2914,"system":2915,"Ġann":2916,"Ġmale":2917,"Ð½Ð¾Ð¹":2918,"va":2919,"Ùģ":2920,"ush":2921,"Ġfour":2922,"Ġid":2923,"ources":2924,"Ġfuture":2925,"iod":2926,"Îµ":2927,"['":2928,"çĶ":2929,"ropriate":2930,"ente":2931,"æľ":2932,"Ġnews":2933,"inf":2934,"Ġenerg":2935,"Ġscen":2936,"Ġtre":2937,"Ġboy":2938,"500":2939,"Ġhair":2940,"Ġlik":2941,"Ġbase":2942,"Ġpen":2943,"ND":2944,"cer":2945,"Ð¸Ð´":2946,"ìĦ":2947,"Id":2948,"íķĺ":2949,"from":2950,"Ġstructure":2951,"):":2952,"Ġhours":2953,"ĠOk":2954,"atus":2955,"Ð¸Ðµ":2956,"Ġspace":2957,"Ð¡":2958,"Ġair":2959,"Ġindivid":2960,"ĠRE":2961,"Ġspeak":2962,"ensive":2963,"descript":2964,"ÐµÐ±":2965,"head":2966,"Ġstatement":2967,"Ġredu":2968,"55":2969,"ĠÐ¿ÑĢÐ¾":2970,"Ġhouse":2971,"gen":2972,"Ġstrateg":2973,"User":2974,"mit":2975,"}}":2976,"Ġarg":2977,"chie":2978,"ira":2979,"ither":2980,"Ġviol":2981,"ĠAdd":2982,"Ð½ÑĭÐµ":2983,"ground":2984,"Ġpers":2985,"Ġchoice":2986,"Im":2987,"nces":2988,"Ġthin":2989,"igo":2990,"Ġimm":2991,"ĠInput":2992,"Ġbeaut":2993,"Ġbed":2994,"Ġlow":2995,"Ġaway":2996,"Ġgetting":2997,"ĠÄ":2998,"Ġscore":2999,"Ġfive":3000,"Ġinit":3001,"wards":3002,"Ġfront":3003,"Ġfa":3004,"Ġhot":3005,".S":3006,"44":3007,"ounds":3008,"ready":3009,"Ġinside":3010,"Ġposition":3011,"Ġinvol":3012,"Ġwin":3013,"ĠĠĠĠĠĠĠĠĠ":3014,"Ġwal":3015,"äº":3016,"ĠÐ¿ÐµÑĢ":3017,"æĸ":3018,"å¤":3019,"ĠAm":3020,"Ġhtt":3021,"Ġclos":3022,"htt":3023,"set":3024,"Ġsun":3025,"Ġpast":3026,"Ġstop":3027,"Ġextremely":3028,"Ã§a":3029,"ĠGr":3030,"ĠÙħ":3031,"Ġfav":3032,"Ø¨":3033,"ĠNow":3034,"gest":3035,"Ð¾ÑĤÐ¾ÑĢ":3036,"Ġmachine":3037,"Ġstre":3038,"ĠThat":3039,"Input":3040,"Ġservices":3041,"Ġconcept":3042,"ĠĠĠĠĠĠ":3043,"wh":3044,"ÐĿ":3045,"Ùĥ":3046,"Ġdue":3047,"ished":3048,"´ë":3049,"****":3050,"type":3051,"Ġversion":3052,"ĠAct":3053,"ãĢĤ":3054,"LM":3055,"ication":3056,"æĪ":3057,"Î½":3058,"Ġflo":3059,"ags":3060,"Ġnecessary":3061,"ĠDon":3062,"Ðŀ":3063,"ĠAd":3064,"Ġbreast":3065,"æĺ¯":3066,"cy":3067,"CO":3068,"ĠGPT":3069,"Ġavoid":3070,"Ġcomputer":3071,"ÑĥÑĩ":3072,"Ġeine":3073,"ĠUnited":3074,"90":3075,"Ġqual":3076,"Ġgeneral":3077,"Ġcod":3078,"serv":3079,"AB":3080,"ogn":3081,"ĠSer":3082,"Ġgoal":3083,"Ġterms":3084,"gress":3085,"ĠWor":3086,"Ġqui":3087,"Ġpract":3088,"Ġhold":3089,"Ġpress":3090,"la":3091,"ĠAre":3092,"Ġ{\"":3093,"Ġeyes":3094,"Ð½ÑĭÐ¹":3095,"×ķ×":3096,"\\\\":3097,"ĠWhich":3098,"Ġcur":3099,"Ġfeatures":3100,"Ġant":3101,"Ð¸Ñı":3102,"Ġfield":3103,"ilt":3104,"Ġimpact":3105,"Ġbuy":3106,"Ġmaterial":3107,"Ġcrit":3108,"Ġocc":3109,"aging":3110,"Ġleast":3111,"Ġunique":3112,"{\"":3113,"Ġperformance":3114,"new":3115,"Ġconnect":3116,"izing":3117,"pped":3118,"met":3119,"Ġerror":3120,"words":3121,"ĠÐ±Ñĭ":3122,"ĠAll":3123,"EL":3124,"Ġsays":3125,"tell":3126,"lection":3127,"alls":3128,"Ġsym":3129,"amente":3130,"]ĊĊ":3131,"Ã¡s":3132,"Ġside":3133,"pping":3134,"Ġcomment":3135,"Ġokay":3136,"Ġhyp":3137,"}ĊĊ":3138,"ended":3139,"aces":3140,"Ġtakes":3141,"Ġenj":3142,"side":3143,"Ġnight":3144,"Ġstay":3145,"Ġinstead":3146,"atform":3147,"08":3148,"ĠdÃ©":3149,"Ġboo":3150,"ÐĴ":3151,"Ġcommon":3152,"ana":3153,"ĠnÃ£o":3154,"utions":3155,"pecial":3156,"Ġwants":3157,"ÃŃa":3158,"elle":3159,"Ġalready":3160,"_name":3161,"idade":3162,"ending":3163,"å¥½":3164,"Here":3165,"Ġtemperature":3166,"(self":3167,"Ġpued":3168,"ones":3169,"igure":3170,"Ġstudy":3171,"Ġindividual":3172,"Ġage":3173,"Ġmais":3174,"ides":3175,"Ð°ÑĨÐ¸":3176,"ynt":3177,"ÅĤ":3178,"Ġskills":3179,"uff":3180,"Ġseem":3181,"Ġhig":3182,"Ġcas":3183,"Ġquality":3184,"Ġpred":3185,"Ġsubject":3186,"',Ċ":3187,"year":3188,"Ġidea":3189,"ìł":3190,"veloper":3191,"Ġmaxim":3192,"Ġaccording":3193,"Ġtasks":3194,"rief":3195,"ÛĮ":3196,"ìĿĦ":3197,"Ġcult":3198,"Ġanaly":3199,"Ġeverything":3200,"Ġsuitable":3201,"Ġcut":3202,"Ġgovern":3203,"Ġcat":3204,"Ġideas":3205,"ocation":3206,"300":3207,"imal":3208,"Ð½Ð¾Ð³Ð¾":3209,"Ġarea":3210,"osp":3211,"je":3212,"Ġphot":3213,"ĠEm":3214,"curity":3215,"Ð¸ÑĪÐ¸":3216,"Ġplayer":3217,"Ġenvironment":3218,"fr":3219,"Ġmakes":3220,"Ġemb":3221,"rap":3222,"Ġsever":3223,"ĠÐ¿Ð¾Ð´":3224,"asing":3225,"leep":3226,"ĠHowever":3227,"Ġnothing":3228,"ï¼Ł":3229,"Ġsteps":3230,"ustomer":3231,"Ġdeep":3232,"urance":3233,"Start":3234,"asons":3235,"ìĹĲ":3236,"oint":3237,"ĠÐºÐ¾ÑĤÐ¾ÑĢ":3238,"Ġmother":3239,"Ð²ÐµÑĤ":3240,"×Ļ×":3241,"Ġgraph":3242,"ĠOr":3243,"Ġlocal":3244,"ĠSch":3245,"Ġoften":3246,"'Ċ":3247,"rel":3248,"ficult":3249,"erc":3250,"OS":3251,"Ġautom":3252,"Ġtrying":3253,"Ġnatural":3254,".m":3255,"Ġfinancial":3256,"rim":3257,"Ġpage":3258,"Ġcompet":3259,"Ġauf":3260,"Ġdefin":3261,"Ġphr":3262,"ĠText":3263,"ists":3264,"\")Ċ":3265,"Ġten":3266,"Ġur":3267,"39":3268,"jor":3269,"Ġvon":3270,"Ġcell":3271,"friend":3272,"Ġopin":3273,"Ġensure":3274,"Ġcontains":3275,"stream":3276,"Ġ==":3277,"Ġste":3278,"Ġevaluate":3279,"Ð¸ÑģÑĤ":3280,"ĠvocÃª":3281,"input":3282,"ĠMake":3283,"Ġbecome":3284,"Ġvarious":3285,"ĠAmer":3286,"Ġprob":3287,"roll":3288,"arc":3289,"Ġadv":3290,"ters":3291,"alf":3292,"fect":3293,"ĠrÃ©":3294,"inter":3295,"Ġquant":3296,"otes":3297,"NN":3298,"vo":3299,"Ġlimit":3300,"Ġmiss":3301,"ëĭ¤":3302,"Ġremain":3303,"Ø¹":3304,"ĠÑĤÐ°Ðº":3305,"PE":3306,"clude":3307,"TH":3308,"Ġenergy":3309,"ino":3310,"gn":3311,"ouble":3312,"Ġbir":3313,"Ġmatch":3314,"ude":3315,"Ġemp":3316,"ama":3317,"ìŀ":3318,"Context":3319,"ulate":3320,"ĠÐŀ":3321,"ips":3322,"ÂłÂł":3323,"ella":3324,"Ġsystems":3325,"ĠSu":3326,"net":3327,"Ġsche":3328,"70":3329,"ĠfÃ¼r":3330,"Ïĥ":3331,"Ġtexto":3332,"Ġri":3333,"OL":3334,"Ġapplication":3335,"artment":3336,"icro":3337,"Ġlive":3338,"Ġsat":3339,"uman":3340,"Ġcir":3341,"ÑģÐ¿":3342,"Ġphysical":3343,"Ġrandom":3344,"75":3345,"Ġcertain":3346,"Ġmovie":3347,"Ġchall":3348,"ids":3349,"ĠÑĤÑĭ":3350,"elling":3351,"Ġtaking":3352,"rad":3353,"Ġinternet":3354,"Ġprim":3355,"zy":3356,"ãģĦ":3357,"ĠDE":3358,"den":3359,"Ġsource":3360,"Ġincor":3361,"ÐµÑģÑĤ":3362,"ÑĤÑĮ":3363,"Ġdone":3364,"Ġexactly":3365,"ĠÑģÐ²":3366,"ube":3367,"iful":3368,"Ġhor":3369,"ui":3370,"endo":3371,"Ġshall":3372,"Ġuses":3373,"Ġful":3374,"Ġdest":3375,"ĠStates":3376,"ĠWhy":3377,"Ġachie":3378,"Ġhyd":3379,"icient":3380,"Ġentre":3381,"Ġroleplay":3382,"\\\"":3383,"inate":3384,"ĠÑĢÐ°Ð·":3385,"::":3386,"down":3387,"Ġonline":3388,"raft":3389,"Ġparamet":3390,"Ġseveral":3391,"Ø³":3392,"ograph":3393,"ĠST":3394,"ĠÑħ":3395,"âĢ¦":3396,"ä½łå¥½":3397,"Ġvalid":3398,"Ġcreative":3399,"Ġdans":3400,"Ġcomplex":3401,"Des":3402,"ĠÐ¶":3403,"aur":3404,"ised":3405,"ĠAt":3406,"opy":3407,"ĠMe":3408,"Ġmi":3409,"Ġmanagement":3410,"Ġseg":3411,"Ġsolution":3412,"Ġflow":3413,"pa":3414,"Ġfurther":3415,"48":3416,"Ġreasons":3417,"load":3418,"rompt":3419,"Ġtalking":3420,"iques":3421,"Ð¾Ð»ÑĮÐ·":3422,"div":3423,"Output":3424,"/s":3425,".j":3426,"->":3427,",,,,":3428,"ĠĠĠĠĠĠĠĠĠĠĠĠĠĠĠĠĠĠĠ":3429,"ĠDescribe":3430,"ault":3431,"Ob":3432,"fully":3433,"chen":3434,"word":3435,"ÐºÐ¾":3436,"Ġpoem":3437,"Ġharmful":3438,"))":3439,"Ġdos":3440,"Ġregard":3441,"jet":3442,"Ġimag":3443,"Ġìŀ":3444,"ĠðŁ":3445,"Ġnarr":3446,"Ġparent":3447,"Ġsecret":3448,"Ġchatbot":3449,"itch":3450,"++":3451,"othes":3452,"ÐµÑĩ":3453,"Ġ!":3454,"orith":3455,"Ġlin":3456,"apan":3457,"56":3458,"ouch":3459,"ires":3460,"uk":3461,"hic":3462,"Ġtransform":3463,"Ġeduc":3464,"To":3465,"earch":3466,"Ġpath":3467,"Ġcompre":3468,"Ġwebsite":3469,"ĠRep":3470,"ĠThen":3471,"Ġworks":3472,"Ġstudents":3473,"Ġple":3474,"Ġchildren":3475,"Ġsong":3476,"Ġassist":3477,"Ð°Ñİ":3478,"ging":3479,"ja":3480,"Ġclaim":3481,"ĠìĿ":3482,"Ġbenef":3483,"ched":3484,"Ġcourse":3485,"Un":3486,"ÙĤ":3487,"DE":3488,"ë¡":3489,"ĠBl":3490,"mo":3491,"ĠNe":3492,"Ġtechnology":3493,"Er":3494,"ĠAPI":3495,"urope":3496,"Ġ)":3497,"Ġnear":3498,"Ġslow":3499,"Ġexperi":3500,"Ġscient":3501,"df":3502,"Ġtravel":3503,"Ðļ":3504,"Ġsignificant":3505,"over":3506,"Ġhttps":3507,"ĠTrans":3508,"obal":3509,"ÑĥÑģ":3510,"Ġprec":3511,"Ġing":3512,"acion":3513,"ift":3514,"Ġprofessional":3515,"Ġwatch":3516,"Ġtold":3517,"ager":3518,"Ġprogramming":3519,"lim":3520,"ots":3521,"54":3522,"Ġ_":3523,"ita":3524,"Ġcam":3525,"hens":3526,"ĠÐ¸Ð½":3527,"eah":3528,"Ġlat":3529,"Ġlater":3530,"sel":3531,"09":3532,"Ġeither":3533,"Ġsales":3534,"ĠNOT":3535,"Ġstarted":3536,"ncia":3537,"Ġdeb":3538,"ivo":3539,"ĠOne":3540,"Ġaverage":3541,"inue":3542,"elt":3543,"iente":3544,"Ġang":3545,"Al":3546,"sert":3547,"Ġmoment":3548,"rain":3549,"Ġpaper":3550,"íķľ":3551,"Ġperiod":3552,"Ġdisplay":3553,"char":3554,".t":3555,"Who":3556,"MP":3557,"ĠComp":3558,"reib":3559,"Ġsus":3560,"Ġnetwork":3561,"Ġblue":3562,"MA":3563,"Ġadvent":3564,"199":3565,"abase":3566,"Ġwindow":3567,"Ġsupp":3568,"Ġfit":3569,"sy":3570,"Ġcompletely":3571,"ìļ":3572,"Ġclose":3573,"fort":3574,"gre":3575,"']":3576,"ĠÐ¿Ð¾Ð»":3577,"ĠCol":3578,"ĠAIM":3579,"iting":3580,"Ġwritten":3581,"pu":3582,"ler":3583,"Ġsense":3584,"Ġmass":3585,"RA":3586,"Ġwar":3587,"Ar":3588,"Ġlonger":3589,"Ġfar":3590,"bb":3591,"oring":3592,"Ã¢":3593,"ump":3594,"Ġpercentage":3595,"ìĿĺ":3596,"pec":3597,"Ġleg":3598,"Ġdiv":3599,"Ġpack":3600,"Ġfict":3601,"quest":3602,"Ġincrease":3603,"Ã´":3604,"Ġrobot":3605,"Ġentity":3606,"ONT":3607,"Ġtrain":3608,"ried":3609,"ounter":3610,"anced":3611,"post":3612,"Ġpun":3613,"List":3614,"ĠÄĳ":3615,"Ġleave":3616,"Ġlocation":3617,"-l":3618,"Let":3619,"ava":3620,"ĠÑįÑĤ":3621,"utral":3622,"Ġti":3623,"Ġcause":3624,"empl":3625,"Ġcorres":3626,"essage":3627,"Ġyet":3628,"file":3629,"ese":3630,"§Ģ":3631,"oke":3632,"ky":3633,"Ġmir":3634,"Ġbeautiful":3635,"Ð¸ÑĩÐµ":3636,"Ġadditional":3637,".c":3638,"Ġbuilding":3639,"Ġsituation":3640,"Ġarch":3641,"DI":3642,"ara":3643,"sch":3644,"Ð¸Ð¸":3645,"otic":3646,"```Ċ":3647,"ador":3648,"acher":3649,"Ġfavor":3650,"ua":3651,"85":3652,"ably":3653,"ĠUser":3654,"Ġenjoy":3655,"Ġ%":3656,"Ġquick":3657,"ãĢģ":3658,"Ġcock":3659,"ria":3660,"46":3661,"Ġalong":3662,"ises":3663,"iversity":3664,"Ġai":3665,"Ġsaying":3666,"Ġarray":3667,"men":3668,"aly":3669,"Ġconv":3670,"ican":3671,"string":3672,"gar":3673,"Ð½Ðµ":3674,"Ġextra":3675,"Ġdark":3676,"Ð½Ð¸Ðº":3677,"oral":3678,"mb":3679,"ĠHi":3680,"Ġbar":3681,"ĠÐºÐ¾Ð¼":3682,"iddle":3683,"Ġauthor":3684,"Ġpie":3685,"Ġenough":3686,"Ġtreat":3687,"ÐºÑĥ":3688,"nder":3689,"class":3690,"Options":3691,"rist":3692,"Ġ@":3693,").Ċ":3694,"Ġpropos":3695,"off":3696,"Ġlay":3697,"ĠSc":3698,"Ġrefer":3699,"Ġprompts":3700,"Ġdidn":3701,"verse":3702,"Ġsort":3703,"ìĿ´":3704,"Ġloves":3705,"ension":3706,"Ġagent":3707,"Ġpair":3708,"Ġbrief":3709,"ĠList":3710,"ĉĊ":3711,"ĠSE":3712,"Ġcard":3713,"ĠâĢĶ":3714,"acks":3715,"eb":3716,"Ġord":3717,"Ġmatter":3718,"ising":3719,"ster":3720,"Ġspeech":3721,"Ġparticip":3722,"(s":3723,"ĠÃ¨":3724,"Ġargument":3725,"ges":3726,"Ġalgorith":3727,"ĠWith":3728,"rypt":3729,"-year":3730,"ĠÐ¢":3731,"orry":3732,"Ġminutes":3733,":\\":3734,"ints":3735,"abled":3736,"just":3737,"Ñĳ":3738,"ĠAS":3739,"da":3740,"Ïģ":3741,"Ġinn":3742,"Ġave":3743,"Ġblock":3744,"Data":3745,"Ġremember":3746,"elines":3747,"Ġchanges":3748,"IST":3749,"åħ":3750,"ĠâĢĺ":3751,"atory":3752,"Ġtypes":3753,"Ġmas":3754,"ê³ł":3755,"ole":3756,"!!":3757,"Ġcompan":3758,"AY":3759,"Ġcoll":3760,"gy":3761,"Ġplatform":3762,"Ġcreated":3763,"ĠInstruction":3764,"Ġcamp":3765,"ĠTell":3766,"antic":3767,"ĠOpenAI":3768,"bol":3769,"ceed":3770,"Ġpolit":3771,"Ġmes":3772,"actions":3773,"Ġready":3774,"value":3775,"ibility":3776,"Ġagre":3777,"Ġchoices":3778,"Ġsecurity":3779,".get":3780,"Ġonce":3781,"acc":3782,"unction":3783,"ÐµÑĪÑĮ":3784,"ĠÙĪ":3785,"cing":3786,"Ġpal":3787,"ÄĻ":3788,"Ġsmart":3789,"Ð°Ð¿Ð¸ÑĪÐ¸":3790,"know":3791,"Ġdifference":3792,"ula":3793,"astic":3794,"Ġappear":3795,"Ġment":3796,"Ġparty":3797,"Ġfictional":3798,"Ġacross":3799,"IG":3800,"ĠPr":3801,"ged":3802,"En":3803,"Ġcontact":3804,"ison":3805,"Ġabs":3806,"tract":3807,"Ġpurpose":3808,"Ġability":3809,"UL":3810,"Use":3811,"ios":3812,"Ġmonths":3813,"Ġbring":3814,"Ġassume":3815,"Ġunderstanding":3816,"Ġdifficult":3817,"Ġmentioned":3818,"ĠØ¨":3819,"Ġactually":3820,"Ġopp":3821,"ĠName":3822,"ites":3823,"========":3824,"Ġparticular":3825,"Ġtax":3826,"ails":3827,"Ġitems":3828,"ĠÂ¿":3829,"UE":3830,"apter":3831,"oph":3832,"ĠDate":3833,"Ã©e":3834,"\")":3835,"xx":3836,"legal":3837,"Ġmis":3838,"Ġways":3839,"Ġfiles":3840,"ii":3841,"Ð°Ð¼Ð¸":3842,"ê¸":3843,"ãģ¦":3844,"Ġsummarize":3845,"EX":3846,"Generate":3847,"sing":3848,"ql":3849,"Ġfine":3850,"Ġaccept":3851,"Ġbox":3852,"-st":3853,"Action":3854,"Î·":3855,"Ġmu":3856,"49":3857,"mission":3858,"Ġvul":3859,"47":3860,"42":3861,"Ġsqu":3862,"'d":3863,"Ġaspects":3864,"chan":3865,"ÑĭÐ¹":3866,"amento":3867,"Ġlength":3868,"Ð¾ÑĢÐ¼":3869,"ĠÐł":3870,"Ġphone":3871,"mon":3872,"Ġintegr":3873,":\"":3874,"Ġbehind":3875,"Ð½Ð¸":3876,"ĠAfter":3877,"Ġbelieve":3878,"ë¡ľ":3879,"!\"":3880,"list":3881,"ferences":3882,"Ð°ÑģÑĤ":3883,"AAAA":3884,"ĠEr":3885,"medi":3886,"CI":3887,"enn":3888,"Ġcapt":3889,"Ġplaying":3890,"Ġfilter":3891,"ĠHer":3892,"Ġdir":3893,"Ġmusic":3894,"Ġcy":3895,"Ġrow":3896,"')":3897,"ĠÂ«":3898,"Ġmillion":3899,"iet":3900,"iles":3901,"ë¥":3902,"Ġfix":3903,"Ġmedical":3904,"Ġissues":3905,"ĠMay":3906,"Ð°Ð½Ð¸Ñı":3907,"ÐĲ":3908,"Ġjoke":3909,"Ġlink":3910,"Ġplus":3911,"Ġ},Ċ":3912,"ĠJust":3913,"Ġserver":3914,"ape":3915,"ĠRuss":3916,"Ġlines":3917,"ends":3918,"There":3919,"Ġoffer":3920,"Ð½Ñı":3921,"rio":3922,"Ġrisk":3923,"otal":3924,"most":3925,"Ġdog":3926,"ÏĢ":3927,"Ġcorrespond":3928,"ÃŁ":3929,"When":3930,"Ġcompon":3931,".py":3932,"Ð°Ð±Ð¾ÑĤ":3933,"Ġnicht":3934,"But":3935,"etry":3936,"Ġappropriate":3937,"Ġgrowth":3938,"ĠLLM":3939,"ä¹":3940,"Ð¢":3941,"Ġeu":3942,"Ġpolicies":3943,"light":3944,"Ġload":3945,"Ġwearing":3946,"ÑĥÑĢ":3947,"Ġ->":3948,"Ġseed":3949,"ĠData":3950,"Ġprivate":3951,"Ġapply":3952,"you":3953,"Ġpersonality":3954,"ession":3955,"Ġaltern":3956,"ÑĥÐ¼":3957,"ÐµÐºÑģÑĤ":3958,"-h":3959,"Ġnom":3960,"mod":3961,"></":3962,"AG":3963,"Ġdraw":3964,"_b":3965,"Ġ[\"":3966,"inese":3967,"Ġhands":3968,"Ġgiving":3969,"ÑħÐ¾Ð´":3970,"reen":3971,"'.":3972,"anger":3973,"ĠAgent":3974,"Ġmedia":3975,"ĠCreate":3976,"alt":3977,"adas":3978,"æĸĩ":3979,"Ġcou":3980,"ATION":3981,"Ġapproach":3982,"Ġaccur":3983,"Ġcomes":3984,"used":3985,"Create":3986,"Ġcapital":3987,"Ġfeeling":3988,"Ġdam":3989,"Ġ-->":3990,"ìĭ":3991,"Ġassoci":3992,"ĠSQL":3993,"lation":3994,"Ġsequ":3995,"Ġseries":3996,"Ġprior":3997,"Ġpolicy":3998,"Ġasking":3999,"Ġcategory":4000,"ificial":4001,"ĠOutput":4002,"ĠEl":4003,"rid":4004,"Ð½ÑĭÐ¼":4005,"ÐŁÑĢ":4006,"Ġmaximum":4007,"---":4008,"ĠÐ²Ñģ":4009,"ney":4010,"ÑĥÐ¶":4011,"Ġframe":4012,"Ġrewrite":4013,"idity":4014,"58":4015,"dit":4016,"ÑĭÐ²":4017,"Ġsleep":4018,"acy":4019,"Ġconsid":4020,"Â»":4021,"Ġrequirements":4022,"Be":4023,"ĠEach":4024,"OD":4025,"Ġelement":4026,"Ġlikely":4027,"Ġissue":4028,"inary":4029,"####":4030,"Ġprovides":4031,"Ġfire":4032,"Ġgreen":4033,"ĠNone":4034,"order":4035,"Ġtom":4036,"pportun":4037,"agn":4038,"Ġexcept":4039,"ictions":4040,"atter":4041,"ÐµÐºÑĤ":4042,"Ġattention":4043,"ently":4044,"Ġparts":4045,"ê²":4046,"edu":4047,"Ġlower":4048,"_n":4049,"fs":4050,"mente":4051,"ury":4052,"ĠÐ¼Ð¾Ð¶":4053,"]:":4054,"Ð°Ð³":4055,"ij":4056,"Ġconcise":4057,"Ġthird":4058,"ĠÑģÐ¾":4059,"ĠOb":4060,"Ġconse":4061,"lor":4062,"raw":4063,"unch":4064,"OP":4065,"Ġconcern":4066,"Ġwhole":4067,"ork":4068,"agement":4069,"Ġaw":4070,"aves":4071,".ĊĊĊ":4072,"board":4073,"eren":4074,"anks":4075,"bon":4076,"Ġpu":4077,"åĪ":4078,"Ġdatas":4079,"Ġfeed":4080,"Ġ=>":4081,"Ġinstall":4082,"Ġaus":4083,"ano":4084,"Ġobjects":4085,"Ġweight":4086,"Ð¾Ðµ":4087,"Ġeat":4088,"lets":4089,"Ġgovernment":4090,"Ġnone":4091,"Ġespecial":4092,"istr":4093,"api":4094,"ĠThese":4095,"Ġaf":4096,"Ġdoor":4097,"66":4098,"Ġeconomic":4099,")-":4100,"ĠEst":4101,"Ġdirectly":4102,"MENT":4103,"59":4104,"/No":4105,"Ð°Ð½Ð¸Ðµ":4106,"ĠÐ¿ÑĢÐµÐ´":4107,"mat":4108,"ĠIntern":4109,"Ġ\\\"":4110,"Ġcup":4111,"Ġfant":4112,"Ġbrow":4113,"Ġheart":4114,"Ġdot":4115,"Ġseen":4116,"ĠcÃ³":4117,"ĠÐľ":4118,"idth":4119,"very":4120,"Chat":4121,"Ġkeywords":4122,"Ã©n":4123,"AP":4124,"Ġresol":4125,"Ġdeliver":4126,"ĠCal":4127,"ye":4128,"æķ":4129,"ĠAlso":4130,"Ġthoughts":4131,"41":4132,"ields":4133,"Ġoffic":4134,"ocks":4135,"Ġwanted":4136,"aced":4137,"Ġmm":4138,"weet":4139,"Ġlab":4140,"Ġsection":4141,"ãĤĴ":4142,"Ġhom":4143,"fl":4144,"Ġteacher":4145,"Ġasks":4146,"org":4147,"Ġdatabase":4148,"ULL":4149,"78":4150,"Ġoptim":4151,"Ġhappy":4152,"ĠFrom":4153,"Ġmajor":4154,"Ġreasoning":4155,"Ġfollows":4156,"Ð»Ñİ":4157,"ĠON":4158,"Ġethical":4159,"Ġfast":4160,"Ġattrib":4161,"atives":4162,"Ġpi":4163,"duct":4164,"arter":4165,"epend":4166,"clus":4167,"ĠEurope":4168,"eria":4169,"Ġpopular":4170,"Ġhol":4171,"UM":4172,"-based":4173,"su":4174,"Ġwent":4175,"Ġhumans":4176,"wo":4177,"Ġvehic":4178,"^^^^":4179,"He":4180,"Ġtowards":4181,"Ġcomprehens":4182,"isf":4183,"Ġfunny":4184,"uration":4185,"Ġreach":4186,"Ġgrand":4187,"uto":4188,"print":4189,"aff":4190,"å°":4191,"formation":4192,"ĠMed":4193,"-P":4194,"Ġmal":4195,"Ġill":4196,"this":4197,"rage":4198,"ĠPar":4199,"Ġdescriptions":4200,"-to":4201,"ĠPer":4202,"ocal":4203,"Error":4204,"dom":4205,"ĠSystem":4206,"place":4207,"azione":4208,"ĠLa":4209,"Ġrad":4210,"cho":4211,"Ġstore":4212,"Ġvia":4213,"Ġcustomers":4214,"cion":4215,"Ġbreasts":4216,"body":4217,"ĠNot":4218,"Ġbal":4219,"Ġ['":4220,"Ġvisual":4221,"Ġrecord":4222,"Ġmembers":4223,"Ġillegal":4224,"gl":4225,"Ġproblems":4226,"Ġshy":4227,"urt":4228,"Ġpretend":4229,"output":4230,"tr":4231,"roduction":4232,"ties":4233,"inci":4234,"Ġseparated":4235,"Ġmoral":4236,"Ġbab":4237,"ression":4238,"mart":4239,"ÑĭÐµ":4240,"ĠJapan":4241,"Ġau":4242,"Ġscenario":4243,"Ġsetting":4244,".âĢĿ":4245,"Ġsound":4246,"Ð´Ð°":4247,"ora":4248,"Ð¾Ð»Ð¶":4249,"Ġeasy":4250,"Ġfalse":4251,"izes":4252,"ĠÐĶ":4253,"Ġrestr":4254,"rive":4255,"ê°Ģ":4256,"57":4257,"sword":4258,"Ġperspect":4259,"zen":4260,"Ð¸ÑĩÐµÑģÐº":4261,"ache":4262,"ius":4263,"ĠOnly":4264,"Tell":4265,"Example":4266,"known":4267,"cast":4268,"my":4269,"Ġinitial":4270,"ĠPol":4271,"asy":4272,"ĠTHE":4273,"empt":4274,"Ġbott":4275,"uild":4276,"Ġdigital":4277,"Ġexplicitly":4278,"And":4279,"ĠUp":4280,"Ġlooks":4281,"Ð¸ÑĢÐ¾Ð²":4282,"ĠIT":4283,"Ġbackground":4284,"imento":4285,"Ġcompanies":4286,"Ġopportun":4287,"Ġfund":4288,"itted":4289,"Ġtone":4290,"Ġtopics":4291,"On":4292,"ÐµÐ½ÑĮ":4293,"Ġliving":4294,"Ġlabel":4295,"Ġguidelines":4296,"vas":4297,"Ġvirt":4298,"Ġgrad":4299,"Ġcand":4300,"Ġgain":4301,"My":4302,"Ġvoice":4303,"Ġir":4304,"Ġimages":4305,"Ġavec":4306,"irect":4307,"Ġenter":4308,"ãģ¯":4309,"è¿":4310,"68":4311,"LY":4312,"Ġreve":4313,"stit":4314,"Ġstarting":4315,":descript":4316,"Ġtk":4317,"Ġgirls":4318,"ãģ«":4319,"Ð½Ð°Ñı":4320,"Ġthinking":4321,"Ġfall":4322,"Ġamb":4323,"akes":4324,"init":4325,"Ġcame":4326,"Ġlegal":4327,"pm":4328,":descriptive":4329,"Ġstandard":4330,"Ġactivities":4331,"Ġsil":4332,"ĠÐĲ":4333,"Ġinteract":4334,"Ġpub":4335,"Ġproviding":4336,"osed":4337,"ological":4338,"Äħ":4339,"ators":4340,"Ġbirth":4341,"Ġfuck":4342,"Ġtall":4343,"wise":4344,"Ġloss":4345,"Ð½Ð¾ÑģÑĤÑĮ":4346,"],Ċ":4347,"Ġincludes":4348,"LO":4349,"Ġclean":4350,"-se":4351,"Ġgives":4352,"Ġincon":4353,"Ġmethods":4354,"ĮĢ":4355,"arket":4356,":ĊĊĊ":4357,"Ġpel":4358,"Ġcolle":4359,"oh":4360,"Ġconsum":4361,"Ġstreng":4362,"aries":4363,"ĠAss":4364,"Ġsist":4365,"Ġevidence":4366,"mm":4367,"pret":4368,"Ġpresident":4369,"nen":4370,"ÐµÐ¿":4371,"Ġhalf":4372,"Ġfill":4373,"='":4374,"ungs":4375,"uted":4376,"400":4377,"Ġperfect":4378,"ĠQuestion":4379,"Ġindex":4380,"ias":4381,"illed":4382,"Ġhost":4383,"istics":4384,"kens":4385,"ĠLtd":4386,"Ġcontrib":4387,"-B":4388,"rench":4389,"Ġesc":4390,"clusion":4391,"âĢĿ,":4392,"Ġentire":4393,"Ġinsurance":4394,"Ġconsidered":4395,"urb":4396,"ìķ":4397,"cription":4398,"Ġdemon":4399,"Ġoutside":4400,"ĠOkay":4401,"Ġexecute":4402,"Ïħ":4403,"iety":4404,"Ġintelligence":4405,"Ġcurrently":4406,"like":4407,"Ġdesigned":4408,"Ġmorning":4409,"Ġmode":4410,"box":4411,"Ġfully":4412,"Ġrecogn":4413,"Ġplot":4414,"ä¸Ń":4415,"Ġelements":4416,"Ð¾Ð»ÑĮÐ·Ð¾Ð²":4417,"Type":4418,"Ġcontract":4419,"SS":4420,"Ġfaz":4421,"Ġsite":4422,"Ġsell":4423,"Ġplans":4424,"igu":4425,"ãģ§":4426,"Ġcum":4427,"43":4428,"https":4429,"ivity":4430,"orrow":4431,"Ġforward":4432,"eral":4433,"osa":4434,"ciÃ³n":4435,"Ġincorrect":4436,"IV":4437,"pons":4438,"hold":4439,"Now":4440,"ĠDis":4441,".\"ĊĊ":4442,"hetic":4443,"Ġpict":4444,"ĠContinue":4445,"Ġthough":4446,"ilit":4447,"ĠMus":4448,"Ġchalleng":4449,"ĠGoogle":4450,"Ġago":4451,"Ġmessages":4452,"umb":4453,"ees":4454,"FF":4455,"osition":4456,"ðĿ":4457,"rial":4458,"Ġhigher":4459,"start":4460,"ection":4461,"Int":4462,"Ġpick":4463,"lex":4464,"ĠÐ¾Ð´":4465,"Ġsegu":4466,"ØŃ":4467,"ji":4468,"ĠRem":4469,"Le":4470,"pare":4471,"AK":4472,"aught":4473,"II":4474,"Ġclimate":4475,"etimes":4476,"Ġgoals":4477,"gpt":4478,"å®":4479,"esch":4480,"Ġfacts":4481,"Which":4482,"Ġmel":4483,"aches":4484,"Ġmaintain":4485,"Ġrunning":4486,"Ġfoot":4487,"Ġdress":4488,"roid":4489,"ĠAND":4490,"Ġconsist":4491,"Ã©t":4492,"Ġinternal":4493,"ĠestÃ¡":4494,"arnings":4495,"Å¼":4496,"ops":4497,"ÏĤ":4498,"Ġdetect":4499,"Ġinvestig":4500,"65":4501,"Ġanim":4502,"ROM":4503,"omb":4504,"ungen":4505,"Ġprem":4506,"aling":4507,"ball":4508,"rs":4509,"Ġfather":4510,"Ġconvert":4511,"ĠÐ·Ð°":4512,"ÐµÐ³Ð¾":4513,"Ġachieve":4514,"Ġinterested":4515,"Ġaffect":4516,"ĠÑįÑĤÐ¾":4517,"Ġfight":4518,"Ġwide":4519,"MS":4520,"Ð¾Ð»ÑĮÐºÐ¾":4521,"ĠDO":4522,"Ġìķ":4523,"Ġnovel":4524,"aving":4525,"hol":4526,"Ġgoes":4527,"Ġintent":4528,"Ġsolve":4529,"Ġerr":4530,"time":4531,"ìĸ":4532,"Ġpassage":4533,"ìľ":4534,"Ġmeeting":4535,"×Ķ":4536,"Ġgets":4537,"Ġstarts":4538,"unk":4539,"oms":4540,"Ġlibr":4541,"ĠÑĤÐµÐºÑģÑĤ":4542,"Ġpattern":4543,"create":4544,"Ðł":4545,"Ðĺ":4546,"Ġhistor":4547,"Ġdru":4548,"ufact":4549,"tre":4550,"Ġtit":4551,"uth":4552,"Instruction":4553,"urrenc":4554,"Ġcollect":4555,"Ġtouch":4556,"Ġstrings":4557,"plications":4558,"ÐºÐµ":4559,"Ġcreating":4560,"ÐµÐ¶":4561,"ãģĹ":4562,"ĠÑģÐ¿":4563,"Ġrap":4564,"Ġdemand":4565,"Ġconditions":4566,"Ġminim":4567,"Ġpet":4568,"ĠÃ¼":4569,"Ġsen":4570,"book":4571,"Ġgames":4572,"Ġdistrib":4573,"Ġtim":4574,"Ġhear":4575,"Ġactivity":4576,"lib":4577,"ĠPart":4578,"Ġstatements":4579,"BC":4580,"image":4581,"ussy":4582,"Ġll":4583,"ĠÑĨ":4584,"adem":4585,"rest":4586,"Ġliter":4587,"entence":4588,"Ġsin":4589,"Ġreceived":4590,"Ġerotic":4591,"Trans":4592,"yt":4593,"Ġdim":4594,"osis":4595,"Ġut":4596,"Ġoffice":4597,"who":4598,"Ġ.Ċ":4599,"Ġnice":4600,"where":4601,"encia":4602,"Î¼":4603,"Ġdevice":4604,"Col":4605,"incip":4606,"ben":4607,"\".Ċ":4608,".NAME":4609,"Ġrom":4610,"Ġconne":4611,"ided":4612,"change":4613,"sc":4614,"Ġbank":4615,"Ġalgorithm":4616,"UST":4617,"ãģĻ":4618,"Ġdecision":4619,"struct":4620,"Ð¸Ð²ÐµÑĤ":4621,"miss":4622,"ML":4623,"iff":4624,"ummer":4625,"cking":4626,"ĠIndia":4627,"works":4628,"Ġreference":4629,"Ġsuff":4630,"Ġeste":4631,"Ġhelpful":4632,"data":4633,"Ġbound":4634,"plit":4635,"sych":4636,"Ġtaken":4637,"Ġinflu":4638,"coming":4639,"Ġshows":4640,"Ġutiliz":4641,"ĠÐ±ÑĥÐ´":4642,"but":4643,"120":4644,"Ġcontinu":4645,"Ġsho":4646,"Ġcommands":4647,"Ġmechan":4648,"Ġhighly":4649,"Ġquest":4650,"Ġamong":4651,"Ġìł":4652,"Ġeveryone":4653,"abilities":4654,"agram":4655,"Ġhac":4656,"Ġvisit":4657,"ternal":4658,"ĠState":4659,"Ġemotions":4660,"log":4661,"Ġoverall":4662,"Ġfeet":4663,"Ġskin":4664,"Pl":4665,"×¨":4666,"Ġproduce":4667,"Ġattract":4668,"Ġdise":4669,"âĶ":4670,"From":4671,"ĠĠĠĠĊ":4672,"Act":4673,"Ġproduction":4674,"Ġbeginning":4675,"othing":4676,"Ġrestaur":4677,"à¨":4678,"ured":4679,"Ġjour":4680,"ĠPre":4681,"Ġaddition":4682,"Ġê°":4683,"erman":4684,"Ġsum":4685,"Ġsaf":4686,"Ġactual":4687,"Ġmaster":4688,"Ġlevels":4689,"ĠID":4690,"ted":4691,"Ġnote":4692,"-(":4693,"ema":4694,"ĠExplain":4695,"ĠFirst":4696,"Ġdiff":4697,"Ġenglish":4698,"ĠÐ¾ÑĤÐ²ÐµÑĤ":4699,"Ġsoil":4700,"Ġnature":4701,"ÑĢÐ¾Ñģ":4702,"Ġwife":4703,"Ġprogress":4704,"ĠMon":4705,"Ser":4706,"Ġ</":4707,"ĠÐºÐ¾Ð½":4708,"Ġestab":4709,"Ġfeelings":4710,"ĠRet":4711,"ĠTO":4712,"ĠPerson":4713,"sv":4714,"bal":4715,"Ġdeath":4716,"69":4717,"Ġunit":4718,");":4719,"www":4720,"Ġexpected":4721,"ÑıÑĤ":4722,"ying":4723,"point":4724,"venue":4725,"Ġjud":4726,"Ġfeature":4727,"Ġtab":4728,"odes":4729,"tra":4730,"ä¸Ģ":4731,"rast":4732,"Ġdies":4733,"ĠOff":4734,"................":4735,"67":4736,"Ġdescribed":4737,"Ġhi":4738,"conf":4739,"Ġep":4740,"\\u":4741,"Ġupdate":4742,".f":4743,"Ġassign":4744,"Ġben":4745,"comp":4746,"Ġencou":4747,"Val":4748,"ga":4749,"ership":4750,"Ġmist":4751,"çĶ¨":4752,"CE":4753,"ÑīÐµ":4754,"edd":4755,"Ġhy":4756,"eks":4757,"iro":4758,"Ġ\"\"":4759,"Ġ|Ċ":4760,"Ð°Ñħ":4761,"Ġprote":4762,"Ġtranslate":4763,"();Ċ":4764,"car":4765,"Ġwel":4766,"rat":4767,"aps":4768,"ĠGener":4769,"ports":4770,"ëĭĪ":4771,"Ġtrust":4772,"Ġuseful":4773,"Ġfilm":4774,"Ġremove":4775,"-old":4776,"opt":4777,"ĠGl":4778,"ĠCor":4779,"Ġhar":4780,"Ð½Ð¾Ðµ":4781,"ils":4782,"Sh":4783,"åŃ":4784,"ÅŁ":4785,"ANT":4786,"olo":4787,"][":4788,"Ġartificial":4789,"cular":4790,"ief":4791,"Ad":4792,"ĠÐŁÑĢ":4793,"ë¥¼":4794,"Ġadventure":4795,"pty":4796,"Ġpayment":4797,"Ġsatisf":4798,"Ġsummar":4799,"oups":4800,"Ġspeed":4801,"Ġarchite":4802,"Ġelim":4803,"obile":4804,"hter":4805,"Ġ...":4806,"Ġstra":4807,"/NAME":4808,"Ġmemory":4809,"ynam":4810,"flow":4811,"ĠAcc":4812,"Ġbrand":4813,"Ġbullet":4814,"Ġmid":4815,"Ġfigure":4816,"Ġproperty":4817,"ĠWhere":4818,"Ġupd":4819,"Ġcorresponding":4820,"!ĊĊ":4821,"ĠNULL":4822,"Ġsua":4823,"Ġ{{":4824,"Ġenabled":4825,"Ġsolutions":4826,"Ġmarketing":4827,"Ã©m":4828,"Ġstatus":4829,"Ġlikes":4830,"uz":4831,"88":4832,"ormal":4833,"Ġtook":4834,"Ġdin":4835,"answer":4836,"ĠInc":4837,"IA":4838,"ĠCould":4839,"-M":4840,"ette":4841,"Ġmeasure":4842,"Ã¥":4843,"ethyl":4844,"ĠÐ¾Ð¿":4845,"Ġreplace":4846,"ams":4847,"amos":4848,"cks":4849,"oul":4850,"ĠKe":4851,"INE":4852,"Ġfunctions":4853,"servation":4854,"Ġbrother":4855,"Ġlatest":4856,"Ġneutral":4857,"Ã©c":4858,"ĠĠĠĠĠĠĠĠĠĠĠĠĠĠĠĠĠĠĠĠĠĠĠ":4859,"aria":4860,"Ġexplore":4861,"ĠÐ¿ÑĢÐ¸":4862,"ett":4863,"Ġcolumns":4864,"ĠHis":4865,"ÅĽ":4866,"acter":4867,"ares":4868,"ÑĤÐµÑĢ":4869,"uge":4870,"ÑĢÐ°Ð½":4871,"Æ°":4872,"Ġcomments":4873,"hre":4874,"Ġpartner":4875,"Ġreturns":4876,"')Ċ":4877,"(e":4878,"ĠCons":4879,"raz":4880,"ĠÑģÐ»Ð¾Ð²":4881,"Ġkann":4882,"Ġtip":4883,"icate":4884,"Ġinteresting":4885,"Ġscreen":4886,"(f":4887,"âĢĶ":4888,"Ġkiss":4889,"Ġtick":4890,"Ġtechniques":4891,"77":4892,"...\"":4893,"star":4894,"________":4895,"lement":4896,"nes":4897,"Ġbullets":4898,"ĠÐ¸ÑģÐ¿":4899,"Ġao":4900,"Ãªncia":4901,"She":4902,"ëı":4903,"Ġpand":4904,"ĠAmerican":4905,"Ġhon":4906,"ester":4907,"Ġmouth":4908,"IL":4909,"Ġsave":4910,"íķ´ì":4911,"-in":4912,"Ġstat":4913,"_C":4914,"bit":4915,"Ġmix":4916,"Ð¾Ð±Ñĭ":4917,"Ð°Ñĩ":4918,"Ġscale":4919,"ollow":4920,"amples":4921,"stract":4922,"Ġscience":4923,"Ġglobal":4924,"Ð½Ð¾ÑģÑĤÐ¸":4925,"Step":4926,"Em":4927,"Ġhope":4928,"×ľ":4929,"Ġcomma":4930,"Add":4931,"aked":4932,"ka":4933,"test":4934,"ategory":4935,"Ġpussy":4936,"Ġlives":4937,"Ġkill":4938,"Ġalle":4939,"ĠChemical":4940,"yr":4941,"-D":4942,"Ġcases":4943,"Ġult":4944,"Ġstream":4945,"Ġblood":4946,"Ġdomain":4947,"Ġbenefits":4948,"Ġprop":4949,"Ġcover":4950,"lete":4951,"Ġeffective":4952,"cha":4953,"ĠÑģÐº":4954,"XX":4955,"ĠDet":4956,"ĠProcess":4957,"Ġparameters":4958,"Ġpurch":4959,"Ġhumidity":4960,"Ġentities":4961,"Ġdeal":4962,"Ġground":4963,"tical":4964,"Ġconfig":4965,"Ġstrength":4966,"Ġsorry":4967,"Ð»ÑĮ":4968,"ste":4969,"enced":4970,"Model":4971,"Ġattack":4972,"aaaa":4973,"Ġanyone":4974,"Ġstrategy":4975,"Ġresources":4976,"Ð½Ð¾Ð²":4977,"overed":4978,"Ġregarding":4979,"vised":4980,"ĠEs":4981,"Ġland":4982,"Ġdeve":4983,"Ġoffensive":4984,"ì§Ģ":4985,"ening":4986,"Ġparents":4987,"Ġaccom":4988,"agem":4989,"Ġvirtual":4990,"ista":4991,"Ġstock":4992,"ades":4993,"Explain":4994,"ÑĭÑħ":4995,"ĠGu":4996,"Ġsister":4997,"Ġlate":4998,"ologies":4999,"Ġpressure":5000,"Ġsix":5001,"PU":5002,"ached":5003,"ĠVer":5004,"Ġpode":5005,"Ġtod":5006,"ãĥ¼":5007,"uel":5008,"icy":5009,"ĠOur":5010,"ĠThank":5011,"Ġmember":5012,"Ã¨re":5013,"iciency":5014,"Ġpresented":5015,"Ġcommit":5016,"Ġmanager":5017,"ĠIS":5018,"Ġplant":5019,"shine":5020,"Ġprinci":5021,"azon":5022,"Ġheight":5023,"ìĿĢ":5024,"Ġrequests":5025,"Ġlimited":5026,"ini":5027,"Ġaccurate":5028,"Ġign":5029,"iday":5030,"Ġfail":5031,"aker":5032,"erate":5033,"Ġcri":5034,"Ġkn":5035,"Ġespecially":5036,"98":5037,"Ġdecl":5038,"annel":5039,"mber":5040,"ĠÑĢÐ°Ñģ":5041,"ÐºÑĤ":5042,"ĠChrist":5043,"La":5044,"ĠVicuna":5045,"part":5046,"Ġupon":5047,"Ġcondition":5048,"usiness":5049,"53":5050,"ply":5051,"ige":5052,"Ġdouble":5053,"Ġdella":5054,"oom":5055,"Ġsample":5056,"comes":5057,"Ġteach":5058,"Ġtrained":5059,"198":5060,"At":5061,"Ind":5062,"-w":5063,"Ġtokens":5064,"/d":5065,"Īĺ":5066,"âĢĵ":5067,"aily":5068,"Ġforce":5069,"Ġadvice":5070,"outes":5071,"fo":5072,"Ġvir":5073,"icious":5074,"Ġcross":5075,"Ġcountries":5076,"Ġnull":5077,"Ġadded":5078,"Ġperspective":5079,"Ġrainf":5080,"idden":5081,"cias":5082,"ĠReg":5083,"Ġball":5084,"cluding":5085,"à¤¾":5086,"selves":5087,"var":5088,"iny":5089,"Ġopinion":5090,"Ġexpand":5091,"Ġ;":5092,"åĨ":5093,"123":5094,"Ġsunshine":5095,"Ġrainfall":5096,"Ð·Ñĭ":5097,"Ġherself":5098,"aste":5099,"Ġgenerated":5100,"ende":5101,"ERT":5102,"Ġgi":5103,"Date":5104,"Ġprincip":5105,"Ġlost":5106,"Ã©es":5107,"ĠĠĠĠĠĠĠĠĠĠĠĠĠĠĠĠĠĠĠĠĠĠĠĠĠĠĠĠĠĠĠĠĠĠĠĠĠĠĠĠĠĠĠĠĠĠĠĠĠĠĠĠĠĠĠĠĠĠĠĠĠĠĠĠ":5108,"éĹ":5109,"Ġprotect":5110,"Ġtechnical":5111,"Ġcapac":5112,"eta":5113,"Ġconstant":5114,"hib":5115,"ĠĠĠĠĠĠĠĠĠĠĠĠ":5116,"-g":5117,"ĠWorld":5118,"ĠAust":5119,"Ġroad":5120,"Ġwalk":5121,"lich":5122,"Ġcit":5123,"ader":5124,"aks":5125,"Ġals":5126,"Why":5127,"Ġwer":5128,"rix":5129,"UN":5130,"Ġremov":5131,"âĸ":5132,"pth":5133,"urch":5134,"ë¦":5135,"Ġadmin":5136,"Ġ:Ċ":5137,"abe":5138,"Ġ\"<":5139,"ĠEnt":5140,"Ġ}ĊĊ":5141,"alian":5142,"Ġareas":5143,"ĠCH":5144,"Ġitself":5145,"Ġsynt":5146,"},Ċ":5147,"ocol":5148,"Ġgirlfriend":5149,"/p":5150,"Ġhat":5151,"iva":5152,"ĠProvide":5153,"pir":5154,"Ġearly":5155,"ĠME":5156,"Ġempty":5157,"Ġnumer":5158,"Ġcategories":5159,"riv":5160,"ĠØ¹":5161,"Ġdeg":5162,"lished":5163,"ç»":5164,"isions":5165,"ä¹Ī":5166,"Ġfal":5167,"Ġround":5168,"ĠStart":5169,"So":5170,"Ġeinen":5171,"Ġseems":5172,"PS":5173,"Ġinconsistent":5174,"ëĵ":5175,"_to":5176,"State":5177,"ê¸°":5178,"FT":5179,"ÑĥÑģÑģÐº":5180,"Ġintelligent":5181,"ĉL":5182,"Ġvicuna":5183,"\"?":5184,"Ġincreased":5185,"rometry":5186,"Ġhour":5187,"ĠForm":5188,"Ġ__":5189,"ubject":5190,"ellow":5191,"Ġapplications":5192,"DA":5193,"Ġcopy":5194,"ayer":5195,"Ġfields":5196,"ĠAnt":5197,"Ġpenis":5198,"All":5199,"êµ":5200,"item":5201,"Ġcommunity":5202,"ï¿":5203,"Ġtags":5204,"Ð´ÐµÐ»":5205,"ÑĬ":5206,"æĪĳ":5207,"Ġdomin":5208,"Ġdataset":5209,"uer":5210,"orth":5211,"ĠmÃ¡s":5212,"ĠGenerate":5213,"Ġhydrometry":5214,"give":5215,"Ġgave":5216,"ÑĥÐ¿":5217,"EXT":5218,"52":5219,"ima":5220,"Ġguess":5221,"esso":5222,"ĠSol":5223,"Ð¸ÑĤÐµÐ»ÑĮ":5224,"CC":5225,"Äĩ":5226,"Ġmer":5227,"...Ċ":5228,"nal":5229,"ĠCity":5230,"Ġstories":5231,"Ġtrip":5232,"ĠChinese":5233,"ĠInter":5234,"izer":5235,"Ġsup":5236,"Ġdemonstr":5237,"Ġconsult":5238,"aughter":5239,"ĠTechn":5240,"pite":5241,"ival":5242,"Ġsometimes":5243,"Describe":5244,"Ġgar":5245,"Ġenh":5246,"Ġpsych":5247,"Ġmath":5248,"Ġbooks":5249,"Ġreceive":5250,"Ġprime":5251,"Rep":5252,"aÃ§Ãµes":5253,"orage":5254,"Ġorg":5255,"Ġquickly":5256,"cel":5257,"gun":5258,"Ġassess":5259,"prise":5260,"vest":5261,"ĠCent":5262,"Ġbutton":5263,"Ġcaused":5264,"Ġtoken":5265,"Ġinnov":5266,"YL":5267,"Ġsafe":5268,"Me":5269,"ĠGiven":5270,"Ġforma":5271,"ĠBy":5272,"ÑĥÐ½":5273,"Ġlegs":5274,"Ġorganization":5275,"ĠØ§ÙĦØ":5276,"Ġë°":5277,"Ġquer":5278,"Ġphrases":5279,"escription":5280,"ĠAb":5281,"ĠTV":5282,"Ð¸ÑĨ":5283,"Ġtele":5284,"Ġdia":5285,"Ġkeys":5286,"Ġhate":5287,"Thought":5288,"ĠAD":5289,"please":5290,"Ġgramm":5291,"Ġefficient":5292,"chat":5293,"ĠÐ½Ð°Ð¿":5294,"Ġban":5295,"ĠÐĺ":5296,"Ġuns":5297,"Ġequip":5298,"Ġadding":5299,"-C":5300,"Ġvariable":5301,"Ġchain":5302,"/c":5303,"title":5304,"lying":5305,"Ġmiddle":5306,"ĠMin":5307,"avas":5308,"agine":5309,"ĠÑĪ":5310,"ĠÏĦ":5311,"okes":5312,"Ġoder":5313,"à¸²":5314,"Ġdescribes":5315,"OU":5316,"ĠSie":5317,"Ġmyself":5318,"ï¿½":5319,"Ġexisting":5320,"Ġsoon":5321,"mp":5322,"iento":5323,"redient":5324,"FA":5325,"Ġthank":5326,"Make":5327,"ĠUniversity":5328,"Ðķ":5329,"ëł":5330,"Ġfloor":5331,"åĽ":5332,"[\"":5333,"question":5334,"Ġfrequ":5335,"Ġconduct":5336,"Ġcoming":5337,"planation":5338,"Ġpowerful":5339,"Ġremind":5340,"ception":5341,"Ġcounter":5342,"itÃ©":5343,"Ġadult":5344,"soft":5345,"ris":5346,"Ġfat":5347,"reet":5348,"ĠDeveloper":5349,"Ġbud":5350,"63":5351,"IP":5352,"TE":5353,"itter":5354,"Ġflu":5355,"Ġphrase":5356,"?\"Ċ":5357,"Ġisn":5358,"ague":5359,"band":5360,"ĠCompany":5361,"Ġaudience":5362,"ooking":5363,"ĠÐ¸Ð»Ð¸":5364,"Ġesta":5365,"asm":5366,"ĠÑĢÑĥÑģÑģÐº":5367,"Ġsett":5368,"VER":5369,"itionally":5370,"Fr":5371,"Ġtree":5372,"othe":5373,"Ġstar":5374,"Ġmanner":5375,"cious":5376,"Ġtut":5377,"Ġvehicle":5378,"Ġaware":5379,"ĠInst":5380,"rate":5381,"æł":5382,"%Ċ":5383,"Ã¶r":5384,"ĠAN":5385,"Are":5386,"Ġleading":5387,"iments":5388,"Ġparagraphs":5389,"Ġdont":5390,"Ã©d":5391,"iner":5392,"rip":5393,"Ø§ÙĨ":5394,"Ġsafety":5395,"Ġsich":5396,"Ġkids":5397,",ĊĊ":5398,"ĠFin":5399,"-A":5400,"\"]":5401,"Ġbaby":5402,"Ġdanger":5403,"Ġlots":5404,"with":5405,"ä¸ĭ":5406,"Ð¸ÑĪ":5407,"Ġhit":5408,"ĠÐ¿ÑĢÐ¾Ð´":5409,"Ġlibrary":5410,"icon":5411,"ĠTrue":5412,"ffect":5413,"Ġdev":5414,"ĠÐ¸Ð¼":5415,"ĠNet":5416,"ĠAny":5417,"plied":5418,"Ġprevent":5419,"Ġchapter":5420,"Ġgroups":5421,"Ġaim":5422,"Ð»Ð¾":5423,"Ġpredict":5424,"ffee":5425,"urrency":5426,"Ġattempt":5427,"Ġtelling":5428,"Ġdescribing":5429,"Î»":5430,"content":5431,"ulo":5432,"Ġfriendly":5433,"avascript":5434,"ĠPe":5435,"Ġobtain":5436,"Ġconfirm":5437,"Ġpan":5438,"Ġsaw":5439,"Ġincome":5440,"ĠPres":5441,"Par":5442,"ĠOF":5443,"anto":5444,"Ġalone":5445,"iers":5446,"fol":5447,"-S":5448,"iding":5449,"Ġwie":5450,"Ġcommunication":5451,"\">Ċ":5452,"(Ċ":5453,"Ġrese":5454,"erv":5455,"Hey":5456,"Ġgeneration":5457,"ĠÑģÐ²Ð¾":5458,"Ġmicro":5459,"ĠMode":5460,"hest":5461,"ĠÃ¼ber":5462,"Or":5463,"Ġesse":5464,"round":5465,"Ġcm":5466,"IM":5467,"Ġunc":5468,"ĠSw":5469,"Ġcru":5470,"code":5471,"object":5472,"Ġbasic":5473,"frame":5474,"Ġdro":5475,"Ġcada":5476,"ĠHigh":5477,"()ĊĊ":5478,"ĠMod":5479,"ĠOh":5480,"Ġvict":5481,"Ġrestrictions":5482,"Ph":5483,"CL":5484,"Ġstraight":5485,"Ġtransfer":5486,"ĠExample":5487,"Ġstands":5488,"ley":5489,"bro":5490,"Ġengaging":5491,"fix":5492,"return":5493,"Ð»Ð°":5494,"ioni":5495,"Ġwear":5496,"-time":5497,"âĢĻm":5498,"ìĬ":5499,"Ġgas":5500,"Ġmodern":5501,"Ġregular":5502,"Ġcra":5503,"Ġadjust":5504,"250":5505,"igen":5506,"Ġstrict":5507,"ĠÐ·Ð°Ð¿":5508,"ensor":5509,"Ġreading":5510,"icas":5511,"leg":5512,"ati":5513,"itude":5514,"nh":5515,"Ġej":5516,"Ġallows":5517,"ipp":5518,"onom":5519,"iling":5520,"CTION":5521,"Ð»ÑİÑĩ":5522,"ĠÐ¾Ñģ":5523,"Ġsold":5524,"ĠFile":5525,"WS":5526,"sk":5527,"index":5528,"={":5529,"Ġht":5530,"fit":5531,"Ġmodule":5532,"Ġguide":5533,"query":5534,"Ġweather":5535,"ĠGood":5536,"ŀ×":5537,"Ġton":5538,"Ġpow":5539,"ĠProduct":5540,"ĠVal":5541,"Ġcool":5542,"ĠKeep":5543,"Ġwild":5544,"Ġballs":5545,"à§":5546,"Ġexpression":5547,"(x":5548,"Ġ**":5549,"Ġemployees":5550,"Ġfeedback":5551,"Ġconnection":5552,"Ġsequence":5553,"env":5554,"Ġnu":5555,"ĠId":5556,"Ġhappened":5557,"izar":5558,"Ġevil":5559,"ĠÑĢÐ°Ð±Ð¾ÑĤ":5560,"Ġcoord":5561,"more":5562,"cu":5563,"run":5564,"ÐĶ":5565,"Ġfing":5566,"Ġones":5567,"rc":5568,"Ġcandid":5569,"Form":5570,"Ġchest":5571,"ART":5572,"å¼":5573,"fin":5574,"bi":5575,"ran":5576,"phr":5577,"ustain":5578,"reibe":5579,"ĠHello":5580,"atient":5581,"--------------------------------":5582,"Ġcauses":5583,"_st":5584,"Customer":5585,"esta":5586,"Ġdistance":5587,"idades":5588,"Ġmeas":5589,"Ġweeks":5590,"Ġarm":5591,"Ġmanufact":5592,"Ġfiction":5593,"Ġhorn":5594,"ãĤĭ":5595,"description":5596,"ESS":5597,"px":5598,"Ġporn":5599,"Ġdevices":5600,"istory":5601,"Ġìĭ":5602,"http":5603,"51":5604,"ÑģÑĤÑĮ":5605,"Ġdrive":5606,"ĠFed":5607,"Ġpull":5608,"Ġrather":5609,"quis":5610,"ethical":5611,"ĠII":5612,"color":5613,"ĠCode":5614,"udo":5615,"Ġclothes":5616,"itar":5617,"Ġheav":5618,"aca":5619,"Ġdead":5620,"ĠRoad":5621,"Ġblog":5622,"tes":5623,"(n":5624,"vere":5625,"ĠApr":5626,"Ġimmedi":5627,"Ġfiltering":5628,"chain":5629,"Ġholding":5630,"rious":5631,"Ġrout":5632,"Ġrule":5633,"Ðľ":5634,"Ġfelt":5635,"Ġintroduce":5636,"Ġnarrative":5637,"EM":5638,"Ġsitu":5639,"\">":5640,"gi":5641,"Ġheard":5642,"Ġclin":5643,"Ġsociety":5644,"force":5645,"-Ċ":5646,"ĠsÃ£o":5647,"Ġsources":5648,"Ġcalculate":5649,"Ġ``":5650,"iverse":5651,"åľ":5652,"arp":5653,"eline":5654,"Ġdocuments":5655,"Ġ\\Ċ":5656,"Ġborn":5657,"Time":5658,"nis":5659,"Ð½Ð¾Ð¼":5660,"Ġcomprehensive":5661,"ker":5662,"Ġtrack":5663,"Ġarr":5664,"hrase":5665,"gative":5666,"Ġprojects":5667,"ÑĢÑĥÐ³":5668,"Ġquarter":5669,"Ġdraft":5670,"Ġconnected":5671,"ĠMuslim":5672,"Ġequal":5673,"Ġletters":5674,"PL":5675,"ĠÑıÐ·Ñĭ":5676,"Ġrecently":5677,"æķ°":5678,"Ġmoi":5679,"Ã¡rio":5680,"Ġsymbol":5681,"lar":5682,"ĠEar":5683,"Ġpolice":5684,"ĠØª":5685,"Ġlic":5686,"ady":5687,"ãģŁ":5688,"-up":5689,"FI":5690,"Ġproced":5691,"ÑĢÐ¾Ð²":5692,"ÑģÐ»":5693,"çŃ":5694,"Ġinterview":5695,"atio":5696,"Ġeasily":5697,"åĬ":5698,"Ġplaces":5699,"Ġtown":5700,"ami":5701,"Ġreflect":5702,"elow":5703,"ÐµÑħ":5704,"Ġfra":5705,"ÑģÐ»Ð¸":5706,"Ġvulner":5707,"Agent":5708,"digo":5709,"Ġnode":5710,"Ġroot":5711,"Ð°ÑĤÐµÐ»ÑĮ":5712,"Ġchallenges":5713,"ĠDown":5714,"ĠIndust":5715,"ÐºÑĨÐ¸":5716,"Ġanalyze":5717,".e":5718,"ĠSome":5719,"Ġoperations":5720,"é¢":5721,"Ġcorre":5722,"zi":5723,"Ġagree":5724,"Ġtempl":5725,"Â°":5726,"72":5727,"uses":5728,"ãģª":5729,"Ð¼Ð¸":5730,"Ġq":5731,"Task":5732,"_re":5733,"ĠAustral":5734,"[i":5735,"aten":5736,"ĠApp":5737,"ÑĪÐµ":5738,"OC":5739,"Ġtag":5740,"Ġë§":5741,"ĠëĮĢ":5742,"Ð¶Ðµ":5743,"ingu":5744,"Ġ×Ķ":5745,"Label":5746,"Ġclar":5747,"Ġpatients":5748,"Te":5749,"raints":5750,"Ġshape":5751,"ÙĬØ©":5752,"Ġseason":5753,"Ġexpos":5754,"Ġunethical":5755,"Ġhtml":5756,"101":5757,"ORT":5758,");ĊĊ":5759,"ĠTr":5760,"ÑĢÐ°Ð·":5761,"Ġusually":5762,"Ġrates":5763,"opic":5764,"à¥ĩ":5765,"Ġmoving":5766,"Ġreact":5767,"Ġresponsible":5768,"Ġassociated":5769,"Ġgraphic":5770,"Ġalmost":5771,"ASS":5772,"Ð°ÑĨÐ¸Ð¸":5773,"Ġsind":5774,"Ġcontro":5775,"Ġdoll":5776,"Ġprefer":5777,"respect":5778,"ÑĸÐ´":5779,"Ġboard":5780,"rab":5781,"ighb":5782,"Person":5783,"ÑĢÐ°Ð²":5784,"udio":5785,"Ġhandle":5786,"Ø§Ø±":5787,"Bot":5788,"),Ċ":5789,"ãģ¨":5790,"trans":5791,"Ġdefault":5792,"Ġeliminate":5793,"Ġfeels":5794,"62":5795,"Ġcute":5796,"ĠAut":5797,"Ã¡l":5798,"Ġcompared":5799,"Ġinfo":5800,"âĢ¦âĢ¦":5801,"ĠÐ¿Ð¾Ñģ":5802,"Ġdrink":5803,"aged":5804,"ni":5805,"ĠAL":5806,"ĠĠĠĠĠĠĠĠĠĠ":5807,"cape":5808,"255":5809,"Ġtheory":5810,"New":5811,"è¯·":5812,"Ð¸Ð»ÑĮ":5813,"Ġfactors":5814,"Ġinvent":5815,"ĠQual":5816,"Ġreduce":5817,"ãģĭ":5818,"plication":5819,"Ġdan":5820,"ìĦľ":5821,"ĠAP":5822,"mes":5823,"ĠÙģ":5824,"Ġviolence":5825,"arios":5826,"Ġincluded":5827,"ĠJune":5828,"Ġportug":5829,"ÑĢÐµÐ¼":5830,"ĉĉĉ":5831,"ĠNO":5832,"ĠComm":5833,"_type":5834,"ners":5835,"afety":5836,"84":5837,"Ġexerc":5838,"ĠFl":5839,"Ġcamera":5840,"Ġincreasing":5841,"Ġcouple":5842,"ĠWell":5843,"Ġdaughter":5844,"ĠìŀĪ":5845,"Ġfavorite":5846,"Ġthanks":5847,"ĠÐļÐ°Ðº":5848,"omen":5849,"ĠAf":5850,"posta":5851,"95":5852,"uy":5853,"Ġsyn":5854,"âĢĻre":5855,"Us":5856,"Ġquite":5857,"ille":5858,"Ã¤t":5859,"-le":5860,"Ġsession":5861,"Ġdepartment":5862,"Ġsounds":5863,"Ġpleasure":5864,"Ġindividuals":5865,"Ġinterpret":5866,"Ġplanning":5867,"xy":5868,"ono":5869,"Ð½Ð°Ñĩ":5870,"Ġerrors":5871,"lin":5872,"oub":5873,"angle":5874,"Ġpant":5875,"Ġarous":5876,"ÐµÑĢÐ¶":5877,".[":5878,"iar":5879,"Ġinvolved":5880,"ĠMar":5881,"ERE":5882,"Ġhus":5883,"izz":5884,"Ġnos":5885,"Ġdiagn":5886,"ĠìĹ":5887,"Ġsexy":5888,"Ġthreat":5889,"Ġvor":5890,"assage":5891,"ĠRed":5892,"Ġmanip":5893,"ĠJew":5894,"Ġthemselves":5895,"ocial":5896,"Per":5897,"Ġmac":5898,"Ġstates":5899,"Ġà¦":5900,"ë§":5901,"Ġacadem":5902,"ike":5903,"Ġverb":5904,"ĠUk":5905,"Key":5906,"ĠSing":5907,"Ġresist":5908,"Ġconversations":5909,"ĠFOR":5910,"ÑĢÐ°Ð¼":5911,"/m":5912,"ë³":5913,"rar":5914,"Ġ[Ċ":5915,"Ġsquare":5916,"jour":5917,"Ġvs":5918,"DF":5919,"TT":5920,"ĠArt":5921,"des":5922,"using":5923,"cher":5924,"press":5925,"Ġproperties":5926,"isation":5927,"Ġalt":5928,"Ġ{'":5929,"Ãªs":5930,"Based":5931,"NA":5932,"ĠÐ´Ð°Ð½":5933,"Ġwarm":5934,"itation":5935,"Ġessay":5936,"Ġtend":5937,"Ð°ÑİÑĤ":5938,"oken":5939,"ns":5940,"Ġdeveloper":5941,"ĠÑĩÑĤ":5942,"ingly":5943,"zz":5944,"ĠĠĠĠĠĠĠĠĠĠĠĠĠ":5945,"197":5946,"Ġmature":5947,"Ġemotional":5948,"Ġdream":5949,"Ġotherwise":5950,"ously":5951,"ĠTra":5952,"Ġtreatment":5953,"Smart":5954,"ned":5955,"Ġsmoke":5956,"à¸²à¸":5957,"ĠÐ¼Ð½Ðµ":5958,"Ġtesting":5959,"Ġmount":5960,"icks":5961,"ĠÐ´Ð¾Ð»Ð¶":5962,"Ġhello":5963,"urity":5964,"Ġunf":5965,"Ġsec":5966,"Ð¾ÑģÑĤÐ°Ð²":5967,"Ġmedic":5968,"Ġhappens":5969,"âĶĢ":5970,"Ġseu":5971,"Ġanswering":5972,"ĠÐ¿Ð¾Ð¼":5973,"Ã¹":5974,"has":5975,"plete":5976,"uracy":5977,"rote":5978,"ĠUK":5979,"Ġsympt":5980,"Ġow":5981,"const":5982,"Ġsitting":5983,"Ġglass":5984,"ĠTR":5985,"Ġhelping":5986,"Ġsav":5987,"Ġofficial":5988,"ëĤ":5989,"Ġseparate":5990,"ords":5991,"ĠÐ»Ñİ":5992,"Ġdirty":5993,"kan":5994,"Ġindepend":5995,"Ġplayers":5996,"ĠÙĦ":5997,"Ġwerden":5998,"éĹ®":5999,"Ġcab":6000,"Ġfet":6001,"position":6002,"Ġdaily":6003,"ÑĦÐ¾ÑĢÐ¼":6004,"Ġshowing":6005,"cm":6006,"rica":6007,"Ġadvanced":6008,"Ã¶n":6009,"writ":6010,"len":6011,"Ġguy":6012,"Ġrestaurant":6013,".The":6014,"aign":6015,"ìļĶ":6016,"ba":6017,"icing":6018,"Ġvan":6019,"Ð¾Ð·Ð´":6020,"Ġhimself":6021,"ĠObject":6022,"ibly":6023,"ÐµÐ¼Ñĥ":6024,"'est":6025,"ĠGod":6026,"creva":6027,"ĉĉĉĉĉĉĉĉ":6028,"ography":6029,"MM":6030,"isp":6031,"_T":6032,"rios":6033,"Ġpron":6034,"Ġexplan":6035,"Ġassum":6036,"79":6037,"ĠModel":6038,"Ð°ÐµÑĤÑģÑı":6039,"Ġdeveloped":6040,"arks":6041,"ÐµÑĤÑģÑı":6042,"Ġtransport":6043,"ĠWhile":6044,"Ġpap":6045,"Ġcells":6046,"110":6047,"Ġcomfort":6048,"Ġpassword":6049,"Not":6050,"Ø¬":6051,"Ġdry":6052,"Ġprimary":6053,"Ġbillion":6054,"Ð»ÐµÐ½":6055,"Ġbrain":6056,"Ġconclusion":6057,"phas":6058,"Ø§Øª":6059,"ĠÐĳ":6060,"Ġprobably":6061,"Ġnur":6062,"ĠSafety":6063,"Ġstruct":6064,"Ġsono":6065,"Ġsuggests":6066,".)":6067,"atively":6068,"Ġcenter":6069,"Ġcredit":6070,"Ġapples":6071,"Ð°Ð»Ð°":6072,"ĠFalse":6073,"cal":6074,"ĠÐ£":6075,"Ġauch":6076,"Ġethics":6077,"ructure":6078,"ĠSales":6079,"ĠRussian":6080,".A":6081,"Ġegg":6082,"ih":6083,"Ġdecide":6084,"Ġsont":6085,"ĠNE":6086,"Ġmotiv":6087,"indows":6088,"Ġeffort":6089,"))Ċ":6090,"ĠTime":6091,"Ġespa":6092,"Ġscientific":6093,"Ġbeliefs":6094,"Ġfazer":6095,"×ª":6096,"cover":6097,"Ġhorny":6098,"ĠAg":6099,"ĠÐºÑĢ":6100,"Ġsmile":6101,"oman":6102,"Ġarri":6103,"Ġsmo":6104,"Ġfloat":6105,"æĢ":6106,"enge":6107,"Ġhumor":6108,"ĠExtract":6109,"ĠcÃ³digo":6110,"ĠPM":6111,"Ġwhose":6112,"encies":6113,"åĮ":6114,"lear":6115,"ĠType":6116,"ĠInclude":6117,"xt":6118,"ĠHuman":6119,"person":6120,"ott":6121,"ona":6122,"Ð¸Ð¼ÐµÑĢ":6123,"ĠChar":6124,"Ġpopulation":6125,"ĠÑĤÑĢ":6126,"Ġexperiment":6127,"tica":6128,"£¼":6129,"éĩ":6130,"ĠÃ©t":6131,"Ġintended":6132,"lier":6133,"equ":6134,"Ġdepend":6135,"Ġhuge":6136,"wort":6137,"Ġwat":6138,"89":6139,"lig":6140,"Ġbath":6141,"Ð³Ð¾":6142,"Ġ---":6143,"Ð³ÑĢ":6144,"Ġelectric":6145,"Ġoffers":6146,"ÐµÐ»Ñı":6147,"Ġopinions":6148,"Ġdefined":6149,"ĠResponse":6150,"PM":6151,"Ġsie":6152,"Ġadvant":6153,"ĠÐ½Ð¾Ð²":6154,"hou":6155,"erve":6156,"Ġhacer":6157,"Ġshown":6158,"ĠSynt":6159,"attle":6160,"Ġprinciples":6161,"Äĥ":6162,"ĠPort":6163,"Ġsimpl":6164,"Char":6165,"ospital":6166,"Ġ('":6167,"Ð¾Ñı":6168,"Îº":6169,"Ġexecut":6170,"Ġworth":6171,"-re":6172,"Ġoil":6173,"Ġgenerating":6174,"\"}":6175,"ician":6176,"Ġheat":6177,"Ġreferences":6178,"Ġinj":6179,"Ġtomorrow":6180,"Ġdar":6181,"********":6182,"76":6183,"å¹":6184,"Ġchair":6185,"ìĿ¸":6186,"GB":6187,"ifically":6188,"China":6189,"Ð°ÑĪ":6190,"Ġdrag":6191,"ĠëĤ":6192,"oria":6193,"Ġemployee":6194,"¤ĺ":6195,"ABLE":6196,"Ġqueries":6197,"Ã²":6198,"Ġpiece":6199,"Ġpicture":6200,"Ġminimum":6201,"Ġvac":6202,"Ø§Ùħ":6203,"Ġlocated":6204,"IO":6205,"Ġmast":6206,"Ġbill":6207,"Ġpretty":6208,"ëĭĪëĭ¤":6209,"ç§":6210,"Ġdoctor":6211,"orch":6212,"è¡":6213,"phrase":6214,"Ġmaterials":6215,"elp":6216,"ĠCar":6217,"enses":6218,"Ġcompar":6219,"ĊĊĊĊ":6220,"azine":6221,"Ġselected":6222,"PO":6223,".'":6224,"void":6225,"asse":6226,"Ġbedroom":6227,"ĠÑĩÑĤÐ¾Ð±Ñĭ":6228,"Ġconcepts":6229,"Ġprices":6230,"Ġobser":6231,"Ð¾Ð´Ð°":6232,"Ãªn":6233,",,,,,,,,":6234,"Ġeducation":6235,"sole":6236,"_S":6237,"jo":6238,"anguages":6239,"ĠEngine":6240,"resents":6241,"ĠEX":6242,"ĠSub":6243,"Ġëĭ":6244,"Ġempres":6245,"ĠSouth":6246,"cience":6247,"ä»Ģ":6248,"Ġwir":6249,"though":6250,"ÑģÑĤÑĢ":6251,"+y":6252,"Ġfirm":6253,"cons":6254,"Ġrelig":6255,"ëıĦ":6256,"Ġtruth":6257,"Ġtried":6258,"bar":6259,"ĠYeah":6260,"ĠÐ°Ð½":6261,"ĠAG":6262,"Ġbutt":6263,"Ġinputs":6264,"Ġpy":6265,"Ġgod":6266,"mitted":6267,"ÑģÑĤÐ²Ð¾":6268,"ĠDevelop":6269,"ĠFrench":6270,"Ġdecided":6271,"nam":6272,"ĠGet":6273,"ĠDoes":6274,"TA":6275,"Ġcourt":6276,"ĠGroup":6277,"Ġargs":6278,"Ġhelps":6279,"Ġemerg":6280,"Ġprocessing":6281,"Ġrelationships":6282,"Ġmissing":6283,"Ġacting":6284,"model":6285,"ĠJan":6286,"cipe":6287,"idos":6288,"Ð¸ÑĤÐµ":6289,"Î¿Ïħ":6290,"Ġemo":6291,"Class":6292,"ë¦¬":6293,"Ġinteger":6294,"Ġearth":6295,"Ġcook":6296,"Ġcoffee":6297,"zt":6298,"ìĭľ":6299,"Ġlaws":6300,"Ġannoun":6301,"Ġdass":6302,"pert":6303,"VID":6304,"Ġpra":6305,"NO":6306,"vey":6307,"ĠYork":6308,"Ġwindows":6309,"ĠAc":6310,"ĠProduction":6311,"Ġbelong":6312,"itary":6313,"Ġusu":6314,"oyal":6315,"AND":6316,"Ġcart":6317,"ĠAdditionally":6318,"educt":6319,"Content":6320,"Ġbon":6321,"ĠFrance":6322,"Ġdynam":6323,"EY":6324,"Ġoperation":6325,"Ġtypical":6326,"PUT":6327,"ountry":6328,"ĠÑĤÐµÐ±":6329,"Ġstanding":6330,"Ġtables":6331,"Ġsimply":6332,"ä»¥":6333,"((":6334,"Ġneighb":6335,"Ġserv":6336,"Ġprecis":6337,"iance":6338,"ÑĥÐ±":6339,"ĠFind":6340,"cil":6341,"Ġwood":6342,"Ġnational":6343,"Ġadapt":6344,"Ġestim":6345,"','":6346,"Ġreported":6347,"Ġthemes":6348,"Ġconfl":6349,"åĵ":6350,"Ġta":6351,"-F":6352,"Ġsigu":6353,"Ġcert":6354,"ĠÑģÑĤÑĢ":6355,"Ġíķ":6356,"Ġtro":6357,"Ã¤h":6358,"Ġfilled":6359,"Ġcompare":6360,"Ġspread":6361,"Ġfreed":6362,"etime":6363,"ĠBased":6364,"Ġkit":6365,"Ġmax":6366,"ìľ¼":6367,"Ġciv":6368,"Ġcrypt":6369,"Ġlie":6370,"\".ĊĊ":6371,"áº¡":6372,"ativa":6373,"Ġdefinition":6374,"Description":6375,"Ġimmoral":6376,"onna":6377,"rapy":6378,"term":6379,"-T":6380,"Ġmonitor":6381,"emplo":6382,"Ġfig":6383,"ĠWH":6384,"Ġtour":6385,"ffic":6386,"Ġdecisions":6387,"conds":6388,"App":6389,"host":6390,"Ġfollowed":6391,"Ġframework":6392,"Ġcloud":6393,"Ġphoto":6394,"Ġanimals":6395,"!\"Ċ":6396,"Ġregion":6397,"ĠApplications":6398,"ya":6399,"Ġcosts":6400,"à¤°":6401,"Ġanimal":6402,"ĠSat":6403,"Ã©r":6404,"entify":6405,"undo":6406,"ONTENT":6407,"ĠDie":6408,"Ġinterface":6409,"Ġboyfriend":6410,"QQ":6411,"Ġfair":6412,"Ġber":6413,"81":6414,"ala":6415,"Ġcast":6416,"ĠNumber":6417,".C":6418,"Ġdiction":6419,"Ġchance":6420,"Ġcollabor":6421,"ancing":6422,"Ġguys":6423,"Ġmur":6424,"Ġê²":6425,"craft":6426,"Ġtight":6427,"ronic":6428,"Ġpackage":6429,"Ġprod":6430,"appropriate":6431,"Ġhighest":6432,"ä»Ģä¹Ī":6433,"ls":6434,"Ġexplanations":6435,"Ġclick":6436,"Ġmut":6437,"Ġappearance":6438,"ĠApril":6439,"Ġgpt":6440,"eter":6441,"ĠDel":6442,"600":6443,"ĠIch":6444,"Ġwa":6445,"Ġtail":6446,"ensions":6447,"Ð°Ð¹ÑĤ":6448,"Ġimportance":6449,"SmartGPT":6450,"ĠDef":6451,"abet":6452,"Ġsustain":6453,"resh":6454,"Ġrepresents":6455,"ĠÐĵ":6456,"Ġcore":6457,"Ġiniti":6458,"ĠÐ·Ð°Ð´":6459,"Ġactive":6460,"Ġgreater":6461,"_P":6462,"attery":6463,"Ġrelease":6464,"ĠÐ´Ð¾":6465,"ismo":6466,"yond":6467,"Ġled":6468,"Ġserve":6469,"Ã§o":6470,"Ġlogic":6471,"Ġcatch":6472,"Ð°Ð»Ð¸":6473,"ĠSec":6474,"Ġstage":6475,"ĠEuropean":6476,"Ð°Ð¶Ð¸":6477,"ÄŁ":6478,"ĠÐ¼ÐµÐ½":6479,"asc":6480,"imited":6481,"state":6482,"hh":6483,"Ġpolitical":6484,"%,":6485,"Ġsea":6486,"zer":6487,"Explanation":6488,"By":6489,"ĠWas":6490,"ĠDep":6491,"Ġpaid":6492,"ĠSet":6493,"fa":6494,"antes":6495,"Ġregul":6496,"Ġengage":6497,"Ġbes":6498,"196":6499,"ĠCour":6500,"alk":6501,"Ġvot":6502,"001":6503,"Ġwriter":6504,"Ġfont":6505,"SQL":6506,"Ġcalls":6507,"Ġcollege":6508,"Ġhusband":6509,"Ġped":6510,"ĠMarket":6511,"_data":6512,"ĠJu":6513,"Ġsolo":6514,"ë¶":6515,"Ð¸Ð¿":6516,"Ġeiner":6517,"Ġclients":6518,".org":6519,"Ġexperiences":6520,"Ġdisease":6521,"Provide":6522,"Ent":6523,"Ð½ÑĥÑİ":6524,"Ġinternational":6525,"Ġhotel":6526,"Ġbalance":6527,"Ġmaybe":6528,"Ġjavascript":6529,"áº¿":6530,"uary":6531,"ĠTest":6532,"Ġbreath":6533,"Ġrating":6534,"Button":6535,"onym":6536,"Ġheld":6537,"ULT":6538,"Ġuniverse":6539,"Ġslight":6540,"Ġstrugg":6541,"Ãºmer":6542,"ĠManagement":6543,"Ġoperating":6544,"ancy":6545,"ĠØ§ÙĦÙħ":6546,"Ġtemplate":6547,"ĠKore":6548,"Ġoppos":6549,"Ġtamb":6550,"Ġwanting":6551,"Ġagreement":6552,"Ġsad":6553,"ðŁĶ":6554,"Ġculture":6555,"ĠìĦ":6556,"Ġabstract":6557,"Ġsupply":6558,"800":6559,"True":6560,"ope":6561,"ativo":6562,"zione":6563,"Ġinsights":6564,"Ġnp":6565,"Ġlif":6566,"Ġindicate":6567,"open":6568,"Ġwet":6569,"ĠÑģÐ°Ð¼":6570,"Ġinstit":6571,"ĠCE":6572,"ĠOR":6573,"Ġdirection":6574,"vision":6575,"Ġoutline":6576,"edia":6577,"Ġlinks":6578,"ĠSun":6579,"Ġregist":6580,"OUR":6581,"Ġfarm":6582,"Ġnav":6583,"Ġlang":6584,"Ġabsol":6585,"Ġgold":6586,"Ġdesc":6587,"Ġcausal":6588,"Ġvariables":6589,"Ġingredient":6590,"Ġcontaining":6591,"CHAR":6592,"ĠĠĠĠĠĠĠĠĊ":6593,"Ġpuedes":6594,">>":6595,"Ġsurface":6596,"Ġpag":6597,"Ġrac":6598,"æľī":6599,"Ġapi":6600,"Value":6601,"ref":6602,"ilos":6603,"Ġmobile":6604,"mosp":6605,"Ġspan":6606,"ony":6607,"enden":6608,"command":6609,"Ġknows":6610,"Ġevol":6611,"icrosoft":6612,"anch":6613,"Ġmill":6614,"Ġeffects":6615,"hola":6616,"Ġdangerous":6617,"Ġsuccessful":6618,"pace":6619,"Ġhowever":6620,"Ġmagic":6621,"Ġvill":6622,"ãģı":6623,"ĠÐºÐ¾Ð¼Ð¿":6624,"Ġpandas":6625,"Ġpromot":6626,"Ġconsent":6627,"Ġcomponents":6628,"dule":6629,"Ġcapabilities":6630,"Ġinappropriate":6631,"context":6632,"Ġfantasy":6633,"ë°":6634,"ÐºÐ¾Ð²":6635,"Ġnut":6636,"ĠInformation":6637,"related":6638,"Ġtrading":6639,"ĠMr":6640,"ĠFinal":6641,"ĠÐ´ÐµÐ»":6642,"ÑģÑĤÐ²ÐµÐ½":6643,"Ġexcited":6644,"Gr":6645,"Ġorganiz":6646,"Human":6647,"itÃł":6648,"Ġnome":6649,"agon":6650,"ĠFe":6651,"hent":6652,"à¸Ń":6653,"Ġexternal":6654,".js":6655,"orter":6656,"ĠGe":6657,"aciones":6658,"icher":6659,"Ġthick":6660,"Ne":6661,"Ð£":6662,"rent":6663,"ocked":6664,"Ġengineering":6665,"Ġpractice":6666,"Ġconsequ":6667,"ĠespaÃ±":6668,"PC":6669,"porate":6670,"Ġturned":6671,"Ġbroken":6672,"hemat":6673,"mi":6674,"Ġsubs":6675,"aus":6676,"ë©":6677,"inst":6678,"71":6679,"Ġê³":6680,"Su":6681,"cor":6682,"Ġsab":6683,"×ĳ":6684,"Ġger":6685,"ÑĤÐ¾ÑĢ":6686,"Ġpieces":6687,"\\\":":6688,"ĉC":6689,"Ġbecame":6690,"Ġstuff":6691,"Ġalign":6692,"oro":6693,"uster":6694,"Ġsuggestions":6695,"ĠLear":6696,"VE":6697,"Ġci":6698,"Ġvous":6699,"Ġreveal":6700,"Ġpesso":6701,"Ġdates":6702,"String":6703,"oon":6704,"Ġloop":6705,"arg":6706,"ë¬":6707,"Ġcarry":6708,"ĠSynthetic":6709,"ibr":6710,"icted":6711,"Ġupper":6712,"Ġdelivery":6713,"ÑĹ":6714,"Ġot":6715,"ĠAtt":6716,"fil":6717,"Ġaplic":6718,"ĠAssistant":6719,"éĢ":6720,"With":6721,"Ġwrote":6722,"ĠÐ¿Ð»":6723,"Ġpassion":6724,"Ġgender":6725,"Over":6726,"åº":6727,"ĠPlan":6728,"å¤§":6729,"Ġhidden":6730,"Ġliv":6731,"Ġengineer":6732,"Ġlanguages":6733,"ĠAir":6734,"uxu":6735,"Ġ\"/":6736,"ðĿĳ":6737,"ĠEarth":6738,"Ġneural":6739,"Ġinstal":6740,"Ġcampaign":6741,"ĠSpe":6742,"180":6743,"Frame":6744,"lean":6745,"ĠReturn":6746,"Ġmap":6747,"Ġobjet":6748,"Ġcomponent":6749,"max":6750,"Ġspecified":6751,"ĠDownstream":6752,".h":6753,"Ùī":6754,"Ġcompl":6755,"Ġclub":6756,"span":6757,"Ġequipment":6758,"anÃ§":6759,"Ġprofit":6760,"ĠUpstream":6761,"96":6762,"ìĤ¬":6763,"Ġvolume":6764,"Ġencourag":6765,"Ġthrow":6766,"Ġworked":6767,"icos":6768,"Pr":6769,"Ġarchitecture":6770,"Ð¿ÑĢÐ°Ð²":6771,"Æ°á»":6772,"ĠOver":6773,"AAAAAAAA":6774,"Ġaccuracy":6775,"Ġacid":6776,"Ġslowly":6777,"js":6778,"kl":6779,"entity":6780,"Ġstrategies":6781,"Ġpul":6782,"ĠMarch":6783,"merce":6784,"ĠAM":6785,"à¸Ļ":6786,"Ġintention":6787,"Ġkeyword":6788,"Get":6789,"Ð¾Ð±Ñī":6790,"process":6791,"Ġinvestment":6792,"ains":6793,"raine":6794,"Ġmeant":6795,"Ġeye":6796,"Ġbei":6797,"Ġpersona":6798,"ĠUSA":6799,"Ġmig":6800,"iam":6801,"Ġmood":6802,"ĠPRO":6803,"Ġstri":6804,"Ġbeyond":6805,"ĠRoutes":6806,"ĠChristian":6807,"inct":6808,"Ġnach":6809,"ĠWest":6810,"Ġjoin":6811,"Ġgoogle":6812,"uilding":6813,"Ġjokes":6814,"Ġtru":6815,"Es":6816,"ĠÐĹ":6817,"LECT":6818,"rink":6819,"ĠYear":6820,"ĠØ£":6821,"Ġwonder":6822,"Ġweak":6823,"Ġlargest":6824,"Ġdegree":6825,"reme":6826,"Ġfear":6827,"×Ĳ":6828,"Ġrevenue":6829,"Ġserious":6830,"Ġwall":6831,"ÑģÑĤÐ°Ð²":6832,"Assistant":6833,"Ġfinds":6834,"Ø´":6835,"Ġfinish":6836,"Ġreports":6837,"Ġsymptoms":6838,"cum":6839,"oto":6840,"Ġpros":6841,"ront":6842,"Ġyang":6843,"Cons":6844,"natural":6845,"atom":6846,"enda":6847,"UP":6848,"||":6849,"quire":6850,"Ġtriple":6851,"Ġconvinc":6852,"ĠÐµÐ³Ð¾":6853,"Ġsql":6854,"eration":6855,"Ġinstance":6856,"atever":6857,"elsius":6858,"è°":6859,"Ġquotes":6860,"ercial":6861,"Ð¸Ð¼Ð¸":6862,"File":6863,"Ġclasses":6864,"ĠGreat":6865,"Ġalternative":6866,"ithub":6867,"result":6868,"Ġhurt":6869,"ĠCap":6870,"{'":6871,"ãģķ":6872,"Ġconfident":6873,"Ġeinem":6874,"iche":6875,"-by":6876,"Sc":6877,"Ġdei":6878,"Ġfamous":6879,"Ú©":6880,"enta":6881,"Ð¸Ð»Ð¸":6882,"ĠWar":6883,"ãĥ³":6884,"Don":6885,"Ġyeah":6886,"Ġprepar":6887,"Ġcalling":6888,"ĠDu":6889,"Ïī":6890,"_h":6891,"Ġcens":6892,"áº£":6893,"Ġliber":6894,"Ġcapable":6895,"ĠÃ¡":6896,"Ġbag":6897,"Ð¾Ð¿ÑĢÐ¾Ñģ":6898,"Ass":6899,"Ð¸ÑģÐ°ÑĤÑĮ":6900,"Ġsecretly":6901,"Ġtechnologies":6902,"Net":6903,"Ġcos":6904,"Ġdeploy":6905,"unic":6906,"ĠRec":6907,"ĠPresident":6908,"-sh":6909,"Search":6910,"Ġstatic":6911,"Ġmental":6912,"Ġsurround":6913,"ÑģÑĤÐ²Ð°":6914,"Ġod":6915,"urg":6916,"Ġenhance":6917,"Ġrich":6918,"Ġforest":6919,"Ġbuilt":6920,"Ġbottom":6921,"Ġleaving":6922,"Ġtells":6923,"Ġstudies":6924,"Ġvoid":6925,"ĠCustomer":6926,"ĠSoft":6927,"othesis":6928,"ellent":6929,"iert":6930,"USER":6931,"Ġfoi":6932,"Ġassistance":6933,"ham":6934,"ÐµÐµ":6935,"Ð°Ð½ÑĤ":6936,"Ġdivid":6937,"abil":6938,"Ð¾Ð»Ð¾Ð³":6939,"HT":6940,"_D":6941,"ìĽ":6942,"Ġnotice":6943,"ĠBest":6944,"aje":6945,"Ġstaff":6946,"ĠBusiness":6947,"anz":6948,"Ġschema":6949,"Ġnaked":6950,"Ġzero":6951,"ĠDesign":6952,"rupt":6953,"ashion":6954,"uh":6955,"Ġfinally":6956,"ãģ¾":6957,"Ġdecre":6958,"Ð¾Ð¼Ñĥ":6959,"_file":6960,"(d":6961,"ĠProject":6962,"ĉE":6963,"check":6964,"Ġolder":6965,"inet":6966,"ÑĥÐ¹":6967,"Ġera":6968,"Ġrequires":6969,"ĠFeb":6970,"Ġremote":6971,"Ġcharge":6972,"Ġsubst":6973,"ĠÐ²Ð¸Ð´":6974,"Ġtrade":6975,".set":6976,"function":6977,"emp":6978,"ĠÐ´ÑĢÑĥÐ³":6979,"pected":6980,"Î¯":6981,"response":6982,"Ġintel":6983,"ĠìĤ¬":6984,"Ġbien":6985,"111":6986,"Ġdrug":6987,"Ġacademic":6988,"ASE":6989,"Ð´Ðµ":6990,"ĠAmazon":6991,"inking":6992,"ĠQue":6993,"ĠClass":6994,"house":6995,"oma":6996,"puter":6997,"Ġstorage":6998,"rait":6999,"ÑĢÐ°Ð¼Ð¼":7000,"ĠaÃ±":7001,"Ġdivers":7002,"(t":7003,"??":7004,"Î¬":7005,"Ġbegan":7006,"Ġmanage":7007,"ĠOut":7008,"Ġinteraction":7009,"Ġsmaller":7010,"ĠSure":7011,"ĠHealth":7012,"ĠMach":7013,"á»ĩ":7014,"WAY":7015,"æĹ":7016,"agent":7017,"ened":7018,"Ġprocesses":7019,"ĠOther":7020,"ifier":7021,"_path":7022,"Ġsnipp":7023,"Ġtkinter":7024,"fill":7025,"Ġya":7026,"Ġbasis":7027,"Ġsto":7028,"ÑĥÑİÑī":7029,"105":7030,"Ġcontrovers":7031,"pet":7032,"Ġatmosp":7033,"rer":7034,"Ġkne":7035,"Ġimmediately":7036,"ĠÎ¼":7037,"ĠìĪĺ":7038,"First":7039,"Pre":7040,"Ġclearly":7041,"ĠCL":7042,"UEST":7043,">ĊĊ":7044,"iced":7045,"ä¸Ńæĸĩ":7046,"é¢ĺ":7047,"Ġabilities":7048,"atically":7049,"itos":7050,"ĠÑģÐ¼":7051,"Ð¾Ð²Ð¾ÑĢ":7052,"Ð¾ÑģÑģ":7053,"phone":7054,"Ð°Ð¶Ð´":7055,"ouns":7056,"stood":7057,"Ġloved":7058,"-a":7059,"arily":7060,"Ġbecomes":7061,"ĠUN":7062,"Ġwatching":7063,"(a":7064,"under":7065,"SF":7066,"Ġformer":7067,"ĠUm":7068,"Ġcop":7069,"Ġcomplain":7070,"Ġmotor":7071,".b":7072,"73":7073,"ĠJapanese":7074,"BO":7075,"Ð¸Ð±":7076,"ĠÑģÐ»ÐµÐ´":7077,"ĥģ":7078,"ĠAnal":7079,"which":7080,"Ġdownload":7081,"åĲį":7082,"ÑĥÑĪ":7083,"nde":7084,"care":7085,"ĠÐ²Ð¾Ð·":7086,"cles":7087,"Ġfish":7088,"Ġfailed":7089,"ĠÐ¿Ð¾Ð»ÑĥÑĩ":7090,"Ġpractices":7091,"ischen":7092,"iones":7093,"Ġcancer":7094,"INT":7095,"($":7096,"/Ċ":7097,"wer":7098,"Ġchanged":7099,".n":7100,"Ġdesire":7101,"Ġë³":7102,"Ġrecipe":7103,"Ġproceed":7104,"Ġchatgpt":7105,"ĠKing":7106,"ĠÐ´Ð²":7107,"ä½łæĺ¯":7108,"ÐĹ":7109,"Ġworry":7110,"ĠRequest":7111,"anges":7112,"Ġthroughout":7113,"ki":7114,"Ġdeveloping":7115,"QU":7116,"jud":7117,"Ġ,Ċ":7118,"Ġopportunity":7119,"Ġratio":7120,"Ġtheme":7121,"Ġbusinesses":7122,"Ġattributes":7123,"cut":7124,"ync":7125,"å¦":7126,"Ġgro":7127,"reci":7128,"Ġfaster":7129,"Ġsurv":7130,"was":7131,"Ġax":7132,"Ġforget":7133,"ocket":7134,"gunta":7135,"Ġgonna":7136,"ucking":7137,"Ġng":7138,"ĠTry":7139,"ĠFriday":7140,"ĠnÃºmer":7141,"Ġcutting":7142,"Ġfan":7143,"gnore":7144,"ÑĮÑİ":7145,"Ġlisted":7146,"ĠMUST":7147,"hal":7148,"Ġsweet":7149,"Ġ?Ċ":7150,"Ġfaire":7151,"CD":7152,"ĠÐ¿ÑĢÐ°Ð²":7153,"grad":7154,"real":7155,"ĠRel":7156,"Ġdriving":7157,"-n":7158,"Ġarticles":7159,"-of":7160,"Ġrh":7161,"à¥į":7162,"ëª":7163,"Ġpip":7164,"Ġwarnings":7165,"Ġsharp":7166,"azing":7167,"Ġcouldn":7168,"Ġelabor":7169,"Ġsimulate":7170,"ĠCOM":7171,"ĠespaÃ±ol":7172,"IR":7173,"_date":7174,"Øµ":7175,"Ġmilitary":7176,"().":7177,"\"\"\"Ċ":7178,"Ġcritical":7179,"Ġscientist":7180,"Ġwidth":7181,"Ġprobability":7182,"job":7183,"Ġleaves":7184,"Ġdictionary":7185,"Ġexchange":7186,"Ġessential":7187,"è¦":7188,"Ġmechanism":7189,",China":7190,"Ð»Ð°Ñģ":7191,"Ġlaug":7192,"Ġobjective":7193,"Observation":7194,"icking":7195,"inte":7196,"Ã¤r":7197,"ĠManager":7198,"\\'":7199,"oday":7200,"ticle":7201,"-E":7202,"ÐµÐ»Ð¸":7203,"Ġmarried":7204,"/A":7205,"à¹Ī":7206,"çŃĶ":7207,"Ġdriver":7208,"Bl":7209,"Ġvideos":7210,"ĠWould":7211,"ĠÐ¿Ð¾Ð»ÑĮÐ·Ð¾Ð²":7212,"raf":7213,"Ġbod":7214,"Ġbomb":7215,"Ġfactor":7216,"ensity":7217,"Ġpossess":7218,"Ã¨s":7219,"iler":7220,"ĠOct":7221,"Ġimpos":7222,"Ġchannel":7223,"event":7224,"ydro":7225,"Ġtraditional":7226,"Ġhydro":7227,"ÑģÑĮ":7228,"-de":7229,"Ġcual":7230,"cn":7231,"imo":7232,"Ġconflict":7233,"positive":7234,"Response":7235,"ĠGerman":7236,"Ġexceed":7237,"json":7238,"ìŀĲ":7239,",NAME":7240,"ONE":7241,"Ġcareer":7242,"ĠRemember":7243,"ĠCourt":7244,"Ġec":7245,"Ġartist":7246,"ĠØ§Ø":7247,"ĠSH":7248,"artic":7249,"Ġclassify":7250,"ĠÐ²ÑģÐµ":7251,"Ġconstruction":7252,"ĠÐ½Ð¾":7253,"è®":7254,"Ġchallenge":7255,"Ġparameter":7256,"TO":7257,"Ġreader":7258,"Ġhonest":7259,"Ġ+=":7260,"idas":7261,"Ġclothing":7262,"Ġeconomy":7263,"ĠRussia":7264,"adores":7265,"ĠÐ¾Ð½":7266,"Ġdrop":7267,"Ġthr":7268,"ĠSim":7269,"Ð»Ðµ":7270,"ondon":7271,"Ġband":7272,"Ġlose":7273,"'un":7274,"mos":7275,"Ð¾ÑĪ":7276,"Ġorders":7277,"Ġopportunities":7278,"ç«":7279,"Ġhospital":7280,"Ġstreet":7281,"ivos":7282,"Ġrock":7283,"·¸":7284,"Ð°ÑĢÑĤ":7285,"Man":7286,"Ð¾Ð½Ð°Ð»ÑĮ":7287,"case":7288,"ÃŃs":7289,"Ġplayed":7290,"ĠTw":7291,"iao":7292,"Ġproposed":7293,"Ġsenior":7294,"Ret":7295,"ĠÐ·Ð°Ðº":7296,"ÃŃas":7297,"Ġrecommendations":7298,"izza":7299,"Ġpero":7300,"akt":7301,"System":7302,"iang":7303,"uan":7304,"Ġwid":7305,"Ġrelation":7306,"ĠLanguage":7307,"ÃŃvel":7308,"Ġbudget":7309,"pan":7310,"inks":7311,"ĠÃº":7312,"root":7313,"race":7314,"Ġformula":7315,"Ġwish":7316,"Ġtun":7317,"acing":7318,"ãģł":7319,"-e":7320,"×©":7321,"Ð¸ÑĢÑĥ":7322,"iser":7323,"Ġseeing":7324,"Ġstrictly":7325,"ban":7326,"rome":7327,"Ġkg":7328,"Ð»ÐµÐ½Ð¸Ñı":7329,"Ġrace":7330,"Ġaudio":7331,"ruit":7332,"Ġsets":7333,"coin":7334,"Dis":7335,"Ġshared":7336,"Ġspir":7337,"^^^^^^^^":7338,"_w":7339,"Ġauto":7340,"prompt":7341,"Ġwhis":7342,"Ġpurchase":7343,"-NAME":7344,"Ġunless":7345,"Ġturns":7346,"ĠCS":7347,"Ġremains":7348,"Ġflex":7349,"Ġspeaking":7350,"ĠOK":7351,"iero":7352,"ĠÑĥÑĩ":7353,"Ġbrown":7354,"Ġay":7355,"å°ı":7356,"61":7357,"make":7358,"Total":7359,"iliar":7360,"Select":7361,"ĨĮ":7362,"ĠDec":7363,"Ġdiverse":7364,"ARCHAR":7365,"ela":7366,"ĠIl":7367,"path":7368,"Ġquot":7369,"ÑıÐ·":7370,"ĠContent":7371,"bed":7372,"74":7373,"Ap":7374,"Ġnuc":7375,"ĠMaster":7376,"sequ":7377,"Ġowner":7378,"Ġath":7379,"Ġlips":7380,"Ġ×ĳ":7381,"Ġcurious":7382,"IZ":7383,"Ġdent":7384,"ushing":7385,"Ġstartup":7386,"ĠONLY":7387,"One":7388,"Ġbehavi":7389,"ĠÐ±ÑĥÐ´ÐµÑĤ":7390,"Ġgrammar":7391,"ä¸į":7392,"ĠContext":7393,"åĢ":7394,"Ġknew":7395,"Ġrights":7396,"Ġimplementation":7397,"Ġearlier":7398,"Ġskill":7399,"ĠPower":7400,"128":7401,"Ġsummer":7402,"Ġkeeping":7403,"CRE":7404,"END":7405,"Ġà¤ķ":7406,"Ġdamage":7407,"zie":7408,"Ġsubt":7409,"Ġteams":7410,"ĠStreet":7411,"Ġvalor":7412,"Ġvariety":7413,"CS":7414,"_in":7415,"Ġwhatever":7416,"Ð¾ÑģÑĤÐ¸":7417,",âĢĿ":7418,"Ġcelsius":7419,"ĠUs":7420,"Ġreality":7421,"NNNN":7422,"enas":7423,"Ġfundament":7424,"mt":7425,"alle":7426,"ĠThanks":7427,"ĠMore":7428,"html":7429,"íķ´":7430,"èĥ":7431,"ermany":7432,"volution":7433,"pecific":7434,"mas":7435,"102":7436,"256":7437,"Ġmeasures":7438,"qui":7439,"Ġcha":7440,"ĠEvery":7441,"Ġbelieving":7442,"Ġvictim":7443,"Ġmasturb":7444,"keit":7445,"ĠPost":7446,"Ġemphas":7447,"uma":7448,"pload":7449,"Ð»Ð°Ð´":7450,"ĠSi":7451,"Ġleader":7452,"Ġswitch":7453,"Ġdistribution":7454,"Ġahead":7455,"Ġrude":7456,"public":7457,"Ġusage":7458,"Ġdifferences":7459,"utsch":7460,"ÐµÐ½Ð¸Ð¹":7461,"RU":7462,"Passage":7463,"iation":7464,"Ġhighlight":7465,"ĠAmerica":7466,"ÑĢÐµÐ´":7467,"æĪĲ":7468,"ĠÐ½ÑĥÐ¶":7469,"Ġvision":7470,"acters":7471,"Ġeating":7472,"ena":7473,"Ġstable":7474,"Ġshop":7475,"ĠClient":7476,"ÂłÂłÂłÂł":7477,"Ġspecifically":7478,"Ġsky":7479,"structions":7480,"negative":7481,"Ġcharacteristics":7482,"Ġcentral":7483,"gt":7484,"ÐŁÑĢÐ¸Ð²ÐµÑĤ":7485,"OM":7486,"Set":7487,"Ġ×ľ":7488,"-H":7489,"Number":7490,"olf":7491,"Ġdefine":7492,"ï¸":7493,"Ð¾ÑĤÑĢ":7494,"ĠProgram":7495,"ĠÏĢ":7496,"Ġcry":7497,"Ġmoved":7498,"ÑĶ":7499,"ĠPa":7500,"ìľ¼ë¡ľ":7501,"Ġhang":7502,"Ġstation":7503,"aux":7504,"config":7505,"Ã¬":7506,"error":7507,"à¸£":7508,"Ġ<<":7509,"Of":7510,"Ġbur":7511,"ä¸ª":7512,"Ġclosed":7513,"got":7514,"íĻ":7515,"Ġlinux":7516,"Users":7517,"Ġatmosphere":7518,"Ġsegment":7519,"Code":7520,"Ġfolder":7521,"Ġfindings":7522,"================":7523,"crivi":7524,"Ġtranslation":7525,"uxuul":7526,"ĠAWS":7527,"Ġnel":7528,"nte":7529,"ĠLearning":7530,"Tool":7531,"inated":7532,"Extract":7533,"Ġopening":7534,"(c":7535,"Ġbenefit":7536,").ĊĊ":7537,"rau":7538,"Ġship":7539,"Ġdiscl":7540,"Ġapplied":7541,"info":7542,"-step":7543,"Was":7544,"æ±":7545,"adow":7546,"uggest":7547,"ê²Į":7548,".w":7549,"cember":7550,"Ġbright":7551,"Ġquantum":7552,"Ġtipo":7553,"dis":7554,"Ġrisks":7555,"âĶĢâĶĢ":7556,"Ø·":7557,"aming":7558,"Ġstress":7559,"Ġstars":7560,"Ġroll":7561,"Ġspot":7562,"Summarize":7563,"ĠÐµÑģÑĤÑĮ":7564,"Ġcyber":7565,"Ġkitchen":7566,"ĠÐ¿ÑĢÐ¾Ð³":7567,"Ġflat":7568,"Ġfemin":7569,"Ġseconds":7570,"idge":7571,"Ġoh":7572,"illa":7573,"ĠInternet":7574,"rics":7575,"ëŀ":7576,"ĠService":7577,"Ġconstantly":7578,"ali":7579,"Ġcele":7580,"wa":7581,"Ð¾Ð³Ð´Ð°":7582,",P":7583,"Ġhous":7584,"ĠÐ§":7585,"Ġsemantic":7586,"ctors":7587,"Ġangry":7588,"uns":7589,"Ġsurpr":7590,"Ġmine":7591,"Ġpee":7592,"Ġreplaced":7593,"Item":7594,"Ġconcerns":7595,".D":7596,"rt":7597,"Ŀ¼":7598,"Ġded":7599,"greement":7600,"Ġarguments":7601,"Ñį":7602,"Ġconstruct":7603,"ĠJe":7604,"Ġdirectory":7605,"Ġclassification":7606,"Ð¸Ð½Ð°":7607,"ĠDid":7608,"Ġprofile":7609,"Ġtodos":7610,"Event":7611,"onde":7612,"Ġmathemat":7613,"plot":7614,"ĠApple":7615,"osen":7616,"Ġrough":7617,"Ġclim":7618,"Ġexperienced":7619,"Up":7620,"Ġcompleted":7621,"beit":7622,"Acc":7623,"geb":7624,"Ġpairs":7625,"ĠÏĥ":7626,"Ġlayer":7627,"db":7628,"ãģĮ":7629,"show":7630,"urer":7631,"Ð´Ñĥ":7632,"Ġapolog":7633,"Ġfinding":7634,"Ð¾ÑģÑĤÑĮ":7635,"è°ģ":7636,"ĠRewrite":7637,"Ġlooked":7638,"Ł¥":7639,"tics":7640,"Ab":7641,"Ġol":7642,"omet":7643,"Ġbreaking":7644,"vance":7645,"ums":7646,"ĠShow":7647,"ĠAC":7648,"Ġpartir":7649,"ĠGeneral":7650,"ĠÐ±ÑĭÑĤÑĮ":7651,"edding":7652,"ĠJanuary":7653,"Ġsubmiss":7654,"gunt":7655,".size":7656,"Ġacts":7657,"Ġsupernatural":7658,"Ġbegins":7659,"Ġmission":7660,"Size":7661,"archer":7662,"IF":7663,"Inter":7664,"Ġcultural":7665,"ï¸ı":7666,"ĠBrit":7667,"ĠDescription":7668,"Ġsoul":7669,"ãĤĵ":7670,"Ġaccident":7671,"Ġmovies":7672,"Go":7673,"rd":7674,"Ġ```":7675,"Ġchick":7676,"ĠHave":7677,"ĠEN":7678,"Ġmodules":7679,"Ġcold":7680,"Ġchart":7681,"Ð½Ñĸ":7682,"å¸":7683,"ĠBer":7684,"Ġspend":7685,"Ġtests":7686,"Ġnas":7687,".app":7688,"Rec":7689,"_code":7690,"Ġìľ":7691,"Ġans":7692,"Ġformal":7693,"Ġplanet":7694,"{{":7695,"ĠScience":7696,"ĠCre":7697,"Ġeffectively":7698,"Ġalla":7699,"DR":7700,"Ġmens":7701,"Ġprofessor":7702,"EE":7703,"zes":7704,"ĠHistory":7705,"ĠBo":7706,"Ġrot":7707,"à¹ī":7708,"Â¿":7709,"iere":7710,"ittleGPT":7711,"Rem":7712,"zo":7713,"include":7714,"inux":7715,"umer":7716,"âĢ¨":7717,"ITY":7718,"Ġpants":7719,"ĠWeb":7720,"/t":7721,"Ġteen":7722,"Ġreplies":7723,"sem":7724,"excluding":7725,"Ġë¬":7726,"Ġillust":7727,"Ġpark":7728,"Sentence":7729,"pass":7730,"Ġparties":7731,"Ġidentity":7732,"Ġnombre":7733,"roy":7734,"Ġìĺ":7735,"Ġanc":7736,"osing":7737,"Ġvent":7738,"Ġcred":7739,"Ġspecies":7740,"Ġwilling":7741,"Ġnetworks":7742,"Ġcash":7743,"Ġ(Ċ":7744,"Ġcommercial":7745,"Ġstandards":7746,"86":7747,"Ġwarn":7748,"Ġrent":7749,"explain":7750,"Ġpreviously":7751,"Ġinterests":7752,"Ġtranscript":7753,"Ġcontroversial":7754,"ÑĭÑĤ":7755,"Ġzur":7756,"Ġandroid":7757,"Ġwea":7758,"Ġgrowing":7759,"Ġvacc":7760,"Ġlarger":7761,"Gener":7762,"OW":7763,"Ġwasn":7764,"Query":7765,"âĢĿ.":7766,"inates":7767,"Ġstick":7768,"Ġmarkdown":7769,"array":7770,"Ġaux":7771,"Ġpurs":7772,"ede":7773,"Ġmatrix":7774,"Ġunits":7775,"grade":7776,"ĠHey":7777,"RL":7778,"](":7779,"idents":7780,"Ġlimitations":7781,"hern":7782,"cipl":7783,"Ġguidance":7784,"ulated":7785,"ells":7786,"Script":7787,"ĠÐ¯":7788,"Hola":7789,"args":7790,"Ġtitles":7791,"mark":7792,"Ġconfront":7793,"plan":7794,"abric":7795,"Ġnotes":7796,"Ġju":7797,"Ġwalking":7798,"Ġsistema":7799,"Ġran":7800,"ĠÐ½Ð°Ð·":7801,"Ġupdated":7802,"94":7803,"Ġdados":7804,"Ġcompetition":7805,"=Ċ":7806,"ĠPrompt":7807,"Ġchanging":7808,"Ġrows":7809,"YZ":7810,"esome":7811,"MAR":7812,"isa":7813,"à¹Ģ":7814,"rot":7815,"Ġê¸":7816,"err":7817,"Ġpush":7818,"fÃ¼":7819,"Ġfrase":7820,"Ġsarc":7821,"Ġbow":7822,"Ġretrie":7823,"Ġopposite":7824,"83":7825,"âĤ¬":7826,"ĠÐºÐ¾Ð´":7827,"Ġcars":7828,"Ġdollars":7829,"zing":7830,"ĠÐºÐ¾ÑĤÐ¾ÑĢÑĭÐ¹":7831,"Ġbirthday":7832,"ĠLT":7833,"Ġresearcher":7834,"None":7835,"Ġcontroll":7836,"ÃŃt":7837,"-com":7838,"åį":7839,"cht":7840,"ĠÐ¿Ð¾Ðº":7841,"Ġtrees":7842,"Ġplayful":7843,"ĠÎµ":7844,"ulture":7845,"Ġedge":7846,"Ġhealthy":7847,"ĠÐ²ÑĢÐµÐ¼":7848,"Ġtransactions":7849,"atas":7850,"Ġcapacity":7851,"nel":7852,"Ġbiggest":7853,"hood":7854,"label":7855,"ĠEnd":7856,"Ġsensitive":7857,"ulti":7858,"Ġsnippet":7859,"raid":7860,"Ġevalu":7861,"ians":7862,"Ġcin":7863,"Ġhall":7864,"Ġgest":7865,"Ġadvert":7866,"ORE":7867,"oder":7868,"192":7869,"verted":7870,"Ġrequirement":7871,"El":7872,"à¸ģ":7873,"ĠAlways":7874,"87":7875,"Å¡":7876,"çī":7877,"Ġapplicable":7878,"ĠÑĤÐ¾Ð»ÑĮÐºÐ¾":7879,"rif":7880,"ãģ£":7881,"Ġjobs":7882,"Title":7883,"python":7884,"Ġbought":7885,"ĠSearch":7886,"ĠOf":7887,"Ġcolors":7888,"Ġsports":7889,"anged":7890,"ĠÙĩ":7891,"hel":7892,"hai":7893,"poses":7894,"Ġwaiting":7895,"Object":7896,"Ġresume":7897,"Ġpermit":7898,"Ð°Ð½Ð¾Ð²":7899,"ĠUkraine":7900,"-v":7901,"mar":7902,"}.":7903,"ĠUsing":7904,"ĠÐ±ÐµÐ·":7905,"rier":7906,"Ġappoint":7907,"æī":7908,"Ġkom":7909,"\"\"\"":7910,"iltered":7911,"ÑĥÐ»ÑĮ":7912,"Ġwird":7913,"Ġdick":7914,"agen":7915,"'],":7916,"Ġcoun":7917,"Ġihre":7918,"Ġdatos":7919,"util":7920,"CA":7921,"ìŀ¥":7922,"gers":7923,"Ġapart":7924,"Ġlista":7925,"Ġclinical":7926,"ĠStud":7927,"Below":7928,"ishes":7929,"Ġloyal":7930,"Ġintroduced":7931,"ĠâĢ¢":7932,"Ġselection":7933,"Ġappreci":7934,"195":7935,"Ġlabels":7936,"plies":7937,"Ġvulgar":7938,"PA":7939,"ĠAug":7940,"Ġlack":7941,"anda":7942,"Ġentry":7943,"ÐµÐ»Ð¾Ð²":7944,"ifications":7945,"liche":7946,"Product":7947,"Ġliqu":7948,"Ġcombination":7949,"ĉV":7950,"Ġyellow":7951,"nowledge":7952,"Ġtou":7953,"Ġtaste":7954,"Ġparte":7955,"clusive":7956,"130":7957,"Ġapproxim":7958,"ĠÐ¼ÐµÐ½Ñı":7959,"GE":7960,"Ġtips":7961,"Ġunable":7962,"Ġtiene":7963,"Ġtransl":7964,"ìłķ":7965,"Ġusando":7966,"Ġlogical":7967,"Ġputting":7968,"ĠÐ¸ÑģÐ¿Ð¾Ð»ÑĮÐ·Ð¾Ð²":7969,"Ġincl":7970,"Ġuh":7971,"ayment":7972,"ainer":7973,"generate":7974,"[]":7975,"wear":7976,"Ġvend":7977,"åĳ":7978,"Ġshirt":7979,"Ġbrack":7980,"åĽŀ":7981,"BA":7982,"Ġsees":7983,"ĠHand":7984,"ĠAustralia":7985,"sub":7986,"Ġfed":7987,"cciÃ³n":7988,"Ġsexually":7989,"Ġperformed":7990,"ocking":7991,"Ġclaims":7992,"à¤¾à¤":7993,"Ġexercise":7994,"_NAME":7995,"url":7996,"Ġmenu":7997,"Load":7998,"ĠJuly":7999,"Ġ~":8000,"Ð¾ÑĢÑĤ":8001,"lichen":8002,"ĠÙħÙĨ":8003,"Ġhistorical":8004,"ĠÑĤÐ¾":8005,"YY":8006,"Ġtrav":8007,"Ðĳ":8008,"Ġvag":8009,"Ġneces":8010,"Ġarms":8011,"puesta":8012,"Ġonto":8013,"Ġunknown":8014,"Ġdied":8015,"Ġcraft":8016,"Ġpes":8017,"Ġcarbon":8018,"_time":8019,"Ġremoved":8020,"Ġdell":8021,"ĠOld":8022,"ä¼":8023,"Ġphilos":8024,"nov":8025,"utter":8026,"Ġusar":8027,"posit":8028,"Ġrefers":8029,"Ġcausing":8030,"icated":8031,"ypes":8032,"going":8033,"-th":8034,"Ġfib":8035,"unto":8036,"ÑİÑĤ":8037,"140":8038,"æĿ":8039,"Ġminute":8040,".add":8041,"Ġallowing":8042,"aning":8043,"Ġtech":8044,"Ġhumili":8045,"Ðĵ":8046,"Ġsiguiente":8047,"Ġcivil":8048,"ĠÐķ":8049,"ÑĥÐ²":8050,"ĠFROM":8051,"Ġkilled":8052,"ober":8053,"ruary":8054,"ĠRespond":8055,"-term":8056,"Ġtar":8057,"device":8058,"ANS":8059,"Ġloan":8060,"Final":8061,"Ġice":8062,"ðŁĺ":8063,"Ġbathroom":8064,"\");Ċ":8065,"allow":8066,"Ġconscious":8067,"Ġvector":8068,"yo":8069,"ĠCON":8070,"Ġpac":8071,"aix":8072,"enu":8073,"Ġevaluation":8074,"ĠReport":8075,"rm":8076,"93":8077,"ĠWindows":8078,".*":8079,"iforn":8080,"product":8081,"Ġcaso":8082,"odo":8083,"Ġamazing":8084,"Ġtries":8085,"Ġuniversity":8086,"ĠÑĢÑĥÑģÑģÐºÐ¾Ð¼":8087,"/b":8088,"Am":8089,"Ġcontinues":8090,"ãĢĤĊ":8091,"Ø®":8092,"ĠBr":8093,"ponent":8094,"DB":8095,"ãģĵ":8096,"Ð°Ð½Ð¸Ð¸":8097,"âĪ":8098,"Ġestablish":8099,"Ġgard":8100,"ĠCare":8101,"Ġ&&":8102,"Ġnavig":8103,"Ġhay":8104,"Ġprepare":8105,"Rewrite":8106,"Ø²":8107,"Ġmetal":8108,"íĸ":8109,"ĠAng":8110,"ĠLondon":8111,"ĠÃª":8112,"Ġpurposes":8113,"ĠÐµÑģÐ»Ð¸":8114,".ex":8115,"ä¿":8116,"Ġterminal":8117,"hab":8118,"Ġforms":8119,"ecause":8120,"ÐµÐ½Ð¸Ð¸":8121,"Ġexcel":8122,"Ġforeign":8123,"éĹ®é¢ĺ":8124,"âĢĭ":8125,"Ð¾Ð²ÐµÑĢ":8126,"Ġdepart":8127,"ĠIns":8128,"ä¾":8129,"Ġdepth":8130,"Ġmelhor":8131,"iant":8132,"ĠÐºÐ¾ÑĤÐ¾ÑĢÑĭÐµ":8133,"Ġconfidence":8134,"Ġfreedom":8135,"Ġslightly":8136,"DS":8137,"Ġhyper":8138,"'a":8139,"á»Ļ":8140,"ĠMicrosoft":8141,"ÑĸÐ²":8142,"ê³¼":8143,"Ġ]":8144,"Ġmol":8145,"ĠSen":8146,"Ġattribute":8147,"CR":8148,"ko":8149,"ename":8150,"ooks":8151,"Ġcontinued":8152,"respecting":8153,"Ġsentiments":8154,"Ġreleased":8155,"ĠDevelopment":8156,"Ġmort":8157,"game":8158,"Ġsusp":8159,"sl":8160,"Ġhypothe":8161,"à¥įà¤":8162,"ĠSan":8163,"Ġtraffic":8164,"Ġannual":8165,"Ġquando":8166,"Ġcreation":8167,"ĠWill":8168,"Ġpreferences":8169,"Ġsolid":8170,"ĠNote":8171,"ilk":8172,"ĠÑĢÐµ":8173,"Ġcodigo":8174,"Det":8175,"Oh":8176,"Ġleads":8177,"istry":8178,"ĠUnder":8179,"ĠVARCHAR":8180,"_ID":8181,"Ġdf":8182,"ĠComo":8183,"baj":8184,"ãģĨ":8185,"Ġends":8186,"Ġfu":8187,"Ġbigger":8188,"Ġdespite":8189,"Ġreturned":8190,"Ġdram":8191,"lam":8192,"Ġhel":8193,"à¸±":8194,"ĠRead":8195,"à¤¿":8196,"Ġdelle":8197,"tenance":8198,"Ð¸ÑģÑĤÐµÐ¼":8199,"ĠÙģÙĬ":8200,"Ġsudd":8201,"ERS":8202,"ìĦ±":8203,"eles":8204,"iste":8205,"RES":8206,"message":8207,"à¥Ģ":8208,"Ġbroad":8209,"Ġmagazine":8210,"Service":8211,"ĠsÃ©":8212,"Ġtecn":8213,"quer":8214,"rav":8215,"ressed":8216,"WAYS":8217,"Ġshot":8218,"Ġappropri":8219,"BS":8220,"Ġtill":8221,"Ġdur":8222,"Ġni":8223,"Ġrephrase":8224,"anter":8225,"ĠBank":8226,"ĠLo":8227,"ische":8228,"Ġcollection":8229,"Ġcorrectly":8230,"Client":8231,"Ġafraid":8232,"ĠpiÃ¹":8233,"Ġblank":8234,"çĶŁ":8235,"isis":8236,"ĠHT":8237,"Ġpoor":8238,"Ġgrav":8239,"Sp":8240,"After":8241,"Ġdetermined":8242,"kg":8243,"Ġquote":8244,"format":8245,"atin":8246,"êµŃ":8247,"CP":8248,"utely":8249,"Ġequation":8250,"Ġrefere":8251,"Ġstro":8252,"iform":8253,"ĠBE":8254,"Ġinfrast":8255,"Ġinteractions":8256,"Ġmedium":8257,"ĠREG":8258,"quired":8259,"ĠInte":8260,"########":8261,"ĠÐ¾ÑģÐ½Ð¾Ð²":8262,"ĠAgreement":8263,"Ð²Ð¾Ð´":8264,"iveness":8265,"Ð°Ð»Ð¸Ð·":8266,"Ġremarks":8267,"Ġcoverage":8268,"Ġdiscussed":8269,"Ġepis":8270,"Ġplug":8271,"Ġsul":8272,"ĠÎ±":8273,"Ġnormally":8274,"ìĿ´ì":8275,"Ġimagine":8276,"ĠCEO":8277,"atura":8278,"Ġplaced":8279,"ologia":8280,"ele":8281,"Ġdil":8282,"amine":8283,"Ġmilk":8284,"çĽ":8285,"Ä±n":8286,"Ġsmooth":8287,"ti":8288,"Ġtodo":8289,"Ġromantic":8290,"Ġbattery":8291,"Ġasian":8292,"ĠPDF":8293,"ĠÐºÐ¾ÑĢ":8294,"Ã³w":8295,"ĠâĶ":8296,"Ġcloser":8297,"Ġbeach":8298,"Ġ(\"":8299,"Ð°ÑĤÑĮÑģÑı":8300,"Ġfocused":8301,"venture":8302,"PY":8303,"Ġrein":8304,"ifying":8305,"ĠZe":8306,"rend":8307,"Ġva":8308,"Ġskirt":8309,"ä¸º":8310,"ACT":8311,"ogen":8312,"Ġmoon":8313,"Ġconsidering":8314,"................................":8315,"ĠÐĽ":8316,"Ġcham":8317,"ĠÑĸ":8318,"Ġinfluence":8319,"ÎŃ":8320,"ĠLog":8321,"ĠÐºÐ¾Ð»":8322,"999":8323,"ĠServices":8324,"Ġhug":8325,"oding":8326,"encing":8327,"Ġefficiency":8328,"bu":8329,"á»ĳ":8330,"Ġcsv":8331,"Ġvivid":8332,"ao":8333,"Ġcircum":8334,"fig":8335,"Ġresposta":8336,"Ġnor":8337,"§Ħ":8338,"price":8339,"ĠÐ»ÑİÐ±":8340,"este":8341,"_text":8342,"rimid":8343,"-qu":8344,".M":8345,"ĠWhis":8346,">,":8347,"ĠDem":8348,"role":8349,"ĠDire":8350,"ĠEd":8351,"Ġsettings":8352,"ÏĮ":8353,"ĠTerm":8354,"esterday":8355,"Ġtransaction":8356,"RS":8357,"Ġbare":8358,"Ġfingers":8359,"ĠES":8360,"Ġmole":8361,"~~":8362,"Ġinner":8363,"Ġdocumentation":8364,"Ġtweet":8365,"Ġmild":8366,"ĠUSD":8367,"Ġappears":8368,"Ġimplemented":8369,"Ġadvance":8370,"_size":8371,"Ġboys":8372,"ifornia":8373,"Ġenem":8374,"ĠÑıÐ·ÑĭÐºÐµ":8375,"(b":8376,"ements":8377,"ĠquÃ©":8378,"active":8379,"Ġpolite":8380,"Ġrealistic":8381,"Ġswear":8382,"Ð¸ÑģÐº":8383,"ĠPH":8384,"Ġuno":8385,"Ġrelative":8386,"ÑģÐºÐ°Ð¶Ð¸":8387,"Ġsites":8388,"Ġmovement":8389,"Ltd":8390,"ev":8391,"Ġanti":8392,"inger":8393,"Ġrecurs":8394,"Ġfilters":8395,"91":8396,"entes":8397,"Ġprograms":8398,"Read":8399,"ØĮ":8400,"unc":8401,"Ġvel":8402,"Ġfolg":8403,"Ġprincipal":8404,"Ġpad":8405,"IE":8406,"Ġselling":8407,"Ġconsole":8408,"ĠÐ¸Ñħ":8409,"ĠÐ¼Ð¾Ð¶ÐµÑĤ":8410,"Ġempresa":8411,"agg":8412,"\";Ċ":8413,"ete":8414,"Ġlisten":8415,"Ġ×©":8416,"Ð¾Ð»Ð½":8417,"82":8418,"FO":8419,"Ġalph":8420,"ÐµÑģÑģ":8421,"imm":8422,"Ġeasier":8423,"Ġparticularly":8424,"oice":8425,"```ĊĊ":8426,"Ġdrugs":8427,"Ġburn":8428,"ednes":8429,"Ġcompact":8430,"Ġpool":8431,"ota":8432,"Ġwebsites":8433,"IGN":8434,"ëħ":8435,"Ġeen":8436,"Ġseek":8437,"ĠBoth":8438,"Ġbem":8439,"Ġdifere":8440,"Ġë¶":8441,"ĠNon":8442,"aaaaaaaa":8443,"rateg":8444,"ĠkÃ¶n":8445,"Ð¼ÐµÐ½ÑĤ":8446,"Ġsudden":8447,"ether":8448,"ĠSummarize":8449,"ĠLead":8450,"Ġboundaries":8451,".r":8452,"yy":8453,"Ġsel":8454,"Ġsector":8455,"Ġnuclear":8456,"Ġcategor":8457,"Table":8458,"Ġbat":8459,"ĠlÃł":8460,"Ġticket":8461,"Ġlabor":8462,"osc":8463,"ellen":8464,"ĠInternational":8465,"gment":8466,"Ġgay":8467,"Ġfuncion":8468,"Ġfucking":8469,"ĠOnce":8470,"ĠÃ¤":8471,"160":8472,"elligence":8473,"Ġunderstood":8474,"Ġracist":8475,"envol":8476,"weight":8477,"Ġpositions":8478,"ĠâĤ¬":8479,"oco":8480,"Ġpeace":8481,"ĠÐ²Ð¾Ð¿ÑĢÐ¾Ñģ":8482,"Ġkid":8483,"ãģĤ":8484,"Ġmodelo":8485,"Ġteng":8486,"Ġsou":8487,"Ġìĸ":8488,"\"},":8489,"Ġimmer":8490,"Ġraise":8491,"ĠĠĊĊ":8492,"åĲĹ":8493,"Ġshut":8494,"Ġ!=":8495,"rained":8496,"Ġtrabal":8497,"Ġshoes":8498,"Ġcandidate":8499,"';Ċ":8500,"osit":8501,"ĠCalcul":8502,"holders":8503,"Ġmistakes":8504,"Ġmorality":8505,"ographic":8506,"ĠNational":8507,"iring":8508,"-ch":8509,"inds":8510,"isch":8511,"Ġthread":8512,"Ġresum":8513,"Comm":8514,"Ġcommunicate":8515,"Ġsolar":8516,"ãĥ¼ãĥ":8517,"Ġlingu":8518,"Ġconcent":8519,"Ð²ÐµÑĢ":8520,".log":8521,"ĠIdentify":8522,"organ":8523,"Ġbattle":8524,"ÑĤÑĢ":8525,"Ġpublished":8526,"å¦Ĥ":8527,"Good":8528,"asket":8529,"Ġcomfortable":8530,"ishment":8531,"ednesday":8532,"Ġdal":8533,"ĠÑįÐº":8534,"/h":8535,"Ġruns":8536,"las":8537,"Ġpages":8538,"ĠYOU":8539,"Che":8540,"aire":8541,"Ġposso":8542,"Ġtypically":8543,"ĠPhys":8544,"ef":8545,"names":8546,"åŁ":8547,"terior":8548,"PEAK":8549,"ĠSocial":8550,"Ġunt":8551,"Ġpregn":8552,"Ġcovered":8553,"ĠÐ¼Ð¾Ð³":8554,"inen":8555,"ĠAction":8556,"Ġrepet":8557,"ĠÑĩÐµÐ»Ð¾Ð²":8558,"Ġjourney":8559,"\\x":8560,"Ġrank":8561,"Request":8562,"ĠÐ°Ð²":8563,"ë²":8564,"Ġinsert":8565,"Ġhaven":8566,"airs":8567,"Ġimproved":8568,"Ġisso":8569,"iden":8570,"Ġpassed":8571,"review":8572,"Ġcette":8573,"ĠÐ¿ÑĢÐ¾Ð³ÑĢÐ°Ð¼Ð¼":8574,"ĠÐ½Ð°Ñĩ":8575,"Ġsplit":8576,"Ġearnings":8577,"imiento":8578,"urday":8579,"Ġê°Ģ":8580,"/S":8581,"GO":8582,"uj":8583,"service":8584,"Ġdiscrim":8585,"Ġlyr":8586,"å¾":8587,"Ġmad":8588,"ĠCheck":8589,"Ã©g":8590,"ChatGPT":8591,"levant":8592,"Ġsharing":8593,"Ġsubmissive":8594,"normal":8595,"åı¯":8596,"Ġgrade":8597,"Ġphotos":8598,"Ġking":8599,"Ġapple":8600,"ĠSecurity":8601,"Ġsuck":8602,"ĠÐ»Ð¸":8603,"Ġutilize":8604,"Const":8605,"Ġanatom":8606,"Ġmand":8607,"ĠPy":8608,"():Ċ":8609,"Ġdefinit":8610,".st":8611,"_g":8612,"Ġassert":8613,"duc":8614,"ĠÐ±Ð¾Ð»ÑĮ":8615,"èĥ½":8616,"Ġtien":8617,"Ġjog":8618,"ìĬ¤":8619,"Ð¸ÑĤÑģÑı":8620,"Ġdinner":8621,"Ġhypothetical":8622,"Ð²Ð»Ñı":8623,"ÑĨÐ¸Ð¸":8624,"ÑĨÑĸ":8625,"Ġhop":8626,"ĠBit":8627,"UI":8628,"cs":8629,"ìĺ":8630,"Ġconstit":8631,"Ġwinning":8632,"View":8633,"ì²":8634,"Ġboss":8635,"pi":8636,"why":8637,"ĠSchool":8638,"Ġyout":8639,"ĠÐ¼ÐµÑĤ":8640,"äºº":8641,"Ġtwice":8642,"194":8643,"ĠDecember":8644,"Ġunfiltered":8645,"girl":8646,"ocr":8647,"Ġ×Ĳ":8648,"Ġlogin":8649,"yles":8650,"ĠÑģÐ´ÐµÐ»":8651,".T":8652,"97":8653,"olit":8654,"Ġextracted":8655,"Ġtrig":8656,"Ġyo":8657,"Ġitalian":8658,"ĠÐ¾Ñĩ":8659,"ĠSuper":8660,"ieren":8661,"ĠNorth":8662,"Ġvoc":8663,"irection":8664,"Ġtempor":8665,"Comp":8666,"Ġpapers":8667,"ĠDI":8668,"blic":8669,"elles":8670,"ÐļÐ°Ðº":8671,"ĠÑģÐµÑĢ":8672,"íķĺëĬĶ":8673,"Ã¶ch":8674,"Ġschedule":8675,"Python":8676,"á»ĭ":8677,"wd":8678,"ĠTechnology":8679,"Ġhung":8680,"ÐµÑĤÑĮ":8681,"Ġzum":8682,"Ġsupported":8683,"ĠÐ¾Ð±ÑĬ":8684,"canvas":8685,"Ġcriteria":8686,"Ġpuedo":8687,"Ġhast":8688,"unge":8689,"unning":8690,"ä½łæĺ¯è°ģ":8691,"ÐºÐ°Ð·":8692,"Ġpresence":8693,"API":8694,"ĠMO":8695,"Ġcrow":8696,"Ġfashion":8697,"Ġearn":8698,"ĠCurrent":8699,"standing":8700,"Ġpatterns":8701,",S":8702,"rum":8703,"Ġhur":8704,"Ð½Ñĥ":8705,"Ġrob":8706,"uesday":8707,"ĠðŁĺ":8708,"ohn":8709,"Ġtent":8710,"Ġthous":8711,"Ġfart":8712,"Ġreser":8713,"Ġtexts":8714,"ameter":8715,"Ġfinance":8716,"Ġtiny":8717,"ìĹĲìĦľ":8718,"Ġ||":8719,"Ġ<=":8720,"ä¸Ĭ":8721,"ĠWork":8722,"Ġtrabaj":8723,"Ġphase":8724,"razil":8725,"find":8726,"eur":8727,"inations":8728,"Ġjug":8729,"ptember":8730,"Ġauthent":8731,"Translate":8732,"PEAKER":8733,"pack":8734,"emb":8735,"ĠALWAYS":8736,"ifi":8737,"They":8738,"Ġoffering":8739,"âĢĿĊ":8740,"vention":8741,"jection":8742,"hey":8743,"Ġses":8744,"eless":8745,"aint":8746,"åľ¨":8747,"Ġnh":8748,"ãģķãģĦ":8749,"table":8750,"Ġstim":8751,"Ġagg":8752,"Ġagency":8753,"Ġheavy":8754,"ï¿½ï¿½":8755,"igital":8756,"ĠBet":8757,"ĠScot":8758,"Sub":8759,"oys":8760,"Ġswe":8761,"Ġrise":8762,")\\":8763,"fw":8764,"emale":8765,"_list":8766,"adata":8767,"ĠPlay":8768,"Ġvida":8769,"iscal":8770,"ìłģ":8771,"ĠÐ¸Ð½ÑĦÐ¾ÑĢÐ¼":8772,"Ġsisters":8773,"Ġadopt":8774,"Ġcomputers":8775,"Ġindependent":8776,"Ġstd":8777,"å¤©":8778,"rated":8779,"ĠIP":8780,"ĠIndian":8781,"iences":8782,"lines":8783,"lands":8784,"Ġelle":8785,"Ġpeux":8786,"Ð»Ð¸Ñĩ":8787,"Ġsensual":8788,"ĠKey":8789,"Ġconfir":8790,"Ġcrim":8791,"åķ":8792,"onic":8793,"assword":8794,"rends":8795,"number":8796,"rael":8797,"Ġcrime":8798,"Ġmarks":8799,"-N":8800,"pg":8801,"section":8802,":'":8803,"ĠER":8804,"ĠÐ¿Ð¾ÑģÑĤ":8805,"Ġattra":8806,"Where":8807,"amin":8808,"Ġmejor":8809,"Ġverified":8810,"Ġmatches":8811,"Ġhypnot":8812,"æİ":8813,"ĉT":8814,"Ã³g":8815,"Ġpossib":8816,"Ġdiscount":8817,"lac":8818,"rog":8819,"ãĤ¹":8820,"Ġcarefully":8821,"Ġawait":8822,"Ġvalu":8823,"FAULT":8824,"Ġseduct":8825,"Ġagreed":8826,"æ±Ĥ":8827,"Ġcohere":8828,"Ġassets":8829,"Ġresulting":8830,"Ġrend":8831,"ĠFrau":8832,"ĠBlack":8833,"ĠIndustrial":8834,"she":8835,"Ġanx":8836,"Ġresponder":8837,"map":8838,"Ġnodes":8839,"ĠGermany":8840,"ĠprÃ©":8841,"LP":8842,"Ġwit":8843,"sec":8844,"Î³":8845,"Ġfamiliar":8846,"aws":8847,"Ġpuede":8848,"Sol":8849,"category":8850,"Reg":8851,"Ġsecure":8852,"%.":8853,"Game":8854,"Ġdiscussion":8855,"Ùİ":8856,"Ġgoods":8857,"ĠMet":8858,"ĠHTML":8859,"ĉP":8860,"Ġsan":8861,"Ġflight":8862,"Ġidentified":8863,"Ġnip":8864,"ĠCloud":8865,"button":8866,"ëĵ¤":8867,"Find":8868,"azioni":8869,"Ġsoll":8870,"zhou":8871,"Ð»ÐµÐ¼":8872,"ĠJava":8873,"Ġblonde":8874,"Ġrecognition":8875,"Î´":8876,"ĠTwo":8877,"Ġspaces":8878,"Ġlearned":8879,"Ġwind":8880,"group":8881,"Ġevening":8882,"Ġperforming":8883,"-on":8884,"Ġsand":8885,"Ġinfer":8886,"Ġcircle":8887,"Ġpalav":8888,"Ġpens":8889,"amily":8890,"enza":8891,"Ð¸Ñİ":8892,"Ġlocations":8893,"Ġorient":8894,"Ġdataframe":8895,"ACK":8896,"rec":8897,"Ġlaunch":8898,"Ġëª":8899,"Ġphysically":8900,"folio":8901,"Ġom":8902,"Ġja":8903,"âĢĻve":8904,"Ġbis":8905,"ecut":8906,"ĠINT":8907,".txt":8908,"?\\":8909,"YS":8910,"page":8911,"Ġ\"\",Ċ":8912,"ests":8913,"Ġshares":8914,"Ġrequested":8915,"Ġscenarios":8916,"Ð½ÑĭÐ¼Ð¸":8917,"Ġgrab":8918,"Note":8919,"Message":8920,"ku":8921,"uous":8922,"Ġslut":8923,"íĺ":8924,"vince":8925,"Ġunivers":8926,"endant":8927,"uda":8928,"204":8929,"inar":8930,"oles":8931,"ÑĢÐ°ÑĤ":8932,"Ġdesires":8933,"Ð°ÐºÑĤ":8934,"AGE":8935,"ĠPor":8936,"ĠMA":8937,"ĠFace":8938,"ĠYouT":8939,"Ġprep":8940,"Ġsy":8941,"Ġreject":8942,"Ġhes":8943,"Ġinfrastructure":8944,"Ġforces":8945,"ĠBY":8946,"apore":8947,"ĠSa":8948,"Ġsuperior":8949,"Ġsale":8950,"Ġmich":8951,"Ġlimits":8952,"ĠÐ¼Ð¾Ð¶Ð½Ð¾":8953,"adent":8954,"Ġ>>":8955,"ĠConsider":8956,"acional":8957,"prove":8958,"Ġlyrics":8959,"'ai":8960,"ÑĥÐ»ÑĮÑĤ":8961,"ques":8962,"ĠTotal":8963,"ĠHouse":8964,"Ġlets":8965,"Ġfinished":8966,"uÃªs":8967,"ĉM":8968,"ogether":8969,"Ġalloc":8970,"Ġattracted":8971,"Ġignore":8972,"UND":8973,"nake":8974,"Ġcities":8975,"---Ċ":8976,"ĠÙĬ":8977,"cope":8978,"Ġanalyst":8979,"iÃ¨re":8980,"Ġnan":8981,"Ġ\"\"\"":8982,"connect":8983,"à¦¾":8984,"Ġimprovement":8985,"Ġbodies":8986,"ĠÐ½Ð°Ð¿Ð¸ÑĪÐ¸":8987,"Ġbeauty":8988,"ĠÑĤÐµÐ±Ñı":8989,"eler":8990,"eper":8991,"Ġlen":8992,"Ġlands":8993,"125":8994,"ÑĥÐ½ÐºÑĨÐ¸":8995,"ĠĠĠĠĠĠĠĠĠĠĠĠĠĠ":8996,"endar":8997,"ibt":8998,"ĠVocÃª":8999,"ĠinformaciÃ³n":9000,"ĠNews":9001,"Ġpelo":9002,"ëł¤":9003,"];Ċ":9004,"irts":9005,"Ġviews":9006,"à¸ĩ":9007,"Ġthinks":9008,"Ġsituations":9009,"left":9010,"Ġsubmit":9011,"Ġoccur":9012,"Ġprotection":9013,"Ġtempo":9014,"Ġêµ":9015,"Ð¿ÑĢÐµÐ´":9016,"Ġinteractive":9017,"Ġcelebr":9018,"Cal":9019,"iso":9020,"ĠCount":9021,"oxy":9022,"ĠSoftware":9023,"Point":9024,"asi":9025,"ĠÐŃ":9026,"ago":9027,"Ġdogs":9028,"Ã¡n":9029,"web":9030,"uros":9031,"istration":9032,"Ð°Ð½Ð´":9033,"Ġunders":9034,"Ġdirector":9035,"Ð°ÑİÑī":9036,"ÐĽ":9037,"Ġgut":9038,"Ġsuit":9039,"Ġê·¸":9040,"ĠEven":9041,"Ġresponding":9042,"Ġhaben":9043,"rÃ©":9044,"ĠTur":9045,"Ġdiscipl":9046,"door":9047,"Ġguard":9048,"NS":9049,"gust":9050,"Ġanime":9051,"Ġrecords":9052,"Ġconhe":9053,"ìļ©":9054,"Ġmeine":9055,"ĠMax":9056,"actor":9057,"Ġ×Ķ×":9058,"iol":9059,"Ġcitiz":9060,"local":9061,"Ġsucc":9062,"cohol":9063,"190":9064,".x":9065,"Ġreached":9066,"ĠOper":9067,"Ġexplaining":9068,"Ġadministr":9069,"Ġannounced":9070,"select":9071,"ĠAccess":9072,"fered":9073,"ĠAsian":9074,"åĴ":9075,"inating":9076,"Ġ($":9077,"Ġmeu":9078,"Ġshoot":9079,"Ġseven":9080,"ÐºÑĢ":9081,"Ġbrought":9082,"ĠTable":9083,"Ġestud":9084,"ëªħ":9085,"Ġincred":9086,"Ġboot":9087,"ĠFebruary":9088,"Ġcosa":9089,"Consider":9090,"rical":9091,"Ġextreme":9092,"ahr":9093,"Ġsupports":9094,"Ġanswered":9095,"Ġinvolves":9096,"-level":9097,"Ġdut":9098,"Ġscores":9099,"ĠGame":9100,"proper":9101,"SFW":9102,"Ð¸Ð³":9103,"Ġentr":9104,"Ġlists":9105,"anna":9106,"Ġvisible":9107,"loat":9108,"Ġbrackets":9109,"ĠTake":9110,"iger":9111,"ĠDirect":9112,"crete":9113,"Ġswim":9114,"ORY":9115,"Ġweekend":9116,"Ġteaching":9117,"Ġsignal":9118,"Ġmurder":9119,"anish":9120,"Ġfresh":9121,"Ġsections":9122,"eps":9123,"Ġspect":9124,"ALL":9125,"Ġadvantage":9126,"BE":9127,"])":9128,"Ã½":9129,"archar":9130,"Ġjump":9131,"ĉĉĊ":9132,"Result":9133,"Ġpin":9134,"Ġmundo":9135,"etic":9136,"ìłľ":9137,"Ġfootball":9138,"ãģĹãģ¦":9139,"ĠCenter":9140,"è¦ģ":9141,"/or":9142,"Ġzone":9143,"ĠNever":9144,"Ġpictures":9145,"Characters":9146,"kin":9147,"aped":9148,"Ġverse":9149,"auf":9150,"Ġshowed":9151,"900":9152,"parent":9153,"Ġalgo":9154,"Ġensuring":9155,"uit":9156,"Ġchamp":9157,"Image":9158,"Ġfon":9159,"ilder":9160,"ĠaÃ±os":9161,"æı":9162,"Ġpink":9163,"ĠFollow":9164,"ĠBre":9165,"Ġapartment":9166,"Ġassigned":9167,"eln":9168,"cean":9169,"Ġmodify":9170,"ĠĠĠĠĠĠĠĠĠĠĠĠĠĠĠĠĠĠĠĠĠĠĠĠĠĠĠ":9171,"Ġcoach":9172,"Ġlights":9173,"Ġbenign":9174,"à¤¿à¤":9175,"92":9176,"Ġgenerator":9177,"ashing":9178,"Ġsyntax":9179,"Ġblow":9180,"orte":9181,"Ġrapid":9182,"Ġconfiguration":9183,"ìĽĲ":9184,"Ġentered":9185,"Ãºn":9186,"UESTION":9187,"ĠTABLE":9188,"ĠÑģÐ¾Ð¾Ð±Ñī":9189,"-py":9190,".\",Ċ":9191,"jis":9192,"aughty":9193,"Ġdominant":9194,"each":9195,"resses":9196,"ĠHead":9197,"Ġindicates":9198,"à¹Ģà¸":9199,"Ð°ÐµÐ¼":9200,"Ð»Ð¾Ð¶":9201,"Ð¸ÐºÐ°":9202,"Ġconsequences":9203,"base":9204,"Ġrig":9205,"icial":9206,"DP":9207,"arge":9208,"esto":9209,"abul":9210,"Ġfunctional":9211,"ĠIV":9212,"Ġkm":9213,"Ġinvolve":9214,"fast":9215,"lock":9216,"enz":9217,"Ġhund":9218,"imit":9219,"pring":9220,"Ġcritic":9221,"ĠCalifornia":9222,"-like":9223,"Att":9224,"ĥĿ":9225,"Ġhier":9226,"ande":9227,"Ã³ria":9228,"Ġextension":9229,"Ġonde":9230,"Ġcomply":9231,"ĠKEY":9232,"ikip":9233,"æŀ":9234,"Ġnie":9235,"ĠMat":9236,"ÑĨÐ¸Ð°Ð»ÑĮ":9237,"Ġwelcome":9238,"Ġneck":9239,"Ġcontrast":9240,"Ġdetection":9241,"Ġputs":9242,"xxxx":9243,"\"><":9244,"sche":9245,"Ġ)Ċ":9246,"ceived":9247,"udd":9248,"eld":9249,"conc":9250,"Ġencourage":9251,"Ġ]Ċ":9252,"ĠinformaÃ§Ãµes":9253,"ĠAnaly":9254,"while":9255,"Color":9256,"sure":9257,"Ġtout":9258,"Ġtexte":9259,"insert":9260,"ĠRepublic":9261,"Ġíķľ":9262,"Ġsed":9263,"ĠAR":9264,"ĠÐ¿Ð¾Ð½":9265,"close":9266,"Ġattractive":9267,"Ġcours":9268,"isco":9269,"ĠIA":9270,"Ġdiscover":9271,".append":9272,"aper":9273,"true":9274,"ãģĪ":9275,"ĠNext":9276,"/w":9277,"ĠSO":9278,"Ġcontr":9279,"Ġedgy":9280,"Ġpodcast":9281,"Ġìĭľ":9282,"ĠSup":9283,".(":9284,"_F":9285,"ĠEast":9286,"Ġpresentation":9287,"ĠÐ¿Ð¾Ð²":9288,"ĠItalian":9289,"Ġrepresentation":9290,"location":9291,"eras":9292,"Ġpure":9293,"Ġwears":9294,"inded":9295,"á»ĥ":9296,"Index":9297,"ford":9298,"Ġstocks":9299,"Ġmedication":9300,"Ġlesson":9301,"Ġcommunic":9302,"Ġaroused":9303,"Ġpromote":9304,"æľĢ":9305,"Ġintegration":9306,"bound":9307,"fess":9308,"ĠTask":9309,"ĠÃī":9310,"Ġencont":9311,"akers":9312,"Ġcliente":9313,"Ġhappening":9314,"lik":9315,"sex":9316,"ĠDi":9317,"ĠStand":9318,"Ġdonn":9319,"Ġending":9320,"Ġmuito":9321,"ĠĠĠĊ":9322,"ìĿ¼":9323,"Ġeggs":9324,"Ġsuiv":9325,"stitute":9326,"Ġbil":9327,"indo":9328,"ĠÑģÐ¸ÑģÑĤÐµÐ¼":9329,"Ġtrend":9330,"Ġreviews":9331,"-pro":9332,"ĠÐ·Ð½Ð°Ñĩ":9333,"ĠShould":9334,"ĠÑģÐ»ÐµÐ´ÑĥÑİÑī":9335,"ëĲ":9336,"Ġĉ":9337,"Ġshell":9338,"Ġcoin":9339,"ugar":9340,"ĠCanada":9341,"ÙĬÙĨ":9342,"Ġexists":9343,"Ġviolent":9344,"ĠÙĥ":9345,"Ġreaction":9346,"rac":9347,"anÃ§ais":9348,"otion":9349,"Ġapenas":9350,"Ã´ng":9351,"Ġresolution":9352,"\\\",":9353,"ĨĴ":9354,"Ġmg":9355,"enty":9356,"blank":9357,"Open":9358,"pense":9359,"Ġsalary":9360,"oration":9361,"loro":9362,"ooper":9363,"Ġaren":9364,"ĠPC":9365,"ĠBi":9366,"arte":9367,"ector":9368,"Ð¾ÑĤÐ¾Ð²":9369,"Ġyoutube":9370,"META":9371,"ÐµÐ¹ÑģÑĤÐ²":9372,"Ġemotion":9373,"ĠMonday":9374,"ĠFormat":9375,"Ġven":9376,"Ġobserv":9377,"Ġdefy":9378,"column":9379,"ĠÑĦÐ¾ÑĢÐ¼":9380,"Ġdifficulty":9381,"BM":9382,"Ġfif":9383,"ĠDisc":9384,"Log":9385,"ĠAbs":9386,"Ġabide":9387,"ĠAuto":9388,"Ã³s":9389,"Ġpanties":9390,"Ø¶":9391,"Ġantic":9392,"Ġesp":9393,"Ġcapture":9394,"ĠGlobal":9395,"ÑĢÐ°Ð±Ð¾ÑĤ":9396,"Does":9397,"Ġcriar":9398,"([":9399,"osh":9400,"oin":9401,"METH":9402,"Ġoccas":9403,"åıĤ":9404,"Return":9405,"Ġperman":9406,"Ð§":9407,"ï»":9408,"Ġwest":9409,"Ġgal":9410,"Ġih":9411,"Ġreporting":9412,"/lib":9413,"iendo":9414,"Ġspirit":9415,"*Ċ":9416,"Score":9417,"Ġpizza":9418,"Ð¼Ð¾Ð¶":9419,"Ġ×ŀ×":9420,"Ã©cn":9421,"Element":9422,"Ġdance":9423,"Ġbecoming":9424,"Ġmail":9425,"[Instruction":9426,"Ġell":9427,"henyl":9428,"roduce":9429,"retend":9430,"Ġarchitect":9431,"ĠLinux":9432,"Ġautomatically":9433,"rivate":9434,"ĠÐ¾ÑĢ":9435,"Ġgrant":9436,"Ġdecides":9437,"-ex":9438,"Some":9439,"´Ģ":9440,"Ġfell":9441,"ĠNove":9442,"Ġdevi":9443,"Ġtechnique":9444,"Ġenvironmental":9445,"Follow":9446,"that":9447,"Ġcontents":9448,"Ġattend":9449,"Ġtesto":9450,"Ġdevelopers":9451,"Ġoccup":9452,"Ġmarkets":9453,"DO":9454,"Ġpm":9455,"Ġdich":9456,"ĠKorea":9457,"ansion":9458,"Ġdefinitely":9459,"_M":9460,"Ġretail":9461,"ÐĿÐ°Ð¿Ð¸ÑĪÐ¸":9462,"ĠÑĩÐµÐ»Ð¾Ð²ÐµÐº":9463,"letic":9464,"ĠEU":9465,"ÐºÐ»ÑİÑĩ":9466,"Ġgenerally":9467,"chaft":9468,"Qual":9469,"ãĤĮ":9470,"ursday":9471,"Spe":9472,"TR":9473,"×ł":9474,"estamp":9475,"emory":9476,"ĠPark":9477,"ĠDa":9478,".canvas":9479,"Each":9480,"Our":9481,"mind":9482,"eme":9483,"poration":9484,"Ġprivacy":9485,"Ġ..":9486,"Ġdad":9487,"anti":9488,"Ġhelped":9489,"\"]Ċ":9490,"%)":9491,"ĠmÃ¡":9492,"abs":9493,"structure":9494,"Imagine":9495,"ĠAugust":9496,"Ġwenn":9497,"imum":9498,"âĢĺ":9499,"ĠÑĤÐµÐ¼":9500,"mall":9501,"emos":9502,"ĠBack":9503,"ĠEconom":9504,"ativity":9505,"ikipedia":9506,":NAME":9507,"when":9508,"Ġtherefore":9509,"-L":9510,"icio":9511,"Ġrelax":9512,"ĠÐĿÐ°Ð¿Ð¸ÑĪÐ¸":9513,"Ġbooking":9514,"ĠSince":9515,"defined":9516,"Ġhypothesis":9517,"ãģ§ãģĻ":9518,"ìĸ´":9519,"Ġpowers":9520,"Ġfigures":9521,"Subject":9522,"åĩ":9523,"èĢ":9524,"ifficult":9525,"ÃŃcul":9526,"Ġfake":9527,"Ġsein":9528,"ilet":9529,"Ġexcellent":9530,"Def":9531,"Ġessere":9532,"220":9533,"SPEAKER":9534,"Ġdesde":9535,"tee":9536,"ìĦ¸":9537,"ĠÐ¸Ð½ÑĤÐµÑĢ":9538,"olic":9539,"Ġroles":9540,"×ķ×ª":9541,"ĠDay":9542,"ĠÐ²Ð¾":9543,"Ġmuscular":9544,"Ġeventually":9545,"Ġassessment":9546,"ilo":9547,"Ð¸ÐºÐ¸":9548,"ĠÐŀÑĤ":9549,"ëĿ¼":9550,"atz":9551,"ĠPO":9552,"ĠLittleGPT":9553,"-the":9554,"ĠOrgan":9555,"Ġsam":9556,"Ġdescri":9557,",Model":9558,"ĠMain":9559,"igned":9560,"visor":9561,"ĠBrazil":9562,"Ġessa":9563,"Ġregardless":9564,"Ġjudge":9565,"ĠÃªtre":9566,"Ġthro":9567,"Ð¾Ñī":9568,"103":9569,"ĠÐ¼Ñĭ":9570,"ĠSupport":9571,"Med":9572,"May":9573,"Ġont":9574,"ĠDES":9575,"creen":9576,"Ġexpensive":9577,"Ġdestroy":9578,"Ġfundamental":9579,"heit":9580,"ÐºÑĢÐ°":9581,"ĠÑĤÐ²":9582,"Ġdelimited":9583,"Ġcentury":9584,"å¤ļ":9585,"Ġllama":9586,"BOT":9587,"city":9588,"ipped":9589,"Ġfare":9590,"edy":9591,"Ġappropriately":9592,"'.Ċ":9593,"ĠExp":9594,"Mod":9595,"Ġmerc":9596,"otica":9597,"Ġ\"Ċ":9598,"iano":9599,"Ġupdates":9600,"Ġordered":9601,"ç¤":9602,"rew":9603,"Ġnaughty":9604,"Ġspent":9605,"-gener":9606,"Ġconfines":9607,"Ġphilosoph":9608,"Five":9609,"bt":9610,"æ¡":9611,"Ġcaught":9612,"Ġgru":9613,"ë©´":9614,"hors":9615,"Ġrecip":9616,"-R":9617,"Ġdoub":9618,"ĠÑģÐ¾Ð·Ð´":9619,"ÃŃn":9620,"Ġelev":9621,"Î¸":9622,"ĠWel":9623,"ĠRoom":9624,"Ġarrest":9625,"ĠÑģÐ¾Ð±":9626,"à¸¡":9627,"Ð¸ÑģÑĮ":9628,"åĴĮ":9629,"Ġoffered":9630,"Ġenable":9631,"Ġvez":9632,"ĠWhisky":9633,"cio":9634,"Ġtherapy":9635,"ayout":9636,"field":9637,"ĠÑĩÐµÑĢ":9638,"Î±Î¹":9639,"Ġfixed":9640,"Ġwhats":9641,"Ġanymore":9642,"Ġincident":9643,"Ġdynamic":9644,"ĠDocument":9645,"Ġtriangle":9646,"ordance":9647,"Ġobtained":9648,"Ġprojet":9649,"ĠBuilding":9650,"ĠBecause":9651,"ĠĊĠĊ":9652,"Ġinstr":9653,"Ġaccompl":9654,"ĠYouTube":9655,"ackages":9656,"áº¥":9657,"Ãī":9658,"ìĿ´ë":9659,"Ġseeking":9660,"ĠUnion":9661,"Ħì":9662,"Ġconsists":9663,"ĠMarketing":9664,"mnc":9665,"ãĤ¤":9666,"Ġpainting":9667,"Ġlit":9668,"rias":9669,"ancer":9670,"Ã¼ck":9671,"ĠÑĩÐ°ÑģÑĤ":9672,"Ġlinear":9673,"ĠSecond":9674,"Ġapproaches":9675,"ĠFre":9676,"á»§":9677,"Ġprecise":9678,"ÐµÐ´Ð¸":9679,"ĠPal":9680,"ĠGPU":9681,"Ġjoint":9682,"Ġhttp":9683,"icer":9684,"ears":9685,"ĠResearch":9686,"Ġsignificantly":9687,"Ġpou":9688,"Ġscan":9689,"Ġfulfill":9690,"ĠDuring":9691,"Ã¤nd":9692,"-j":9693,"Ġbanter":9694,"Ġyesterday":9695,"ĠØ¯":9696,"Ġrefuse":9697,"ĠEnron":9698,"Ġshopping":9699,"Ġinstalled":9700,"ĠnÃºmero":9701,".P":9702,"oir":9703,"Ġcow":9704,"anghai":9705,"Ġmotion":9706,"Ġbriefly":9707,".de":9708,"AIN":9709,"Begin":9710,"ãģıãģł":9711,"img":9712,"Ð»Ð°Ð²":9713,"ktop":9714,"Ġimmers":9715,"Ġseductive":9716,"Ġlived":9717,"ildren":9718,"ISTER":9719,"mask":9720,"ĠCONT":9721,"ĠRest":9722,"Ġresource":9723,"Ġdiet":9724,"Ġcycle":9725,"ãģıãģłãģķãģĦ":9726,"Ġiron":9727,"åŃĲ":9728,"Ġtong":9729,"Ġhero":9730,"Ġcodes":9731,"ĠANY":9732,"Ġê¸°":9733,"zure":9734,"Ġcurrency":9735,"Ġconver":9736,"Ð»ÐµÐ½Ð¸Ðµ":9737,"[META":9738,"Ġinflation":9739,"Ġpalab":9740,"ĠÐ¾Ð´Ð¸Ð½":9741,"Ġvirgin":9742,"å¹´":9743,"Ġrecommended":9744,"Ġcoding":9745,"Ð°ÑĨÐ¸Ñı":9746,"Ġneighbor":9747,".y":9748,"atal":9749,"Ġnerv":9750,"Ġdelete":9751,"å¯":9752,"Ġcontexto":9753,"Ġprotocol":9754,"_CONTENT":9755,">\"Ċ":9756,"Ïĩ":9757,"ĠString":9758,"ensored":9759,"ãĢĢ":9760,"ĠÑĦÑĥÐ½ÐºÑĨÐ¸":9761,"Ã¢n":9762,"ĠBritish":9763,"lie":9764,"Ġfly":9765,"ĠØ³":9766,"TC":9767,"imi":9768,"ĠSal":9769,"ĠMal":9770,"udent":9771,"ÑģÐºÐ¾Ð¹":9772,"Ġmaintenance":9773,"Ġequival":9774,"guntas":9775,"iÃ§Ã£o":9776,"security":9777,"Ġaccurately":9778,"IVE":9779,"_r":9780,"Ġ...Ċ":9781,"Ġsull":9782,"Ġproof":9783,"Ġdesenvol":9784,"Ġlapt":9785,"Ġaccounts":9786,"har":9787,"èĭ":9788,"Ġconvincingly":9789,"ĠÐ¿Ð¾Ð»ÑĮÐ·Ð¾Ð²Ð°ÑĤ":9790,"ĠSte":9791,"ÑĢÐ¾Ð±":9792,"ĠBBC":9793,"ĠÐ¿Ð°ÑĢ":9794,"ĠìķĮ":9795,"Ġaid":9796,"Ð»ÐµÐ´":9797,"ĠCOMMENT":9798,"Ġfrag":9799,"ĠThought":9800,"Ġrespectively":9801,"Ġnarratives":9802,"och":9803,"Ġmodo":9804,"Ġcolon":9805,"ĠØ±":9806,"çİ":9807,"Ġnoch":9808,"Ġproperly":9809,"Ġmassive":9810,"ĠSaturday":9811,"ĠEu":9812,"Ġoccurre":9813,"eting":9814,"uls":9815,"Ġalgorithms":9816,"esse":9817,"ĠÑģÐµÐ±":9818,"plex":9819,"Ġtodas":9820,"Ġfrequency":9821,"ëį":9822,"Ġveget":9823,"False":9824,"hand":9825,"Ġfait":9826,"semb":9827,"Ġprove":9828,"ĠÐºÐ°Ð¶Ð´":9829,"Î¹Î±":9830,"ĠÐłÐ¾ÑģÑģ":9831,"Group":9832,"Ġinstrument":9833,"Ġcant":9834,"Ġkon":9835,"orship":9836,"ĠFinally":9837,"IME":9838,"ani":9839,"ĠNSFW":9840,"ientes":9841,"ĠÂ£":9842,"ĠDirector":9843,"ilter":9844,"Ġminor":9845,"arrass":9846,"à§ĩ":9847,"oche":9848,"Ġrain":9849,"ĠSpanish":9850,"Ġcombined":9851,"Ġinnovative":9852,"Ver":9853,"ĠÑĥÐ¼":9854,"Ġjournal":9855,"Ġportugues":9856,"omach":9857,"Ġdiagram":9858,"åī":9859,"ĠBar":9860,"à¤Ĥ":9861,"zed":9862,"veis":9863,"Ġfactual":9864,"-tu":9865,"Ġpoder":9866,"Obj":9867,"ĠSEO":9868,"Ġaffected":9869,"Ġelaborate":9870,"-related":9871,"=True":9872,"Out":9873,"ĠÚ©":9874,"icion":9875,"entle":9876,"ĠĠĠĠĠĠĠĠĠĠĠĠĠĠĠĠĠ":9877,"Ġtalks":9878,"Ġcontainer":9879,"Ġdistinct":9880,"ĠIsrael":9881,"emplate":9882,"Ġdess":9883,"ĠCup":9884,"Ġstrange":9885,"Ġconstraints":9886,"Ġurl":9887,"asa":9888,"Ġlighting":9889,"åŁº":9890,"ificar":9891,"num":9892,"then":9893,"ĉif":9894,"emper":9895,"Ġprefix":9896,"Ġrev":9897,"rican":9898,"ĠEnter":9899,"Ð¸Ð·Ð½":9900,"ĉNAME":9901,"ÑıÑĤÑĮ":9902,"Ġhabe":9903,"Ġfailure":9904,"å·":9905,"ĠMag":9906,"ideo":9907,"Ġbenefic":9908,"spe":9909,"ania":9910,"ĠAvoid":9911,"inder":9912,"ĠÐ²ÐµÑĢ":9913,"åĮº":9914,"Ġdragon":9915,"Constraints":9916,"neh":9917,"ĠEngland":9918,"700":9919,"ECT":9920,"main":9921,"×§":9922,"Ġiter":9923,"ĠPat":9924,"Ġpert":9925,"PH":9926,"ĠMont":9927,"Ġprison":9928,"Ġfunds":9929,"Ġconversational":9930,"ĠportuguÃªs":9931,"Ġobserved":9932,".\",":9933,"EA":9934,"Ġreward":9935,"Ġfraud":9936,"ln":9937,"éģ":9938,"ÑģÐºÐ°Ð·":9939,"Ġmainly":9940,"Ġjava":9941,"ĠVers":9942,"orse":9943,"Ġmont":9944,"Inst":9945,"Ġinnoc":9946,"ĠAccount":9947,"ĠCome":9948,"Ġphp":9949,"Ġorigin":9950,"Ġlinked":9951,"Ġtutor":9952,"Ġstructures":9953,"Ġemojis":9954,"ĠElect":9955,"Ġintimate":9956,"Ġcer":9957,"Ġfrench":9958,"amera":9959,"ĠDist":9960,"oca":9961,"Ġvehicles":9962,"rut":9963,"ĠÙĨ":9964,"hether":9965,"Ġslave":9966,"Ġremaining":9967,"Eng":9968,"Help":9969,"Ok":9970,"ANG":9971,"Ġliterature":9972,"Ġutter":9973,"']Ċ":9974,"arrow":9975,"ĠExper":9976,"itors":9977,"URE":9978,"ĠAsk":9979,"Exception":9980,"ifficulty":9981,"gener":9982,"Ġcasual":9983,"Ġmistake":9984,"Ġyield":9985,"Ġleadership":9986,"ĠÐ½ÑĥÐ¶Ð½Ð¾":9987,"Ġpropose":9988,"Ġjs":9989,"ionally":9990,"ĠLLMs":9991,"_v":9992,"isk":9993,"Ġformatted":9994,"OG":9995,"Ġstack":9996,"Ġexploring":9997,"Ġpartners":9998,"Ġsupposed":9999,"ĠPrem":10000,"ĠML":10001,"Ã¡c":10002,"ĠÑĩÐ¸Ñģ":10003,"Ġpronouns":10004,"nic":10005,"enti":10006,"Ġthigh":10007,"amiento":10008,"utos":10009,"ĠTwitter":10010,".B":10011,"Prompt":10012,"cup":10013,"ipping":10014,"fits":10015,"Ġreverse":10016,"Ġconstru":10017,"irty":10018,"Ġproduced":10019,"ĠchatGPT":10020,"ĠTeam":10021,"à¸¢":10022,"gle":10023,"Ġoblig":10024,"level":10025,"ocolate":10026,"/L":10027,"à¸§":10028,"à¸µ":10029,"Ġraised":10030,"iki":10031,"holder":10032,"imp":10033,"Ġshift":10034,"ĠLast":10035,"Ġescol":10036,"á»ģ":10037,"ÐĴÑĭ":10038,"RID":10039,"Ġgather":10040,"Ġformato":10041,"Ġquesto":10042,"-r":10043,"example":10044,"Ġreli":10045,"à¦°":10046,"ĠÑıÐ²Ð»Ñı":10047,"Ġfo":10048,"mediate":10049,"Ġbesch":10050,"ÑĤÐµ":10051,"ëĤĺ":10052,"Using":10053,"ÑĨÐ°":10054,"valid":10055,"HS":10056,"ĠTherefore":10057,"Ġfalls":10058,"ĠWednesday":10059,"Ġreduced":10060,"LT":10061,"Ã¨me":10062,"Ġapologize":10063,"yc":10064,"ruct":10065,"Ġpromotes":10066,"Ġcovers":10067,"Ġfamil":10068,"Ġcodice":10069,"Ġbottle":10070,"Rephrase":10071,"Ãĥ":10072,"angers":10073,"ÙĦÙī":10074,"Ġattacks":10075,"Ġgerman":10076,"expected":10077,"ĠÐ¿ÑĢÐ¸Ð¼ÐµÑĢ":10078,"Ġexperts":10079,"Ġcontained":10080,"Ġvulnerable":10081,"Ġpare":10082,"asoning":10083,"-W":10084,"Ġuniform":10085,"avor":10086,"ĠprÃ³":10087,"Ġporque":10088,"Î®":10089,"Ġdann":10090,"Ġadvised":10091,"Phone":10092,"Ġajud":10093,"-tun":10094,"Ġdiffusion":10095,"'une":10096,"-be":10097,"ĠFood":10098,"redit":10099,"Ġtired":10100,"Ġcro":10101,"Ġ\".":10102,"usamm":10103,"world":10104,"grees":10105,"ĠREGISTER":10106,"_input":10107,"amen":10108,"Ġdiscret":10109,"åıĤæķ°":10110,"Current":10111,"æ°":10112,"Ġindustrial":10113,"Ġhack":10114,"__(":10115,"Ġcasa":10116,"mates":10117,"ĠTEXT":10118,"Ġdois":10119,"Ġdesired":10120,"Ġinvolving":10121,"Ġingredients":10122,"Part":10123,"ĠInvest":10124,"Ġraw":10125,"Project":10126,"Ġcabinet":10127,"plicit":10128,"Ġ``(":10129,"Ġdating":10130,"Ġhide":10131,"Ð²Ð¾Ð»":10132,"choice":10133,"ĉB":10134,"employ":10135,"ÑĥÑīÐµ":10136,"Ġoutcome":10137,"control":10138,"Ġembarrass":10139,"ĠTransform":10140,"íķ´ì¤ĺ":10141,"UD":10142,"Ġhan":10143,"ĠDom":10144,"version":10145,"Ġentertain":10146,"ÃŃst":10147,"server":10148,"hole":10149,"ĠCapital":10150,"icar":10151,"Ġcompletes":10152,"versation":10153,"redict":10154,"ĠÎº":10155,"Ð¸Ð»Ð°":10156,"×ĵ":10157,"ulations":10158,"However":10159,"ĠNovember":10160,"height":10161,"Ġcomme":10162,"ĠfranÃ§ais":10163,"Ġcuenta":10164,"Ġcriminal":10165,"iat":10166,"Ġshorter":10167,"108":10168,"Ġmostly":10169,"ãĤĬ":10170,"ĠÐ³Ð¾ÑĢ":10171,"Como":10172,"}{":10173,"Äį":10174,"estic":10175,"Ġ:=":10176,"pie":10177,"Ġcamb":10178,"ĠTrad":10179,"Ġstated":10180,"Ġarrive":10181,"Ġepisode":10182,"\")ĊĊ":10183,"emic":10184,"ĠÑĢÐµÑĪ":10185,"IES":10186,"idget":10187,"ĠPo":10188,"âĢĻll":10189,"ĠâĪ":10190,"Ġtransformation":10191,"Ġcrucial":10192,"ĠSl":10193,"ĠBras":10194,"Ð°ÑĢÐ¸":10195,"points":10196,"_e":10197,"ĠPut":10198,"Ã©l":10199,"rito":10200,"Ġcircumst":10201,"End":10202,"ÑĥÑħ":10203,"Ġproposal":10204,"QA":10205,"Ġble":10206,"ATA":10207,"Ġplane":10208,"è¨":10209,"ĠLong":10210,"gric":10211,"Ġincreases":10212,"ĠArticle":10213,"Ġmeets":10214,"ĠÐ¸ÑģÑĤ":10215,"Ġkept":10216,"Ġimpress":10217,"eno":10218,"ĠTuesday":10219,"ivered":10220,"ĠTheir":10221,"Ġtema":10222,"Ġpersonalized":10223,"ĠCAN":10224,"eding":10225,"Ġworkers":10226,"Story":10227,"Ġproficiency":10228,"Ġexpertise":10229,"top":10230,"¹Ħ":10231,"Ġfabric":10232,"ĠDat":10233,"Ġtreated":10234,"ĠAccording":10235,"Ġsport":10236,"Ġdurch":10237,"Ġlock":10238,"Ġjak":10239,"åĨĻ":10240,"ĠtambÃ©m":10241,"Ġchosen":10242,"Ġimproving":10243,"Ġexciting":10244,"Ġvillage":10245,"Ġvaluable":10246,"iÃ©n":10247,"orig":10248,"Ġbeat":10249,"Ġphysics":10250,"Ġultimate":10251,"iot":10252,"Ġspell":10253,"como":10254,"ĠÑĤÐµÑħ":10255,"ĠSeptember":10256,"Ġchicken":10257,"Ġverd":10258,"193":10259,"ÑĨÐµÐ½":10260,"after":10261,"Ġscenes":10262,"Ġcoordinates":10263,"Ġunderscore":10264,"dy":10265,"Ġwarning":10266,"Ġborder":10267,"ĠSay":10268,"ĠJob":10269,"Ġagents":10270,"apping":10271,"Ġreasonable":10272,"Ġhardware":10273,"ĠÐ¿ÐµÑĢÐµÐ´":10274,"UID":10275,"count":10276,"Ġwave":10277,"à¸Ķ":10278,"ateral":10279,"Ġpresents":10280,"ĠCommun":10281,"ĠÑģÑĤÐ¾":10282,"Ġbitte":10283,"Ġsnake":10284,"ifies":10285,"ĠHome":10286,"Ġinspir":10287,"ĉS":10288,"ĠImage":10289,"Only":10290,"Ð°ÐµÑĪÑĮ":10291,"Ġ\",":10292,"ÑĭÐ¼":10293,"ĠÐ¼Ð¾Ð´":10294,"-minded":10295,"lights":10296,"æŃ":10297,"Ġforth":10298,"ambda":10299,"Ġplays":10300,"åŃĹ":10301,"Ġprocedure":10302,"/Action":10303,"=[":10304,"ĠÐ²Ð½":10305,"Ã¡g":10306,"Ġdelicious":10307,"ymbol":10308,"Ġsupporting":10309,"ship":10310,"×¢":10311,"Ġrect":10312,"Ġsevere":10313,"åĢ¼":10314,"(B":10315,"];":10316,"203":10317,"ĠParis":10318,"Ġestablished":10319,"WER":10320,"option":10321,"Å¾":10322,"Ġjet":10323,"Ġweights":10324,"ĠÐ¿Ð¾ÑĤ":10325,"Ġexpenses":10326,"Ġinfl":10327,"ĠÐ¢Ñĭ":10328,"rei":10329,"ĠDer":10330,"ĠHR":10331,"client":10332,"Ġapresent":10333,"ĠÐ³ÑĢ":10334,"Ġpaying":10335,"ĠEmp":10336,"-play":10337,"Aut":10338,"ĠRef":10339,"Ġsynonym":10340,"ulative":10341,"urther":10342,"ourse":10343,"Ġbelly":10344,"Ġwouldn":10345,".location":10346,"Ġinvestigation":10347,"Ġintelig":10348,"ĠâĢ¦":10349,"Ġaudiences":10350,"Ġjed":10351,"Ġdatasets":10352,"Ġresolve":10353,"ĠObjective":10354,"Ġmater":10355,"Ġbird":10356,"urous":10357,"Ġhet":10358,"ĠAdmin":10359,"Ġparticipant":10360,"istrict":10361,"Line":10362,"Ġinser":10363,"Ġmoves":10364,"Ġcomparison":10365,"Effect":10366,"task":10367,"ĠLA":10368,"Ġeditor":10369,"Ġthor":10370,"Ġflor":10371,"ĠSunday":10372,"Ġorganizations":10373,"MAT":10374,"ÑıÐ´":10375,"Ref":10376,"Test":10377,"ĠmÃ©d":10378,"Ġsugar":10379,"allo":10380,"ishing":10381,"Ġwhenever":10382,"Ġspr":10383,"ãĤī":10384,"Ġmargin":10385,".',":10386,"Ġíķĺ":10387,"Ġpus":10388,"Ġusuario":10389,"ë¶Ģ":10390,"íĬ":10391,"het":10392,"Ġcats":10393,"Ġpdf":10394,"Ġforced":10395,"Ġsheet":10396,"Ġrecover":10397,"Ġ(-":10398,"Ġelection":10399,"Ġcooking":10400,"Ġgift":10401,"Ġplate":10402,"ĠChange":10403,"Ġbuying":10404,"Ġtrouble":10405,"ĠStar":10406,"ĠÑĥÐ´":10407,"ĠÐ»ÐµÑĤ":10408,"ÑħÐ¾Ð´Ð¸Ð¼":10409,"LA":10410,"Ġupload":10411,"ĠÐ¿Ð¾Ð¿":10412,"Ġrare":10413,"appy":10414,"Ġabsolutely":10415,"-G":10416,"customer":10417,"iate":10418,"sfw":10419,"Ġmim":10420,"Ġcomputing":10421,"OK":10422,"ĠMac":10423,"bec":10424,".I":10425,"Two":10426,"Ġenf":10427,"Ġaggress":10428,"Instructions":10429,"ÙĦÙĬ":10430,"Ġrealiz":10431,"ribute":10432,"Could":10433,"Ð¯":10434,"Ġcontribute":10435,"ĠÐ¸ÑģÐ¿Ð¾Ð»ÑĮÐ·":10436,"Ġwine":10437,"ntes":10438,"ĠrÃ©s":10439,"Ġplants":10440,"ÐµÑī":10441,"Ġstret":10442,"Ġchi":10443,"apes":10444,"Ġcards":10445,"Ġminha":10446,"Ġorgasm":10447,"ë§Į":10448,"ĠSS":10449,"Ġring":10450,"These":10451,".F":10452,"draw":10453,"plays":10454,"ĠGen":10455,"orders":10456,"AIL":10457,"æĪ·":10458,"Ġancient":10459,"'ĊĊ":10460,"(m":10461,"Ġsig":10462,"ĠBas":10463,"ĠØŃ":10464,".--":10465,"vil":10466,"Ġconcerned":10467,"éĻ":10468,"ĠSom":10469,"Ġlav":10470,"Ġpeut":10471,"ĠLeague":10472,"ĠCOMP":10473,"rior":10474,"Ġpregunta":10475,"Ġenjoys":10476,"IB":10477,"Ġsir":10478,"Ġspring":10479,"ÐµÑĢÐ°ÑĤ":10480,"Ġsongs":10481,"That":10482,"wide":10483,"ĠÐ±Ð¾Ð»":10484,"Ġdiscretion":10485,"ĠÐ¿Ð¾Ð·":10486,"Ġnegot":10487,"Ġps":10488,"ãģį":10489,"Ġtea":10490,"Ø§ÛĮ":10491,"Ġpremise":10492,"Ġsuas":10493,"Ġkh":10494,"arme":10495,"Ġtrial":10496,"âĢ¦âĢ¦âĢ¦âĢ¦":10497,"Sch":10498,"ĠCoun":10499,"Ã¡rios":10500,"Ġprovider":10501,"Ġfilt":10502,"ĠìĿ´ì":10503,"Ġbin":10504,"ading":10505,"Ġflag":10506,"Ġsurg":10507,"Ð¸Ð´ÑĥÐ¼":10508,"ĠÐ¶Ðµ":10509,",H":10510,"Ignore":10511,"PR":10512,"di":10513,"uten":10514,"ĠSex":10515,".game":10516,"ÑĤÐ¸":10517,"ĠOpt":10518,"Ġdepending":10519,"-packages":10520,"ë¬¸":10521,"ataset":10522,"Ġnation":10523,"Ġfantas":10524,"Ġmonitoring":10525,"afe":10526,"food":10527,"Ġtor":10528,"Ġgone":10529,"ĠLLa":10530,"Ġspending":10531,"ĠStep":10532,"inent":10533,"ragen":10534,"Ġtonight":10535,"abulary":10536,"issions":10537,"Ġsetup":10538,"ĠìĿ´ë":10539,"Ġmanufacturing":10540,"rea":10541,"riz":10542,"det":10543,"Ġmob":10544,"ĠNa":10545,"ĠNav":10546,"Ġrespuesta":10547,"Ð²ÐµÑģÑĤ":10548,"ìĬµ":10549,"abetes":10550,")?":10551,"uber":10552,"Ġgig":10553,"ĠPay":10554,"formance":10555,"LC":10556,"Ġnorth":10557,"ÑģÐºÐ¸Ð¹":10558,"\";":10559,"kom":10560,"script":10561,"ÐµÐ½Ð°":10562,"ĠSingapore":10563,"Est":10564,"wan":10565,"ĠINPUT":10566,"Location":10567,"YPE":10568,".In":10569,"quin":10570,"Ġsigns":10571,"Ø§Ø¯":10572,"LOR":10573,"Ġnative":10574,"ilot":10575,"emon":10576,"php":10577,"Ġtur":10578,"alla":10579,"ĠEmploy":10580,"atar":10581,"Ġlunch":10582,"Ġfort":10583,"ĠTax":10584,"Ġeconomist":10585,"Ġsac":10586,"Ġvit":10587,"ĠVe":10588,"Ð¾ÑģÑĮ":10589,"Ġexecution":10590,"Ġnoise":10591,"Ġimportante":10592,"ĠParty":10593,"false":10594,"ëŁ":10595,"Ġ.ĊĊ":10596,"amo":10597,"Ġtransition":10598,"Ġideal":10599,"Ġspeaker":10600,"white":10601,"Ġuncertain":10602,"Ġefforts":10603,"ç½":10604,"riage":10605,"Ġride":10606,"ĠLos":10607,"ĠdÃ©c":10608,"Ġvacation":10609,"Ġvotre":10610,"Ġhearing":10611,"Ġshit":10612,"Ġyours":10613,"ĠSection":10614,"Ġconducted":10615,"Ġcontra":10616,"oga":10617,"104":10618,"ĠÐ·Ð½Ð°":10619,"Î¹Îº":10620,"Ġhistoria":10621,"DD":10622,"Path":10623,"UNT":10624,"Ġannot":10625,"ulating":10626,"Ġintric":10627,"Ġsemen":10628,"ĠÐ²ÑĭÐ¿":10629,"illing":10630,"ÑĥÐ³":10631,"ĠIndones":10632,"bum":10633,"plet":10634,"Ġcomposition":10635,"Ġëĵ":10636,"lege":10637,"Ġexit":10638,"ÑıÐ¼":10639,"ĠÙĪØ§ÙĦ":10640,"ĠSU":10641,"Ġquel":10642,"Ġspeaks":10643,"ĠÐ¾Ð½Ð°":10644,"Ð±Ð¾ÑĢ":10645,"bbing":10646,"Ġìłľ":10647,"Did":10648,"Ġbasket":10649,"Ġcompos":10650,"values":10651,"Ġtrusted":10652,"fen":10653,"extract":10654,"annels":10655,"score":10656,"impl":10657,"ĠBu":10658,"ĠEL":10659,"Ġarrived":10660,"Ġhip":10661,"Ġalcohol":10662,"hesis":10663,"Ġencounter":10664,"ĠOffice":10665,"ĠÐ¿ÑĢÐ¾Ð´Ð¾Ð»Ð¶":10666,")The":10667,".R":10668,"FOR":10669,"sible":10670,"Ġcel":10671,"ĠLike":10672,"115":10673,"update":10674,"è¡¨":10675,"_B":10676,"cd":10677,"Ġrenew":10678,"Ġexemplo":10679,"Ġalthough":10680,"Ġparse":10681,"ĠSingle":10682,"å½":10683,"ê±":10684,"Ġexcess":10685,"åĲ¦":10686,"ĠBel":10687,"Ġfunctionality":10688,"Ġopened":10689,"ĠCOVID":10690,"ĠValue":10691,",C":10692,"Ġfasc":10693,"IND":10694,"Ġadventurous":10695,"Ġwaist":10696,"ĠÐ²ÑĢÐµÐ¼Ñı":10697,"Ġtast":10698,"Ġchecking":10699,"Ġinsp":10700,"Ġecho":10701,"Ġmesmo":10702,"iiii":10703,"usammen":10704,"Ġnous":10705,"unden":10706,"Ġaccommod":10707,"Ġuncensored":10708,"SA":10709,"lee":10710,"ĠRES":10711,"cker":10712,"è¯´":10713,"Ġeducational":10714,"ĠPoint":10715,"izont":10716,"Ġpricing":10717,"Ġìļ":10718,"ç«Ļ":10719,"ĠCA":10720,"acking":10721,"ĠĊĊĊ":10722,"Ġnearly":10723,"ĠÐ·Ð°Ð´Ð°Ñĩ":10724,"VAC":10725,"åĿ":10726,"æŁ¥":10727,"itial":10728,"Ġchief":10729,"Ġjest":10730,"\":{\"":10731,"bling":10732,"SO":10733,"nie":10734,"ÙĪÙĨ":10735,":\".":10736,"MI":10737,"Ġbold":10738,"ĠPatient":10739,"full":10740,"Ð±ÐµÑĢ":10741,"Ġquiet":10742,"dep":10743,"Ġreform":10744,"ruption":10745,"onto":10746,"Ġrealized":10747,"ologist":10748,"Ġautonom":10749,"=>":10750,"ëĮĢ":10751,"older":10752,"ĠURL":10753,"token":10754,"ĠÐ³Ð¾Ð´":10755,"ĠTranslate":10756,"Ġgarden":10757,"Ġip":10758,"Ġlung":10759,"ogram":10760,"Ġspecify":10761,"ĠBig":10762,"comfort":10763,"ubb":10764,"Ġmedi":10765,"Ġdiscovered":10766,"×Ļ×Ŀ":10767,"ÑıÑģ":10768,"ĠÐ¿ÑĢÐ¾Ð±":10769,"ĠÐ¿ÑĢÐ¾ÑģÑĤ":10770,"ĠPeople":10771,"github":10772,"last":10773,"rict":10774,"Ġinformed":10775,"Ġestate":10776,"Ġpersu":10777,"Ġmeal":10778,"Ġinnovation":10779,"Ġtruly":10780,"Ġcancel":10781,"Ġuso":10782,"ĠThink":10783,"ìĹħ":10784,"Other":10785,"ĠsÃ³":10786,"Ð¿ÑĢÐ¸Ð²ÐµÑĤ":10787,"Ġliquid":10788,"(C":10789,"LU":10790,"Ġthus":10791,"olid":10792,"ÐµÑĢÐ°":10793,"**Ċ":10794,"Ġexpectations":10795,"ĠDEFAULT":10796,"ãģ«ãģ":10797,",'":10798,"PRO":10799,"long":10800,"anÃ§a":10801,"ĠDigital":10802,"Ġarqu":10803,"Ġrealize":10804,"Ġdiagnosis":10805,")(":10806,"sen":10807,"vy":10808,"ĠÐ¾ÑĩÐµÐ½ÑĮ":10809,"EC":10810,"uing":10811,"ĠtÃ©cn":10812,"anci":10813,"emas":10814,"/cell":10815,"Ġadjusted":10816,"(i":10817,"home":10818,"æ¯":10819,"ÑĥÑī":10820,"Ġbras":10821,"SELECT":10822,"ĠBox":10823,"ICE":10824,"writer":10825,"aixo":10826,"ĠFore":10827,"ĠReal":10828,"Ã¤n":10829,"Ġfourth":10830,"Ġrecorded":10831,"'.ĊĊ":10832,"Tok":10833,"Ġduration":10834,"uler":10835,"unci":10836,"Ð»ÐµÐºÑĤ":10837,"Ġconsciousness":10838,"Rule":10839,"Æ¡":10840,"Ġwur":10841,"Ġparticipants":10842,"Ġcrazy":10843,"å¿":10844,"Ġgli":10845,"Ġisol":10846,"Ġsole":10847,"Info":10848,"Ġliked":10849,"ĠBlue":10850,"best":10851,"Ġlui":10852,"Ġdriven":10853,"Ġstronger":10854,"Ġprotein":10855,"ĠDepartment":10856,"¤ĳ":10857,"pute":10858,"Ġteasing":10859,"ÑĢÑĥÐ¿":10860,"ĠConf":10861,"Ġpenet":10862,"Ġreligion":10863,"unte":10864,"Ġmanual":10865,"Ġrelevance":10866,"Ġhole":10867,"å¼ı":10868,"ĠKingdom":10869,"Ġtrends":10870,"Ġposit":10871,"ï¼ļĊ":10872,"(NAME":10873,"Then":10874,"Ø°":10875,"Ġtv":10876,"Ġack":10877,"Ġhumanity":10878,"Ġclosely":10879,"Ġconj":10880,"ĠMost":10881,"Ġpermission":10882,"hora":10883,"ÐµÐ½ÑĤÐ°":10884,"Ġapproximately":10885,"Loader":10886,"itas":10887,"inda":10888,"Ġexpressions":10889,"Ġcompetitive":10890,"Ġbib":10891,"ĠDrive":10892,"ĠÑģÑĢÐµÐ´":10893,"Ð¾Ð±ÑħÐ¾Ð´Ð¸Ð¼":10894,"Ġbench":10895,"Ġveloc":10896,"Ġlaptop":10897,"(p":10898,"itement":10899,"Ġnella":10900,"ĠToday":10901,"Ġsubsequ":10902,"ĠUnter":10903,"Ġpela":10904,"230":10905,"ols":10906,"ixel":10907,"Ġtalent":10908,"Ġdebt":10909,"âĸĪ":10910,"Ġ((":10911,"Ġseja":10912,"ograf":10913,"Ġresponsibility":10914,"Ġpaint":10915,"Ġcertific":10916,"Option":10917,"ĠTitle":10918,"oses":10919,"Ġexplo":10920,"tico":10921,"168":10922,"Ġbrowser":10923,"Wor":10924,"ĠCong":10925,"Ġsmell":10926,"Ġended":10927,"ĠShort":10928,"#include":10929,",s":10930,"email":10931,"Ġwaste":10932,"ationship":10933,"çĲ":10934,"Ø§Ø¨":10935,"Ġmanaged":10936,"asp":10937,"Ġrid":10938,"ensional":10939,"Ã±o":10940,"Ġmuy":10941,"CREATE":10942,"mal":10943,"æį":10944,"Ġcere":10945,"Ġdegrees":10946,"acci":10947,"ĠMer":10948,"Ġincorpor":10949,"ìķĦ":10950,";;":10951,"DAN":10952,"Head":10953,"sten":10954,"ÑģÑĭ":10955,"Ġactively":10956,"Ð¤":10957,"Ġstored":10958,"Ġvie":10959,"Ġcorner":10960,"Ġcaring":10961,"Ġdirections":10962,"Ġslang":10963,"ridine":10964,"Ð¸ÑĪÑĮ":10965,"Ġunter":10966,"âĢĻ,":10967,"Ġsuccessfully":10968,"Ġbear":10969,"Ġaber":10970,"Ġconten":10971,"appe":10972,"aphrase":10973,"Ġcaption":10974,"Ð¸Ð»ÑģÑı":10975,"Ġrecommendation":10976,"\"I":10977,"Ġfee":10978,"ĠÐ³Ð¾Ð²Ð¾ÑĢ":10979,"Ġsustainable":10980,"lab":10981,"ÙĪØ±":10982,"ragon":10983,"jiang":10984,"Ġsuddenly":10985,"Ġbinary":10986,"Ġghost":10987,"ĠVis":10988,"Ġentailed":10989,"ĠTele":10990,"ĠAuf":10991,"Ð°ÑĤÐ¸":10992,"Ġkeine":10993,"Ġsamples":10994,"ĠMid":10995,"ibles":10996,"Ġconfusion":10997,"Ð¸ÑĤÑĮÑģÑı":10998,"Ġhorse":10999,"acle":11000,"Ġblind":11001,"Ġenth":11002,"Ġconfirmation":11003,"ĠÐ´Ð°Ð½Ð½ÑĭÑħ":11004,"Ġflorida":11005,"112":11006,"Ħľ":11007,"ĠBay":11008,"Ġconfess":11009,"Ġproblema":11010,"ĠAnalysis":11011,"mate":11012,"ĠTu":11013,"Ġwanna":11014,"resse":11015,"à¸Ħ":11016,"charge":11017,"ju":11018,"may":11019,"è§":11020,"Ġtudo":11021,"Ġhoney":11022,"rible":11023,"Ġoutfit":11024,"ãĥĪ":11025,"Ġmathematical":11026,"BER":11027,"upt":11028,"area":11029,"Ġdisco":11030,"Ġcreates":11031,"ITE":11032,"Ġrepresenting":11033,"Ġdigit":11034,"Ġmatching":11035,"Ġfetish":11036,"360":11037,"?:":11038,"_of":11039,"oz":11040,"Ġreb":11041,"Ġsending":11042,"Ġdesigner":11043,"Ġcrisis":11044,"ĠPharm":11045,"Ġauthority":11046,"mitt":11047,"well":11048,"_map":11049,"Ġrub":11050,"iangsu":11051,"Cor":11052,"Ġdb":11053,"ÎµÎ¹":11054,"ĠMi":11055,"address":11056,"ĠFacebook":11057,"ĠBrasil":11058,"Ġgrat":11059,"Ġdelivered":11060,"\"),":11061,"ê¹":11062,"ĠUI":11063,"Ġletting":11064,"_model":11065,"Ġclaimed":11066,"Cu":11067,"Ġpd":11068,"ĠItaly":11069,"191":11070,"Ġdonde":11071,".length":11072,"CRI":11073,"Ġsouth":11074,"ĠÐ¤":11075,"Ġcluster":11076,"Ġchecks":11077,"ĠThursday":11078,"fortun":11079,"Ġworse":11080,"icked":11081,"Ġconsumer":11082,"QQQQ":11083,"del":11084,"Ġhorror":11085,"Count":11086,"])Ċ":11087,"lag":11088,"sis":11089,"empor":11090,"Ġshower":11091,"Ġpregnant":11092,"ĠSk":11093,"Ġpoly":11094,"ĠBegin":11095,"Ġsteel":11096,"Ġholds":11097,"Ġcooper":11098,"Ġshadow":11099,"Ġsear":11100,"+)":11101,"ĉD":11102,"Ġcogn":11103,"ching":11104,"Ã©ri":11105,"Ġbelieves":11106,"Ġ('_":11107,"Ġhousing":11108,"×ŀ×":11109,"Ġcv":11110,"ĠAus":11111,"Ġfees":11112,"ĠÐ¾Ðº":11113,"ASK":11114,".pack":11115,"TS":11116,"matic":11117,"Ġseus":11118,"ÑģÑĤÑĢÑĥ":11119,"ticks":11120,"Ġmeta":11121,"Ġadvantages":11122,"MARY":11123,"Met":11124,"std":11125,"MER":11126,"Ġì£¼":11127,"ITH":11128,"Ġmanaging":11129,"Respond":11130,"Ġhabit":11131,"company":11132,"ĠOctober":11133,"AV":11134,"Off":11135,"íĦ":11136,"Ġstake":11137,"usic":11138,"Ġdispon":11139,"ĠÐ¼Ð¾Ð¶ÐµÑĪÑĮ":11140,"ĉF":11141,"ĠTogether":11142,"ĠÑĤÐ°ÐºÐ¾Ðµ":11143,"Ġgan":11144,"ĠIII":11145,"Ġproces":11146,"Ġreset":11147,"ĠÐ²ÑĸÐ´":11148,"Ġescape":11149,"noon":11150,"ĠìķĦ":11151,"Ġspoken":11152,"Ġcharged":11153,"Ġgrid":11154,"Show":11155,"Ġquad":11156,"Ã¡tica":11157,"ÐµÐ½Ð¸Ñİ":11158,"Ð¾Ð±ÑĢ":11159,"aires":11160,"Ġangle":11161,"ç¤º":11162,"Ġ[]Ċ":11163,"Ins":11164,"ĠØ§ÙĦØª":11165,"Ãºblic":11166,"Ġstopped":11167,"ayers":11168,"stell":11169,"ĠÑĢÐµÐ·":11170,"ĠReader":11171,"ĠComputer":11172,"Ġpassionate":11173,"');Ċ":11174,"-Ch":11175,"water":11176,"Ġluck":11177,"ĠDas":11178,"Ġchose":11179,"Ġadject":11180,"neutral":11181,"Ġspelling":11182,"ÐµÐºÑģ":11183,"iller":11184,"ander":11185,"ĠsiÄĻ":11186,"Ġofficer":11187,"current":11188,"iti":11189,"ĠCy":11190,"anging":11191,"ĠserÃ¡":11192,"ĠAfrica":11193,"Ġsau":11194,"ahl":11195,"aurant":11196,"ĠâĶĤ":11197,"¯¸":11198,"ĠlÃŃ":11199,"Ġdebe":11200,"ĠLE":11201,"åĽŀçŃĶ":11202,"×¤":11203,"Ġproud":11204,"ĠâĢŀ":11205,"black":11206,"Ġhealthcare":11207,"Ġmagical":11208,"Ġmachines":11209,"ĠkÃ¶nnen":11210,"Ġvocabulary":11211,"isse":11212,"Ġalter":11213,"ROMPT":11214,">\",":11215,"Ġkil":11216,"Ã¼n":11217,"Ġnipples":11218,"Ġcitizens":11219,"Come":11220,"Ġà¨":11221,"ĠMessage":11222,"ĠØ¥":11223,"Ġsempre":11224,"ĠÑįÑĤÐ¾Ð¼":11225,"PER":11226,"igkeit":11227,"ĠBase":11228,"Ġrooms":11229,"Ġseguir":11230,"Ġeight":11231,"Ġwhom":11232,"acity":11233,"ìĹ¬":11234,"Ġtongue":11235,"stra":11236,"Ġpredictions":11237,"|Ċ":11238,"Ġbust":11239,"ĠCard":11240,"Ġgenerates":11241,"ĠAnything":11242,"ecute":11243,"ÙĪÙĦ":11244,"adder":11245,"ĠSur":11246,"anta":11247,"ĠLes":11248,"ĠSelect":11249,"Ã±a":11250,"Ġ>=":11251,"\"NAME":11252,"Ġtoilet":11253,"Ġ-ĊĊ":11254,"ĠViet":11255,"rown":11256,"Ġmemories":11257,"é¡":11258,"Ġeager":11259,"ĠVI":11260,"Ġunderwear":11261,"wood":11262,"Ġpyt":11263,"exper":11264,"ĠatÃ©":11265,"Ġexistence":11266,"äºĨ":11267,"Pe":11268,"Ġwire":11269,"Ġnod":11270,"Ð·Ð°":11271,"Ġattached":11272,"Ġkeeps":11273,"Ġmuscle":11274,"Ġreceiving":11275,"ĠÐ¿Ð¾Ñĩ":11276,"Ġtennis":11277,"íĻĶ":11278,"Que":11279,"Ġmedicine":11280,",,,,,,,,,,,,,,,,":11281,"cat":11282,"Ġdelay":11283,"ativas":11284,"ĠDistrict":11285,"ĠLab":11286,"Ð¼ÐµÐ½":11287,"Ġrefund":11288,"bra":11289,"ĠCu":11290,"ÑģÑĤÐ°Ð½Ð¾Ð²":11291,"Ġmiles":11292,"ĠMachine":11293,"node":11294,"ĉA":11295,"Ġforgot":11296,"oves":11297,"Ġamounts":11298,"Ġpotentially":11299,"Ġtaboo":11300,"Ġfeminine":11301,"ĠHVAC":11302,"Ġfacilit":11303,"Ġfaith":11304,".]":11305,"æĬ":11306,"isi":11307,"ĠHa":11308,"ĠEle":11309,"izaÃ§Ã£o":11310,"ÑģÐºÐ¾Ð³Ð¾":11311,"Ġconcer":11312,"ĠInstead":11313,"Ġsans":11314,"Ġscal":11315,"ĠÐ°ÑĢ":11316,"Under":11317,"Ġaz":11318,"Ġì§Ģ":11319,"ĠPrice":11320,"Ġsufficient":11321,"ä¿¡":11322,"Ø«":11323,"ÑĥÐº":11324,"ailability":11325,"ĠWhite":11326,"Ġvisiting":11327,"ĠArch":11328,"aimer":11329,"Ġplatforms":11330,"Ġcomprehensible":11331,"Ġnumerous":11332,"Ġquais":11333,"Ġsurvey":11334,"gue":11335,"æµ":11336,"Ġbash":11337,"Ġbond":11338,"Ġhob":11339,"adium":11340,"ĠMiss":11341,"ĠÐ¿ÑĢÐ¸Ð½":11342,"Ġëı":11343,"Ġextensive":11344,"Ġpossibly":11345,"ĠDespite":11346,"Ġyounger":11347,"Ġfolgenden":11348,"350":11349,"aÃ§a":11350,"Ġces":11351,"Ġog":11352,"Ġbranch":11353,"Ġpodr":11354,"Ġmaintaining":11355,"/python":11356,"Ġëĭ¤":11357,"ieder":11358,"adding":11359,"Ð°ÑĤÐ°":11360,"Ġgenerative":11361,"Ġpropor":11362,"ĠQuant":11363,"ĠÑĤÐ°ÐºÐ¶Ðµ":11364,"çĶ¨æĪ·":11365,"Ġsaber":11366,"eed":11367,"iest":11368,"Âº":11369,"éĿ":11370,"Ġanos":11371,"êµ¬":11372,"210":11373,"pus":11374,"ĠSorry":11375,"ĠHelp":11376,"Ġdefe":11377,"ĠÑĩÐµÐ¼":11378,"Ġmentions":11379,"look":11380,"Ġbull":11381,"Ġprev":11382,"Ġprest":11383,"Ġdiss":11384,"Ġela":11385,"Stay":11386,"ãĤĤ":11387,"Ġconsumption":11388,"Ġsurrounding":11389,"×ŀ":11390,"exp":11391,"ĠÎ´":11392,"Ġcompute":11393,"Ġwalks":11394,"Ġlicense":11395,"Ġprepared":11396,"ĠLocation":11397,"Ġfrust":11398,"ĠCSV":11399,"à©":11400,"mean":11401,"sembly":11402,"ÐµÑĨ":11403,"çĶµ":11404,"ÃŃtulo":11405,"NE":11406,"[Context":11407,"Ġ\\>":11408,"ĠIntelligence":11409,"è¿Ļ":11410,"jar":11411,"source":11412,"target":11413,"Ġeres":11414,"ÑĢÐ¾":11415,"ĠFig":11416,"../":11417,"Ġobvious":11418,"WH":11419,"opp":11420,"ìĪĺ":11421,"Ġrepeated":11422,"ĠÐ´ÐµÐ²":11423,"Ġprotagon":11424,"Ġcombine":11425,"PON":11426,"Ġast":11427,"Ġnue":11428,"utor":11429,"ĠPR":11430,"Ġfighting":11431,"Ġappreciate":11432,"Ġfiscal":11433,"Ġscope":11434,"Ġinsult":11435,"Ġsuic":11436,"heng":11437,"ĠÐ¿ÐµÑĢÐ²":11438,"Ġoptimization":11439,"Ġmalicious":11440,"\"The":11441,"DC":11442,"Ġç":11443,"romo":11444,"ĠEval":11445,"Ġrust":11446,"å°ĳ":11447,"ĻĢ":11448,"ĠAv":11449,"ĠØ§ÙĦØ¹":11450,"ĠQuery":11451,"Ġforever":11452,"forcement":11453,"_L":11454,"Ġgentle":11455,"Ġknowing":11456,"ĠChoose":11457,"Ġsnacks":11458,"Ġroutine":11459,"${":11460,"Ġjur":11461,"Ġfacing":11462,"cr":11463,"Ĥ°":11464,"ĠTop":11465,"Ġintense":11466,"Ð°Ð½Ð°":11467,"engan":11468,"ÂłĊ":11469,"Ġcounsel":11470,"íĸī":11471,"ŀĭ":11472,"Ġsod":11473,"ĠWomen":11474,"Ġchem":11475,"untu":11476,"Ġautomatic":11477,"Ġsleeping":11478,"ÄĽ":11479,"reak":11480,"Ġsne":11481,"Ġges":11482,"utional":11483,"article":11484,"DU":11485,"Sk":11486,"uciÃ³n":11487,"isz":11488,"Ġpounds":11489,"aren":11490,"Ġmane":11491,"ĠÐ½Ð°Ð´":11492,"Ġexamination":11493,"uedes":11494,"Ġappeared":11495,"Ġbirds":11496,"Ġdict":11497,"Ġmeat":11498,"ĠWie":11499,"ä½ķ":11500,"Just":11501,"âĹ":11502,"ĠSmart":11503,"Ġexhib":11504,"Ġfemme":11505,"Ġcommunities":11506,"_pro":11507,"Ġ']":11508,"Ġforecast":11509,"Remember":11510,"Ġtienes":11511,"rir":11512,"riven":11513,"antly":11514,"Ġze":11515,"äºİ":11516,"netic":11517,"Ġcollaboration":11518,"sg":11519,"ĠEner":11520,"Ġ\\<":11521,"Ġmuscles":11522,"Ġpractical":11523,"Ġbehaviour":11524,"ĠdonnÃ©es":11525,"uÃ§Ã£o":11526,"Ġcurs":11527,"Ġprogrammed":11528,"ĠÑĥÑģÐ»":11529,"æĦ":11530,"ĠMS":11531,"Ġwealth":11532,"Ġstrategic":11533,"Page":11534,"emperature":11535,"pat":11536,"orge":11537,"Ġreven":11538,"ĠCPU":11539,"Ġunse":11540,"rup":11541,"ĠShanghai":11542,"boy":11543,"Ġfruit":11544,"Ð½Ð¸Ñħ":11545,"Ġcommitted":11546,"cluded":11547,"anco":11548,"ouve":11549,"entiment":11550,"ĠÐ¿ÑĢÐ¾Ð²":11551,"ĠLevel":11552,"Ġpersons":11553,"ĠImagine":11554,"Ġcomplexity":11555,"Ġdimensions":11556,"ĠAntwort":11557,"first":11558,"Ġjer":11559,"Ġcontrad":11560,"Ġ'['":11561,"Ġconfirmed":11562,"-day":11563,"Ġphen":11564,"ĠCONTENT":11565,"ãĤĪ":11566,"metal":11567,"DT":11568,"otto":11569,"ARD":11570,"ãĥ«":11571,"ĠAutom":11572,"(),":11573,"hell":11574,"Ġsides":11575,"Ġeast":11576,".ĊĊĊĊ":11577,"ĠÑĤÐµÐ»":11578,"Ġstudying":11579,"Ġmissed":11580,"Ġriver":11581,"Ġresearchers":11582,"PG":11583,"iÃ³":11584,"uries":11585,"Ġsick":11586,"iaÃ§Ã£o":11587,"ëĭ¨":11588,"ĠCouncil":11589,"_de":11590,"Ġtort":11591,"anie":11592,"ocide":11593,"Ġruss":11594,"Ġlawy":11595,",e":11596,"DATE":11597,"fall":11598,"oded":11599,"istical":11600,"izard":11601,"Ġprograma":11602,"Ġsensations":11603,"Ġcad":11604,"ÑĤÐ¾Ð¼":11605,"ĠFire":11606,"ĠFull":11607,"anned":11608,"Ġoptimize":11609,".create":11610,"link":11611,"oe":11612,"irth":11613,"Ġleur":11614,"ounding":11615,"ĠAPIs":11616,"ãģ¾ãģĻ":11617,"Ġrape":11618,"Ġsolving":11619,"Ġdiscussing":11620,"Ġpessoas":11621,".Text":11622,"AZ":11623,"Ġig":11624,"Ġrecon":11625,"Ġpermet":11626,"Ġdisgust":11627,"Ġappeal":11628,"irectory":11629,"Ġequivalent":11630,"vid":11631,"ĠMark":11632,"Ġchinese":11633,"Ġnumpy":11634,"ika":11635,"Ġmetrics":11636,"google":11637,"Ġfucked":11638,"AAAAAAAAAAAAAAAA":11639,"ĠRequesting":11640,"alous":11641,"ĠSA":11642,"ÐµÑģÐ¿":11643,"Ġathletic":11644,"-off":11645,"ĠAT":11646,"empo":11647,"FR":11648,"Well":11649,"Ġaqu":11650,"Ġtheore":11651,"Ġoch":11652,"ĠReact":11653,"Ġpalabras":11654,"nosis":11655,"iture":11656,"Ġworst":11657,"Ġcontinua":11658,"Ġedit":11659,"ernel":11660,"Ġexception":11661,"-end":11662,"bug":11663,"Ġtoys":11664,"ĠOrder":11665,"è¯·æ±Ĥ":11666,"Ġlangchain":11667,"night":11668,"Ġcompr":11669,"à¸Ĺ":11670,"ĠIts":11671,"?.":11672,"Â·":11673,"ÂŃ":11674,"Ġresistance":11675,"help":11676,"Ġhaz":11677,"ĠEqu":11678,"quee":11679,"Ġinsight":11680,"Ġcontinuous":11681,"ĠFederal":11682,"ĠAustralian":11683,"\\Ċ":11684,"ì£¼":11685,"Ġmic":11686,"à¤ķ":11687,"Ġrepresentative":11688,".v":11689,"Ġloud":11690,"Ġgun":11691,"ĠRoman":11692,"ĠÐ»ÑĥÑĩ":11693,"Ġquantity":11694,"-quality":11695,"mut":11696,"íĬ¸":11697,"si":11698,"Ġstomach":11699,"Ġcomun":11700,"plant":11701,"break":11702,"Ġsuggested":11703,"Ġchallenging":11704,"íĦ°":11705,"'h":11706,"?\",":11707,"_H":11708,"ĠcrÃ©":11709,"åİ":11710,"richt":11711,"Ġslowdown":11712,"ĠLLaMA":11713,"mg":11714,"ĠBro":11715,"Ġcomprom":11716,"ĠĠĠĠĠĠĠĠĠĠĠĠĠĠĠĠĠĠĠĠĠĠĠĠĠĠĠĠĠĠĠ":11717,"ĠÐ¼Ð¸Ð½":11718,"Ġpossibility":11719,"Ġdrinks":11720,"Ġtengo":11721,"[Chat":11722,"Ġcream":11723,"ĠBefore":11724,"Ø§Ø³":11725,"Ġpayments":11726,"ĠÐ¿ÑĢÐ¾Ð¸Ð·":11727,"Format":11728,"/v":11729,"Gu":11730,"éĥ":11731,"ĠArab":11732,"Ð½Ð¸Ð¹":11733,"Ġ/>Ċ":11734,"ucks":11735,"ĠMedical":11736,"ĠÃ©tÃ©":11737,"ĠTre":11738,"ÐµÑĤÐ¸":11739,"Ġutilis":11740,"æĹ¥":11741,"ĠmÃ©t":11742,"ĠWarning":11743,"Ġlib":11744,"Ġsolicit":11745,"working":11746,"Ġsimilarity":11747,"rimidine":11748,"\").":11749,"'Ã©":11750,"._":11751,"ori":11752,"Ġstyles":11753,"Ġexpressed":11754,"Ġsubjects":11755,"Ġrecognize":11756,"ĠEngineer":11757,"ï»¿":11758,"ìĬµëĭĪëĭ¤":11759,"adi":11760,"Ġimprovements":11761,"âĸĪâĸĪ":11762,"Oper":11763,"_V":11764,"cimento":11765,"ĉreturn":11766,"ATEG":11767,"åĪĨ":11768,"Address":11769,"Ġwaves":11770,"Ġgym":11771,"ĠLarge":11772,"iais":11773,"Ġnumero":11774,"////":11775,"glich":11776,"Ġcollected":11777,"Ġnervous":11778,"there":11779,"Ġconference":11780,"Ġrose":11781,"Ġchatting":11782,"module":11783,"Ġmajority":11784,"'}":11785,"_key":11786,"åŀĭ":11787,"Ġcss":11788,"Ġpon":11789,"Ġnada":11790,"Ã¡vel":11791,"Ġbuff":11792,"Ġmeaningful":11793,"BR":11794,"Patient":11795,"Ġgolf":11796,"ĠTool":11797,"121":11798,"Process":11799,"Ġayud":11800,"Ġanxiety":11801,"Ġsib":11802,"utch":11803,"Ġorange":11804,"114":11805,"ĠAfrican":11806,"Ġìłķ":11807,",B":11808,"eto":11809,"ĠSummary":11810,"Ġbuck":11811,"(text":11812,"Tr":11813,"subject":11814,"ppose":11815,"Ġpartial":11816,"áºŃ":11817,"Ġportfolio":11818,"Ġmovements":11819,"Ġquanto":11820,"ĠInstagram":11821,"ĠÐ¸Ð¼Ðµ":11822,"ository":11823,"].Ċ":11824,"Ġcrie":11825,"ĠMa":11826,"Ġapps":11827,"ĠÐ´Ð¾Ð»Ð¶ÐµÐ½":11828,"!--":11829,"MT":11830,"arse":11831,"Ġhips":11832,"cios":11833,"ĠAssoci":11834,"Ġdemonstrate":11835,"Ġinventory":11836,"Ġcryptoc":11837,"orph":11838,"à§į":11839,"Ġweapons":11840,"ä¾ĭ":11841,"ILL":11842,"ipe":11843,"Ġtam":11844,"Ð¾Ð²Ð°Ð½Ð¸Ñı":11845,"Ġestimate":11846,"Ð°Ð½Ð¸Ð¹":11847,"Ġelectro":11848,"Ġcultures":11849,"erra":11850,"Ġnine":11851,"orthern":11852,"Ġprocesso":11853,"ÑĢÐ°ÑĦ":11854,"[Characters":11855,"Ġinches":11856,"ĠÐºÑĤÐ¾":11857,"ÐµÐ½Ð¸ÐµÐ¼":11858,"ĠÂ·":11859,"×Ĺ":11860,"tick":11861,"ĠCommission":11862,"Ġscheme":11863,"Ġmouse":11864,"andon":11865,"Ġseat":11866,"uego":11867,"ÏĥÏĦ":11868,"\":Ċ":11869,"kk":11870,"Ġresponde":11871,"Ġamer":11872,"Program":11873,"Ġaddresses":11874,"ĠMaybe":11875,"èª":11876,"anal":11877,"Ġfir":11878,"Ġnoticed":11879,"Ġdesk":11880,"Ġallerg":11881,"ensation":11882,"lla":11883,"ĠYOUR":11884,"ÙĩØ§":11885,"++)":11886,"Ġdentro":11887,"ĠJavaScript":11888,"width":11889,"ometry":11890,"plier":11891,"\":[":11892,"Î¼Îµ":11893,".You":11894,"Ġlaun":11895,"åĲĪ":11896,"Enter":11897,"Back":11898,"Ġà¤¹":11899,"Ġtransportation":11900,"ĠPortug":11901,"GR":11902,"Role":11903,"vector":11904,"Ġgibt":11905,"Ġfilms":11906,"ãĥª":11907,"default":11908,"Order":11909,"Box":11910,"Ġreduction":11911,"Ġadm":11912,"Ð´Ð¸":11913,"ä½ľ":11914,"ĠSee":11915,"clear":11916,"Ġlikable":11917,".N":11918,"uri":11919,"information":11920,"ĠFocus":11921,"Ð»Ð°ÑģÑĤ":11922,"à¤¨":11923,"ymph":11924,"only":11925,"umerate":11926,"ARG":11927,"170":11928,"Ġbusy":11929,"war":11930,"Ġpir":11931,"ĠâĢĿ":11932,"ĠExpl":11933,"Ġobjectives":11934,"iffusion":11935,"ĠÑĢÐ°Ð±Ð¾ÑĤÑĭ":11936,"Ġfonction":11937,"structured":11938,"ÑģÐ¾Ð²":11939,"Ð½Ð°Ðº":11940,"aba":11941,"ĠLight":11942,"Ġoverview":11943,"Ġlosing":11944,"Ġexecutive":11945,"Ġinnocent":11946,"oster":11947,"INES":11948,"Ġeleg":11949,"Ġclarity":11950,"]:Ċ":11951,"Ã¦":11952,"ä¼ļ":11953,"Position":11954,"Ġforne":11955,"IGHT":11956,"ãģ£ãģ¦":11957,"Ð½ÐµÐ¹":11958,"Ġgiant":11959,"æł¼":11960,"(A":11961,"audio":11962,"usi":11963,"135":11964,"Thank":11965,"Ġmuss":11966,"ÐºÐ¾Ð¼":11967,"Ready":11968,"URL":11969,"Ð°ÑĨÐ¸Ñİ":11970,"ĠÐ¿Ð¾Ð¼Ð¾Ñī":11971,"Ġpace":11972,"ĠSil":11973,"Ġdialogues":11974,"æĺİ":11975,"_log":11976,"Ø£":11977,"ĠSER":11978,"Ġexport":11979,"ĠFac":11980,"Ġmanif":11981,"Ġinvoice":11982,"ahren":11983,"ĠfaÃ§a":11984,"ìĸ´ì":11985,"ìĸ´ë":11986,"Ġrestaurants":11987,"________________":11988,"?âĢĿ":11989,"umps":11990,"pha":11991,"Ġrelacion":11992,".,.,":11993,"Ġmixed":11994,"Ġoral":11995,"ĠrÃ©ponse":11996,"Ġpriorit":11997,"Ð¼ÐµÐ½ÑĤÐ°ÑĢ":11998,"font":11999,"ÐºÐ°Ðº":12000,"Ġelif":12001,"íķł":12002,"cap":12003,"haps":12004,"Ġaer":12005,"ĠABC":12006,"oute":12007,"Ð¾Ð²Ð°ÑĢ":12008,"reek":12009,"Ð¾Ð´ÐµÑĢÐ¶":12010,"Ġgenocide":12011,"ĠÑĢÐ°Ð·Ð²":12012,"ĠALL":12013,"ÐµÐ»ÐµÐ¹":12014,"Ġsummaries":12015,"Ġdol":12016,"Ġinference":12017,"uras":12018,"Ġexplains":12019,"à¦¿":12020,"Ġmenos":12021,"instruction":12022,"Ġapproved":12023,"ÐµÑģÑĮ":12024,"Ġappointment":12025,"Ġpaciente":12026,"åı¯ä»¥":12027,"Ġattitude":12028,"ICAL":12029,"Ġllam":12030,"Ġcontinuing":12031,"eddings":12032,"Ġcourses":12033,"/l":12034,"IX":12035,"`,":12036,"ĠComment":12037,"Ġmountain":12038,"Ġglasses":12039,".re":12040,"uir":12041,"Ġsrc":12042,"Ġgall":12043,"Ġconce":12044,"Ġsecre":12045,"ĠÐ´Ð¾Ðº":12046,"-dim":12047,"æĸ¹":12048,"ĠÐ¿Ð¾Ð»ÑĮÐ·Ð¾Ð²Ð°ÑĤÐµÐ»Ñı":12049,"ì¹":12050,"uta":12051,"Ð¾Ð²Ð°ÑĤÑĮ":12052,"Ġdispos":12053,"ĠÐ´ÐµÐ½ÑĮ":12054,"Ġestas":12055,"Ġinformative":12056,"Ġpasseng":12057,"Ġbatch":12058,"Ġocean":12059,"ĠÐ¿Ð¾ÑĢ":12060,"Ġ[{\"":12061,"riendly":12062,"333":12063,"ĠÑħÐ¾Ñĩ":12064,"Ġpanel":12065,",x":12066,"summarize":12067,"iale":12068,"athy":12069,"ìĿĮ":12070,"RT":12071,"oli":12072,"Ġconoc":12073,"ĠEin":12074,"ÐµÐ½ÐµÑĢ":12075,"ĠÐ´Ð¾ÑģÑĤ":12076,"ĠØ´":12077,"brid":12078,"Ġharder":12079,",t":12080,":The":12081,"Ġvary":12082,"ĠEvent":12083,"á»±":12084,"Ġprocedures":12085,"fortunately":12086,"/D":12087,"ĠÂł":12088,"relevant":12089,"ĠDANs":12090,"Ġvolt":12091,"ĠÑĤÐµÐ±Ðµ":12092,"onth":12093,"ĠBen":12094,"quisition":12095,"NNNNNNNN":12096,"allel":12097,"/?":12098,"wick":12099,"ìĥģ":12100,"Ġtener":12101,"Ġsnow":12102,"unde":12103,"Ġcreator":12104,"Ġdialogs":12105,"Ġhal":12106,"Ġvai":12107,"ĉĉĉĉĉ":12108,"Ġcuando":12109,"Ġà¤¸":12110,"Ġdivided":12111,"Ġvagina":12112,".co":12113,"gb":12114,"Ġpump":12115,"ĠEV":12116,"Ġbias":12117,"News":12118,"-image":12119,"Map":12120,"bes":12121,"ermine":12122,"à¸¥":12123,"Ġafternoon":12124,"ielen":12125,"unda":12126,"Ġsigned":12127,"LOC":12128,"ĠÑĢÐ°ÑģÑģÐºÐ°Ð·":12129,"Rel":12130,"è½":12131,"ĠVert":12132,"ĠÐ·Ð°Ð²":12133,"ÙĬØ¯":12134,",F":12135,"Main":12136,"Max":12137,"bet":12138,"Ġfox":12139,"ĠgÃ©n":12140,"Ġstup":12141,"ĠFigure":12142,"ogy":12143,"crire":12144,"ierung":12145,"à¥ĭ":12146,"Ġdrinking":12147,"Ġachieved":12148,"Ġhá»":12149,"Ġvote":12150,"Ġrevealing":12151,"Ġofficials":12152,"hos":12153,"ĠÑī":12154,"240":12155,"Ġejac":12156,"åŁºç«Ļ":12157,"Ġ('_')":12158,"pling":12159,"Ġcompat":12160,"Ġgrass":12161,"Ġproduces":12162,"Ġindicating":12163,"Ġhesit":12164,"Ġlandscape":12165,".sh":12166,"onacci":12167,"ĠLife":12168,"Ð²ÐµÑĩ":12169,"fficient":12170,"Ġunderlying":12171,"Ġdiseases":12172,"Ġexposure":12173,"-O":12174,"inity":12175,"oly":12176,"see":12177,"ecd":12178,"Ġerotica":12179,"ÙĬØ±":12180,"ekt":12181,"à¹Ħ":12182,"Ġrevealed":12183,"Ġinstruct":12184,"arant":12185,"imos":12186,"lymp":12187,"Ġsei":12188,"ĠMethod":12189,"ĠLib":12190,"Ġdesar":12191,"Ġradi":12192,":[":12193,"Ġlust":12194,"imately":12195,"ĠMex":12196,"Ġkan":12197,"ĠìĿ´":12198,"Ġconfrontation":12199,"Ġfuel":12200,"aine":12201,"Ġentering":12202,"Ġrespectful":12203,"Ð¸ÑĨÐ°":12204,"Ġuntuk":12205,"Ġconcerning":12206,"ding":12207,"ì¤ĺ":12208,"Ġscri":12209,"river":12210,"ÑĥÐµÑĤ":12211,"itty":12212,"ISTANT":12213,"Hz":12214,"×ĺ":12215,"Ġcort":12216,"itting":12217,"Ð°Ð½Ð½Ñı":12218,"Ġbackticks":12219,"ategor":12220,"Ġterror":12221,"Ġpleas":12222,"ĠÐ¾Ð¿Ð¸Ñģ":12223,"Ġmillions":12224,"lass":12225,"Ġlying":12226,"Ġliste":12227,"Ġdecadent":12228,"Ġderiv":12229,"Ġleaders":12230,",-":12231,"olicy":12232,"Ġchocolate":12233,"Ġagrees":12234,"/*":12235,"ĠjÃ¡":12236,"Ġcontrols":12237,"define":12238,"ĠAzure":12239,"ĠRO":12240,"------":12241,"ĠÐ¼Ð°ÑĤ":12242,"inem":12243,"Ġchoosing":12244,"Ð¸ÑĢÐ¾Ð²Ð°ÑĤÑĮ":12245,"Ġelectricity":12246,"èĭ±":12247,"iu":12248,"tk":12249,"Ġasleep":12250,"issue":12251,"ĠAlthough":12252,"Ġturning":12253,"Ġmagn":12254,"ãģĻãĤĭ":12255,"Ġkannst":12256,"Ġestimated":12257,"'il":12258,"istas":12259,"à¸ļ":12260,"tÃ³":12261,"çº":12262,"ĠpÃ¥":12263,"Ġrevolution":12264,"riter":12265,"ameters":12266,"Ġdeeply":12267,"TTP":12268,"Ġsimplify":12269,"CES":12270,"Ġodd":12271,"Ġnarrow":12272,"Ġinformations":12273,"Ġejemplo":12274,"ãģĪãģ¦":12275,"Ġmeng":12276,"ĠLink":12277,"ected":12278,"Ġautor":12279,"LEASE":12280,"-free":12281,"afo":12282,"æķĻ":12283,"Ġdiese":12284,"Ġanticip":12285,"-word":12286,"ÑĢÐ°Ñī":12287,"roller":12288,"Ġreferred":12289,"Ġpremium":12290,"Ġgarant":12291,"Ġaggreg":12292,"ĠRob":12293,"ĠÐ¿ÑĢÐ¾ÑĨ":12294,"Ġsorted":12295,"Ġstatistics":12296,"Ġlaugh":12297,"gender":12298,"Ġusual":12299,"ĠÐ¸Ð³ÑĢ":12300,"Ġbread":12301,"Ä±r":12302,"Ġnurse":12303,"angzhou":12304,"INS":12305,"Ġextraord":12306,",b":12307,"Po":12308,"Ġlig":12309,"ĠÐ½ÐµÐ¾Ð±ÑħÐ¾Ð´Ð¸Ð¼":12310,"ĠResult":12311,"ĠÐ±ÑĭÐ»Ð¾":12312,"Ġenterprise":12313,"ĠStatement":12314,"Ġefficiently":12315,"BRE":12316,"Ġfest":12317,"Ġconven":12318,"ĠMot":12319,"ĠÐ¸Ñģ":12320,"Ġrabb":12321,"Ġholiday":12322,"Ġbrothers":12323,"Ġobjetivo":12324,"Ġlift":12325,"ĠÑĤÐ¾Ñĩ":12326,"ĠÐ¼Ð¾":12327,"plicated":12328,"Ġminimal":12329,"Ġwarned":12330,"(input":12331,"Ġaug":12332,"utton":12333,"block":12334,"Ġsalt":12335,"ĠÐ¿ÑĢÐ¾ÐµÐºÑĤ":12336,"Ġallocated":12337,"Ġthorough":12338,"ĠNach":12339,"ĠEduc":12340,"ancia":12341,"Ġlogo":12342,"pers":12343,"ĠÑĤÐ¾Ð½Ð°Ð»ÑĮ":12344,"Å¼e":12345,"oubles":12346,",f":12347,"Token":12348,"Ġcorporate":12349,"Ġengagement":12350,"Level":12351,"hav":12352,"istent":12353,"Ġquiero":12354,"Ãªme":12355,"Ġlayout":12356,"ĠChemicals":12357,"Si":12358,"bin":12359,"bian":12360,"Ġmant":12361,"Ġlies":12362,"Ġplain":12363,"Ġtwist":12364,"à¸ª":12365,"Ð¸Ð½Ð³":12366,"Ġflowers":12367,"Ġalternatives":12368,"hum":12369,"uis":12370,"eds":12371,"olar":12372,"ĠVol":12373,"aceut":12374,"Ð¾Ð½Ð°":12375,"Ġmemor":12376,"ĠEnsure":12377,"Ġfocusing":12378,"ëĵľ":12379,"ðŁĶĴ":12380,"Ġenemy":12381,"}:":12382,"Ġformed":12383,"Ġemergency":12384,"Ġcher":12385,"ientos":12386,"fico":12387,"Ġcleaning":12388,"ĠÐ§ÑĤÐ¾":12389,"ĠÐ¾ÑĢÐ³":12390,"-[":12391,"ïĤ":12392,"eder":12393,"Ġgently":12394,"ĠPRI":12395,"ÐºÐ¾Ð¹":12396,"ewer":12397,"Ġalgum":12398,"Ġmomento":12399,",m":12400,"enario":12401,"Ġabuse":12402,"Ġbuildings":12403,"Ġdivision":12404,"cale":12405,"Ġale":12406,"utt":12407,"ĠTik":12408,"umin":12409,"Ġagora":12410,"Ġshorts":12411,"annst":12412,"ĠLeg":12413,"IUS":12414,"else":12415,"roph":12416,"Ġvast":12417,"ÑĥÑĤÑĮ":12418,"ĠMaterial":12419,"ĠJul":12420,"122":12421,"ategories":12422,"axy":12423,"ondition":12424,"Ġpunct":12425,"WE":12426,"Ġconform":12427,"Ġ'''":12428,"Ġdisplays":12429,"ĠProfess":12430,"bsite":12431,"Ġoperator":12432,"oiBot":12433,"Ġllm":12434,"rus":12435,"Ġoutcomes":12436,"ĠÃºlt":12437,"Work":12438,"lÃ¡":12439,"¡°":12440,"oline":12441,"igos":12442,"ĠPara":12443,"ĠÐ½ÐµÑĤ":12444,"Ġservers":12445,"riger":12446,"ashboard":12447,"ĠìĦ¤":12448,"ĠTE":12449,"ÑĥÑģÑĤ":12450,"Ġupset":12451,"translate":12452,"exas":12453,"ivate":12454,"Ġemissions":12455,"Ġsearching":12456,"ĠÐ½Ð°Ð·Ð²":12457,"Ġtensor":12458,"ads":12459,"ĠvÃł":12460,"Ġchannels":12461,"ĠHy":12462,"Ġko":12463,"Ġparking":12464,"Ġnumb":12465,"Ġë²":12466,"×¡":12467,"âĦ":12468,"ĠLand":12469,"ogatory":12470,"ĠDeutsch":12471,"bott":12472,"ĠControl":12473,"Ġexcitement":12474,"Ġapplying":12475,"rep":12476,"igt":12477,"Ġate":12478,"Ġplastic":12479,"Ġ{}":12480,"ferent":12481,"Ġrealizar":12482,"áº§":12483,"Ġcalculation":12484,"Ġsilver":12485,"ĠÑģÐ»Ð¾Ð²Ð°":12486,"ĠÐ²Ð¸Ð´Ðµ":12487,"urd":12488,"ĠÐ¾Ð¿ÑĢÐµÐ´":12489,"Ġmonthly":12490,"Ġradio":12491,"ĠCorporation":12492,"ĠÐ²Ð¾Ð·Ð¼Ð¾Ð¶":12493,"sm":12494,"Ġsess":12495,"agens":12496,"Ġasset":12497,"Ð»Ð¸Ð²":12498,"Ġcui":12499,"åħ³":12500,"Ġteachers":12501,"Ġfinger":12502,"åĵģ":12503,"Entity":12504,"Ġpalavras":12505,"Ġdeutsch":12506,"ĠSpec":12507,"Ġwrites":12508,"Ġdatetime":12509,"Ġafford":12510,"hicle":12511,"æĢ§":12512,"Ġ\"\\":12513,"raining":12514,"ĠPER":12515,"ĠÐĿÐµ":12516,"Æ°á»£":12517,"Ġsulla":12518,",c":12519,"Ġtied":12520,"ĠIMP":12521,"Ġconcrete":12522,"Ġdeeper":12523,"ĠëĲ":12524,"Ġinjury":12525,"010":12526,"whel":12527,"osure":12528,"ĠÃ¶":12529,"ÑģÐºÐ¾Ð»ÑĮÐºÐ¾":12530,"ĠÐ¶ÐµÐ½":12531,"PP":12532,"etch":12533,"Ġstores":12534,"Ġapproval":12535,"Ġexecuted":12536,"Ġdiferentes":12537,"Il":12538,"ìĨĮ":12539,"Ġub":12540,"Ð¼Ð°":12541,"Ġesper":12542,"Status":12543,"Ġprotest":12544,"Ġemoji":12545,"Ġstruggle":12546,"iac":12547,"Ġanterior":12548,"Ġvarchar":12549,"Ġquero":12550,"Ġjapan":12551,"vernment":12552,"Ġautomation":12553,"Ġê²ĥ":12554,"Ġsurprised":12555,"Ġba":12556,"Ġnurs":12557,"Ġexem":12558,"ĠReview":12559,"Ġregards":12560,"ĠBelow":12561,"Ġric":12562,"ibilities":12563,"ĠXYZ":12564,"irable":12565,"Ġprediction":12566,"Ġfederal":12567,"Ġvom":12568,"Ġkinds":12569,"116":12570,".png":12571,"ĠíĻ":12572,"Ġcircu":12573,"Ġfitness":12574,"Ed":12575,"Hand":12576,"Ġmate":12577,"Ð¾Ð±Ð°Ð²":12578,"Ġparticipate":12579,"ĠKorean":12580,"Company":12581,"ieres":12582,"Ġscared":12583,"à¦¾à¦":12584,"kit":12585,"Ġtank":12586,"Ġsow":12587,"Ġheadline":12588,"Ġvolunte":12589,"icians":12590,"Ġcommonly":12591,"_IN":12592,"bies":12593,"Ġhref":12594,"Ġconte":12595,"ultural":12596,"ĠStatus":12597,"Ð¾Ð»Ð¾Ð²":12598,"ĠØ®":12599,"á»¥":12600,"ronics":12601,"Ð¸ÑĢÑĥÐ¹":12602,"Method":12603,"gres":12604,"Ġcake":12605,"Ġcá»§":12606,"ĠÑģÐ¾Ð´ÐµÑĢÐ¶":12607,"Ġbutter":12608,"ÐµÐ½Ð½Ñı":12609,"-line":12610,"MID":12611,"document":12612,"Ġtoy":12613,"Ġtoward":12614,"ĠGit":12615,"Ġoptimal":12616,"Ġreaders":12617,"Ġplanned":12618,"haust":12619,"Ġantib":12620,"æį®":12621,"Die":12622,"FER":12623,"MC":12624,"Ľi":12625,"Ġaward":12626,"Ġfer":12627,"Ġprose":12628,"Ġvibr":12629,"ĠRad":12630,"teen":12631,"ĠÐ¾ÑĤÐ½Ð¾":12632,"ĠMedic":12633,"Ġarousal":12634,"ĠPS":12635,"Ġsuc":12636,"Ġsuis":12637,"Ġmeters":12638,"-driven":12639,"456":12640,"Dec":12641,"Complete":12642,"_number":12643,"ĠìķĮëł¤":12644,"Ġexpansion":12645,"Ġvalidate":12646,"Ïį":12647,"Ġlle":12648,"chter":12649,"actory":12650,"Ġobs":12651,"Ġencount":12652,"Ġfaces":12653,"Ġreaching":12654,"Ġsatisfy":12655,"Ġimmersive":12656,"HA":12657,"ae":12658,"Ġsor":12659,"itis":12660,"ĠSpecial":12661,"Ġdish":12662,"ĠÐ¼ÐµÑģÑĤ":12663,"ë¶Ħ":12664,"Ġreserved":12665,"ĠÐ¼Ð¸ÑĢ":12666,"Ġsends":12667,"Ã¤d":12668,"Ġopens":12669,"Ġterrit":12670,"Ġwidely":12671,"rewrite":12672,"Ġsumm":12673,"udi":12674,"Ġtalked":12675,"ĠÐ¿Ð¾ÑģÐ»ÐµÐ´":12676,"Ġsustainability":12677,")\"":12678,"omo":12679,"Ġhun":12680,"Ġreput":12681,"iry":12682,"ĠRight":12683,"ĠLimited":12684,"à¸°":12685,"Ġdecir":12686,"Ġoperational":12687,"Ġbitcoin":12688,"aft":12689,"store":12690,"Ġlon":12691,"Ġcanvas":12692,"ĠÐ³Ð¾Ð´Ð°":12693,"RACT":12694,"Ġcensorship":12695,"Ġpipeline":12696,"Ġaggressive":12697,"Co":12698,"Ġtes":12699,"chant":12700,"ugg":12701,"Ġbelieved":12702,"Ġrepresented":12703,"Ġdestination":12704,"Ġsarcasm":12705,"BI":12706,"Ġmism":12707,"ĠIF":12708,"à¸´":12709,"Ġbreakfast":12710,"ĠIntel":12711,"ĠìľĦ":12712,"Ġcá»§a":12713,"Term":12714,"estyle":12715,"Ġalive":12716,"nden":12717,"Ġmyster":12718,"Ġserved":12719,"ĠThrough":12720,"Ġbrings":12721,"Ġjoined":12722,"Ġwheel":12723,"Ġitaliano":12724,"#:":12725,"CON":12726,"lia":12727,"omic":12728,"Ġgast":12729,"Ġbeer":12730,"ĠCost":12731,"ĠÑĤÐ°":12732,"ĠStable":12733,"Ġsimulation":12734,"ugging":12735,"Ġ},":12736,"Ð°ÑģÑģÐºÐ°Ð¶Ð¸":12737,"ĠÐ¿ÑĢÐµÐ´Ð»Ð¾Ð¶":12738,"&D":12739,"Ġwra":12740,"itud":12741,"ĠmÃ¶ch":12742,"Ġdear":12743,"ĠprÃ©s":12744,"ĠÐ¿ÑĢÐ¸Ð²":12745,"-commerce":12746,"ril":12747,"Ĩµ":12748,"Ġabaixo":12749,"Ð¼ÐµÑĢ":12750,"Ġcreativity":12751,"engu":12752,"Ġrefused":12753,"Ġdurante":12754,"fire":12755,"size":12756,"ĠÑĤÐ¾Ð¼":12757,"Ġfacility":12758,"-car":12759,"Ġcatal":12760,"ìķĪ":12761,"ĠÏĦÎ·":12762,"ĠDefine":12763,"ĠPL":12764,"ĠInf":12765,"Ġaxis":12766,"ationale":12767,"Ġadhere":12768,"ĠÑĦÐ°Ð¹":12769,"ĠÑģÐ²ÑıÐ·":12770,"Â»,":12771,"cia":12772,"ionship":12773,"Ġgreatest":12774,"Ġexperiencing":12775,"ĠCounty":12776,"ĠÐ±Ð¾Ð»ÐµÐµ":12777,"ØŁ":12778,"atical":12779,"amed":12780,"icts":12781,"Ġaccounting":12782,"ÑĳÑĤ":12783,"Ġcrypto":12784,"Min":12785,"Pos":12786,"faces":12787,"Ġbist":12788,"Analy":12789,"Ġauthorities":12790,"Ġchaos":12791,"Ġproporcion":12792,"OO":12793,"rating":12794,"ì¶":12795,"Ġjoy":12796,"Ġprofession":12797,"Ac":12798,"Ġanecd":12799,"Ġmask":12800,"Ġft":12801,"ÑĢÐ¾Ð½":12802,"inding":12803,"Anal":12804,"Ġheader":12805,"Ġoppon":12806,"Ġadvertising":12807,"Ġsag":12808,"Ġestar":12809,"Ð¾ÑĢÐ¸Ð¸":12810,"Ġdecrease":12811,"Ġdiscrimination":12812,"ĠÃľ":12813,"ÏĥÎ·":12814,"Ġä½ł":12815,"requ":12816,"ĠPet":12817,"Ġweigh":12818,"akan":12819,"lected":12820,"Ġdedicated":12821,"Ġ____":12822,"Ð¼Ñĥ":12823,"çł":12824,"chi":12825,"106":12826,"complete":12827,"ĠÐ¿ÑĢÐ¾ÑĤ":12828,"Ð°ÑģÑĮ":12829,"íķĺê³ł":12830,"Ġpuzz":12831,"stitution":12832,"Ġoccurred":12833,"-being":12834,"Ġintricate":12835,"ì§":12836,"ĠSign":12837,"Ġopenai":12838,"prem":12839,"ĠColor":12840,"Ġìĸ´ë":12841,"));Ċ":12842,"Ĥ¹":12843,"Ġcompt":12844,"Ġmoder":12845,"ÐµÑĤÐ°":12846,"Ġworldwide":12847,"CTED":12848,"ĠÑįÑĤÐ¾Ð³Ð¾":12849,"Ġcandidates":12850,"ç§°":12851,"lit":12852,"ĠCam":12853,"ĠFA":12854,"ðŁĴ":12855,"Ġgrande":12856,"urrencies":12857,"Ġnumerical":12858,"Ġtrabalho":12859,"Ġphenomen":12860,"watch":12861,"Ġtin":12862,"Ġspark":12863,"oving":12864,"Ġsuffering":12865,"ĠÑĤÐµÑħÐ½":12866,"Next":12867,"TX":12868,"bas":12869,"ç®":12870,"ĠÐ¥":12871,"Ġworker":12872,"Ġreligious":12873,"Ġthroat":12874,"such":12875,"wing":12876,"itative":12877,"rape":12878,"Ã§os":12879,"Ð°ÑĤÐ¸Ð²":12880,"Ð¾ÑĢÐ¾Ð½":12881,"appoint":12882,"ĠìĿ¸":12883,"OUT":12884,"pc":12885,"Ġpic":12886,"Ġstating":12887,"ĠGB":12888,"117":12889,"Ġdrawing":12890,"Ġconnections":12891,"Ġmere":12892,"eller":12893,"ounce":12894,"Ġsignature":12895,"_test":12896,"Change":12897,"åľ°":12898,"idant":12899,"ĠFund":12900,"ARE":12901,"Ġambigu":12902,"Ġaument":12903,"unknown":12904,"ĠÐ´ÐµÐ¹ÑģÑĤÐ²":12905,"Ġstaying":12906,"Ġpriority":12907,"Age":12908,"arian":12909,"Ġstone":12910,"Ġunus":12911,"short":12912,"Ġtaxes":12913,":Which":12914,"ture":12915,"Ġsout":12916,"ÑģÐ°":12917,"Ġfalling":12918,"Ġanche":12919,"Ġalert":12920,"Ġchess":12921,"Ġpersonas":12922,"Ġrelatively":12923,"ĠÐ¾Ð±Ñī":12924,"_mod":12925,"ACE":12926,"Ġdivide":12927,"Vers":12928,"Ġ\"\",":12929,"Ġverify":12930,"ĠView":12931,"Ġdiabetes":12932,"á»©":12933,"prene":12934,"forward":12935,"Ġintegers":12936,"Ġwinner":12937,"nership":12938,"ÐµÑģÑı":12939,"Ġsurprise":12940,"Ġcounts":12941,"Ġdetermining":12942,"Ġenviron":12943,"ðŁĶĵ":12944,"Ã®":12945,"Ġsquee":12946,"ĠNLP":12947,"qual":12948,"Ġalbum":12949,"ieg":12950,"Ġfinanci":12951,"Ġincreasingly":12952,"iÃŁ":12953,"Ġinvestors":12954,"_count":12955,"Ġanalytics":12956,"Ġcircumstances":12957,"VA":12958,"Wie":12959,"cz":12960,"Ġtorch":12961,"quier":12962,"Ġversions":12963,"Ġviewer":12964,"Ġingles":12965,"Ġhandsome":12966,"educe":12967,"ÅĽci":12968,"âĪĴ":12969,"Ġtf":12970,"ĠAh":12971,"ĠvÃŃ":12972,"Ġperm":12973,"ãĤ¢":12974,"ĠExc":12975,"Ġfluid":12976,"Ġsubtle":12977,"ws":12978,"Ġwy":12979,"ĠMany":12980,"å±":12981,"Ġexpecting":12982,"Ġtransformer":12983,"320":12984,"MO":12985,"hu":12986,"×Ľ":12987,"ĠCho":12988,"ÑıÐ²":12989,"Ġ[]":12990,"Ġactors":12991,"Ġtransmission":12992,"STER":12993,"Ġgenre":12994,"relation":12995,"describe":12996,"aceutical":12997,"PN":12998,"lÃ¤":12999,"quÃ©":13000,"Ġblocks":13001,"###Ċ":13002,"ggi":13003,"Ġtargets":13004,"ê²½":13005,"Ġpsychological":13006,".net":13007,"hot":13008,"Ġcage":13009,"Ġpc":13010,"isto":13011,"ÑĭÑĪ":13012,"ÐºÐ¸Ð¹":13013,"Ãªncias":13014,"Ġknee":13015,"Ġmeth":13016,"Ġmodified":13017,"ĠTHAT":13018,".body":13019,"rÃ¡":13020,"Ġconvey":13021,"ĠWater":13022,"ĠFun":13023,"127":13024,"ĠContin":13025,"ĠÑģÑĤÑĢÐ¾Ðº":13026,"Je":13027,"ressing":13028,"ãĥ©":13029,"Ġpackages":13030,"Ġcaptured":13031,"/C":13032,"indi":13033,"isms":13034,"Ġcombat":13035,"reshold":13036,"Ġjun":13037,"Ġcheer":13038,"Exp":13039,"Ġvulnerability":13040,"Ġrobust":13041,"ê¹Į":13042,"Ð¾Ð½Ð¾Ð¼":13043,"Ġantes":13044,"-al":13045,"Jul":13046,"han":13047,"Ġdoit":13048,"Ġpreced":13049,"begin":13050,"Second":13051,"hl":13052,"Ġicon":13053,"Ġrecom":13054,"iber":13055,"ĠUnit":13056,"Ð¾ÑģÐ¾Ð±":13057,"rypto":13058,"+).\"Ċ":13059,"sql":13060,"Ġauss":13061,"Ġaster":13062,"ĠIgnore":13063,"Ð¾ÑĢÐ°":13064,"à¸«":13065,"Ġpharm":13066,"Ġfactory":13067,"Ġstudio":13068,"ORD":13069,"Ġconsideration":13070,"ĠSystems":13071,"Ġfetch":13072,"xide":13073,"Ġneur":13074,"ATES":13075,"Ġcaracter":13076,"Ð°Ð½Ð¸Ð·":13077,"ximo":13078,"ĠPlatform":13079,".to":13080,"GIN":13081,"002":13082,"ĠFurther":13083,"Ġaccordance":13084,"âĢĿ:":13085,"letter":13086,"Ġaccepted":13087,"Ġpetite":13088,"Ġbowl":13089,"Ġwake":13090,"Ġgit":13091,"Ġskilled":13092,"Ġbehalf":13093,"Ġslog":13094,"Ġdrawn":13095,"Ã´n":13096,"ĠÐ¿Ð¾ÑģÐ»Ðµ":13097,"wend":13098,"Ġchips":13099,"ÑĩÐ¸ÑĤ":13100,"ĠÐºÐ¾Ð³Ð´Ð°":13101,"Ġobt":13102,"Ġconvincing":13103,"Ð½Ð°Ð¿Ð¸ÑĪÐ¸":13104,"ĠOlymp":13105,"ĠÐ¼ÐµÐ¶":13106,"Ġinval":13107,"prim":13108,"imentos":13109,"Ġclosing":13110,"Ġfamilies":13111,"TER":13112,"burg":13113,"Øº":13114,"Ġunexpected":13115,"ÑĨÑĭ":13116,"è¡Į":13117,"ĠÑģÐ´ÐµÐ»Ð°ÑĤÑĮ":13118,"Ã¸":13119,"ĠCR":13120,"ĠOS":13121,"Ġadequ":13122,"ĠìŀĲ":13123,"Ġexposed":13124,"Ġtrabajo":13125,"Tu":13126,"_{":13127,"aid":13128,"Ġtherm":13129,"Ġincoming":13130,"ĠSche":13131,"commerce":13132,"Ġextent":13133,"Ġmirror":13134,"ÏģÎ¿":13135,"Ġtickets":13136,"items":13137,"(int":13138,".html":13139,"Ġdeux":13140,"Ġreturning":13141,"Ġemails":13142,"åĨħ":13143,"Ġaims":13144,"_N":13145,"bn":13146,"ĠEsp":13147,"Ġrepair":13148,"Ġrandomly":13149,"ĠÐŁÐµÑĢ":13150,"Ġcentre":13151,"Ġtense":13152,"icol":13153,"elled":13154,"erer":13155,"rows":13156,"ĠÐ±Ð»":13157,"Ġcarrying":13158,"Ġduty":13159,"GER":13160,"Source":13161,"ĠIr":13162,"Ð¸Ð¶":13163,"ango":13164,"riginal":13165,"cule":13166,"ĠMen":13167,"ĠHong":13168,"ãĥĥ":13169,"Ġgeht":13170,"Ġsele":13171,"ÑĨÐ¸Ñı":13172,"Ġhoras":13173,"ÏĢÎ¿":13174,"Ġbrowse":13175,"áº¡n":13176,"211":13177,"310":13178,"hy":13179,"uts":13180,"Ġproc":13181,"Ġscored":13182,"ãĤ¯":13183,"Ġmarriage":13184,"Ġseller":13185,"Ġ\"\"\"Ċ":13186,"Ġevolution":13187,"ĠCongress":13188,"onjour":13189,"iza":13190,"ticas":13191,"Ð½Ð¸Ð¼":13192,"oso":13193,"ĠDaten":13194,"âĢĻun":13195,"ĠÐ³Ð´Ðµ":13196,"Ġboost":13197,"Ġsimilarly":13198,"Ġbelongs":13199,"Ich":13200,"_cl":13201,"æģ":13202,"ĠÙĤ":13203,"rug":13204,"Ġtested":13205,"zeit":13206,"Ġemployment":13207,"Ġseemed":13208,"Ġconvince":13209,"Ġsymbols":13210,"Ġabsolute":13211,"Ġcontrolling":13212,"Ġnavigate":13213,"Bu":13214,"VocÃª":13215,"vell":13216,"aco":13217,"_info":13218,"rÃ¤":13219,"Ġdengan":13220,"Ġreactions":13221,"izado":13222,"ĠGold":13223,"ĠÐ´ÐµÑĤ":13224,"Ġobservation":13225,"ighter":13226,"param":13227,"Ġspecialized":13228,"Ġfavour":13229,"Column":13230,"Ġdreams":13231,"Ġtailored":13232,"-choice":13233,"idi":13234,"Ġ()":13235,"Ġsehr":13236,"duled":13237,"Ġseria":13238,"ĠStory":13239,"ĠSecret":13240,"ĠÐ¾Ð±ÑĢÐ°Ð·":13241,"Ġcul":13242,"Ġdit":13243,"ilty":13244,"ĠCall":13245,"abases":13246,"ÑĥÑģÐº":13247,"Ġcontest":13248,"Ð²ÐµÐ´":13249,"Ġcurios":13250,"ÐºÐ°Ñħ":13251,"Ġbonds":13252,"Ġhundred":13253,",y":13254,"rank":13255,"Ġfond":13256,"Ġoverwhel":13257,"Ġconfigure":13258,"Ġswallow":13259,"Ġstructured":13260,"Art":13261,"ĠÐ¿ÑĢÐ¾Ð´Ñĥ":13262,"')ĊĊ":13263,"ĠIh":13264,"ocratic":13265,"PTION":13266,"Ġjetzt":13267,"Ġ],Ċ":13268,"icans":13269,"Ġren":13270,"ä½¿":13271,"Ġheadaches":13272,"limited":13273,"Ġtouching":13274,"Ġroute":13275,"aggio":13276,"Ġreliable":13277,"ÑĥÑīÐµÑģÑĤÐ²":13278,"implify":13279,"_ex":13280,"bow":13281,"null":13282,"ĠpÃºblic":13283,"ĠSD":13284,"ĠBal":13285,"Ġzw":13286,"Ġslide":13287,"nesses":13288,"Ġdebate":13289,"ĠEntity":13290,"Ġmoody":13291,"'app":13292,"More":13293,"Ġsits":13294,"ila":13295,"perty":13296,"Ġapro":13297,"aze":13298,"ÑĸÐ½":13299,"\"],":13300,"./":13301,"|>":13302,"æĮ":13303,"Ġlistening":13304,"ĠAu":13305,"109":13306,"Ġspin":13307,"provide":13308,"Ġinvestigate":13309,"izontal":13310,"Ġflying":13311,"ivas":13312,"ĠÑĤÐ¾Ð³Ð¾":13313,"hoot":13314,".snake":13315,"Ġimpacts":13316,"ĠError":13317,"ìĦ¸ìļĶ":13318,"gas":13319,"anas":13320,"Ġidentifying":13321,"ÂłÂłÂł":13322,"UIDEL":13323,",M":13324,"Ġalien":13325,"Ġdetermin":13326,"ÑĢÑĥÐ´":13327,"Ġaffection":13328,"Rest":13329,"ĠMad":13330,"Ð¼ÐµÑĤ":13331,"Ġactor":13332,"175":13333,"ĠDeep":13334,"Ġgrew":13335,"Ġvoce":13336,"Ġihrer":13337,"ĠÃ¤r":13338,"uelle":13339,"ķĮ":13340,"Ġdensity":13341,"Ġlever":13342,"ĠUlt":13343,"Account":13344,"Ġlaunched":13345,"bor":13346,"Ġanger":13347,"Ġtow":13348,"Ġisland":13349,"ĠDutch":13350,"Ã³mo":13351,"Ġserving":13352,"ĠStay":13353,"Ġmetap":13354,"Ġreceives":13355,"_x":13356,"uent":13357,"Ġaos":13358,"Ġgost":13359,"brevi":13360,"ĠMedia":13361,"win":13362,"Ġtum":13363,"Ġbio":13364,"Ġenters":13365,"Ġcarried":13366,"Ġstudied":13367,"Ġbrands":13368,"ÏĦÎ±":13369,"Ġscientists":13370,"ĠSELECT":13371,"GRO":13372,"XY":13373,"vironment":13374,"Ġears":13375,"owered":13376,"estra":13377,"Ġcoins":13378,"ĠíĮ":13379,"æĺ¯ä»Ģä¹Ī":13380,"Ġmasturbating":13381,"METHYL":13382,"UIDELINES":13383,"cite":13384,"pes":13385,"æ¬":13386,"Ġinterval":13387,"Ġconfused":13388,"Ġmonolog":13389,"_train":13390,"Ġoperate":13391,"Ġbasically":13392,"DIV":13393,"Ġaccomplish":13394,"MD":13395,"ë£":13396,"Ġproport":13397,"ĠGreen":13398,"ponents":13399,"Ġindustries":13400,"Ġdepends":13401,"Ġhandling":13402,"ĠÐµÐµ":13403,"ilitÃł":13404,"hore":13405,"upp":13406,"ĠÐ¾Ð½Ð¸":13407,"Ġescrib":13408,"ĠĠĠĠĠĠĠĠĠĠĠĠĠĠĠĠĠĠĠĠĠĠĠĠĠĠĠĠĠĠĠĠĠĠĠĠĠĠĠĠĠĠĠĠĠĠĠĠ":13409,"è¯¢":13410,".L":13411,"Field":13412,"Ġmodeling":13413,"ovid":13414,"Ġinfection":13415,"Ġawareness":13416,"Ġbuttons":13417,"rategy":13418,"\"}Ċ":13419,"total":13420,"utz":13421,"embers":13422,"Ġescre":13423,"ï¼ŁĊ":13424,".âĢĿĊ":13425,"ĠWHERE":13426,"=(":13427,"anity":13428,"ĠFound":13429,"Ġcheese":13430,"Ġacord":13431,"author":13432,"Ġposter":13433,"Ġentirely":13434,"Ġliterary":13435,"åĬ¨":13436,"_RE":13437,"Ġram":13438,"ardo":13439,"Ġduplic":13440,"ĠÐ°ÐºÑĤ":13441,".jpg":13442,"ĠInterface":13443,"Ð°Ð¹ÑĤÐµ":13444,"Ġhint":13445,"ĠTarget":13446,"Ġkur":13447,"ÐµÐ½Ð´":13448,"ÐµÐ½ÑĤÐ¾Ð²":13449,"ĠÐ¸ÑģÐ¿Ð¾Ð»ÑĮÐ·Ð¾Ð²Ð°ÑĤÑĮ":13450,"Ġsweat":13451,"ĠFigur":13452,"ï¬":13453,"Ġfellow":13454,"step":13455,"ĠHE":13456,"ÐµÐ½Ð½Ð¾":13457,"Ð°ÑĤÐµÐ³":13458,"ÑĨÐµ":13459,"ĠSEC":13460,"Ġpessoa":13461,"Ġwurde":13462,"Por":13463,"Ġ×¢":13464,"Ġsecondary":13465,"Ġelectrical":13466,"ĠÐĿÐ°":13467,".âĢĿĊĊ":13468,"Ġë¬¸":13469,"ĠÑģÐµÐ±Ñı":13470,"ichen":13471,"enter":13472,"Ġgust":13473,"rile":13474,"ĠCD":13475,"Ġprohib":13476,"aki":13477,"Ġcommission":13478,"Ġregions":13479,"ĠCommit":13480,"Ġtotally":13481,"Ġsubstance":13482,"UAL":13483,"mel":13484,"Ġtough":13485,"Ġwalls":13486,"Ġjustice":13487,"ATH":13488,"bel":13489,"Ġtease":13490,"Ġcharges":13491,"Ġcaract":13492,"ĠÐ½Ð°Ð¿Ð¸ÑģÐ°ÑĤÑĮ":13493,"Price":13494,"Ġpulled":13495,"':Ċ":13496,"-class":13497,".Your":13498,"æĭ":13499,"Ġpitch":13500,"Ġindu":13501,"tery":13502,"Ġdisag":13503,"Ġ${":13504,"ĠÐ·Ð²":13505,"aha":13506,"echo":13507,"ĠSpace":13508,"!!!":13509,"Ġê³ł":13510,"/B":13511,"Right":13512,"qrt":13513,"Ġ^":13514,"ental":13515,"Ġvas":13516,"ĠOs":13517,"Ġtracking":13518,"Ġretire":13519,".json":13520,"Ġenjoying":13521,"Ġlayers":13522,"ĠPersonal":13523,"Ġphilosophy":13524,"Ġgap":13525,"ĠCOR":13526,"Ġanyway":13527,"Ġì¶":13528,"ĠExcel":13529,"player":13530,"ĠÐ±ÑĭÐ»":13531,"ãģĹãģŁ":13532,"'S":13533,"ĠSentence":13534,"ĠMulti":13535,"ruits":13536,"Ġdesper":13537,"Ġsociet":13538,"ãĢĮ":13539,"Ġboobs":13540,"Ġabsor":13541,"Ġreveals":13542,"Ġmechanics":13543,"Ġhalluc":13544,"Gl":13545,"Ġacess":13546,"learn":13547,"ĠMOD":13548,"Ġboolean":13549,"Ġcampo":13550,"Ġretrieve":13551,"éĿ¢":13552,"Ke":13553,"Ġgem":13554,"ĠSem":13555,"Ġespec":13556,"Ġdys":13557,"arts":13558,"ĠGal":13559,"ĠAsia":13560,"Ġeveryday":13561,"280":13562,"reiben":13563,"Ġlegis":13564,"Ð½Ð¸ÐºÐ°Ð»ÑĮ":13565,"Ġinitially":13566,"éĩı":13567,"Ġimpossible":13568,"Ġhumiliation":13569,"Yeah":13570,"eness":13571,"ĠDen":13572,"ãģĬ":13573,"Vis":13574,"ride":13575,"ÐŃ":13576,"Ġatual":13577,"iaz":13578,"ĠÐ½ÐµÐ¹":13579,"Ġdisrespect":13580,"Ġpandemic":13581,"Ġwatched":13582,"åĲįç§°":13583,"Ġthousands":13584,"ĠÃ§a":13585,"aya":13586,"ĠTai":13587,"QuÃ©":13588,"ĠItem":13589,"Ð¸ÑĢÐ¾Ð²Ð°Ð½":13590,"XYZ":13591,"ÐµÐ½Ñĭ":13592,"Style":13593,"Ġflirty":13594,"Ġdisplayed":13595,"ĠFinancial":13596,"Category":13597,"ders":13598,"Ġfro":13599,"ĠHas":13600,"ãĢį":13601,"ĠAndroid":13602,"Ġsensor":13603,"Ġacceptable":13604,"Ġdragons":13605,"olution":13606,"Ġabandon":13607,"ĠVery":13608,"ventional":13609,"ĠXXX":13610,"ibil":13611,"ĠÐºÐ»ÑİÑĩ":13612,"Ġbroke":13613,"ĠAssume":13614,")/":13615,"<<":13616,"Ġtorn":13617,"uling":13618,"ĠÐ½ÐµÐ´":13619,"Ġcheap":13620,"bei":13621,"ropy":13622,"Ġprospect":13623,"Ġdiversity":13624,"ĠCredit":13625,"Ġ*/Ċ":13626,"Ð°ÑģÑģ":13627,"ĠUSER":13628,"-friendly":13629,"Ġstrongly":13630,"ktion":13631,"ĠrÃ©pond":13632,"(-":13633,"LI":13634,"Top":13635,"ĠLabel":13636,"apa":13637,"Ð°Ð»Ð¾":13638,"azz":13639,"kn":13640,"lat":13641,"Ġcrear":13642,"Ġpeu":13643,"idential":13644,"Ġaccordingly":13645,"Ġpreferred":13646,"ĠTurkey":13647,"Ġincredibly":13648,"amil":13649,"Ġimplications":13650,"aka":13651,"Ġaccel":13652,"parse":13653,"ÑĪÐ¸Ð±":13654,"Ġsteal":13655,"Car":13656,"Normal":13657,"Ġdice":13658,"Ġbom":13659,"Ġmehr":13660,"Ġworried":13661,"Ġadds":13662,"ÑİÑī":13663,"INGS":13664,"video":13665,"Ġinterpretation":13666,"Ġregulations":13667,"ÏīÎ½":13668,"Ġquotation":13669,".:":13670,"æĻ":13671,"ĉc":13672,"Ġuint":13673,"urpose":13674,"Ġobst":13675,"Ġremark":13676,"Ġaccessible":13677,"\"></":13678,"(r":13679,"Ġtous":13680,"health":13681,"ÑĥÐ»Ñı":13682,"ĠRate":13683,"ĠIslam":13684,"Ð¸ÑģÐ¾Ðº":13685,"apters":13686,"Ġmaximize":13687,"rainian":13688,"Ġextraordinary":13689,"/F":13690,"Best":13691,"Job":13692,"ĊĠĊ":13693,"Ġshouldn":13694,"Ãºde":13695,"Ġimplementing":13696,"month":13697,"Ġsatisfaction":13698,"Ġvirus":13699,"æŀľ":13700,"Ġstakeholders":13701,"andid":13702,"ĠÑģÐ¾Ð²":13703,"Ġtrat":13704,"Ø§Ø¹":13705,"-meth":13706,"ìŀħ":13707,"Ġcommitment":13708,"Ġweapon":13709,"Ġstroke":13710,"Calcul":13711,"Ms":13712,"_by":13713,"Ġpill":13714,"ĠNÃ£o":13715,"istan":13716,"Ġtraits":13717,"ÏĦÎ·":13718,"While":13719,"Ġlowest":13720,"Ġseguinte":13721,"HI":13722,"Ġtid":13723,"Ġrevis":13724,"Ġassembly":13725,"ĠSqu":13726,"Ġtrick":13727,"Ġìĥģ":13728,"Ð°Ð»Ð»":13729,"Web":13730,"Ġreducing":13731,"Ġfantastic":13732,"ĠìŀĪëĬĶ":13733,"Ð°ÑİÑĤÑģÑı":13734,"Ġbehaviors":13735,"asion":13736,"antial":13737,"ĠPos":13738,"ĠSea":13739,"ĠhistÃ³ria":13740,"ĠtambiÃ©n":13741,"Ġsuicide":13742,"?\"ĊĊ":13743,"alty":13744,"Ġasync":13745,"Ġexplos":13746,"Ġesto":13747,"REE":13748,"Ġcontrolled":13749,"ĠFree":13750,"Ġjew":13751,"ĠVAL":13752,"Ġexperiments":13753,"Config":13754,"Ð°ÑĩÐµ":13755,"ĠÐºÐ¾Ð»Ð¸ÑĩÐµ":13756,"ĠÐłÐ¾ÑģÑģÐ¸Ð¸":13757,"Ġsurgery":13758,"æŁ¥è¯¢":13759,"Ġcough":13760,"escreva":13761,"ĠEver":13762,".data":13763,"ĠÐ½Ð°Ñģ":13764,"Ġediting":13765,"onda":13766,"Ġposts":13767,"THING":13768,"Ġboxes":13769,"Ġwalked":13770,"Ġstrive":13771,"ĠÐ·Ð°Ð¼":13772,"Ã¼t":13773,"Ġproblemas":13774,"Ġdirected":13775,"Ġcrimes":13776,"irtual":13777,"ÃĥO":13778,"ipt":13779,"Ãĵ":13780,"ĠARE":13781,"Ġabnormal":13782,"Ġlegality":13783,"_value":13784,"ych":13785,"ĠWITH":13786,"ĠBesch":13787,"ĠBoiBot":13788,"Ġencl":13789,"Ġì§Ħ":13790,"amentos":13791,"Ġmoan":13792,"loor":13793,"Ġpodem":13794,"ĠIndustry":13795,"çĶŁæĪĲ":13796,"plements":13797,"ĠÑĥÐ½Ð¸ÐºÐ°Ð»ÑĮ":13798,"ä»¶":13799,"Ġmitig":13800,"Ġknife":13801,"ĠNetwork":13802,"ÑĥÐ»ÑĮÑĤÐ°ÑĤ":13803,"-yl":13804,"æĽ":13805,"ķ¼":13806,"Ġgene":13807,"Ãªm":13808,"Ġdistrict":13809,"ĠOUT":13810,"Ġsomewhat":13811,"Ġhypnosis":13812,"ë²ķ":13813,"double":13814,"Ġstunning":13815,"anga":13816,"())":13817,"ĉĉĉĉĉĉ":13818,"ĠFranc":13819,"Ġflower":13820,"Ġopposition":13821,"ĠEngineering":13822,"-ÑĤÐ¾":13823,"mother":13824,"Ġfue":13825,"Ġnap":13826,"Ġrice":13827,"ĠMinister":13828,"Ġcrowd":13829,"ĠÑĩÐµÑĢÐµÐ·":13830,"\\t":13831,"mic":13832,"ÅĦ":13833,"æ®":13834,"ĠLook":13835,"107":13836,"Ġ[[":13837,"Ġprogramme":13838,"center":13839,"_message":13840,"ĠCollection":13841,"Ġreferring":13842,"Ġinstallation":13843,"Ġanecdotes":13844,"power":13845,"Ġcouch":13846,"andong":13847,"oven":13848,"Ġextend":13849,"container":13850,"Ġprinciple":13851,"Ġbanks":13852,"ifferent":13853,"usr":13854,"ĠfunÃ§Ã£o":13855,"Ġproducing":13856,"ÑģÐºÐ¾Ð¼":13857,"Article":13858,"Ġsatisfied":13859,"properties":13860,"-ce":13861,"uar":13862,"Ġconclus":13863,"istor":13864,"206":13865,"Ð¼Ð¾ÑĤÑĢ":13866,"ypothesis":13867,"Ġbreaks":13868,"Ġordinary":13869,"ĠFinance":13870,"chron":13871,"uno":13872,"AMP":13873,"Ġoccurs":13874,"ijing":13875,"å¤ļå°ĳ":13876,"_se":13877,"Ġlol":13878,"Ġ:ĊĊ":13879,"Ġpose":13880,"Ġattach":13881,"Ð¾ÑĤÐ°":13882,"Ð¾ÑĤÐ²ÐµÑĤ":13883,"ê°Ħ":13884,"Ġpromotion":13885,"Ġnig":13886,"auc":13887,"Ġlibraries":13888,"Ġcoherent":13889,"Ġtasked":13890,"ĠpaÃŃs":13891,"ĠÐ¾Ð±ÑĥÑĩ":13892,"ĠÑħÐ¾ÑĢ":13893,"').":13894,"/g":13895,"Local":13896,"Ġagric":13897,"Ġefic":13898,"ĠSP":13899,"ateur":13900,"Ġnoted":13901,"icket":13902,"Ġsimult":13903,"ĠAnother":13904,"Ġbiases":13905,"Ġcalculations":13906,"ĠÐºÐ¾Ð¼Ð¼ÐµÐ½ÑĤÐ°ÑĢ":13907,"gypt":13908,"quirements":13909,"vt":13910,"omain":13911,"ĠEND":13912,"ĠOP":13913,"ĠVideo":13914,"Student":13915,"Ġlocally":13916,")ĊĊĊ":13917,"Ġbitch":13918,"account":13919,"----------------------------------------------------------------":13920,"Ġcompliance":13921,"ĠCV":13922,"iras":13923,"Ġscream":13924,"dev":13925,"Ġbug":13926,"apped":13927,"Ø§Ø¡":13928,"Ġurban":13929,"Post":13930,"style":13931,"racial":13932,"ĠMeta":13933,"ĠHaw":13934,"Ġ'',":13935,"Ġì¤ĳ":13936,"Comment":13937,"aaaaaaaaaaaaaaaa":13938,"Ð¸Ð´ÑĥÐ¼Ð°Ð¹":13939,"à§įà¦":13940,",<":13941,"human":13942,"Ġske":13943,"roverted":13944,"ĠUtil":13945,"ATED":13946,"ĠÐ·Ð°Ð³":13947,"ĠâĦ":13948,".load":13949,"ĠPolice":13950,"card":13951,"è´":13952,"Ġquieres":13953,"Ġissued":13954,"untos":13955,"Ġtradu":13956,"Ġelectronic":13957,"Identify":13958,"ê¸Ī":13959,"install":13960,"^^^^^^^^^^^^^^^^":13961,"Ġsynonyms":13962,"ÏĨ":13963,"Ġdumb":13964,"ĠCNN":13965,"lectual":13966,"Ġregression":13967,"Ġthrust":13968,"original":13969,"Ġsecrets":13970,"los":13971,"ĠNY":13972,"ĠSpring":13973,"Ä±nd":13974,"unit":13975,"Ġkernel":13976,"())Ċ":13977,"Ð½Ð¸ÐºÐ°":13978,"Ġimposed":13979,"ëŀĺ":13980,"OB":13981,"ĠâĢĻ":13982,"Ġads":13983,"ĠWhether":13984,"arten":13985,"Ġbypass":13986,"124":13987,"Ġusername":13988,"-and":13989,"Ġfert":13990,"Ġstrip":13991,"ĠìĨĮ":13992,"ONG":13993,"Ġguilty":13994,"Ġmeetings":13995,"Array":13996,"_entity":13997,"summary":13998,"Ġsas":13999,"Ġdesirable":14000,"Ġclust":14001,"Ġveux":14002,"ĠImport":14003,"Ġnearby":14004,"journey":14005,"Ġsaved":14006,"arantee":14007,")),":14008,"450":14009,"uu":14010,"icism":14011,"Ġongoing":14012,"Ð¸ÑĦ":14013,"Ġauthors":14014,"Ġdemo":14015,"Ġboat":14016,"ĠEnergy":14017,"750":14018,"Edit":14019,"ļ©":14020,"itals":14021,"Ġviv":14022,"ĠPresent":14023,"Ġfriendship":14024,"RIMID":14025,"character":14026,"Ġdimension":14027,"ĠChristmas":14028,"Ġsarcastic":14029,"Sales":14030,"iop":14031,"hem":14032,"itled":14033,"Ġnun":14034,"Ġquem":14035,"ĠFast":14036,"ĠRAM":14037,"Ġ===":14038,"comment":14039,"Ãªt":14040,"Ġreplay":14041,"ĠLine":14042,"205":14043,"Ġpergunta":14044,"ifica":14045,"arrant":14046,"ĠAddress":14047,"ĠSTAN":14048,"otherapy":14049,".text":14050,"Pretend":14051,"via":14052,"ìĻĢ":14053,"Ġcust":14054,"Ġwishes":14055,"ĠÐ·Ð´":14056,"Ġloving":14057,"Ġstupid":14058,"ĠScore":14059,"ulf":14060,"Ġhasht":14061,"Ġexploration":14062,"Ġdefense":14063,"Ã¤re":14064,"ĠÑĥÐ¶Ðµ":14065,"Ġtermin":14066,"ĠÑĤÐ°ÐºÐ¾Ð¹":14067,"íķ´ìĦľ":14068,"sd":14069,"Ġsous":14070,"Ġobe":14071,"images":14072,"ÑĩÐ°Ñģ":14073,"vely":14074,"zip":14075,"Ãĩ":14076,"Ġsight":14077,"ĠfÃŃs":14078,"Ġeld":14079,"Ġampl":14080,"Ã¢ncia":14081,"ĠÐºÐ¾Ð¼Ð¿Ð°Ð½Ð¸Ð¸":14082,"ĠÐ¼ÐµÑĤÐ¾Ð´":14083,"Ġthighs":14084,"Ġimpressive":14085,"UB":14086,"iy":14087,"Ġpse":14088,"Ġstuck":14089,"Ġdere":14090,"unta":14091,"ivel":14092,"ova":14093,"Ġnude":14094,"ĠBa":14095,"Ġintrig":14096,"hered":14097,"ÃŃd":14098,"lesh":14099,"encial":14100,"Ġseparately":14101,"Ġhydrogen":14102,"Ġcryst":14103,"Ġ________":14104,"Ġeines":14105,"Ġgam":14106,"tok":14107,"Ã¶glich":14108,"Ġmul":14109,"Ð¸Ð½Ñĭ":14110,"Ġservi":14111,"Ġrecording":14112,"boot":14113,"front":14114,"nap":14115,"Ġtherap":14116,"ĠĠĠĠĠĠĊ":14117,"ĠMor":14118,"Ġhasn":14119,"ĠpossÃŃvel":14120,"ä½į":14121,"Ġdefinitions":14122,"Ġpublish":14123,"hn":14124,"omin":14125,"aded":14126,"iga":14127,"ĠPot":14128,"arters":14129,"ĠStyle":14130,"Ġdatabases":14131,"ÐµÑģÑĤÐ¸":14132,"Ġpipe":14133,"Ġimmerse":14134,"reds":14135,"ĠSher":14136,"Ġhace":14137,"ĠBot":14138,"aken":14139,"Ã¼ss":14140,"Ġsoccer":14141,"ADE":14142,"ĠÑģÐ¾ÑĨÐ¸Ð°Ð»ÑĮ":14143,"ëıĻ":14144,"Ġgranted":14145,"CU":14146,"_ch":14147,"ĠCapt":14148,"Ġexhaust":14149,"Any":14150,"Ġíı":14151,"Ġdetected":14152,"Employ":14153,"-te":14154,"ÑĸÐ¹":14155,"ollen":14156,"Ġdiscussions":14157,"Ġtargeted":14158,"Ġpolitics":14159,"Ġawesome":14160,"åĵª":14161,"Ġregistered":14162,"Fin":14163,"imer":14164,"acts":14165,"Ġintim":14166,"Ġintensity":14167,"Ġavailability":14168,"ìķ¼":14169,"ĠÑģÐ»Ð¾Ð²Ð°Ð¼Ð¸":14170,"ĠAcadem":14171,"dr":14172,"ç±":14173,"rian":14174,"ĠPAR":14175,"ccion":14176,"Ġspots":14177,"ĠÐ´Ð¾Ð¼":14178,"Ġcareful":14179,"Ġjealous":14180,"ĠModels":14181,"Ġmanufacture":14182,"IENT":14183,"options":14184,"ì¦":14185,"essa":14186,"ĠBan":14187,"ryption":14188,"ãģ©":14189,"ĠÑģÐ»ÑĥÑĩ":14190,"Ġfailing":14191,"ĠÐ°Ð½Ð³":14192,"Ġannounce":14193,"Ġwedding":14194,"ubble":14195,"STM":14196,"prises":14197,"Examples":14198,"Ġexplained":14199,"Ġrespective":14200,"ĠDetails":14201,"Ġë§Į":14202,"Ġë¶Ģ":14203,"æİ¥":14204,"Ġcited":14205,"itÃ©s":14206,"STR":14207,"Review":14208,"Techn":14209,"MB":14210,"ycl":14211,"ç¨":14212,"Ġbun":14213,"Ġconserv":14214,"issance":14215,"STRU":14216,"Ġdomestic":14217,"ĠÑıÐº":14218,"Ġindicated":14219,"ĠÐ¿ÑĢÐµÐ´Ð¾ÑģÑĤÐ°Ð²":14220,"Ġstrengths":14221,"çĲĨ":14222,"halt":14223,"Ġwrap":14224,"Ġneuro":14225,"304":14226,"Ġclassic":14227,"ialogue":14228,"Ġfault":14229,"ettings":14230,"fers":14231,"will":14232,"arehouse":14233,"-methyl":14234,"ĠÑįÑĤÐ¾ÑĤ":14235,"ĠÐ·Ð°Ð¿ÑĢÐ¾Ñģ":14236,"Ġbarely":14237,"Ġceremon":14238,"íĥ":14239,"Ġpicking":14240,"Ġoutros":14241,"Ġanywhere":14242,"Ġaccused":14243,"ovo":14244,"Ġgeneric":14245,"-text":14246,"ä»Ĭ":14247,"ÏģÎ±":14248,"Ġencouraged":14249,"Ġcensored":14250,"Ġdramatic":14251,"ëĲĺ":14252,",N":14253,"KE":14254,"izations":14255,"Ġoutdoor":14256,"Ġadmitted":14257,"ĠÑĤÐ¾Ð²Ð°ÑĢ":14258,"Ġbladder":14259,"Ġ\\'":14260,"Ġassumptions":14261,"Ġainda":14262,"isd":14263,"Ġparallel":14264,"Ġextraction":14265,"OIN":14266,"Press":14267,"ulas":14268,"Ġexclus":14269,"Ġweird":14270,"Ð´Ð¸Ð½":14271,"Ġserial":14272,"Ġfunc":14273,"Ġclassroom":14274,"Ġhabits":14275,"Ġperiods":14276,"ĠAuthor":14277,",L":14278,".in":14279,":/":14280,"sentence":14281,"request":14282,"Ġscr":14283,"Ã¡p":14284,"Ġglad":14285,"Ġmorals":14286,"Ġvictory":14287,"Ġwhisper":14288,"nehmen":14289,"(D":14290,".io":14291,"km":14292,"non":14293,"Ġsyst":14294,"Ġ\"#":14295,"Ġconfidant":14296,"Ġgrammatical":14297,"sfwGPT":14298,"/V":14299,"call":14300,"Ġahora":14301,"osystem":14302,"intent":14303,".difficulty":14304,"ĠProblem":14305,"ponses":14306,"Ġknock":14307,"¿»":14308,"ÐµÑĦ":14309,"Ġrit":14310,"ĠÐ¿ÑĤ":14311,"gear":14312,"Ġinformal":14313,"Ġresultado":14314,"Ġheads":14315,"Ġsuspect":14316,"ĠSolutions":14317,"Ġutterance":14318,"'),":14319,"crit":14320,"Ġcoc":14321,"iciÃ³n":14322,"ĠHot":14323,"Ġclause":14324,"ĠÂ»":14325,"-source":14326,"ĠÑģÑĤÐ°ÑĤÑĮ":14327,"ĠReply":14328,"Ġblockchain":14329,"ĠIndonesia":14330,"ì°":14331,"erd":14332,"Ġcav":14333,"Ġcache":14334,"Ġracial":14335,"ichte":14336,"ĠÐ¿ÐµÑĢÐµÐ²":14337,"ìļ°":14338,"cp":14339,"ĠsÃŃ":14340,"Ġlip":14341,"ĠÑĥÐ¿":14342,"ĠÐ°Ð´":14343,"auto":14344,"Ġsuggestion":14345,"Ġsignifica":14346,")=":14347,"Ġgol":14348,"Ġgross":14349,"rais":14350,"ĠFunction":14351,"actual":14352,"acht":14353,"Ð¾Ð¶Ðµ":14354,"ĠShare":14355,"Ø³ÙĦ":14356,"Ġsearches":14357,"Flow":14358,"ī¤":14359,"Ġfans":14360,"asive":14361,"Ġrecept":14362,"ĠDA":14363,"ĠDan":14364,"ĠDark":14365,"ĠHan":14366,"ĠHTTP":14367,"Ġamoral":14368,"Ð¾Ð¶Ð°Ð»":14369,"Ġconcert":14370,"Ġorganize":14371,"Ġhasta":14372,"Ġbeneficial":14373,"æĥ":14374,"Ġerect":14375,"ĠDiffusion":14376,"Ġtrapped":14377,"Ġdecent":14378,"ĠPhD":14379,"'].":14380,"orient":14381,"amount":14382,"Ġ\"$":14383,"ĠTit":14384,"Ġjack":14385,"ĠÐ²Ð¾Ð´":14386,"119":14387,"Ġconsens":14388,"ĠUnivers":14389,"Ġverses":14390,"365":14391,"Check":14392,"Sec":14393,"ÑģÐµ":14394,"ĠPROMPT":14395,"apse":14396,"à¤¸":14397,"è¯Ń":14398,"Î½Î±":14399,"ĠBoard":14400,"Ġdesenvolv":14401,".-":14402,"lio":14403,"Ġtabel":14404,"Ð¸ÑĨÐ¸":14405,"ĠPack":14406,"ĠWord":14407,"ĠMas":14408,"ĠHar":14409,"ÐµÑĢÑĤ":14410,"Ġeso":14411,"Ġmetab":14412,"Ġmetadata":14413,"ĠConvert":14414,"ìĭł":14415,"Ġlatex":14416,"Ġinjuries":14417,"ëį°":14418,"Ġajudar":14419,"pletion":14420,"Ġnumbered":14421,"Found":14422,"Ġmosh":14423,"ĠCategory":14424,"outer":14425,"ĠRome":14426,"Ġbytes":14427,"Ġshel":14428,"Ġflames":14429,"ribution":14430,"Milk":14431,"mail":14432,"èĲ":14433,"uture":14434,"ĠLO":14435,"Ġfever":14436,"ĠExpress":14437,"Ãºs":14438,".csv":14439,"áº¿t":14440,"Ġsurvive":14441,"Ġbibli":14442,"ĠCyber":14443,"ĠET":14444,"ĠÐºÐ»Ð°Ñģ":14445,"ÙĪØ¯":14446,"ĠUseful":14447,"Ġsignificance":14448,"Ġsubstantial":14449,"çĶ¨æĪ·éĹ®é¢ĺ":14450,"Di":14451,"Ġpushing":14452,"uting":14453,"Ġasc":14454,"acet":14455,"Ġregional":14456,"metic":14457,"ĠÐŀÐ±":14458,"emplos":14459,"Character":14460,"]]":14461,"Ġfle":14462,"quant":14463,"ĠSuggest":14464,"Ġabbrevi":14465,"Ġregister":14466,"ãģĦãģ¦":14467,"Ġtiempo":14468,"Ġmedications":14469,"Ġprotagonist":14470,"wal":14471,"èĤ":14472,"Ġwise":14473,"ĠProdu":14474,"ĠMiddle":14475,"phones":14476,"ĠÐ¿ÐµÑĢÑģ":14477,"Ġtraveling":14478,"yect":14479,"003":14480,"ipo":14481,"Ġflash":14482,"Ġpunto":14483,"âĶĤ":14484,"æ®µ":14485,"mov":14486,"ĠanÃ¡l":14487,"ĠmÃªme":14488,"ĠFemale":14489,"Ġadmit":14490,"Ġinterracial":14491,"Ġetwas":14492,"ÙħØ§":14493,"Ġrecognized":14494,"amsung":14495,"ĠTikTok":14496,"changed":14497,"interest":14498,"ÐµÐ¹ÑĩÐ°Ñģ":14499,"ĠÑģÐºÐ°Ð·":14500,"Ġsucceed":14501,"-K":14502,"JSON":14503,"uum":14504,"éľ":14505,"Ġlugar":14506,"eling":14507,"ĠEv":14508,"Ġadvers":14509,"Ġteeth":14510,"Ġpreciso":14511,"Command":14512,"æıĲ":14513,":\",":14514,"Ant":14515,"ĠEnc":14516,"Ġsummarization":14517,"Ġrepetition":14518,"Down":14519,"UG":14520,"tw":14521,"èģ":14522,"station":14523,"ĠGes":14524,"Ġrecall":14525,"Section":14526,"ĠMOST":14527,"Ġmonologue":14528,"period":14529,"arest":14530,"ĠprÃ©c":14531,"ĠChamp":14532,"Ġmetric":14533,"Ġmusical":14534,"ĠÐµÑīÐµ":14535,"Ġschools":14536,"Ġescrit":14537,".id":14538,"sed":14539,"Â«":14540,"Ġvoy":14541,"Ã¤ng":14542,"Ġengaged":14543,"Ġartists":14544,".pdf":14545,"ĠSV":14546,"ĠCos":14547,"phant":14548,"ĠClub":14549,"Ġorganized":14550,"Ġanalyzing":14551,"ĠÐºÐ¾ÑĤÐ¾ÑĢÐ°Ñı":14552,"Ġstreaming":14553,"Ġcovering":14554,"Ġclimb":14555,"isting":14556,"ĠÐ½Ð°ÑĪ":14557,"Ø±Ø¨":14558,"Ġmoans":14559,"×Ŀ":14560,"oment":14561,"olve":14562,"estas":14563,"Ġderogatory":14564,"Ġfoundation":14565,"Ġscheduled":14566,"Plan":14567,"FL":14568,"Ã»":14569,"Ġwo":14570,"anj":14571,"Ġano":14572,"ĠCr":14573,"Ġaprend":14574,"UC":14575,"_CO":14576,"Ġinhib":14577,"igung":14578,"Ġpoll":14579,"Ġparticles":14580,"Ġinteress":14581,"ĠÐºÐ°ÐºÐ¾Ð¹":14582,"Ġfurry":14583,"Ġintegrated":14584,"ĠArtificial":14585,"ĠERR":14586,"Ġenvironments":14587,"Ġtroubles":14588,"grid":14589,"iera":14590,"Continue":14591,".path":14592,"ĠÐ¿Ð¾Ð´ÑĢÐ¾Ð±":14593,",Pct":14594,"ĠInteger":14595,"Call":14596,"Ġtres":14597,"ĠmÃ©":14598,"ĠTown":14599,"ĠTexas":14600,"adian":14601,"Ġhex":14602,"Ġshoulder":14603,"Ð°Ð»Ð¾Ð³":14604,"Ġprofanity":14605,"Ġedges":14606,"ĠdiffÃ©":14607,"Ġsmoking":14608,"Ġlinguagem":14609,"Ġarrested":14610,"ĠÐ´ÐµÐ²ÑĥÑĪ":14611,"(P":14612,")':":14613,"HE":14614,"even":14615,"anza":14616,"Ġinse":14617,"Ġvou":14618,"Ġproductivity":14619,"ĠÎ½":14620,"åı£":14621,"Ġspanking":14622,"Ġspanish":14623,"Ġcensor":14624,"ĠdÃŃa":14625,"Ġfract":14626,"rowth":14627,"å¼Ģ":14628,"Ġtarjet":14629,"Ġplugin":14630,"Ġsimultane":14631,"Wel":14632,"bag":14633,"good":14634,"Ġsoph":14635,"Ġstere":14636,"aben":14637,"achine":14638,"Ġcomport":14639,"à¤®":14640,"Ġmarked":14641,"Ġtrigger":14642,"Ġtan":14643,"about":14644,"Ġsimples":14645,"Ġsubmitted":14646,"ributes":14647,"ÑĢÑĥÐ·":14648,"ĠPrint":14649,"Ġillustration":14650,"Ð°ÑĢÐ¸Ð°Ð½ÑĤ":14651,".name":14652,"gency":14653,"hop":14654,"vanced":14655,"stelle":14656,"imen":14657,"ÑĥÐ·":14658,"ĠFort":14659,"ĠInitial":14660,"Ġpromise":14661,"Ġtestic":14662,"Ġsingular":14663,"Ġentreprene":14664,"Ġvalidation":14665,"loride":14666,"Server":14667,"Ġdecline":14668,"áº¡i":14669,"Ġpreparing":14670,"Ã¬nh":14671,".<":14672,"è¾":14673,"agues":14674,"Ġreserv":14675,"Ġclock":14676,"asts":14677,"Ġrod":14678,"aven":14679,"Ġprogrammer":14680,"ĠProvince":14681,"ĠÑĥÐºÐ°Ð·":14682,"uxt":14683,"Ġdistingu":14684,"ITLE":14685,"Ġà¤®":14686,"ĠëĤĺ":14687,"plotlib":14688,".read":14689,"Ġmud":14690,"Ġlean":14691,"ĠLove":14692,"Ġresid":14693,"ÑıÐ½":14694,"Ġdetal":14695,"ĠVor":14696,"Ġì§":14697,"ĠThree":14698,"Ġworkflow":14699,"shot":14700,"ĠISO":14701,"alo":14702,"encer":14703,"Ġdressed":14704,"named":14705,"Ġvaccine":14706,",p":14707,"Ĩį":14708,"ĠMens":14709,"ĠGO":14710,"Ġrol":14711,"Ġtemp":14712,"Ġfunding":14713,"High":14714,"MASK":14715,"pow":14716,"Ġastr":14717,"Ġanth":14718,"Ġinsist":14719,"unos":14720,"ĠÐºÐ°ÑĩÐµ":14721,"ĠÐ´Ð°":14722,"Ġminds":14723,"Ġdrunk":14724,"ĠAmount":14725,"Ġtransformers":14726,"Ġultimately":14727,"ä»¥ä¸ĭ":14728,"Ġcommunications":14729,"Hub":14730,"KS":14731,"lings":14732,"Ġsurre":14733,"ĠSha":14734,"Ġvc":14735,"Ġka":14736,"Ð½ÐµÐµ":14737,"opsis":14738,"ĠnÃºmeros":14739,"HD":14740,"Red":14741,"zone":14742,"outube":14743,"ĠpolÃŃ":14744,"åıĸ":14745,"ĠCollege":14746,"ÃŁe":14747,"Ġmysterious":14748,"Ġile":14749,"Ġali":14750,"Ġnose":14751,"ÑģÑĤÐ°":14752,"Ġmanera":14753,"nection":14754,"Ġaged":14755,"ï¼ī":14756,"Ġconversion":14757,"Ġvisited":14758,"Ġdigits":14759,"Conf":14760,"ĠSTOP":14761,"215":14762,"atore":14763,"Ġki":14764,"ĠRevenue":14765,"Ġsignals":14766,"ĠArray":14767,"Ġredes":14768,"Device":14769,"ÐŀÑĤ":14770,"Ð°ÑĨÐ¸Ð¾Ð½":14771,"ĠÑģÐ²Ð¾Ð¹":14772,"Once":14773,
[...]
