#version: 0.2
Ġ t
Ġ a
h e
i n
r e
o n
Ġ s
e r
Ġ c
Ġt he
a t
e n
o r
e s
n d
Ġ Ġ
Ġ p
Ġ d
i s
i t
o u
a n
Ġ w
Ġ o
Ġ m
Ġ f
Ġa nd
a l
in g
Ġt o
Ġ b
Ġ in
a r
l e
i c
i on
e d
Ġo f
r o
a s
Ġ e
en t
Ġ h
Ġ l
c t
e l
u s
o m
Ġ n
Ċ Ċ
Ġ re
Ġt h
Ġ y
Ġ Ð
Ġ is
e t
i l
Ġ I
Ġy ou
i d
i m
ĠĠ ĠĠ
Ð ¾
v e
a m
Ġ g
A M
Ġd e
AM E
N AME
o t
u t
s t
Ġ T
Ġp ro
c h
Ġth at
o l
Ð µ
at ion
o w
u n
q u
Ġf or
Ġ he
a d
Ġb e
c e
Ð °
Ġc on
o d
i g
. ĊĊ
i f
Ñ Ĥ
Ġ v
o s
Ġ NAME
u l
Ġs t
Ġa s
r a
Ð ¸
it h
u r
Ġa n
Ġ it
Ġc om
a y
Ġ A
at e
i r
Ġ on
g e
er s
u m
es t
Ġ us
Ġ or
Ġw ith
Ġc an
Ð¾ Ð
Ġ S
Ġ "
l y
ĠĠ Ġ
Ġa l
an t
Ð ½
Ñ ģ
es s
Ġe x
r i
. Ċ
Ñ Ģ
a b
ĠT he
is t
e m
p e
' s
or t
Ġs u
v er
k e
Ġ C
Ġa re
Ġh a
m ent
re s
Ġ en
Ġ qu
a c
Ġs e
i v
p p
e re
s e
Ġw h
he r
ct ion
l d
ou t
` `
it y
o c
im p
n t
Ġn e
i z
us t
Ġ P
o re
Ġ H
Ġyou r
Ġ r
Ġ le
u re
a ge
il l
t h
Ġn ot
Ġ un
t er
o p
Ġ =
Ġcom p
ic al
id e
Ã ©
u d
a in
i es
a nd
ig h
or m
Ð »
Ġ imp
p t
Ġ u
Ġ k
Ġ (
i ve
ou ld
Ġha ve
i al
in e
Ġc h
ar t
Ġm e
d u
Ġ M
en d
p l
i e
am e
f orm
ĠĠĠĠ ĠĠĠ
Ġre s
Ġa b
p er
ou r
Ġhe r
e ct
Ġcon t
Ñ ĥ
ro m
Ġ D
o g
Ġ E
c l
el l
Ġ B
a re
Ġb y
Ġm a
Ġt e
Ð° Ð
Ġw as
Ġ `
t her
Ñ ĭ
Ġs h
Ġa t
Ġ L
Ġl a
ion s
Ġt r
Ñ ı
: Ċ
Ġp l
Ġin t
ic h
Ġd o
ab le
Ġ W
Ġw e
ul t
igh t
i b
al l
i le
Ġ F
a ct
an g
s o
l p
c ess
Ġa d
a g
Ġf e
el f
Ñ Į
u e
x t
Ġm od
Ġd es
Ġhe lp
om e
ou s
Ġc l
Ġw or
) Ċ
Ġm y
i re
Ġthe ir
as s
Ġ j
if ic
in d
Ġth is
h is
at a
Ðµ Ð
Ġf rom
Ġpro v
i p
Ġpro du
Ġb ut
Ġo ther
Ġa r
Ġ R
Ġan y
T he
Ġw ill
Ġa c
ation s
: ĊĊ
ou nd
i a
Ġ G
`` `
Ġc he
k ing
Ġus e
as e
r y
Ġs pe
an s
ĠI t
f f
Ġk n
Ġimp ort
Ġus ed
Ġal l
Ġ -
Ġh as
v el
en ce
ic e
an ce
Ġin cl
Ġp er
Ġm an
ac k
ar d
Ġqu e
u al
Ġa pp
Ġu nd
Ġal so
Ġm ore
e p
Ġ N
in t
0 0
i ent
Ġ U
ĠÐ ¿
at ed
Ð¸ Ð
Ġa m
Ġp re
Ġe m
Ġ O
ĠÐ ¸
Ġs er
Ġl o
ar i
Ġin d
ig n
Ġs o
im e
Ġsu ch
f ul
k s
Ġincl ud
ĠT his
Ġin form
Ġwh ich
Ã ³
a ch
a ce
Ġ out
Ñģ ÑĤ
c es
Ġthe y
Ġ if
if f
Ġc re
Ñ ĩ
en s
ĠÐ ²
Ġmod el
Ġcom m
Ġs c
Ġl i
Ġd is
Ġp ar
p on
r u
Ġkn ow
g h
Ġs y
Ġit s
Ġg o
t e
it ion
Ġimport ant
res s
Ġspe c
o st
od e
ar y
- -
l ic
Ã ¡
a p
g r
b er
Ġm ay
Ġab out
Ġh is
he n
on g
Ġs he
ã ģ
a v
am p
Ġd ata
et h
iz e
; Ċ
' t
Ġp r
as t
Ġf un
Ð º
Ġ Y
ĠĠĠĠ ĠĠĠĠ
Ġ Ñģ
n e
Ã §
Ðµ Ð½
Ġ ro
ou gh
en er
, Ċ
on e
Ã £
Ġp os
Ġt ra
Ġd iff
Ġcon s
Ġne ed
p ut
it e
' m
c on
m ical
Ã£ o
Ð ²
Ġu p
le d
Ġqu est
Ġe v
Ġv ari
Ġ est
el y
or y
Ġt a
Ġne w
Ġw ould
Ġe l
Ã Ń
Ġli ke
l ow
Ġs elf
ĠI n
Ġd i
ou nt
il ity
Ġinform ation
j ect
ĠÐ ½
Ġprodu ct
Ġfe el
Ġus ing
an ge
ang u
Ġas s
Ġ |
Ġprov ide
Ġ '
( )
Ð¾Ð ²
Ġs ome
Ġc ould
Ġp ers
Ġs a
Ġv al
Ġs p
Ġ es
``` Ċ
Ġl angu
Ġre l
I n
u b
Ġst r
amp le
Ġ V
o k
Ġthe m
ĠÐ º
st em
Ġp e
Ġ {
ol og
1 0
. "
at er
Ġche mical
Ġp art
Ġn um
Ġin ter
Ġund er
vel op
as ed
Ġt ime
Ġ um
Ðµ ÑĤ
ĠÐ ¾
f t
or s
Ġlangu age
Ġin v
Ġthe re
Ġ Ã
Ġa g
c i
Ġpar a
ay s
at ing
pe ct
Ġres pon
or d
Ñ ħ
Ġad d
Ġfun ction
er m
Ġpro cess
Ġc ol
an y
n ing
Ġma ke
a il
a us
ment s
Ġn o
g et
2 0
Ġg ener
ent s
er t
Ġwh o
it ies
Ġg r
Ð ´
Ġpers on
Ġo b
Ġex per
Ġ J
Ġ ke
et w
Ġo ver
Ġm o
c ur
l l
y s
ĠH ow
c om
ad e
Ġinclud ing
l es
Ġspec ific
os e
Ġh ow
il d
Ġre qu
Ġd et
Ġde velop
al ly
y th
ur n
Ġte xt
Ð ¼
Ġfor m
Ġp h
ĠÐ ¼
ib le
Ġex ample
a k
s elf
ic s
ĠY ou
c k
ĠÐ ´
ing s
Ġbe en
ĠA s
Ġint o
Ġt y
Ġdiff ere
Ġh ad
Ġ i
Ġon e
ch n
ÑĤ ÑĮ
Ð° Ð½
Ã³ n
Ð¾Ð »
at es
Ġwh at
Ġe ff
en c
ĠA I
Ġsy stem
Ġat t
Ġ ì
i o
ar m
ow er
l o
ic t
Ð ¿
Ġc ode
Ġser v
ÑĤ Ð¾
a z
Ġof f
Ġprov id
he s
Ġ ra
Ġcomp any
Ñ İ
ow n
Ġw ant
Ġs ol
o y
Ġ im
Ġ Ã©
e ar
at h
" ,
Ġre t
st and
Ġc o
Ġ <
w n
ar k
yth on
i qu
" :
Ġin st
ĠS t
c re
Ġ ent
u res
et y
pp ort
he re
Ġ z
Ġs et
gr am
c ri
ot h
Ġde f
ĠH e
e ver
h at
ic es
Ġe ach
Ġa ct
ul ar
ust om
Ðµ ÑĢ
ĠĠĠĠ ĠĠĠĠĠĠĠ
Ġ{ Ċ
Ġtr ans
d e
l i
ĠS he
Ġh igh
al ity
Ġf ol
Ġex pl
r ough
p h
od y
Ġw ay
Ġte chn
Ġha nd
ra ct
Ġproduct s
Ġdiffere nt
le ct
Ġre g
is s
Ġcon f
Ġthe n
) ĊĊ
Ġwor k
n g
Ġ +
Ġunder stand
Ġd el
Ø §
â Ģ
Ġb u
Ġind ust
ar ch
r it
Ġ [
at ive
t en
Ġj ust
o od
Ġde p
op le
Ġs m
Ġexper i
Ġpro gram
Ġ Ñ
re e
' re
u es
Ð½ Ñĭ
ad o
Ġ K
Ġre f
Ġle t
Ġcre ate
Ġc ustom
ction s
is e
g g
Ġa p
Ġre m
Ġle ar
le ase
Ð¾Ð ¼
id ent
g an
Ġst art
ro p
Ġc or
Ġa v
Ġre p
Ġe t
Ġsh ould
Ġf in
Ã§ Ã£o
Ġcomp le
ĠÐ¿ ÑĢ
Ġquest ions
Ġw ell
Ġth rough
er n
Ġw ere
Ġfol low
t o
Ġpos s
an c
Ġh im
ro w
ĠI f
Ġm eth
Ġh um
e x
Ġpe ople
Ġpl ay
d er
re at
Ġnum ber
Ġun a
oc k
Ġd on
w er
Ġtra in
ic k
ent ial
v es
Ġ ÑĤ
Ġg et
Ġ ÑĢ
en g
ion al
Ġthe se
Ġr ange
Ġb est
ir st
Ġs k
b le
Ġp ol
Ġw hen
Ġc ur
le ment
Ġch ar
aus e
Ġl ist
p r
Ġb l
Ġdes ign
Ġp ot
Ġf il
f ore
Ġwor ld
> Ċ
on t
e c
ĠHow ever
Ġmeth od
Ġf ile
Ġse e
Ġc al
if y
Ġex p
Ð¾Ð ³
à ¸
en e
i ous
Ġp o
< /
Ð ·
is h
Ġp ower
Ġde c
iv id
A s
i ed
Ġsu b
Ð¾Ð ´
he d
Ġret urn
v ed
i Ã³n
e en
Ġf ind
e xt
-- --
Ġ /
t ing
Ġt w
ur al
n er
Ġen s
i el
pt ion
Ġo p
ic ult
Ġass ist
Ġb ased
it s
Ġv er
ĠH ere
etw een
Ġth an
Ġapp lic
ã Ĥ
Ġle ad
d s
b e
Ð¸ Ñı
Ġb etween
Ġc ar
Ġst ate
Ġcons id
al th
v ers
Ġre c
v ing
v ent
ĠThe y
Ġan s
a ke
Ð°Ð º
Ñ Ĩ
r ing
al s
Ã ª
Ð ±
Ġm ed
Ġprodu ction
Ġinv ol
1 2
un g
Ġb ack
Ġ er
Ġres ult
Ġ }
Ġhe re
Ġsu pport
ĠC h
if e
w are
Ġper form
\ _
ur ing
Ðµ Ð»
Ġpro m
Ġke y
n ess
Ġl oc
Ġ our
re nt
Ġta ke
Ñ Ī
iz ed
1 9
h ip
Ġs oc
( "
Ġs ur
Ð½ Ð¾
b ut
Ġsa f
Ġb o
ag es
ic a
um ent
" Ċ
Ġa ut
Ġbe c
Ġ il
. s
en se
Ġs ign
ĠÐ ±
Ġbe ing
Ġag ain
Ġo wn
Ġman y
Ġcl ass
Ġf irst
u p
am ent
or k
res ent
y l
Ġrespon s
n ot
Ġwh ile
Ġcont in
Ġm ost
er g
Ġar t
Ġall ow
c o
E R
ir on
Ã ¼
in es
Ġen v
= "
. .
Ġb ody
Ù Ħ
d d
ro l
Ġt as
Ġ #
Ġre al
Ġac c
i an
Ġtr y
iqu e
ro s
Ġg u
Ġn ame
Ġimp ro
Ã ¤
at ure
Ġ ut
Ġd own
Ġb el
al e
ere n
Ġtw o
Ġf act
Ð° Ð»
Ġdep end
ere d
u ed
I t
' ,
Ġl ar
t y
Ġb oth
Ġe qu
Ġd a
S T
Ġw here
ou p
Ġm ain
Ġm at
Ġin s
Ġchar act
w ays
re d
) ;Ċ
o b
Ġ Ċ
Ġst ep
Ġ x
e w
Ġ ë
ad a
Ġe ver
Ġ *
Ġvari ous
ab ility
Ġgo od
å ®
Ġre se
ie w
i er
Ġquest ion
Ġl os
ĠÐ ·
Ġans wer
Ġindust ry
Ġb re
Ġen g
Ġt em
Ġp ass
in k
ater ial
Ġg ame
Ġc ap
= =
Ġknow n
Ġd ire
Ġty p
Ġhe alth
ical ly
Ġin f
u nd
ÐµÐ ¼
Ð¾ ÑĢ
Ġval ue
i x
re ct
Ġind ivid
ri end
ĠR e
Ġpot ential
Ġ ide
Ġenv iron
Ġp ur
Ġwe b
iz ation
re n
it ed
u c
Ġpro f
ĠÐ½ Ð°
A N
Ġal ways
Ġob ject
Ġab le
it t
. p
Ġum a
ru ct
Ġrequ ire
ĠP ython
Ġd ist
oc us
r ame
ì Ŀ
) :Ċ
# #
Ġens ure
Ġb us
Ġan al
Ð¸ ÑĤ
Ġindivid ual
c ul
u ra
on s
1 1
olog y
ion e
in ess
Ġcomm un
o ice
Ġd at
b o
Ġt est
Ð¸ Ðµ
our ces
Ġon ly
Ġs om
Ð¸Ð ¼
Ġr un
iv ers
Ġut il
, "
ol d
Ġm in
Ġd ie
l u
ell o
Ġbu ild
ac iÃ³n
T his
Ġeff ect
Ġperson al
a ction
Ð° ÑĤÑĮ
w ard
Ġac cess
ot e
it ive
Ġ Ñĥ
Ġf ound
Ġs or
S S
Ġinclud e
Ġm ust
v al
ut ion
Ġin put
Ġres pect
Ġs it
il y
Ġha pp
' ll
Ġal g
Ġl ife
t s
Ð» Ñı
ce pt
Ġhum an
Ġst ud
Ð ³
Ġm aterial
ĠD e
Ġenviron ment
Ġf ocus
Ġpro per
ark et
Ġcon st
Ġdevelop ment
d ay
Ġ Ñĩ
ter n
m s
Ġpl an
Ġl ong
Ġ ident
u f
ĠP ro
å® ĥ
Ġbe fore
Ð¾Ð ½
a x
Ġcont rol
Ġy ear
Ġad v
Ġr is
Ġg ra
o ve
Ġto p
Ġposs ible
Ġso ft
imp ort
Ð¾Ð ¶
Ġm em
iv es
Ġo per
a ve
Ġc ount
as ure
Ġdet erm
u ch
ĠU n
k es
Ġre ad
Ð¾ ÑĤ
ri but
Ġsor ry
ÐµÐ ´
Ġcomm and
us s
ĠĠĠĠ Ġ
Ġty pe
ã ĥ
Ġv ers
Ġv is
à ¤
S t
Ġus er
Ġsy nt
Ð¾Ð ±
m er
Ð» Ð¸
a ut
l ing
Ġor gan
Ġd er
_ _
t on
." ĊĊ
n o
Ġrese arch
Ġ $
Y ou
Ġl es
g in
Ġsh ow
ĠW e
Ġab ility
Ġlear ning
and o
Ġc le
Ġcom o
ã Ģ
ĠU S
Ġcomp ut
a pp
Ġen d
ĠÃ ł
Ġp op
Ġo pt
re am
i or
Ġex t
Ð¾Ð ¹
t a
T o
Ġs um
Ġin cre
Ġimpro ve
f ter
l ine
Ġm on
in ed
Ġr ight
rop ri
Ġw ide
Ġcur rent
Ð°Ð ·
Ġh o
ĠF or
im ent
- s
Ġconsid er
Ð° ÑĤ
- b
Ġact iv
) ,
Ġd ay
Ġp at
Ġstr ong
Ġs ent
Ġfollow ing
Ġcont ext
( )Ċ
Ġen erg
ri es
Ġm ess
Ð°Ð ²
Ġt erm
- t
an k
in ation
Ñ ī
Ġcomple x
Ġbe h
Ġdo es
Ġc are
Ġl ib
Ã ¶
c he
Ġre du
ert ain
ĠC om
e g
Ġadd ition
Ġbel ie
Ġexperi ence
Ġpro ble
Ġcont ent
y es
Ġte am
Ġsu re
Ġpr int
b ers
Ġvari ety
c ed
id ad
iel d
Ġcon c
Ġ Ø
re ad
en ces
Ġcon d
ar s
Ð°Ð ¼
Ñģ Ðº
í ķ
Ġapp ro
Ġp ri
Ġm ade
Ġst and
Ñģ Ñı
Ù ħ
Ġop en
Ġh ist
Ġar ound
at ures
Ġapplic ations
Ġpart ic
ul l
Ġsm all
Ġcom e
Ġdes cri
Ġw om
Ġto ol
Ġgr oup
ropri ate
il ities
Ġp or
ĠA dd
Ġev en
at or
ot her
Ġm arket
20 2
Ġas k
Ġb et
Ð¾Ð» ÑĮ
Ġdis c
H ello
ere st
at o
Ð¸ Ð½
Ġde m
Ġf riend
Ġf am
Ġm us
ate g
y r
ist ant
Ġ ve
- p
Ġneed s
Ġd oc
ra y
ub lic
d ate
? Ċ
H ere
a Ã§Ã£o
Ġ ed
Ġlo ve
y d
Ġf l
at her
Ġother s
Ġs imp
Ġpro t
( self
Ġlar ge
Ã ł
ĠÑ į
) .
I ST
eth ing
on d
r ic
if ied
1 00
1 5
Ġrel ations
Ġse ver
Ġpro ject
Ġm et
is m
ÑĤÐ¾ ÑĢ
ation al
Ġdiff icult
Ġen c
; ĊĊ
Ġagain st
() `
as h
iv en
m ed
z a
z e
Ġm ight
Ġde v
Ġav ail
us ion
Ġcharact er
as es
Ġma king
Ġsom ething
Ġbus iness
Ġint erest
h a
Ġqu ality
in a
AN T
Ġgener ate
er y
Ġs ense
Ġsign ific
Ġg row
at t
" ,Ċ
Ã µ
our ce
Ġsoc ial
u g
Ġserv ices
Ġof ten
Ġcont ain
r or
em ent
Ð ¶
b re
Ġn etw
Ġse x
ual ly
. d
Ġsever al
et s
Ãµ es
Ã º
ÑģÑĤ Ð²
Ġenerg y
at ural
Ġs ay
Ġpo int
in al
pl ay
Ù Ĭ
Ġm ult
Ġnot e
Ġrelations hip
ÐµÐ º
Ġis s
o id
s er
IST ANT
Ġ ess
t t
Ġout put
Ġp our
ent ion
Ġle g
p os
Ġ| Ċ
ä »
Ġ Q
Ġdesign ed
v en
in s
Ġ ou
e ad
Ġimp act
ab el
p o
ð Ł
n s
Ġl im
u x
Ġcomm on
p ort
Ġt re
Ġph ys
Ġle vel
ant s
Ġever y
1 3
pr int
Ġeff ic
Ġz u
Ġpl ace
P T
n c
Ġutil iz
at iv
ĠW hat
] Ċ
n ame
enc y
ĠE x
Ġsit u
Ġcan not
t r
Ġe in
Ġw id
ĠI s
th ing
/ /
Ġrequ est
Ġtrain ing
ë ĭ
t ic
Ġel se
pl es
Ġne cess
Ġe le
a ir
ĠS e
âĢ ¢
Ġc ent
Ġc ult
Ã ¨
ĠA SS
Ġex c
t ain
h or
Ġf ut
Ġany thing
Ġdire ct
ĠASS ISTANT
Ġwith out
Ð ¹
o king
Ġrespon se
Ġcor rect
ad os
Ġp ued
Ġp ract
Ġinv est
Ġma ch
p ython
is ion
gg est
Ġperform ance
Ġs ens
Ù Ī
Ġ ``
Ġlo ok
p s
Ġsu c
Ġs ame
Ġim age
Ġs w
p re
pe c
at ch
Ġman age
Ġw ater
ĠĠĠĠĠĠĠĠ ĠĠĠĠĠĠĠĠ
Ġc aus
Ġm ind
Ġbet ter
Ġme an
n ce
Ġe as
Ġsoft ware
Ġinvol ves
Ġavail able
Ġp res
Ġ/ /
at ely
Ġch all
Ġsu ggest
Ġst ill
Ġp le
er c
p ar
al k
Ñģ Ð¿
Ġstep s
Ġn on
1 4
Ġlear n
Ġd id
Ġval ues
Ġserv ice
Ø§ ÙĦ
a pt
Ġe yes
( '
d iv
Ġm as
Ġch ang
Ġcustom er
Ġh arm
O ver
Ġcomp ound
Ġin c
am es
Ġsa id
it ions
ic ation
Ġo s
com m
Ġimp lement
Ġto day
Ġn atural
ï ¼
it al
- m
Ġfe w
Ġto get
Ġtoget her
ind ow
Ġtas ks
ill s
00 0
t d
Ġprof ess
- d
i ence
Ġp lease
Ġke ep
i k
el t
ition ally
Ġsystem s
b ot
Ġb r
ĠI nt
ĠÐ¾ Ð±
P I
Ġdoc ument
Ġse g
> <
ÑĢ Ñĥ
i res
ĠT r
an n
i um
Ġmo ve
ĠThe re
Ð¸Ð ²
Ġhe ad
ĠÐ½ Ðµ
ĠM y
le v
Ġstr ing
Ġme et
3 0
Ġyear s
a h
ĠUS ER
ĠA l
2 00
Ġhelp ful
cur ate
ĠT o
B ut
em ber
l or
Ġtechn ology
ĠC he
Ġg reat
ĠThe se
Ġne ver
Ġunderstand ing
Ġfeel ing
Ġf r
Ñ Ħ
Ġf ac
m ing
ÐµÐ ¹
Ġprovid ed
Ġn ow
Ġv oc
2 5
pl oy
Ġtr ad
c ol
Ġfe atures
Ġc ost
Ġlib r
Ġ \
con d
g o
Ġapp ropriate
Ð¸ Ð¸
1 7
ä ¸
Ġs im
am b
Ġun ique
Ġmodel s
Ġre st
Ġm uch
r ite
Ġsynt hes
i en
j oy
1 6
l ess
led ge
u le
Ñ ĸ
Ġl og
Ġmess age
Ġbec ause
r on
Ġar g
Ġexp ress
c er
ĠÐ² Ñĭ
ÐµÐ½ Ð¸Ñı
Ġsum m
ch ie
id ence
ĠA n
Ã§ Ãµes
Ġcustom ers
Ð¾ Ñģ
Ġs al
Ð¸ ÑĤÑĮ
Ġ Ñı
ver t
Ġam ount
Ġf ree
m e
Ġallow s
Ġrep resent
w ord
Ġ} Ċ
Ġth ough
Ã© s
ĠB ut
Ġst re
ĠC on
Ġus es
ĠC re
---- ----
Ġspec ial
Ð¾ ÑģÑĤ
v iew
Ġcom b
Ġw rit
Ġcould n
Ġalg or
are d
- f
a j
Ġl ight
Ġb as
Ġmaterial s
Ġproble m
á »
Ġne xt
cur ity
' ve
Ġprovid ing
Ġm om
n ect
us er
Ġf ore
Ð¸Ð º
Ù Ĩ
Ġc ase
te xt
Ġp ublic
Ġhapp y
iqu es
Ġf ood
Ġkn ew
Ġbeh av
od el
Ġdes ire
Ã¡ s
ut e
å ı
Ġcon vers
Ġs on
Ġc r
Ð¾ ÑĤÐ¾ÑĢ
Ġs ize
ra in
cri pt
Ġl ine
Ġro le
er ing
Ġprovid es
Ð¾Ð ·
ir t
1 8
ch o
ri ed
Ġa fter
m b
k en
ĠU se
ri pt
} Ċ
Ġ ê
y le
Ġho pe
p ro
Ġf ield
Ġsaf ety
_ d
at form
Ġfact ors
Ġg re
Ġcle ar
id o
Ġe ar
ag ing
ĠÐ´ Ð»Ñı
Ġver y
Ġnetw ork
g er
Ġrespons es
Ġmach ine
Ġsuc cess
in ce
Ġv oice
ab l
Ġtyp ically
s p
Over all
Ġsignific ant
" )Ċ
Ġl as
h o
ist s
Ġpop ular
id a
Ġfut ure
. g
er v
Ġen joy
f or
Ġev ent
Ġh ard
Ġchall eng
ĠÐ °
Ġg l
Ġa ff
20 1
n et
Ġre action
ĠAdd itionally
ĠÃ ¨
Ġprofess ional
Ġde ep
Ġme ans
ys is
Ð½ Ð°
ud e
ust ain
' :
Ġknow ledge
? ĊĊ
Ġac id
du ct
a it
Ġis t
og n
Ġex ec
Ġalgor ith
Ġ ĊĊ
r al
Ġs l
Ð¾Ð³ Ð¾
Ġc ertain
Ġres ources
ant e
c ing
it or
Ġpower ful
ĠA nd
ĠI nd
Ġvoc Ãª
ĠW ith
Ġp ode
Ġsc ient
ab les
Ġchemical s
p or
ĠÐ ³
Ġv ide
Ġcl ient
ĠL et
n a
Ġg iven
Ġst ory
Ġor der
Ġe lect
Ġsk ills
Ġsaf e
ruct ure
Ġex am
t il
Ġgener al
Ġch ange
ard s
ci Ã³n
f ort
Ø§ Ø
? "
Ġ :
Ġ Z
Ġtrain ed
Ġus ers
Ġs i
Ġindividual s
O b
Ġcal cul
5 0
Ġa w
an ces
Ġple asure
Ð¸Ð ¹
con om
Ġm en
no v
Ġfin al
Ġa chie
ĠÐ¾ ÑĤ
Ġ= =
Ġcol um
Ð½Ñĭ Ñħ
ic o
is hed
Ġd u
Ġide a
ĠĠĠĠĠĠĠĠ ĠĠĠĠĠĠĠ
ĠB e
Ġsc ript
Ġs at
yd ro
Ġdisc uss
ir l
Ġap olog
o x
ĠÐº Ð¾ÑĤÐ¾ÑĢ
Ð° ÑĢ
Ġbuild ing
Ġl ay
Ġto o
_ s
Ġcal led
ĠA r
ros s
Ġne g
Ġpl atform
ĠL a
y stem
Ġs ustain
Ġf ur
Ġweb s
ĠÐ »
Ġf elt
ut ical
Ġprot ect
Ġd uring
id ade
Ġch o
Ġes pec
Ġt reat
Ġc ause
Ġf ace
arm ace
ra nd
Ġem ot
us h
armace utical
Ġcl os
Ġth ink
Ġp ort
Ð° Ñģ
ass istant
a ctions
Ġan im
Ġth ings
Ġper m
Ġphys ical
ou se
Ġw ays
end er
Ġche ck
ct or
d en
Ġem b
Ġwor ds
le t
Ġn a
Ġs ist
ra w
Ġch ild
F rame
c y
im es
ar get
Ġbehav ior
Ġadd ress
qu e
ar ing
Ġconc ern
Ġbe aut
Ġan t
. c
== ==
Ġta kes
Ð¸Ð ·
O N
ell ig
ic i
ĠÐ µ
Ġinclud es
itt le
Ð¾Ð º
## #
Ġpri v
Ġ Ø§ÙĦ
ific ation
Ġexpl ore
Ġlo oking
Ġpre v
o f
de f
ver n
our s
n um
e k
Ġ Î
Ġse cond
Ġpol it
le g
ĠC l
Ġcol or
Ġd ri
Ġb i
am ed
Ġvers ion
Ġhe art
Ġprom pt
" .
ĠÐ¼ Ð¾Ð¶
Ġinst all
Ġc all
el s
Ġe th
p ose
ÃŃ a
Ġdepend ing
Ġsynthes is
Ġapolog ize
Ġsumm ary
Ġb ene
ĠS ome
Ġac curate
v ol
Ġt u
Ġpre f
Ġint e
at ic
pect ed
L E
Ġfil led
Ġd om
Ġbec ome
Ġl iv
Ġ X
Ġgu id
Ġgo ing
Ġref er
Ġappro ach
Ġcomput er
* *
ra ph
Ġc u
Ġb ro
Ġg ive
it le
iff icult
am et
Ġapplic ation
il ar
ĠI m
ou d
ĠC o
Ġcontin ue
ul ation
Ġd en
st r
Ġt k
ifficult y
Ġap pe
Ġt able
Ġmom ent
Ġc ity
." Ċ
a is
ward s
ar r
ĠS ure
Ġd as
ail s
ab or
Ð¸ Ñĩ
Ġh ome
b al
Ġsimp le
Ġpos itive
Ġwith in
ĠT h
ang er
Ġc at
Ġwor d
w s
Ġp resent
Ġimportant e
Ġre comm
Ġeffic ient
Ġse arch
Ġa ud
c c
Ð¾Ð»ÑĮ Ð·
Ġanal ysis
ight s
Ġch at
Ð¸ Ñħ
Ġl ittle
Ġd ig
Ġp od
ĠA PI
Ġst ore
oc i
p en
Ġlibr ary
Ġsitu ation
Ã¼ r
Ġpre d
ad d
Ġwor king
c a
ãĢ Ĥ
Ġp ress
Ġth ose
Ġre ce
Ġli k
I f
ĠCre ate
Ġp ack
c le
Ġhelp s
ib ility
Ð¸ Ð»
Ġan other
ell a
Ġacc ount
uf act
ĠP l
Ġv i
O ne
Ġh ig
a i
Ġt er
qu ality
pport un
f ace
a king
Ġs ources
it ial
Ġtyp es
un t
Ġex ist
u est
ip le
med i
Ġanal y
Ġr out
ĠÐ± Ñĭ
Ð°Ð ´
il i
ip s
Ġv ol
Ġe conom
anc ed
Ġnecess ary
anc ial
Ġph armaceutical
ĠG o
ic ate
w e
o res
Ġun e
un a
Ġev idence
im ate
Ġrecomm end
Ġm ot
Ġf re
` ,
f ile
Ġin nov
Ġstr ateg
or ies
g en
Ġre lev
Ġfur ther
ar ies
ile d
Ġtry ing
v as
Ġpartic ular
Ġ ÑģÑĤ
u it
ir d
Ġp a
Ġloc al
Ġ Â
or ld
åı ¯
ne w
_ t
ĠIn st
Ġcomp on
Ġprev ious
ĠP lease
I N
em s
ĠD ata
o ks
p y
a u
gr ound
Ð¸ Ñģ
Ø ª
Ġredu ce
ict ion
Ġtr ue
il it
Ġma g
Ġman ufact
iv o
Ð°Ð ±
ri e
Ġcon cept
eng th
al y
Ġnum bers
Ġconsid ered
Ġs ing
Ġse curity
Ġprogram ming
Ġiss ues
m y
Ġo pportun
ut ions
Ð¸ ÑĢ
Ġtool s
m at
ent e
Ġt ell
. ,
Ð½Ð¾ ÑģÑĤ
Ġqu i
Ġident ify
x im
ament e
Ġmanage ment
ort s
m a
ĠE ng
Ġactiv ities
Ġe lement
Ġform at
Ġbene f
Ġle ft
Ġlead ing
Ġb ase
Ġfriend s
ort h
C h
Ð° ÑĨ
Ġgo vern
Ġconf ig
Ġt urn
] ,
ĠÑĩ ÑĤÐ¾
Ġon line
t ies
Ġh ab
Ġs n
ru ction
Ġstate ment
Ġf ul
Ġcre ating
in o
Ġopt ions
Ġtas k
is f
Ġa ir
Ġmain tain
j et
å®ĥ å®ĥ
Ġl ow
y m
Ġsome one
Ġaut om
Ġris k
Ġhist ory
W e
Ġgo als
av a
Ġinf lu
Ġopt im
pp ed
Ġchang es
Ġpos ition
or n
ist ic
Ġpre c
j s
Ġor ig
c ar
Ġar ch
ivers e
Ã© m
Ġpr im
ou ra
Ġt arget
Ġpr in
Ġav oid
ion es
Ġv on
Ġcon nect
Ġare a
Ġg irl
Ġv ary
Ġro om
ĠS h
id es
az ione
Ġs ource
Ð¾Ð ¿
Ġma is
b ack
Ġsp ace
Ð½Ñĭ Ðµ
d o
ĠC an
ro ll
- quality
ic le
Ġp ain
Ġexperi enc
om b
j ust
s s
ĠD es
ÑģÐ¿ Ð¾Ð»ÑĮÐ·
Ġscient ific
Ġn Ã£o
Ġpro te
Ġtechn iques
y n
Ġre d
Ð° ÐµÑĤ
Ġmethod s
Ø ±
Ġlik ely
Ġvide o
Ġp as
Ġaddition al
Ġfin ancial
iss ion
Ñĥ Ñİ
Ġs ound
ĠÑ Ħ
Ġhand le
i ver
u ro
S ure
Ġwom an
Ġj o
eren ce
ĠN o
Ã ±
or ing
itt ed
Ġyour self
Ġd anger
Ġall ies
Ġbe gin
ĠS p
r as
Ġbelie ve
.s ize
Ġm i
ich t
Ġatt ack
Ġar ray
Ġrespect ful
d f
h ile
ro du
\_ \_
Ġc rit
Ġd ue
Ġfam ily
Ġcons ist
Ġm ar
r am
Ġchalleng es
b ody
Ðµ Ñģ
Ġint ellig
_ m
iv ely
e y
ÐµÐ½ Ð¸Ðµ
Ġvari able
Ġso bre
Ġeng ine
Ġdeterm ine
b l
Ġj e
Ġw ar
Ġm ent
he ad
ĠÐº Ð°Ðº
l and
Ġsu pp
Ġn ight
Ġpat tern
à ¦
Ġt ou
Ġs em
' d
f rom
t al
. t
Ġf o
Ñĥ Ñĩ
Ġrequire ments
a im
iz ing
Ġresult s
er a
.. .
Ġprocess ing
Ġhand s
ĠAs s
pl ace
re nd
Ġrel ated
_ l
Ġb it
Ġest abl
al se
um e
Ġrelev ant
Ġl ess
Ð°Ð ¶
Ġv iew
Ġmult iple
ç ļ
Ġcomm it
le x
a f
Ġmean ing
Ġser ies
Ġrun ning
av ig
Ġd est
in ter
Ä ±
Ġsh ort
Ġest Ã¡
Ġk ind
Ð¾Ð² Ð°Ð½
e e
Ġd ate
Ġrec ogn
( s
Ġsex ual
Ġtr ust
ar a
Ġsu per
çļ Ħ
i os
Ġcharact ers
ĠÐ¸ ÑģÐ¿Ð¾Ð»ÑĮÐ·
Ġsh are
Ob j
Ã¡ ri
Ġcond itions
ä ½
c hes
ĠÑĢ Ð°Ð·
ĠT e
> </
Ġth ree
ne y
Ġindust ries
The re
m o
ion i
Ġstre ng
ĠY es
Ġwebs ite
Ġplay er
Ġsat isf
id ine
Ð°Ð ¿
Ġexam ples
Ġj our
Ã© c
Ġr ate
Ġrespon d
Ġc ir
ĠÑĤ Ð°Ðº
g ress
A T
Ġed uc
m in
er o
Ġloc ated
eth yl
Ġcomp an
in ally
iz es
om s
un e
Ġc our
ru g
ĠS o
us e
Ġc ell
ĠÐ ŀ
Ġqu ick
Ġp ay
is ed
al u
Ġo ld
-b ased
Ġwid ely
Ġj ob
ëĭ ¤
ï¼ Į
I D
Ġdis play
Ġsoc i
Ġsk in
ĠÑģ Ð²
Ġexperi ences
ĠR es
Ġa ctions
ÐµÐ» ÑĮ
ur s
Ġra nd
Ġer ror
h y
ĠÐ¸ Ð·
ab ase
t re
Ġem p
em pl
Ġsu a
Ġqu al
Ġse lect
Ġsub ject
Ġrem ember
Ġins ide
Ġstate ments
Ġpar amet
Ġequ ip
ãĢ ģ
Ġoff er
Ġto tal
Ġn amed
Ð°Ð ¹
um an
Ġcolum n
Ġtem per
Ġl ast
: //
ific ial
Ø ¯
Ġeng age
sp an
ac y
Ġconcern s
Ġev ents
: :
Ġass oci
Ġent re
ens ive
ĠÐ Ĵ
Ġser ver
ĠD o
Ġpred ict
Ġhigh ly
Ġc Ã³
ë Ĭ
as ing
Ġv ous
ry pt
A R
end ing
Ġg en
y p
ĠP r
Ġrand om
Ġide as
Ġele ments
ĠÐºÐ¾ÑĤÐ¾ÑĢ Ñĭ
Ġpur pose
og le
Ġcon ne
j or
S o
l t
ul a
ag er
ĠA d
. get
Ġl ot
ãģ ®
Î ±
Ñĥ ÑĤ
Ġb ot
Ġt ri
Ġe ine
cur s
Ġpre vent
. NAME
Ġharm ful
b r
Ġaw ay
ament o
he ther
os s
ĠÐ¼ Ð¾Ð³
Ġst ructure
ĠO pen
f ect
ĠL e
Ġma kes
ac es
il es
cho ol
L M
Ġp u
ĠE st
A nd
Ġsim ilar
lo ad
it er
Ġd ed
C l
Ġh ydro
k t
g es
Ġun til
Ġme asure
Ġproper ties
Ġwor ks
Ġm ass
Ġpres ence
ĠE n
Ġcon se
pp ing
Ġo c
Ġtrans form
Ġto wards
Ġup d
2 4
ĠÐ¸ Ð½
. m
T h
id er
Ġcomp et
if ul
Ġf rame
Ġw arm
ĠG PT
Ġch oice
Ġdanger ous
``` ĊĊ
Ġg e
an e
c ure
w ork
Ġlim it
s h
} ĊĊ
Ġbl ock
Ġfil es
Ġp ath
Ġn avig
Ġev alu
Ġachie ve
ĠE m
ari o
ì Ĺ
s et
ĠÐ¼Ð¾Ð¶ ÐµÑĤ
Ġcount ry
Ġ >
st ream
Ġfeel ings
um ents
Ġm or
av or
ul es
Ġlo op
Ġst ri
u ck
Ġstart ing
Ġstreng th
at s
l a
Ġ &
Ġread y
end o
Ġreg ul
à ¹
le ction
Ġqu ant
r ation
c ome
Ġincre ase
c her
Ġdat as
Ġd one
Ġw rite
Ð°Ð» ÑĮ
. com
Ġem ploy
Ġl and
ĠL td
Ġstud y
E x
] ĊĊ
nc ia
ff ic
Ġn ature
Ġf low
Ġ ing
. f
Ġd rug
ĠChe mical
as on
ad as
il t
Ġw on
e ction
ke y
Ġd ass
Ġc e
Ġmin im
Ġdist ribut
{ Ċ
Ġro ot
Ġstart ed
Ġinte gr
. l
Ġbe gan
f s
eren ces
a Ã§Ãµes
j ud
co ver
ä» ¥
Ġf und
Ġcont ribut
Ġcommun ication
Ġneed ed
Ġcom fort
in king
ÐµÐ½ ÑĤ
m l
it Ãł
Ġeffect ive
Ġf ull
Ġmus ic
w w
Ù ĩ
ÐµÐ ³
Ġbre ak
l am
Ġtechn olog
att le
out h
c are
Ð° Ñı
ig o
Ġpro p
cl usion
M L
Ġa ction
Ġst ay
ĠS ie
en z
ĠDe f
Ġt al
Ġb ring
Ġsol utions
Ġp en
) :
Ġatt ention
ĠS et
Ġterm s
Ġta king
p are
3 2
Ġyou ng
Ġgrow th
c hen
ition al
Ġst at
) )
() ĊĊ
Ġfore st
Ġs ince
F or
Ġo ption
Ġd os
.g ame
Ġdid n
Ġre ach
Y es
Ġbre ath
ic as
âĢ Ļ
it ect
Ġdec is
Ġcl aim
Ð½Ñĭ Ð¼
Ġoff ers
Ġv ill
Ġeas y
Ġloc ation
Ġdef in
ëĬ Ķ
Ġrelationship s
ver age
Ġsol ution
ire ction
Ġrequire d
Ġare as
bo x
Ġf em
Ġst ru
Ġ í
Ġenvironment al
Ġintellig ence
Ġsist em
Ġrespons ible
Ġspe ed
Ġ .
Ġe at
ĠB y
h tt
Ġbeaut iful
Ġreturn s
Ġg lo
Ġcol l
Ġcomple t
i ra
Ġs un
Ġgo al
Ġbo ok
Ġs ide
l ish
n Ã©
Ġl at
Q L
C on
le ep
Ġha ving
G ame
Ġh old
Ġart ificial
Ġpol ic
i od
as ter
in put
Ġcommit ment
Ġa uf
Ġhist or
Ġm is
Ġf Ã¼r
Ġinter medi
ful ly
Ġprocess es
Ġd am
Ġsing le
if t
Ġd iv
But ton
W hat
R E
Ã§ a
Ġc apt
H ow
u gh
ab ilities
Ġmed ia
Ġdec ision
ĠUn ited
Ġpat ient
Ġde b
Ġmed ical
ĠO r
C T
Ġthough t
Ġprodu ce
st er
ÐµÐ ·
Ġp ast
h r
l er
Ġt alk
or ks
e ch
Ġcre ated
Ġdevelop ed
Ġtop ics
Ġb ed
Ġab ove
at ory
Ġsent ence
j a
ent ly
Ð¾ Ñĩ
one y
P lease
m ate
Ġpart ner
Ġinter n
Ðº Ð¸
m et
it es
Ġst op
Ġgovern ment
Ġtou ch
ain s
Ġwrit ing
Ġorgan iz
ic ro
Ī ëĭ¤
! "
it o
Ġcommun ity
Ġequip ment
Ġm Ã¡s
ic una
Ġcap ac
Ġleg al
Ġeth ical
Ġalgorith m
ãģ Ļ
ĠE s
Ġreg ular
Ġcons ult
Ġval id
en ing
Ġincl u
Ġaut hor
N ote
Ġcontain s
Ġup date
Ġcomm itted
Ġrequ ires
Ġse cure
Ġmem ory
it ing
ĠÑį ÑĤÐ¾
d ata
Ġmo v
a iled
19 9
so le
Ġ Ï
G PT
6 0
Ġdat abase
[ '
Ġp i
Ġrec ord
á º
R e
Ġs chool
d ing
Ġm it
ers on
st ring
Ġcompan ies
Ġdev ice
Ġin itial
_ p
Ġ à¤
ient o
idad es
ĠĠĠĠ Ċ
Ġdet ails
val ue
Ġneg ative
Ġvi ol
Ġcon vert
Ġpract ices
Ġstru gg
Ø ©
Ġprom ote
Ġrem ove
Ġn orm
Ġmod ule
Ġind ic
b y
4 0
ad or
Ġse qu
Ġh ot
Ġc as
E n
Ġd ella
Ġp ost
nt er
Ġw ait
Ġiss ue
Ġover all
Ġpre g
iment o
íķ ĺ
Ġrel i
f er
al ing
2 3
Ġaff ect
ìĿ ´
ment e
Ġcl ar
R O
Ġg as
_ f
Ð¾Ð² Ð°ÑĤÑĮ
Ġcl ose
og raph
g re
un ction
) ;ĊĊ
ĠH uman
Ġpri or
Ġcons um
as k
oura ge
c hed
Ġv irt
Ġt i
Ġdo ing
Ġad just
ÐµÐ ±
ĠW hen
Ġw hether
ê ³
Ġhum ans
iv ed
Ðµ Ñĩ
- in
Ġemot ions
Ġjour ney
Ġn od
Ġa y
åı¯ ä»¥
Ġw alk
it a
à ¥
Ð½Ñĭ Ð¹
n en
Ġgra ph
Ġinvol ved
Ġtop ic
ĠCh ina
Ġexper t
Ġb omb
ep end
Ġcontin ued
Ġro w
Ġ ðŁ
Ġg ot
C om
Ġwom en
Ġcle an
Ġlo ad
+ +
Ġpl ot
Ð¿ ÑĢ
ĠGo ogle
Ġconvers ation
Ġinter act
Ġim ages
ĠF r
Ġf it
h t
ĠP h
Ġadv anced
Ġcommon ly
Ġinc or
ĠÐ Ł
Ġr Ã©
ëĭ Īëĭ¤
N ame
Ġorig inal
Ġinvol ve
ut es
cl ass
Ġst yle
ĠC ont
P ro
iv ity
Ġb al
Ð° Ñİ
ro ot
Ġf lo
Ġrep ort
A I
8 0
Ġfe ed
Ġdem and
Ġback ground
Ġd r
ly ing
` .
' ]
in ing
Ġa ve
Ġassoci ated
oth ing
an o
ut h
Ġres ol
Ñĥ Ð´
on es
z ione
Ġro bot
Ġcontin u
¿ ½
- re
Ġst e
Ġarch itect
an a
ìĿ Ħ
ac hes
ĠS ystem
ĠL o
Ġsc ience
E N
ient e
os ition
u i
Ġd ans
v a
Ð½ Ð¾Ð¹
Ġpoint s
Ġobject s
2 2
u ild
Ġwh ite
Ġin mate
Ġas pect
ĠE l
Ġsustain ability
Ġwh y
he tic
Ġmat ch
Ð¸Ñĩ Ðµ
Ġh ours
Ġbl ack
Ġc amp
P U
ï ¿½
S cript
Ġquick ly
Ġv ict
ig ure
ĠW orld
Ðµ ÑģÑĤ
Ġw indow
os p
ÐµÐ ²
Ġeffect s
Ġnavig ate
Ġm ention
z y
Ñ į
Ġcomple te
Ġt imes
Ġph r
end ed
Ġa ge
Ġespec ial
Ġc am
ra p
ill ing
pl ic
- to
Ġwant ed
Ġ âĢ
ĠÐ¿ÑĢ Ð¾
Ġchat bot
ĠC ol
Ġtreat ment
ra ft
- (
Ġb ar
Ġil leg
ĠA pp
Ġident ity
ĠA mer
Ðº Ð°
ens ion
Ġd if
Ġexpl ain
Ġdirect ory
5 00
Ġbe com
Ġha ir
Ġwe ight
Ġa jud
ĠM an
ad es
Ġm other
Ġg ain
il led
Ġpr ice
ut o
Ġvis ual
Ġb ig
Ġdatas et
Ġproble ms
ant o
ir m
Ġreg ard
Ġp ut
Ġtrans port
ĠÐ¿ Ð¾Ð¼
Ġcour se
ĠH er
Ġqu ery
_ c
Ġac cept
- c
Ġhig her
Ġc y
d om
Ġ- -
T r
A l
Ġtechnolog ies
Ġac ross
Ġw orth
Ġh on
ch lor
Ġre view
Ġstud ents
S E
Ġuse ful
iel ds
con st
Ġdecis ions
Ġtrans l
ÐµÐº ÑĤ
Î ¹
al es
Ġris ks
Ġdesire d
ì Ħ
b ed
ĠÐ¸ Ð»Ð¸
re m
Ã ¢
Å Ĥ
ill ion
Ġconne ction
ac hed
ress ion
Ãª ncia
on o
Ġim m
æ Ī
s el
ÑĢ Ð°
Ġse par
ĠN ame
ĠO ne
Ġper iod
ul ate
Ġay ud
Ġexperienc ed
ri al
ĠA m
Ġmas k
Ġinst ead
Ġen em
ĠÑģ Ð»
Ġcent er
ĠH T
Ð¾Ð± Ñĭ
Ġlos s
( x
Ġdis e
Ġcho ose
Ġbenef its
Ġw atch
ĠSt ates
Ã© e
Û Į
Ġassist ance
Ġimport ance
Ð» Ñİ
ak es
Ġpharmaceutical s
Ġ â
Ġb all
Ġpued e
Ã ¥
Ġexp os
Ð¸ Ñİ
ĠÐ ļ
Ġget ting
Ġres p
Ġfunction s
Ġilleg al
Ġg ar
Ġarg ument
Ġme as
Ġim ag
Ġconse qu
Ġbelie fs
Ġoper ations
con t
Ġhealth care
Ġde ath
Ġl ives
not her
3 3
res pon
Ġrefer ring
ivers ity
ĠÐ¿ Ð¾
es e
ic les
Ġmat ter
y pe
Ġ\ *
ĠJ ava
Ġconst ant
Ä Ļ
Ġd Ã©
Ġr ather
Ġconf lic
b on
Ġtemper ature
Ġs qu
ĠC hat
Ġart icle
Ġbas ic
N o
Ġful f
mb ol
o le
m en
a ult
ĠV er
Ġk iss
Ġì ŀ
Î ¿
Ã ²
Ġ ur
ex pected
em pt
Ġd ark
Ġess ential
Ġdev ices
y e
Ġtra vel
ĠW hile
is es
Ġdescri be
Ġpro gress
.p y
Ġsh a
an vas
Ġcult ural
Ġ id
i as
k n
Ġsoci ety
Ġchild ren
k ay
u el
od ies
Ġst or
x ic
ur ation
2 1
Ð¸ ÑģÑĤ
Ġse en
Ġsu it
Ġactiv ity
r ast
Ġdifficult y
Ġman ip
le ar
ĠEng lish
ur y
Ġinst al
Ġta ken
Ġsc ene
ì ļ
Ġd ays
Ġm ix
c ion
d a
r ound
Ġn ames
, NAME
Ġinnov ation
ĠI l
Ġo pp
p le
- w
Ġconf usion
- st
Ġalgorith ms
Ġmon itor
at ors
Ġab ilities
Ġb ound
) )Ċ
Ġind ex
Ġpriv ate
Ġre actions
Ġmanufact uring
() ;Ċ
sel ves
Ġf our
å Ĳ
Ġun expected
Ñħ Ð¾Ð´
ĠDef ine
. body
Ġcult ure
Ġen ough
Ð½ Ð¾Ð³Ð¾
Ġla w
Ġtrad itional
Ġwe ar
ä» ¬
ch an
Ġs Ã£o
Ġh or
Ġs us
Ġop in
Ġmon th
Ġp are
Ġconsist ent
= '
ire d
Ġgr ound
A L
Ġpract ice
Ø ¹
Ġvill age
Ġ ill
Ġad apt
Ġpref erences
Ġres ist
ic ated
ra g
ĠD is
Ġinter net
Ġ ich
ĠC al
ĠÐ ¡
p ite
Ġp un
Ð°Ð± Ð¾ÑĤ
g ing
Ġcaus ing
Ġprom ot
ĠN ew
Ġcount ries
Ġm oney
ri a
Ġassist ant
it ch
ist ics
ur t
hen s
Ġevery one
Ġfor ce
Ġorgan ization
Ġ ×
Ġsh o
Ġcon clusion
Ġcont act
Ġits elf
ĠO nce
Ġpass ion
Ġa ware
pre t
empl o
Ġf avor
Ġproper ty
or o
Ġtest ing
iz ar
it i
Ġ ri
) -
red ient
s ide
L a
Ġp age
art e
Î µ
f ic
Ġvirt ual
Ġpers pect
ÑĢ Ð°Ð½
2 8
Ġdig ital
Ġcir c
en ed
.d ifficulty
Ġp el
Ġpro b
Ġspe ak
ĠY our
ãĤ Ĵ
ere nt
Ġse u
Ġl ower
ĠTr ans
ess o
Ġfor ward
S he
Ġv ul
Ġlat est
Ġexec ut
Ġa f
m it
r ig
Ð° ÑģÑĤ
ord er
l ight
Ù ĥ
c ip
ì ł
Ġbut ton
Ġprec is
Ġc os
Ġse em
b s
Ġext ract
Ġconsequ ences
Ġl ength
Ġset t
r im
Ġper fect
Ġsc re
( f
o int
ativ ely
Ġpattern s
Ġcap able
ut put
Ġs low
but ton
Ġlevel s
' )Ċ
Ġme chan
Ġman ner
Ġre put
Ġhealth y
a w
enc ia
Ġseg u
Ġth inking
Ġob jet
Ġlay er
Ġcor re
Ù ģ
Ġb lo
is on
et t
Ġf ight
bo ard
==== ====
Ġd og
How ever
D es
Ġson o
Ġeconom ic
Ġmin utes
L abel
ĠB l
0 1
Ġs ays
æ ľ
ĠÐº Ð¾Ð½
yn am
Ġt en
g est
Ġcomfort able
4 5
Ġst age
Ġplan et
Ġf lu
Ġpl us
Ġmarket ing
Ġd raw
Ġhe at
. js
Ġpe ace
Ġre ally
Ġher self
ĠÐ¿ ÐµÑĢ
Ġess ere
Ġt amb
s it
.p ack
Ġp ie
Å ¼
Ġsc en
Ġc ri
Ġk ing
Ġanim als
C I
o ver
h ing
Ġappe ar
j e
Ġ Ùħ
ĠV icuna
u a
Ġopportun ities
Ã ´
ì Ĭ
Ġmodel o
Ġ Ñħ
ou ble
Y our
Ġinterest s
Ġm al
Ġmod ern
Ġr ad
ÑĢÑĥ Ð³
Ġcat aly
Ã© r
Ġf ire
ĠÐ Ŀ
Ġfe ar
ung en
Ġfre qu
ore d
Ġsistem a
htt ps
Ġsub st
ĠP re
ru ctions
M y
ĉ ĉ
Ġm el
Ġutiliz z
Ġliv ing
- l
at ter
å®ĥ ä»¬
Ġ ÙĪ
c ore
F T
op t
cre t
Ġb odies
ic ial
D ata
ĠAss istant
Ġs ort
Ġm iss
Ġfr ont
age m
i pp
indow s
Ġglo bal
Ġcomb ination
read y
Ġarchitect ure
ic it
Ġdeterm ined
Ð°Ð¼ Ð¸
Ġg ames
Ġem ail
D e
qu est
op y
d igo
Ġref ers
Ġstand ards
Ġsc he
y ch
Ġpartic ip
Ġdevelop ing
Ġs ong
Ġph ot
Ġconf ident
re ci
Ð¸Ð ´
h old
C ol
Ġf ix
Ð¾ÑĢ Ð¼
a ur
Ġcomp re
-------- --------
ĠDe velop
H e
Ġpolit ical
Ġet c
[ i
Ġm ist
m ar
it Ã©
Ġcl othing
Ġma jor
in ary
Ġf lex
Ġcond ition
ĠÐ¿ÑĢ ÐµÐ´
Ġb oy
t ers
ĠÐ¿ Ð¾Ð»
Ð¸ÑĩÐµ ÑģÐº
Ġi h
Ġsupport s
Ġ= >
ial og
Ġbusiness es
Ġun s
ë ¥
O R
) ,Ċ
Ġexpress ion
ë ¡
ĠP ol
Ġresult ing
Ġpro ced
ty pe
Ġb ir
Ġg ro
S e
im ately
Ã© n
Ġhe sit
Ġcom es
E T
Ġs ie
new able
Ġp ow
W ith
aj e
n ake
at i
oc ol
v o
Ġint eg
l ich
Ġad vent
Ġd iverse
Ġsustain able
ĠÐ ¶
Ġl ive
ord ing
ĠÂ ¿
iz z
ĠV is
Ġinter face
Ġfem ale
Ġto ok
2 6
Ġgroup s
st art
ĠÐ¿ Ð¾Ð´
Ġcar ried
Ġtra ck
Ġset s
Ð¾Ð· Ð´
c ent
Ġn p
Ġta x
Ġintermedi ate
Ġmed ic
bo ok
å ħ
Ġsee k
Ġguid ance
Ã© t
Ġestabl ished
_ name
ub e
Ðµ ÑģÑĤÐ²
Ġorganiz ations
Ð¸ÑĤ Ðµ
ĠData Frame
Ġf all
Ġutil is
Ġs leep
ĠcÃ³ digo
Ġinterest ed
p is
Ġhe av
Ġplay ers
Ġcalcul ate
ĠT hat
Ġment al
Ġin j
Ĥ ¬
Ġs ample
e es
n ers
Ġsequ ence
ÑĤ Ð¾Ð±Ñĭ
c king
Ġdec id
S ON
r ong
ph as
and as
Ġexpl oring
nd er
Ġlim ited
Ġref erence
Ġrem ain
Ġo der
Ġbu ilt
ch ange
iv ing
Ġth ing
Ġhand ling
av es
Ġdem on
el ines
Ġf ields
Ġal ready
Ġ} ĊĊ
Ġab s
ĠCom p
Ġit ems
ura cy
Ġsy m
Ġadv ant
Ġval u
Ġatt empt
ĠÑ Ĩ
ìĹ Ĳ
Ġgra nd
Ġoc cur
Ġcompon ents
cl ude
Ġcaus ed
Ġlangu ages
ìĿ ĺ
ib r
Ã Ł
Ġì Ŀ
.c anvas
Ġrel ig
Ä ħ
yr im
Ġm es
Ġrese ar
id s
ĠÐº Ð¾Ð¼
! ĊĊ
Ġt im
9 9
Ġh ouse
ä½ ł
Ġl ing
ÑĤ Ðµ
pl it
Ġpress ure
Ġs ich
Ġdam age
j o
uro pe
Ġmeas ures
Ġcl im
Ġs ch
Ġl abel
Ġam b
Ġspec ified
ac he
Ø ¨
ĠÑį ÑĤ
Ġcompon ent
Ġma xim
be ing
Ġclient s
Ġk ann
ì ŀ
Ġto xic
ĠE ar
g ar
Ġded icated
ast s
pl ot
ä º
ĠChe ck
Ġf ing
Ġdet ect
Ġint rodu
Ġal ong
Ġre act
li ke
ic an
Ġequ al
Ġin app
Ġvari ables
ag ed
ĠC ons
Ġfeed back
Ġdi ag
Ð°Ð ³
" ĊĊ
az ioni
Ġc a
Ð Ĵ
Ġask ed
Ġst ream
it ement
st e
Ġst ates
Ġs ou
A nother
ca pe
Ġsy mbol
Ġsynt hetic
Ñĥ ÑĢ
Ġve h
ens or
Ġref lect
Ġeng aging
Ġact ual
Ġresear cher
Ġhe ight
iz er
T hat
B y
ure d
Ġdist ance
L e
he st
cri ption
ĠQ u
ri x
Ġer r
ra z
ĠĠ Ċ
. h
ãģ «
om et
Ġpotential ly
ĠÐ¸ Ð¼
Ġparamet ers
Ġcataly st
Ġas king
er al
Ġprim ary
ĠG erm
Ġeduc ation
ê °
ci as
ĠĠĠĠĠĠĠĠ Ġ
Ġrequest s
Ġtr uth
Ġparticular ly
Ġit er
ĠG r
Ã¶ n
Ġp s
Ġsol ve
Ġplay ing
ãģ ¾
Ñĭ Ð²
Ġdel iver
Ġc ases
Ġvul ner
Ġbeh ind
Ġc ard
Ġcap abilities
g ame
Ġsa ve
x y
Ġh ol
op h
?" ĊĊ
Ġdef ine
Ġcont ract
ast ic
Ġanaly ze
ell ing
enc ies
Ġattack s
ĠG et
ĠJava Script
Ġdescri ption
yth ing
Ġent ire
ĠÐ±Ñĭ ÑĤÑĮ
Ġf ine
ĠO n
Ġd im
ç Ķ
ĠÑģÐ² Ð¾
ĠF inally
Ġexpert ise
ess ion
ap an
Ġfe ature
Ġlook ed
m on
() :Ċ
ãģ ¯
Ã ¹
Ġvis it
Ġcon duct
iv os
Ġs end
Ġspec if
l en
Ġstor age
Ġreg ion
Ġh ost
Ġ< /
Ġcommun icate
Ġ- --
Ġapp reci
Ġem phas
m an
å ¥
Ġcre d
a pon
Ġwill ing
Ġh ood
ĠÐ´ ÑĢÑĥÐ³
in it
Ġc up
ig en
is ing
Ġth ird
ess age
olog ical
Ġ Ã¡
ĠS ch
Ġsp read
Ġe j
Ġatt ract
Ġso on
Ġpack age
Ġ Ä
Ġsur round
ond on
ĠM odel
Ñģ Ð»Ð¸
Ġev ol
Ġform a
Ġex act
Ġeffic i
Ġex erc
Ðµ Ðµ
Ġthough ts
Ġinapp ropriate
s v
r ict
å ¤
Ð° ÑĪ
" )
Ġag re
íķ ľ
ĠÃ º
Ġbl ue
St ep
Ġser ious
Ġstart s
pp er
Ġvalu able
Ġex pect
Ġwe aring
Ġset ting
ĠTr ue
Ġex pected
Ġinform aciÃ³n
Ġcon sole
act er
Ġclos er
K ey
Ġle d
f ol
-t ime
Ġu pon
Ġeffici ency
Ġlong er
Ġg est
Ġcan cer
Ġinter pret
ÐµÑĤ ÑģÑı
Ġing redient
ĠM on
' Ċ
Ġespecial ly
Ġe u
av ing
Ġsw e
Ġfo ot
r ar
Ġthem selves
ÐµÐ ¶
v ar
qu i
oc ks
Ġupd ated
- being
-t he
ĠÐ´ Ð°Ð½
Ð¸ ÑĨ
ĠS u
c ks
Ġinst ructions
2 7
ĠM ake
Ġb ank
ĠS i
Î ½
Ġsm ile
Ġc ru
W hen
ĠÐºÐ¾ÑĤÐ¾ÑĢÑĭ Ðµ
Ġgo es
Ġd ur
Ġens uring
Ð² ÐµÑĤ
Ġexc ited
ãĤ ĭ
ac iones
Ġreli able
Ġenem y
Ġexper iment
Ġf ar
ĠE r
p a
il ing
Ġcurrent ly
Ġf a
Ġob ser
Ġpass word
he mat
ãģ §
- h
Ġhim self
iv a
Ġsha pe
s ing
Ġpare nt
Ġw in
Ġeas ily
Ġcol lect
Ġb attle
ĠÐ» Ñİ
Ðµ ÑĪ
ĠEar th
Ġre ason
Ġt ip
Ġdet ailed
Ġrem o
Ġ __
Ġwho le
Ġdistribut ion
æ ĺ
R A
id den
Ġ ir
Ġespec ÃŃ
ĠL ondon
Ġp ub
Ġtechn ical
Ġo t
Ġproper ly
Ð½ Ñı
c ial
Ġimplement ation
ĠThere fore
Ġaud ience
ĠÑĩ ÑĤÐ¾Ð±Ñĭ
Ġdrug s
' )
A dd
6 4
] .
yr idine
å®ĥå®ĥ å®ĥå®ĥ
Ġr ules
Ġdiffere nce
u k
ad ing
Ġlar ger
or ch
im age
ro om
Ġre ve
ci ous
Ġst ruct
Ġstand ard
Ġwrit ten
ĠG ener
ul y
ate ful
ok en
ir it
U p
Ġfulf ill
Ġphr ase
Ġacc uracy
Ð½Ð¾ÑģÑĤ ÑĮ
Ġv ot
id d
Ġd ynam
ì §
. w
Ġpol y
ĠJ SON
Ġeffect ively
f ig
Ġf ast
ear ch
Ġc ock
Ġmot iv
Ġth r
Ġc um
Ġam ong
iven ess
Ġd ress
Ġallow ing
et ime
Ġtre nd
Ġhig hest
ë¡ ľ
v i
Ġdemon str
res ents
E s
ure r
Ġincre asing
O nce
Ġì ł
am ine
Ġa verage
Ġne ural
Ġc ateg
I nt
it ude
O S
Ġexc itement
r ight
Ġrel ax
Ġb ra
Ġinform aÃ§Ãµes
z z
ĠJ apan
Ġf ra
Ġstrateg y
Ġlo oks
Ġp ul
int s
Ġdel le
. S
\_\_ \_\_
i j
Ġb row
Ġtrans fer
Ð¶ Ðµ
ĠS c
Ġatt ribut
Ġpa per
Ġequ ation
Ġresearcher s
C ont
ol a
Ġes c
Ġ %
Ġa o
Ġrep resents
c in
y ing
Ġbo x
et te
ar ia
I d
um p
ĠA nt
Ġc od
Ġon ce
Ġcompre hens
em ember
f r
Ġa plic
Ġever ything
as y
ot s
at ives
Ġus u
Ġo il
Ġbec ame
ĠHT ML
Ġproject s
ĠE urope
Ġde i
ab il
al t
The se
ĠÑģ Ð¾
c n
Ġprior it
ht ml
Ġmem bers
- of
Ġra w
Ġdif erent
Ġor g
ĠP y
Ġmult i
Ġrec ent
g ed
Ġefficient ly
Ġtrust ed
Ġclar ify
Ġp esso
Ù Ĥ
c el
Ġbot t
ĠR ed
Ð½Ð¾ÑģÑĤ Ð¸
Ï ģ
Ð° Ñĩ
- M
Ġgrow ing
Ġinvest ment
t i
z en
Ġopportun ity
ĠR uss
Ġbeaut y
ĠW ar
Ġadd ing
Ġnorm al
Ø ³
Ġexp and
Ġcom un
ĠW indows
Ð° Ñħ
Ġsens itive
Ġsm o
Ġd ados
Ġb rand
Ġpod em
Ġguid elines
( n
Ġoff ensive
Ġrece ive
Ġgre ater
Ġdis pos
Ġindust rial
Ġhe ar
Ġsatisf action
ic ious
Ġf igure
Ġdes ires
Ġest e
ë¥ ¼
ÑĢ Ð¾Ñģ
ve red
ĠÑģ Ð¿
Ġleg s
Ġun iverse
b all
o i
a a
Ġadv ice
Ġpl ant
Ġprin cip
c ular
Ġs ind
m odel
Ġp al
Ð°ÑĨ Ð¸Ð¸
ĠP ar
I T
Ġn ut
ĠÃ© t
ĠM e
Ġpolit ics
Ġcoll abor
Ġs od
- se
Ġw er
Ġright s
Ġre pl
ce ed
Ġrout e
Ġc ry
Ã¡ l
Ġcontin ues
Ð°Ð½ Ð¸Ñı
Ġd iction
u er
Ġform ula
ĠT est
ro id
Ġconst ruct
Ġcell s
Ġ ult
ig e
Ġext ra
Ġsuccess ful
h ol
" I
in ux
it her
Ãº mer
ĠSt ud
> ĊĊ
L ist
t he
7 0
Ġp y
Ġmention ed
ĠØ ¨
Ġblo od
ãģ Ĺ
Ã¨ re
Ġd ream
Ð¸Ð ±
Ġprogram s
Ï Ħ
Ġne ces
Ġorgan ic
D F
ãģ Ħ
Ġstrateg ies
un ch
Ä ĩ
w ers
Ġinvest ig
y ear
ar ily
Ġmy self
Ġm outh
ĠP er
b i
b en
Ġlo ved
ce ption
ĠG od
f o
Ġob tain
a ff
ĠSt art
Ġspec ify
Ġal t
_ w
li er
Ð¾Ð² Ñĭ
Ġne ar
Ġp d
ĠInd ia
ac ed
con s
g y
Ġan g
ĠL LM
A A
Ġal tern
Ð»Ñİ Ñĩ
il os
min ist
.s et
Ġre le
Ġframe work
Ġregul ations
ÑĤ ÐµÑĢ
Ðº Ñĥ
Ġspe ech
Ð½ Ð¸
Ġpart s
Ġwe apon
2 9
ire ct
- B
Ġre v
Ġgre en
Ġdirect ly
Ġm ilit
Ġst ress
( (
Ġstr ange
ist a
xt ure
Ġmat hemat
- S
Ġexec ution
u ff
R es
Ġc ou
_ id
Ġfeel s
Ġth reat
Ġturn ed
t k
Ġgr ateful
Ġun able
ĠTe chn
Ð½ Ð¸Ðº
b ing
Ġw rong
Ġt ried
Ġr ich
p ass
Ġsal es
A C
Ġprote ction
Ġ* *
he nt
Ġar m
Ġsym pt
Ġthe ory
an ation
Ġfollow s
Â °
ĠInt ern
t es
Ġfocus ed
ĠPro v
T ext
p ath
so ft
ra ined
Å Ľ
ar ge
Ġin ac
ind o
Ġscre en
Ġass um
Ġful ly
ĠS QL
ĠB o
Ġhon est
Ġstud ent
Ġle ave
Ġmo le
Ġan n
Ġthrough out
ic os
Ġpos so
pr ise
n ces
Ġmo ving
¸ °
Ġbo oks
Ġs il
Ġwh is
ĠA c
- ter
Ġcap ital
idd le
en za
- P
Ġla ws
or a
Ġlead er
Ġn Ãºmer
Ġdecid ed
Ġf alse
Ġave c
ï¿½ ï¿½
ĠÐ ¯
Ġsa w
Ġte cn
Ġli qu
Ġsc ore
i ro
Ġde ploy
Ġa im
Ð Ł
Ġc ross
ograph y
Ġm uit
Ġaud io
Ġmem ber
Ġredu cing
ĠÐ¼Ð¾Ð³ Ñĥ
k a
Ã¡ri o
Ġmi xture
Ġm ol
n y
Ġco ol
art y
Ġê °
Ġdepend s
Ġit em
Ġn om
Ġpen is
Ġchang ing
Ġreput ation
A r
Ġinflu ence
Ġplatform s
Ġent er
Ġag ent
Ġany one
ĠF l
g i
in ks
it ar
ĠM ed
ap ter
ĠN e
le te
Ġnum er
Ġexpl icit
Ġcrit ical
Ã¶ r
Ġlibr aries
Ġdeterm ination
d own
Ġpro pos
Ġsuit able
Ġmod ify
Ġdom in
Ðº Ð¾
Ġc ut
ĠÐ Ķ
Ġrecommend ed
ili ar
Ġcare fully
ĠÐ ł
um n
em p
Ġem erg
Ġwe ak
ÐµÐ ¿
ĠO ver
A pp
Ġe c
Ġv ar
Ġlo st
ines e
ar g
Ġdoes n
ap s
Ġgener ated
Ġdire ction
form ation
q l
Ġro ws
Ġimplement ed
Ġbal ance
Ġc ert
Ġemp res
i eren
Ġh at
Ï Ģ
- C
Ġg ender
Ġsh ared
Ī ĺ
Ġto d
Ġy et
Ġear ly
Ġl ic
Ġh om
Ġpr ime
Ġfil m
Ġestabl ish
Ġincor rect
Ġreg ist
Ġc ada
Ġrest aur
F ile
ì ĭ
Ġeas ier
Ñį Ñį
ud o
Ġcor respon
Ġl ines
è ĥ
( d
Ð» ÑĮ
I M
l oc
at en
ĠI D
id th
n ed
Ġfe et
Ġadd ed
_d ata
Ġmo b
s on
Ġan c
ĠAmer ican
Ġc and
9 0
Ġp ush
Ġbound aries
' ,Ċ
ãģ ¨
Ġopin ions
Ġd ir
Ġal one
ĠÐ± ÑĥÐ´
p x
ĠPr int
ĠInst ead
r ate
ĠÑģ Ð¾Ð·Ð´
" .Ċ
ul f
Ġpued o
Ġdiferent es
æĪ ĳ
Ġpolic ies
Ġnetw orks
Ø Ń
å Ĭ
Ġsympt oms
Ġdat os
arr ass
Ġm ut
I C
Ġt ut
in clude
o ad
Ġcolum ns
Ġl ink
em b
Ġk Ã¶n
, ĊĊ
Ġgar ant
Ġshow s
ÃŃ s
Ġc ame
Ġins p
I m
und o
Ġb es
ĠT w
res ult
Ġpop ulation
ĠT ake
ar o
3 5
eng u
ãģ Į
ww w
s c
Ġret rie
Ġgl ad
Ġfin ally
ĠÐ ľ
Ġsimp ly
Ġsur face
Ġdi et
Ġc i
Ġ ÑĤÐ¾
Ġpur ch
en a
Ġs av
Ġs in
Ġb rain
erv ice
pt ions
ve re
ä¸ į
re t
cre ate
f low
Ġp air
ab e
Ġinac curate
an z
Ġst ock
Ġdiction ary
ĠRe g
4 4
Ġsmall er
Ġv ac
en ge
Ã© d
art ment
Ġdis cover
Ġa i
Ġsh own
Ġar r
Ġto ken
Ġemb arrass
Ġnot hing
ĠÃ ª
Ġ< <
T P
Ġw ent
Ġact ive
ĠE nt
Ġout side
f e
Ġw at
al ue
Ġelect ron
Ġbo ard
Ġen h
å Ī
E S
Ġwe ek
Ġcompound s
Ġf ont
re r
Ġw ie
il s
ough t
ak ed
ĠN one
re g
Ġwid th
ĠÐ¼Ð¾Ð³ ÑĥÑĤ
Ġform s
ĠA ll
Ġse cret
Ġfac ilities
âĢ Ŀ
- >
Ġass ess
Ġp an
- e
Ġass ign
Ġd ivid
A D
Ġdevelop ers
ĠI N
Ġinnov ative
ĠO h
ic on
ci ples
ĠTh ank
Ã© es
Ġstat us
iv al
w ay
Ġfact ually
Ġans wers
Ġal s
Ġa us
Ġw al
Ġsuggest ions
Ġtal king
am s
for ce
Ġpriv acy
Ġus ar
Ġl if
Ġor d
Ġgener ating
Ġdiffere nces
Ġpi Ã¹
an Ã§
Ġt ag
Ġnot ing
Ġnew s
Ġto wn
ic he
Ġind epend
Ġh ar
Ġelect ric
en n
nÃ© es
Ġsuggest s
ĠÐ² Ñģ
Ġcomprehens ive
Ġconcept s
am os
Ġh yp
Ġoper ating
ific ar
Ġd in
out put
am a
kn own
U n
Ð¸Ð¼ ÐµÑĢ
cl es
Ġemot ional
ers e
Ġsu is
ĠespecÃŃ f
Ġcost s
Ġchalleng ing
Ġo kay
Ġt end
Ġdef ined
Ġgener ally
ĠM ay
ac her
" >Ċ
Ġrem ote
Ñģ Ð»
Ġcomplet ely
Ġs ite
Ġìŀ Ī
Ġfing ers
Ġerr ors
Ġt ight
Ġf ill
Ð¸Ð½ Ð¸Ð½
Ġt ree
Ġë °
Ġvers at
Ġap rend
E m
_l ist
Î ·
Ġm illion
ĠB uild
ĠÐ Ń
æĺ ¯
Ġlet ter
Ġg low
ot hes
Ġv ida
Ġre curs
Ġemploy ees
. </
Ġint el
ĠÐ ĺ
Ġsett ings
Ġpre par
Ġgr ad
ĠCh inese
ĠÑ Ī
er ies
ĠL inux
ns wer
ĠÐ² Ð°Ð¼
com fort
ĠÐ¾ Ð¿
] ,Ċ
Ġcent ral
Ġdo or
Ġpriorit ize
Ġpro d
l s
Ġw ild
. con
Ġparamet er
- like
b it
it ation
an ks
ĠĠĠĠĠĠĠĠ ĠĠĠĠĠĠĠĠĠĠĠ
Ġd ell
Ġinstal led
ĠÄ ĳ
icro soft
ĠC O
ĠF e
Ġw el
Ã¡ vel
ffic ient
Ġliqu id
Ġal ign
Ġv o
Ġtamb Ã©m
Ð¸ÑĤ ÐµÐ»ÑĮ
â ĸ
Ð´ Ð°
Ġexc ell
op s
ĠInd ust
al le
Ð¾ Ðµ
ens ity
ÐµÐ½ ÑĮ
Ġhelp ed
Ġfund ament
Ġde ad
Ġde g
Ġling u
c ode
Ġf ant
Ġl iter
Ġenc ourage
Ġgener ation
] [
o h
il le
Ġdri ve
enc ed
ic ks
yr id
- D
Ġra p
um b
Ġch ann
Ġposs ib
ĠChat GPT
id os
Ġar ri
) .Ċ
Ġwe ather
Ġcar bon
Ġt itle
um ber
Ġcre ates
- chlor
ĠĠĠĠĠĠĠĠĠĠĠĠĠĠĠĠ ĠĠĠĠĠĠĠĠĠĠĠĠĠĠĠĠ
Ġcl oud
Ġbre asts
n al
e ks
ern ame
ind ex
pro cess
Ġch lor
on y
Ġs ig
Ġb ud
Q u
Ġon es
ĠĠĠĠ ĠĠ
ĠOr gan
Ġincre ased
Ġstore d
Ġe ye
St ate
Ġm ount
in i
Ġlead ers
ĠO b
ĠÐºÐ¾ÑĤÐ¾ÑĢÑĭ Ð¹
Ġcol ors
hen yl
Ġn u
Ġregard less
un ta
con tr
ĠI h
Ġa gr
Ġsp end
Ġprogram med
Ġanim al
ì ĸ
Ġn icht
Ġimpro ving
Ġexist ing
ant es
Ġh y
yrim idine
er ia
ãĥ ¼
Ġincre d
e ep
r ist
# include
Ġco ok
ĠCom m
Ġsu ff
ĠR ep
Ġsm art
Ġwom b
Ð½Ð° Ñĩ
Ġre lease
ìĬ µ
Ġsound s
Ġl ack
d ed
ĠA t
Ġconstant ly
ÑģÑĤ ÑĢ
ĠÐ· Ð°
ord in
Ġappear ance
Ð½Ð¾ Ðµ
er ation
Ġg i
èĥ ½
Ġmaxim um
Ġtem po
Ġmy ster
Ġarg uments
as m
F inally
Ġmess ages
Ġb and
Ġsaf ely
A S
( t
u gg
Ġre ality
P ress
} ,Ċ
å®ĥ åı¯ä»¥
) .ĊĊ
Ġprin ciples
Ġl abor
Ġser ve
l ib
er ve
Ġl ater
Ġb ab
Ġsu as
Ġconfig uration
ìĿ Ģ
Ġallow ed
Ġcount er
Ġat m
ff ect
Ġen able
Ġf az
Ġfind ing
Ġtext o
Ġayud arte
el le
as ons
Ġpro por
rast ructure
Ðµ Ñħ
i us
Ġmove ment
Ġsqu are
Ġwer den
Ġ rom
Ġconnect ed
Ġp et
. add
Ġ _
Ð¼ Ð¸
Ġb ur
L P
Ġinst ance
el a
ve is
Ġr ally
p et
Ġsent iment
ĠÐ±Ñĭ Ð»
Ġbecom ing
Ġph ilos
Ġwalk ed
lic ations
Ġapp ly
ant ic
Ġn uc
Ġar qu
here nt
Ġe ither
Ġar ous
Ġre place
ous ly
Ġinform ative
C O
Ġdon nÃ©es
Ġp ac
lic k
re st
Ġs ed
ĠC ould
ĠG ame
Ġo ch
-ter m
Ġche m
å¥ ½
Ġl engu
Ġwas te
Ġsp irit
" >
Ġmov ie
ct ive
Ġsol vent
ĠÃª tre
Ġt our
ĠL ear
Ġre ached
U S
Ġd ies
on a
ĠA g
i h
ari os
col or
t ica
Ġpu Ã²
ì ľ
Ġprovid er
ry ption
Ġmet al
Ġsur v
.t xt
D irection
Ġintern ational
St ring
3 1
Ġvot re
in st
Ġenc ount
Ġra ce
Ġfavor ite
en vol
Ġst ar
Ġplay ed
Ġd ialog
Ġpolic y
Ð³ Ð¾
" )ĊĊ
ĠA re
or ial
3 6
if ier
ĠO utput
ĠA fter
ãģ¾ ãģĻ
Ġgu ide
ent a
Ġle ast
ÑĦ Ð¾ÑĢÐ¼
lt imately
Ġ} ,Ċ
- art
ke it
E r
Ġinter actions
ch a
ro che
Ġminim ize
Ġse ems
ĠEx pl
Ð°Ñİ ÑĤ
ang le
od o
w end
Ġph one
ĠIm p
Ġprot ocol
Ġno vel
Ġsens ation
Ġenjoy ing
iss ions
us ed
ĠÐ¾Ð± ÑĢ
Ġevalu ate
Tr ue
" );Ċ
Ġaspect s
à¸ ²
Ġacc ording
P E
c ia
car box
Ġpart ners
Ġcontain er
Ġval or
h ib
N N
Ġins ights
I I
ĠB it
Ġtechn ique
h ow
Ð¾ Ñı
Ġappreci ate
Ġha z
pt y
RO M
ar ray
i ar
ĠJ ack
Ġac cur
Ġlearn ed
Ñĥ Ð½
ic ing
Th ank
Ġpart y
. root
ĠÐ¸ÑģÐ¿Ð¾Ð»ÑĮÐ· Ð¾Ð²Ð°ÑĤÑĮ
ado res
Ġse a
Ġc rypt
Ġprofessional s
Ð ŀ
ĠG e
- n
Ġco ver
Ġfound ed
- lo
Ġengine ering
Ġconflic t
l og
ut t
et ic
Ġwork ers
Ġdown stream
Ġe gg
Ð»Ð¸ Ñĩ
Ð½ Ð¾Ð²
ÐµÑĢ Ð¶
Ġfil ter
Ġm il
ÑĨ Ð¸
Ġdef ault
Ġte ach
f it
os ed
Ñĥ Ñģ
Ġjo in
Ġf ib
ĠS S
ĠThe n
un ning
' )ĊĊ
ë ¦
Ġche st
Ġbr ight
vers e
v est
t ime
y ond
Ġt ips
Ġf ail
Ġvict ory
Ġcon ce
Ġcharacter istics
Ġ @
Ġin iti
Ġautom at
Ġest im
c raft
Ġact ually
Ġwon der
Ð» ÐµÐ½
ock et
Ġs ont
al ed
ê³ ł
__ __
Ġrespons ibility
.d irection
Ġpued en
I A
Ġsod ium
Ġsitu ations
od es
l ist
â Ķ
Ġal le
ĠP or
Ġalg un
Ġmo an
tern al
Ġus ually
Ġfam iliar
Ð ¡
Ġtrad ing
b or
Ġpref er
Ġa uch
Ġstri ve
r at
× Ļ
Ġatt ra
er as
Ġmod o
ĠI d
Ġh idden
Ġp andas
Ġrecogn ize
Ġmod e
D ay
Ġdisc rim
am in
Ġrout es
Ġf air
Ġa head
Ġwebs ites
az on
Ġf er
Ġv el
Ġaccur ately
Ġcontribut e
Ġf on
ÑĢ ÐµÐ¼
e per
ê° Ģ
h ite
_s ize
ĠÐ¾ Ñģ
l abel
ĠØ§ÙĦ Ø
Ġj ud
ìĬµ ëĭĪëĭ¤
Ġh al
Ñĥ Ð¶
i ation
Ġpromot ing
Ġlengu aje
ĠH is
ad em
j i
Ġd an
Ġla ugh
ren ch
f l
i ert
ĠÃ ī
Ġsign al
Ġam az
Ġfam ous
LE CT
ar p
o ff
Ġde cl
ĠAr t
Ġa u
Ġsh ap
id as
Ġar ms
Ġcol lection
f riend
er ate
pos es
bl ack
ÃŃ vel
Ġhard ware
Ġdis co
ur ance
ĠA ut
roche mical
Ġseem ed
ĠM icrosoft
- year
Ġal c
LE FT
Ġeconom y
Ġt ur
ri b
M A
Ġfollow ed
Ġinf rastructure
Ġeff orts
Ġinst it
Ð¾Ð»ÑĮ ÑĪ
res h
ĠP ort
Ġrece ived
Ġman aging
Ġdiag n
Ġre newable
he l
Ġaut hent
ãģ Ł
f unction
ĠWe b
3 4
Ġen contr
ĠA S
ic ed
t itle
ĠE ach
Ã¡ri os
Ġint ended
ru pt
Ġutiliz ar
Ġtest s
Ġmag ic
íķ ´
ĠO ur
Ġe pis
Ġse ction
Ġbe yond
Ñĥ Ñī
Ġpur poses
Ġf aster
Ġpropor cion
ĠÑĢ Ð°Ð±Ð¾ÑĤ
n es
Ġmilit ary
ĠÑĤÐ°Ðº Ð¶Ðµ
Ġdec ide
Ġme jor
Ġatm osp
ell ow
= tk
Ġst ro
b ash
I S
Ġve ctor
Ġre nd
Ġpe ut
n is
ĠT ext
Ġreal ize
Ġm erc
Ġsub m
po int
ĠP ower
Ġconc ent
Ġcon v
Ġint ense
Ġtransl ation
ãģ ª
Ġm ission
im al
g a
Ġinterest ing
b es
qu ÃŃ
ĠB ased
In st
g al
Ġexpl or
Ġv ast
Ġdis pon
Ġlar gest
Ñĥ Ð¿
ĠJ e
Ġh ay
Ġtecn olog
Ġmas ter
ĠM in
ay er
Ġill ness
us ive
ãģ ¦
' :Ċ
- up
Ï ĥ
ic ides
Ġre asons
Ġto m
Ð´ Ð½
ĠÃ ¼
Ġtrend s
Ð² Ð»Ñı
Ġchall enge
ĠE le
re b
Ġl ÃŃ
u y
app end
Ġmat rix
Ġcomplex ity
ë ĵ
Ġde al
ad ow
W S
Ġstand ing
on na
ĠC ode
ĠØ ª
L L
Ġrem ind
Ġelect r
iv il
Ġun cover
Ġim medi
ch ain
b lic
Ġmaintain ing
Ġo d
Ġdes envol
A B
ĠI P
Ġappe ars
Ġtra ffic
Ġconst ruction
Ġant i
all s
(s ide
Ġpre t
Ġstud ies
ĠÐ¼ Ð½
Ġterm inal
Ġperson ality
Ġwant s
Ġversat ile
Ġvide os
_ file
b an
Ġpass ed
Ð½Ð° Ñı
ĠÐµ Ð³Ð¾
Ġsee king
ì§ Ģ
Ġingredient s
Ġcol le
end s
Ġpre pare
R emember
Ġbecom es
Ġst d
Ð¾Ð²Ð°Ð½ Ð¸Ñı
Ġdise ase
ie f
ism o
Ġd yes
Ġtk inter
Ġve get
vol ution
ell en
Ġ ign
i Ã©n
Ġmo on
O T
Ġn ode
-- -
Ġj og
Ġpl aces
Ġcru cial
Ġcomput ing
âĢĻ s
k y
o o
Ġliv ed
à¸² à¸
Ġps ych
Ġseg ment
ac ion
Ġoper ation
r m
l ig
Ġdoc uments
z ing
Ġsepar ate
ve y
el ine
Ġì Īĺ
Ġmor al
- g
Ġne ut
Ġspecif ically
Ġcorrect ly
Ġad minist
x i
go ing
he t
n i
Ġc ast
i pped
A n
Ġtr ash
riend ly
Ġun c
Ġsist er
Ġsmo oth
Ð¸Ð» ÑĮ
Ð¸Ð ³
() )Ċ
Ġplan ning
Ġquant um
Ġprodu ced
3 00
ir ing
ĠF ra
Ġpredict ions
ĠC ar
ac ci
Ġreal ized
` :
im a
us ing
Ġs ell
Ġdom ain
ĠF alse
qu in
Ġ+ =
le vel
Ġinc ome
Ġv ir
Ġswe et
Ġspec ies
Ġbro ther
ap i
word s
Ġce le
ÃŃ n
con ds
Ġb ad
. LEFT
com p
Ġajud ar
m ain
Ġn erv
There fore
æ ĸ
ÑĢ Ð°Ð²
() .
( [
Ġp ou
ĠÐ² Ð°ÑĪ
os it
Ġt ener
ol ine
7 5
Ã ®
Ġbud get
R L
E D
Ġeff ort
Ġtr ade
Ġta il
Ġclass es
an ch
b ar
ä ¹
Ġcri ar
Å Ł
ĠC S
Ġw a
Ð°Ð½ Ð¸Ðµ
pon se
Ġclear ly
Ġwatch ing
Ġw ave
ĠD ie
Ġdown load
he c
C H
Ġtri p
v is
ren cy
c ciÃ³n
Ġcommand s
Ġrecogn ition
li ed
ÐµÐ³ Ð¾
it ter
Ġo m
Ġv oid
p ace
M S
Ġem pty
Ġprompt s
am ing
Ġcont ro
Ġteam s
end e
Ġexperienc ing
ĠÐ² Ð¾Ð·
Ġre pe
Ġp ig
rom o
Ġcre ative
Ġo g
.s nake
au gh
Ġmob ile
Ġperspect ive
Ġê ²
cur rent
_ num
Ġexpos ure
Ġcl ust
Ġon to
Ġf ru
Ġadvant age
ĠC or
Ġ[ Ċ
Ġpl ans
ìĦ ľ
ung s
ĠS w
Ð¾Ð» Ð½
ol o
Ġcam era
Ġhe ld
u en
19 8
Ġsl ight
Ġ !
Ġre ag
Ġpie ce
. ex
ĠC ent
Ġv an
ll o
Ġhistor ical
Ġsche du
am iento
ĠG PU
it em
p ip
ĠPro duct
Ġexec ute
Ġread ing
ertain ly
ĠÐ ķ
-f riendly
Ġex emplo
Ġc ours
Ġtas te
Ġcomp ared
Ġcare ful
. rand
A P
Ð¾Ñĩ ÑĮ
Ġm ale
Ð¾Ð»ÑĮ ÐºÐ¾
Ġgra v
r id
ut il
Ġfor ne
Ġsn ake
Ï Ĥ
Ġsupp ly
- r
u ate
Ġc atch
Ġn arr
cri be
Ġcl imate
ul o
Ġt ab
Ð½ÑĭÐ¼ Ð¸
ativ o
or g
Ġrele ased
o pe
.snake Obj
Ðº ÑĢ
Ġm icro
f Ã¼
G B
ì ķ
Ġpro ces
ic her
ra ce
ĠÐ· Ð°Ð¿
l n
Ġw ird
N ow
Ġp ip
3 8
ĠÂ ¡
ens ions
ãģ ĵ
ra py
Ġappro xim
Ġhe ard
a ks
ĠnÃºmer o
ĠA b
Ġall a
A fter
Ġinteg er
R ight
h ost
Ġanc ient
Ġhold ing
ol l
Ġd ivers
ĠAm azon
Ġdis so
ot ic
Ġmeasure ments
Ġm ark
Ġimpro ved
Ġmanufact urer
Ġun ivers
um s
ci o
Ġo l
un k
ot t
ot al
ĠP erson
w here
Ġf at
Ð¾Ð¼ Ñĥ
Ġproced ures
ail y
Ġdes e
ib ly
c ount
Ġn it
ĠD et
ĠÑı Ð²Ð»Ñı
ĠI ch
ĠCom o
Ã©c n
ĠB er
Ð¸Ð¼ Ð¸
Ġstruct ures
Ġt ro
æ Ģ
v oid
T ime
Ġdocument ation
_p ath
Ġde eper
Ġfor ced
Ġcommun ities
Ġra c
Ġmeet ing
Ġlimit ations
ĠH igh
Ðº Ð»ÑİÑĩ
Ġcom ing
ĠÐ´ Ð¾ÑģÑĤ
Ġsol id
Ġoff icial
r ics
Ġdet ail
it os
è ¯
Ãª n
is ms
Ġl ips
Ġe ager
ÑĤ Ð¸
Ġcl ick
Ġcol on
Ġcare er
ĠId ent
.game Frame
Ġtrans action
Ð¾Ð» Ð¶
Ġbu y
-s ource
Ġadvent ure
Ġm ir
ĠGerm an
Ñ Ĭ
Er ror
Ã© g
Ġscen ario
.l og
y al
age ment
ìĸ ´
Ġpur s
Ġsol ar
Ã§ o
25 5
u z
s ub
ĠL es
ĠIt s
Ġcar ry
Ġpreg n
Ġenh ance
ĠF rench
] ;Ċ
l ation
i am
Ġvis ion
Ġh an
Ġcapt ure
Ġstr ict
Ġpos itions
os is
19 7
Ġb atter
Ġas ks
Ġtr uly
Ð¸Ð ¿
Ġdynam ic
Ġmodel ing
Ġtip o
. qu
Ġse in
Ġt all
Ġfrequ ency
Ġmor ning
Ġst ories
. st
Ġke ys
Ð½ ÑĥÑİ
Ġseg ur
Ð ļ
Ġking dom
end a
ĠkÃ¶n nen
o v
ÑĢ ÐµÐ´
an Ã§a
Ġf ive
ĠB attle
Ġm ac
ĠP e
Ġbegin s
Ġenc ryption
S h
Ġalg um
å ¾
Ġform ation
anc ing
] )Ċ
a res
Ġprob ability
Ġrel atively
D ate
ĠN ot
angu age
ĠÐŃ ÑĤÐ¾
ens es
Ġcom ment
-m eth
ĠÐ¿Ð¾Ð¼ Ð¾ÑĩÑĮ
Ġtem pl
im iento
ĠìĿ ´
m es
Ġpro s
id ing
on ic
az ine
" .ĊĊ
y les
ri v
Ġtransport ation
Ġc ore
Ġer a
Ġagr icult
Ġto ld
on acci
Ġvol ume
Ġout ros
Ġinter f
ĠG u
Ã¤ t
- F
O f
tr ans
. C
M P
Â° C
Ġsk illed
Ġad m
T ype
ĠU p
Ġes cape
fol io
Ġmel hor
D o
Ġp ict
ĠÃ©t Ã©
å ¹
Ġbro ad
Ġmanip ulate
Ġw et
ĠS ub
Ġcons ent
t est
l ated
Ġte acher
ativ ity
ĠO ff
ost a
ify ing
ĠÐ ¢
Ġqu ite
Ġamount s
Ġt Ã©cn
Ġw ood
Ġind icate
Ġre ven
Ġf as
ĠJ ust
Ġm ig
ĠRe act
The y
Ð· Ñĭ
Ġr ule
Ġle aving
f rame
Ġsp ent
c ast
D ifficulty
ic y
ĠÐ¸ÑģÐ¿Ð¾Ð»ÑĮÐ· Ñĥ
Ġinst ruction
Ġde ve
Ġw ind
ox y
rodu ction
i ke
er ver
I l
on om
Ã¤ h
Ġexcell ent
Ġf ather
al ian
at ur
om an
ĠÐ»Ñİ Ð±
P l
Ï ħ
Ġd ra
Ġm ant
Ġincor por
Ġatmosp here
Ġes emp
C P
Ġrecommend ations
/ s
Ġl ate
Ġcos met
ĠÃ¼ ber
Ð¾Ð» ÐµÐµ
. create
Ġsol o
Ġme ets
Ġepis ode
ĠÐ· Ð°Ð´
ff ee
Ġstrugg ling
Ġupd ates
ist ry
Ġh urt
Ġb ond
ific ations
Ġro t
ĠVis it
Ø ¬
os a
l ies
in y
Ġra cing
å Ń
Ġconf idence
Ġd rop
ĠÐ½ Ð¾
Ġtre ated
H P
Ġs ull
Ġg iving
ock ed
Ġfact or
Ġg old
Ġres ource
Ġcirc um
ĠM et
Ġpr ices
Ġcand id
= self
-m ethyl
up date
Ñİ ÑĤ
Ġc op
ĠL ist
ĠUn iversity
Ġr ound
Ġro les
Ġcaus es
S QL
ĠIn c
Des pite
Ġf ict
Ð¸ ÐµÐ¼
Ġfundament al
St art
U T
ĠÐºÐ¾Ð¼ Ð¿
Ġsp orts
eth ical
\ n
Ġgr am
Ġdescri bed
ate ver
Ġfocus ing
ĠR et
gg i
Ġoper ator
ĠFr ance
Ġoff ice
D E
Ġdeterm in
ĠN ational
Ġun it
Ġmass ive
Ġstr ings
Ġt ent
Ġwarm th
ĠâĢ ľ
Ġg ent
Ġwork ed
Ñĥ Ð¼
js on
Ġcent ury
Ġinst r
x ide
__ (
H T
Ġse us
Ġma p
l im
3 7
Ġro ck
qu is
Ġover w
ÐµÑģ Ñģ
Ġbel ong
Ob ject
Ġsc ale
Ġb ul
le ft
Ġun ethical
Ġd ry
ĠSystem s
Ġë ĭ
Ġcele br
- A
è ¦
ĠH ello
Ġlog ic
Ġan tic
Ġbir th
Ġcont roll
Ñĭ Ðµ
Ġg od
Ġpr oud
Ðº ÑĤ
× ķ
Ð Ŀ
ro wn
Ġd ouble
ĠS ol
Ġadv ance
Ġis ol
Ġf ier
Ġcre ation
Ġcons cious
. append
k an
igh ter
Ġclim ax
Ġcomp at
ÑĮ Ñİ
Ġn aked
Ġmind ful
Ã ¬
Ðº Ðµ
ib t
ĠÐ´Ð°Ð½ Ð½ÑĭÑħ
ĠÑĢ Ðµ
% Ċ
å ½
Ġbe ach
Ġbab y
Ġmonitor ing
is p
Ġus age
N D
Ġspecial izes
Ġide al
Ġth ick
o on
Ġm undo
V iew
u ce
Ðº ÑĨ
Ġflex ible
Ġmathemat ical
S O
ra id
Ġn ull
Ġmyster ious
O n
S ub
Ġob st
Ġfre ed
5 5
i Ã§Ã£o
Ð¾Ð¿ ÑĢÐ¾Ñģ
Ġr an
ê ²
Î »
Ġn os
A t
e qu
Ġlist en
L et
Ġs Ã©
s cript
Ġimp ress
Ġt are
Ġcomp ar
Ġha cer
Ġs ession
Ġgirl s
12 3
", "
W hy
Ġcan vas
A nswer
Ġo cc
um in
Ġsw itch
unt as
O h
ĠT V
ĠS outh
Ġper o
Ġclos ely
ou b
Ġrepresent ation
c al
s m
Ð ¢
Ġex change
S ystem
er ge
Ġco ordin
Ġinform ed
Ġmonth s
w ith
Ġg ather
Ġsom et
Ġrap id
D S
å ľ
Ġgro wn
M odel
ĠÑĢÐ°Ð· Ð»Ð¸Ñĩ
-chlor o
Ġpar k
Ġcry st
ë ı
ĠL im
ĠÐ¼ Ñĭ
ver y
. b
Į Ģ
Ġst ability
Ñı Ð·
Ġein er
Ġpro jet
Ġexper ts
N A
Ġunder lying
Ġp es
Ġro ad
Ġfunction ality
Ġt one
ĠK eep
am ples
ot es
ph p
Ð³ ÑĢ
ĠD ep
å °
è ®
Ġexpl os
ĠT ra
ĠM ar
Ġdis g
ä½ł å¥½
Ġqu Ã©
Ġflo at
Ġche cks
Ġsh aring
Ġst atic
Ã¤ nd
Ġexpl anation
ĠE u
ĠÐ½ Ð°Ð¿
Ġgr at
" ;Ċ
P osition
U M
Ġ ?Ċ
Ġslight ly
ĠØ§ÙĦ Ùħ
Ġper g
Ð¾ Ñī
Ġr ub
Ġfriend ly
im o
op en
I ON
p ublic
Ġd aily
i et
Ġcomp are
Ġhapp en
Ġfo i
ct ors
ĠT ime
ÑĢ Ð°Ð¼
ï¼ Ł
ÑģÑĤ ÑĮ
Ġsynt ax
Ġì ķ
Ġj oy
Ġde cre
ER T
Ġport folio
Ġhab il
oc ation
Ġg er
ut s
Ġthem es
Ġg onna
Ġhelp ing
ĠÐ¸Ð½ ÑĦÐ¾ÑĢÐ¼
V alue
Ð°Ñģ Ñģ
Ġaf raid
ĠD on
Ġres um
Ġstrength s
Ġintern al
G et
- a
ib li
Ġart icles
u gin
ĠL arge
Ä ĥ
Ġinput s
I s
Ġintel ig
Ã¤ r
ĠP DF
Ġlet s
ci ence
ĠRes earch
Ġto k
Ġch ance
Ġv ibr
at ura
Ġag rochemical
or ia
h al
ĠC ity
Ġexerc ise
l in
Ġy ang
Ġ ?
Ġa ument
Ġgl ass
ĠM us
Ġì Ħ
Ġutiliz a
Ġad ult
ĠCons ider
4 2
Ġeffect iveness
hold ers
E nt
per o
Ġtrans m
Ð¼ Ð¾Ð¶
Ġve z
-p ro
' est
U ser
ob ject
y nt
.game Obj
ĠØ £
ĠQ uest
ĠP res
Ġsn ipp
Ġoptim ize
. x
Ġcom ando
ĠC SS
n ow
-d im
AT E
d es
Ġfaz er
Ġcol d
Ġr at
oc ument
Ġb an
ĠCh o
Ġt ien
Ġdef e
Ġevent ually
i ers
A d
' ;Ċ
Ġfun ciÃ³n
Ġview s
ud es
Ġen f
Ġveh icle
ag g
ÙĬ Ø©
pl t
ĠH ave
Ġh our
ick en
Ġis so
Ġg ru
v ice
è ¿
f en
Ġ- >
ĠÐ¸ Ñħ
Ġf irm
Ġa z
Ġt ables
Ġ ÙĦ
ë ł
is k
ĠCal cul
co in
Ġsk ill
Ġnot ice
Ġej emplo
U R
Ġconvers ations
Ġfind s
D own
Ġes p
Ġposs ibility
re f
Ġdep th
Ġcl ub
Ġg ives
ĠA cc
Ġmain ten
Ġmus cles
v ents
Ñĥ Ð»ÑĮ
. Button
Ġb in
Ġopp os
( p
ĠF in
Ġex ternal
ĠÐ Ĳ
Ã¶ g
ĠðŁ ĺ
ĠO ther
Ġsub t
ê ¸°
Ġcl othes
ĠÐ¿ÑĢ Ð¾Ð´
ro y
4 00
Ð´ Ñĥ
E lement
id ents
Ġvel oc
st ery
Ñĭ ÑĤ
b ra
ĠP art
D A
Y S
======== ========
Ġbrow ser
Ġesemp io
P C
Ġn ou
p ared
Ġt on
Ġorg asm
Ġsomet imes
Ġpart e
y lic
ĠP ract
` .ĊĊ
âĶ Ģ
Ġw icht
ĠJapan ese
Ġder iv
Ġex cept
Ġinflu enced
ĠÐ² Ð¾Ð¿ÑĢÐ¾Ñģ
ud io
Ġse ed
en u
Ð» ÐµÐ¼
Ġf ish
Ġst ra
l ights
ĠA p
Ġlim its
P S
ĠG es
ent es
SE LECT
o ke
Ġpersonal ized
l os
ri z
7 8
orm al
Ġdest ination
Ġheav y
Ġstand s
y lp
Ġsub s
Ġpay ment
ĠÐ¸Ð¼ Ðµ
Ġam pl
E l
Ġb en
Ġfict ional
- NAME
Ġpl ants
Ġed ge
Ñı ÑĤ
Ġch ain
rom e
Ġfol der
Ãº n
ra b
Ġconce al
- T
Ġne igh
am m
Ġsc al
ic ide
Ġfin ance
Ġachie ved
y our
Ġsol d
ĠÑĤ ÑĢ
im m
[ Your
Ġapproxim ately
B e
Ġy ield
Ġtrans pare
Ġd f
ri ve
com ing
Ġcu enta
Ġhum or
Ġr u
m os
å ¸
F rom
" You
r ad
rain ing
3 9
ĠA WS
ä¸ Ģ
Ġtre es
Ġnom bre
ãĥ ³
Ġsal t
ri o
Ġtra bal
Ġf resh
ĠI T
Ġp ull
Ġcre atures
Ġro ar
an ol
gr ade
Ġì Ĥ¬
Ġperm ite
Ġinclud ed
Ġnuc lear
Ġp ound
Ġdef end
Ġexpos ed
Ġb on
Ð¿ÑĢ Ð°Ð²
Ġgent le
Ġpur ification
ÑĢ Ð¾Ð²
Ġst ood
Ġwe eks
Ġstrong er
Ð°Ð¶ Ð´
o ch
' un
Ġknow s
ĠCh rist
m p
Ġperspect ives
il er
Ġperm it
ĠÐ Ĺ
Ġg li
us hed
Ġc opy
Ã¡ c
Ġpart ies
ĠA ust
und er
Ġslow ly
v ant
ra ys
Key Press
Ġnerv ous
om en
ab ly
ÐµÐ½ Ð¸Ð¹
å®ĥä»¬ å®ĥä»¬
V ID
os c
ain t
ĠK ore
ĠLo ad
Ġco ffee
Ġreal istic
ĠF ace
ĠÐ¼ ÐµÑĤ
.p ause
Ġmen u
Ġv ent
Ġc it
Ġn el
I G
qu es
Ġent r
Ñģ ÑĮ
Ġclass ification
ra ints
im in
erc ial
Ġspecial ized
Ġinclu indo
ĠTrans form
Ġmove ments
ĠCS V
ĠF irst
ĠOrgan ization
Ġoverw hel
rie f
m m
.. ..
Ġequ ipped
Ġcas o
Ġwh atever
ĠSt ay
u pp
§ ģ
Ġgu ess
L O
av as
ÐµÐ´ ÐµÐ»
Ø§Ø ª
ĠA ct
Ġal m
ÑĥÑĩ ÑĪ
H ER
4 8
Ġdo ctor
ìľ ¼
st ood
Ġsu dd
Ð» Ð°
Ġtod os
Ñĭ Ñħ
Ġpesso as
a ign
Ġf uel
Ġimmedi ately
Ġc ivil
Ġveh icles
Ġsk y
Ġin se
Ġad ic
Ġcorrespon ding
h ou
Ġs ight
z za
en ame
Ġanaly t
) )ĊĊ
Ġempres a
E O
Ġtok ens
Ġimprove ment
com es
Ġsuggest ed
r c
x x
ĠU til
curs or
Ġviol ence
Ð¾Ð± ÑĢ
Ġbelie ved
oc ial
Ġc ra
Ġsh akes
Ġpo em
Ġme ant
Ġcall s
Ġn ome
u an
O utput
Ġgr id
Ð°ÐµÑĤ ÑģÑı
Ð¾Ð» Ð¾Ð³
Ġhe ir
D B
ari an
Ġtrans actions
Ġbo ys
Ġmiss ing
e ah
Ġl ie
Ġthan k
h as
Ġcon hec
ist er
Ġco herent
ĠN etw
Ġst ake
ĠÐ¿ÑĢ Ð¾Ð³
Ġbegin ning
at us
Ð² Ð¾Ð»
Le ft
he it
Ġon going
ĠM od
. read
ÑĢ Ð¸Ð¼ÐµÑĢ
Ġinform azioni
æľ ī
Ġai ut
' Ã©
al i
Ġj ed
Ġst able
al a
Ġhab en
Ġint ent
avas cript
ĠD ate
ĠÐ¿ Ð»
Ġn ella
( num
qu er
ĠSt ar
Ġih re
Ġover view
' );Ċ
Ġknow ing
m ore
ĠU nder
ĠInt er
Ġch a
ĠÐ² ÑĢÐµÐ¼
Ø ´
ĠC ur
ĠÐ¼Ð¾Ð¶ Ð½Ð¾
( m
Ġpass ing
ĠÐ²Ñĭ Ð¿
Ġhe l
Ġear lier
å®ĥåı¯ä»¥ å®ĥåı¯ä»¥
D D
. de
Ġprint s
com pl
g s
- level
ãĤ Ĭ
ĠProv ide
ê³ ¼
) ;
Ġaltern ative
Ġpr ide
Ð¾Ð´ Ð°
ĠÏ Ģ
= True
ĠChemical s
ci pl
Ġcont ents
Ġm ine
em per
ar roll
Ġho le
Ġr ates
Ġsur ge
ab et
Î ®
Ġlet ters
Ġflo or
çĶ ¨
' in
Ġcours es
Ġpre pared
Ġout ras
ur ies
Ġint rig
Ð°Ð» Ð°
Ġst im
Ġst aff
Ġparent s
e f
ĠÐ¿ Ð¾ÑĤ
ir ation
Ġencontr ar
ĠÐ¾ Ð½
ĠW ell
Ġc ourage
Ð Ķ
Ġprodu cing
Ġa x
ĠÐ £
Ġlo yal
Ġquest o
Ġle an
ÑĥÑİ Ñī
Ġpre m
ĠØ ¹
Ġv ie
Ġimplement ing
es p
-t rained
Ġf arm
Ġpued es
ìļ Ķ
Ġ[ '
ativ a
Ġsubst it
Ġclos ed
Ġsudd en
Ġp ick
Ġpol ÃŃ
e vent
Ġac adem
Ġhapp iness
Ġp est
Ġse conds
H ead
ÐµÐº ÑģÑĤ
Ġcred it
Ġb orn
Ġgre w
ÃŃ st
Ġz ero
Ġver b
r t
! Ċ
Ġl ang
Ġ{ '
st ances
ag on
15 0
or i
ÑģÑĤÐ² ÐµÐ½
Ġretrie ve
rough t
Ġcon j
ĠG it
Ġproblem as
Ġnum py
_ string
ex ample
Ġtre mb
ìļ ©
ĠG ood
Ġpur ity
- N
Ġt ick
Ġcur ious
Ġs and
hip s
Ġrestaur ant
Ġdisg ust
. rect
Ġrem ains
Ġfor get
. T
st en
ĠM arket
I nd
Ġus o
Ġphilos op
Ġf ab
ĠCho ose
' h
Ð´ ÐµÐ»
Ġb ibli
å®ĥå®ĥå®ĥå®ĥ å®ĥå®ĥå®ĥå®ĥ
Ġb ath
Ġoptim ization
Ġantic ip
Ġda ugh
Ġh it
Ġindic ates
Ġmist ake
Ð°ÑĤÑĮ ÑģÑı
Ġb ag
Ġins ert
Ð°Ð» Ð¸Ð·
( data
Ġover come
Ġenc od
æ ķ
Ġf u
_ st
Ġb its
Ġavail ability
Ġselect ed
Ġpe u
ĠY ork
ĠIn formation
Ġdispos it
Ġdeg ree
Ã± o
Ġ Ùģ
Ġs en
å į
Ġconsider ing
Ġ< =
Ġgame Obj
is chen
Ġn ice
Ġattribut e
c ss
Ġsh all
id ity
×ķ ×
ĠÐ¿ÑĢ Ð°Ð²
Ġsnipp et
Ġphys ics
ar gin
ĠIs so
ast ics
Ġemb ar
Ġadvant ages
Ð¸ÑģÑĤ ÐµÐ¼
u ge
Ġhigh lights
Ġc amb
ê µ
Ġdis p
Ġinv ent
Ġg Ã©
Ġschedu le
Ġhydro gen
Ġthr ust
Ġinter val
Ð¿ÑĢ ÐµÐ´ÐµÐ»
Ġa ux
ĠB us
- date
Ġsem pre
ãģĻ ãĤĭ
Ġlingu agem
Ġagain s
Ġm iddle
Ġrest rict
ĠIntern ational
c an
Ġexc iting
Ġgood s
Ġwe alth
ĠÐ² ÐºÐ»ÑİÑĩ
Ġb inary
Ġp ap
ĠÐ° Ð½
Ġstrugg les
P h
[ ]
col umn
Ġchann el
Ä Ł
Ġcircum stances
Ġdist in
Ðº Ð°Ð·
Ġsho pping
ĠU RL
Ġman ager
Ġprof it
Ġper cent
Ġup stream
Ġnod es
Ġon t
og en
Ġh op
c ale
w orks
4 9
ĠRuss ian
Ġdis s
x id
Ð» ÐµÐ½Ð¸Ñı
Ġcon ver
ist e
b aj
Ġhesit ate
Ġdialog ue
Ġmedic ine
Ġv ag
S I
6 6
C C
ang ing
Ġch art
ÑĢÐ°Ð¼ Ð¼
Ġf ig
t Ã³
Ġpassion ate
Ġsay ing
f all
Ġserv ing
19 6
Ġconne ctions
Ġgrand e
h i
Ġpurch ase
Ġline ar
ĠAnd roid
à¤ ¾
ĠAl g
Ġla v
ĠHe alth
ĠDis c
Ġm ill
we ight
D O
Ġmod Ã¨
Ġper ce
ĠImp lement
Ġd ar
ĠL os
è¦ ģ
Î ¼
Ġc m
Ġl ab
ĠS an
Ġw ife
lic ation
ĠF orm
ĠÑı Ð·Ñĭ
ch ar
Ġprote in
Ġsull a
htt p
Ġagrochemical s
( input
Ġb er
Ġg ave
Ġv ia
Ġch air
w ise
Ġfor ces
Ġs ulf
Ġd ance
Ġcontain ing
Ġein en
Ð¾ ÑĪ
Ã¡ tic
ĠPres ident
Add itionally
Ġl oro
ĠÐ¿Ð¾Ð» ÑĥÑĩ
cess o
xi ety
Ġdeliver y
gr ad
( Ċ
Ġan che
ĠCon f
p ress
Ġenc oura
ĠS un
hor us
Ġt eng
ĠIn s
U N
Ġconc ise
w a
ĠAl Ã©m
Ġb g
land s
ĠT ype
Ã¨ s
ĠU sing
Æ °
eth od
Ð¾Ð²Ð°Ð½ Ð¸Ðµ
ĠW est
ĠÐ± Ð¾Ð»ÐµÐµ
ÑĥÐ»ÑĮ ÑĤ
Ġget s
l ines
z ie
and s
Ð´ Ðµ
i op
v il
ĠG reat
ell s
Ġus ando
Ġant es
Ð°ÑĤ ÐµÐ»ÑĮ
le y
ur ch
Ġent ity
Ġman e
re c
Ġrecurs os
Ġdes arroll
Ġapp lied
Ġhydro chlor
ent i
B C
ÑģÑĤ Ð°Ð½
Ġcho ices
ug ar
Ġsp ark
id get
Ġpartic les
en as
Ġmov ies
ĠÑıÐ²Ð»Ñı ÐµÑĤÑģÑı
Ġredu ction
ustom er
Ġdef ines
ĠCl oud
Ġg ibt
[ "
Ġpol ice
ĠÃ© gal
Ġdat etime
r an
ĠÐ¾ÑĤ Ð²ÐµÑĤ
Ġreve aling
Ã© l
ph one
Ġdel icious
Ġg ently
osit ory
iz ado
Ġbott om
Ġpatient s
Ġd Ã©c
ÃŃ as
ĠA tt
ĠM any
Ġt am
Ġperson a
Ġs ides
ol f
Ġappro aches
Ġold er
( b
C horus
ĠPl ay
Ġno ise
ĠCom put
Ð¾ÑģÑĤ Ð°Ð²
Ġmo ved
Ġsoci et
Ġcollabor ation
Ġrobot s
Ġunc ertain
Ø§ ÙĨ
ĠÐķ ÑģÐ»Ð¸
ue go
Ġimp lications
. res
Ġmar gin
ar se
reb be
is er
Ġk om
Ġdefin it
Ġin n
ĠN ow
? "Ċ
Ġscient ists
ĠTechn ology
ĠR ec
Ġrelig ious
Ġnecess arily
ĠÑĦ ÑĥÐ½
S ome
ĠDes ign
pe ed
Ġdet ection
Ġcapac ity
Ġsumm ar
æ Ĺ
Ġb ow
Ġcamp aign
amb da
Ġass ets
et ch
Ġpub l
af e
Ġst yles
Ġfun Ã§Ã£o
Ġpod r
em po
U I
Ġro ll
ĠÐ¿ Ð¾Ð·
ĠÐ¿ Ð¾Ñģ
Ġ à¦
Ġs ad
Ġpow ers
Ġwat ched
Ġe fic
M e
Ġac compl
ĠÐº ÑĢ
ri p
F irst
ra v
stand ing
ĠMan agement
ĠA pr
ĠEx per
ĠÐ¿ Ð¾Ð½
Ġcu i
ĠU ser
Ġtu o
Ġë §
HER E
Ġre aches
z er
Ġfier ce
Ġout comes
ter ior
_m argin
-re newable
ĠM ax
Ġmag ical
ĠPl an
.d raw
Ġcult ures
st d
ell es
ĠcÃ³ mo
ĠÃ©gal ement
Ġpr on
Ġcompet ition
ĠÙĪ Ø§ÙĦ
Ġfix ed
ë¦ ¬
Ġ( '
Ġcre ar
Ãº s
Ġdri ver
Ġ ÙĬ
Ġcompet itive
Ġlabel s
© ëĭĪëĭ¤
Ġprodu ces
Ġmarket s
Ġfon ction
ĠK ing
r ont
Ġintermedi ates
Ġcontrol led
Ġstro ke
Ġmod ified
Ġlay ers
Ġobst ac
Cl ass
Ġ[ "
Ġreven ue
Ġp ure
Ãª s
if orn
est er
Ġpur ified
en v
Ġanswer ing
Ġsent ences
Ġexpect ations
_ text
Ð¼ ÐµÐ½
j avascript
Ġbut t
- old
Ġfin ished
F low
Ø Į
Ġein em
-m aking
×Ļ ×
out e
_ x
Ġhapp ening
Ġdur ante
Ġf illing
Ġresol ve
ec ut
ÃŃ t
Ġgraph ics
æĢ §
ĠT ry
++ )
ĠR em
Ġth or
Ġb rought
Ġent ertain
Ġh tt
Ġregular ly
or king
Ġcons ume
ĠÐ±ÑĥÐ´ ÐµÑĤ
in er
Ġprocess o
Ġt orch
à¥ ĩ
ĠĠ ĊĊ
Ġmod ules
Ġanaly zing
Ġmo ves
As s
red ict
' ex
Ġtra baj
P ara
z t
ur b
Ġent anto
Ġfam il
g ment
r un
as se
Ġmainten ance
Ġkind ness
ach ine
Ġg ard
ĠInd ian
Ġwicht ig
Ġc ette
ĠEx cel
N ext
ac et
ĠÑį Ðº
Ġclean ing
Ġa ider
Ġì ĭ
-st yle
Ġt ong
Ġv end
ra f
Ġspecial ty
ĠF rom
/ to
ĠH ouse
Ġsynthes ized
Ġwal king
ï¼ ģ
Ġdisco vered
_ b
Ġsit ting
E nter
Ġm ens
Ġrun s
Î º
ĠLear ning
Ġlist ening
net ic
Ġd ura
Ġwait ing
Ġt it
Ñĭ Ð¹
Ġsh irt
anc er
Ġlist a
ĠEng ine
ĠP C
ĠP ara
Ġmus cle
Ġfac ilit
o ol
Ġaccess ible
ĠÑĢ ÐµÑĪ
b a
ĠS in
Ġdes c
augh t
Ġp add
ac ional
" :Ċ
Ġcomm ercial
ock er
Ġd ia
ra Ã®
Ġre in
Ġexecut ed
ĠGerm any
Ġamaz ing
:ĊĊ Ċ
S A
Ġpy game
Q uest
ĠE xt
ĠâĢ ĵ
à¸ Ļ
Ġsubject ive
ĠS im
Ġstre t
ĠA ng
Ġaffect ed
Ã³ ria
Ġoff ering
iforn ia
Ġ íķ
Ġa th
ĠQ ual
il ter
ah r
ë ©
am ino
Ġpract ical
B ased
ĠF inal
Ġrecogn ized
Ġposs ono
Ġsu gar
H E
Ġpreg unta
t able
gr oup
Ġm ath
ĠI RA
Ġl uck
Ġapp les
os ing
Ġh ob
ìĿ ¸
ÑģÑĤÐ² Ð°
ÑģÑĤÐ² Ð¾
ĠÐºÐ¾ÑĤÐ¾ÑĢ Ð°Ñı
Ġarous al
/ d
Ġd ign
ĠÏ Ħ
Ġc ogn
ĠÐ¼ Ð¾Ð´
Ø§Ø ³
h ood
Ġvulner able
Ġweapon s
Ġb are
ĠÐ± Ð¾Ð»ÑĮÑĪ
ce an
è ¡
Ġm ort
ig g
Ġout come
Ġp ag
Ġr ise
iz aÃ§Ã£o
Ġdri ving
ne a
Ġchang ed
Ð¸ ÑģÐº
Ġsur f
Ġpres ident
ĠM r
Ġpregn ant
ĠÑģÐ» ÐµÐ´
Ġstake holders
ag raph
ÐµÐ» Ð¸
ĠH and
am ide
( $
Ġcomput ers
Ġembarrass ed
.f ood
cre en
is is
Ġresp uest
h ouse
Ð½ Ð¾Ð¼
iz za
hy de
Ð¸ Ð¾Ð½
ĠC ertainly
m od
\_\_\_\_ \_\_\_\_
or gan
Ġcomp l
Ġmeaning ful
Ġdr ink
Ġgarant ir
Ġsecond ary
N ot
Ġdra wn
le ments
du c
Ġwas h
ul ations
Ġweak ness
P or
Ġfit ness
ĠRuss ia
ĠYou T
Ġan xiety
de hyde
ĠComm un
ĠD u
ÐµÑĤ ÑĮ
os en
Ġemb ed
ÐµÐ± Ñı
Ġh us
Ġsurround ing
ĠI A
s ql
Ġmot ion
ĠCont in
un to
ĠS m
Ġy a
m ap
Ġe cho
ĠDo ctor
u per
ĠN ext
Ð° ÐµÐ¼
he llo
ë Ĳ
ec ause
P erson
i ans
yd r
oc a
Ġse ason
Ġext ension
0 5
L ine
- com
Ġm Ã©t
Ġfr ust
Ġtell s
Ġl it
Ã ĥ
ish ment
Ġthor ough
Ġobser v
Ġrec over
-t un
loc al
Î ¯
ac a
- carbox
Ð» Ðµ
Ġphr ases
Ġch icken
Ġfunction al
Ġdise ases
h ar
ip her
ha ust
Ġex cl
id in
ash ion
Ġbl og
Ġman era
Ġsm iled
oc o
Ġdaugh ter
V erse
Ñĥ Ð±
Ġconscious ness
Ġlay out
Ġarqu ivo
Ġland s
Ġconvert ed
Ġpl ugin
Ġì Ĺ
Ġproced ure
w rit
ĠJ une
-s h
Ġjust ice
Ġd rag
O r
Ġun cle
ide o
ĠL anguage
Ġcosmet ics
ĠE nc
anc y
Ġincred ibly
Ġegg s
i ate
pass word
form ance
é ĩ
ot o
é Ĺ
Ġindic ating
g u
z ed
Ġn ational
lic he
et er
cl ose
Ġcontribut ions
it ors
ill a
Ġmil k
Ġal ive
ad r
Ġatt end
ç ī
Ġb ien
Ġst unning
Ġelectron ic
Ø ®
om a
i Ã¨re
Ġmat ches
Ġenviron ments
Ġcalcul ated
E vent
Ġp hen
ro t
ë Ĥ
Ġfor n
Ġemploy ee
ĠApr il
Ġpie ces
cl ient
ĠPro gram
ĠCal ifornia
.qu it
se arch
Ġfac ed
ĠÎ µ
ĠÐµ ÑģÐ»Ð¸
Ġdesenvol v
ha pe
Ð ĺ
Ġfreed om
Ġest a
Ġembar go
Ġs ix
Ġcomp ress
Ġpl astic
S ince
i ors
ĠU k
ĠDes pite
C D
or row
Ġm id
P r
ĠÐ¾ Ð´
Ġadd s
Ġoutput s
Ġm Ã¡
Ġbel ow
Ġrat io
. W
Ġpel o
Ġstri ke
Ġche cking
pos ition
Ġc aught
ĠÑģ Ð¸ÑģÑĤÐµÐ¼
Ġa st
Ġbe m
Ġtal ent
Ġspirit ual
Å ¾
Ġth read
pe red
ĠB oth
6 5
Ġro b
irect ory
ĠÑĥ Ñĩ
. user
Ġch am
ang es
Ġpl astics
ĠS k
co hol
( S
å Ľ
ch ing
Ġk it
Ġnot iced
Ġl en
c iones
id ay
Ġple as
Ú ©
u ation
ass ion
Ġrel acion
an ish
ĠÐ¼Ð¾Ð¶ÐµÑĤ Ðµ
ĠS ing
pon s
ĠEurope an
Ġan ger
ol tre
Ġminim um
Ġap art
Ġconf irm
Ġtempl ate
Ġp om
Ġregard ing
s k
Ġtremb ling
n el
n am
ĠÐ´ Ð¾
ot ec
op er
Ġcounter p
Ð¸ÑĤÑĮ ÑģÑı
Ġpa ÃŃs
Ġb illion
à¸ Ń
Ġagre ement
erv ices
Ġcor por
et ry
Ġear th
Ġcomm e
Ġd al
Ġconsum ption
Ġexpl o
h l
Ġ AM
ĠC PU
Ġpe e
he ight
ul ated
Ġbro wn
Ġre ward
I P
emper ature
Ġant ib
Ġult imately
Ø§Ø ±
ĠÐ»Ñİ Ð´
Ġwe ights
is che
ib onacci
Ġidentify ing
Ġrom antic
ĠT ensor
ĠW rite
ĠÐ² Ð¸Ð´
ĠA z
-w orld
al ax
ĠR el
lic hen
Ġor ient
Ġmach ines
Ġindepend ent
an ia
Ġcr ime
un ge
Ġsol vents
Ġd ent
. re
_ n
Ġhal f
Ġest imate
ut ter
Ġp ant
Ġreli ability
Ġsignificant ly
Ġche ese
Ġfund s
Ġc art
Ġch arm
Ġfun cion
ĠÐ¸Ð½ ÑĤÐµÑĢ
ĠÐ´ Ð¾Ð»Ð¶
Ġacadem ic
Ġclass ic
Ġment ions
I nter
Ġes col
ĠW ork
ãģ Ĥ
ĠÐ· Ð°Ð²
Ġs ab
che ck
Ġpeu vent
F orm
Ġin ner
oc Ãª
f in
w hite
D ear
ĠIn vest
ici ans
Ġcomp li
H ey
Ġco vered
n ic
Ċ ĠĠĠĠĊ
is ation
Ġremain ing
ve z
im g
Ġajud Ã¡
ib les
Ð² Ð¾Ð´
Ġcontro vers
Ġso il
Ġcom ments
yp es
Ġv it
Ġjo ke
Ã³ w
Ġest ar
b and
all a
- yl
Ġn as
ul s
Ð¸Ð ¶
Ġpl ays
ĠÐ· Ð½Ð°Ñĩ
Ġs ending
Ġthe rapy
Ñĥ Ð²
- th
ë ³
Ġest Ã£o
ag ers
ĠOpen AI
Ġr ig
ud d
ient es
8 00
Ġwor ry
ĠP ost
ĠÑĤ ÐµÑħ
al ysis
Ġc row
iz a
ĠInst ruction
. update
Ã³ g
Ġfas cin
Ġtamb iÃ©n
Ġcre ature
ĠÑĥ Ð²
U ltimately
Ġhapp ened
Ġsw im
Ġse lection
Ġnot es
Ġgra b
Ġfac ility
Ġnumer ous
r ut
ĠCalcul ate
Ġst ars
C re
ac ing
à¹ Ī
p es
act ive
' app
Ġs el
Ġhot el
Ð°Ð¹ ÑĤÐµ
Ġse vere
Ġsignific a
Ġhigh light
Ġbenef it
cha ft
ax is
ut os
âĸ Į
ĠÐ¿ÑĢÐ¾Ð³ ÑĢÐ°Ð¼Ð¼
Ġpro ceed
and a
S YS
! "Ċ
ilit Ãł
åı¯ èĥ½
ĠP ark
Ġsur prise
Ġk il
Ġcall ing
Ġth ro
Ġpack ages
Ġtra v
Ġexp ensive
Ã± a
ãĤ Į
Ġc rop
ìľ¼ ë¡ľ
R eg
Ġre ct
Ġdevelop er
A ll
Ġcre ativity
Ġcomplet ed
Ġbreath ing
Ġresist ance
ĠPract ice
Ġevalu ation
Ġun its
Ġso le
Ġexact ly
Ġl lam
Ġqu eries
Ġad vert
Ġmed ium
Ãº blic
_ button
ĠAmer ica
Ġhe ro
Ġproblem a
- de
Ġcustom ized
Ġw ir
Ġre b
Ġdis comfort
ĠM at
Ġe en
Ġco vers
Ġreturn ed
Ġalg o
Ð» ÐµÐºÑĤ
Ġresol ution
ĠLo ok
Ġ :ĊĊ
Ġqu ando
Ø§ Ùħ
Ġobject ives
ä¸ º
Ġdepend encies
ĠAn aly
Ġintegr ation
ĠYouT ube
us es
Ġra ise
0 2
respon se
Ġp ants
Ġreal izar
Ġdeep ly
: \
ãģĵ ãģ¨
y nc
Ġsimp l
Ġexplor ation
ĠJ ew
Ġf ate
Ġinvest ing
Ġcon oc
Ġleaders hip
Ġn ipp
C E
Ġload ed
agg io
ed eral
Ġwel come
ins ert
Ð°Ð» Ð¸
Ġlead s
ĠÐºÐ¾Ð½ ÑĤ
. j
Ġencount er
Ġdescri bes
est yle
Ġnear by
Ġd ro
rom pt
ĠDes cribe
ict ed
Ġrepresent ed
ìĬ ¤
ĠÏ ĥ
Ġremo ved
Ġattract ive
Ġv ert
Ġthem e
ĠComp any
Ġm Ã©d
Ġad opt
Ġj est
Ġhard er
be it
Ġcon vey
ðŁ ĺ
Ġhy per
g l
-re lated
Ġpr Ã³
ĠIm pro
Ġmot or
ou n
Ġre com
Ġc ities
o ir
Ġte le
Ġver wend
à §
ĠÑģ ÐµÑĢ
R ead
et a
Ġdist rict
ĠInst all
Ġp in
st it
Ðµ ÑģÐ¿
Ġautomat ically
: ",
Ġcrit ic
ĠLim ited
Ġc v
her n
Ġpr Ã©
Ġsort ed
ĠÃ ¤
Ġimp ur
ĠTw o
} ,
Ġsatisf ied
Ãªn cias
ĠV ul
íķĺ ëĬĶ
I V
Ġsp ot
Ġsp aces
Ġcrit eria
Ġinstr ument
ĠÐ¾ Ð¿ÑĢÐµÐ´ÐµÐ»
Ġdiscrim ination
Ġreg ions
Ġchar ges
ĠÐ²Ð¾Ð· Ð¼Ð¾Ð¶
F F
Ġs is
ĠI I
Ġprecis a
v ous
Ġh ips
p ack
Ġse ven
Ġmet rics
Ġrepresent ing
' aut
ĠìŀĪ ìĬµëĭĪëĭ¤
æ ī
ĠPro cess
g t
lu or
ĠÐ± ÐµÐ·
et her
Ġcomp rend
ĠB i
Ð¾ÑģÑĤ Ð¸
ĠGr oup
em ents
ëı Ħ
Ġshow c
ap ital
Ġdiv is
ÑħÐ¾Ð´ Ð¸Ð¼
is play
Ġexist ence
Ð°ÑĨ Ð¸Ñı
Ġdign ity
Ġfore ver
Ġconfig ura
ĠEm p
LM SYS
M an
T O
Ġfl avor
Ġblock chain
P ath
e gr
Ġpeace ful
- cons
4 3
ĠÑĥ Ð´
{ "
Ġobjet ivo
() ;ĊĊ
Ġperform ed
Ġag ents
H i
v t
ĠIm age
Ġpod er
ĠApp le
Ġinteg ers
Ġtong ue
ĠÐ¾Ð± Ñī
Ġchlor ide
Ġb low
Ġrel ative
In put
Ġutiliz ando
ĠM use
Ġsegu ir
Tr ans
Ġint ensity
' ai
ag ram
ĠÑģ Ð¼
Ġc erc
Ġstra ight
ĠN LP
Ġti ene
ĠS ocial
pon ent
ci os
u ing
ĠS te
ĠM i
ä¹ Ī
ĠM ain
Ġcre are
Ġchar ge
tern atively
ĠÐ ĳ
force ment
Ġe ating
/ Ċ
1 20
-b romo
Ġcont rast
Ġsit es
Ġrev ised
pl oad
Ġvari ed
Ã¶ ch
ĠVis ual
ĠmodÃ¨ le
ĠÐµ ÑģÑĤÑĮ
Ġspeak er
Ġrespect ively
Ġt ension
Ġto ler
ĠRe ad
Ġhydro xide
plot lib
qu ery
Ġdemonstr ates
Ġs plit
ĠÐ¾Ð± ÑĬ
Ġt us
ern el
Ġsearch ing
Ġp ages
Ñ Ķ
N ew
ow ered
Ġrole play
Ġhol ds
L og
ian o
\ "
Ġpar agraph
ion ar
ĠR E
ĠF ind
ci pe
ici os
Ġas h
Ġ icon
Ġcounterp arty
ist ent
Ġshow ing
comfort able
Ã¡ tica
Ġfac ing
Ġd iversity
Ġbehav iors
ffect ive
b in
Ã§ os
Ù ī
P A
ĠÐ¿ÑĢ Ð¸Ð²
Ġprop ri
Ġat ual
Ġch rom
ig keit
G o
ĠE nter
Ġst ato
Ġemb race
ĠU s
Ġdur ch
Ġf el
ens ation
Ġheav ily
ateg ory
Ã³ s
Ñĥ ÐµÑĤ
ĠS cience
Ġë ³
Ġfocus es
ĠÑģÑĤ ÑĢ
Ð¸Ð½Ð¸Ð½ Ð¸Ð½Ð¸Ð½
oc ur
ĠHT TP
pr ing
T E
iz ations
Ġmed ication
Ġter ror
Ġot ros
Col or
ï¼ ļ
Ġp ens
Ġb is
Ġs es
ĠB el
ata form
- on
Ġyour s
p us
p ers
Ġass ert
Ġchatbot s
ĠAust ral
Ġì ľ
Ġsur pr
Ġprincip al
Ġanticip ation
Ð¾Ð³ Ð´Ð°
Ġsus p
4 7
ðŁ Ĵ
Ġsed u
ĠÐ´ Ð²
\ x
Ġto do
Ġutilizz are
b enz
ol ving
ãĤ ¹
Ġpl aced
Ġpe ux
Ġf al
Ġlist s
Ġsupport ed
ĠSh ow
Ġde ar
Ġserv ed
ìł ģ
Ġliter ature
ĠP ot
ä ¼
Ġrep orts
Ġtr at
ĠF re
ĠÃ¡ re
Ġperson as
Ġt un
Ġb acter
ĠE in
ĠN on
ord s
ic king
ìĹĲ ìĦľ
Ġmedic ations
ĠP HP
Ġneut ral
> >
Ġma x
p m
Ġhuman ity
er ror
ĠÐ¾Ð±ÑĢ Ð°Ð·
ĠE nd
Ġti empo
Ġed itor
_ y
Ġr ough
Ġenjoy ed
Ġra in
lear n
ĠS pec
ĠE ner
Ġbe i
Ġunder w
H ola
z i
ic ar
Ġun comfortable
ĠG ree
Ġhab it
Ġhaz ard
se qu
Ġw is
Ġrout ine
( i
Ġdata frame
Ġext rem
Ñĸ Ð´
Ġh i
ag ue
\ *
g ent
ĠÐ¿ÑĢ Ð¸
Ġresp ir
P O
19 4
ĠÑĤ Ð¾Ð³Ð¾
/ NAME
est e
. n
Ġtem por
Ġimpur ities
( c
4 6
Ġp uss
w ort
Ġm er
Ġb rief
Ġball s
C hat
Ġle aves
at in
ĠThe ir
Ġver d
re al
Ġthe rap
Ġperform ing
Ġk on
Ch ange
us ername
" ).
Ġre con
Ð°ÑĨ Ð¸Ñİ
à¸ ģ
X X
Ġcon ven
Ġk m
Ġmuit o
ĠTensor Flow
w hile
Ġsurround ed
un c
Ġir rit
) `
ĠÑĦÑĥÐ½ ÐºÑĨ
Ġengine ers
Ñ Ĺ
Ġcharacter ized
Ġout line
Ġpr ison
Ġaut onom
Ġ\ Ċ
u j
ÑĤ Ð°
ĠA ug
ĠSt ate
ĠS ur
cul es
. org
cul o
Ðº Ð¾Ð²
Ġm iles
Ġdefinit ely
ag en
Ġcont en
Ġsh ip
Ġha i
Ġclust er
iop hen
ÃŃ veis
Ġgener ates
Ġemphas izes
Im age
ãģ ĭ
Ġcomb ined
Ġn ar
ok es
Ġfl ag
Cl ient
ï¿½ï¿½ ï¿½ï¿½
Ġrep ository
Ġì §
Ġsuccess fully
à¹ ī
Ġex haust
Ġne ck
Ð¾Ð± ÑħÐ¾Ð´Ð¸Ð¼
Ġinte ress
é Ģ
Ġmist akes
Ġvol t
0 3
Ġap enas
Ġel imin
Î ¸
Ġre nt
ĠO ut
il o
pt ember
áº ¡
b ru
Ġthe ore
Ġorig in
ant ed
_ to
ĠB rit
W hile
Ġpl ataform
Ġpo ol
Ġdec rypt
ĠStud io
Ġarri ved
Ð´Ð½ Ð°Ðº
cont ent
Ġoc curs
< div
äº º
vent ional
- H
Ġw ire
Ġredu ced
Ġlo an
ĠÐ½Ð° Ñĩ
m i
fic os
F alse
Ġy ellow
---------------- ----------------
Ġal cohol
Ġconfig ur
Ġcy ber
Ġt ensor
in c
Ñı ÑĤÑĮ
ãĢĤ ĊĊ
ener ate
ĠM iss
ĠSe curity
ĠÐ¸ Ð³ÑĢ
ugg ing
Ġtien es
r is
T orch
ĠÑĢ Ð°Ñģ
." ,Ċ
or ious
Ġprepar ation
Ġdomin ant
: **
Ġelectr ical
Ġsign s
Ġclass ified
um m
l ie
ĠÐ ĵ
Ġle mb
Ñ ĳ
Ġp ix
ort ed
Ġspe aking
Ġre n
Ġlabor atory
Ġhabil idades
Ġgr in
å Ĵ
Ġveget ables
k er
Ġdream s
Ġreag ents
Ġco oking
ch ied
ĠA qui
ĠE d
Ġcomb in
P er
_ date
ĠM arch
Ġgr an
z o
Ġposs ess
Ġl ugar
Ġbibli otec
Ġpos it
à¹ Ģ
Ex pl
Ġinteract ive
Ġdep artment
ch i
un s
Ġaccount s
a ws
í Ļ
ĠÐ¿Ð¾Ð¼ Ð¾Ñī
Ġcapac idad
' a
in fo
Ġspe ct
ĠIm port
ÑįÑį ÑįÑį
ĠBl ack
Ġp Ã¡
Ġpre cursor
Ġcommun ic
ym ers
c ule
Ġins urance
Ġframe works
ĠÑħ Ð¾ÑĤ
Ġsp ending
Ġprim arily
Ġmechan ics
em Ã¡s
ĠÐ¿ Ð¾Ðº
Ġpubl ished
it as
Ġt ill
ĠL eg
ĠÐº Ð¾Ð»
Ð¸ÑĢ Ð¾Ð²Ð°ÑĤÑĮ
Ġc ual
ãģ į
Ġj son
e cho
ĠÐ·Ð°Ð´ Ð°Ñĩ
ri or
ĠIndust ry
f as
ica Ã§Ã£o
Ġbatter y
ĠÐµ Ðµ
Ġs int
el es
ect or
ic iÃ³n
ĠU K
ãĥ¼ ãĥ
à¤ °
Ġse le
Ð´Ð½Ð°Ðº Ð¾
gre es
ay out
Ġt orn
8 5
M od
Ġacid s
Ġfab ric
Ġcomp rom
ĠIn itial
Ä± n
I F
k l
Ġcal m
Ġâ Ī
he m
Ġw aves
Ġcon cl
ĠSt ring
Ġmo ist
ĠF ROM
Ġchem ists
B o
ĠÐ¿ÑĢ Ð¾Ð²
T H
Ġrespon der
ent y
Ġoff ered
ĠBit coin
Ġch osen
ating s
ÐµÑģ ÑĮ
in ner
Ġsy n
Ġ! =
Ġglow ing
h ab
row s
ĠÑĤ ÐµÐ¼
Ġoppos ite
Ġof ere
Ġlet ting
Ġstre et
ĠBus iness
Ġplay ful
ĠÐ¿ÑĢÐ¾ ÑĨ
ĠA ir
Ġmo od
ene w
Ġpol l
âĸ Ī
Ġn ie
est amp
amp ions
Ġabs ol
Ġabs or
quin oline
in ity
Ġin e
ÐµÐ¹ ÑģÑĤÐ²
Ġdin ner
Ġat om
O ption
i pe
y a
Ġr Ã©s
s udo
Ġnod ded
Ġ ,
l ock
em on
ãģ Ĩ
Ġtrans ition
Ġreview s
ĠFl ask
.p ath
Ġpuss y
ĠÐ· Ð°Ðº
Ġl ub
ĠÐ² Ð°Ñģ
ist ance
ia is
Ġrec ip
Ġforne cer
Ġst ack
Ġass et
T itle
U LL
Ġpul led
est ed
ĠA f
Ð¸ Ð»Ð¸
sh ine
m ark
ĠS ervice
Ġf an
l ife
Ġtext ure
Ġart ist
Ġpig ments
if ique
ĠÐ½ ÑĥÐ¶
ak er
Ġded ication
Ġcateg ory
D P
Ġo h
Ġiter ate
form at
ĠÐ¿ÑĢÐ¾ Ð¸Ð·
Ġf est
( df
ch t
ĠD ec
Ġt or
Ġj u
Ġphot os
Ġr ic
iss ance
val ues
Ġ: =
Ġgrav ity
âĶĢ âĶĢ
ur as
ĠN orth
Ġm ast
ĠÑģÐ² ÑıÐ·
ĠL og
Ġë ĮĢ
ÑĦ ÑĦ
g ot
ĠInt ellig
Ġauthent ication
f ast
h and
Ġf ert
Ġdat i
Ġconst raints
ĠJ uly
Ġgu ard
Ġp Ãºblic
o in
on ed
ak t
Ġident ified
ient os
lor o
ĠPy Torch
Ġfound ation
Ð°ÑĤ ÐµÐ»
Ġinstit utions
et Game
Ġì ĺ
ĠSp anish
Ġse cre
Ġint im
Ġs ul
et e
r ament
Ø µ
It em
Ġw ound
k i
ĠÐ¼ÐµÑĤ Ð¾Ð´
Ġsc an
ul ating
Ġsubst ance
ĠÐ· Ð½
Ġac qu
Ġenc rypt
Ġcompli ance
Ġdisplay ed
Ġw it
ĠZ e
ang ed
ĠOb ject
Ġacc el
Ġattribut es
ÑĢ Ð°Ð±Ð¾ÑĤ
Ġê ¸°
s is
el se
ch at
Ġst ere
A PI
at as
is i
6 00
ha i
Ġalgum as
Ġash amed
po on
Ġk ill
" ]
od er
A ction
Ġd od
ĠT ur
Ġf are
Ġh ous
is co
iss ive
kn ow
EN T
Ġhum ili
ĠM aterial
Ã¤ n
Ġr h
Ġincl usive
Ġcit iz
re me
Ġtransform ation
Ġal ta
ĠUn ion
Ġdem oc
Ġv or
og a
Ġp ython
Ġlif estyle
Ġfood s
Î¿ Ïħ
Ġopp on
Ġcirc uit
? ",
h rop
as ion
ĠA ND
Ã¡ n
Ġvibr ant
Ġh osp
Ġnew Direction
.s how
19 5
Ġsistem as
Ġrecord s
Ġc ab
Ġproporcion ar
ĠÐ¾Ð± Ð»
Ġec os
m ax
Ġobstac les
T e
Ġinstall ation
Ġag gress
Ð°Ð½ ÑĤ
Ġsee ing
Ġloc ations
O M
ĠFace book
ĠÃº til
Ġev il
ĠÐ´ ÐµÐ»
ĠÐŁ ÑĢ
Ġmole cules
ĠAPI s
ĠF ire
Ġnut ri
Ġc oup
cl ick
Ġmulti pl
f ix
Ġreach ing
6 7
. e
Ġconst ru
Ġe ase
Ġenvironment ally
Ġh ier
Ġmet ers
Ġde grees
mer ce
ĠÙģ ÙĬ
re l
Ġaff ection
art i
ning s
Ġl ux
Ġthreat s
Ġspecif ies
æ Ŀ
ĠÐ½Ðµ Ð¾Ð±ÑħÐ¾Ð´Ð¸Ð¼
I ch
Ġ ice
åĴ Į
ĠM aster
S P
Ġm ouse
Ġaut or
Ġmit ig
Ġme at
Ġapp s
ĠIn cre
Ġmo ons
ra it
k et
Ġtu a
el n
Ġn ach
v ised
az e
con nect
Ĥ ¨
Ġarg ue
in em
Ġprotect ive
unt os
er ial
Ġdatas ets
Â ¡
åľ ¨
ĠP ok
ser v
Ġdom est
Ġcir cle
oss ible
ì ĥ
Ġobject ive
Ġel a
u ber
od ay
Ġent ities
Ġbr anch
Ġl yr
Ġsp here
ĠÑĤ ÐµÐºÑģÑĤ
Ġc ards
Ġg ift
if orm
ac c
. y
jo in
ĠÐ²Ñĭ Ð±
Ġaff ord
Se lect
ĠR oman
Ġneigh bor
Ġz ur
Ġprotocol s
ĠIs lam
Ġs ke
C A
Ch apter
Ġrelig ion
aa aa
ra ine
11 1
ĠSe ptember
Ġse ctor
Ġserv ers
Ġw all
Ġcontinu ous
¬ ¸
Ġf iction
Ġwe igh
ÐµÑĤ Ðµ
Ġtw ist
enew able
m ation
Ġcompat ible
play er
ĠIdent ify
Ġshe ll
ĠÐŀ Ð½
Ġpercent age
Ġrep air
Ã± os
ĠÐ²Ñģ Ðµ
Y Y
Ġdesenvolv imento
Ġdire ctions
urt le
Ġcont ra
Ġpo or
Ġjob s
Ġhas h
Ġown ers
h us
ĠUp date
ĠP at
Ġdis h
Ġiniti atives
u ciÃ³n
pe ech
_f rame
Ø ·
Ġint imate
Ġcontrol s
Ġse ja
Ġne ur
.c sv
roll er
Ġp ra
im er
ĠP M
Ġo vers
Ġr ing
ĠÐ¿Ð¾Ð· Ð²Ð¾Ð»
p g
rand om
ĠO f
ðŁ Ķ
Ġvict orious
Ġcert ific
ĠRe f
ĠDevelop ment
Ø§ ÛĮ
epend ant
Ġpropos ed
Ġ& &
Data Frame
Ġb old
em ple
Ġadminist r
Ġf ashion
ĠÐ¿ Ð¾Ð²
Ġcrypt ocur
ë ²
Ġlemb rar
Ġcogn itive
å ¼
ib ilities
Ġs ac
ed ia
Ġdescri pt
( -
f ind
ess e
Ġme al
ĠM o
vent ion
ĠA riz
Ñĥ Ð³
) p
.. .Ċ
Ġmus ical
Ġan Ã¡l
t hen
Ġtra cking
Ġclaim s
âĸĪ âĸĪ
-st ep
ament os
Ġread er
Ġsh ot
Ġshe et
ĠĠĠĠĠĠĠĠ ĠĠĠĠĠ
L A
pro duct
Ġintrodu ced
Ġfant asy
Ð¾ÑĤ Ð¾Ð²
ÑģÑĤÐ°Ð½ Ð¾Ð²
Ġs out
Ġgener ar
à¥ į
ri ver
Ġ( Ċ
li k
Ġtem a
Ġbus y
.t itle
ĠÃ ¶
Ġdistribut ed
( a
Ġem erge
Ġcre am
Ġel if
ord ers
Ġacc ident
Ġê° Ģ
oc al
vers ion
4 1
oc king
Ġincreasing ly
Ġher b
Ġprint ed
Ġappro ached
G ood
Î ¬
Ã© ri
Ġstud ied
Ŀ ¼
L T
Ġh ur
m ber
ĠCh ar
pon d
Ġoper ates
am i
á» ĥ
Ġaut o
Ġtre in
n ement
ĠCon nect
Ġsupp lier
B A
y ect
Ġgra ce
Ġun f
hes is
Ġl ose
' ĊĊ
ĠI SO
Ġanalyt ics
i endo
at abase
Ġbre aking
Ġpel a
ent ral
Ġla pt
i per
Ġhe t
ĠÐ¿ Ð°ÑĢ
b ase
Ġa qui
Ġfore ign
: </
ĠÑģ Ð°Ð¼
Ġk an
Ġpa id
Ġman aged
Ġdis cipl
ĠÐ½Ð° ÑĪ
ĠB ar
Ġem issions
ativ os
Ġcr Ã©
Ġsh adow
ĠR un
Ġenem ies
Ġad equ
Ġprom ise
Ġcandid ate
al dehyde
Ġcons ists
Ġinvol ving
an za
Ġcons ens
Ġcar s
Ġcomp ly
alle l
Ä Ľ
éĹ ®
Ġvalid ation
Ġphot o
Ġê² ĥ
ĠÐ¼ ÐµÐ½
Ġcorre t
Ġk tÃ³
Ð¾Ñģ Ñģ
Ñĥ Ð¹
Ġm ic
Ġimpact s
kt op
ë ŀ
ath y
0 6
d ir
Ġbu ff
ro g
Ġus ername
Ġcr im
ant ly
vant ages
os o
ri ors
7 7
= {
av ia
i ere
Ġà¤ ķ
. Label
ĠpÃ¡ gin
ĠÑĦ Ð¾ÑĢÐ¼
ĠMuse um
č Ċ
Ġrefer red
Ġthere fore
Ġ{ "
!" ĊĊ
Ġreport ed
Ġflex ibility
N S
and e
y ou
ĠW ord
um es
Ġc ipher
Ġobjet o
ĠP al
Ġb order
Ã¢ ncia
Ġre volution
Ġcomp ort
Ġlands cape
Ġn i
em e
Ġincred ible
Ġfer rament
W ell
ĠT er
Ġfru it
IN G
Ġh orm
Ġserv i
Ġver ify
Ġs izes
Ġes per
· ¸
for ward
ĠP vt
ft ware
Ġcomp assion
Ġhor iz
Ġcont e
j our
Ġstar ring
ä» Ģ
ist o
ke ys
Ġent ry
ĠÐ° Ð²
ç »
t ag
Ġproduct ivity
Ġrac ist
ĠB ay
ĠÐ¿ Ð¾Ð¿
Ġbuild ings
ĠVul pis
ĠE lect
Ġtr ouble
Ġfin ish
ĠÑĢÐ°Ð· Ð²
Ġcur ve
Ġsig u
ĠÐ¾ Ð½Ð¸
Ġexpress ed
Ġun t
Ġfail ure
Ġs ido
Ġcour t
Ġ" "
P oint
Ġest Ã¡s
ìĦ ±
Ġst ick
ĠÐļ Ð°Ðº
ĠÙħ ÙĨ
Ġayud ar
u ary
Ġeduc ational
ë °
Ġturn s
DS M
E st
Ġcertain ly
re quest
ĠÐ² Ð½
ĠlÃŃ nea
ĠProduct s
Ġarch ivo
Ġle ur
Ġstere ot
_t ime
Ġpict ure
Ġvag ina
Ġdes de
Ġmis chie
Ġestim ated
ĠRe al
ron ic
C ount
r ateg
Ġm ur
Å ¡
Ġbelie f
lo at
Ġpass age
Ġw ra
Ġdec or
Ð ľ
st yle
ÑģÑĤ Ð°Ð²
Ġcult ura
val id
Ġlight ing
u Ã§Ã£o
Ġre cipe
> `
S c
Ġbl ocks
Ġpol ymers
Ġprof ile
S et
ĠU ltimately
Ġk ids
ĠWith out
Ġh Ã¡
Ġr ide
Ġmole cule
ĠR o
ĠO kay
qu ier
ĠÑĩ Ð°ÑģÑĤ
ÐµÐ½ Ð¸Ð¸
alax y
_ NAME
aut ions
ns el
Ġear ned
ol s
ens ional
ĠÐ¾ Ñĩ
Ġmejor ar
ĠM achine
Ġex cess
i ot
Ġd ot
ĠS E
- end
Ġcomp os
Ġs ÃŃ
w idth
Ġval ores
Ġprod ot
Ġpain t
ĠgÃ© nÃ©
Ļ Ģ
By Id
Ġtod as
G r
Ġf usion
Ġra ised
Ġvi ene
Ġstrugg le
Ġcamp o
ìĭ ľ
ist ical
Ġis land
ot ion
Ġun o
Ġtemper atures
( root
ĠSt re
eren ci
pl ays
Ġest ud
Ġown er
Ġl oud
Ġn ue
Ġ Ùĩ
ĠD ay
a ix
Ġag ree
Ġinter view
Ġmechan ism
Ġnipp les
Ġex ists
ĠIh nen
.food Obj
ith ium
t ra
Ġcur ves
Ġpo is
ach ing
Ġpoly mer
S p
f ra
ĠÐº Ð¾Ð´
Ġp ed
Ġbas is
' util
ush ing
Ġinter action
Ġem oc
ĠR AM
ĠÐº Ð»
ri er
Ġke pt
ĠRes ponse
å º
Ġab er
à¹Ģ à¸
Ġmus e
Ġf ÃŃs
ĠAc cess
Ġcy cle
ut hor
Ġdivid ed
Ġn et
Ġn uest
Ð¸ ÑĦ
. \
Ġcan t
Ġpou vez
Ñı ÐµÑĤ
Ġfa ire
ĠB ras
q rt
ä»Ģ ä¹Ī
Ġkey words
ĠM ag
Ġal iment
ĠÐº Ð°Ð¶Ð´
iron ment
Ġsign als
( N
5 2
ÐµÐ½ Ð¸Ñİ
ÐµÐ» Ð¾Ð²
Ġfriends hip
ĠC lick
Ġder ived
un te
Ġcl in
Ġprocess ed
up le
Ġe p
p ost
he et
Ġw he
S ize
og raf
Ġdet on
( NAME
mat ory
Ġexerc ises
con fig
Ġdiscuss ing
Ġpack aging
Ġassum ptions
ĠCur rent
Ġunder ground
Ġ\ "
ĠtÃ©cn icas
Ġp Ã¥
Ġst o
. print
Ħ ì
Ġens ures
a ire
ĠNetw ork
Ġcur s
Ġstudy ing
lam matory
Ġdir ty
Ġeven ing
S ervice
Ġkey word
ÑĥÑī ÐµÑģÑĤÐ²
Ġtransform er
is o
Ġachie ving
" NAME
m t
ĠÑģÐ»ÐµÐ´ ÑĥÑİÑī
r ange
.f ind
Ġbe ings
ur g
ĠMon itor
Ġfra ud
ib il
Ġthe rm
Ġvict im
é ¢
Ġn ur
ant i
bi ased
c co
å Ĩ
Ġsuc ceed
Ġbott le
Ġfl at
P re
Ġeng aged
ĠA uto
- Ch
ĠN ode
Ġattempt ed
Ġreport ing
ä ¾
Ã¼ h
Ġaim s
K E
Ġgirl friend
Ġelectric ity
Ġinn oc
Ġhandle KeyPress
Ġent ender
Ġimag ine
olog ies
ĠU m
) );Ċ
ĠÑĨ ÐµÐ»
c os
ĠEst e
ig ger
Ġcateg ories
og ram
Ġsh arp
ĠK ey
ĠB DSM
Ï ī
Ġl in
Ġmem or
P ar
Ġsp ort
iz i
ĠAz ure
Ã¡ veis
ic ip
ic ian
ag ens
st ract
Ġc el
um ps
AL U
Ġfac es
Ġstre ets
Ġqui et
Ġs ick
Ġsc ope
Ġsupport ive
Ġs an
Ġra pp
Ġele g
Ġemot ion
Ġw alls
Ġun biased
Ġkeep ing
_t est
raz il
Ġw enn
as i
ic ol
ĠG re
ãĤ ¤
Ġconflic ts
Ġweakness es
Ġesc rit
p u
Ġst ores
ĠÐ¼ Ð¾
ĠS ince
Ġserv es
Ġang le
Ġtom ato
ĠÐ½Ðµ ÑģÐº
Ġaware ness
Ð¸ ÑĢÑĥ
ĠÐ¾Ð± ÑĥÑĩ
ret urn
Ġvis ible
ĠPol ice
h ich
Ġemerg ency
c at
Ġord ers
ĠÐ¾Ñģ Ð½Ð¾Ð²
Ġbr ighter
Ġimp ossible
ab a
Ġsh ift
åĬ ©
_ value
ĠR T
r um
ĠW hy
ĠJ an
Ġsegur anÃ§a
ĠE val
Ã ½
ĠS al
ĠW hether
Ġ` <
gr id
Ġill ust
Ġsocial ly
Col l
Ġobtain ed
Ġpro yect
Ġs elling
Com p
ibr ary
m as
ä ¿
Ġre ly
Ġmem ories
Ġtut orial
ĠR ust
Ġlog in
um ing
Ġcur ios
Ġoptim al
Ġen ds
ĠÐ¾ ÑĢ
Ġpot rebbe
A cc
å ĳ
ĠN umber
Ġdig it
Ġconsider ation
if i
Ġb atch
ë Ŀ¼
Ġc her
Ġbre ast
uto ff
a ux
Ġd ich
Ġf Ã¶r
Ġopen ing
Ġd ates
Ġcon na
ĠP a
ĠD ist
ĠB re
Ġfl ight
rid ge
ĠÑĥ Ð»
ek t
th is
Ġvers ions
Ġëĭ ¤
omet ry
el ess
al id
Ġopin ion
ĠPro du
Ġmus cular
Ġdiscrim in
Ġfamil ies
] :Ċ
Ġimprove ments
Ġrob ust
Ġform ed
ä¸ Ń
Ñĸ Ð²
Ð¸Ðº Ð¸
Ġg eral
/ m
Ġflu id
Ġlink ed
Ġcor pus
L o
est s
Ġchann els
ig os
ìŀ Ĳ
ĠIntern et
Ġes pa
25 6
iv i
Ġenable d
Ġb urn
-in f
ĠFr anc
Ġregul atory
Ġassess ment
ÑĦÑĦ ÐµÐºÑĤ
Ġh oy
ang ers
' ent
- E
- known
ig t
] )
Ġmult ip
Ġrespect ed
Ġdog s
riv ate
Ġave z
- [
Ġto ward
ph r
Ġmut ual
u ous
ch ron
Ġal ert
f il
Ġgain ed
0 4
C R
Ġrestrict ions
Ġl inks
Ġf is
th ough
Ġpart ir
Ġagre ed
ĠSu per
ĠV ocÃª
ĠO pt
ĠM ia
ĠP ay
ab ul
Ġob t
.js on
ÐµÐº Ð¾ÑĤÐ¾ÑĢ
ad er
ÐŁ ÑĢ
Ġproduct ive
li ers
Ġintellig ent
ĠRet urn
st ate
Ġdest roy
Ġdeb ate
ĠR emember
ram ient
Ġst ir
w ick
Ð°Ð½ Ð´
ĠPar is
Ġsist ers
if act
Ġl ust
im ents
iv itÃł
Ġoper ate
Ġh ide
Ġdis hes
ĠÐ´Ð¾ÑģÑĤ ÑĥÐ¿
Ġlyr ics
Ġgen etic
ig ital
Ġpre u
Ġinform ations
Ġcustom ize
Ġteng o
hrop ic
Ġinc hes
å Į
ĠB r
Å¼ e
Ġexplore d
Ġout do
Ġcod ing
fr ica
R ec
ĠLLM s
c z
ple te
Ġk ernel
y cl
ÐµÐ½ Ñĭ
l ar
ot ing
Ġform er
Ġaprend er
Ġremind er
æĪ Ĳ
Æ° á»
Ġfa ith
Ġr id
Ġcar acter
Ġenerg ia
Ġto wer
Ġw ish
ograph ic
Ġamb iente
ãģ§ ãģĻ
â Ī
N umber
W indow
Ã¨ me
) ^
ab ases
ĠÑĤÐµÑħ Ð½
i ance
Ġaccept ed
Ġst ation
Ġsong s
ĠUk raine
ĠÐ²ÑĭÐ¿ Ð¾Ð»Ð½
Ġposs a
ĠØ ¯
ans ion
à¸ ĩ
Ġunder stood
Ġwhis pered
r s
ap h
ri le
oc ate
Ġwrit er
Ð» ÐµÐ½Ð¸Ðµ
lu oro
P y
Ġc utoff
bers e
P N
Î ³
Ġconduct ed
M I
Ġvolt age
e ur
if ies
Ġint ention
Ġneg ot
Ġdis rupt
Ð² ÐµÑĢ
Ġter rit
Ġal ph
yrid azine
i pping
Ġusu Ã¡rio
ĠSe lect
Ã¡ f
ĠGener ate
r ated
utt avia
Ġscen arios
9 5
Ġher ramient
19 2
ĠBl ue
Ð½ Ñĥ
ÙĪ Ùħ
AA AA
Ġinclu y
. M
/ re
Ġ ig
ĠĠĠĠĠĠĠĠ ĠĠ
Ġcons erv
Ġengage ment
Ġsou l
Ġevol ving
ÑģÑĤ ÑĢÑĥ
Ġt out
Ġpro ve
Ġposs ÃŃvel
æķ °
Ġte lev
Ġpl enty
-p owered
.de lete
( file
Ġintrig ue
Ġv ÃŃ
Ġtranspare nt
ĠpolÃŃ tic
Ġde lete
18 0
Ð¾ÑĢ ÑĤ
ydro xy
U P
ĠOver all
ĠÐ² Ð°Ð¶
Ġcrim inal
Ġì ĥ
ãĥ Ī
Ġsecre ts
Ġsa uce
Ġa qu
. D
Ġsol ub
ÐµÑģÑĤ Ð¸
ç Ľ
Ġh ung
Ġc raft
ĠIn put
ĠN ULL
Ġd oll
Ġexp enses
Ġconfig ure
Ġdiag ram
Ġst om
Ð¾Ð± Ð°Ð²
- per
Ġr ice
Ġhazard ous
Ġke ine
Ġcomb at
ëĤ ĺ
ì Ĥ¬
Ġf uck
Ġprec autions
( {
E ste
iz ada
Ġlic ense
- line
os ph
W idget
Ġinse ct
Ġcual quier
Ġk id
all ow
Ġë ª
Ġreflect s
Ġconsum er
Ġcut ting
ĠF ile
Ġrespons ibilities
ck et
Ġult imate
. DataFrame
i i
ĠÑģ Ðº
o ici
Ġbi ases
Ġla unch
ĠÐ² ÐµÑĢ
Ġcu is
Ġg es
ĠÐ¸ ÑģÑĤ
ĠPe ople
Ġkit chen
Ġagricult ure
berse curity
d b
i est
Ġsurv ive
vil upp
w ide
ĠCl aro
Ġassign ed
i ences
Ġstart up
ut a
ĠD el
as p
ash ing
Ð¸Ðº Ð°
ĠA D
Ðµ Ñī
ĠÑĤ Ð¾Ð»ÑĮÐºÐ¾
ĠÃº n
Ġwid get
Ġembarrass ment
em ble
Ġam or
Ġê ³
cre te
Ġsoft ly
z ioni
Ä į
Ġadv is
Ġy es
ĠÐ·Ð°Ð² Ð¸Ñģ
ĠM al
Ġuncertain ty
¸ ı
ĠP en
. B
Ġdim ensions
Ġex it
åĲ Ĺ
. F
Ã »
Ġbut ter
ĠÐ¿ÑĢ Ð¸Ð¼ÐµÑĢ
-d ri
ãģ Ĭ
ĠÐ² Ð»
Ãº do
Ġrad io
w ater
ĠB razil
Ġpos ible
Ġshap es
ĠCent er
Ġhead er
re qu
Ġpu zz
ĠÐ²Ð¾Ð¿ÑĢÐ¾Ñģ Ñĭ
and er
Ġstrateg ic
Ġauthor ity
Ġ q
Ġbath room
ĠA rab
ĠCon vert
ĠC at
Ġmis under
Ġd ram
á» ĩ
ĠEmp ire
ãĢĤ Ċ
ynt hesis
Ġa le
Ġac et
Ġprotect ed
Ġpow der
A G
Ġsl ave
Ġparticip ate
l ia
n ie
eg er
Ġremo ving
Ġpac otes
end ar
Ġmeth yl
- amino
Ġselect ing
Ġimm une
Ġmix ed
( int
Ġcl ock
az i
25 0
Ġrestaur ants
ĠInitial ize
Ġpre pa
ĠÑį ÑĦÑĦÐµÐºÑĤ
ĠMan ager
L C
Ð°Ñİ Ñī
c d
iz ard
Ġj ak
Ġaccording ly
D on
Ġk illing
Î± Î¹
Ġcollect ed
Ġassum es
99 9
Ġb enz
oub les
pr ice
ÐµÑģÐ¿ ÐµÑĩ
b b
ĠA quÃŃ
Ġhus band
Ġw ur
Ġl ithium
ĠRe view
Ð¸Ð· Ð½
Ġest er
Ġmag netic
.l ength
Ġbal anced
at etime
Ġfind ings
ĠÐ¸Ð¼Ðµ ÐµÑĤ
ĠÐ¿ÑĢÐµÐ´ Ð¾ÑģÑĤÐ°Ð²
ï ¸ı
Ġsn ow
Ġess a
Ġdefin ition
Ð Ń
ĠV ol
Ġb ub
Ġdis plays
å½ ¼
O O
ass word
Ġc ash
ĠÑĦ Ð°Ð¹
ĠÐ¿ÑĢ Ð¾ÑģÑĤ
Ġprint ing
ĠPh armaceutical
Ġadvert ising
ac le
ĠÑģ Ð¾Ð±
ĠPro ject
Ġpress ing
Ġentertain ment
æ °
Ġsh aking
Ġdiv ide
ĠR enewable
Ġmo ans
Ġdefe at
Ġt ie
Ġsim ulation
Ġdiscuss ion
Ġent raÃ®
], ĊĊ
Ġ[ ]Ċ
ĠÑĩ ÐµÐ»Ð¾Ð²
Ġaw ait
Ġorgan ized
. start
] :
em ory
Ġequ ations
Ġempres as
Ġn one
Ġab ord
con tain
ĠS ervices
Ġactiv ation
ĠIn f
Ġret ail
ĠD iff
ĠF ibonacci
Ġj ug
ĠÐ¿ÑĢ Ð¾Ð±
ox ide
ĠBrit ish
é ģ
u h
In s
Ġë ĵ
re ly
Ġbir ds
v ironment
Ġent ered
Ġmechan isms
ëĵ ľ
ĠO s
ÑĨÐ¸ Ð°Ð»ÑĮ
ĠÐ¿ÑĢÐ¾ÑĨ ÐµÑģÑģ
ĠespecÃŃf icas
Ġecos ystem
** **
Ġrespir atory
( text
ab s
Ð¾Ñģ Ð¾Ð±
Ġexpress ions
ìł ķ
Ġmotiv ated
ĠÐ²ÑĢÐµÐ¼ Ñı
æ ł
om y
ĠF un
ĠC ount
ĠH um
Ġrapid ly
ĠÑĥ ÑģÐ»
- day
Ġb ird
Ġreg ression
Ã¶g lich
Ġaut h
ĠF ox
Ġdeploy ment
Ġhtt ps
Ġv ita
10 1
ĠC L
Ġsurpr ised
Ġcl ay
Ġintegr ated
ĠÑĢ ÐµÐ·
Ġ" $
Ã§ as
U s
Ġaddress ing
Ġfant as
Ġdevelop ments
Ġgreat ly
Ġwas n
ìŀ ħ
Ġch apter
Ġnew Head
ĠM ult
. name
Ġaccount ing
Ġprec ision
F ield
ĠC our
Ġdat abases
Ġse aled
iz ione
low er
ĠB ank
Ġexplicit ly
b ol
res pect
Ġcitiz ens
H ub
an i
Ġsp r
à¸ £
C RE
Ġcalcul ates
ë §
Ġl Ãł
ĠAl so
á» Ļ
Ġal leg
Ġtail ored
Cre ate
ĠD E
Ġsho es
Ġadvent ures
ser ver
Ġcomun ic
Ġa just
le tic
Ġcor ner
Ġmathemat ics
ĠExpl ore
Ġsubm issive
an ie
Ġmal icious
d oms
Ġdescript ive
amet er
ĠF ood
enc ial
Ķ ×
Ġg olf
Ġmount ains
j ar
Ġer otic
ĠÐĴ Ñĭ
Ġdemonstr ate
ĠInt roduction
ĠW ho
ĠIt alian
Ġcoordin ates
Ġn ative
Ġconsult ing
k u
id or
Ð¼ ÐµÑĢ
u zione
Ġp ink
ĠÑģÐ» Ð¾Ð²
Ġtell ing
Ġter r
Ġpos e
ÅĽ ci
-s olving
Ġbro ken
Ġavoid ing
C ode
G ener
] p
Ã¡ri as
it Ã©s
Ġl ocked
Ġgrat itude
Ġpr Ã©c
Ġplan e
Ð°Ð¿ ÑĢÐ¸Ð¼ÐµÑĢ
Ġsub mit
Ñı Ð¼
Ġper pet
ne xt
Ġinf e
Ġinvest ors
ÐµÐ¶ Ð´Ñĥ
.rand int
Ġprepa res
ur ther
ãģ ķ
er r
Ġein f
Ġ :Ċ
Ġre verse
ol y
Ã³ mo
O pen
Ġvulner abilities
ĠLear n
5 9
ru ption
ĠSt and
Ġpress ed
Ġpreg untas
S core
Ġst ages
Ġcomp act
ĠIn oltre
Ġoptim ized
Ġhydrochlor ide
ĠÐ¿ Ð¾Ð»ÑĮÐ·
ĠInt egr
Ġcont r
sh arp
Ġo cean
arg s
i ene
Ġemphas is
Ġin ch
Ġimportant es
ĠÑĤÐ°Ðº Ð¸Ðµ
ĠTransform er
Ġsent ir
áº ¿
an ci
ĠÐ¾ Ð½Ð°
Ġexpl ores
ĠÐ¼Ð½ Ðµ
Ġconf ront
Ġlo ves
Ġsuper ior
Ð½ Ñĸ
ĠespecÃŃf ico
Ġ iron
Ġfem in
B est
ici ency
Ġstream ing
å ĵ
Ġa quÃŃ
Ð¾ÑģÑĤ ÑĮ
Ġun known
Ð¸ÑĢ Ð¾Ð²Ð°Ð½
Ġcas a
à¤ ¿
ĠÐ´ÑĢÑĥÐ³ Ð¸Ðµ
ph ones
Ġver ific
Ġgrad ient
Ġcompar ison
_ de
ÑĢ Ð¾Ð½
Ġhor se
Ġca ution
Ar ray
is ch
Ġsu ck
Ð°Ð» Ð°Ð»
ĠAriz ona
ĠA lp
' int
ert o
lo bal
Ġtrad ition
Ġclient e
Ġreput able
Ġderiv ative
Ġdiff Ã©
-n it
Ġback up
Ġex hib
____ ____
umm ary
act ory
Ġpar allel
-b y
Ġt ens
Ġg aming
ement e
è Ģ
Ġphys ically
_d ict
ĠÑĤÐ°Ðº Ð¸Ñħ
et o
ong o
Ġpr icing
Ġinj ury
Ġì ĸ
Ġbring ing
Ġconsider ations
Ġsens ual
un ting
ut ional
Ġhab e
re ction
ed er
ig a
Ġrecord ing
Ġmodel os
Ġsur ve
Ġqual quer
Ġrel ie
num ber
å Ģ
Element ById
9 00
or ient
Ġphilosop hy
a ires
ãģĹ ãģ¦
à¥į à¤
f ound
ĠA void
Ġdiscuss ions
_num ber
Ġtare fas
å ¯
Ġconcern ed
ĠĠĠĠĠĠĠĠ Ċ
empl ate
ĠU nter
Ġt anto
at ography
ĠpÃ¡gin a
Ġsu o
ĠÃł s
Ġauthor ities
yrim idin
ĠN a
Ġconflic ting
I O
íķ ©ëĭĪëĭ¤
Ġfour th
Ġm Ãºs
--- ĊĊ
Ã¤ ng
o pp
å ¿
Ġlog s
Ð Ĳ
ÃŃst icas
Ġte as
ĠÑ ĸ
Ġfut uro
ĠCre ating
ĠÑģÐ²Ð¾ Ð¸
Ġo xy
Ġb ind
ĠE ns
Ġautom ation
c or
Ġthe ories
Ġre nder
Ġqual ified
Ġsedu ctive
Ġw y
Ð» Ð¸Ð²
Ġk illed
Ġelectron ics
- color
A re
u ction
ÙĦ Ùī
Ġmanip ulation
Ġph ase
Ġend ing
Ġconte Ãºdo
ir ts
it able
z hou
Ġsp ell
Ġsim ulate
Ġstom ach
Ġgre et
Ġtem as
Ġpul ling
el come
Ġexpl odes
íķ ł
bru ary
( l
c sharp
Ġext ensive
Ġl ung
Ġvisual ization
} {
chn ology
Ġcent uries
ia ce
Ġr ush
qu ir
Ġann ual
ren ce
ĠÐ¸Ð· Ð¼ÐµÐ½
Ġs iento
ar ante
ĠÐ¸ ÑģÐº
Ġmast urb
_ g
ç Ń
Ġprogram a
.rand om
Ġaccept able
ĠW i
Ġhaz ards
Ġst ocks
y o
à¸ ±
- est
Ġm ich
ol low
ne h
Es pero
Ġb ust
Ġtext iles
": "
ut ure
ec ute
Ġse hr
ĠN ine
Ġcome Ã§
Ġear n
Ġdes pite
£ ¼
Ġ` /
.res etGame
US ER
Ġsens ors
6 8
iv as
Ġem o
Ġele v
Ġprevious ly
Ġsegu int
ot a
Ġvers chied
Ġfra gr
æ ŀ
ĠA frica
ĠP O
qu art
Ġpret ty
Ġdeliver ing
0 7
Ġcateg or
ĠÐ Ľ
ort e
Ġman ual
Ġemp athy
ĠR ob
Ġrepe ated
. k
. to
ëĵ ¤
Ġworld wide
Ð¸Ð½ Ð°
ĠBuild ing
Ġd ensity
Ġcou nsel
Ġs vilupp
ang o
ĠÑĢ ÐµÐº
Ġconvers ion
Ġpresent ation
ĠBras il
. A
Ġs ale
ar Ã¡
ĠÑĤ Ñĭ
g n
i ang
ĠA us
ĠS ave
ĠÐ½ Ð¾Ð²Ñĭ
() ,
Quest ion
.get ElementById
Ġt iss
Ġag ency
w o
Ġprojet o
ĠÃ¤ r
Ġm uy
Ġat Ã©
ĠCh air
Ġë Ĥ
.w rite
Ġcomp art
Ġact s
Ġdep art
ĠCont rol
Ġsav ed
, ,
t ml
Ġgu itar
Ãº de
ay ers
Ġdress ed
Ġdig its
Ġsudden ly
m essage
í ĸ
et ra
Ġmin or
po ints
it ems
ë© ´
Ġt ant
Ġmanufact ure
é «
Ġprotect ing
Ġinclu ir
Ġten ho
ĠÎ º
Ñĥ ÑĪ
Ġv om
ĠÑģ ÐµÐ±Ñı
ĠÑĤÐ¾ Ñĩ
ĠÐŀ Ð´Ð½Ð°ÐºÐ¾
Cont ent
Ġac know
Ġcod ice
Ġfru its
Ġbe re
Ġbenef icial
Ġs ic
iz ers
Ã¼ n
Ġh ate
ad ata
ĠM ac
lo op
Ġcomput ational
O ut
Ġd ut
ĠRep ublic
C an
i ens
Ġqu el
Ġ` -
ĠÑģ ÑĢÐµÐ´
ĠM ark
Ġdod ge
. html
Ġarous ed
iophen e
[ j
ĠV alue
-s cale
Ġprofess ion
ĠChrist ian
-e ffective
Ñĥ Ð»Ñı
anc o
Ġmoment o
Ġbed room
Ġlang age
Ġplataform a
Ġteach ing
m ic
u um
. load
olog ia
Ġpossib ilities
c ut
Ġa pl
ol es
res hold
ve ctor
Ġless on
Ġìł ľ
Ġmount ain
Coll ision
om ethyl
Ġk g
em ail
ë Ł
ĠCan ada
P M
Ġlog ical
_t rain
Ġp izza
ĠÑĩ Ð¸Ñģ
Ï Į
ir al
Ġcompan ions
Ġd ip
Ġfoot print
Ġequ ival
ĠL ight
Ġtransform ed
j am
Ġus ado
ist as
Ġtur ning
. a
Ġcomp osition
ãĤ ĵ
abul ary
Ġking doms
O ur
Ġser ie
Ġest ate
ĠÎ ¼
Ġhyp ot
Ġvir us
Ġrepl aced
ĠIh re
is a
Ġapp lying
Ġstat istical
( new
Ġfight ing
Ġpre process
Ã¼ ck
Ġinc ident
Ġspecific ations
Ġoccur red
ĠAnt hropic
m iling
at to
ĠT rain
Ġtecnolog ia
V ery
ĠO R
Ġë ¶
i Ã³
Î Ń
k o
om o
Ġinf lam
l io
Ø§Ø³ Øª
Ġsc hed
Ġinvest ments
Ġsur g
-dim ensional
ut en
Ġv Ãł
ĠÐ¾Ð± ÐµÑģÐ¿ÐµÑĩ
Ġcomb ine
Ġg erenci
ĠR ace
Ġrespons Ã¡vel
Ġe fect
ÐµÐ½ÑĤ Ð¾Ð²
ĠDet erm
_ key
res se
Ġres et
Ġcap ability
ĠUn ivers
Ġphilos oph
í Ĭ
ĠD er
ÃŁ en
ĠØ§ÙĦ Øª
Ġfe e
Ġdynam ics
ack s
u ent
ĠF ast
å¸ ®
Ġn ous
ĠH aw
ĠW ater
Ġrapp resent
Ð ł
ĠB as
ĠÐ¿Ð¾Ð»ÑĮÐ· Ð¾Ð²
å ī
' e
Ġcuis ine
Ġt ar
Ġin con
Ġn Ã©
ĠM ens
Ġplan ets
Ġpadd ing
tr ue
Ġk icks
Ġalm ost
Ġform al
Ġrespond ing
in ning
Ġmag n
Ġflow ers
D ie
ĠÐ² Ð¾
Ġwid er
ĠInt el
Ġan ime
ĠìĤ¬ ìļ©
( X
Ġgram mar
Ġsum mer
Ġautom ate
Ġf ly
Ġent ren
Ġdecre ase
ig er
Ġprin c
G S
Ġc es
Ġsi ÄĻ
Ġinj ured
8 8
s ize
Ġab and
_c ount
ĠS D
Ġdraw ing
id en
ĠE duc
ĠMiss ing
ĠÃ© ta
âĢ ĭ
Ġterm in
ĠAcc ording
ul er
ĠP andas
Re quest
ĠFr iday
Ġlapt op
Ġhe x
( key
Ġh ref
Ġbi ological
IN T
ic io
Ġs ess
ĠA nother
Ġdis respect
Ġagricult ural
áº £
Ġ= ==
anc he
Ð³ Ð¾ÑĢ
Ġstereot ypes
- L
c ir
Ġrel ief
Ġs le
ÐµÐ½ Ð´
Ġt ries
Ġpract icing
set t
Ġpesso a
-inf lammatory
Ġfe es
irt ual
Ġsole ly
ad der
op ic
op eration
Ġopen ed
rom etry
Ġ` .
. text
Y PE
Ġpal av
Ġmerc ado
Ġë ı
- al
ik i
( my
un i
Ġrep et
ĠÐ¿ÑĢ Ð¸Ð½
s hip
ĠF am
ë ¶
ĠC ome
-tun ing
p ed
Ġab use
Ġbre ad
Ġbas ket
Ġbow l
Ġinterpret ation
ind i
con sole
o ot
Ġag o
Ġfunction ing
ĠAug ust
Ġs ocket
ĠMay be
Ġcur rency
comm od
Ġsuff ering
ĠT amb
Ġfun c
Ġal ien
Con text
Ġcoup le
ol ve
Ð» Ð¾
Ġcontext s
Ġtre ating
ĠTe le
à ®
m ath
E V
ot ive
Ð¾Ð² Ð¾ÑĢ
ag n
ĠT u
Ġon de
Ġco e
ĠAd emÃ¡s
ĠAustral ia
ĠJ our
ĠEner gy
J e
w rite
Ġf ue
Ġpair s
Ġdesign s
5 7
v ari
-m ail
Ġimm ig
ĠFe bruary
. change
ĠÑģ Ð¾Ð´
Ð¸ÑĤ ÑģÑı
_w indow
' .
or age
ist ory
ÐµÐ½ Ð¸
car bon
ĠU I
ĠD ifficulty
Ġte a
à¸ µ
oh n
å ·
Ġf le
ÃŃ c
Ġaddress es
Ġengine er
Ġcontrovers ial
Ġth in
be gin
Ð¾Ð± Ñī
ric an
ÑĥÐ»ÑĮÑĤ Ð°ÑĤ
e urs
Ġdistin ct
_m odel
ĠCO VID
Ġpoll ution
Ġveloc ity
ole an
Ġoverwhel ming
Ġath letic
al ia
ential s
Ãª m
Ð³ Ð°Ð½
Ġpun ches
ĠC rown
Ġreg ards
abl ished
Q U
Ġpresent ed
Ġutilis ant
ĠWar riors
Ġbo ost
Cl aro
Ġsens or
le ts
ĠnÃºmer os
s ch
Ã´ n
ĠÐ½ÑĥÐ¶ Ð½Ð¾
Ġ Ú©
Ġd alla
it rile
eng er
Ð°Ñĩ ÐµÑģÑĤÐ²
J ack
p age
Ġf iss
ap es
ĠCl ass
ĠÐ¸ÑģÐ¿Ð¾Ð»ÑĮÐ· Ð¾Ð²Ð°Ð½
p erson
Ġalgor it
ent er
Ġapp oint
F I
ĠN atural
Ġunder go
Ġvulner ability
ç §
ag gi
B ox
iz aciÃ³n
ĠC y
d it
Ġit alian
Ġsm ell
ĠMy stery
Ġsp Ã©c
Ġ} );Ċ
Ġresum en
ãĥ «
ðŁ ĳ
ĠPh ys
Ġin hib
ĠÐ¼ ÐµÐ¶Ð´Ñĥ
Ġmes mo
ìŀ ¥
on al
Ġb io
Ġog ni
Ġax is
iv ot
ĠO per
ne ction
Ġgu arante
AR T
ĠC ost
19 3
Ġextract ed
Ġhar ness
Ġexcept ional
ag ine
Ġbuff er
Ġdel ay
app oint
p at
Ġn h
Ġtransl ate
Ġcurios ity
ir k
Ġj ump
Ġact ing
net es
ĠPerson al
- ch
. P
Ġs am
ĠÐ½ Ð°Ð¹
ug hed
ugh t
Ġsh ock
Ġincre ases
* ĊĊ
ist em
Ġmass age
ĠÐ¿ÑĢÐ¾Ð± Ð»ÐµÐ¼
ĠÑĥ Ð¼
abet es
Ġb le
s um
Ġmay be
z ens
ĠÑĥ Ð¿ÑĢÐ°Ð²
Ġtag s
ĠmÃ©t odo
( arr
ĠÑĢ Ð°
Ð°ÑĢ ÑĤ
Ġpict ures
ì Ľ
pl ing
íķĺ ê³ł
Ġapp le
Ġf i
uber netes
\ \
Ġs ia
ĠÐ´ÑĢÑĥÐ³ Ð¸Ñħ
f ess
Ġpret end
Ġfor t
Ġla ughed
Ġpl t
Ġm enc
Ġperiod s
ĠÑĢÐ°Ð·Ð»Ð¸Ñĩ Ð½ÑĭÑħ
P G
Ġsexual ity
êµ Ń
h os
Ġpromot es
Ġat oms
Ġour selves
Ð¸Ð» Ð°
' ]Ċ
ar ter
Ġfig ures
Ð´ ÐµÑĢÐ¶
Ġout fit
Ġinfe ctions
O K
Ġan terior
Ġtam per
Y eah
ĠUS A
Ġfulf illing
Ġ\ [
Ġsal ary
Ġpun ishment
é £
ŀ ×
Ġs icher
Ġc res
ĠH i
ĠÐ¼ Ð¸ÑĢ
Ġl ift
anc ia
Ġgard en
Ġex ception
uc cess
ĠÑģÐ¿ Ð¾ÑģÐ¾Ð±
ien za
Ġoxy gen
Ġre de
Ġdes af
Ġdec imal
Ġnarr ation
Ġright ful
Ġcat s
Ġs amples
ÑĢ Ð°ÑĤ
ĠInst agram
Ġmol to
Ġperm issions
Ġlaw y
r Ã©
ah ren
Ind ex
p lease
Ġsupport ing
N et
Ðµ ÑĨ
Ġcl asse
ĠUS B
6 9
Ġste el
ĠKore a
se lect
ÑģÐº Ð¸Ð¹
ĠÑģÑĤ ÑĢÐ°Ð½
Ġh ang
Ġsp an
n h
Ġd ess
om in
Ġde be
ĠC a
Ġmy stery
Ġun iversity
Ġtra pped
ĠÐ³ Ð¾ÑĢ
unt u
Ġb Ã¡s
Ġirrit ation
é« ĺ
Ġto mar
ÑĢ Ð¾Ð¼
Ġparticip ants
ĠOn line
.j pg
ind er
Ġhistor ic
ol der
Ñĭ Ð¼
Ġpush ing
c ell
ĠP o
art s
Ġle ans
Ġver ificar
Ġpest icides
12 8
ĠÑģÐ¾Ð´ ÐµÑĢÐ¶
è ¨
Ġset up
Ġap resent
Ġperm et
Ġsens ations
/ A
Ġp on
Ġm Ã¶ch
Ã¼ t
Up date
ĠAut om
( A
Ġsc ream
." )Ċ
Ġag encies
Ġart ifact
Ġevol ution
Ġaplic aciÃ³n
] )ĊĊ
w ar
Ø £
ãĤ ī
ut er
Ġhist Ã³ria
Ġeth nic
Ġsoc ied
ĠS erver
air s
ÑĢÑĥ Ð¶
Ġh tml
ud a
ãģ ı
Ġsegur idad
Ġtarget s
ĠAs ia
Ġm m
ap ore
Ġf ans
ĠÑģ Ð¾Ð²
ĠÑģÐ¾ Ð¾ÑĤ
Ġsu fficient
Ð°Ðº ÑĤ
ĠBe fore
Ġalgun os
ĠD aten
ĠÑģ Ð´ÐµÐ»
** :
t ical
in th
Ġsol ving
æ Ń
Ġevalu ating
s l
Ġcomput ation
à¸ §
å ¦
Ġest o
Ġexp ort
on th
Ġobt ener
ĠR est
ãĤ Ī
Ġdis k
Ġtreat ments
od ing
Ġdo zens
Ġident ificar
. )
ĠKore an
F ROM
M essage
ĠÐ± Ð»
Ġclient es
T able
og ether
Ġh uge
Ġcontext o
Ġbibliotec a
_ e
Ġfil ms
itial Position
ÑĥÑĢ Ñģ
Ġchrom atography
Ġpre nd
Ġimage m
íĬ ¸
f igure
Ġsurv ival
Ġske pt
M ap
ÐµÐ½ Ð°
ĠÑĤ Ð¾Ð¼
å¥ ³
ĠF lor
0 9
Ġprov en
Ġdark ness
Ġby tes
Ð¾Ð¿ Ð°Ñģ
Ġfall s
Ġf ond
Ñĥ Ñħ
ÙĬ ÙĨ
Ġdiv ision
ĠÑĥÐ» ÑĥÑĩÑĪ
Ġsa Ãºde
Ġhesit ant
ocol ate
ac king
ĠF ocus
er ie
Ġd uration
Ġc aut
ing u
Ġsignific ance
Ġrequest ed
% )
Ġpe ak
nc y
í Ħ
ĠL ife
Ġgreat est
u ct
-p osition
Ġbe at
Ġra ges
Ð¾ÑĤ ÑĢ
Ġcho osing
Ġ> =
ĠD i
Ġper f
Ġest ado
ĠSo ftware
T T
Ġst yl
Ġìł ķ
Ġdiagn osis
E u
qu anto
Ġsh ame
Ġcapac idade
Ġchem istry
Ġtest ed
ÐµÐ½ÑĤ Ñĭ
ĠÐ¼ ÐµÑģÑĤ
7 00
pre ne
Ġf g
ĠB ERT
E X
Ġprot agon
Des cription
Ġpropri et
ĠÐ½ÐµÑģÐº Ð¾Ð»ÑĮÐºÐ¾
Ġp ause
Ġn Ã¥
inter val
Ġresult ado
Ġresult ados
ĠPort ug
. R
Ġdri ven
L U
er os
Ġintrodu ce
Ġcont rib
Ġsuff ers
Ġbacter ia
ĠB ack
' une
Ġincl us
Ġwid esp
Ġdiscover y
Ġwidesp read
Ġ( `
are nt
Ã¡ p
Ġintrodu ction
Ġto y
Ġnar row
ĠGit Hub
Ġgener ator
Ø ²
Ġt act
Ġsu icide
Ġbre aks
Ġpe pper
Ð°Ð½ Ð¸Ð¸
w indow
ä¸ ĭ
Ġen ables
Ġë į
Ð¾ÑģÑĤ Ð¾Ñı
Ġqual idade
Ġinst ances
_ h
Ġus ada
Ġu pload
Ġri ver
ĠCor por
Ġlight s
" ><
and om
it Ã¤t
ed s
M M
Ġnit ro
Ġajud a
ou l
Ġsc ores
Ġread s
_l abel
ÑĥÑİ ÑĤ
Ġbus car
C S
Ġadjust ing
Ġvac c
Ã¼ ss
Ġimpress ive
Ġminim al
ĠÐł Ð¾ÑģÑģ
ĠÐ¿Ð¾Ð½ Ð¸Ð¼
è §
ĠT uttavia
ÑĤ Ð¾Ð¼
Ġrh yth
Ġinterf aces
ĠÑĩÐµÐ»Ð¾Ð² ÐµÐº
d y
Al ternatively
ìŀħ ëĭĪëĭ¤
abe led
Ġo xid
Ġnew found
ìĹ ¬
Ġred es
Ġdeb t
Ġmem b
ĠÎ ±
} }
it age
ĠJan uary
ĠS T
c ies
Ð¸Ð» Ð¾Ð¶
Ġcas ual
Ġextrem ely
and em
Ġent ers
ĠGree k
ÑģÑĤÑĢ Ð¾Ð¹
Ġu pper
ĠĠĠĠĠĠĠĠĠĠĠĠĠĠĠĠ ĠĠĠĠĠĠĠ
` .Ċ
Ġcalcul ations
Ġv os
Ġlib er
eg o
f ield
w atch
ac er
Ġpain ting
Ġlean ed
. is
ort un
Ġmom ents
ĠÐŀ Ð½Ð°
Ġsch ol
Ġmuit as
en en
Ġart ists
Ġel le
ĠÑĤ Ð°
ire ctor
ĠÐº Ð¾ÑĢ
Ġob s
Ø§Ø ¯
Ġent hus
Ġbr ings
ul ing
Ġperm ission
ial e
ĠÃº lt
fr ont
ĠUn ity
Ġtre asure
Ġbrow se
L S
ĠN um
| Ċ
umin um
m arket
Ġmed itation
Ġm ate
od ding
Ġac commod
ÃŃ cul
Ġread ers
j u
Ġrespuest a
ot he
st ell
ud den
ad vantages
emb ered
E M
Ġg ust
ĠO ld
Ġarg s
ĠÐ¼ Ð°ÑĤ
Ġkey board
Ġunderw ear
ĠH ome
ìĭ ł
ĠP rom
ĠTw itter
Ch ar
oun ced
ĠHe ir
me an
Ġnarr ative
Th anks
Ġattra ction
Ġcon ect
Ġpar se
Ùĥ ÙĨ
Expl anation
Ġdescri ptions
C Ã³mo
Ġrecom end
ĠÐ¾Ñĩ ÐµÐ½ÑĮ
ĠÐº Ð°ÑĩÐµÑģÑĤÐ²
Ġlist ed
Ġdrag on
Ġg all
ap se
abil idade
Ġspark ling
ĠPro ble
Ġpack ed
Ġpost s
Ġpsych ological
in en
ab ol
ĠÑĢÐ°Ð· ÑĢÐ°Ð±Ð¾ÑĤ
Ġb oss
_c sv
-dri ven
ep s
ĠHaw ai
Ġd ol
ĠÐ¸Ð½ ÑĤ
Ġst ead
app ing
0 8
Ġmin ha
Ġauth ors
ĠN et
_ type
Ġde ux
ĠEst o
Ġdev ast
ÑĭÐ² Ð°ÑĤÑĮ
Ġcorret amente
Ġeng ines
Ġelect ro
l ass
¤ ĳ
Ġwa ist
ĠC ap
Ġs ans
Ġn ost
ĠÐ §
que e
r ons
Ġp ace
Ġer ro
ĠT ailed
ith ub
Since rely
Ġs pl
all ization
Ġinvent ory
Ġjour nal
B M
act or
ĠB Y
Ġg am
we b
- ex
Ã³ d
unt ar
ĠSS ISTANT
s uch
Ġc oc
ĠÐ³ Ð¾Ð´
Ph one
ĠG en
Ġcolle ge
ĠÐ² Ð·
ĠÐ· Ð´
ĠT re
Ġmin ute
(S miling
Ġconsum ed
Ġperg untas
Ġë° ©
inst all
Ġtherap ist
ct o
Ġser ial
ê² Į
Ġpre st
ĠMy SQL
ĠvÃŃ de
Ġhe aring
Ġwhis per
Ġm ud
Ġn ail
c u
ag s
ĠH an
Ġsy st
ĠÐ½ Ð°Ð´
Ġê µ
ĠE very
ĠÐ¾ Ðº
Ġdeterm ining
Ġsh ower
ord o
A m
Ġc ache
Ġbe ar
ĠO ption
Ġca ress
ĠD ies
ick ed
ĠAn alysis
Ġsal ud
Ġsens it
Ġcr isis
Ġmig li
Ġrecover y
an es
Ġdig est
ĠÐ¿ÑĢÐ¾Ð¸Ð· Ð²Ð¾Ð´
l as
Ġto ys
à¸ ¡
Ġâ Ķ
Ġpor n
ĠM ars
à¤ Ĥ
Ġe f
Ġcorrect ed
Ġvol unte
Ġth ous
Ġbl ank
ĠÑģÐ¾Ð¾ÑĤ Ð²ÐµÑĤ
Ġaggress ive
or se
ion a
Ġaprend iz
Ġaiut arti
ç Ĳ
Ġd Ã©s
ÑĢÐ° Ñī
ĠÑģÐ» ÑĥÑĩ
Ġtoler ance
ĠA v
Ġdent ro
b ility
ĠF ore
Ġcontent ment
.difficulty Label
f a
Ð¸ ÑĪ
ost er
it an
im ientos
C lick
Ġteas poon
ut i
isp iel
comm and
add ress
Ġrepe at
h am
ed ge
The ir
Ġconcent ration
$ {
- axis
udden ly
aus ed
Ġest able
Ġun iform
ĠAr ch
ĠSu pport
i Ã§Ãµes
el ing
ĠM ex
ĠespecÃŃf ica
E nd
Ġun w
here d
lect ual
à¥ Ģ
Ġdomest ic
Ġpro of
ĠP ued
ed y
Ġexplos ives
R I
Ġvis iting
r atic
ĠP os
Ġhead quart
Ø «
ir as
uc king
Ġdeg li
urther more
Ġref erences
ĠA nswer
ĠN ote
ap at
" "
ers ion
Ġdiscuss ed
ĠIntellig ence
gg ing
amet ers
yd rometry
Ġpued a
des cription
b ies
Ġe con
ÐµÑĩ Ð½Ð¾
Ġmir ror
ĠD em
Ġusu arios
Ġmill ions
! ")Ċ
are a
ÃŃt ulo
Ġintegr ity
-carbox ylic
Ġt iny
Ġmatch ing
sc ss
el ih
Ġ( )
ĠComput er
nt e
Ġtrans mit
Ġobjet ivos
uthor ized
Ġforest s
ĠE ss
Ð¾Ð½ Ð¾Ð¼
Ġd il
em bre
Ġres il
Ġra re
Ġyoung er
5 8
Ġb rom
Ġn ation
Ġall erg
Ġext reme
Ġpros per
ĠD uring
ÑĨ ÐµÐ½
Ġcomput e
ĠEn vironment
Ġy oga
ĠB est
Ġcl ause
Ġob lig
Con clusion
Ġwe ars
Ġphilosoph ical
Ġmuit os
ĠT ok
Ġmod ello
Ġth igh
ĠÐ³ Ð»
Ġfall ing
ĠÑģ Ñĩ
Ġcap az
Ġconc aten
el ta
Ġed iting
m ica
Ġconj unto
ab ile
- R
Ġpu oi
ĠCol lect
Ġb ases
Ġintelig encia
Ð Ĺ
at z
ĠÐ¸ Ñģ
ĠCont ent
UM B
Ġwis dom
ou ver
Ġreason ing
i Ã£o
s u
Ġtext s
T F
Ġf Ã¡c
ĠS ales
ĠY ear
Ġhand led
Ġcal idad
Ġhan no
. out
Ġoff ic
or are
Ġpro port
ÐµÑĢ Ð°
Ġar rays
ÑĢÑĥ Ð¿
Ġdest ruction
ÐºÑĢ ÐµÑĤ
elih ood
Ġs ne
iz able
Ġrel aÃ§Ã£o
Ġuna uthorized
St ream
p art
-s u
ĠÐ¿Ð¾Ð¼ Ð¾Ð³
iot ics
-position ed
Ġ/ >Ċ
Ġê ·¸
Ġalgun s
Ġocc up
Ġc ow
per ty
Ġattra ctions
Ġa cess
Ġjo int
Ġrepl ied
f its
Ġpro get
Ġte eth
Ġop ortun
acet ed
' ):Ċ
Ġg ear
ĠL as
ile t
ĠM a
ĠD NA
1 10
5 6
Ġconvers ational
Ġconven ient
id ge
Ð¾ÑĢ Ð¾ÑĪ
Ġtrav Ã©s
Ġfiss ile
Ġactiv ely
å®ĥå®ĥå®ĥå®ĥå®ĥå®ĥå®ĥå®ĥ å®ĥå®ĥå®ĥå®ĥå®ĥå®ĥå®ĥå®ĥ
ogn ition
Ġsulf ur
l ate
le ading
ote chnology
ol ution
-s ize
Ġshort er
T est
ak ers
Ġleg end
Ġvac uum
Ġec st
ill er
Ġz um
.... ....
P ython
Ġt els
or al
Ġstat istics
ĠÐ¿ÐµÑĢ ÐµÐ´
D is
Ġshow ed
ĠdiffÃ© rent
ĠFra uen
ĠB ed
Ġinf ection
ĠH y
Inter val
Ġj okes
Ġexpress ing
Ġwin ning
Ġfil ters
ĠÑĢÐµÐ· ÑĥÐ»ÑĮÑĤÐ°ÑĤ
Ġconsist ently
Â ³
ad s
ere r
ĠH ay
Ġjog o
v ia
ru it
uest o
Ġtransm ission
à¦ ¾
Ġflow ing
Ġin herent
Ġmat plotlib
æ ı
Ġgener ale
ĠÐ±ÐµÐ· Ð¾Ð¿Ð°Ñģ
Ġunt uk
Ġinflam mation
Ġun ter
ra ction
Ġfin anci
ish ing
af ety
De f
Ġc ad
ÑĨ Ð¸Ð¸
Ġlight weight
ĠP arty
ĠSp ace
å®ĥåı¯ä»¥å®ĥåı¯ä»¥ å®ĥåı¯ä»¥å®ĥåı¯ä»¥
av ors
Inst ead
ĠFlor ida
Ġcryptocur rency
.print ln
ĠÑģÐ¾Ð¾ÑĤÐ²ÐµÑĤ ÑģÑĤÐ²
Ġor al
ort hern
Ġr ating
Ġsubst ances
ÃŃn ÃŃn
Ġoverwhel med
ĠÃ© l
} ",
Ġw ine
ĠB ecause
íĻ Ķ
' ;ĊĊ
ĠGes ch
Ġr ust
Ġsh op
Ġbas ics
Ġisol ation
Ġend point
Ġt ast
ĠA R
Ġinter pre
Ġnuc le
ĠnÃ© cess
ĠDisc uss
Ġdisrespect ful
Ġmy th
ind a
Ġder og
ĠTe am
ĠC ore
B S
Ġdep ression
app le
c v
Ġnum ero
Ġinsp ired
- res
Ġtext ile
Ġm ont
Ġsh ut
ĠCol l
r ific
Ġs oph
ĠB ig
ĠÐ¾Ð±Ð» Ð°ÑģÑĤ
C he
Ġz w
Ġtro v
' an
ff e
æĸ ĩ
" ></
Ġtr oubles
" :ĊĊ
H er
ĠC all
ĠÐºÐ¾Ð½ ÐºÑĢÐµÑĤ
B T
e ed
Ġsymbol s
ÑĤÐ¾ Ñĩ
Ð² ÐµÑģÑĤ
Ġdesign ing
Ġinclu em
ĠChe m
Ġe rection
Ð¸ÑĢ Ð¾Ð²Ð°Ð½Ð¸Ñı
è §ģ
ro te
Ġdep icted
Ġc ere
it ting
Ġgo st
Ġhop ing
-com merce
Ġemphas ize
o T
p redict
omet ers
ĠExt ract
Ġmitig ate
ì ĻĢ
st ellen
ĠS il
Ġserv idor
rol og
ãģ§ ãģį
Ġaccess ed
ĠÑĤÐµÑħÐ½ Ð¾Ð»Ð¾Ð³
Ð ¯
Ġc ute
ãĤ ģ
à¤ ¨
Ġpublic ly
entral ized
ĠÑģÐ¾Ð·Ð´ Ð°Ð½Ð¸Ñı
ro c
am l
Ġuns ure
H and
Ġobser ved
Ġab stract
ĠB C
Ġgr ass
Ġcontain ers
Ġcoe fficient
Ġsc r
Ġpast a
ĠÐ·Ð°Ð¿ ÑĢÐ¾Ñģ
ĠÐ¾Ð±ÑĢÐ°Ð· Ð¾Ð¼
Ġencod ing
Ġdim ension
Ġdel icate
Ġcalcul ation
Ġpre oc
Ġintegr ate
Ġoppon ent
f order
Ġcon ventional
Ġme ine
æ Ħ
ĠW HERE
ä½ ¿
O P
kt ion
ĠInst it
Ġbutt ons
Ġderog atory
port s
ĠprÃ³ p
d raw
Ġmas cul
ed a
ĠÑĤÑĢ ÐµÐ±
Ġp ic
Ġhurt ful
z ip
Ġenjoy able
Ġalt ri
izz are
Ġmol te
ĠÐ±ÑĭÐ» Ð°
Ġbomb s
-meth oxy
Ġfil t
. array
Ġfun zione
Ġlav oro
Ġprocess or
- ÑĤÐ¾
f ord
n ormal
in ent
Ġinf er
sh ow
ĠC ustom
Ġutilis er
` Ċ
Ġdis appoint
und en
ĠDe ep
Å¼ y
p i
Ġcontinu ously
ÑĭÐ² Ð°ÐµÑĤ
Ġt f
į à¦
ĠE ast
Îµ Î¹
ĠÑįÑĤ Ð¾Ð¼
ĠKing dom
Ġabsol ute
é¢ ĺ
Ġhab its
Ġpodr ÃŃa
Ġtit les
ativ as
Ġdisposit ivo
m al
× ľ
Ġsh y
Ġsex ist
Ġaccept ance
ĠÐ ¤
Ġcre w
Ġsun light
Ġed ges
Ġel es
Ġvoc abulary
ĠC i
Ġpl ate
IN E
- value
. Game
ain fall
ĠÑģÐ¾ Ð¾Ð±Ñī
h ydr
u is
ì ²
ĠH a
Ġgu er
Ġsmo ke
ĠÑģÐ²ÑıÐ· Ð°Ð½
ent ry
Ġad hes
Ġtrabal ho
à§ įà¦
Ġprinc iple
or re
od ed
Ġfund ing
Ġgold en
.. .ĊĊ
Ġc ub
A ct
c m
Ġt ired
Ġin com
ur l
ivid ades
æľī ä»Ģä¹Ī
ĠD ocker
Ġint ric
Ġinterpret ed
Ġusu ario
Ġsol icit
ĠJew ish
-per formance
i ant
Ġ íķľ
Ġen quanto
ĠF ound
abl a
Ġsimilar ity
E E
Ġa rom
Ġden y
Ġecst asy
Ġe rect
Ġother wise
ĠÐ²Ñĭ Ñģ
Ġaccompl ish
ĠÑįÑĦÑĦÐµÐºÑĤ Ð¸Ð²
un os
Ġprogram m
Ġupd ating
Ġcod es
v os
les h
umb led
ĠC ustomer
Ġentr ada
Ġhosp ital
N LP
Ð ķ
Ĩ Į
he art
ĠÐ¿ÑĢÐµÐ´ Ð»
ĠSo vi
- def
ĠF ine
ok ed
Ġoutdo or
. id
Ġadjust ments
Ġrad iation
Ġofere ce
ĠFranc isco
Ġn n
yl ate
hol der
9 8
ÐµÐ½ Ð¸ÐµÐ¼
10 2
Ġrem embered
Ġref lection
Ġand eren
Ġhydro ly
.ĊĊ ĊĊ
Ġint u
Ġautom otive
- I
A H
_ input
ĠfÃ¡c il
ë ħ
Ġa wards
ans wer
Ġra z
Ġg ases
ĠC ependant
Ġr it
Ġun sett
b ir
ĠĠĠĠĊ ĠĠĠĠĊ
Ġtechnolog ical
Ġglo ves
Ġid i
p an
ĠBit B
å¾ Ī
Ġap ro
Ġsubt ract
em por
ik an
Ġf ell
um a
Ġnecess idades
ĠAn y
Ġmischie vous
ĠG raph
ĠReg ular
Ġverwend et
[ -
Ġt uple
ab ling
Ġfact s
_ index
Ġa er
ant um
ĠRe quest
ie urs
_ P
ĠB et
Ġhow ever
Ġdel ight
ĠT emperature
Ð¸ÑĤ ÐµÐ»
it ure
Ġd ash
ann el
ĠAf rican
Ġmanufacturer s
_ se
Ġp ir
iv ate
her s
Ġcipher text
emb ly
ĠT itle
ĠÐ¾ÑĢ Ð³Ð°Ð½
Ġdis order
Ġend ed
Ġst oring
Ġmemor able
Ġg el
Ġpap ers
Ġt ire
ag o
he x
ra pe
ĠV al
Ġfing er
Ġunsett ling
Y L
ĠW enn
Ã¢ n
Ġf rag
ĠÑįÑĤ Ð¾Ð³Ð¾
Ġl unch
ate ur
Ġìĭ ľ
ÃŃ an
g it
em pre
Ġayud a
Ġmelhor ar
ĠÐ¿Ð¾Ð¼Ð¾Ñī ÑĮÑİ
ĠÐ´ Ð¾Ð±Ð°Ð²
Ġì§ Ģ
ĠH ier
ĠMus lim
Ġmane ira
Ð» ÐµÐ´
ag ues
à¸ ª
å½¼ å¥³
C ur
d ings
Ġcrow d
Ġair craft
ut ral
conom ic
Ġperce ived
or ie
Ð½ Ðµ
Ġfoot ball
Ġm ad
ä¸ Ĭ
Ġb att
ĠÑĩ ÐµÑĢ
ug u
ä¸į åı¯
è ´
ĠC r
ĠD igital
Ġrec ently
Ġbu ying
19 1
rut ura
Ġre phr
ĠS earch
( result
B uild
ĠN OT
Ġfun ny
Ġco ast
Game State
ĠInformation en
ĠBitB ake
Ġbus ca
5 4
um er
Ġport ray
Ġcarry ing
Ð¢ Ð°Ðº
ĠTamb iÃ©n
ign ed
Ġhypot het
Ġs rc
Ġest ou
Ġâ Ĥ¬
Ġdis orders
ĠÐ´ ÐµÐ¹ÑģÑĤÐ²
Ġdist rib
C V
N G
Ġn ails
Ġwilling ness
Ġextra ction
Ġcryst al
Ġte ars
b untu
p ie
ĠCl imate
ĠÐ¿Ð¾Ð´ Ð´ÐµÑĢÐ¶
\ ]
p end
Ġex emple
ĠP ur
Ġacc ord
Ġsigu iente
on de
Ġnetw orking
ĠC R
hen g
. ch
Ġf ought
Ġconfig ured
Ġhyp othes
_l ength
Ġcompet itors
Ġwur de
íĦ °
ĠC EO
ĠØ ´
Ġsc ared
Ġreag ent
Ġar ise
ĠX ML
Ġconstruct ive
Ġservi Ã§os
ĠDeterm ine
Ġpodem os
âĢ ľ
Ã ī
Ġpes quis
Ġlub ric
Ġprof ound
Ġspread ing
Ð¾Ð±ÑĢ Ð°Ð¶
Ġc er
us hes
Ġinvestig ate
Ġdes ktop
Ġdi abetes
uel le
ine craft
ĠK ubernetes
ãģĤ ãĤĬ
Ġthro at
v able
.. ."
Ġaffect s
Ġta k
Ġdisc ount
ĠÐ²ÐºÐ»ÑİÑĩ Ð°Ñı
ĠM ount
" ]Ċ
æ Ĭ
45 6
Ġjed och
Ġco atings
eg ur
ĠÐ¸Ð½ÑĦÐ¾ÑĢÐ¼ Ð°ÑĨÐ¸Ñİ
ĠMarket ing
o is
Ġa cesso
Ð¸Ð¼ Ð¾ÑģÑĤÐ¸
Pro duct
Ġcorrespon d
Ġespa Ã±
ess er
I L
ĠE vent
ĠL ong
Ġg alaxy
Ġrub ber
ap or
Ġentire ly
Ġm ie
ĠQ ue
pec ific
00 1
- off
æ Į
We b
çĶ Ł
Ġalgun as
Ð¾Ð¶ Ð°Ð»
Ġnut r
Ġc ic
Ġg at
Ġfore cast
Ġstay ing
ar c
Ġ( -
.s core
Ġphen omen
= f
Ġfrequ ently
Ġseed s
Ġt ense
Ġche eks
Ġac ces
Ġal uminum
Ġprovid ers
Ġtal ents
Ġ ...
Ġha ck
Ġconsum ers
Ġcru el
ĠÐºÐ¾Ð» Ð¸ÑĩÐµ
Ġp ushed
le an
ro oms
Ġrece iving
Ġsubject s
í ĺ
ĠE la
ìł ľ
Ġsol l
oken izer
â ķ
Ġn an
Ñĥ Ðº
ang hai
Ġsc ent
Ġz e
ÐµÐºÐ¾ÑĤÐ¾ÑĢ ÑĭÐµ
B l
Ġl on
ri age
ĠW ill
ÐµÐ½ Ð½ÑĭÑħ
Ð»Ð¸ ÑĨ
Ġmult if
ĠÐ¿ÑĢ Ð¸Ð»Ð¾Ð¶
ain ing
W here
Ġm ater
Ġattempt s
Ã¨ res
Ġresol ver
- v
ĠA C
Ġpath s
Ġdies e
Ġtip os
rest i
u ir
N one
ãĥ ©
Ġinnoc ent
Ġpen al
uc ks
Ġl u
Ġv a
Ġl ying
-p yrid
ĠRem ove
m ates
Ġg aze
ĠC ert
Ġur ban
à¸²à¸ £
Ġbon ds
Ġafford able
Ġme hr
Ġeinf ach
ãģĵãģ¨ ãģĮ
P P
Ġscript s
r ide
er ved
an as
atas et
Ġequival ent
p ow
Ġserv icios
Ġauthent ic
Ġd angers
as te
ĠÂ «
ÐµÐ± Ðµ
ÑĢÐ° ÑĦ
" The
or ig
å¸® åĬ©
Ġequ il
Ġth row
ĠH ar
Ġtelev ision
Ġqual ities
Ġev itar
Ġest rat
ĠT H
Ġcon ex
gg ed
Ġpurs ue
Ġtransm itted
local host
ãĥ¼ ãĤ
ĠIt aly
Ġapplic able
5 3
Ġgener ative
Ġsm iles
Ġrequire ment
.m odel
ĠÑĢÐ°Ð±Ð¾ÑĤ Ñĭ
Ġtechn icians
ier ung
ĠØ§ÙĦ Ø¹
ĠÐ¸Ð½ÑĦÐ¾ÑĢÐ¼ Ð°ÑĨÐ¸Ð¸
Ð½ ÐµÑĢ
ÑģÐº Ð¾Ð¹
j ob
Ġp il
ĠB en
Ġtheore tical
' ac
B O
Ġhel fen
_ in
Ġcond ensation
Ġve ctors
Ġsepar ated
ĠSing apore
out er
ĠB und
ĠAs k
ploy ment
trans form
ĠÐº Ð¾Ð³Ð´Ð°
Ġacc idents
Ġlos ing
Ġfert il
Ġz one
Ġcaracter ÃŃsticas
.change Direction
Ġund ers
Ġcant idad
Ġd ating
put er
loc ation
Ġim mer
ãĥ ª
Ġamb ient
s che
.s h
Ġa id
Ñĥ Ñĥ
Ġint ens
ĠC ond
ĠÐŀ Ð±
- W
ĠN Ã£o
Ġtrad itions
less ly
Ġaument ar
S i
Ġb ou
Ġform ato
D I
om as
ula res
åŃ Ĳ
ĠOpt im
h ydro
Ġgu y
Ġext ens
Ġachieve ments
ĠÐ¿Ð¾Ð·Ð²Ð¾Ð» ÑıÐµÑĤ
Ex ample
Ġn g
æ Ļ
Ġv en
Ġanim ation
Ġnod s
ÑĢÑĥ Ð·
Ġantib iotics
ĠÃ ľ
Ġthorough ly
Ġperm an
Ġswe at
Ġresum o
ĠF our
-t une
Ġch ampions
Ġhistor ia
ĠÐĶ Ð»Ñı
Ġco operation
( g
ë³ ´
] -
ĠS imp
Ġp andem
Ġw are
Ġprec ise
Ġplus ieurs
Ġneighbor hood
å¤ ļ
Ġig ual
= False
Ġ ;
empl os
Ġwindow s
ĠT ai
Ġact ress
ĠÐ³ Ð´Ðµ
orient ed
Ġv ess
ÐµÐº Ñģ
Ġincon ven
Ġal ter
Ð¸Ð² ÐµÑĤ
Ġutilizz ato
Ġg ut
ĠS en
Ġf ake
if s
ĠØ§ÙĦØ £
Ġhob by
Ġhypothet ical
Ġmis leading
Ð¸ÑĩÐµÑģÐº Ð¸Ðµ
¹ Ħ
Ġed it
P R
is ions
ĠG B
ĠPro t
Ġte ch
M ax
Ġr ank
Ġswim ming
Ġproces o
ÐµÐ½ÑĤ Ð°
\ '
r ir
og g
uff er
Ġ× Ķ×
Ġmotiv ation
Ġrelax ation
(d ifficulty
ĠanÃ¡l ise
Ġs quee
ĠÐ½ Ð°Ð·
W HERE
Ġt ort
Ġand ere
Ġjo ining
.a fter
5 1
Ġcrop s
A tt
Ġse es
og o
Ġvol at
Ġwar ning
Ġbirth day
VID IA
b uild
o ved
Ġcor po
Ġ" Ċ
Ġclass ical
ĠTr ad
Ġencrypt ed
ĠÐ¼ÐµÐ½ Ñı
Ġmeasure d
n ames
Ġcomp aring
Ġse ine
g redient
Ġh int
Ð» Ð°Ð´
Ġj ur
à¤¿ à¤
ach t
Ġpopular ity
ÑĨÐ¸ Ð¾Ð½
he lp
Ġre form
.p ng
an ium
ob ile
Ġcy bersecurity
k it
Ġmoan ed
Ġclin ical
let ed
Ent ry
Ġscal able
ÑĢ ÐµÐ±
% ,
Ġv et
ĠH el
Ġgame play
à¸ Ħ
_num bers
-meth ylp
ro le
Ġal tre
() )
Ġco verage
à¸ ¥
Ġsolub le
Ġphenomen on
ĠP ers
Ġvari ar
Ġsp ring
Ġprod utos
æ İ
Ġdest in
Ġsche ma
å¹ ´
Ġdes ert
Ġrec her
Ġsu p
Ġk h
Ġtra its
âĢĻ t
ĠÑħÐ¾ÑĤ Ð¸ÑĤÐµ
Ġg one
ĠCorpor ation
as c
ars h
Ġcontroll ing
hal ten
Ġf ederal
Ġsend s
Ġvie le
ë ª
Ġfour n
A g
Ġcertific ate
Ġw ake
Ġdes per
Ġident ific
Ġentre prene
Ð¸Ð½ Ð³
raz ine
æ Ĥ¨
ne cess
Ġì ļ
Ġw Ã¼r
ĠS ound
ra cy
h op
Ġbi as
Ġconstruct or
Ġlo ving
Ġtem ps
ĠÐºÐ°Ðº Ð¸Ðµ
it ative
Ġstructure d
.k eras
Ġt ough
ra el
Ġfascin ating
ãģ £
Ġgi ant
xx xx
Ð¾Ð½ ÐµÑĩÐ½Ð¾
Ġí Ļ
HT ML
ĠAp ache
ĠCon st
Ġestrat Ã©g
Ġl lev
Ñĥ ÑģÑĤ
Ġattempt ing
Ġpip eline
p ol
Ġc in
Ġser Ã¡
ĠEx ample
Ġign ore
Ġl ock
Ġg an
ĠU N
d is
Ġ ul
Ġhob bies
S l
_ str
Ġcharacter istic
Ġthan ks
ĠT O
Ġimag ens
ÑİÑĤ ÑģÑı
i ros
Ġshe l
Ġass ume
mar ks
Ġinj uries
Ġa ura
Ġsensit ivity
ĠL ink
io xid
Ġwork place
.d ata
ĠdÃ©c ou
Q t
' il
ild ren
ĠS l
Ġj uego
ĠR iver
head er
ĠIns ert
az z
Ġinc ent
Ġnorm s
Ġintim acy
ĠÑĦÐ°Ð¹ Ð»
ĠMens chen
Ġ Ø§Ø³Øª
Ġb ill
Ġwork out
Ġte asing
Ġhor ror
Ġviol ent
Ġa pt
Ġre wards
if luor
ĠÐ½ÐµÐ¾Ð±ÑħÐ¾Ð´Ð¸Ð¼ Ð¾
pr ises
Ġpay ments
Ġmal ware
Ġne u
Ġpers one
Ġst one
Ñĥ Ð°Ð»ÑĮ
bl ock
ĠV iet
Ġins ight
ĠIndust rial
ro duct
ĠS pring
ĠÑĢ Ð°Ð´
Ġexplain ed
ap pe
Ġtax es
J ust
Ġas leep
pr ime
Ġcaut ious
´ Ģ
.m ain
it udes
ert a
Ġreal ization
Ġpred iction
ÑģÐ» ÐµÐ´
ĠE t
Ġque ue
Ġaddress ed
Ġhands ome
ĠdÃ© vel
Ġdispos al
Ġf lesh
ul as
- G
i at
ì ¹
Ġsex ually
Ġcard io
ä¼ ļ
Ġ Ã³
Ġh und
Ġl abeled
Ġor ange
quest ion
Ġris p
Ġcontinu ing
Ð°ÑİÑĤ ÑģÑı
Ġl ies
Ġgraph ic
Ġincorpor ate
U se
able d
Ġintegr al
i u
b t
ĠK on
Ġmin er
-f ree
p ir
ĠD r
A ge
Ð¸ Ð½Ñĭ
yr inth
Ġse at
ang zhou
ĠÑĢÐ° ÑģÐ¿
Res ult
ĠPro te
Ġarr ange
ĊĊ ĊĊ
Ġnu o
Ġd raft
Ġpo inter
Ġconst it
Ġautom ated
Ð¸ÑĩÐµÑģÐº Ð¸Ñħ
ĠSovi et
æ ¬
Ġc ela
Ġpleas uring
ĠÐ±Ñĭ Ð»Ð¸
Ø¨ ÙĬ
Ĥ ¹
Ġat ra
Ġinflu ential
Ġsab er
ĠÐ· Ð°Ð±
Ð¸ÑĤ Ñĥ
Ø¯ ÙĬ
Ġusu Ã¡rios
Ġappreci ation
W elcome
Ġfrequ ent
ĠÐ½ Ð¾Ð²
Ġbeh ave
Ġcy cl
Â »
Ġadvance ments
çī ©
Ġh all
_d ir
Ġte en
Ġgr ado
Ġquant ity
gy pt
ĠR ub
Ġest ilo
Ġconsens ual
Ġimp l
Ġch ances
-p arty
Ġhom es
Ġfrust ration
Ġal b
Ġdec entralized
Ġadjust ed
Ġisol ated
ĠS um
Ġcomp osed
w all
Ø °
ĠÑĢ ÑĥÑģ
ĠEm ily
'] .
/ >Ċ
Ġs z
ĠC ult
ÐµÑĤ Ð°
_m essage
ç ´
rend er
ĠEn joy
Ġintelig Ãªncia
Ġcampaign s
Ġferrament as
< !
Ġg un
Ġscient ist
ĠÐ¿Ð¾Ð»ÑĮÐ·Ð¾Ð² Ð°ÑĤÐµÐ»
ĠM er
à¸ ¢
ĠÐĴ Ð¾ÑĤ
ĠðŁ Ĵ
Ġsubm ission
Ġme u
Ġprogram aciÃ³n
ĠSh are
v oice
Ġreve al
< html
Ġpot ato
Ġem ails
Ġso y
IG HT
Ġf ro
ke ley
go ogle
py game
Ġless ons
'aut res
éĹ® é¢ĺ
8 6
Ð¸ ÐµÐ¹
ĠA G
ĠD AN
Ġwork er
ist or
Ġimp lies
Ġpub blic
( e
Ġl id
Ġch ocolate
Ġsh r
Ġcou ch
Ġarm az
Ġod or
Ġun us
ĠGener al
Ġc yl
Ġha ven
Ġconduct ing
Ġlaugh ter
Ġteach ings
l at
ĠĠĠ ĊĠĠĠĠĊ
Ġdese ja
Ġbare ly
_ re
ĠUn a
w an
or ph
Ġcons ig
app ed
Ã¨ mes
Ġaud iences
å®ĥä»¬ åı¯ä»¥
Ġtr Ã¨s
Ġwhen ever
Ġalg una
Ġamaz ed
Ġine quality
Ġg ay
ÑĢ Ð¾Ð±
ty pes
ic u
Ġhas ta
Ġpound ing
Ġnot er
19 0
ĠCl ose
Ġbelong ing
Ġli ver
Ġpy t
Ġr Ã¡p
Ġany more
Ġg ast
Ġcomb ines
Ġtim estamp
= (
Ġpriv ile
op yridine
if est
Ġconf ir
c ase
o ard
ĠÐ´ Ð¾Ð¿
g os
Ġmar ried
Ġa os
Ġhouse hold
Ġwal ks
ren ces
ĠmÃºs ica
Ġintric ate
' ).
Ã© li
ud ad
=" #
è® ®
9 7
ĠÐ¿ÑĢÐ¾ ÐµÐºÑĤ
Ġcook ed
Ġw and
ust er
ĠV e
ĠÑĤ Ð¸Ð¿
Ġtwist ed
h av
ãĤ ¢
-g ener
Ġpreu ve
re ib
ĠÑĢÐ°Ð·Ð² Ð¸ÑĤ
- V
C L
oc he
ĠÑģ ÐµÑĤ
Ġhous ing
Ġconsist ency
Ġdesarroll o
. *
Ġs lic
ĠT raining
Ġst orm
ÑĪ Ð¸Ð±
Ġgram mat
F A
Ġche ss
- play
Ġmay or
Ġmyster ies
Ġattract ed
on ym
Ġest os
================ ================
Ġkiss ed
. L
ul ative
ÃŃ d
ĠÐ± Ð°Ð·
Ġfl our
Ġdr inks
Ġsha res
Ġqu ote
Ġ ^
Ġf et
ress ed
Ġschol ars
Ġmin ing
Ġresp osta
Ġboy friend
Ġgrad ually
ĠBer keley
Ġle ather
Ġperson nel
Ġconnect ing
Ġrep s
Ġprom ising
Ð°Ñģ ÑĮ
Ġbur st
Ġl uz
Ġbl adder
ĠØ ³
_ image
Â ¿
Ġtri al
Ġm Ã©
ll a
anÃ§ ais
Ġbene ath
ĠCh rome
Ġgru po
Å Ļ
Ġb at
Ġt um
or ith
ĠN VIDIA
Ġcontroll er
ĠÐ°Ð½ Ð°Ð»Ð¸Ð·
ĠS ÃŃ
ĠM ove
ĠL ED
Ġkil ometers
Ð°ÑĨ Ð¸Ð¾Ð½
33 3
Ġregist er
Ġorient ation
is as
im s
Ġsh ake
bo oks
D R
Ġprint f
Ġn oss
Ġshould er
Ġnutri ents
Ġtutorial s
is hes
Ġattra vers
AB LE
Ġformat ting
C ertainly
ë ¯
od os
ĠÑį Ð»ÐµÐ¼
Ġstri p
comm on
Ġfor te
F e
Ġsoc cer
back s
ĠTok yo
Ġh ydr
ĠAd v
Ġt urtle
im os
Ġprincip ais
Ġefic iente
Ġres erv
ĠE cco
ÐµÐ¼ Ñĥ
Ġconf used
Ġenc uent
Ġrad ius
opt ion
he ast
Ġschool s
Ġwhis pers
Ġowners hip
ĠV PN
Ġclar ification
Ġcontract ing
abil idad
Ġeth yl
C NN
Ġn iv
ĠR oad
ĠÐ½ ÐµÐ¿
Ġherb icides
Ġlib ert
. from
N T
ud ed
ĠD M
Ġinteract ing
. keys
ec u
Ġfe at
-h ydroxy
in yl
Ð½ Ð¸Ðµ
ĠU buntu
Ġtri angle
j ection
Ġn ose
ĠS ent
ors hip
Ġmechan ical
Ġinsp iration
ĠF unction
ĠÐ¿ Ð¾ÑģÑĤ
Ġexper iments
Ġsub sequ
ĠÐ¾Ð±ÑĬ ÐµÐºÑĤ
Ġf ailed
Ġgovern ance
Ġkiss es
Cont roller
ĠS a
ĠĠĠĠĠĠĠĠĠĠĠĠĠĠĠĠ ĠĠ
gre g
am o
Ġben ch
Ġf ich
Ġtravel ing
ĠS ign
ĠÐ» ÑĥÑĩÑĪ
Ġcoll apse
ĠìĿ ¸
u v
us ers
Ġby te
iment os
Ġcho pped
ì ĺ
Ġre writ
ìĦ ¸
st Ã¤nd
Ð°ÑĤ Ð¸
ĠØ ±
List ener
Ġej ecut
. in
h ot
ient ras
Ġexcell ence
ÑģÑĤÑĢ Ð¾
ed ing
Ð»Ñı ÐµÑĤ
Int roduction
ch l
Ġop Ã§Ã£o
. close
ĠM ath
ric o
Ġto w
ge bra
Ġtest ament
Ġposition ed
Ġpu is
Ġt ank
ĠEl le
Ġf if
Ġof re
Ġ( "
Ġdis advantages
Ġob ter
ĠEnc ourage
m un
í ĥ
Ġe po
Ġmon do
back ground
ut ely
Ġmat ters
Ġlic ens
ĠV oici
iel en
qu ire
per ties
ĠPl us
Ġave re
v id
å Ŀ
ite z
Ġequ ality
ĠBe ispiel
Ġsw allow
N e
Ġ( $
Ġdevelop s
Ġco pe
Ġutilizz ando
Ġexpand ing
ant a
ore n
ru p
ost o
20 4
ĠÑĤ ÐµÐ»
ĠM iddle
CI I
å®ĥä»¬å®ĥä»¬ å®ĥä»¬å®ĥä»¬
} ;ĊĊ
ĠS aint
rig er
Ġshadow s
Ġmultif aceted
Ġcon crete
Ġcontribut ed
Ġdefe ated
ent ity
Ġsupp liers
gre en
Ġdecl ine
ĠÐ¸ÑģÐº ÑĥÑģ
. assistant
ĠContin ue
Ġab oard
Ġformat s
Ġdiscover ing
-su ited
ãĤ Ĥ
ãĥ Ĺ
ĠÑģÐ² Ð¾Ð¹
Al so
Qu ery
apital ize
ot os
Ġpol ar
ĠpÃºblic o
.s plit
tern oon
ÑĮ ÑĤÐµ
Ġiter ation
+ Ċ
ĠA ge
ia z
Ġsk learn
æĹ ł
Ġsac rific
ĠD an
ry st
Ġtranspare ncy
Ġsynthes ize
. Frame
_ of
ĠCon sole
.game Over
ĠBer lin
Ġdisposit ivos
& D
} ;Ċ
Ġappe aling
âĢĻ m
Ġa kt
er ves
rop y
ìĿ ¼
Ġcapac itÃł
ed ding
ÐµÑĢ Ð¸
Ġheart s
Ġhistor ique
Ġcred entials
' ],
. )ĊĊ
in ic
Ġutiliz ado
Ġgreen house
Ġwit ness
Ġskept ical
- int
T C
s en
Ġinf in
ĠÐ¸ÑģÐ¿Ð¾Ð»ÑĮÐ·Ñĥ ÐµÑĤÑģÑı
Ġlik elihood
Ġad ecu
Ġbe aches
ĠD ark
Ġbr anc
ĠOff ice
ë ¬¸
ĠJ ob
Ġfulfill ment
Ġele ction
ãĥ ĥ
Ġorgan ize
Ġpartners hips
Ġloyal ty
in formation
ĠC ou
Ġlo ver
Ġdesign er
Ġpix els
d ated
l ast
å ĩ
Ġr um
Ġperform s
Ġscr atch
N ode
Ġt ous
Ġtr uck
Ġinsp ire
Pl ayer
ĠD raw
ĠV ous
Ġdiv ine
Ġcapt ured
ĠÃ¡re as
Ġpan el
Ġshap ing
ĠIslam ic
ÑĢ Ð¾
Ġgen re
Start ing
-Ch loro
ic hen
ĠT i
Ġcommunic ating
Ġalleg ed
ĠS chool
ment ation
Ġsp oken
Ġpartic le
Ġco in
ãĤ ¯
m icos
Ġun necess
Ġap artment
Ġsk irt
Ġdirect ories
Ġot ra
Ġcolle agues
The n
Ġjud ge
Ġrespuest as
Ġnot able
Ġdec ades
tr as
-a ware
ĠØ¹ ÙĦÙī
Ġë³ ´
u o
Ġto ilet
Ġde als
Ġa j
Ġcomp ression
ĠE les
Ġexp ansion
co pe
ĠÐ½ ÐµÐ¹
.p aused
Ġbe g
ĠÐºÐ¾ÑĤÐ¾ÑĢ Ð¾Ðµ
Ġclos ing
È Ľ
ĠÐ¸Ð½ ÑģÑĤÑĢÑĥ
-est ablished
çĲ Ĩ
- ins
ÐµÑģÑĤÐ² Ð¾
ĠHe y
å® ļ
Ġs Ã³
Ġco al
ĠD as
Ð¸Ð² Ð°ÑĤÑĮ
Ġmark ed
Ġsche me
.b ind
Ġcal cular
E ST
c s
Ġalc anÃ§
ĠÐ½ Ð°Ð²
el en
ÑĤÑĮ ÑģÑı
Ġtrabaj o
. io
Ġa ug
Ġcast le
K eep
und a
Ġlux ury
ĠL ine
Ġadult s
N O
Ġpro c
D ialog
l ong
ĠCh ange
Ġdet erg
Ġmed ida
Ġincluy endo
r ant
Ġde aling
Ġcomput ador
Ġrepresent ative
Ġdif eren
Res ponse
m ost
Ġman iÃ¨re
Ġemp ower
Ġadic ional
Ġtroubles ho
d ough
Ġw rap
ard ing
Ġpen et
In itialPosition
.s end
17 0
es i
ĠSt ep
Ġsurf act
Com ponent
Ġprotagon ist
eg u
- ox
oc ated
ĠB ro
Man ager
ribut e
ÏĢ Îµ
Ð¸Ð½Ð¸Ð½Ð¸Ð½Ð¸Ð½ Ð¸Ð½Ð¸Ð½Ð¸Ð½Ð¸Ð½
ĠÃ¡re a
n p
ĠIs rael
ĠÐŀ Ð½Ð¸
Ġac ordo
Ġbo ot
Ġintel lectual
Ġand roid
ive red
ator i
n ament
ce mber
ĠØ£ ÙĨ
Ġinconven ience
_ pro
Ġcar act
Ġcent ers
Ġelement os
Ġtou ched
Ġproyect o
w hat
al ous
os es
ber t
Ġhapp ens
14 0
istic ated
Ġmeasure ment
. Ð´
Ex ception
ëĲ ĺ
Â¡ Hola
m ethyl
Å Ħ
ÐµÐ½ Ð½Ð¾
Ġdeton ate
ĠÃ©ta it
ĠColl abor
Ġqu iz
Ñı Ð¼Ð¸
def ine
Ġi hr
ilit Ã©
ĠJour nal
ent o
. âĢĿ
Ġp ier
Ġobjet os
eth oxy
Ġfil ename
Ġinitial ly
Ġcam in
ore r
Ġco ord
ex port
Ð°ÑĤ ÐµÐ¼
çļĦ åĲĹ
ĠÐ¿ Ð¾ÑĢ
ĠInd ones
Ġicon ic
B ecause
Ġquest a
( string
S erver
æ ĥ
Ġth reshold
Ġbo at
7 2
O C
Ġv iv
Ġess ence
W rite
Ġtarget ing
] (
Ġtyp ical
ĠØ Ń
á» ĳ
Ġcurs or
Ġsess ions
ĠP oint
ÐµÐ½ Ð½Ñı
Ġput ting
Ġhost ing
Ġdura ble
g ue
Ġy e
w orth
ri as
em os
ĠF ollow
Ġatt ivitÃł
Ġconsider ar
ìĥ ģ
_w ith
Ã¡tic o
W indows
ĠSt ore
_ T
ãĤ Ħ
Ġmet abol
Ġwor ried
Ġgrand es
Ġadv ances
.g enerate
els ius
O UR
Ġno ch
Ð¼ ÐµÑģÑĤ
Ġast ron
Ġm ild
ĠSo il
ĠrÃ© g
Ġverd ade
ĠÑĤ Ð°Ð±
r ations
ell i
-nit ro
it et
Ġra pport
ĠSt rateg
ĠrÃ© pond
ĠÐ¸Ð½ÑĤÐµÑĢ ÐµÑģ
contain er
g res
Ġinst ruct
Ġdepend ent
ÙĪ ÙĨ
ch arge
ont al
Ġt abel
.d isplay
.m ove
ĠEval uate
Ġcha que
o oc
Ĩ Ĵ
Ġa inda
ĠF uture
Ġconvers aciÃ³n
Ġlaugh ing
z ym
ÐµÐ» Ð»ÐµÐºÑĤ
ĠCom ment
d ers
ĠÑĢ ÐµÐ³
× ¨
or ry
Ġg rip
un ci
omet ric
Ġj untos
ĠÐĿ Ð°Ð¿ÑĢÐ¸Ð¼ÐµÑĢ
Ġforn ire
ay a
ĠH ol
arch y
Ġsim ult
Ġdom ande
à¤¾ à¤
te x
Ġjo ined
ĠOff er
Ġlo ose
Ġ ÙĨ
Ġprom inent
Ġ`` ,
ploy ee
ë² ķ
Ġatt ach
Ġattravers o
Ġd ense
att ed
Ġdiff usion
con f
ĠK now
Ġdirect ed
ĠStre et
Ġaccord ance
Th ought
_ S
ĠDe uts
Î¹ Î±
E ach
d river
Ùħ ÙĥÙĨ
w orld
Ġimm ers
Ġo dd
th al
.c apitalize
neh men
Ġh yd
Ġsex y
Ġgen u
lik ely
Ġapp ropri
Ġinf lation
-b it
Ġí Į
Ġunnecess ary
Ġqu adr
ĠS M
ann y
Ġattack er
ëł ¥
Ġd ried
Ġinj uring
Ġpurs uing
ch ant
ĠÐ¾ÑĤ Ð½Ð¾
Ġexpand ed
Ġh ip
ĠPl ace
Î¹ Îº
j os
Ġatt ached
[ :
d ess
qu are
ĠÙĦ ÙĦ
r d
Ġf ucking
Ġ` '
Ġatt itude
'ex iste
connect ed
al d
ĠP s
ĠÐ´Ð°Ð½ Ð½ÑĭÐµ
ap a
Ġess ay
Ġinstal ar
app y
Ġc ens
Ñı Ð´
nis se
Ġres on
Ġfr anÃ§ais
Ġbur ning
Ġex ch
ric ks
Ġsubstit ute
Ġ ]
ÐµÐ½ Ð½ÑĭÐµ
Ġw izard
Ġform ing
She ll
Ġconhec imento
am ount
ĠLe ague
ÑĥÐ¹ ÑĤÐµ
E L
Ġìľ Ħ
- la
. run
Ġf urn
ĠC U
. /
ĠE gypt
Ðº Ð¾Ð¹
ĉĉ ĉ
Ġconcl us
aus es
Ð¼ Ñĥ
Ġcres c
Ġprofess or
ĠMon day
Ġrelax ed
Ġdomin ance
Ð°Ð½ Ð¸Ð¹
in n
Ġex ceed
ĠØ¨ Ùĩ
ĠGu ide
ĠP our
per m
Ġdi pl
Ġleg it
Ġext ends
Ġsurround ings
Ġinvestig aciÃ³n
Ġprepar ing
Ġpossib ile
Ġhuman os
Ġhesit ated
el d
ĠL ib
ĠÑģÐ¿ Ðµ
ĠÐ¿Ð¾ÑĤ ÑĢÐµÐ±
Ġc ul
Ø³ Øª
Ġw ond
Ġb orrow
åĪ °
Ġp ump
ÑĢ Ð°Ð·
Ġsh ocked
ĠF ederal
Ġdon de
b ro
Ġd ÃŃa
Ġqu er
Ð· Ð²
Ð°ÑĤ Ð°
u pt
Ġne uro
à¸ Ķ
-d ih
Ġdri vers
ĠDep artment
Ġfacilit ate
Ġadvis or
Ġcon form
ian a
Ġant ioxid
Ġhi king
Ġwound ing
ĠĠĠĠĠĠĠĠ ĠĠĠĠ
ĠÐ· Ð½Ð°
Ġstreng then
cont rol
Ġliv ro
ĠS EO
Ġfib er
Ġgrat uit
Ġsoph isticated
Ġp ivot
Ġpl ain
- oriented
ĠUnder standing
Ġsu iv
Ã¶ t
opt im
Ġin quir
Ġì ¶
Ġdiscuss es
ĠtÃ©cn ica
Ġspeak ers
Ġì ¤ĳ
Ġfib onacci
Ð°Ð½ Ð½Ñı
Ġsi empre
Sub ject
l ung
Ġd alle
Ġinv oice
ĠÐ¿ÑĢ Ð¾ÑĤ
ĠespecÃŃ ficos
Ġshowc ase
ĠA uf
pe at
P age
Ġsh ining
Ġ[ (
.p op
Ñį ÑĤ
ĠD rive
Ġdis put
EV ALU
Ñħ ÑĢÐ°Ð½
Ġtarget ed
H z
ĠD own
ĠfÃŃs ica
Ġest as
Ġplay dough
ĠÑĥ ÑģÑĤÐ°Ð½Ð¾Ð²
ĠExpl ain
Ġpant ies
ol are
ia o
Ġstrugg led
ĠWest ern
Ġdivis ible
ĠH ot
Ð± Ð¾Ð»ÑĮÑĪ
ren cies
Ġaw e
Ġste pped
Ġcelebr ate
Ġconna issance
Ġb anks
Ġher itage
ĠV iew
. r
2 20
if ting
Ġcre ators
und e
ĠRe place
Ġstrict ly
Ġgo ver
.pause Button
Ġst umbled
> ",
z one
Ã¶glich keit
R ob
u its
per t
-p yridine
Ã ¸
ĠE th
ik a
Ġgovern ments
. lower
nd e
Ġpredict ed
UMB AI
Ġrele ases
: .
Ġperform ances
Re f
ĠÐ»ÑİÐ´ ÐµÐ¹
Ġ| |
Ã¤ lt
Ġemploy ment
ĠÐ¶ Ð¸Ð·
Ġsummar ize
Ġlog o
UN T
å¦ Ĥ
ĠM UMBAI
ĠL ead
Ġleg acy
Ġt iver
ï¿½ï¿½ï¿½ï¿½ ï¿½ï¿½ï¿½ï¿½
P Y
H A
à¹ ĥ
Col umn
Ġaprendiz aje
O kay
en ze
Ġph osph
-l ife
Ġpal ab
Ġbasket ball
Ġstead y
N ET
p ing
ĠW ould
Ġ| ĊĊ
Ġdisco vers
Ġc ake
' es
ç §ģ
ÑģÐº Ð¾Ð¼
Ġpref erence
Ï ĩ
Ġn ave
ĠÐ° ÑĢ
(s afe
ĠDis play
Ġtom orrow
Ġfantas ies
ĠespaÃ± ol
ç ¥
st ra
iz ioni
ĠF und
Ġwork flow
Ø§Ø ¹
r ine
ĠP ac
ĠV irtual
Ġcontribut ing
Ġmotiv ations
Ġin cons
Ġn atur
Ġpo ison
Ġnumer ical
(N odding
Ġg ym
Ġres id
Ġshap ed
Ġglass es
a o
Ġd apat
Ð¾ÑĢ Ð¾Ð½
Ġf lying
ol i
Ġra ces
Ġsem en
DO CT
Ġt id
ĠSch w
ĠpolÃŃtic as
Ġaband oned
Ġunus ual
Ġres ume
.T k
_ B
est roy
Ġex h
Ġst ata
< ol
ĠN eg
Ġwe it
vent ions
Ð°Ð² Ð°ÑĤÑĮ
Ä± l
ĠBund es
6 3
ĠZe it
V M
es ome
rit er
á» ģ
Ġsav ings
E ng
id i
Ġag ua
Ġacces o
ĠÑģ ÑĥÑīÐµÑģÑĤÐ²
Ġvis ually
sp a
ilar ly
ĠÐ¶Ð¸Ð· Ð½Ð¸
. value
g ie
Ġsu i
ĠÑĥ ÐºÐ°Ð·
ĠwÃ¼r de
ï¿½ N
Ġindepend ence
ol Ã³g
ist en
ĠL ove
Ġdr inking
Ġci udad
. join
Ġsp in
ìĿ Į
Ġess as
Ð¸ÑĢ Ð¾Ð²
Ġneigh b
ĠDisc ord
. inst
il ation
ur ning
Ġform as
Ġfib ers
ĠHum idity
k in
Ġaplic aciones
Ġdes k
r Ã©s
en o
å¹ ³
b bing
ĠEx amples
ĠQuest o
Ġwould n
ura ble
.W rite
7 9
Ġag es
Ð¼ Ð°
num py
(( ((
P art
Ġv s
ĠTr ading
ĠG old
Ð°Ð½ Ñģ
(' /
Ġcolor ful
Ġcontract s
ge re
Ġvis ited
Ð±Ð¾Ð»ÑĮÑĪ Ð±Ð¾Ð»ÑĮÑĪ
_ array
Ġf its
Ġdef ense
Ġaccess ing
Ġprevent ing
T otal
ĠÐ¾ ÑĪÐ¸Ð±
Ø§Ø ¨
Ġsu e
Ġj ew
ĠArt ificial
ĠÐ¸Ð½ÑĤ ÐµÐ»Ð»ÐµÐºÑĤ
Ġp ad
ar n
Ġat en
Ġdivid ing
. im
_ ch
Ġo tras
Ã¤ hr
De velop
Ġimp ression
Ġdi ed
Ð°Ð¹ ÑĤ
Ã¤h igkeit
ĠL i
Ġpresent e
Ġalgum a
Ġhypothes is
ĠT oday
Ġ` $
II I
Ġenf rent
è¡ Į
Ġr if
Ġfil tr
Comp any
ĠL and
Ġess es
) ]Ċ
Ġun likely
Ġma ior
Ġloss es
Ġalc uni
Ġrespect ive
Ġsimp les
ĠÑģÑĤÑĢ Ð¾Ðº
Ġre cept
ÑģÐº Ð°Ð·
Ġcharm ing
Ġm ientras
ĠM ost
Ġreg ulation
Ġrec all
ĠCol or
b ow
rop ical
P L
Ġce ase
Ġ )
Ġme io
ĠÐ¿ÑĢÐµÐ´ ÑģÑĤÐ°Ð²
Ġperg unta
_ ex
Ġe co
ient s
Ġbl end
Ġtempor ary
Ġt ender
Ġcomp ren
Ġein ige
Ġimag ination
ĠÐ¿ÑĢÐ¾Ð² ÐµÑĢ
ÐŃ ÑĤÐ¾
ĠÑĢÐµÐº Ð¾Ð¼
u je
Ġp m
imp ro
Ñī Ðµ
Ġsp ine
Ġtrain s
Ġsimp lic
il ine
Ġint r
Ġco isas
Ġtw e
Ġinf ect
Ġprim a
Ĩ µ
ism a
Ġv ital
Ġal k
ĠTh ree
br id
ĠB ible
ĠG UI
Ġcon ve
Ġvers e
Ġtim eline
ĠÐ·Ð° Ñī
Ġmerc y
-F i
Ġinstr uments
- %
ĠA h
Ġsu its
Ġdistin ctive
ĠA bs
ĠTer ra
Ġc ot
Ġb om
% .
ĠD A
az o
Ġbra ve
el led
ĠW hite
Ã´ ng
Ġger ne
ÙĪ Ø±
Ġur ine
Ġocc asion
Ġh oney
ĠO N
Ġout ra
Ġport ugu
\_\_\_\_\_\_\_\_ \_\_\_\_\_\_\_\_
Ġ" /
ĠÐ²ÑĭÑģ Ð¾Ðº
æ ¶
al f
Ġse i
Ġmet ric
- K
Ġv ou
Ġv Ã¡rios
Ġgener ations
ëŁ ¬
DOCT YPE
_ rect
Ġpro bl
Ġst ations
Ġtr as
Ġadd iction
Ġtem p
Ġloop s
gre SQL
ut z
.con fig
ir s
yr ight
Ġinvestig ation
Ġhydrochlor ic
' '
D C
Ġco at
it is
ate urs
um ns
ass ium
Ġcomple ting
Ġinstall ing
ĠÃ¡ n
à¦¾ à¦
. )Ċ
Ġb aj
pe g
ĠM ind
ĠM ongo
Ġi Phone
ui Ã§Ã£o
aut h
Ġtoxic ity
A c
Ġfe ars
ĠestÃ¡ n
Ġur ge
ĠÐ¸ÑģÑĤ Ð¾ÑĢ
Ġbreak fast
h u
Ġb aking
Ġnot re
ĠD iv
Ġrel uct
ĠGo vern
b as
Ġest oy
Ġprote ger
( row
fort un
Ġc ube
Ġhe ating
Ġbest imm
Ġpay ing
Ġnavig ation
Ġmajor ity
ä½¿ çĶ¨
izz azione
Ġgest ione
Ġesc al
Ġmoist ure
ĠÐºÐ» Ð°ÑģÑģ
ĠÐ½Ð°Ð¹ ÑĤÐ¸
ĠS ex
we et
ëĬ ¥
ĠV i
ĠPl ot
Ġc Ã¡c
ðŁ ı
ge x
ud ent
anÃ§ as
Ġincom plete
ra cle
w ood
ĠFra gen
b les
ĠM ad
Ġsupp lies
Ġf uer
.quit Button
ud i
() );Ċ
ĠpolÃŃ tica
b el
am era
Ġdetect ed
Ġrewrit ten
en h
if ts
ĠK o
Ġcomple ment
ĠAS CII
rit t
.main loop
vers ed
ST M
Ġext ended
_d f
é£ Ł
at ore
Ġh ub
Ġí Ķ
Ġsy s
Ġdirect or
t otal
Ġan at
ç İ
Ġrequ is
ĠMed ical
ĠExper ience
Ġd oub
Ġar row
Â° F
Ġdi vert
F i
g ithub
r ating
ĠM ore
Ġexist e
Ġarqu ivos
ĠSpec ial
ĠÑĤ ÐµÑĢ
rem ove
Ġ ents
Ġm ang
ent al
Ġexhaust ed
d ered
Ñĭ Ñĩ
Ġz a
ĠG ather
ĠV en
u ais
Update Interval
ÑĤ ÑĢ
Ġan not
Ðº ÑĢÐ°
rop yl
ðŁ Į
Ġarmaz en
. Get
Ġgu ilt
Ã¤ d
Ġmole cular
¡ °
ĠT erm
qu ina
ĠPro fess
we ise
ij n
Ġwat ches
Ġfascin ated
F O
Î ´
Ġin h
æ Ķ
Ð² Ð¾ÑĢ
Ġop ciÃ³n
b ul
c en
ĠD im
á» §
Ġtouch ing
} );Ċ
Ġc af
Ġ" ,
áº¡ n
E G
p ira
ì Īĺ
ĠE mb
Ġart s
ĠEng land
ÙĪ ÙĦ
ĠÐ¼Ð½ Ð¾Ð¶
ĠC are
rent e
cto ber
b st
or ous
Ġmar riage
Ġgar lic
z es
Ġam mon
ĠL ibrary
Ġlog ging
l it
Ġis n
Ġdefin ing
'] )Ċ
Ġemerg ed
ĠÐ¿ÑĢÐ¾Ð´ Ñĥ
Ġgat hered
) /
em ale
ĠÐ² Ð¾Ð´
Ġadv oc
C o
y mbol
Ġminim izing
Ġencoura ges
' );ĊĊ
ë ĮĢ
Ġv Ã¡rias
Ġtalent ed
G L
W orld
ĠÑĢÐ°Ð·Ð»Ð¸Ñĩ Ð½ÑĭÐµ
ĠW as
Ġtransl ated
s creen
t ics
" );ĊĊ
. check
ĠÑģÐ²Ð¾ Ñİ
æī ĭ
Ġc ript
Ġmen os
ãģĦ ãģ¾ãģĻ
E nc
t op
Ġs ag
Ġal iens
Ġgr ade
ĠAss oci
Ġsatisf y
ĠGPU s
Ġinj ection
ĠsÃ© cur
Ġun st
ĠM L
ĠK I
Ġbo olean
Ġrot ation
' imp
Ġs our
Ð½ ÐµÐ¹
Ġbackground s
å¤ §
Ġw ings
Ġco ins
Ġbr as
Ġreve aled
ĠÐ¾Ð¿ Ð¸Ñģ
ĠÐ¿ÑĢÐ¾Ð´ Ð¾Ð»Ð¶
Ġl ui
ge b
ĠPok emon
æľīä»Ģä¹Ī æĪĳ
Ġt ue
Ġl ado
Ġevol ve
o om
Ġflo ating
ĠcomeÃ§ ar
é ľ
olog ist
Ġprop ag
ĠÐ² ÑĸÐ´
Ð² ÐµÐ´
ĠUS D
ĠU C
Ġpers ist
Ġcu ando
íķĺ ìĹ¬
.pause Game
Ġgrab bed
ë į
Ġl ip
ĠÐ ¥
Ġla un
Ġstor ia
Ø ¶
ĠP ack
ĠG er
ĠEx press
ĠA ns
Ġ< -
ĠSun shine
æ Ľ
our se
Ġma ps
tt p
erc a
åĲ Ī
Ġutilis Ã©
Ġp ray
ol ar
In gredient
Ġwant ing
Ġhe y
ĠØ ¥
Ġjud gment
Ġt an
Ġh anging
ĠCon fig
Ġanal og
é Ŀ
ĠÑıÐ·Ñĭ ÐºÐµ
ĠcrÃ© er
ve led
ĠM or
ĠY eah
Ð¸Ð² Ð°ÐµÑĤ
r Ã¤
Ġevalu ated
Ġcorpor ate
att ered
ê³ µ
t rain
é Ļ
end en
ak an
ivid ad
Ġrein forcement
Ġportugu Ãªs
Ġl ou
Ġi Ã§
Ġpro xy
ie res
Ġshould ers
erm ed
-d ich
oc y
Ġde re
Ġj a
Ġgu ys
Ġthous ands
ĠS on
ost as
av al
Ġprodot ti
V C
[ self
Ġc sv
tr l
× Ķ
ĠĠĠĠĠĠĠĠ ĠĠĠĠĠĠ
Ġserious ly
Ð¸Ñģ ÑĮ
Ġprefer red
Ġdispon ibles
Ġmac ro
r ica
ib ile
Ġob ed
Ġadapt ed
ĠBo ok
am men
Ġj Ã¡
ĠDe cember
ĠÑįÑĤÐ¾ ÑĤ
Ġpig ment
Ġdisp iace
Ġsimult ane
] `
p ower
om ial
ot iv
ch Ã©
ìļ °
Ġmaintain ed
Ġang ry
ĠM inecraft
ign e
ĠÐ· Ð°Ð¼
Ġmuse um
æı Ĳ
( y
n atural
F P
_ by
v or
Ġf ir
Ġob j
Ġpo ver
ĠV or
own ed
Ġdri pping
OR D
Ð½ Ð¸Ñħ
Ġcont rad
ĠÑĥ ÑĢÐ¾Ð²
.py plot
Ġfilter ing
Ġnuest ra
) :ĊĊ
R ow
d ocument
Ġbe verage
pl o
Ġ* /Ċ
Ġorgan isms
Ġarri ve
Ġcha os
ĠM aria
ĠWord Press
ĠPued es
Ġh arsh
Ġdet all
ĠÐ· Ð°Ð³
ĠÐ¼Ð½ Ð¾Ð³
f ire
ĠT able
ĠSe a
é ĸ
Ġre vol
ÐµÐ½ ÐµÑĢ
Ġà¤ ¸
Ġsmart phones
ĠpaÃŃs es
-cons uming
Ġ"" "Ċ
Ã¼ss en
ð Ŀ
de v
Ġdura bility
ĠPost greSQL
are st
Ġclar ity
Ġre ject
ab y
Ġmet adata
Ġtiss ue
v ideo
cre ver
Ġtem pt
pack age
Ġwonder ful
Ġef ici
ĠB udd
Ġquant o
âķ Ĳ
l ink
Ġlog istics
Ġprote ins
ĠFin ancial
' am
H O
Ġdis appe
Ġtim ely
ÑĥÐ»Ñı ÑĢ
} ")Ċ
Ġdel ivered
ĠM om
Ġfac ial
Ġw rote
ĠÐ¾ Ð³
ol in
ĠS er
ĠD NS
Ġchar ged
Ġse ctors
Ġres c
Ġpi pe
Ġabs ence
Ġpound s
aaaa aaaa
Ġrhyth m
Ġrephr ase
ĉ Ċ
Ġg ene
Ġus a
Ġderiv atives
as a
ĠB ere
Ġdes em
ĠG ive
Ġacc ent
Ġfon te
/ h
Ñĥ Ð»
Ãª t
Ġdefin itive
S im
Ġe ines
ĠF ree
con text
ĠÑį Ð»ÐµÐºÑĤ
ĠÐ³ ÑĢ
Ġfil os
Ġalc une
( event
Ġsmall est
Ġdescri bing
Ġrece ives
Ġindic ators
t ed
par ation
å ł
Ġent Ã£o
Ġunivers ities
Ġnatur ally
ĠÑģ ÐºÐ°Ð·
Ã ¦
ener y
ĠSp ain
- pl
ĠM ethod
Ġman agers
Ġespec ific
n ight
Ġs Ã»
Ð¾ÑĢ Ð¾Ð²
Ġdist ingu
ĠÐ° Ð»
ĠEduc ation
å· ¥
Ġa ver
Ġtr igger
Ġsur vey
Ġout ro
È Ļ
Ġe ars
Ġwor n
Ġc ave
ĠM ont
Ġrel ation
Ġmed i
ĠÎ ½
Ġtransform ers
Ġremain ed
Ġclick ed
Ġbust ling
ĠI oT
Ġas ÃŃ
Ġtien en
Ġs ought
ar ial
ĠAs ian
Ġsociet al
u u
v ision
Ġsh ipping
à¸ Ĺ
Ġa Ã±os
Ġb reat
Ġh abl
Ġbroad er
Ġg em
Ġincre ment
Ġaim ed
ĠGre en
Ġrelax ing
Ġhead s
ĠÐ°Ð² ÑĤÐ¾Ð¼
æŀ ľ
ĠT om
Ġpl ut
Ġper ception
atur day
Ġo ven
Ġdist ances
Ġfl ash
Ġg ute
ĠG rand
iel le
Ð¸Ñı ÑĤ
ron es
Ġstop s
áº ¥
- te
ĠÑ ī
Ġsequ ences
Ġneces itas
Ã¡tic as
! =
b est
ĠÐ¿Ð¾Ð´ ÑħÐ¾Ð´
- O
ol Ã©
ad y
lo ok
Ġris ing
Ġvis ibility
Ġbit te
i ett
Ġg le
Ġexpl an
H ope
re ne
Ġst abil
ivid ade
ä½ ķ
12 5
ox yp
Ġin coming
ig ma
Ġen abling
Ñı Ñħ
Ġmod erate
Ġprior ities
Ġeste ja
Qu Ã©
Ï į
Ã¼h ren
Ġfif th
v als
Ġl Ã©g
ĠP rop
ĠR ad
h yd
Ø º
ĠÐ½ ÐµÐ´
ÑĢÑĥ Ð´
Ġf Ã³
ĠM il
Ġanalyt ical
Ġta ught
ĠdÃ©cou vert
Ġelement o
Ġà¤ ¹
carbox ylic
Ġadopt ion
ĠÃ¡n imo
Ġc ort
(" <
Ġque en
Ã¨ ne
ĠEst a
Ġscen es
Ġterr ifying
ĠTele gram
e an
x ious
Ð ĵ
ĠI BM
Ã¤ ch
ĠÑģÐ´ÐµÐ» Ð°ÑĤÑĮ
Ġsw ord
ĠAre a
ĠNum Py
Ġp end
al ah
Ġsy nc
ĠÐ¾ Ð·
ĠÑĥ Ð±
ĠÐ¢ Ð°Ðº
-tun ed
Ġw Ã¤h
Ġop Ã§Ãµes
.p osition
ĠPh arm
g ua
ĠT op
ĠF C
Ð¸Ð± Ð¾
' }Ċ
Ġautom atic
or ation
Ġm and
ure zza
Ġsimplic ity
Ġm ia
Ġmultip ly
Ġhe llo
Ġcon n
ĠÑı Ðº
Ġsil ver
ĠP R
pl ess
ĠÐ½Ð° Ñģ
ĠSe cond
Ġport ion
Ġteacher s
ĠÐ¾ÑĢÐ³Ð°Ð½ Ð¸Ð·
us ammen
ĠE U
Ã¡ ct
Ġë ²
Ġprior ity
) (
on ia
ÑĢ Ð°Ð¶
ap ed
pr im
ĠDe v
ĠPl atform
Ass istant
ĠV R
Ġbi ke
Ġpandem ic
Ġpover ty
_c ode
S D
ie wer
ĠCon duct
Ġoccur ring
ess a
Ġam ino
ĠHe ad
Ġë Ķ
Ġsat ell
Ġinflu enc
Ġbrand s
Ġd op
am en
ĠG lobal
Ġ-- >
Ġincorpor ating
c p
ir us
ĠS eg
ĠEx p
Ġpull s
B ack
ĠM en
à¸ģ à¸²à¸£
fra c
` :Ċ
Ġpart ition
Ġconf i
Ġspeed s
- one
Ġtact ics
ow a
à¸ ´
Ùĩ Ø§
_st ate
ĠInstit ute
ĠÑĤÐ°Ð± Ð»Ð¸ÑĨ
Ġsurg ery
ĠW ars
Ġreg ret
Ġdoll ars
Ġsulfur ic
ĠF rame
ĠR om
Ġappe al
ĠìŀĪ ëĬĶ
ist an
Ġform ulation
Ġvisit ors
Ġëª ¨
j ava
Ġbub ble
Ġseguint e
az ole
Ġsoc iais
ĠDes cription
Ġpar king
ĠTr ade
def ault
Ġ Ùĥ
Ð¸ ÑĤÐ¾ÑĢ
Ġest ruct
ĠEnvironment al
6 2
s plit
Ġn ick
ob j
Ġ$ {
Ġevol ved
met ic
Ð»Ñı ÑĤÑĮ
Ġdeterm ines
Ġmix ing
Ġtest o
ĠHawai i
in ery
Ġn orthern
Ġpass ions
Ð¾Ð²Ñĭ Ðµ
Ġproduct os
ĠV ector
Ġdam aged
Ġfunc ional
Ġfeat uring
Ġas egur
Ð´ Ð¸Ð½
Ġmat r
Ġpres erv
Ġexam ine
Ġvalid ate
Ġencoura ging
ĠP ublic
ĠB u
ire ctions
Ġac quis
Ġref ine
Ġmant en
etw ork
Ġgrav it
ĠÐ¿Ð» Ð°Ð½
AT ION
Ġmindful ness
ĠentraÃ® nÃ©
Ġn orth
Ġcu id
Ġtower ing
à¤ ķ
ĠPr ime
ìķ Ħ
Ġtrov are
ĠÑģÐ» Ð¾Ð¶
Ġb il
Ġ" __
Ġtight ly
Ġlit ers
Ġcerc a
ber o
Ġra ises
Ġeth ics
Ġsand w
ÏĢÎµ ÏĢÎµ
R ep
Ġfor ums
Ġg ri
ĠT ask
Ġad s
Ġtra il
Ġacc um
Ġevent os
Ġverwend en
B oth
ra Ã§Ã£o
Ġpol ite
Ġfr ase
Ġeth anol
Ġmultipl ication
am y
Ġlib re
Ġstret ching
n ode
f loat
Ð° Ðµ
ens itive
num bers
Ġref riger
Ġbig ger
ĠÐ² Ð°ÑĢ
Ġbomb ings
Ġneces idades
ĠNe ural
Ġcombin ations
ÐµÐ½ Ð½Ð¾Ð¹
Ġra cial
Ġrest art
ĠCour t
Ġst uck
Ð¼ ÐµÑĤ
it en
ĠD en
ĠR ainfall
ĠLa w
ban ana
Ġwire less
] }
Ġam Ã©li
Ã¡ri a
ĠðŁ ¤
3 60
un ks
Ġdist ant
Ġsl ut
ĠMed ia
Ġran king
Ġc able
ĠS nake
Ġsuggest ion
Ġc ro
Ġmind s
Ġëĵ ±
im estamp
ĠL ie
Ġz ip
Ġoper ational
Re al
âķĲ âķĲ
T ask
h aps
ĠAd minist
åĬ Ľ
( r
Ġ ...Ċ
ĠS ynthesis
Ġpr at
ĠM Ã¶glichkeit
av y
Ġì °
ros c
ĠDe b
> ,
Ġc out
âĸĪâĸĪ âĸĪâĸĪ
ĠA gre
Ġcal ories
Ġinf erence
Ġdist ract
Ġnecess Ã¡rio
Ġbig gest
ĠÐ±Ð¾Ð»ÑĮÑĪ Ðµ
ĠÐ²Ð¸Ð´ Ðµ
ig ue
Ġaiut are
id ed
Ġal though
ain e
Ġfe wer
Ġexperienc ia
Ġt s
us o
ĠS elf
ĠE qu
à¸ ķ
ĠSm art
et erm
Ġdon t
AR CH
Ġherramient as
al g
ĠÐ´ ÐµÑĤ
Ġdiagn ost
ĠT otal
Ġconsider ate
-p ur
ĠG l
Ġtw ice
Ġw ore
ĠÑĤ ÐµÐ±Ñı
Ð°Ðº ÑĤÐ¾ÑĢ
Ġpres ents
Ġden gan
Ġsleep ing
Ġt Ãªm
Ġh j
ãĥ ķ
Ġfl avors
Ġharm ony
Ġwar rior
ĠGener ative
8 9
Ġintu itive
Q Q
or us
ĠB ang
Ġencount ered
ĠH ong
Ġot ro
y y
Ġres pe
Ġma pping
Ġent ering
Ġref rain
Ġcool ing
Ġadhes ives
R U
Ġb or
Ð½ Ð¸Ð¹
Ġper d
_w idth
ĠÐ±ÑĭÐ» Ð¾
á»Ļ t
ĠD C
_d ifficulty
c ending
Ġsent enced
AT H
Th rough
Ġpix el
or no
Ġher s
Ġle ct
ĠSt rong
ĠAdd ress
Ġguid ed
App lication
B ody
D an
Ġinst ant
Ġcustom ization
Ġdeploy ing
Ġcompart il
6 1
e ut
ab ilitÃł
Ġsu cesso
ci um
Ġfl ask
Ġcollabor ate
åĪ Ĩ
Ġsto pped
( {Ċ
pe ction
Ġse ar
Ġs aving
Ġf etch
us al
Ġtemper atura
Ġdemand ing
as ks
ĠP et
Ġmaxim ize
ĠIN T
ĠÑĩÐµÑĢ ÐµÐ·
r ust
Ġcr imes
Ġintent ions
un que
Ġtempl ates
a udio
e le
Ġprogram as
Ġbi om
Ġscre ens
KE Y
ĠÐ·Ð°Ð²Ð¸Ñģ Ð¸Ð¼Ð¾ÑģÑĤÐ¸
Ġnitro gen
im um
Ġplan ned
Ġhist Ã³
ĠÐ¶ Ð¸Ð²
Ġpropos al
ĠÑĥÑģÐ» Ð¾Ð²
ÑĮ Ñı
Ġest iver
ĠÐ½Ð° ÑħÐ¾Ð´
Ġmeas uring
Ġpreoc up
( D
Ġprogram aÃ§Ã£o
ä¸ ª
Ġdif ÃŃc
ĠÐ¡ Ð¾Ð·Ð´
Ġautonom y
Z E
Ġit iner
Ġgest iÃ³n
. insert
Ġdo v
Ġcl icking
Ġreflect ed
- get
Ġkiss ing
ĠÐł Ð°Ð·
ĠImpro ve
Ġreal izes
Ġar my
Ġreal m
-f luoro
^ ^
× ª
Ġl imp
Ġl ens
ind ed
eng ers
Ġext ent
ìĹ ħ
ĠÐ¿Ð¾Ñģ Ð»ÐµÐ´
å½¼å¥³ ãģ®
Cur rent
Ġfourn ir
it are
Ġfor th
Ãª me
nc il
Ġreplace ment
` )
Ġin her
Ġí ĺ
Ġbranc hes
à¸ °
Øª Ùħ
Ġmon et
Ġhol low
Ġscal ability
Ġcur v
Ġemb ra
Ġtim er
Ar t
æĪĳ æĺ¯
Ġsold iers
fÃ¼ hr
O ther
Ġoptim izer
ĠDef in
Ġimag en
serv ation
P RE
è ª
Ġlast ing
ur re
se ction
Ġdiff ic
Ġdetermin ar
è¡ ¨
Ġconten ido
ze ug
ĠÑĦÑĥÐ½ÐºÑĨ Ð¸Ð¸
Ġd ust
Ġm og
et c
red it
Ġhuman o
Ġsal ad
ĠPer formance
ĠT or
ĠB es
Ġdut y
f re
r ich
Ġs qrt
ure th
Ġmon it
Ġcapt ures
Ġcandid ates
_ C
Ġalign s
Ġhtt p
Ġvit amin
ĠEns ure
Ġfragr ances
om bre
Ġg ew
Ġpart ial
Ġsatisf ying
ÐºÐ° Ñħ
Ġf ellow
st ruct
Ġcl ase
lo b
à¸ ļ
ĠTr ust
ĠÐłÐ¾ÑģÑģ Ð¸Ð¸
] );Ċ
ê ¸
Ġaf ternoon
.inst ruction
w hich
Ġbu cket
.instruction Label
Ġ ile
ĠI de
ta king
_t able
.update GameState
" A
. ).
er ving
ĠS afety
du ino
Ñĥ ÑģÐº
Ġtalk ed
Ġsic urezza
Ġd ict
ĠIn nov
ĠJ iang
Con fig
Ġalm ac
Ġtherm al
u ar
ĠS oci
ill ation
Ġad vers
Ġlist ener
ĠRe volution
Ġpas te
Ġup grade
Ð¾Ð» Ð½Ñı
Ġord ered
_ var
æ ¯
is se
Ġe igen
ul d
ri ers
Ġrel aciÃ³n
Ġob ten
âĢ Ķ
Ġcompren s
he alth
Ġvari ations
Ġrespond ed
Ġaplic ativo
Ġhighlight ing
d el
o e
Ġh ade
ĠSe ek
Ġb aix
att ention
Ġw est
Ġg ate
Ġch i
Ġch ied
E mb
ĠBe aut
Ġsu port
ĠL ack
Ġco let
.s ub
et ing
Ġj ou
Ġmess aging
ugg ed
Ġneur ons
.keys ym
L es
re act
it als
ĠÐ¾ Ð´Ð½
Ġiter ates
ac i
Ġfact ory
ias m
ill ance
-------- ----
Ġvaried ad
Ġse cur
ĠH ydrometry
Ġret ire
Ġaf et
Ġenthus i
Ġfe as
Ġkeep s
Ġhon or
åħ ¥
Ġfont es
Ġcont est
ĠE ven
Ġsc atter
Ġsl ide
Ġcri aÃ§Ã£o
Ġton ight
ro ph
Ġh ug
im mer
st op
iz ados
ĠÐ¸ÑģÐºÑĥÑģ ÑģÑĤÐ²ÐµÐ½
O IN
Ġo xide
Ġcar cin
ĠInt rodu
.l ayers
Ġtensor flow
ĠDeuts ch
H S
ãģ Ľ
Ġav ant
aut hor
Ġappe ared
Ġtrav ail
Ã©m on
Ġqual itÃł
Ġw r
ĠL ord
ck er
ĠÐºÐ¾Ð½ ÑĦ
Ġdecl ar
Ġschedu led
ĠEngine ering
Ġmur der
Ġresil ience
Ġer re
á» ¥
mat rix
Ġqual ifications
Ġcook ies
Ġcosmet ic
Ġm uest
-C ore
P D
ĠÐº Ð½
ĠÐº Ð»Ð¸
Ġqual itÃ©
Ġst uff
n ull
Ġli kes
ÃŃ da
Ġparticip ating
ĠAnt i
Ġsurf aces
d em
Ġl ig
Ġdepend e
Ġefic az
ĠdÃ©vel opp
ãģ Ī
Ġmuch os
M enu
Ġdet al
val u
ÑĥÑĢ Ñĭ
- form
w ind
in ha
Ġun predict
Ġla ke
.qu ery
Ġsubs cription
ĠCommun ication
Ġthigh s
Ġsp at
Ġfut ur
Ġemerg ing
Ġbes ch
ä¾ Ľ
F S
Ġt ied
Ġp ill
ĠD at
Ðº Ð¾Ð¼
Ġop ens
do be
- edge
Ġim aging
Ġdemand s
en cias
az u
Ġreason able
ĠJ a
Ġqu arter
ĠÐ¸Ð½ÑģÑĤÑĢÑĥ Ð¼
Ġexplan ations
Ġm ature
Ġg host
Ġmost rar
Ġoper ators
Ġcomplet ion
Ġconfident ial
ĠSu pp
gi ene
Ġcolon osc
g li
Ġm im
ĠD ynam
av en
Ġsub set
ann ed
Ġur anium
ar ks
Ġt ang
om men
Ġst ated
ĠPos itive
E ss
ad ium
Ġv isto
Ġwor ship
Ġprecis ar
Ġbatter ies
el o
Ġsm irk
Ġdec ides
Ġpromot ion
-h and
.con figure
Ġtare as
ĠF a
ok ens
__ ":Ċ
Ġinte res
Ġcomb ining
N um
{ {
Ġf ission
ĠÐ¼ Ð°ÑģÑģ
ĠÑĩ ÑĥÐ²
Ġepo ch
w d
ur ious
Ġi OS
Ġpregn ancy
iam o
Ġfemin ine
Ġf ox
.con nect
Ġsurfact ants
m ake
Ġgr ant
Ġalign ed
Ġllam a
Ġexh ilar
8 4
ĠÐ¾Ð±ÑĢ Ð°Ð±Ð¾ÑĤ
Ġdiscipl ine
Ð ĳ
it ud
Ġatt ending
Ġflow s
Ġsegu ida
2 30
æ ĭ
Ġm erge
Ġel ig
éľ Ģ
- and
l Ã¡
ĠC D
Ġcatalyst s
U sing
ÑģÐº Ð¾Ð³Ð¾
ĠÐ½Ð°Ð¿ ÑĢÐ¸Ð¼ÐµÑĢ
ĠvÃŃde o
Ġt abla
Ġpalav ras
Ġh am
de vice
Ġpop ulations
Ġrelevant es
ĠðŁĺ Ĭ
Ġd ow
ol ic
ith metic
ĠC elsius
ĠW omen
ĠJ up
Ġfin ite
Ġapolog ies
Ġbreak down
- vous
R P
Ġfe ather
Ġcapt iv
ĠìĿ ¼
V G
Ġv ow
ĠÐ³ Ð¾ÑĤÐ¾Ð²
Ø¹ ÙĦ
Ġhumor ous
íĸ ī
ĠS end
Ġint Ã©
.p ush
" }
Ġkn ees
Ġback end
Ġ );Ċ
Ġint ers
arm e
Ġpassword s
Ġvac ation
Ġbrother s
ĠÐ²ÑĢÐµÐ¼ ÐµÐ½Ð¸
Ġd b
Ġg ior
Ġanal ys
16 0
Ġpuzz le
Ġas ync
ext ract
Ġquel ques
d atetime
g irl
w i
Ġmon ster
Ġcontain ed
Ġtent acle
ĠâĶ Ĥ
w as
rom ag
ĠÐ´ Ð¾Ð¼
ĠOr der
ĠB ot
Ġmed idas
ÑĪ ÐµÐ½Ð¸Ñı
Ġimmedi ate
Mod ule
R est
å İ
Ġle ver
ĠÑĩ ÐµÐ¼
ç Ł
Ġenerg ÃŃa
Ġìł Ħ
Ġcast ing
Ġlab yrinth
ĠÑĢ Ð°Ð²
Ġexecut able
ÑįÑįÑįÑį ÑįÑįÑįÑį
ter y
Ġso sten
abe le
ãģŁ ãĤģ
Ġ ÙĤ
Ġconst ante
Ġspace craft
Ġtecnolog ÃŃa
Ġheadquart ers
Ġact ors
hor a
_s core
Ġgru pos
on ium
Ġrespons ibly
M ode
Ġc ient
Ġf oss
el er
Ġn urs
80 8
D uring
U m
Â ²
Ġ ]Ċ
Ġfor got
iz adas
Ġsm iling
Ġfollow ers
Ġaff ili
æ ¸
ë £
Ġimp lic
Ġac comp
Ġest ava
ĠV ideo
ĠSh anghai
t ons
Ġt Ã©r
Ġex ib
Ġhyper par
Ġ Å¼e
Ġk o
Ġrep roduct
Ġviol ation
Ġreact ive
ĠLink ed
T S
Ġê° Ļ
ĠA ction
ĠP ress
Ġpre jud
ĠO S
Ġwork load
ìķ ¼
Ġhydroly sis
? NAME
Ġqu indi
iss en
-b rom
z n
Ġë ¬¸
ĠDevelop er
init ely
Ġobserv ations
Ġrecher che
Ġo v
Ġm erg
ig m
Ġexecut ar
Ð½Ð¾ÑģÑĤÑĮ Ñİ
asy nc
L td
Ġag ed
bo ot
Ġdies em
he ll
Ġde grad
Ġv u
ars er
ĠSp ra
Ġelimin ate
Ġwhe el
Ġmascul inity
. open
Ġf ait
art en
Ġcorre lation
ĠMongo DB
Ġcont empor
ĠV ari
Ġê² ½
Ġcivil ization
ut ch
ĠW ait
ĠÃ© s
Ġwra pped
Ġm io
Ġsp oke
Ġrelev ance
Ġten ha
Ġthr ill
Ġinform at
ÃŃ cios
ĠType Script
Ġlegit imate
Ð¾Ð²Ñĭ Ñħ
ìĭ Ŀ
Ġsort ing
Ġad here
Ġmargin al
Ġexcess ive
({ '
ĠÐºÐ¾Ð½ÑĤ ÑĢ
a id
ost ream
Ġatt or
Ġact or
/ v
ver ing
Ġte or
ĠW atch
ars i
à¹ ģ
Ġch ronic
li ament
ĠÐ´Ð¾Ð»Ð¶ Ð½Ñĭ
ĠL ow
rit ing
ĠC amp
Ġland ing
Ġcamb ios
Ġfilt ered
th rough
ĠM ass
ÐµÑģ ÑĥÑĢÑģ
ĠSE LECT
in ar
Ġs op
Ġ( (
ĠCh urch
Ġeffic acy
Ġsle ek
Ġc ust
Ð¼ Ð¾ÑĤÑĢ
AN D
by e
Ġê° ľ
ë¶ Ģ
x ual
ot er
vol utional
Ġaltern atives
ãģķ ãĤĮ
Ġdon ner
ĠTai wan
Ġs oup
Ġres istant
Ġautonom ous
ĠsÃ» r
ul um
Ġro z
Ġlear ns
ĠÑĥ Ð·
Ġevery day
Ġgen et
ĠCent ral
u as
Ġc itt
Ġde ck
ib er
ĠPl ant
è ½
ãģĹ ãģ¾ãģĻ
ycl ing
k g
ĠØ ¬
ĠTh anks
ĠConf igure
on te
at ta
Ġp yridine
ĠD rag
Ä± r
Ġmonth ly
ĠW his
ne g
ĠÐ° ÐºÑĤ
let ion
Ġsociet ies
ĠHay market
ahr ung
ÐŁÑĢ Ð¸Ð²ÐµÑĤ
_ object
ant wort
Ġbu gs
re place
st s
anche ster
d ict
Ġadm iration
Ġvert ical
ĠrÃ©pond re
Ġp ent
it ives
Ġconsist ing
ĠMed ic
Ġton ed
H I
ĠD O
ĠÐ¾ÑĤ ÐºÑĢ
Ġvol ta
Ġload ing
( se
Ġde ine
ãģ ł
Ġav anz
Ġcal endar
ugh ty
' IA
Å ĳ
st ers
ĠĠĠĠĠĠĠĠĠĠĠĠĠĠĠĠ Ġ
Ġhol es
c out
Ġs orts
Ġ' /
Ð¿ ÐµÑĢ
Ġclass ify
ĠÐ· Ð²
-s pecific
Ġofficial s
ĠCU DA
Ġenv ol
Ġemb ark
Ġreact ing
ĠProcess ing
ÑĢÑĥÐ¿ Ð¿
Ġag enda
Ġstraight forward
ĠgÃ©nÃ© ral
are r
Ġverschied enen
Ġspan king
ĠF Ã¤higkeit
Ġaw k
ĠÎ ´
Ġroom s
ĠApp ly
Ġpun ct
Ġintention ally
Ġethnic ity
un ter
Ġinf ra
Ġarg ues
( model
> "
um en
Ġmod ific
Ġprof es
Ġglo b
Ġinstit ution
ĠsÃ©cur itÃ©
å ķ
he iro
ett i
ÙĪÙħ ÙĪÙħ
ĠI V
Ġuncle ar
ĠÐ¾Ð±Ð»Ð°ÑģÑĤ Ð¸
Ġc ater
ay ing
ĠH R
Ġout lines
ex p
Ġos c
col umns
Ġm eng
ĵ ç
Ġmean ings
m ino
Ġinter rupt
ĠIs land
_t oken
Ġsem antic
Ġex tern
ĠB io
ĠW h
Ġman ifest
Ġsl ender
Ġcompress ed
å ±
Ġs enza
iz io
ĠD irector
Ġbel ly
Ġcalcul ating
Cl ose
Ġelectr ons
Ġëį °
L oad
g ender
Ġf ato
ort ion
ä¸Ģ æĹł
ĠI S
ĠÃ¡ gua
M E
C al
t ail
Ġch amp
ast ing
Ġprob ably
ar ak
ĠD ocument
Ġgu ests
Æ°á» £
Ġdise Ã±
ams ung
-cons cious
Ġel abor
ÐµÑĪ ÑĮ
Ġthro bbing
Ġs endo
Ġal to
ĠC up
che m
Ġje alous
à¦ ¿
Ġreward ing
t arget
Ġal gebra
Ġmake up
ĠCh ampions
ĠÐ¶ Ðµ
im ages
Ġfor g
Ġcaus a
ÃŁ e
ji ang
Ġconver ting
ĠProv iding
O s
ich Ã©
Ġinter ior
Ġoper acional
ä½ ľ
Ġsu ited
Ġcomp te
Ġrelacion ados
Ġtr ig
ĠAr gent
ä¸ĢæĹł ä¸ĢæĹł
tic o
Ġflu ct
Ġmol ti
ĠÐ¾Ð±ÑĥÑĩ ÐµÐ½Ð¸Ñı
Ġguarante e
ĠS pe
Ð¾Ð² Ð°ÑĢ
aj es
Ġinfin ite
Ġpers istent
10 5
bre ak
_rect angle
ĠE C
Ġvari os
Ġm ente
Ġb id
Ð¾Ð² Ð¾Ð¹
Ġconf erence
Ġcor ruption
_f unction
Ġru led
F ood
Ġref eren
cont in
ÑĢÐ°Ð½ Ð¸Ñĩ
Ġpun to
æ µ
Ġsou ha
sm iling
Ġhung er
z as
ĠTh rough
Ġremo val
Ġoptim izing
ĠAg ency
ĠPower Shell
L B
ab en
Ġes igen
Ð¸ÑĢ Ð¾Ð²Ð°Ð½Ð¸Ðµ
Ġste al
S uddenly
Ġdon c
lig a
Ġimpress ed
- but
Ġ" <
Ð°ÑĤ Ð¸Ð²
Ġsimultane ously
Ġsever ity
ifluor omethyl
Ġf en
om atic
ad amente
Ġanaly zed
ĠArab ic
> (
ĠF ort
ĠÑħ Ð¾ÑĢÐ¾ÑĪ
M ain
c ard
om ena
ĠO k
ĠÐ¸ ÑģÐ¿
ph ant
cul pe
á» ĭ
Ġprosper ity
Ġ` [
Ġdi oxide
ido res
ĠktÃ³ re
ĠalcanÃ§ ar
Ġt ap
Ġd ick
ing er
ic ion
Ġtem ple
Ġmin utos
Ġing l
ĠPart icip
PO ST
un as
ĠA dobe
-s ide
ara uf
ĠÐ¿ÐµÑĢ Ð²
ĠmÃ¡ quina
Ñĭ ÑĪ
Ġcomprom ise
ĠIndones ia
Ġesigen ze
Ġan xious
Ð³ Ð»
Ġinitial ize
ĠAcc ount
( interval
Ġor bit
Ġneg Ã³
Ð»Ñİ Ð»Ñİ
Ġin hab
ul os
fortun ately
Ġse am
Ġat rav
ĠÑģ Ð¸ÑĤÑĥ
Ġpot assium
Ã©t Ã©
ĠBe ach
Å ¯
ĠÃ ®
Ð°Ð½ Ð°
ĠSt at
Ġsuper vised
äº İ
ĠÑģÐ»ÑĥÑĩ Ð°Ðµ
ĠM A
Ġz ijn
Ġan os
Ġcl it
Pro cess
Ġcop yright
Ġniv el
Ġm Ã¼ssen
Ġexam ination
pare nt
l ang
Ġp ont
cl aim
Ġdepend endo
Ġprecis as
izz o
Ġflow er
Ġtour nament
ĠÑģÐ¸ÑģÑĤÐµÐ¼ Ñĭ
ĠÃºn ica
Ġs li
g pt
un o
ĠH ydro
Ġcomp il
Add ress
Ġdead ly
ĠTransform ers
8 1
Ġse jam
Ġres orts
Ñı Ñī
ind ing
Ġnames pace
ĠMus ic
ĠImpro ved
Ġm á»Ļt
ĠC NN
Com m
Ġdemonstr ated
B ot
e z
PU T
Ġbi et
(b g
ĠF lex
ĠG ard
Ġdec ir
ãģĹ ãģŁ
-B romo
Ġbelong s
Ġlin ha
Ð´ ÐµÐ½Ð¸Ñı
Ġgl itter
ĠMex ico
" S
an j
ĠI ll
Ġpurch asing
Ġrend ering
Ġmant er
Ġbeach ten
gr ading
78 9
Ġsyn chron
h h
j ango
Ġcomb ust
Ġvill agers
- app
er k
im id
Ġex ert
çĶ µ
8 7
A ut
Ġind em
Ġdev iation
Pro gram
Ġconfigur ar
ĠÐ²ÑĭÐ± Ð¾ÑĢ
ãģ£ ãģ¦
/ c
here um
yn chron
Label s
Ġimp lements
Ġab normal
Ġrespons ive
gen es
Ġadminist ration
Ġban ana
s ent
ol t
Ġalph abet
Ġth inks
O L
Ġhead ers
ĠCon stit
let es
Ġcra ck
ĠÐ¿ÑĢÐµÐ´Ð» Ð¾Ð¶
ĠS n
ĠE S
Ġdep ict
Ġfact orial
Ġdist ress
Ġcr ist
Ġstret ch
D M
vert ed
( len
Ġe ast
ĠT ax
Ã© ment
ho le
Ġcomprehens ion
Ġroll ing
lic her
cc cc
Ġestablish ment
pu Ã©s
i ostream
y ad
Ġp df
Ġd arauf
Ġn un
ĠM anchester
ĠÐºÐ¾Ð¼ Ð°Ð½Ð´
Ï İ
pl an
ĠÐ½ Ð¸Ñħ
ĠÑįÐº Ð¾Ð½Ð¾Ð¼
Ġappro val
ik t
ĠSte am
Ð £
Ġìľ ł
Bo ok
V al
è ¾
Ġsit o
-d is
Ġbr idge
- z
. util
j ac
Ġar te
Ġpsych ology
Ġpros pect
Ø§Ø ²
ĠâĢ ĭ
Ġinterf erence
@ @
L ayout
Ġte ase
Ġbet ray
Ġmanip ulating
Ġprodot to
Ġs outh
ĠD B
ĠL ab
Ġdes erve
Ġen forcement
ĠW ert
s ource
Ġo k
Ġav oir
Ġens emble
eg en
U nder
Ġpr Ã©s
ĠÑģ Ð¸Ð¼
L LM
Ġw o
ak a
Ġele tt
-m inded
Ġna ughty
Ġhay a
ĠÐ½Ð°Ð¿ Ð¸Ñģ
m ail
s nake
- cy
Ġse ctions
Ġcomp ilar
ĠAl right
Ġrest ore
ĠMin ister
Ġphen omena
-dih ydro
.Write Line
Ġinter vention
Ġassist ants
Ġproblem i
Sc ene
Ġd ann
ä¸ ī
# define
Ġb ars
Ġcomp ile
Ð´ Ð´
ĠSt ream
Ġcollect ing
Ġstim ulate
Ġsyst Ã¨me
D as
_ height
Ġdom ains
Ġtab oo
ĠÐ¾Ð´ Ð¸Ð½
ĠP rompt
Ġprod uto
- care
F unction
T Q
ĠD a
ĠprÃ³ xim
éĢ ļ
Ġprodu cer
Ġext end
ĠApp lication
Ġhel pless
äº Ĩ
Ġexperiment al
ĠPer form
Ġl Ã¤
Ġregul ate
Ġperfect ly
ĠÐ´ Ð¾Ðº
place ment
'ent raÃ®
orig inal
A V
u ite
Ġc idade
Ġfr ames
g ments
z ung
ĠS aturday
Ġinst ru
ze it
uper vised
Ġt ale
Ġre nov
Ġsa ud
Ġatt itudes
Ð½Ð¾ÑģÑĤ ÐµÐ¹
ÐĶ Ð»Ñı
Ġany where
Ġi od
ĠÙĬ ÙħÙĥÙĨ
Ġprodu Ã§Ã£o
Ġsign ature
ĠTrans fer
ĠÐ¿ÑĢÐ¾Ð´Ñĥ ÐºÑĤ
Ġown ed
ins i
ï¼ģ æľīä»Ģä¹ĪæĪĳ
Ġbe er
Ġwas hing
ĠÐº ÑĥÐ»ÑĮÑĤ
f unc
Ġfun z
ÐµÐ» Ð¸Ñĩ
Ñĸ ÑĹ
Ġdispon ÃŃveis
A b
z ir
ad ed
ĠM em
ĠAl ternatively
[ NAME
c ity
Ġhum idity
ĠÐ¼Ð¾Ð´ ÐµÐ»Ð¸
ĠÐ·Ð°Ð´Ð°Ñĩ Ð¸
Ġtyp ing
Ġend less
Ġho je
Ġimpact o
opt ions
Ġot ten
Ġcomprend re
n ÃŃ
ĠC lean
ĠB al
Ã¡ m
Ġsuper fic
Ġaccel eration
Ġhy giene
ðŁĶ ĵ
Ġgeral mente
AAAA AAAA
ĠC ivil
Ġbi ology
Ġalg u
ĠChat bot
ÅĽ Äĩ
Ġadic ionar
Ġitiner ary
rand o
Ġcan n
ĠE SP
ep th
Ġones elf
åľ °
ĠQual ity
j ekt
t elling
Ġbe ans
Ġquest i
ĠÑĢ Ñĭ
Ð¾ÑĤ ÐµÐº
ĠÐ¿Ð¾ Ð¸ÑģÐº
f n
r Ã³
Ġra ggi
heart ed
R ed
Ġ ÃŃ
Ġ erm
he ro
Ġsp a
Ġag greg
ĠÐ¼ Ð½Ð¾Ð³Ð¾
Ġclass room
Ġlot s
Ġland marks
Reg arding
Ġar ithmetic
Ġimport Ã¢ncia
olog ie
Ġge ometry
Ġdesem pen
Ġt el
et to
ĠStand ard
Ġíķľ êµŃ
Ġ )Ċ
ĠQu antum
Ð¢Ð°Ðº Ð¸Ð¼
ĠT ower
Ġtext e
Ġì £¼
Ġjo ys
Ġstream s
lie ÃŁ
Ġpolymer ization
om ing
ĠPort o
Ġa ward
Ġrecord ed
Ġsummar ization
Ġmant ener
l ined
Ġar rest
ier o
Ġwood s
ĠÐ³Ð¾Ð´ Ñĥ
E C
Ġw ise
Ġb a
Ð¸Ð± Ð»Ð¸
Ġeager ly
ĠD irect
Ñĸ Ð½
Ġsubsequ ent
Ġt udo
ĠPac ific
an el
ĠdÃ©s olÃ©
' `
( M
s w
} );ĊĊ
ç ¤
Ġdist ur
Ġhuman a
Ð¸Ñģ Ð¸Ñģ
Ġfra ction
Ġwealth y
Sl ide
Ġimmers ive
f ont
ì Ī
ĠN or
Ġind ices
Ġval ore
ä½ ĵ
ĠÑįÑĤ Ð¾Ð¹
ĠSc ient
éĩ ı
ograf ia
Ġoffic er
Ġtoken izer
on i
Ð¸ Ñī
Ġind eed
Ġcor ros
Ġlib ro
lam a
Ġgenu ine
ì ¶
ues e
Ġrec uper
Ġampl ia
Ðķ ÑģÐ»Ð¸
ing e
Ġnot a
Ġro se
Ġë° ı
ĠAl low
Ġsubject ed
Ġamb ig
ĠÐ¿ÑĢÐ°Ð² Ð¸Ð»ÑĮ
forder ungen
ĠT ree
Ġembed dings
Ã¡f ico
Ġgravit ational
Ã¡ ficos
Ġfact ual
Ġexc el
Ġexperiment ing
Ġunders core
Ġd ancing
if ically
ain er
ĠÐ³ Ð¾Ð²Ð¾ÑĢ
.get UpdateInterval
Ġcorre ction
unge re
ĠÐ²Ð» Ð¸Ñı
v ious
c up
Ġm ere
ng th
Ġstud io
Ġresol ved
ç Ļ
ĠS at
Ġad mit
ĠEx erc
Ïģ Î¿
ĠBo ot
ĠÏĦ Î·
Ġh unt
Ġpass os
Ø§Ø ¡
è¿ Ļ
om er
orm on
Ġharm less
Ġcalcul ator
ĠÐºÐ¾Ð»Ð¸ÑĩÐµ ÑģÑĤÐ²Ð¾
Ġsav oir
ĠG ET
ĠÐ¸ÑģÐ¿Ð¾Ð»ÑĮÐ· Ð¾Ð²Ð°Ð½Ð¸Ñı
æĸ ¹
H uman
Ġgra y
Ġconsider ado
Ġsociet Ãł
Ġsched uling
/ t
Ġcont amin
Ñİ Ñī
ÙĬ Ø±
åħ ´
Ġthread s
ĠÐ¿Ð¾Ðº Ð°Ð·
Ð°Ð»Ð°Ð» Ð°Ð»Ð°Ð»
é ĥ
ĠP rivate
OR T
Ġrev is
Ġneut rons
Pr int
Select or
ĠÐ¾ÑģÐ½Ð¾Ð² Ðµ
. key
Ġam igos
Ġutiliz ada
Ġ> >
Ġpermit ir
Ġreproduct ive
. plot
Ġlar g
uc hen
Ġdest ac
rec ognition
Ġhorm ones
Ġherramient a
ìĽ Ĳ
Ġatrav Ã©s
" M
P ort
v b
Ġout er
ĠÐº Ð»ÑİÑĩ
za hl
Ġconver ts
ĠfÃ³ rm
Ġa fect
at Ã³
ĠM emory
Ġdis aster
othe rapy
ÑįÑĤ Ð¾Ð¼Ñĥ
Read er
G u
Ġfor am
Ġdiff er
ĠEst oy
Ġcompat ibility
Ġbere it
Ġund ress
Ġtick et
( &
Ġwh ose
art ial
Ġover l
Ġten nis
ĠiÃ§ in
Y OUR
en ess
ĠC ela
Ġdis ag
ĠLinked In
C ar
Ġco res
yr am
ĠÑħ Ð¾Ñĩ
' inter
pt ic
Ġpas os
Ġtrust worth
ot ed
Ġdo ve
Ġest Ã©
ĠÐ¸ÑģÐ¿Ð¾Ð»ÑĮÐ·Ñĥ Ñı
Ġgather ing
W ho
t res
Ġp H
Ġv icuna
Ġqu otes
Ġre new
ĠH istory
and ong
Ġutiliz za
ĠEst abl
ÅĤ a
v ida
es la
Ġb anco
Ġredu ces
ĠÑģÐ²Ð¾ ÐµÐ¹
ĠdifÃŃc il
é ¡
ad ian
Ġexhilar ating
S nake
13 0
Ġn il
ĠâĢ Ķ
ë© °
ad en
Ġha ce
og s
ĠB I
ap hor
Ġinst ability
ĠÑĢ ÐµÑģÑĥÑĢÑģ
ĠÑģÐ¾Ð·Ð´ Ð°ÑĤÑĮ
Ġjur is
Ġfest iv
Ġtou ches
Ġapp lies
ãģ ¤
Ġno v
.s ave
Ġgest ion
ä¸į åı¯èĥ½
Ġatom ic
Ġacknow ledge
ãĤĪ ãģĨ
Ġgost aria
- rays
B ridge
Ġd y
ost en
Ġi k
Ġmisunder stand
Ġcorre ta
Y ear
Ġsing ing
Ġ× ľ
pons es
Ġrobot ic
Ñģ Ð¾Ð½
Ġinv alid
Ġra b
ser vice
'] ,Ċ
Ġaz i
Ġsurve illance
Ġhe aling
Ġv ista
F urthermore
it arian
ĠÐ¿ Ð¾Ñĩ
ĠO racle
Ġequip o
Ġunivers al
ĠL ike
Ġsc enery
ĠRE ST
ÐµÐ³ Ð´Ð°
op henyl
Ġspecify ing
Ġban king
r ado
ou nce
rop a
ĠwÃ¤h rend
_ W
ess ed
Ġch ron
Ġper t
Ġvo or
ĠÐ¾Ñģ Ð¾Ð±
Ġsubstit ution
ĠAM D
ĠÐ¸Ñģ ÑģÐ»ÐµÐ´
E dit
Ġn ap
ĠB BC
ãģ ©
Ġopen ly
Ġport s
Ġarm or
Ġw inter
ĠÑģ Ð¾ÑģÑĤÐ¾Ñı
ĠÐ· Ð°Ð½
Ã¶ s
åĲ į
ĠÐļ Ð¾Ð½ÐµÑĩÐ½Ð¾
il ated
Ġcl ave
ĠMin istry
Ġammon ia
Ġind ica
Ġmis information
Ġgod s
Ġb ord
ĠP ass
Ġun re
Ġtu oi
-e fficient
Ġhyp not
Ġexplos ive
Ġcounsel or
Ġnote book
Ġexecut ado
ëĲ ľ
ĠÑĨÐµÐ» Ð¾Ð¼
ĠI ter
ĠL abor
Ġpar am
ond a
Ġgerenci ar
ĠB lu
_s et
Ġrandom ly
Ġcup s
'entraÃ® nement
L ocation
Ġpat ience
Ġpor que
Al Ã©m
ëı Ļ
Ġnervous ness
ĠSing le
) ),
h n
ĠS ustain
ĠH ugging
() ;
Ġê ´Ģ
ĠIndust ries
ibil idad
Ġd Ãº
Ġdef ect
23 4
ĠDevelop ing
Ġembed ded
ur d
ÃŃ f
EN D
ÑĮÑİ ÑĤÐµÑĢ
Q ue
ell er
Ġident ifier
å° ı
Ġcontrol ar
Con st
Ġdesenvol ver
Ġalb um
ÑĪ ÑĪ
ĠÑģÐ²Ð¾ Ð¸Ñħ
k te
in ate
eth anol
Ġbes oin
Ġsimpl ify
in ct
ot lin
if iques
pet to
Ġme als
Ġdistribut e
ĠsÃ© rie
Ġprem ium
Ġfal ta
Ġdemoc racy
Ġsocial es
c ie
ĠM as
Ġpow dered
Ġdal am
Ġsup uesto
F L
S earch
Ġìŀ Ĳ
Ġcoordin ate
Ġcab in
Ġitalian o
-play ing
Ġtr an
ier te
ven ue
Ġcapt uring
ĠÐĶ Ð°
Ġfurn iture
Ġ ries
ĠPok Ã©mon
Ġlawy er
Ġstrong ly
Ġquant ities
Ġaplic ativos
z ust
ĠD id
ĠR O
Ġcarcin ogen
Ġto t
-p yrimidine
ah l
Ġmod ular
Ġrel ativity
Ġexpl ains
æıĲ ä¾Ľ
Ġst aring
th yl
ne ys
åĲ İ
Acc ording
Ġpesquis a
ĠÐ¼Ð½Ð¾Ð¶ ÐµÑģÑĤÐ²Ð¾
Ġ" ))Ċ
Ġpap el
b age
g on
Ġg igg
Ġsuggest ing
Ġf ault
Ġl ick
Ġret ain
li x
Ġalmac en
Ð¸ÑĩÐµÑģÐº Ð¾Ð¹
ĠExper iment
Ġmigli orare
c ategory
Â ł
æ ¢
il a
Ġvis a
è§ £
y ter
ce ived
Ġpre ced
Ġter rain
Ġrout er
V ar
Ġre ass
ĠT ABLE
Ġpro pose
ÑģÑĤ Ð¾Ñı
Ġbl ur
å¤ ©
ĠìĦ ľ
ĠSim ilarly
W as
iv amente
ÐµÑĤ ÑĢ
Ð¸Ð±Ð»Ð¸ Ð¾ÑĤÐµÐº
ĠC E
ĠÑģÑĤ Ð¾ÑĢÐ¾Ð½
Ġsel on
L embre
Ġde ix
ĠP op
Ġprot est
Ġmiss ed
Ġstim ul
c ers
al o
as hes
Ġdisc ut
Ġbras ile
P os
b ell
Ġh its
ĠS em
Ġro d
Ġpare ce
ĠStud y
ĠÎ½ Î±
F C
Ġp se
Ġnutr ition
( name
ĠÐ¼ ÐµÐ´
Ġnegot i
Ġë°© ë²ķ
P at
Ġ íķ´
ur ous
Ġvisual ize
Ġenter prise
ĠDiff erent
ĠDem oc
å¾Ī é«ĺ
un it
Ġche ek
Ġgrow s
** ĊĊ
ÄĻ d
qu ence
ÐµÑĤ Ñĭ
ove mber
Ġí ı
Ġv eter
um as
Ġch ose
Ġcar b
Øª ÙĪ
ĠÐĺ Ð½
Ġìĸ ´
Ġweit ere
Ġth rive
Ġth á»ĥ
ÑĤ Ð¸Ð¼
ÑģÑĤ Ð°
à¸ «
Ġhom em
Ġdeterg ents
Ġp ets
Ñİ ÑģÑĮ
vent ure
Ġpop ulares
Ġevent o
Ġexplor ar
ĠBre ak
vari able
" What
Ġphys ique
êµ ¬
ĠSm all
ĠIncre ased
y aml
Ð¾ ÑĦ
ĠD I
.d estroy
Ġsl ice
car b
ĠOpen CV
Ġwild life
Ġexcl usive
ķ Į
he res
or rect
Ġp adr
Ġpr z
ĠSp ark
RO UP
Ġpub lish
Ġ Å
Ġl igne
Ġnot ation
ãĢ į
Ġìł Ģ
éľĢ è¦ģ
Ġhol iday
Ġeleg ant
Ġtra va
Ġmach inery
Ġmisunderstand ings
v elles
ê ±
ë ¬
Ġgr anted
Ġgl uc
re w
et zt
Ã¡ genes
.t ime
.ex ample
Ġdivers i
Ġb ought
Ġ` "
Ġju ice
ĠMaterial s
Ġm Ã³
Ġest rutura
lo or
Ġav anÃ§
Ġsupp lements
Ġrecip es
ĠR isk
Ġfr anch
Ġrit ual
in itial
Ġp itch
ĠH o
Ġpop ul
Ġbelie ves
ĠCol umn
ĠÎº Î±Î¹
" ),
Ġm ul
Ġ" -
Ð¼ Ð¾
Ð½Ð¸Ðº Ð¾Ð²
Ġhous es
Â Ń
Ġh iding
Ġcont a
-f or
Ġsuper vis
Ġauthor ization
Ġnou velles
Ġc á»§
ri os
Ġen um
vas cular
ĠÐŀ ÑĤ
Ġload s
Ġâ ĸ
ĠRep ort
reb bero
Ġtr ouver
Ġins ult
ĠTrad ers
a e
eth ylp
ãĢ Į
Ġbase ball
eto oth
Ġtabel a
d ouble
Ġprot ot
Ġartificial e
Ġweek end
Ġreluct antly
( image
Ï Ĩ
ĠR ome
ĠJ ul
ĠIN ST
Ġmagn itude
ĠL ast
par am
Ġinc idents
Ġsim ul
Se cond
P ol
ou ds
Ġdi ameter
cons cious
Ġdepth s
M O
r g
az in
ĠRe peat
ĠÑģÐ¾ ÑĨÐ¸Ð°Ð»ÑĮ
Ð» Ð¸Ðº
io res
Ð¾Ð½ Ð°
Ġvaried ade
usal em
b ind
ĠA ff
ĠO ctober
ĠÑĥ ÑģÐ¿
He ight
ëł ¤
Ġobserv ation
ĠEt hereum
_ D
ĠÃ Ĺ
ãĤ ³
Ð¾ÑĤ Ð°
-up s
c r
th at
ãģ ¡
ĠPr ice
Ġinsert ed
Ġcá»§ a
ment ed
ĠF ed
ĠÐºÐ¾Ð¼ Ð°Ð½
con ventional
ĠÐºÐ¾Ð½ ÑĨ
.st yle
' ]ĊĊ
ĠÑĤ ÐµÐ±Ðµ
Ġroot s
start ed
Ġpest s
Ġacknow led
" name
cip ient
ĠTur key
Ġdow nt
O ff
ĠC V
åĽ ł
å¾Īé«ĺ åħ´
Ġt es
ĠÑģ Ð½
ÃŃ cio
Ġclust ering
M at
ĠS amsung
ĠL atin
Ñı Ñģ
Ġutiliz an
ĠÐ¸Ð· Ð¾Ð±ÑĢÐ°Ð¶
Ġfilos of
Q uit
ĠAr ray
ï¼Į æĪĳ
ĠÐ²Ð½ Ð¸Ð¼
icu Ã±a
7 3
Ġh ans
Ġv ivid
ĠD ear
ĠF il
ãĥ Ń
Ġb áº¡n
Ġess e
à¥ ĭ
Ġgam ma
Ġperm ett
-dim ethyl
ĠmÃ© th
Ġo Ã¹
ol id
Ġtra veled
Ġarch ivos
Ġpreg untar
ÏĢ Î¿
unge on
æ į
Ġd azu
ĠE conomic
ĠO cean
Ġvari as
ĠÐ´ Ð¸
Ġseg uro
Ġcompet e
ĠNetw orks
-aware ness
n ia
Ġal arm
Ġdis m
è µ
Ġd udes
ur ante
Ġres ident
con n
Ġchar ging
ĠPortug uese
- ac
æ ±
Ġg ly
Ġint ake
ĠEnter prise
Ġf res
Ġl ambda
Ġcomp elling
Ġequ ity
Ġt ensions
ed i
Ġhand les
Ġespecial mente
à§ ĩ
_ pos
fol der
7 1
og no
pon ents
Ġbab ies
Ġfas c
Ġëĭ ¹
ç ¨
ell t
Ġnew ly
ĠV AH
ĠÐ¾Ð±ÑĢ Ð°ÑĤ
- learn
ĠC ard
Ġprof its
Ġactiv ate
Ġein z
ĠPol y
ĠOn ly
Inst ructions
-p henyl
ĠA ctive
Ġcolor less
LE D
ĠÐ·Ð½Ð°Ñĩ ÐµÐ½Ð¸Ðµ
l ambda
Ġt ub
Ġn ell
Ġsc ar
icon duct
Ins ert
C ustomer
S ource
un ic
cul os
Ġwonder ing
ģ ¬
Ġr Ã³
ak en
Ġunderstand able
ĠÐ¸Ð· ÑĥÑĩ
Ġswitch ing
Ġab dom
ĠCon clusion
ĠÐ¿ÐµÑĢ ÐµÐ¼
Ġfire wall
ĠÐºÐ¾Ð¼Ð¿ ÑĮÑİÑĤÐµÑĢ
_ values
è ī
lect ric
âĢ į
Ð¾Ñģ ÑĮ
Ġgr asp
ĠSD K
at al
Ġl ush
ĠSt orage
rit ten
$ $
Ġd ice
Ġho ok
ĠSe e
Ġnight life
Ġearth qu
ĠÐ¾Ð· Ð½Ð°Ñĩ
P ause
Ġf ed
Ġmet aphor
bl ue
ĠSS H
Ġmig ration
ÑĢÐ¾Ð¼ Ðµ
Ġdeb ug
ĠAnt wort
Ġêµ ¬
ĠSS D
ul in
Ġpart es
Ġra g
Ġin ject
Ġy ields
Ġsupp lement
od ium
ĠÐ¸ Ð´
Ġversat ility
Ĥ °
st Ã¼t
( h
M on
ĠÑĦ Ð°ÐºÑĤÐ¾ÑĢ
ĠÐ¾Ð¿ ÐµÑĢ
Ġdash board
ĠSoci ety
os i
Ġment re
Ġfu els
Ġg ap
Ġman ually
ÑģÐº Ð¸Ñħ
Ð¾Ð»Ð½ Ð¸ÑĤÐµÐ»ÑĮ
Ġlaun ched
Ġrec ycling
Ġlas er
Ġcamb i
R T
Ġun less
ud ing
ĠS AP
Ġconc ert
åĲ ĥ
n pm
Ġyou th
Ġbl onde
Ġaccess ories
Ġsho ok
ĠÐĿ Ðµ
æ¶ Ī
' ag
Ġl ately
ĠÐ´ ÐµÐ½ÑĮ
ik ip
ĠÐ³ ÑĢÑĥÐ¿Ð¿
ĠÃľ ber
Ġh in
Ġle var
ib ili
Ġcl ara
ĠR ock
ĠNew s
am t
ĠOver view
ãģĵãģ¨ãģĮ ãģ§ãģį
[ Ċ
n ome
Ġc Ã©l
Ġle v
Ġwe iter
Ġcons pira
Ġbra very
ĠAnaly tics
ĠIntegr ation
A K
ac ity
ib l
Ġwor se
ty le
ĠÐ³ Ð¾Ð»
Ġquant idade
Start ed
Be fore
Ġintim id
ì¹ ĺ
N on
Ġbe w
Ġal Ã©m
ĠÐº Ð¾Ð´Ð°
Ġperson nes
Ġcent ro
-m onth
Ġpref ix
Ġsus pect
n ych
é ħ
on jour
Ġha cking
Ġcon osc
ÑĢ Ð¾Ð´
Ġest abele
ĠÙħ ÛĮ
. '
V icuna
it ical
ul pt
ac on
Ġmac OS
E ffect
ructure d
Ġcic los
V ER
Ġret urning
ĠAg ain
Ġsad ness
Ġm amm
le m
Ġde uter
ad t
ĠĠĠ Ċ
Ġass embly
Ġfl amm
Ïĥ ÏĦ
h ops
Re place
ĠL at
av ed
Ġdi am
az a
Ġcr ÃŃ
Ġimag ined
ĠÐ²ÑĭÐ¿ Ð¾Ð»Ð½Ñı
p ciÃ³n
Ġnecess ario
ìł Ħ
×ķ× ª
Ġrect angle
ĠImp act
Ġperpet uate
ĠÐ¼Ð°ÑĤ ÐµÑĢÐ¸
) "
H igh
cl os
Ġsp ir
Ġcount s
Ġeffic ace
Hand ler
Ġb one
ak i
5 12
en ci
Ġn ic
ĠS up
Ġim Ã¡genes
vo ir
Ġcoord ination
as tern
ast a
Ġbu g
pro ject
ĠÐ¿Ð¾Ñģ Ð»Ðµ
Ġferrament a
` ĊĊ
Ñĸ Ð¹
ĠAr beit
ĠSh adow
ĠSet t
Ġexecut ing
ĠÐ²Ñģ ÐµÐ³Ð´Ð°
ĠI r
Ġhe els
ĠJ oin
Ġveget able
.ex e
_ ID
_ output
ĠT ex
ĠM ary
Ġper ÃŃ
Ð¸Ð¼ ÐµÐ½
Ġutil ise
With out
ar ÃŃa
ĠS ynt
art icle
Ġcl ues
Ġsc op
Ġadvent urous
jo ys
Ġwat ers
Ġon ion
Ġval ued
f irst
ĠÐ° Ð´
Ġindic ator
ĠìĦ ¤
rape ut
Ġspecific he
Ġbus c
oid s
Ġmodify ing
å¹ ¶
W idth
Ġim g
' alt
Ġinv ers
ety l
×Ļ× Ŀ
Ġhund red
re z
pr Ã¼
Ġge ben
ĠCons ult
Ġtour ist
Ġdrop s
Ð½ÐµÑĢ Ð³
w est
ĠÐ±ÐµÐ·Ð¾Ð¿Ð°Ñģ Ð½Ð¾ÑģÑĤÐ¸
is ce
ĠÐ¾ ÑĨÐµÐ½
Ñĸ Ð»ÑĮ
.get Difficulty
.f it
Ġauthor ized
Ġcryst allization
ĠArgent ina
c ido
ĠW elt
ĠU r
Ġup set
Ġsmart phone
Ġjog os
čĊ čĊ
fil ename
Ġv erm
zz o
ìķ Ī
Ġalph a
Ġ íķĺ
il ant
Ġ( !
ĠV M
Ġlong est
Ġnut s
SI ZE
Ġel Ã©
Ġpo ichÃ©
Ã¼n st
-pur pose
¤ è
ĠÐ± Ð¸Ð±Ð»Ð¸Ð¾ÑĤÐµÐº
Ġspread s
Ġcert ification
åį ģ
Ġìĺ Ī
e ach
ĠC A
Ġinvolve ment
Ġdram a
Y Z
ľ âĶĢâĶĢ
Ġp iano
il en
Ġad alah
Ãª tre
ĠÑĥ ÑĤ
oper ative
ĠëĮĢ íķľ
D ec
T ok
d i
ch os
Ġsc ulpt
Ġmus h
Ġpre ven
ator io
Ġwar nings
Ġdeb ugging
æľ ª
Ġanc ora
Ġcolle ctions
-def ined
M ethod
Ġk a
Ġstr anger
Ġop ciones
Ġbel le
Ġcho ir
Ġiniti ator
Ġfarm ers
ĠÐ¿Ð¾Ð»ÑĥÑĩ Ð¸ÑĤÑĮ
ĠfÃ³rm ula
P al
t x
w ell
Ñĸ Ð·
Ġestim ates
Ġadequ ate
Ġfiltr ation
ar am
Ġsu oi
Ġdo is
ĠV ers
Ġexp ose
Ġthr illed
Ġbul let
Ġcont rat
ĠL GB
ĠV ormon
pre nd
ĠCont act
Ġprime iro
Ġpac iente
wend ung
Ð §
nd rome
ÃŃ culo
ĠÐ¿ÑĢÐ¸Ð² ÐµÑģÑĤÐ¸
u zz
Ġf att
cover y
Ġol ive
ĠR andom
Ġlo ans
-f am
Ġguer ra
re q
Ġh orn
-c ent
ĠAng ular
s core
ikip edia
Ð¾ Ñħ
Ġcal col
Ġvers Ã£o
Ð¸ÑĨ Ð°
Ġmate m
ARCH AR
m ico
Ġ{ {
Ġcar atter
Ġstri king
Ġcam eras
Ġann ounced
ĠJew s
Ġsp ells
_d irections
ĠSw ed
' att
H D
ass en
ĠPre is
Ġsil ence
- ${
Ġ( <
Ġch ips
Ġmod er
ĠG T
ĠÐ½ ÐµÑĤ
ĠÃ Ī
Ġrespon ds
Ġland sc
Ġsocied ade
Ġminer als
Ġ ion
Ġd ad
Ġprov ince
Ġuse State
In valid
" ],Ċ
7 4
Ġwith stand
ĠÃ© v
Ġrecommend ation
ador a
Ġparticip ant
Ġpossib ly
b ug
Ġhe al
ĠA lex
Ġtr ick
Ġ$ \
Ġpes o
Ġrab bit
Ġup coming
Ġmet a
Ġleg is
.t imer
ĠÎ ¸
Ġconserv ation
E qu
Ġe ther
Ġst ating
ific aciÃ³n
In oltre
Ġencourage ment
Ġconhec ido
vb net
. php
s i
am ination
ens Ã£o
Ġrep rodu
Ġequ ipe
++ ;Ċ
Ġartifact s
u ating
Ġs igh
Ġpay ee
Ġwin ner
Ġconsens us
Ġvolunte er
pp ers
Ġcar ing
ĠInd ex
Ð¾Ð±ÑĢ Ð°Ð·
Ġb ull
Ġle is
Ġdeb en
Ġpadd le
à¸Ń à¸ĩ
Ġthe ater
Ñĭ Ð»
Ġsa u
ĠV it
ĠÐ¿ÑĢ Ðµ
Ġrecurs ive
Ġmicro phone
sub mit
S al
t Ãł
Ġhe ated
Ġobser ve
ĠÑģÐµÑĢ Ð²ÐµÑĢ
ĠÐ¾Ð³ ÑĢÐ°Ð½Ð¸Ñĩ
H is
ì £¼
art o
eg a
Ġseg undo
Ġsupp osed
Ð¸Ð·Ð½ ÐµÑģ
. new
out s
Ñĥ Ð·
Ġref res
Ġencuent ra
: "
f un
Ġn atura
cl oud
36 5
Ġdecre ased
a que
Ġj ag
Ġstick y
Ġcyl ind
é ©
Ġp it
ÑĦ ÐµÑĢ
Ob servation
we i
ĉĉ ĉĉ
Ġconv in
Ġunw anted
A qui
ĠK ong
Ġë ¬
ĠTra vel
Ġbreat he
M ake
Ġt ing
ÐµÑĤ ÐµÑĤ
Ø± ÙĬ
Ġtri als
p op
Ġdes cent
Ġinform aÃ§Ã£o
Ġtravel s
Ġexplo it
Ġmatr ices
- vent
ĠÐ ¦
Ġco zy
ree ze
Ð¸Ñı Ñħ
Ġbi otechnology
Ġterrit ory
ĠViet nam
í Ķ
Ġc udd
Ġre vel
Ġval ut
Ġfin anz
-gener ated
.generate InitialPosition
ĠBundes liga
E xt
T ra
V I
ar lo
Ġì ¢
Ġ} ;Ċ
-f luor
Ġcomponent es
åĵ ģ
ĠíĮ Į
Ġg az
.h igh
Ġa est
Ġal unos
ãĥ ĩ
Ġchange Direction
For ce
Ġoccur rences
mon th
ĠMet a
ĠAng eles
Ġtrein amento
Ġbe ef
de c
Ġtut ti
Ġw edding
ĠC ancer
Ġres idents
Ġat ividades
Ġpe er
Ġcomplet amente
Ġsubt le
b ec
Ġhe ter
ant en
op yrimidine
Ġprof iciency
Ġstory telling
Ġclust ers
Ġle verage
In fo
Ġfo is
ĠH ung
ful ness
ĠSt ock
roll ing
Ġnur se
j Äħ
er i
Ġw ard
ĠN ative
Ġresult ed
ĠrÃ© ponses
Ġclim b
fit ting
Ġrent al
Gr oup
< span
] ;ĊĊ
ĠLe vel
- ,
. on
Ġinv iting
Ġbox es
Ġunc anny
r ank
Ġl itter
Ġan ten
ld er
ĠM ap
Ġconnect ivity
Ġih rer
ê° Ħ
Ġcl ip
Ġbr ill
ulf on
Ġìķ Ħ
M ed
Ġcom enz
Ġch uck
ĠR a
Ġloc ally
AR SA
ĠÐ¾Ð¿ ÑĭÑĤ
ĠUnter nehmen
Ġoxid ation
Ġofre ce
iz ia
Ġsc ales
Ġsens ory
Ġling erie
F l
ĠÐ¼ ÐµÑĢ
Ġ/ *
Ġsign ed
-p yr
Ġchlor ine
h an
or ge
ic ans
Ġmeet ings
'h ui
ë§ Į
Ġrelie ve
Ġcitt Ãł
ch ter
Ġst are
ĠJ ohn
cc iones
ĠÑĥÐ¿ÑĢÐ°Ð² Ð»ÐµÐ½Ð¸Ñı
B B
ì ¤
il ty
Ġconnect s
Ġcirc ular
Ġfast est
ĠÐºÑĢ Ð°Ñģ
F inal
T oday
at ar
pe re
Ġsee ks
ĠCh all
ĠCom mon
> C
ĠØ ®
ij ing
Ġconoc imiento
ar on
Ð° ÑĶ
em a
Ġres ort
.s hape
ĠSS L
in as
ĠM P
U V
ar beit
ĠC op
ac o
ac ji
ĠÑĤ Ðµ
Ġvo z
Ġcolonosc opy
( output
- amine
< p
Ġor den
ĠS A
Ġam en
Ġport al
Ġindepend ently
ç ³
Ġle urs
Ġcomp lic
ĠÐ¿ ÑĥÑĤ
ĠBel grade
Ġoppon ents
L ength
Ġrelev ante
ĠEnt wick
Ġtheore m
ĠCa ption
Ġzw ischen
Ġë Ĳ
Ġsal v
Ġcu er
Ġrad i
ĠrÃ©s ult
Ñı Ð²
8 3
ĠS and
Ġpass es
Ġrobot ics
Up stream
Ġm Ã£
ied er
ĠBe gin
.game Started
e res
18 6
ĠProv ince
iler iler
ĠW ir
ĠÑģÐ¾Ð·Ð´ Ð°Ð½
ĠS eries
ional e
ĠAr duino
Ġant iv
Pro v
Ġluck y
C ome
s df
y c
Ù İ
Ġprof iss
Ch ild
Ġmar ks
Ġaffect ing
ĠÐ¼Ð¾Ð´ ÐµÐ»ÑĮ
Ġrevolution ize
Ġhoriz ontal
ĠnÃ¥ got
_ ids
Ġhe m
Ġdist illation
yrid in
inst ance
Ġcompl ain
Ġhorm one
Ġappoint ment
ĠBC B
help ful
ern o
ðŁ İ
We ek
ĠArch itect
Ġfestiv als
Ġc inem
str ings
ios a
Ġecon Ã³
# !
M C
Ġa ce
ur i
ÅĤ o
' y
T D
Ġh iring
ow e
pl icate
a ude
Ġsc ored
Ġprom ised
Ġsuc king
Ġelect romag
ĠÐ¾ÑĤ Ð¿ÑĢÐ°Ð²
Ġprogress ion
zust ellen
, \"
f ilter
th iophene
Ġprecis o
ĠAc adem
Ġign ition
Ġen zym
ĠH P
Ġachie vable
Ġann i
ĠProdu ction
" Difficulty
E in
qu elle
Ġcre aciÃ³n
olog ÃŃa
Ġmar ine
-s peech
Ġnu anced
Gr inning
' acc
( B
on itrile
ur ar
ich te
Ġsulf ate
M D
z ial
ç «
is c
vel ength
-d i
box ylic
Ġcritic ism
Ġacess ar
Ġcere mon
Ġver ste
Ġhapp ily
Ġcir cul
ĠAd m
Ð½Ð¸Ðº Ð¸
Ġaccel er
? )
Ġl ors
Ġwer de
ĠFl utter
Ġsmooth ly
Ġfato res
- Z
S ERT
b idden
ant ity
ĠC lear
Ġfe ver
ĠJ o
Ġcaus ar
ua ire
Ġchart s
Ġs Äħ
ot or
Ġen joys
his m
ĠVer ify
Ġ# ##
en Ã§a
Ġmed io
Ġsou vent
Ġpurs uit
Ġconsig lio
b ag
Ġs ust
Ð¸ Ð°Ð½ÑĤ
ier a
Ġfich ier
B ar
Ġs ar
ĠD utch
ĠÐ² Ð¾ÑĤ
ber ry
Ġut ility
Ġremain der
ĠStud ies
Ġbe e
ĠAss ess
Ġcos a
Ġplut onium
us r
Ð½ Ð¾Ð¼Ñĥ
Ð°ÑĤ Ñĭ
ç ®
ri re
Ġun int
ru its
ÐµÐ½ Ð½ÑĭÐ¹
ĠK n
ĠÐ¾Ð± ÑĭÑĩ
Ġclos est
Ã± as
ĠSp end
Ġn ested
ie val
Ġcor rupt
Ġdifficult ies
Ġsimilar ities
Ã´ i
Or der
Ġhumili ated
ĠFrame work
le tt
Ġdress ing
Ġperman ent
Ġj umps
ody nam
âĢ ²
Ġmem br
Ġhor a
Ġ× Ĳ
ĠÑĪ Ð°Ð³
Event Listener
Ġass ass
Ġfrust rated
YY YY
? assistant
ĠS ci
ass er
ĠK eras
Ġphot ography
Ġrecurs ively
åī į
å®ĥä»¬åı¯ä»¥ å®ĥä»¬åı¯ä»¥
w ined
ut ils
ĠS leep
Ġr atings
Ġdom anda
.W here
æĿ ¡
æĪĲ ä¸º
ĠPen is
ry ing
ĠÐ¼ Ð°ÑĪ
met ros
Y AD
Ent ity
âĢĭ Ċ
ĠT reat
Ġres ins
Ġrep ly
Ġrout ing
ĠÐ¿Ð¾Ð» ÐµÐ·
Ġfel iz
Æ ¡
ĠM it
å® ģ
Ġvit am
Ġoportun idades
ĠAG I
w rap
Ġoff re
ĠÑģÑĤ Ð¾Ð»
è´ ¨
j as
er ic
Ġag ora
Ġ} ,
Ġrecip ient
-vent ilated
Ġappro ved
pie ce
W ork
× Ĳ
.difficulty Button
ĠQuest ion
DD DD
Ġric erca
_ a
Ġas ide
ĠD om
Ġall ocation
ÃŃst ica
ĠamÃ©li orer
ĠC rie
Ġpos es
ars ha
Ġfl ame
Ġpod eria
Ġobtain ing
Ġaprend izado
ĠC ast
Ġma i
tic os
ÑĢÑĥ ÐºÑĤ
Ġprec ip
Ġhost ile
Ġnave g
Ġunpredict able
Ãª te
Ġrac ism
Ġar bit
Ġdis cre
az ol
Ġmoment um
Ġpu pp
å¾ Ĳ
/ p
en heit
al ph
ac as
à¸ ·
Ġcomplex ities
Ġhesit ation
Jack son
_ prime
f Ã©
Ġdes p
ĠÐĿ Ð¾
Ġang les
Ġlid ar
Ġcomple ta
bo ards
Ġcheck Collision
Ġej ac
ĠTest ing
Ġb ite
Ġv aries
oc s
Ð» ÐµÑĩ
Ġu pp
ĠE ine
-S uaire
ĠAg ent
ĠRT GS
/re cipient
Ġverschied ene
Ġdigest ive
P assword
Ð° Ð¸Ð¼
Ġgr Ã¡ficos
-s ized
po ons
Ġsn ap
Ġgod dess
Ġencod ed
çŃ Ķ
O ps
ĠP i
Ġmenc ion
ĠT esla
Ð½ Ð¸ÑĤÑĮ
Ġro of
ĠÐ± Ð¸Ð·Ð½ÐµÑģ
Ġbel oved
ĠÐ¡ ÑĤ
', '
ĠInt eger
.high Score
us a
ĠM S
ãĤ ¿
Ġpass ive
Ġmem oria
á» ¯
Ð¸ÑĩÐµÑģÐº Ð¾Ð³Ð¾
Ġdesper ate
h ome
he at
ĠC ir
Ġinter connected
ĠÑĤ Ð¾Ð²Ð°ÑĢ
Ġconsid Ã©r
Ingredient s
s ed
Ġs f
am ment
Ġob iett
Ġflu ids
Ġjud gments
Ġvir al
ĠCL G
ĠTex as
Ġst raw
Ġcl ouds
Ġbr ut
Ġsun shine
ester day
ĠÑģÐ»ÐµÐ´ÑĥÑİÑī Ð¸Ðµ
Ġdestroy ed
æĥ ħ
å ĭ
Ġenv iar
Ã¤ re
Ġbreak through
ĠÑħ ÑĢÐ°Ð½
æī Ģ
ĠÑĢÐµÐºÐ¾Ð¼ ÐµÐ½Ð´
( Grinning
} `
ck en
à¤ ®
Ġcond one
R Y
áº Ń
fÃ¼ g
Ġdiffic ile
Ġ Ã§
ĠT ag
ĠÐ´ Ðµ
Ġrepresent ations
Ġlif etime
Ġexplos ion
ĠBrazil ian
Ġdeuter ide
d rop
ig ung
ĠÑĤ ÐµÑģÑĤ
Ġmon de
Ġdeploy ed
Ġsen ior
PRE YAD
PREYAD ARSA
O EVALU
Ġsuper natural
zy st
ìĦ¸ ìļĶ
( ['
M T
Ķ ¡
Ġh Ã¶
Ġcar ro
Ġmet od
++ ,
ĠGr ad
ĠÑıÐ²Ð»Ñı ÑİÑĤÑģÑı
Pre yad
Ġproyect os
ĠProble m
Preyad arsha
Ġv ig
Ġprodu zione
get to
ÐµÐ» Ð°
Ġdem ean
Ġpredict ing
ĠP od
og y
ĠL La
ĠÐ¾ ÑģÑĤ
ĠÑĦ Ð¸Ð·
osp ace
ĠApp ro
Ġsen ha
Pr ice
ĠPat ient
Ġdesempen ho
9 6
oc ar
ĠN avig
Ġut ile
Ġconj unction
D AN
Ġcont iene
ari as
Ġpar ad
Ġfre el
ore st
let ter
) [
c asts
i y
ĠT al
du ction
Ġorgan izing
Ġnatural e
Ġdri ves
Ð¸Ñģ Ð¾Ðº
CRE ATE
Ġstyl ish
ëª ħ
. right
< head
ì ĨĮ
ĠS plit
oc ado
irt i
yn omial
æĻ º
Ġs v
ĠS ono
ãĤ °
- Jackson
G e
l ab
bre w
ĠÐ» Ð¸
Ġlawy ers
am ic
Ġdri ps
Ġencount ers
ĠÑĢÐµÑĪ ÐµÐ½Ð¸Ñı
? ",Ċ
L os
ve ment
Ġma ze
ĠF lu
Ġav al
ĠÐ» ÐµÑĤ
Ġìĥ Ŀ
å¹³ å¹³
å¾Ĳ åĿ
Ķ¡ å¾ĲåĿ
< int
Ġ ],Ċ
aus s
Ġexperi Ãªncia
ĠÐ¸ÑģÐ¿Ð¾Ð»ÑĮÐ·Ð¾Ð²Ð°ÑĤÑĮ ÑģÑı
Ġintrig ued
ĠÐµ ÑīÐµ
G R
u ated
Ä ģ
Ġw ins
Ġcan al
ĠC apital
ĠG PS
Ñĩ Ð¸Ðº
Ġcor n
Ġdown s
mo ving
ĠPy game
Ġmoan ing
organ ic
Out ro
Ð³Ð¾ÑĢ Ð³Ð¾ÑĢ
ãĥķ ãĤ
l augh
é ļ
end i
ÃŃ r
Ġserv izi
à¸ Ĥ
ĠDe us
aj or
kan nt
ĠmÃ¡ xim
Ġentreprene urs
Ġtrabal har
iper azine
st an
ĠC apt
Ġcl ic
Ġpre y
ãģ Ŀ
Ġsens es
Ġeduc ate
Ġinclu i
Ġexplain ing
Ġshowc ases
ĠmÃ¶ch te
O ptions
epend ent
Ġestablish ing
Ã¤nd e
å¸®åĬ© ä½ł
Ġl er
Ġwid ened
Ġdefin ir
¤è Ķ¡å¾ĲåĿ
Ġav ent
ix el
Ġrun time
¤èĶ¡å¾ĲåĿ ¤èĶ¡å¾ĲåĿ
ĠÐ² ÐµÑī
10 8
Ð¸ÑĨ Ñĭ
-${ -${
Ġo ce
Ġv ote
Ġj ack
Ġco pper
Ġcult iv
Ġbr ute
Ġpuzz les
ut ed
ĠP rior
w ing
Ġutilizz ata
Ġproces ar
Ġplugin s
jour d
Ġâĸ Į
Ġde ce
Ġus ados
ĠW ie
ful l
ÐµÐ½ Ð¾
Ġro l
Ġmel ting
") [-
f iles
Ġtim ing
Ġretrie ved
Ġhumili ation
) ]ĊĊ
Ġ ~
Ġtra ce
Ġfl irt
ĠSh ort
Ġrappresent a
Ġm g
ĠE X
Ġshould n
Ġseg ura
Ġsqu ares
Ġcomun icaÃ§Ã£o
Ġentr ance
ĠÐºÐ¾Ð½ÑĤ ÐµÐºÑģÑĤ
R el
ang an
ĠÐ½ ÐµÐºÐ¾ÑĤÐ¾ÑĢÑĭÐµ
Ġprint ln
log in
ĠBe ing
Ġembed ding
j in
ĠI II
Ġno vo
Ġcomple to
Ġëĭ¤ ìĿĮ
Us ers
h alt
p andas
ad ius
Ġ` --
Ġmuch as
Ġescol ha
Ġsu fic
Ġaccount ability
ĠÐ¸Ð¼ ÐµÑĤÑĮ
ĠÐºÐ¾Ð¼Ð¿ Ð°Ð½Ð¸Ð¸
) ):Ċ
an alysis
ot to
Ġsh ops
unt ed
Ġtell es
æĪ ĸ
aps ed
Ġh il
cl ub
Ġresp ostas
Ġë° ľ
Ĥ¹ é
Æ°á»£ c
( String
Ġme in
ĠÑģÑĤ Ð¾
ic iones
Ġrep rÃ©s
% ;Ċ
lev ant
Ġimag in
Ġparticip ation
ĠAssoci ation
D er
Ġsh ade
ail able
Ġacc used
Ġsimp ler
Ġfore front
Ġconsult a
Ġlux urious
v ille
è Ĥ
Ġf ills
ĠT ik
if ie
ra ciÃ³n
ĠC am
se g
Ð°Ð»ÑĮ Ð½ÑĭÑħ
Ġprend re
- x
nd en
Ġimp r
Ġselect s
aa S
Ġnou n
è¦ģ æĪĲä¸º
ĠR is
Ġext r
ĠCor p
è¦ģæĪĲä¸º è¦ģæĪĲä¸º
ļ Į
Ġm u
Ġan om
ĠH ard
ĠWe bs
- jud
/ file
é Ľ
le ctions
ĠL u
à¸ ¸
Ġveloc idad
Ĥ¹é Ĥ¹é
E d
Ġab y
ĠL ocal
ĠÐ²Ñĭ Ð·
Ġchlor o
Ġencod er
ĠObject ive
_with tag
/ >
ed ded
ê³ Ħ
US D
Ġmuse ums
J S
Ġm ismo
Ġto oth
ir th
Ġr ural
Ġgu ilty
Ġsel bst
åĮ ĸ
EX T
d ail
å Ł
Ġto es
Ġ[ [
ĠÐ´Ð¾Ð»Ð¶ ÐµÐ½
ĠktÃ³ ry
Ġìĥ ģ
Ð Ľ
th read
ater al
Ġhy brid
Ġdemoc ratic
Ġsandw ich
Ġra ced
Ġadv ise
Ġinvest ed
ĠÑģÐ¾ ÑħÑĢÐ°Ð½
Ġcert ifications
Ġau jourd
dail dail
st ore
ĠP rem
Ġcomp iler
Ġser ia
.p re
ðŁ ¤
Ġview ers
ĠPO ST
ts x
ĠÑıÐ·Ñĭ Ðº
Ġv ive
ĠÐ¼ Ð¸Ð½
Ġremo ves
Ġdiferent e
Ġdin heiro
Ġtam an
L i
s App
ĠB ild
Ġpick ed
Ġconfigur ations
ĠBas ic
Ġus ual
int o
Ġart istic
Øª ØŃ
Ð°Ñİ ÑģÑĮ
el ry
ĠT CP
Ġqu ot
Ġapp end
Ġjust ify
Ã¼ hr
ÐµÐ´ Ð¸Ð½
Ġvers iÃ³n
Ġir re
ìĸ ĳ
Ð¾Ð¶Ð°Ð» ÑĥÐ¹
b ur
20 3
be i
ĠPs ych
0 10
ou st
Ġw ool
ĠN ovember
ĠÐ±ÑĥÐ´ Ñĥ
Ġcompassion ate
orith m
Ġcuid ado
ìĪ ł
f ox
elf are
ast y
car a
} ')Ċ
st orm
iv it
ll en
Ġaud it
Ġwal let
Ġbis ogno
_ entry
ific aÃ§Ã£o
ĠÐĺ ÑģÐ¿Ð¾Ð»ÑĮÐ·
Ġproces amiento
Ġsusp icious
Ġcardio vascular
Develop er
Ġdiagnost ic
Ġd are
ĠN ations
Ġgener ic
ause a
Ġpass engers
ë¡ Ŀ
Ġcomunic aciÃ³n
ĠÑģ Ð¿ÑĢ
Ġcar re
Ġstruct ural
Ġben Ã¶t
Ð°Ðº ÑĤÐµÑĢ
Ġmed it
ĠÐ¿ÐµÑĢ ÐµÐ²
Ġv oy
ĠL STM
ÐµÐ¹ Ñģ
Ġprop ried
Ġscen ic
Ġphot ograph
ĠComp an
Ġchied ere
å Ĥ¨
Ġc unning
Ġ" .
Ġte ar
par ams
Ġbi ased
NN s
gment al
d ist
Ġadv ocate
()` ,
ĠAl s
Ġih ren
Ġencoura ged
ëŀ ĺ
Ġneighb ors
N a
Ġst rain
Ġex emplos
Ġcal cium
Ġfranch ise
ç ½
Ġquest Ã£o
Ġrisk y
Ä± m
Ġproporcion a
æĹ ¥
Ġdram atic
ĠÐ´Ð¾Ð¿ Ð¾Ð»Ð½Ð¸ÑĤÐµÐ»ÑĮ
= ['
s ystem
ific a
Ġsor ce
ĠkÃ¶n nt
Ġpan els
.re place
o ins
it ches
Ġpl acing
Ñĩ Ð¸Ñģ
ĠSt op
ĠK om
ãĥ Ĩ
Ġpat ent
18 8
Ġlingu aggio
ĵç ¯
< body
Ġv Ã¡l
ĠÑĢ Ð°ÑģÑģ
Ġcr ash
Ġplot s
Ġadvent urer
ÑĥÐ³ ÑĥÐ³
Ġhyperpar ameters
Ġpr ze
ĠÐ¼ Ð°ÑĢ
Ġì ²
-b enz
ĠÑĩÑĥÐ² ÑģÑĤÐ²
/ *
Ġd ough
Ġcre ator
Ð¾ÑĢ Ð°
Ġcas os
p d
Ġn erve
line ar
ĠBl ock
Ġdese as
Ġabsor b
Ġsvilupp o
Ġportray ed
Ġresc ue
ĵç¯ ĵç¯
o ic
ĠT k
if iers
Ġla id
ru nd
ĠÑĢ Ð¾Ð·
Ġrec ib
plic ates
AC K
"," ","
ĠâĪ ļ
' ass
Ġre cur
Ġsit io
ãĥ ¬
ĠEl astic
b at
Ã¡ t
Ġ× ©
B I
m itt
Ġhe ights
act ivity
Ġes cri
Ġeduc aÃ§Ã£o
Ġfeather s
Ġlong o
Ġflu x
ĠBo ard
Ġextens ively
Ġmonit ored
p as
Ġw ol
Ġan ge
Ġposs am
Ġbl ind
ĠCan adian
Ø¯ Ùħ
Ġger ar
à¸µ à¹Ī
" ?
Ð¼ Ð¸Ð½
Ġred irect
Ġmar ca
Ġcritic ized
________ ________
E num
le ge
Ġre write
Ġcom edy
Ġne arest
Ġdist ra
ane ous
ÃŃnÃŃn ÃŃnÃŃn
' ),Ċ
. google
U na
ĠS y
omet imes
ĠRT X
Ġinsect icides
.ch oice
ĠÐ½Ð°Ð² Ñĭ
i otic
l ers
Î ²
Ù ¾
Ġb ist
Ġen er
Ð°ÑĤ ÐµÐ³
Ġprote g
Ġalgorit mo
ĠÑģÐ¿Ðµ ÑĨÐ¸
ĠB rand
ĠÑĥÑģÐ» ÑĥÐ³
Ġë¶ Ħ
U D
_ ')
_ SIZE
Ġsm oking
Ġsub string
Ġconsum ing
å¤ ®
.st atus
H ay
ĠN ach
Ġpr ue
ÐµÑĢ ÑĤ
Ġaccount able
Ġorig inally
Ġhor as
ÏĦ Î±
Ġbatt les
ĠH D
be at
Ð°Ð»ÑĮ Ð½ÑĭÐ¹
Ġimag ery
ĠÐ¿ÑĢÐ¾Ð±Ð»ÐµÐ¼ Ñĭ
( \
ĉ B
Ġc ough
ac ciÃ³n
Ñĥ Ð»Ð¸
b ound
x is
Ġsu ite
ĠN FT
enc ode
' al
Ġm arch
ab an
ist ing
ĠF it
Ġple ased
ĠÐ¸ÑģÐ¿Ð¾Ð»ÑĮÐ· Ð¾Ð²Ð°Ð½Ð¸Ðµ
fÃ¼ h
ĠÐ»ÑĥÑĩÑĪ Ðµ
Ġfoss il
C ap
Ġch ains
Ġpr Ã¡ct
ÑĨ Ð°
Ð¸ÑĩÐµÑģÐº Ð¸Ð¹
Res ume
ĠÄĳ Æ°á»£c
3 50
Ġb anc
om ers
Ġstim ulation
g ra
Ġup s
Em ail
ibil idade
å®ģ åı¯
_ user
t orch
Ġm Ãªme
Ã©t ica
ãģĤãĤĬ ãģ¾ãģĻ
_ per
Ġequ itable
Cont rol
Ġì¶ Ķ
å®ģåı¯ å®ģåı¯
ou ch
Ġk le
Do es
Ġprofit ability
ĠMult i
I X
Ġa Ã§Ãµes
ra re
ĠM el
cl ar
ĠÐ¾ÑĤ Ð²
æľª å¤®
ĠÑĢÐ°Ð· Ð¼ÐµÑĢ
Ġdecl ared
ĠHand le
Ġmic ros
æĽ ´
æľªå¤® æľªå¤®
f alls
ast ers
Ġbl ocking
Ġslow er
Ġutilis ateurs
Ġcert ified
comp any
Ġmens agem
Ġemoc ional
Ù ĭ
op ol
ĠÐ¿ ÑĤ
Ġopt ical
-jud gmental
Ġs ang
st atus
Ġbet a
Ġgen es
- name
ĠU lt
ä¸įåı¯ è§ģ
Ð¾Ð¶Ð°Ð»ÑĥÐ¹ ÑģÑĤÐ°
M o
p rop
en ir
ĠÐ²Ð· Ð°Ð¸Ð¼
Ġpotato es
Ġoce ans
2 10
å ģ
Ġt il
il ic
og rap
ens chaft
iss age
Ġpo etry
ĠÐ¿ÐµÑĢ ÑģÐ¾Ð½
ri ble
Ġdes co
Ġtrustworth y
r b
½ Ķ
ĠS che
ie le
Ġins pect
Ġdepart ments
Ġn est
Ġeven ly
Ġguid es
Ġpalab ras
S w
Ġsc aling
Ð¾Ð» Ð¾Ð¶
Ġsem iconduct
Ġmor ality
Ġdeb es
Ã´ t
zie h
Ġtomato es
çŃ ī
end ers
ber g
ĠPre pare
? ?
Ġthe rapeut
ay ment
ĠM T
Ġarchitect ures
Ġih nen
Ġwa velength
ĠÑģÐº Ð¾ÑĢ
Ġaccommod ate
Ġr iding
ap ia
Ġbar riers
Ġmultipl ied
p lex
Ġa insi
Ġmod ifications
ĠAmer icans
Ġche er
col i
ĠÐ¿ÑĢÐ¾ ÑĦ
Ġsurv iv
" {
bre vi
Ġcontro le
Ġhoriz on
C ity
ĠÐ· Ð°ÑĢ
ä»¥ ä¸ĭ
ĠëĤ ´
ĠdÃ©velopp ement
Ġin ici
imp l
Ð¾Ð² Ð°Ð»
Ġbel t
à¤ ¤
Ġfl aws
Ġlin has
Ġmultip lying
ĠRub y
Ġf art
Ġn or
il ename
Ġcom um
Ġwith draw
ĠP ath
Ġdifferent ly
Ġut enti
B P
_ F
ĠÐ½Ð° Ð¸Ð±
Ġcompan ion
ĠrÃ© al
Ġìķ Į
< NAME
C ependant
× ł
ro d
Ġch ip
ast ed
iso quinoline
Ġadd itives
ear ing
uck et
ĠAut hor
Ġpure ly
Ġpil ot
-ox o
Ġretire ment
Ġcustom s
Ġpet ite
Ġsurve ys
ryst allization
' -
8 2
g ener
Ġo w
Ġma il
Ġacet ate
Ġd ific
as ant
Ġmess enger
Ġtra it
Ġpur ple
Ġdeath s
Ġri val
ĠTrans port
ÐµÐ½ÑĮ ÑĪ
- Ñģ
Ġat au
ia Ã§Ã£o
å®ĥ åı¯èĥ½
Down stream
Ġestruct ura
re p
Ġal ike
Ġear nings
ÈĻ i
. Add
m d
Ġpro hib
()` .
ĠPr in
= $
_ v
o ire
ĠH om
ru ck
Ġequ ally
AL L
Ġcollabor ative
ĠVen us
( os
b u
Ġfl ushed
Ġgain ing
Ïģ Î±
oh l
Ġentren amiento
Ġrequis itos
ri an
Ġk ont
ĠG al
alle y
ĠÐ¿Ð°ÑĢ Ð°Ð¼
åĨ ħ
Ġp oco
ĠS ym
ĠW ild
ign al
ater ia
Ġform ul
lo od
Ġworks hops
ĠCommun ity
Ġterror ists
ìłģ ìĿ¸
7 6
S peed
n els
Ġtr igg
ĠÐº Ð²
ÐµÑĢ Ð²
ĠÑĥ ÑģÑĤÑĢÐ¾Ð¹
add y
oura ging
ĠrÃ© ponse
ĠÑĨ Ð²ÐµÑĤ
ĠCO UNT
Ġpartners hip
d ade
° ëĿ¼
ib ilitÃł
ied ad
PI O
ĠÐ²Ñģ ÐµÑħ
Comm and
. ad
r ane
s g
s ys
Ġb ell
Ġsing er
' av
Ġh á»
AM L
ob enz
Ġgra ins
Ġclos et
Ġsecure ly
ĠPol and
-[ (
S tyle
d t
x ml
ĠÐ² Ð¼ÐµÑģÑĤ
Ð¼ Ñĭ
Ġps ic
Ġfreed oms
V er
p c
oc uments
ID TH
Ð°Ð»ÑĮ Ð½ÑĭÐµ
Ġgas ped
Ġproport ion
Ġinhab it
- class
ë ¹Ħ
Ġc Ã¡l
Ġmo ins
---- -
Ġsc rap
Ġseg ments
ĠChat G
ä¿ ¡
ol er
Ġun lock
Ġpr Ã¡tica
Pro ject
å¸ ¸
Ġgard ens
Chat GPT
Ġapro xim
ĠExerc ise
Ð ¨
ut ing
ĠÑĤ ÑĢÐ°Ð½
Ġadic ion
- use
b its
us iness
ĠI Q
ĠT a
Ġcomp lications
Ġmod ification
writ er
z ess
Ĩ į
Ġd ial
Ġtra cks
ĠÃ© p
Ġtable ts
Ġaument o
d iction
le z
ur an
ĠS am
ĠL ittle
ard o
Ġsing ular
ÛĮ Ø¯
aur ant
Ġseguint es
ĠL ake
Con nection
Ð³Ð¾ÑĢ Ð¸ÑĤ
Ġprofes ional
ĠH old
Ġserv icio
Ġsol ved
ĠOther wise
ĠAtt end
Ġ(' _')
! ("
Ġcon qu
ĠM ess
Ġj ung
tt i
Ġescol her
Ġ" )Ċ
ri ving
uit o
Trans form
Ġtrein ado
Ġecon Ã´
é© ¬
Ú ¯
ĠTo ol
Ġregul ated
ĠÐºÐ¾Ð¼Ð¿ Ð¾Ð½
Ġgall eries
b urg
Ġd orm
ĠP resent
Ġvacc ines
W h
or ange
ad i
ĠM ix
Ġab und
Ġdeb ated
Ġcorpor ation
Ġpier cing
V ector
d am
Ġs á»
Ġs ender
ĠC ross
Ġdo ors
Ġincl usion
Ġcol ores
ern ess
Ã¤ng t
à ¯
ab i
eth an
Ġtest icles
ĠLo op
Ġtent ar
ĠAnaly ze
Ġinterpre ter
ĠProte ction
O H
Ġd ose
Ġcan cel
Ġcoll ision
ĠÐ½Ð°Ñĩ Ð¸Ð½
æĿ ¥
ĠÐ·Ð´ Ð¾ÑĢÐ¾Ð²
Ġproget t
Ġsatell ite
ç ģ
ang ular
ĠkÃ¶n nte
åĽ ŀ
ĠÐ·Ð½Ð°Ñĩ ÐµÐ½Ð¸Ñı
ĠÐ¿ÑĢÐ¾ÑģÑĤ Ð¾
f ish
s rc
z ent
Ġsh ips
Ġquest e
Ġgarant izar
M R
Ġw icked
ĠV ict
Ġsol uc
Ġbl ushing
Ġend l
Ġclient i
Not a
ĠPur ification
- image
= [
V is
s ort
ter m
ĠM obile
ĠWhat sApp
Ġmass a
ĠperÃŃ odo
ĠS out
Ġsp ots
Ġseg Ãºn
Ġnight club
à¥ ģ
ol en
Ġv apor
ĠC ON
ĠG irl
Ġevent ual
ĠÐ¿ÑĢÐµÐ´ Ð¿
Ġlou der
M i
ri j
Ġaut ent
ÑģÐº Ð¸Ðµ
Ùħ ÙĦ
Ġaccept ing
ĠUk rain
ĠÑģÐ¾Ð´ÐµÑĢÐ¶ Ð¸ÑĤ
Ġe ight
Ġar rog
Ġout fits
Ġfun g
Ġref used
Ġweb page
Ġnecess Ã¡rios
ĠÐ» Ð¸Ñĩ
ĠÑĨ ÐµÐ½
Ġorg ans
Ġpropriet ary
Ġbaj o
T ake
Â ¬
Ġdifferent ial
unction al
AB C
ĠSw ift
å®ĥåı¯ä»¥å®ĥåı¯ä»¥å®ĥåı¯ä»¥å®ĥåı¯ä»¥ å®ĥåı¯ä»¥å®ĥåı¯ä»¥å®ĥåı¯ä»¥å®ĥåı¯ä»¥
D iv
O U
ĠS uccess
Ġhas ht
Ð°Ðº Ñģ
Ġair port
Ġsigu ientes
ĠKnow ledge
ç º
Ġcomp ensation
Ġby pass
Ġob ey
Ġpol ynomial
ĠDe ploy
Ġpay load
ĠRes ult
.model s
ra c
Ðº Ð¸Ñħ
ĠÑĥ Ð½Ð¸Ðº
ĠÐ±ÑĥÐ´ ÑĥÑĤ
Ġnou ve
Ġcamin ho
on ing
Ġla quelle
ÑĢÑĥ ÑĪ
ĠCl aude
af ood
Ġneces ario
r ical
ĠC amb
ĠÑģ Ð¸Ð»
ĠK en
Ġrepresent a
Ġsqu ir
Ġmort e
Ġdiscrimin atory
G re
Ġpersonal ities
Ġtrad ers
met a
ĠĠĠĠĠĠĠĠĠĠĠĠĠĠĠĠĠĠĠĠĠĠĠĠĠĠĠĠĠĠĠĠ ĠĠĠĠĠĠĠĠĠĠĠĠĠĠĠĠĠĠĠĠĠĠĠĠĠĠĠĠĠĠĠĠ
Difficulty Dialog
Change DifficultyDialog
Ġvess el
Ġtran qu
S ocket
k ed
æ ´
ding ding
Ġimm ag
Ġpoly ureth
ĠÑĥÐ² ÐµÐ»Ð¸Ñĩ
Ġcryptocur rencies
§ æ¢
)) )Ċ
Ġste am
P od
amp s
Ġob ra
ĠSt able
ull an
Ġnavig ating
-w idth
/ .
C ase
_ |
Ġfact ores
Ġbrow sing
Ġoil s
Ġperce ive
ĠanÃ¡l isis
Ġlarg ely
Ġconspira cy
_ col
Ġno va
Ġins er
Ġutilizz ati
Ġreact or
Ã¨re Ã¨re
f erence
res iÃ³n
Ġma ggi
Ġno vas
ĠrÃ© se
Ġ× ŀ×
Ġmiss ions
Ġrepet itive
ĠProt ocol
ĠJiang su
Ġotten ere
( request
() ()
pec ial
Ġcertain ty
Ġsho ot
ĠÐ£ ÐºÑĢÐ°
ĠO SI
Ġbr ush
Ð¸Ðº Ñĥ
ĠdÃ© t
Ġgarant ire
M in
Ġab ack
Ġla p
Ġenv olve
But tons
Ġvoc al
Ġdiet ary
Ġsocied ad
en ix
Ġan th
all o
Ġsp elling
ĠAn na
Ġsuport e
: %
ĠÑģ Ð¸Ð»ÑĮ
Ġfr am
Ġsem i
ĠÐ¶ Ð¸Ð·Ð½
Ġgi oco
Ġexplo itation
Ä±n Ä±
Ġaliment os
Ġinquir ies
Ġk in
........ ........
§æ¢ §æ¢
ag a
ĠÐ²Ñĭ Ð²Ð¾Ð´
Ġbas a
LE S
Ġfir ms
¦ Ŀ
Ġro s
G ET
in os
ro ad
ĠN ight
rent issage
ric os
Ġlicens ed
Const raints
c ub
Ġc uc
ĠC ase
Ġob l
ä¸ İ
b ine
d k
Ġw itch
ĠT ogether
Al s
ĠdÃ© f
Ġbibliotec as
Ġp ays
Ġv amos
à¸²à¸ ¡
ĠJup yter
ĠBlu etooth
ĠVormon at
im ation
Ġkn ee
ĠV ARCHAR
Ġgraph ical
ĠÑįÑĤ Ð¸
ÐĴ Ñĭ
Ġaccident ally
ĠíĶ Ħ
Ŀ i
Ġprocess us
om ic
Ġkn ife
Ġdis placement
Ð²ÐµÑĤ Ð²ÐµÑĤ
Ġcrypt o
inner HTML
E cco
s orted
Ġun ion
ĠÐ¸ Ð´Ðµ
ĠÐ½ Ð°Ð»
ech an
mod ule
ĠMat rix
Go ogle
Ġrelie ved
H ttp
'h Ã©s
ĠPhys ical
ĠAdv anced
Ġdegrad ation
m ove
ãĢ ĳ
Ġmet als
Ġvir gin
Ġdut ies
ĠÑĥÐ· Ð½
Ġcuer po
I R
Ñĭ Ð¼Ð¸
Ġregist ration
Ġillust rate
ĠÐ°ÐºÑĤ Ð¸Ð²
Ġf ighter
ĠW riting
Ġest amos
Ġcustom izable
Ġhistor iques
Ġalign ment
Ġwood en
Ġath letes
ĠM aking
ĠÑĤ ÐµÐ¿
.p df
ruct ive
Ġbro ker
.m essage
f ather
ĠP ub
ells chaft
Ġexpos ing
æ ¡
Ġm elt
Ġg ang
Ġapp et
Ġclaim ed
- k
D et
í Į
Ġlist e
ĠStud ents
A E
] ]
ĠP ho
ag ger
Ġpot resti
Ð°Ð» Ð¸ÑģÑĤ
Ġrend imiento
ĠUtil ize
Ġgrammat ically
Ġl ion
Ġstart Game
ĠÐ¶ ÐµÐ»
Ġregist ered
Ġgluc ose
ep ing
iss y
Ġsw ap
Ġguid ing
Ġge ht
Ġener get
on in
Ġf als
ÑĢ Ð°ÑĤÑĮ
cl ip
Ġpot rebbero
Ġmost ly
Ġlow est
Ġesp ac
- o
L D
Ġcon volutional
ĠE v
ĠV ue
(" %
Ġanal is
ĠÎ ³
Ġbes oins
Ġvolat ility
Rob ots
ĠT ri
Ð¾Ð» Ñı
Ġcham ber
Ġspat ial
neg ative
Ġmaggi ore
Ġk ullan
.m p
ĠÐ¿Ð¾Ð» Ð¸ÑĤ
Ġcover ing
Ġexcl us
ĠLeg al
Ġpalav ra
oot ball
(se gment
ĠÑģÐ¸Ð¼ Ð²Ð¾Ð»
f u
ĠD ream
his hing
ĠÐ¼Ð¾Ð¶ ÐµÐ¼
_f iles
n ung
ly mp
ĠB a
ĠL uc
Ġbo ots
Ġarg ued
ĠÐ¸ÑģÐ¿Ð¾Ð»ÑĮÐ·Ñĥ ÐµÑĤ
Ġident ification
carbon itrile
ĠT own
qu a
Ġsp ank
_d im
Ġutilis Ã©es
ĠRep resent
Ġvictim s
requ ency
T oken
] .ĊĊ
Ġa ster
Ġreg iÃ£o
Ġsoc ks
fr ames
Ġalgorit mos
C ons
w in
è Ħ
Ġn ausea
if iz
ĠE spa
ĠN ether
Ġcur so
(" /
44 4
ĠÐ²Ð°ÑĢ Ð¸Ð°Ð½ÑĤ
Ġtherapeut ic
ĠÑĥÐ´ Ð°Ð»
- all
F G
P ost
ê ¹
Ġam ine
tic as
Ġc iv
Ñģ Ð¸Ñħ
ĠM art
Ġimport ed
Ġì Ĭ
Ġbusiness man
Ïĥ Î·
çŁ ¥
ĠB ew
Ð¸Ð· Ð°ÑĨÐ¸Ð¸
ĠdÃ© pend
Ġprofiss ional
ver b
ard e
âĢ ĵ
Ġmed ieval
ush i
Ġsn acks
æľ Ģ
Ġclub s
u Ã§Ãµes
ĉ A
( C
F ilter
i ac
ĠT uring
ol ved
Ġfe cha
eng ono
gin x
-p erson
Ãº rate
ira ble
Ġê²ĥ ìĿ´
Ġoblig ations
- Ð»
Ġad or
Ġpot encial
Ġdecision es
ĠTechn ical
ĠÑĩÐµÐ»Ð¾Ð²ÐµÐº Ð°
ë¯ ¸
.query Selector
G reat
Ġprocess amento
ĠSp irit
Ġc ous
Ġh id
pp o
Ġtra cing
ĠSe cret
ĠTh ings
' n
us ement
ĠC ategory
cl o
Ġmed ian
ios o
ĠÐ¸ÑģÐ¿Ð¾Ð»ÑĮÐ· ÑĥÑİÑĤ
Ġcommunic ations
impro ving
Ġth y
ab ili
ĠH on
Ġmain land
ĠEstabl ish
9 2
_ {
Ġst a
Ġqu ieres
Ġle ak
ĠF all
ier ra
ĠØ¨ Ø±
Ġsam pling
O W
æ Ł
Ġv Ã©r
ĠC H
Ġover head
12 7
iment i
å®ĥå®ĥå®ĥå®ĥå®ĥå®ĥå®ĥå®ĥå®ĥå®ĥå®ĥå®ĥå®ĥå®ĥå®ĥå®ĥ å®ĥå®ĥå®ĥå®ĥå®ĥå®ĥå®ĥå®ĥå®ĥå®ĥå®ĥå®ĥå®ĥå®ĥå®ĥå®ĥ
Ag ain
Resume Game
ch ten
ĠS ar
Øª Ø±
Ġviol ate
Ġpost er
Ġâ ĨĴ
ĠØ¯ Ø±
ĠProfess ional
r r
ĠB ase
low ly
Ġrep os
Ùħ Ø§
ĠÐ³ Ð¾Ð´Ð°
ĠIncre ase
ĠFore st
Ã¤d chen
N ormal
ra ge
Ġend urance
mo v
Ġí Ĩµ
Ġfat igue
Ġsubs idi
E Y
Ð° ÑĤÐ¾Ñĩ
Ġbo oking
g ence
æ ģ
ç ľ
Ġn iche
ribut ion
Ġsun set
Ġà¤ ®
ĠspÃ©c ifiques
Ġlandsc apes
å Ļ
Ġse res
Ġtra p
Ġmind set
Le vel
Ġsele cc
Ġo ggi
ed nes
te e
ĠÐ½ Ð°Ð±
ĠÐ½Ð° ÑģÑĤÑĢÐ¾Ð¹
cept ions
Ġrot ate
cl osed
St ack
Ġinfra est
i eme
or p
Ġf ract
ig it
ĠH in
du le
ÙĦ ÙĬ
Ġcond iÃ§Ãµes
Ġattract iveness
Ġsegment ation
ëħ Ħ
Ġf ails
Ġpar ks
Ġrequ er
ÙĪ Ø¯
** Ċ
Ġprin cess
oph ie
b orn
j ets
z u
al og
sh ot
Ġcryst all
B onjour
\ [
f mt
or por
Ġd ens
al so
ic aciÃ³n
Ġu Å¼y
Ġknowledge able
Ġvol umes
Ġemp ire
- co
_ color
× ĳ
st ro
Ġun for
og r
Ġrep ublic
ern ern
Ġcompon ente
Ġopp osed
Ġ× ĳ
ĠReg el
W T
Ġfem me
Ġcryst als
hand le
z ia
Ġis lands
Ġgr ams
Ġoff ense
Ġdocument os
pro gram
Ġaspect os
Ġfutur istic
Â¬ Â¬
' ),
Ġch urch
Ġref iere
à¹ Ħ
Ex per
Ġthe ft
Ġn ations
res a
ÃŃ p
Ġinter c
-d own
reib en
. ]
h uman
Ġ` @
17 5
Ġemploy er
Ġcontinu aciÃ³n
ou v
al an
Ġcont our
Ġco ach
nes nes
sub ject
ĠÐ¿Ð» Ð°ÑĤ
ĠContin u
er te
Ġk l
Ġcl icks
Ġj ava
Ġman ages
uest a
ĠSh op
c rit
g as
Ġw oke
ra int
Ã© rie
ĠE ther
ĠG ate
ĠG DP
ÃŃ do
Ġris petto
(m essage
Ġphilosop her
Ġfeas ible
Ġenzym es
Ġ- =
Ġmethod ology
Ġmob ility
ĠÐ¸Ð³ÑĢ Ñĭ
Ġqu ÃŃ
Ġne ue
are n
ĠGree ce
Ġcomport amento
Ġul terior
Ð» ÐµÐº
Ġind ul
ĠÃ ¥
je ctions
Ġterr ified
Ġtid ak
ĠÐ½Ð°Ð¸Ð± Ð¾Ð»ÐµÐµ
ĠF ac
ose xual
ĠÐ´ ÑĢ
Ġcap s
d isplay
que ue
Ġpref eren
ĠAustral ian
S in
as ma
Ġn ada
Ġes crever
Ġbl ast
Ġcar bo
Ġtrad es
Ġcollect ive
Ġr anging
ĠM ann
Ä± nd
ÑĢÐ°Ð² Ð½
ĠÑĸ Ð½
m peg
n av
Ġorgan ism
ĠÑį Ð½ÐµÑĢÐ³
med ia
Ġfamil ia
( *
i ÃŁ
ĠT urn
ĠB ol
Ġsh orts
Ġ{ }
-p yrimidin
Ġdisplay ing
Ġmes h
Ġpurch ases
Ġvo ices
Ġapl icaÃ§Ã£o
A nt
Ġm Ã¶g
Ġwor st
Ġdocument o
ĠTe ch
ĠChrist mas
ĠÑįÐº ÑģÐ¿
Line ar
. next
Ġd ungeon
Ġat e
Ġph arm
ÐµÑĢ ÑĮ
Ġopt ional
Ġmarket place
Ġfac il
Ġoffer ings
Ġcontribut ion
Ð¾Ð±Ñĭ ÑĤ
Ġbag s
ĠChar acter
V ocÃª
ĠÐº ÑĤÐ¾
Ġcol abor
Ġdistingu ish
Ġaval iar
L ove
f ill
Ġ ÈĻi
est ination
Ġpreu ves
ĠSe ven
ĠFound ation
Ġf ats
ra i
Ġpr imes
Ġbl ame
Ġacc eder
Ġyourself assistant
Ġgen res
ĠAd ic
ĠÐ´ÑĢÑĥÐ³ Ð¸Ð¼Ð¸
Ġattribut ed
ĠSub ject
Ġservi Ã§o
4 50
ÑĨ Ð¸Ñı
ric ular
Ġnature za
Ġexpect ing
Ġadopt ed
( response
Ġh Ã¤
ge red
Ġemploy ers
Î¯ Î½
Ġw elfare
Ġspe aks
ĠÐ½Ð° ÑĥÑĩ
Ġteam work
ĠÐŁ Ð¾
Ġgreet ing
< ?
ÃŃ o
co res
C u
ĠA N
Ġag ile
Ġform atted
Ġreg ional
ament i
Ġdire t
par se
ĠÑĢÐ°Ñģ ÑģÐºÐ°Ð·
æĮ ĩ
ĠÐ°Ð» Ð³Ð¾ÑĢÐ¸ÑĤ
' ind
Ġs ql
is en
ĠF ull
Ġbenz ene
ĠE ffect
Ġì ¡°
Ġtrans cript
åĲ Į
Ġtick ets
-sh irt
ĠÐ·Ð°Ðº Ð¾Ð½
Ġshel ter
. type
R ange
Ġthe sis
Ġcar ries
Ġdiagn ose
.ex ecute
ĠDown load
Ġobed ient
Ġmedi ante
Ġnun ca
s in
Ġc age
Ġart work
Ġmon sters
Ġiss ued
Ġeconom ics
Ġmov imento
Com o
ìļ ´
ĠModel s
Ġnou ns
ĠÐºÐ°Ð¶Ð´ ÑĭÐ¹
ĠDist rict
v ance
Ġs ous
Ġd ye
Ġm uss
Ġb ones
cri bed
Ġprom over
Ġaccompl ished
Ġaten ciÃ³n
/ fix
ĠIt alia
ual ity
Ġass ure
Ġposs ession
row th
ĠÐ¸Ð· Ð²ÐµÑģÑĤ
Ġregist ro
abe i
Ġincluy en
Ġinherent ly
> The
D ocument
ì ħ
Ġt ela
Ð» Ð°Ñģ
Ġma j
ãĥ ī
Ġinvest or
ĠĠĠĠĠĠĠĠĠĠĠĠĠĠĠĠ ĠĠĠĠĠĠĠĠĠĠĠ
ĠÑģÑĤ Ð°ÑĤÑĮ
Ġmel ody
ĠÐ¼ÐµÑĤÐ¾Ð´ Ñĭ
åº ¦
ĠF est
Ġli ability
_f older
ĠApp lications
Ġdise Ã±o
Ġreact ed
ĠTik Tok
ers hip
Ġpar l
ick et
Ġdiet a
Ġconfigura ciÃ³n
Ġmang a
J ava
V oici
Ġ .Ċ
ce gli
ĠN ut
ze ich
Ġsimpl ified
Ġspir its
ĳ ľ
et en
Ġcomp ra
ĠL ang
ag ent
Ġestud i
Ġinterview s
Ġëĭ¹ ìĭł
#! /
Ġs lo
Ġm Ã³d
Ġl un
Ġcom and
ĠA gr
Ġworld s
Ġclim bing
Ġpron unci
ĠÐ¿ÑĢÐ¸Ð½ Ð¸Ð¼
' NAME
Ġg ains
ĠC ong
Ġar c
ĠG ar
up s
-p oint
Ġtre m
à¥ Ī
ĠÐ¾Ð¿ ÑĤÐ¸Ð¼
Ġkil ogram
Ġsout heast
Ġaer ospace
: ```
t ry
ç µ
ĠD ub
Ġâ ī
ĠComm ission
ĠPlay ers
Ġcens orship
a uc
Ġsuper hero
Inst ance
(num bers
Ġnue vo
Ġmie ux
B ay
M B
Ġb ah
Ġpoint ing
Ġsun ny
etra hydro
Ġp az
Ġb ricks
Ġk i
Ġil s
Ġregard ed
ĠPy Qt
ĠLLa MA
Ġd x
st one
Ġref lex
-m e
ĠSp iel
Ġrom ance
Ġequil ib
Ġelig ible
- cl
P DF
Ġo ct
Th read
ilt ered
ĠEu ropa
Ġfis cal
ĠAgre ement
Ġc tx
Ġd it
Ġha cia
Ġch ick
ĠG alaxy
Ġreg ime
Ø§ ÙĤ
Ġlist ened
Ġattend ant
ĠÐ·Ð°Ñī Ð¸ÑĤ
P reg
ĠÐ´ Ð°
St atus
Ġsupp ress
Ġemphas izing
Ġassess ments
MA X
Ġconfigura Ã§Ã£o
Ġimmig ration
F r
ç ²
Ġb reeze
cl uded
Ġwell ness
Ġintegr ating
Ġrub bing
/re moving
Ġconclus ions
ĠT en
Ġshe ets
Ġtra uma
Ġsitu aÃ§Ã£o
ĠEn h
Ġexcept ions
ĠÃºn ico
Ġaccomplish ments
Ġjew elry
d r
n ah
Ġcomp r
Ġenc ant
Ġih n
Ð½Ð¸Ðº Ð°
Ġattor ney
P RO
Ġh unting
un ique
Ġan onym
ĠL lama
ĠW arm
ĠF ant
Ġins pection
è¯ ·
Ġabord agem
Ġa Ã§Ã£o
im i
ĠT ian
Ġte oria
ĠV ir
ok u
ĠÐ¼ Ð¾Ð¼
ĠÐ³ ÐµÐ½ÐµÑĢ
Ġvent ilation
Ġdestin ations
_ column
Ġ ions
Ġent wick
Ġread able
omb res
ç§ į
( value
C K
C ut
C iao
im b
à¸ Ī
-t r
ÑģÐº Ð°Ñı
Ġbas il
Ġrecogn izing
Ã´ le
ÏĦ Îµ
ç§ģ ãģ¯
E W
w his
} </
Ġs perm
Ġc ord
Ġg io
ĠA T
ern en
Ġsub process
Ġgest Ã£o
Ġpurch ased
-pro cess
ĠCompan ies
_ IN
Ð½ ÐµÑĤ
ĠR ight
ock ets
ÅŁ t
ÃŃcul os
ĠO lymp
Ġtail or
Ġcra zy
ĠProgram ming
Ġbind ing
c as
ado x
ìĥ Ŀ
/ improving
B D
ÑĢ Ð¸
Ġperson n
Ġdel ays
ĠÐ¾ÑĤ Ð´
Ġadministr ative
ednes day
Ġprov ision
.s leep
ÐĴ Ð¾ÑĤ
ĠAt l
Ã©l Ã©
Ġfertil izers
/fix ing
( str
T emperature
Ġport able
br is
pret rained
Ġih rem
Ġdesc ending
ìłģ ìľ¼ë¡ľ
Ġtaman ho
Ġ Ø§ÛĮ
re lu
Ð² ÑĢÐ°Ñī
Ġincorpor ates
M ay
es a
ĠS ort
Ġide ia
ĠCl ub
M et
b ank
ed ere
ĠB ien
Ġall ocate
å¼ ı
Ġajust ar
t n
ĠP riv
Ġsent ido
Ġshort est
Ð¸Ð¶ ÐµÐ½Ð¸Ñı
Ġimmig rant
åĤ¨ s
at os
ab is
ÐµÐ½ Ð½Ð¾Ð³Ð¾
ĠÑģÐµÑĤ Ð¸
ch lieÃŁ
Ġr uler
CT ION
ad min
Ġpe que
com ed
16 8
_m od
ĠðŁ Į
Ġd iced
Ġv ib
Ġdis able
Ġsp o
ĠAr be
ĠÐ²ÐµÑĢ Ñģ
ic ia
ig ent
em and
Ġmy st
Ġsn ack
Ġoccur rence
Acc ount
æĦ Ł
. net
Ġe fe
ĠS core
Ùĩ Ùħ
ĠÑģÑĩ Ð¸ÑĤ
az ep
ĠSh andong
ĠUnder stand
XX XX
Ġsto pping
Ġbest e
ĠPl ayer
Ġbar rel
Ġmerc ato
ĠPortug al
Ġdistur bing
åĤ¨s åĤ¨s
D im
k or
Ġvari Ã¡vel
Ġav ait
lu a
cipl inary
Ġm old
Ġstr ument
-in ch
Ġcamp os
ĠÐĿ Ð°
Ġfrequ encies
Ġod ds
'util izzo
ĠNeg ative
æ ²
Ġb ru
am an
Ġinv asion
Ġìŀ ĳ
Ġwel comed
benz ene
ĠMag ic
ĠFun ktion
Ġincent ives
o z
Ġcent r
lear ning
Ġprojet os
Ġtrabaj ar
Ġhabl ar
ĠTk inter
, ,Ċ
} )Ċ
ĠM and
ress ive
ĠV alley
GPT GPT
áº §
ett ings
ound ing
ãģ ĳ
Ġgl imp
Ġprecis arÃ¡
ÏĦ Î·
Ġspect rum
çĽ ¸
in ated
Ġprim er
ĠPal ace
ĠNether lands
Ġwork force
Ð°Ðº Ð¾Ð½
ĠUn it
ĠPre paration
Ġfair ness
.n n
Ġrepeated ly
Ġnoss a
Ġn ing
ĠIn clude
iqu er
eng es
Ð»Ñı Ð´
-m in
ĠEr ror
-------------------------------- --------------------------------
æĦ ı
Ġpyt tsx
Ġbiet et
ĠIter ate
ch io
Ġr anges
sub process
Ġd ys
Ġb icy
Ġtr icks
ĠR PG
Ġscript ing
ili pp
Ġsuff er
Ġlie gt
Ġfuncion ando
Ġflamm able
F in
Ġas cending
Ġan k
Ġmag net
Ð°Ð»ÑĮ Ð½Ð¾Ð¹
Ġdefin itions
ĠAlg umas
Ġaccompl ishment
Ġplataform as
Ġecosystem s
Ġinclus ivity
w al
ĠP ak
ĠM id
Ġad verse
ĠÐ½ Ð°Ð¼
ove re
Ð¾Ñģ Ð»Ðµ
18 9
Ġchild hood
Ġfo ol
Ġsepar ation
ĠGold en
\ end
ĠW hich
Ġcre a
ĠJ es
uc lear
Ġpropos ition
Ġcelebr ated
hav ior
_ RE
ot inic
ul ator
Ġapp li
Ġcre azione
ĠSt yle
Î½ Î±
Ġobstac le
Ġpir ate
ĠAdm iral
or r
Ġsp esso
ĠSt ory
Ġmuch o
Ùĥ ÙĦ
ĠSc ot
Ġod pow
ĠRob ot
ãģĵãģ¨ãģĮãģ§ãģį ãģ¾ãģĻ
Ġcylind ers
L ab
N Ã£o
ÑĢ Ð¾ÑģÑĤ
Ñĥ ÑĢÐ°
ÑĤÐ¾ÑĢ Ð°
Ð°Ð»ÑĮ Ð½Ð¾Ð³Ð¾
Ø¨ Ø±
ĠÑģÐ¿ Ð¸ÑģÐ¾Ðº
ef ined
Ġescrit a
ig ious
Ġcl as
ap ing
ener gy
Ġlong ing
.l ist
ĠPol ish
Ġmes ure
Ġtables poon
. __
. grid
g el
Ġsaf er
Ġresearch ing
rypt o
ĠOr ig
ĠØ¨ Ø§ÙĦ
Ġcorrespon ds
uls ion
Ġinsect s
Ġearthqu ake
O per
^ (
Ġp ale
ĠL MS
Ġpres erving
Ġpain ful
Ex p
Ġconfir med
on ces
ĠT emple
ĠC ette
ĠP u
ĠB ene
Ġdiv ent
Ġrich ied
ĠÄĳ á»ĥ
Î¼ Î±
Ġrig orous
Ġsquee ze
ãģĽ ãĤĵ
ĠUkrain ian
. Text
at ro
Ġb ak
Ġde le
Ġaccess ibility
ĠìĿ ĺ
Ã³g ica
Ġìĺ ģ
ĠChatG LM
Ġof t
Ġst ain
Ġag ility
Ġfeed ing
ĠSol ar
Ġraggi ungere
ĠÐ ¨
ĠS ummary
em ia
Ġcomm ission
Ġpr zy
_s plit
Ð¸ÑĨ Ñĥ
ĠAlg uns
ĠPharmaceutical s
' import
er ce
ve c
ĠK e
Ġthr illing
Ġemoc ion
: NAME
Ġes e
Ġco le
Ġmin i
ĠBe ijing
Ġtransport ed
Ġvert ices
ĠdiffÃ©rent es
ol utely
Ġind o
ĠDes culpe
ĠPar liament
ĠÐ¿Ð¾ÑĤ Ð¾Ð¼Ñĥ
Ġprem ise
ÑĥÑĥ ÑĥÑĥ
ĠÐ´Ð¾Ðº ÑĥÐ¼
æ ³
Ġc Ã¢
ĠC T
ult ure
Ġref ined
Ġmem Ã³ria
cont roller
Ġlength s
-sh aped
Ġallerg ic
ĠL ambda
Ġstream line
ãģ« ãģ¯
Ġgreet ed
ĠÐ½Ð°Ð· Ð²
S u
Ġc raw
Ġdesign ers
å®ĥ åĢ
ik en
Ġreview ing
Ġdeve m
ĠÐ½Ð¾Ð²Ñĭ Ñħ
ĠFam ily
ĠR ol
uc ed
Ġredu cir
ãģ¾ ãģĽãĤĵ
ĠÐľ Ñĭ
Ġrock et
Ġdisgust ed
Ġneur on
ĠLGB TQ
. forward
/ w
} :
× ©
Ġocc as
9 3
a pe
x l
Ġref und
Ġpriv ac
'util isation
Ġdisappoint ed
ĠdÃº vida
l Ã¤
Ġt ube
Ð½ Ð¸Ð¼
Ġun ity
Ġk eras
Ġmod es
Ġdistribut ions
Ġwond ers
un wrap
Ġst em
pl ane
ĠO ui
ĠÑģ Ð¾Ð±ÑĭÑĤ
und ay
Ġmin eral
Ġplan o
âĢĻ re
Ġmicro organ
Ġp enc
Ġg ama
() )ĊĊ
Ġbl ess
ä» »
Ġhacer lo
Ġpresident ial
- text
ì °
am ientos
ĠS it
ĠL uego
act iv
Ð°ÑĨ Ð¸Ð¹
ĠTe il
ls x
ashing ton
Ġpenal ty
ĠWhis ky
. ]ĊĊ
Z Z
Ġconf l
âĢ Į
Ġprob abilities
ET H
Ġseam less
_ rate
l le
Ġassum ption
Ġcolet ar
Ġpl ug
Ġprocess ors
Ġcount less
" ;ĊĊ
m atch
ĠĠĠ ĊĊ
Ġvari ation
Ġmat t
AT A
Ġbright ness
Char acter
- attention
c end
l ength
ĉ H
Ġal p
end l
Ġsp ac
Ġext ensions
ĠEngine er
ĠÐ¿Ð¾Ð¿ ÑĥÐ»ÑıÑĢ
.check Collision
. v
Ð ¤
Ġv ille
Ġst ark
Ġr im
ĠL age
Ġinform al
'app rentissage
Ġfest ival
ĠÑģÐ¾Ð± ÑģÑĤÐ²ÐµÐ½
ĠB an
Ġelect ed
Ġarom atic
/ bash
R S
S ave
in f
ĠI ron
ip o
Ġins ieme
Ġment or
Ġdos age
Ġpow ered
N C
ĠE TF
ission ais
.f ill
Ã¶r per
ĠØ¹ ÙĨ
ĠÐ¢Ð°Ðº Ð¶Ðµ
Ġm Ã¶glich
Ġse afood
Ġwh ites
Ġ' __
ors es
Ġret ention
ĠÐ¾Ð± Ð½Ð¾Ð²
Ġur g
Ġsod a
azi enda
ĠF urthermore
ĠN AS
Ġcur se
Ġer stellen
Ġris ol
ĠAnd a
Ġelectr Ã³n
ç¥ ¥
R et
al m
Ġcon current
ĠO ffic
Ġsp ray
Ð°Ð¹ Ð½
i ore
Ġhe ap
ft ime
Ġoff set
Ġmeth anol
-d rained
ĠÐ° ÑĤ
Ġing res
Ġgerenci amento
k c
Ġas ynchron
ac count
eng ine
ner o
not e
Ġë ķĮ
Ġih m
Ġfail ures
d isf
Ġb end
per or
Ñĥ ÑĤÑĮ
Ġsim ulations
ĠDep ending
Ã¡tic os
Ġtire lessly
Ġpont os
Ġrel ies
hes es
Ġsitu aciÃ³n
Ø§Ø ¦
Ġopportun itÃł
Ġdam aging
Ġvess els
Ġhydr ated
ĠHot el
Ġaccomp an
" Oh
G E
ÑĢ Ð°Ñģ
ter min
Ġpot ent
Ð°ÑĤ Ðµ
ĠAl though
S un
_ info
Ġl uego
Ġde ber
Ġpar ole
Ġver tex
app ly
ĠAnd y
Ġinitial izes
ĠElect ric
ĠÐ½ Ð¸Ðº
Ġent ries
Ġstartup s
ĠWi Fi
nd o
Ġp iace
uch ar
ÙĪ ÙĪ
ann a
ĠDo es
Ġste aling
ĠIN TO
Ġhar ass
Ġde leted
Ġsp ices
ðŁ Ĳ
Ġfr ut
Ġgraph s
Ġsha ft
Ġintrodu cing
ä¸į ç¥¥
uh an
ĠMad rid
Ġcontempor ary
Ġin ex
ent ation
ĠÑĢ Ð°ÑģÑĤ
Ġstru ck
Ġau ction
ĠDA Y
Ġ ib
Ġd irt
an ari
et ta
st rap
ne utral
ĠÐ¼ Ð¾Ð»
Ġexhib it
ä¸įç¥¥ ä¸įç¥¥
- out
S um
Ġab brevi
ok er
ĠÐ¿ÑĢ Ð¸Ð¼ÐµÐ½
ativ amente
Ð°Ð¶ Ð½Ð¾
ĠMed iter
-lo oking
ĠRo om
it ious
it zer
ĊĊ Ċ
ant ine
ĠG ames
Ġcomplex es
Ð¾Ðº Ð°
Ġprin ter
Ġhero es
. remove
Ġt ropical
Ġcar ga
Ġdire tÃ³
Ġassoci ation
AR Y
ĠStud ent
Ġhat te
Ġdispon ible
66 6
" We
O lÃ¡
t ask
Ġd ining
ig are
Ġtra g
Ġtrans f
Ġë ¹Ħ
Ã¨ tres
uff le
Ġren owned
Ġrisp osta
ç Ĺ
il let
Ġass ault
ĠCh apter
-d o
Ġmac hen
Ġs chn
Ġf ost
id able
ĠD ock
Ġass im
ĠÐ¼Ð°ÑĤÐµÑĢÐ¸ Ð°Ð»
@ app
J ob
ĠM Ã¤dchen
Ġadm ire
Ġo x
Ġrel ate
lo x
Ġlar go
Ġconv icted
ĠdiffÃ©rent s
alph a
. Print
Ġh ired
ĠR GB
Ġel ler
Ġcoefficient s
Ġg Ã¶
ĠÐ´ Ð¾Ð»
Ġexpl ode
ĠEst ou
.m enu
Ġdecid ing
' azienda
S L
S M
Ġh ue
Ġwe eds
Ġpres erve
Ġverb ess
ĠÐ¾Ð·Ð½Ð°Ñĩ Ð°ÐµÑĤ
z Äħ
Ġgest ire
result s
Ġcirc uits
Ã©r ica
Ġcompre ensÃ£o
Ġhost s
åĪ ¶
Ġord inary
ĠFra u
ĠÐ²Ð°ÑĪ ÐµÐ³Ð¾
Ġvent ure
_ pretrained
c ap
ĠÐ¿ Ð¾Ð³
ĠK EY
ĠEx change
Ġfat to
anj ing
ess ages
Ġover fitting
hed ral
ric ulum
Ġmanage able
Ġneg oc
add ing
Ġfre ely
Ġagre gar
Ġsell er
éĩ į
ê ·¸
Ġa an
in voice
Ġprogram me
Ġclass mates
ĠDiff usion
ĠUnivers um
ĠArbe its
b ere
m otiv
Ġk od
ĠID E
-carbox ylate
Ġgenet ics
Ġse an
Ġel as
åŃ ĺ
Ġoppos ites
' A
\ begin
e lement
ar in
Ġfor Ã§a
Ġz ona
ÐµÑĢ ÐµÐ²
ĠÑĥ Ð¶Ðµ
cher s
Ġhonest ly
her ic
Ġk ick
ĠM ode
ĠZ h
èī ²
P in
å ŀ
Ġin i
ir ical
Ġgo bl
Ġaut re
Ġdetect ing
Ġfacilit ates
Ġtrat ar
Ġhung ry
g raph
ge ben
Ð¸Ðº Ðµ
Ġcr ush
Ġapproach ing
Ġclean ed
Ġtecn iche
M a
ex pl
Ġviol ating
Ġrepl acing
ĠÐ¸ÑģÐ¿Ð¾Ð»ÑĮÐ·Ñĥ ÐµÐ¼
ĠÑĦÑĥÐ½ÐºÑĨ Ð¸Ñİ
- y
r ator
Ġm ales
Ġre versed
Ñı Ð¶
Ġì ĨĮ
Ġaut res
Ġspecial ize
Ġsecond a
ĠNe utral
Ġdeton ated
èĢ ħ
Ġdesaf ios
ĠAuf g
' ))Ċ
R ect
à¸ Ĭ
Def ault
Eng ine
Ġp yram
Ġw s
ent ing
im it
Ġle af
Ġ` (
Ġsy ndrome
Ġev ident
oy al
cre d
ĠEr f
ĠMary land
C y
\ ",
Ġbar rier
-r isk
- je
ĉ E
ĠS cript
ÃŃ lia
Ġold est
lich keit
L ast
Ġt ama
Ġimport s
ari um
.d b
Ð°ÑĢ Ð°ÐºÑĤÐµÑĢ
Ġcheck ed
Ġorig ins
Ġemp at
ÑħÐ¾Ð´ Ð¸ÑĤ
-ter ror
ott om
Ġaura it
P e
or ic
res ource
Ġag g
Ġrequ iring
Ġexp ense
Ġpat ch
Ġfac ile
Ġinflu ences
Ð¸ÑĨ Ð¸
Ġprobl Ã¨mes
ed e
id al
ĠE ff
Ġno ble
ec ure
zen ia
ĠPho enix
* Ċ
Ġw rest
Ġan hydr
ĠC e
Ġch ord
ĠV ert
ail ability
Ġsal ute
Ġexecut ive
Ġforne ce
ĠÐ²Ð¾Ð·Ð¼Ð¾Ð¶ Ð½Ð¾ÑģÑĤÐ¸
Ġllev ar
à¦¿ à¦
9 4
_ KEY
an os
amp het
enc er
ues day
Ġprof issionais
Ġqual c
Ġcompet it
She et
Ġtut to
m other
al ine
us iÃ³n
im et
Ġla zy
Ġso it
Con f
Ġpesso ais
Ġtwe et
R em
_ M
Ġle mon
Ġtable t
Ġconse cut
Ġcontinu ar
Ġdiction aries
AG E
Â ·
Ġt Ã£o
Ġl ent
ĠA mb
Ġpre val
ĠÐ¸Ð¼Ðµ ÑİÑĤ
b row
u xt
pt r
Ġrelig ions
åĬ ł
ahren heit
Ġware house
C all
L OR
b ird
Ã³ p
Ġmanufact ured
i are
ĠS qu
ĠS ometimes
Ġimportant i
Ġinvest imento
ĠÐ²Ð½Ð¸Ð¼ Ð°Ð½Ð¸Ðµ
" ))
ĠS erial
Ġro cks
Ġver ification
Ġappreci ated
Ġcham ada
Ġpend ant
qu ential
Ġhe ll
Ġsk ip
Ġassist ente
-t raining
Ġfut anari
Cont in
Ġpan ic
Ġcrypt ography
ĠMonitor ing
åł ´
ê¹ Į
n ym
t emplate
Ð¸ÑĤ ÐµÑģÑĮ
Ġthought ful
ĠCol omb
Ġrele asing
ĠInter face
ĠmÃ©d ico
Ġconcaten ate
Emb edded
X T
_ price
Ðµ ÑİÑģÑĮ
Ã¤ che
-s peed
Ġampl a
Ã «
Ġre charge
ĠÐ¾ÑĤ Ð»Ð¸Ñĩ
Ġcu idad
ĠÑģÑĤ ÑĢÑĥÐºÑĤ
Ġtrabal h
Ġcivil izations
Ġconstru ir
.start Button
Ġtroublesho oting
Ġs ant
es ian
Ġde bris
ount er
tr ifluoromethyl
ĠÑĤÐµÐºÑģÑĤ Ð°
m ut
u ilt
Ġ" \
ĠC ut
ĠH aving
Ġris ult
ìĦ ł
ĠÐ¿ÑĢÐ¸Ð»Ð¾Ð¶ ÐµÐ½Ð¸Ñı
R ID
T okenizer
è °
Ġj aw
Ġhand ler
ĠÐ²ÑĭÐ¿Ð¾Ð»Ð½ ÐµÐ½Ð¸Ñı
Ġtiss ues
ce re
ĠC opy
Ġra ison
Ġdef use
Ð¾Ð´ ÐµÐ¹ÑģÑĤÐ²
Ġpoly ps
Ġìĭ ¤
åįģ ä¸ī
S C
as ures
Ġl uc
ĠÐ¼ Ð°Ð³
Ġdeb ido
å¯ ¹
xxxx xxxx
ĠCou ncil
ĠSch l
Ġvacc ine
Ġd or
Ġv id
no ÅĽci
Ġaw esome
Ġpredict ive
Ġfish ing
'hÃ©s itez
w ert
ĠI F
ĠM O
ĠCh ildren
au en
Ġimm oral
Ġdomain e
.pause ResumeGame
Ġapl ica
Ġsicher zustellen
ĠÐ³Ð¾ÑĢ Ð¾Ð´
c sv
f alse
ĠÐº Ð¾
Ġra il
ĠÐ´ÑĢÑĥÐ³ Ð¾Ð¹
Ïģ Î¹
J a
d as
Ġre lying
Ġdis pose
Ø§ Ùģ
Ġdu plicate
Ġsatisf actory
Ġexhib its
L AN
b ens
ĠS Ã£o
ĠS erve
Ġse al
ĠSol utions
ester ol
rane an
h Ã¤lt
ĠÐ´ ÐµÐ²
col o
Ġconfident ly
ÐµÑģÑĤÐ² Ð°
ĠComm and
Ġfu ente
ì² ´
Ġs pons
Ġd á»¥
Ġr iddle
Ġres s
aut o
aut og
IN SERT
Ġlic king
ĠSpec ifically
ĠÐ·Ð°Ð²Ð¸Ñģ Ð¸ÑĤ
Ġastron aut
'alt ra
. left
Ġt á»
ic ism
Ġbi od
âĪ Ĵ
ĠÐ·Ð½Ð° Ñİ
ot ional
Ġas ist
.re start
Ġbacter ial
CRE EN
g enerate
} .
ch r
Ġperson ne
Ġexp orts
Ġafter math
ĠEng aging
abil idades
ĠØª ØŃ
Ġmisunder standing
ĠP an
ĠN ahrung
ĠÐ² Ð¸Ðº
Ġpr ince
Ġì Ľ
Ġdec ryption
-p aced
Ġed iciÃ³n
_m ode
Ġprofit able
Ãºs qu
Ġrelacion adas
Ġvom iting
ĠÐ¼Ð°ÑĪ Ð¸Ð½
9 1
b il
w ear
Ġan us
24 0
ÅĤ y
Ġdies er
åŃ ¦
ĠÐ¾ÑĤÐ² ÐµÑĩ
ë Ħ
Ġident ities
Ġteng a
ĠCL I
ĠØ§ÙĦØª ÙĬ
ic ago
ra gen
ac cept
oc aly
Ġes f
Ġris pond
-meth oxyp
Ġphilosop hers
Ġdro pped
Ġcontrad ict
p ot
ĠT HE
Ġel la
ias i
âĢĿ ,
ĠÑĢÐ°Ð±Ð¾ÑĤ Ð°ÑĤÑĮ
Ġforecast ing
_ at
Ġg ig
ut f
Ġbe kannt
ĠH u
Ġcons c
Ġconf id
pro of
Ġcas c
Ġbroad cast
Ġlav or
ĠmÃ©t odos
A le
Ġ ÅŁ
an ing
Ġy esterday
Ġen orm
ĠM und
ĠE T
lu gin
ĠQu ery
Å¾ e
Ġfel ic
)p yrimidine
Ġmad re
åįģä¸ī æĿ¡
. index
B re
Ġ ```Ċ
Ġre current
Ġi o
Ġbegin ners
Ø¯ Ø©
lt k
!" );Ċ
ĠÑįÑĤ Ð¸Ñħ
Ġmilit ants
ĠComput e
env iron
. height
_ add
m ethod
Ġv amp
Ġsu jet
cl a
ĠF actory
Ġdes ider
Ġall uring
Ġtrans itions
Ġdemand e
-M ethyl
Ġcop ies
-pro v
Ġvend as
åįģä¸īæĿ¡ åįģä¸īæĿ¡
Ġen se
ĠD ialog
Ðº ÑĨÐ¸Ð¾Ð½
Ġpack et
Ðŀ Ð±
oche mical
Ġmush rooms
Ġ Ù¾
Ĵ Ī
op l
ang les
Ġest aba
ĠFor ce
Ġsw o
Ġpod cast
Ġview ed
Ġmor ally
ìĿ´ íĦ°
ple asant
Ġflu or
V ideo
v et
at isf
Ġter rible
ĠAd just
D ATE
p df
Ġu int
ult i
Ġev id
Ġrem ark
Ġcos Ã¬
Ġsym met
Ġconex iÃ³n
-dich loro
ç¤ º
ra u
Ġdis fr
Ġperson agem
ĠëĤ ĺ
ë£ Į
ĠGard en
e or
Ġd ou
Ġd ari
Ġin just
ĠS ite
Ø§Ø ¬
ellig ence
.restart Button
. init
Ġapp rend
Ġacquis ition
. K
. z
m us
ro z
Ġtr im
eth ane
Ġra y
ĠÐ» ÐµÐ³
Ġconsult ar
Ġretrie ves
' en
' esp
rit o
ĠÐ¿ÑĢÐ¾ Ð¸Ñģ
Ġtown s
**** ****
ĠìľĦ íķ´
é©¬ åħ
A p
s ave
} \
è Ī
Ġtr ong
Ã¤ ft
Ġterm ine
arr ant
Al g
Ġtransfer red
ĠList en
ĠnÃ©cess aires
Menu Frame
Ġe tern
ist ed
ert i
bal ance
Ġvul gar
ĠGener ation
Ġinsp iring
Ġbub bles
ĠU V
ĠSt ation
Ġutil ize
Ġdu as
ste in
Ġdivers as
çī ¹
b et
× Ľ
Ġs arc
Ġdet tag
ĠEx port
urs day
Ġfit ting
Ad emÃ¡s
Ġoccasion ally
m el
ic ist
Ġfor bidden
Ġpresent ing
ĠÑī Ð¾
ĠlÃ©g ende
Ġnov amente
Ġt Ã¢
Ġto g
ĠE V
ĠW ashington
ĠN AT
vol ume
ĠLe ben
ÅĽ li
Ġtables poons
ĠMod ern
h igh
he a
ar ity
un es
Ġare n
ail and
Ġsw ay
ĠKo ala
ĠAdminist ration
å¹¶ ä¸
A quÃŃ
im as
od s
ĠA udio
zy me
Ġroad s
isto ire
ĠÐ²Ð°Ð¶ Ð½Ð¾
P ool
S ent
ĠH Ã©l
Ġcomm od
Ġcol ore
Ġform e
Ġclass ifier
Ð¸Ð½ Ð¸ÑĤÐµ
ric as
ÑĢ ÐµÑģ
Ġqu art
Ġfe ito
osp el
ĠEnt ity
è¨ Ģ
Ġdol or
Build er
op hen
ĠR oute
Ġprevent ion
Ġdecis Ãµes
hens ion
Ġmort g
Ġglimp se
Ġimp uls
Ġatt ent
Ġcent ered
Ġlimit ing
ĠØ§ÙĦØ ¥
Ġthrust ing
ĠrÃ¡p ida
Ġtroublesho ot
Ġbom bers
ç³ »
Ġsu gest
ĠW all
ck ets
Ġtest ar
Ġìłľ ê³µ
R andom
i em
id ers
Ð½ ÐµÐ¼
ag ne
íķĺ ê¸°
cent er
Ġefect iva
" Hey
H um
P our
Ġ iz
Ġof icial
ow y
du ce
Ġprodu its
Ġpr one
Ġrel at
ade c
ĠÐ¼ Ð¾Ñı
Ġlim ous
Ġcorrect amente
Ġcost o
Ġmen or
ĠÃŃ nd
+ )
Ġf Ã¼hren
Ġas pir
ĠP RO
Ġdo it
te is
Ġvari ance
iss ances
Ġfl ames
-f itting
Ġpress ures
Ġentre prises
ĠÑģÐ¾Ð·Ð´ Ð°Ð²Ð°ÑĤÑĮ
Ġantib iotic
" `
Ġprodu cciÃ³n
Ġz omb
Ġexpress es
ÙĨ Ø¯
ĠÑĦ Ð¸Ð»ÑĮ
Ġwis hes
N P
x imate
ac cess
ĠÐº Ð°ÑĢ
row ave
Ġer fÃ¼
ĠØ§ÙĦ ØŃ
ethyl ene
Int eger
Ġafet ar
B it
è Ĭ
Ġd rain
st yles
Ð°Ð½ Ð¾Ð²
D ep
H ost
t om
ç ©
Ġd la
Ġin icial
ist i
ĠN am
Ð¾Ð± Ð¾Ð´
ÄĻ zy
Ġpoly ester
nes ium
Ġmetabol ism
ĠÐ¸ÑģÐºÑĥÑģÑģÑĤÐ²ÐµÐ½ Ð½ÑĭÐ¹
ĠConstit ution
R un
Ġun common
Ġab b
ĠN azi
ĠJ Ã©r
Ġhum ain
Ð°Ð» Ð¾
ho res
ĠCol lection
omet er
Ġps y
Int ern
.F ood
ĠHÃ©l Ã¨ne
U RL
d irectory
s ome
om ething
est ial
Ġun pleasant
ual e
Ġ' .
cre ase
Ġgu est
light en
_ group
Ġv ai
Ġ" #
ĠÑģ Ð¾Ð¶Ð°Ð»
ĠÑĥ Ð¿
Ġintrodu ces
Ġcomprend er
Ġadministr ator
ĠÐ¿ÑĢÐ¾ÑĤ Ð¸Ð²
ĠëĶ °ëĿ¼
gr at
ĠÑĤ Ð²
Ġcentral ized
Ġdesarroll ar
std io
Ġchron ology
L ong
r ato
Ġre ck
Ġcon os
ul ent
Ð² ÐµÑĢÐ¶
acion ais
æĸ °
åŃ Ĺ
y t
Ġad jac
Ġag gi
Ġfind en
Ġend ere
kt ur
ĠÑįÐ»ÐµÐºÑĤ ÑĢÐ¾Ð½
Ġdistra ctions
O B
Ġsp as
Ġcar pet
ĠRe ading
Ġve c
ĠQu ando
.w idth
Ã¬ nh
ĠÑĢÐµ Ð°Ð»Ð¸Ð·
Ġconstru Ã§Ã£o
-terror ist
o ves
he jiang
Ġs ow
Ġs iano
es h
ĠA P
att i
Ġmach st
Pro perty
Ġillust ration
Ġëį Ķ
ĠEspa Ã±a
u ates
µ é©¬åħ
Ø ¸
Ġprom ises
Ġdepend ency
Ġpel os
Ġk Ã¤nde
ÃŃ du
Ġsa il
ĠRes pons
Ġlat ency
Ġcook ie
product s
Ġchamp ion
.ad vance
µé©¬åħ µé©¬åħ
F ound
In f
ĠHe at
Ġsw elling
Ġgas ps
Ġcomputation ally
Ġinters ection
Ġs issy
ĠS uch
ĠH al
Ġun ic
Ġprogram mer
Ġsoft ness
ĠÐ¶ ÐµÐ½
Ġcross ed
Ġep ic
m Ã¤
r us
Ġs ink
Ġne ither
Ġme gl
Ġsc roll
Ġpe qu
Ġactiv ated
Ġmet er
Ġtele f
ĠÐ²ÑĭÐ¿Ð¾Ð»Ð½ Ð¸ÑĤÑĮ
Ġanten na
Ġ" ",Ċ
get table
Ġimplement ar
Ġclear ing
Ġcir cles
Ġgover no
] "
om es
Ġcl oth
Ġcare ers
on to
en ne
ou ns
ĠA BC
ĠB in
æľ ¬
Ġexhaust ive
- ol
Ġbe am
con nection
Ġvis ste
ĠIl s
æĺ İ
(n p
- control
_ int
is Ã©
Ġh ike
ĠW here
rolog ical
ĠJÃ©r usalem
a ques
w eg
Ġdire ito
Ġinfer ior
t oken
å Ħ
ĠM AC
Ġsp ate
Ġje ans
Ð¾Ð²Ñĭ Ð¹
Ġnos so
Ġjak o
Ġtrig gered
Ġch iam
ĠÐ¸Ð· Ð±
Ġcamb io
ĠAcadem y
ab c
Ġher bs
ĠÑģ Ð¾ÑĤ
Ġover flow
ĠOpen Embedded
_p red
Ġpesso al
Ġsod disf
Ġovers ee
Through out
Ġcorros ion
Ġqu als
se cond
Ġad ject
erm an
Ġ[ ]ĊĊ
ĠÑĢ Ñĥ
aterial s
Ġris orse
á» Ľ
Ġdu ct
Ġgi oc
E CT
ĠD atabase
Ġtext ures
ator ies
select ed
ĠDies e
Ġsecur ities
è ³
Ġs ights
st off
ĠV ision
Ð¾Ð» Ð¸
Ġcar go
sp ace
Ġanim ations
ĠìĹ °
m aking
Ġinter ventions
à¸ ³
Ġread ability
ëĭ ¨
.c ss
ĠÐ¿ÑĢÐ¾Ð³ÑĢÐ°Ð¼Ð¼ Ñĭ
ĠTur k
ë¶ Ħ
Che ck
Ġvitam ins
is ons
ĠL LC
ĠÐ¿ ÑģÐ¸Ñħ
Ġunderstand s
Ġbo iling
ĠBut ton
plot s
Ġhonest y
Ġrein force
Ġstir ring
Ġb Ãºsqu
Ġg lor
Ġg aps
Ġch ol
Ġdes puÃ©s
Ġkn ock
Ġspecific s
we ek
ĠÑħ Ð°ÑĢÐ°ÐºÑĤÐµÑĢ
-the med
Ġbrom ide
_ recognition
k ers
re i
her ing
Ġover ly
ãĤ µ
ãĤ ·
erc ase
Un it
Ġrig id
ĠDock lands
í ħ
ic ul
pp ings
ĠG uer
Ġquant itÃł
Ġtend ency
ĠCy ber
Ġcaptiv ating
) ]
> NAME
å ¢
vel y
ater n
ob il
str ong
Ġhab ÃŃa
Ġlower case
Ġsett led
Ġaplic ar
Form at
Ġdevast ates
ĠestratÃ©g ia
Ð¸Ð½Ð¸Ð½Ð¸Ð½Ð¸Ð½Ð¸Ð½Ð¸Ð½Ð¸Ð½Ð¸Ð½ Ð¸Ð½Ð¸Ð½Ð¸Ð½Ð¸Ð½Ð¸Ð½Ð¸Ð½Ð¸Ð½Ð¸Ð½
v y
× ŀ×
å §
om ical
Ġent wined
Ġsignific ativo
Ġsitu aciones
ĠTo ols
Ð¸ÑĤÐµÐ»ÑĮ Ð½Ð¾
Ġquals iasi
S m
Ġd amp
Ġbuild s
Ġge ometric
Ġdr one
hent ication
Ġovers ight
Ġlimous ines
' imm
p rivate
Ġm artial
Ġe ins
Ġver ified
ĠEx istem
Ġbot Ã£o
uel a
ĠMain tain
ĠBlue water
- iod
N arr
p rompt
u ity
ĠI ran
ĠL ic
Ġsol uÃ§Ã£o
Ð¸ÑĤ Ð¸
ĠUs ers
ĠÐ¼Ð¸ÑĢ Ðµ
ĠÑĢÑĭ Ð½
ĠContinu ously
c ione
Ġdi as
Ġproduct o
Ġinv ited
Ġuns upervised
Ġcomun idad
Ġfat ty
Ġìķ Ĭ
Ġfert ility
ĠMuslim s
ĠÐ·Ð°Ð½ Ð¸Ð¼
Preg unta
ĠdiretÃ³ rio
D i
Ġcomp less
ĠÐ¿ ÑĭÑĤ
oy friend
Ġ} ;ĊĊ
Ġexpress Ã£o
ĠÐ²Ñĭ ÑĢÐ°Ð¶
ĠPh otos
Ġstandard ized
Ġthick ness
Ïī Î½
ĠÑĢÑĥÑģ ÑģÐºÐ¾Ð¼
J SON
i ÄĻ
m ys
Ġaff airs
Ġarri val
Ġvend ors
F W
} $
Ġst olen
Ġprocess os
å¹´ å¹´
Ġelectromag netic
M arket
µ ľ
ĠS ource
ĠC ath
Ġj ue
ik it
Ġneg atively
_m enu
Ġcient ÃŃf
à ¶
al ities
Ġres in
Ġcont amination
ĠE lement
Ðº Ð¸Ð¹
Ġcond ens
Ð¾Ð¿ ÑĢ
ĠComp et
ĠÐĺ Ð·
Ġvast a
Ġcrow ded
Ġcad ena
Ð¸ÑĤÐµÐ» ÐµÐ¹
Ġhorn y
B N
é ĺ
Ġs ir
Ġth umb
st ick
and le
Ġj ÄĻzy
Ġconf ian
ER V
Ġanat omy
ĠmÃ©th ode
clos ure
å¸®åĬ©ä½ł çļĦåĲĹ
ĠL ua
ĠÐ½ ÐµÐ¼
Ġstr utt
Ġcol una
Ġer fol
ĠSe le
Ġsw ing
model s
Ġperg untar
Ġreb els
T op
l ace
t imestamp
ĠS P
ĠL abel
ìŀ ¬
ny a
-pro fit
Ġcerc are
-Ð» Ð¸Ð±Ð¾
åĻ ¨
å®ĥåĢ ĳ
/ b
z uf
Ġde que
Ġpartic olare
ĠCre a
Ġantioxid ant
ibl ings
Ġconosc enza
ĠAgr icult
( The
Ġc ocks
Ġp yrimidine
Ġpro long
ĠY o
ĠÐ¿ÑĢ Ð¸Ñĩ
.s c
ĠCom pre
Ġwarm ing
Ġassum ing
icks ort
Ġsint esi
Ġsul le
. co
B uffer
S ession
ĠT itan
Ġch ia
com puter
Ġve gan
Ġdev otion
atch ing
Ġinte resse
Ġopp osition
Ġassign ment
Ġpunct uation
Pat ient
- Ð·
Ġd icas
Ġdet er
Ġfl ir
Ġwrit es
Ġcall back
ĠTh ink
ãģ® ãĤĪãģĨ
Ġkom men
Ġtorn ar
Ġdiagram s
ĠÐ¿ÑĢÐµÐ´Ð¾ÑģÑĤÐ°Ð² Ð¸ÑĤÑĮ
Ġverific a
Ġjung le
/ C
A uth
c all
ĠM ale
ÑģÑĤÐ² Ðµ
Ġprim o
Ġdam it
Ġthreat ened
Ġabsol utely
ĠSchw anz
Ġrif er
O rig
Ġun ters
ie ce
ĠL ara
Ġso ap
ĠĠĠĠĠĠĠĠĠĠĠĠĠĠĠĠ ĠĠĠĠĠ
ĠÎ ²
Ġeduc aciÃ³n
Ġdr ums
Ġcontact ing
Ġca ffe
Ġë§ Į
Ġnuo vo
Ġteor ÃŃa
ĠEther net
E P
Ġ ä½łå¥½
Ġr ational
ib o
ĠF ar
Ġdep os
ĠìĦ ł
Ġpon to
ĠÐºÐ°ÑĩÐµÑģÑĤÐ² Ðµ
| |
Ġ" "Ċ
ĠB ra
Ġart ific
Ġcam el
umb ai
Ġmil est
este em
Ġnegot iate
Ġsacrific e
U E
ed or
Ġh alt
imp le
Ġform idable
n em
ĠIn side
ĠÐ½Ð° ÑģÑĤÑĢÐ¾
åı ĸ
ĠÐ¸Ð½ Ð´
ĠÐ¾Ð±ÑĭÑĩ Ð½Ð¾
Ġrispond ere
_ from
ie g
ĠW ind
Ġinv ite
met ro
ĠÐ¿Ð¾Ð»ÑĥÑĩ ÐµÐ½Ð¸Ñı
Log in
ĠCount y
Ġlubric ant
- ass
m id
ra zione
Ð» Ð°ÑĤ
ĠB ox
Ġspe z
ff y
ĠÐ¼ Ñĥ
Ø± Ø¨
Ġmasturb ation
- esteem
em ption
Ġvisual izations
Ġcry ing
-A mino
Ð±Ð¾Ð»ÑĮÑĪÐ±Ð¾Ð»ÑĮÑĪ Ð±Ð¾Ð»ÑĮÑĪÐ±Ð¾Ð»ÑĮÑĪ
Ġmicroorgan isms
lighten ment
Ġy og
Ġfor za
ĠCom pl
ĠÐµ Ð¼Ñĥ
add ed
Ġconsist e
ĠÑĢÐ°Ð· Ð´ÐµÐ»
Ġgro ÃŁ
Ġnu ove
íĺ ¸
ĠestratÃ©g ias
Ġre ign
Ġv ant
ĠP ri
ĠB ur
Ġcl itor
Ġcommand e
ĠPre process
ĠlÃŃ ng
Ġcm d
Ġex pon
Ġimp er
ĠE UR
ĠJ ahr
cur rency
Ð¼ Ðµ
ÑĦ ÐµÐ¹Ñģ
cal cul
ĠD urante
ĠÐ¼ Ð°Ñģ
Ġloc ate
Ġmat riz
Ġexist em
Ġutilis Ã©e
ĠÑĥÐ»ÑĥÑĩÑĪ Ð¸ÑĤÑĮ
Ġlegend ary
ï¿½ï¿½ï¿½ï¿½ï¿½ï¿½ï¿½ï¿½ ï¿½ï¿½ï¿½ï¿½ï¿½ï¿½ï¿½ï¿½
Ġincons istent
åŀ ĭ
amphet amine
- j
Ġp all
Ġd abei
ĠA ud
Ġwas hed
Ġdo en
Ġide ology
ĠÑĢÐ°Ð· Ð½ÑĭÑħ
Ġdim ly
Ġneces ites
iest a
ĠÑģÐ¾Ð¶Ð°Ð» ÐµÐ½Ð¸Ñİ
Ġf ot
ĠÐ½ ÐµÐºÐ¾ÑĤÐ¾ÑĢ
Ġtext os
Ġcr ust
Ġded ic
Ġarr anged
eme ins
Ġpreprocess ing
Ġbreakthrough s
Ġulterior i
G ROUP
w ered
Ġsh ivers
ĠG ender
As ync
Ïģ Î·
Ġsoll te
Ġcaf Ã©
Ġunint ended
Ġ ip
ĠP T
ind e
cur ricular
âĶĢâĶĢ âĶĢâĶĢ
Ġenthus iasm
/ L
Ġw orm
Ġn igger
Ġor anges
ĠD av
Ġide ias
.w info
ump ed
ĠÑĥÐ´ Ð¾Ð²
at r
Ġm os
Ð½ ÐµÐµ
Ġme g
ĠB ul
Ġem pre
Ġpar ser
Ġsk illet
Ġprof iles
ĠDec ision
ĠÐ¸ÑģÑĤ Ð¾Ñĩ
u ations
Ġs ore
Ġin organic
et he
Ġdis abilities
Ġpos izione
enc oder
gg ior
ãĥ ¡
Ñĸ ÑĤ
Ġdr ift
ĠFin ance
ĠFa Ã§a
Ġepoch s
C U
t xt
an ze
ed as
Ġan o
Ġen fo
ĠH il
à¤ ¸
ym ph
_l og
Ġcountry side
enz ione
-e ffect
Ġìłķ ë³´
Act ivity
ĠÐ¼Ð°ÑģÑģ Ð¸Ð²
Ġt in
id el
Ġex terior
em ployment
Ġconf erences
Ġref use
Ġap Ã³s
min os
ĠEst ados
Ġtour ism
ĠHealth care
Ġemotion ally
Ġmegl io
G AN
Ġn ud
Ð¾ ÑģÐº
qu et
Ð¾Ð³ ÑĢÐ°ÑĦ
ĠBy z
ĠÐ¸Ð¼ Ñı
Ġinterpret ations
ĠSQL ite
Ð¸Ð¿ ÑĤ
:** ĊĊ
Ġhier arch
ĠAlp aca
Ð·Ð² Ð¸Ð½Ð¸ÑĤÐµ
ĠInnov ation
ä»» ä½ķ
_ r
Ġc ried
Ġf ic
Ġf og
Ġper haps
Ġind irect
ĠðŁĺ Ī
Ġfuncion ar
ĠDev Ops
ĠìĬ ¤
. items
P rompt
T en
k om
Ġde com
Ġse cluded
ĠF low
ind rome
ĠN PC
Ġredu nd
ache lor
Ġosc ill
I B
ĠL L
ĠÑįÑĤ Ñĥ
ì§ Ħ
ĠAc id
Ġsig hed
Ġsout hern
ĠCult ural
ĠHin du
Ġw ieder
st eps
ĠM icro
Ð¾Ð· Ð½
Ġliv re
load er
Ġexperiment ation
ĠImport ance
ä¾ ĭ
Ġentreprene ur
Ġdoub t
/ g
_ address
i ado
r ors
s pring
Ġ .ĊĊ
Ġ ..
is iÃ³n
ĠP ain
Ġspecial ist
Ġport a
yn asty
ĠìĹ ¬
]p yrimidine
( ()
. Entry
Ġin izi
ĠÑģ Ð¾ÑģÑĤÐ°Ð²
Ġbo ol
ĠBe zieh
Ġlik ed
ĠComp lex
âĶ Ĥ
Ġconfirm ation
ĠEvery one
Ġproport ional
Ġtempt ation
Ġile gal
Ġinhabit ants
j ours
ĠS oy
ĠH or
Ġnum s
ĠÃ ĸ
Ġrec ruit
Ġfl ights
Ð°ÐµÑĤ Ðµ
ĠLim it
ä¿ Ŀ
ĠÐ¾Ð´Ð½ Ð¸Ð¼
l Ä±
ĠT oken
Ġst er
Ġpr atic
ĠEm ail
Îµ Î¯
ĠÐŃÑĤÐ¾ ÑĤ
Ã¡f ica
Ġaqu atic
Ø ¥
ÑĢ Ðµ
ĠW orks
Ġout lined
ĠIn form
Ġsystem atic
Ġins ulin
Ġcrit ique
ĠVer fÃ¼g
ĠÐ¾Ð¿ Ð°Ñģ
Ġdead lines
Ġconven ience
ðŁĶ Ĵ
ĠÐ´ÐµÐ¹ÑģÑĤÐ² Ð¸Ñı
Ġre const
qu Ã¨
Ġch im
Ġact ividades
ĠCh ile
.p redict
ĠInc orpor
HE IGHT
ĠÐ¿ÑĢÐ¾Ð¸Ð·Ð²Ð¾Ð´ Ð¸ÑĤÐµÐ»ÑĮ
ĠBeaut iful
f act
{ '
Ġbu en
Ã¨ g
au ff
Ġbot s
Ġhar vest
a uf
Ð³ Ð¾ÑĤÐ¾Ð²
encia is
Des ign
Ġsymbol ic
_n ode
Ġgrin ned
Ġchloro form
d epend
pl ant
ĠK ar
Ġens ino
(((( ((((
S ummary
a per
m icas
out ube
Ġser a
Ġ' ,
ĠTechn ologies
'h istoire
sequ ence
f ly
h ous
Ġtra ils
Ġì ¹
Ġsl a
Al right
Ġbott les
Ġlic enses
ĠOther s
Ġdiscount s
Ġrisp ett
' elle
- ended
/ n
Ġp hishing
Ġh ij
ĠB ody
ocus ed
reg ular
Ġenf ermed
ĠÑĥÑĩ Ð°ÑģÑĤ
_e lement
ĠRegular ly
Ġdettag li
o os
Ġm ock
ow ania
Ġsc attered
Ðº Ð¾Ð»
ĠÃ© qu
Ġtu ples
Ġclim bed
Ġunivers o
ĠÑĩÐ°ÑģÑĤ Ð¾
'int Ã©
Ġanterior mente
Ġëį° ìĿ´íĦ°
Load er
m aster
an ime
ÑģÐº Ð¾ÑĢ
Ð°Ð¶ Ðµ
Ġcell ular
Ð»Ñİ Ð´
Ġadapt able
Ġhit ting
p unk
Ġsh ield
Ġhas t
Ġbo a
Ġgra ves
H U
it z
un akan
Ġse c
ĠM c
ĠM ach
ĠB at
Ġla und
ĠO m
Ġpos iÃ§Ã£o
che my
.add EventListener
Ġtecnolog ie
ĠÐ²Ð°ÑĪ ÐµÐ¹
å®ĥä»¬å®ĥä»¬å®ĥä»¬å®ĥä»¬ å®ĥä»¬å®ĥä»¬å®ĥä»¬å®ĥä»¬
Ġam usement
ĠAn al
ĠPh ilipp
Ġdim ens
Ã©ri ence
it ance
Ġmod ifier
Ġsl ang
Ġagre ements
Ġprincip ales
Ġadvoc ating
us age
Ġre cre
Ġch unks
ĠR ole
ign ment
Ġsc ikit
Ġfun Ã§Ãµes
. G
. object
} )ĊĊ
Ġh ire
Ġcom Ãºn
ĠS O
Ġbreath taking
Ġabsor bed
ĠHy per
Ð°Ð½ Ñĭ
Ġsol uciÃ³n
__ ':Ċ
app lication
Ġeu ros
Ġpra ised
ĠÐ°Ð²ÑĤÐ¾Ð¼ Ð°ÑĤ
itzer land
H ome
ap ache
enc ing
Ġvir uses
ĠÑĥÐ² Ð°Ð¶
/ bin
f are
h in
Ġle i
ĠD omin
ĠN E
ÏĦ Î¿
Ġíķ Ħ
ĠIntellig enz
æį ®
ĠMediter ranean
* .
D U
T ogether
_ and
im iter
ow s
Ñĥ ÑĢÑĥ
ÑģÐ¿ ÐµÐºÑĤ
Ðŀ ÑĤ
Sub mit
ĠNa N
F ind
_ matrix
c pp
Ġent ropy
-p y
ĠQ t
å¾ Ĺ
è¿ ĩ
ĠBar cel
+ `
_ val
Ġn am
Ġn em
Ġz n
Ġnorm as
Ġbound ary
Ġbuy er
ĠmÃ£ e
-prov oking
Ġl ider
ere m
Ġnot ifications
ĠE astern
Ġrel ent
ä» ĸ
cond ition
à¦ °
Ġnit ric
Ġscan ning
b ability
y cle
Ġout standing
Ġest rateg
Ġbre ed
ĠÑĪ Ð¸ÑĢ
Ġconhec ida
Ġimmag ini
un ts
Ġal lev
Ġk unde
ĠM essage
iss Ã£o
Ġcount ing
Ġlog ar
Ġvill ain
j uan
Ġte aches
Ġmod eration
Ġquest Ãµes
ĠTh ailand
ĠEng age
Ġimm ense
Ġsus cept
Ġkid ney
Ġarom a
Ġfet ish
autog ui
k m
ĠS ho
ĠP ed
ĠM umbai
Ġj ul
ĠG ra
Ġout dated
Ġet was
Ġput s
ĠvÃŃde os
Ġidi oma
ĠSimp le
Ġëĭ¤ìĿĮ ê³¼
" ))Ċ
le im
pe ople
ip ment
Ã¼ ber
'ent re
Ġefici Ãªncia
Ġcomand os
ic ur
Ġcom ed
Ġconf ess
ian ces
ĠAl ways
Ġfeature d
R C
os se
Ġ" [
Ġen zyme
ill es
ĠF emale
Ġro yal
Ġvari ant
ĠEm ployee
Ġsegu ire
Ġfragr ance
Ġcaract eres
_W IDTH
-min ute
Ġsu g
ĠM ateria
." ,
Ġcor ners
Ġfound er
-m ade
ĠÑģÑĩ Ð°ÑģÑĤ
ĠtÃ©r minos
ĠFÃ¤higkeit en
_| _|
V ari
ĳ Ĳ
ĠV alid
Ġgener are
Ġmet odo
Ġsocial e
ĠâĢ ĺ
æľ Ī
Ġatmosp heric
ĠÐ²Ð¾Ð·Ð¼Ð¾Ð¶ Ð½Ð¾ÑģÑĤÑĮ
å¿ ħ
Ġbestimm te
Ġs its
ĠS el
ĠD rop
ĠL ocation
gg er
ble m
Ġterm os
-d es
Ã¢ Ã¢
plit ude
åĬ ¨
ott ed
Ġëı Ħì
Ġfle e
ĠÃ® n
Ġus adas
Ð» ÐµÑĤ
ĠM AT
Ġad hering
Con nect
Ġconstruct ing
å½ ¢
Ġru ins
ĠÐĹ Ð°ÑĤÐµÐ¼
_ class
ĠCh ron
rosc opy
Ġenvol v
f lix
us c
Ġn ÃŃvel
Ġ" );Ċ
ĠC os
Ġtr Ãªs
Ġprodu cers
ĠR NA
ĠÐ²Ñĭ ÑĩÐ¸Ñģ
ìľ Ħ
Ġê³ ł
Ġmuest ra
ĠrÃ©sult ats
R F
Ġg ee
rit is
app ro
18 1
Ø§Ø Ń
Ġball oon
Ġretrie val
Ġiniti ative
Ġaccel erate
áº¿ t
Ġcontrib u
.r oute
ê± °
< br
Ġqu ad
ne um
Ġnew line
Ġenc ore
Ġfr iction
Ġrecommend s
Ġfarm ing
Ġrepos itor
S erial
g ers
ç ¾
Ġre gex
ch ild
Ġst roll
ĠA nc
yl ation
Ġtou jours
Ġchem otherapy
writ ing
Ġhier archy
Ġunfor gettable
- amin
re ds
Ġb ash
un st
Ġra ising
Ġkann st
Ġpenet ration
ÐŃÑĤÐ¾ ÑĤ
Ġingl Ãªs
ct l
ĠS uddenly
Ñĩ Ð¸Ð²
Ð¾Ð² Ð°
Ġav ons
Ġsqu ared
Ġadvance ment
éĥ ¨
k at
k ind
Ġf Ã¥
form e
act ers
Ġes cl
Ġprom o
åħ ·
Ġvan illa
Ġhabil idad
Ġvend or
FI LE
Ġhydr ide
Ġtrigg ers
_ position
ĠR io
ĠÑģ ÐºÑĢ
Ġstr at
Ġent us
ĠDe ath
Ġcapac itÃ©
Ġca ption
Ġsubm itted
ĠmodÃ¨ les
Ġlu ogo
oc ative
Ġì µľ
Con v
Ġmanip ul
Ġdispos ed
Ġnombre ux
ĠÙĪØ§ÙĦ Ùħ
ĠSex ual
Ġfinanz i
Ġem it
Ġass unto
Ġparent heses
uk an
ĠØª ÙĪ
Ġcatch ing
Ġdip ende
ĠbÃºsqu eda
W o
W ow
Ġc ÃŃr
Ġg ross
out ine
ĠW ay
ater rest
ĠÐ¼ Ð¾Ð½
Ġje u
Ġblo que
Ġmane iras
ï¼ļ ĊĊ
Ġheadquart ered
arm s
Ġpo op
.p arse
Ġris post
Ġlearn ers
He alth
Ġscrap ing
< script
R AN
.ĊĊ Ċ
Ġest udo
Ġappro ximate
Ġcost ru
Ġarg om
Ġcrit ically
Ġresol ving
Ġextract ing
Ġreact ants
ĠÏĦ Î¿Ïħ
ĠÐ¾Ðº ÑĢÑĥÐ¶
ĠÐ¿ÑĢÐ¾ÑĦ ÐµÑģÑģ
Ġnot ification
pl aces
Ġres erved
ĠW in
ÑĪ Ð¸ÑĢ
uss i
Ġter ra
Ġtransport e
Ġenh anced
ĠÐ½Ð°Ð¿ ÑĢÐ°Ð²
ä¸Ń æĸĩ
çĽ ®
ĠÐ°Ð½Ð°Ð»Ð¸Ð· Ð°
ĠGovern ment
ĠDeutsch land
Ġsorce rer
Ġcaffe ine
C G
Ġs iblings
Ġp raz
Ġrem ot
Ġcond itional
ĠIm per
iver y
Ġconserv ative
Ġsant Ã©
Ġf oster
Ġn at
Ġre un
ul se
ĠC ri
ëĭ Ī
ĠAr m
Ġreflect ing
Ġjump ing
Ġdere chos
Ġtama Ã±o
Ġ ),Ċ
in cl
ĠC reat
ĠR y
ex cept
Ð³ Ð»ÑıÐ´
Ġdeep est
ÑĢÐ° Ñĩ
L ear
P V
a an
s end
Ġpro xim
ac hen
ĠB ud
Ġshe ep
Ġë ©
ĠIm m
ÐµÐ³ Ð¾Ð´
ĠPol icy
Ġextra curricular
Ġdia per
Ġhabit at
Ġv est
Ġes pl
ĠÐ´ Ð°ÑĤÑĮ
Ġplace holder
Ġpost ure
Ġsho oting
ĠØ§ÙĦØ ´
ĠTerra form
Ġsurviv ors
7 50
: ")Ċ
ĠR SA
ij k
Ġtut or
Ġnutri ent
Ġverbess ern
/ or
ìĹ Ń
Ġcomun s
Ġinnoc ence
Gener ative
S orry
u overe
z in
as hed
ĠC trl
ĠH oly
ĠW alk
Ġdep osit
Ð± Ð¾ÑĢ
Ð°Ð» ÑģÑı
iction ary
Ġentre prise
Ġconsum o
ĠÐ¿Ð¾Ð¿ ÑĢÐ¾Ð±
S k
T ree
b be
g ia
Ġso othing
Ġcur ly
mer ican
pos itive
Ġfall en
ĠÐ·Ð½ Ð°Ð½Ð¸Ñı
. begin
ĠR ate
ĠÑĦ Ð¸Ð½
.f loor
Ġembarrass ing
ĠPa ulo
Ġretail ers
_ CO
æ ¨
en ario
il ha
ĠÑģ Ð¸Ð½
ĠUn idos
ï¼ Ī
Ġfa Ã§
ĠDocker file
Ġn ive
Ġk Ã¼nst
ĠÑĢ Ð¸ÑģÐº
Ġhist ogram
hens ive
Ġobser ver
Ġnear ly
Ø¯ÙĬ Ø¯
Ġcot ton
S ort
ic ient
un icip
Ġsu ave
ĠF ilter
Ġpe ers
Ġent ang
Ġposs ui
ob s
Ġprot ests
Ġbound s
Ġcompl aining
Log ro
ĠíĻ ķ
Ġdetall es
Ġerm Ã¶g
ari amente
Ð¼ Ð¾Ð²
vent ory
ink le
Ġgra in
Ġachieve ment
Ġvo ici
Ġvie wer
ĠMat plotlib
Ġsubtract ing
ĠColomb ia
Ġinter vals
Ġfol ders
lu x
ill o
Ġsh ine
Ġnew er
Ð¸Ð¼ Ð¾ÑģÑĤÑĮ
-d ib
Ġsem pl
Ġoh ne
aaaaaaaa aaaaaaaa
Å º
Ġsol uÃ§Ãµes
Ġfin ancing
Ġconc er
ze pt
ĠRed is
Ġhal ogen
ĠìĦ ±
ĠProgram m
Ġsan it
Ġfro zen
ĠSent iment
Ġc ose
ond ere
Ġrece iver
Ġbed eut
Ġorganiz aciÃ³n
Ġband s
ĠÐ¸Ð·Ð¼ÐµÐ½ ÐµÐ½Ð¸Ñı
Ġejecut ar
v ir
Ġst all
ĠH ost
con duct
Ġap i
Ã¤ tt
Ġpour rait
ĠRes ource
IM EST
Ġë§ İ
Ġìĸ´ ë
ĠM ah
ack age
Ġag ing
Ġgot ta
Ġdetermin ado
ĠÐ¾ÑĤÐºÑĢ ÑĭÑĤ
W X
Ġme ille
Ġad min
ÑĨ Ðµ
ĠDe ad
ĠEx ecut
ops is
ĠÐ¾Ð±ÑĬ ÐµÐ¼
Ġzur Ã¼ck
Ġgust arÃŃa
" It
n osis
v an
ĠT am
ĠÑģÑĤ Ð°ÑĢ
ĠÐ¿Ð¾ ÑįÑĤÐ¾Ð¼Ñĥ
Ġcham ado
Ġê¸° ìĪł
Ġrid urre
Ġexert ed
Ġel los
Ġco aching
Ġjust e
Ġcur riculum
Ġalg Ãºn
ĠÐºÐ¾ÑĤÐ¾ÑĢ ÑĥÑİ
ĠSw iss
stell ung
Ġconve ys
( list
M r
ĠS per
ÑĢ Ñĭ
Ġbeh alf
Ġele phant
Ġprogress ive
Ġinterf ere
ĠÐ»ÑİÐ´ Ð¸
sch leim
- right
T B
il ia
Ġpro active
Ġv as
ĠA seg
Ġev apor
Ġtem ples
íķ Ļ
Ġbr ind
ĠÐ¾Ñģ Ð½
Ġhabil idade
ĠÐ´Ð¾ÑģÑĤÑĥÐ¿ Ð°
Ġdoll ar
ĠSales force
du e
ĠD jango
Ġcons ul
Ġart igo
Ġharm on
cond a
Ġcos as
æ¸ ħ
imid azo
Ġdefect s
j ÄĻ
s ite
è £
Ġs abe
Ġnot ed
ĠN S
Ġz inc
Ġpack aged
_t okens
Com ment
Ġpodr ÃŃas
-nit rop
-ins p
Ġquadr atic
( user
Ġo re
Ġv engono
ĠM echan
'] )ĊĊ
ĠÐ±ÑĥÐ´ ÑĥÑī
Ġinteress ante
ĠÃºlt imo
Ġconex Ã£o
( img
P rop
Ġd all
om i
Ġu b
og ene
ĠG ross
uch t
Ġfl ush
ik u
Ġdownload ing
-r adius
Ġentertain ing
Ġfel ice
types cript
ĠSchwanz schleim
Ġl ungs
Ġde grading
() ,Ċ
Ġver bal
ĠÐ° Ð±
Ġsl iding
ĠRel ations
Ġproget to
éĿ ¢
- St
e a
Ġg al
Ġval eur
ĠÐ¼ Ð¾ÑĢ
Ð¹ ÑĤÐµ
Ġí Ĭ
ĠÐ¼Ð¾Ð´ ÐµÐ»
g igg
o led
Ġp ada
Ġb ass
Ġle aks
ĠB ridge
Ġad orn
ĠÐ¸ Ð³
ĠCol lege
è ģ
on ds
ut ar
Ġen de
Ġdec ay
Ġmult im
Ġacqu ire
Ġaggress ion
, N
. go
G D
b ian
ĠÑģ Ð°Ð¹ÑĤ
âĢ ¦
ĠK it
Ġris co
Ġcle ver
Ġwrit ers
Ġdraw backs
Ġanalis ar
Ġh Ã¤r
Ġun tr
ï¼ ī
Ġautom ating
à¦ ¨
Ġreact ivity
Ġband width
ĠÑĥÐ´ Ð¾Ð±
ë° ĺ
ĠC rit
Ġsh it
Ġdetect ive
B ase
ĠG as
ivid ual
ĠAn n
Ġprim al
Ġcred ible
Ġunf old
- ethyl
^ -
it ura
th io
yl abel
.d rop
_s ub
Ġë§ ¤
Ġestable cer
Ġefici encia
ethan amine
c ery
t an
ĠT our
ĠT imes
Ð½ Ñİ
AR D
igen ous
å¹¶ä¸ ¾
. event
/ T
Ġb ent
are m
ne x
Ð¾Ð» ÐµÐ²
à¸ Ľ
-d epth
ĠZ ero
ĠRes erve
ĠLe bens
Ġinitial ized
Ð½Ñĥ ÑĤÑĮ
áº¥ t
D ies
Ġs ult
ĠT arget
ult y
ĠN it
ĠO l
Ġfun ciones
Ġaff ront
ĠÐŀ Ð¿ÑĢÐµÐ´ÐµÐ»
gre p
Ġtransl ates
Ġunf air
G iven
j ek
Ġwhere as
Ġinflu enci
Ġcoll ar
Ġsepar ately
ĠÙħ Ø¹
ãģĦ ãĤĭ
ĠÐ»ÑİÐ´ ÑıÐ¼
æŃ £
Ġmyth ology
v icuna
ĠE L
act ic
Ġsp am
ĠJ OIN
Ġlet t
ÑĪ Ðµ
ator ia
let te
Ġemoc iones
] ]Ċ
Ġ Ø§Ø²
ro gen
Ġas ign
est ra
ĠO K
ne j
arm a
ĠSt atus
Ġent it
Ġple asing
Ġemploy ed
Game Frame
Ġban anas
Ġpictures que
Ġabnormal ities
ĠÐ²Ð·Ð°Ð¸Ð¼ Ð¾Ð´ÐµÐ¹ÑģÑĤÐ²
. client
i ol
Ġb od
Ġoff line
St udent
Ġpolit ician
ÐµÐ¶ Ð´
ãģĤ ãĤĭ
æł ¼
ĠCert ifique
_ line
p in
× ¢
ĺ Ĳ
al and
gr as
ath on
Ð¸Ð½ Ñĥ
Ġlimit es
Ġpan or
Ġmer ch
æ° ´
Ġtrag ic
f ree
ĠP age
ĠH ub
Ġr hy
ĠN BA
ys ical
Ġlet ra
arg v
ĠÐ¾Ð¿ÑĢÐµÐ´ÐµÐ» Ð¸ÑĤÑĮ
ĠÐ²Ð½ ÑĥÑĤ
1 12
C ategory
_ cl
u pload
ed elta
st atic
ĠH az
ĠHe brew
arr hea
ĠFra ge
Ġamen ities
. _
k on
Ġb esser
ĠV oice
itt ers
Ġsay a
ien st
Ġcr Ã©d
Ġposition ing
Ġbur den
Ðļ Ð°Ðº
-de v
Ġunst able
ĠíĶĦ ë¡ľ
us able
ist ence
ĠB and
ade qu
Ġsequ ential
abil ir
count ry
Ġforn irti
ĠLine ar
ĠDrag on
f old
f ahren
ir ks
ĠD ouble
Ġcond izioni
Ġexc it
Ġsl ot
ãĢĳ ãĢĳ
Ġv ais
Ġ" %
ĠV ice
Ġgr Ã¡fico
Ġacc ol
14 1
ĠÐŁ Ð¾Ð´
Ġarchitect ural
ÃŃn h
Ġfig ura
ĠEd ge
Ġscan ner
Ġtar jet
Ġodpow ied
. class
Ġa leg
Ġun conscious
Ġsitu aÃ§Ãµes
Ġsen so
Ġíķ Ļ
Ġelectro ly
health y
. čĊčĊ
ĠP redict
ten ces
row ing
Ġmat ched
Ġconsider are
Ġautom Ã¡tico
Ġol arak
ĠÃºlt ima
Ġbrom ine
[: ,
ĠVit amin
d ocker
h re
Ġrem ed
Ġpun ished
Ġagre es
Ġassign s
C ON
ol len
ĠE uro
ĠF ou
ÐµÐº ÑĤÐ¾ÑĢ
Ġdemand a
ĠMan ufact
Ġliter ary
A h
it us
Ġpro cure
Ġun like
ĠE conom
Ġno vos
Ġrad ical
Ġtecnolog ias
ĠSw itzerland
Ġconna issances
Ġreg ain
Ġrespons able
we ights
on ut
Ġout liers
Ð°Ð½ ÑĮ
hold ing
Ġrev iewer
ĠÑĪ ÑĤ
Ġnue va
elen ium
à °
ĠA ggi
est ic
ĠThe ory
ound s
Ġper chÃ©
Ġsumm aries
Ġamb itious
ĠArchitect ure
ic olo
Ġall iances
18 4
Ġpa wn
--- +
Ġstret ched
Ġpenal ties
Ġvolat ile
Ġfuncional idades
d og
è ĭ
or onic
Ġh u
ĠD ans
Ġì ½Ķ
Ġanal izar
Ð¾Ñģ ÑĥÐ´
Ġenjoy ment
ĠÂ ±
Ġmes mer
esp an
ĠÑģÐ»Ð¾Ð² Ð°
Ġpropag anda
Ġvu oi
Ġlegis l
Ã© tences
ĠD ise
Ġkn ot
ard ed
ĠÐ¿ Ð°Ð¼
ÐµÐ½ Ð½ÑĭÐ¼
ÐµÑĢ ÑĪ
che ma
Ð¸Ð½ Ðµ
Ġbrand ing
IC E
Ġhop es
ĠÐ½Ð¾Ð²Ñĭ Ðµ
ĠÑĤÑĢÐµÐ± Ð¾Ð²Ð°Ð½Ð¸Ñı
Ġprivile ge
Ã Ĺ
Ġ ÅĽ
id is
res so
ode grad
Ðº Ð°Ð¼Ð¸
ĠIn cl
Ð¾Ð¶ ÐµÑĤ
Ġmag azine
äº Ľ
Ġneut ron
ĠÐºÐ°Ð¶Ð´ Ð¾Ð³Ð¾
ĠÑģÐ¾Ð± Ð¾Ð¹
ĊĊĊĊ ĊĊĊĊ
in ja
ag na
ĠO CR
Ġgen ital
Ġpun ish
-l os
Im p
Ġaus ge
Ġfirm ware
DO W
Ġparagraph s
Ġìĸ ¸
Ġawk ward
Ġì¢ ĭ
Ġchol esterol
ific ate
ip ient
Ġmo y
ĠAn forderungen
Ġbro ke
Ġtransform ing
Ġheav ier
ĠÙĪØ§ÙĦ Øª
Ġtum or
ÏĢÎµÏĢÎµ ÏĢÎµÏĢÎµ
ĠSnake Game
'intÃ© gr
Ġb ard
ĠC u
Ġsc oring
Ġtra itement
Ġcons olid
Ð² Ð°
Ġbo ards
ĠÐºÐ¾ÑĤÐ¾ÑĢ Ð¾Ð¼
Ġestim ation
ÑĢÐ°Ð² Ð¸Ð»ÑĮ
ĠmÃ¶ch ten
vid ia
0 12
p ile
v ens
Ġs are
ig lia
Ġcomp iled
ĠB M
ĠB rain
ĠL ength
Ð´ ÑĢÐ°Ð²
Ð°Ð» Ð°ÑģÑĮ
istic he
Ġanc est
Ġmens aje
ðŁĺ Ī
çģ Ń
V ersion
Ġs agen
ĠN ous
Ġfl aw
Ġlight ly
Ġ: ,,Ċ
ĠðŁ ĳ
ĠVer wendung
Ġcer te
Back ground
auss ian
Ġw akes
ĠÐ ¹
Ġg ag
ver ages
Ġta ille
Ġclass Name
Ġinf o
-f actor
Ġdest ro
ĠCR M
Ġsouha itez
! )
Ġnot as
Ġcomp ares
Ġab iert
Ġsynthes izing
ĠÑĨ Ð¸Ðº
ĠAg ile
oo oo
zer os
ool s
Ġreb ell
Ġdemean or
Ġasynchron ous
r Ã¡s
or ce
Ġo le
ed it
ab ilitÃ©
Ġinv ention
Ġlist ens
ĠUn ix
ĠCre ar
ĠZ one
Ġden omin
Ġlot tery
Ġorganization al
Ġwel coming
Ġwol ves
H ash
s ur
Ġc arte
en es
Ġcom ent
Ġr uth
pt ide
ĠF er
com pass
ĠSt an
Ġ} );ĊĊ
Ġadapt ation
Ġjog ador
Ġdisappoint ment
Ġgior no
ĠWebs ite
Ġcon gest
ĠW ood
-f its
Ġfulf illed
Ġpark ed
ĠConst ant
Ġextr aterrest
ĠÐ² Ð¾Ð¹
ber ries
à¥ ¤
Ġsyst Ã¨mes
ĠSum mar
Ġt ons
Ġc ues
it ate
Ġl leg
Ġcl one
ĠCon c
Ġmeas urable
Ġtravel ers
Ġpel ÃŃcul
Ðŀ Ð´Ð½Ð°ÐºÐ¾
.res et
Ġë³ Ģ
Ġë¶ Ģ
Ġdisput es
C trl
G rid
_ json
ic ons
Ġse rem
10 9
Ġmo Å¼e
aj a
ĠCl ient
ĠCl ique
_p assword
Ġreview ed
ÑĭÐ² Ð°ÐµÑĤÑģÑı
Ġceremon y
r l
Ġp ond
Ġres etGame
Ġint ently
Ġco hes
(' .
Ġeat en
Ġmic rowave
Ġmasturb ate
Ġemo Ã§Ãµes
ĠÑĥÐ·Ð½ Ð°ÑĤÑĮ
ĠOffic er
. now
g one
op ropyl
ain te
Ġhead ing
Ġdesp air
re dd
ur ity
ver ter
Ġdel ta
Ġdec oder
Ġdepend iendo
Ġlib ros
Ġcalcul us
Ġdig ested
Ġdepart ure
person al
H EN
s al
Ġf aint
ĠB ad
Ġat te
round ed
Ġcatch y
Ġcher ish
ogg le
Ġobten ir
Ġcous in
C ustom
h ua
Ġv ine
Ġfact eurs
Ġvol l
ĠRes ources
sv g
ĠÐ²Ð¾Ð· Ð½Ð¸Ðº
ê² ½
'in form
-te ch
Ġescri bir
d m
Ġun se
ĠM ich
Ġj an
Ġpar sing
ĠCh icago
Ġutiliz ados
Ġaument are
Ġverd ad
Ġrevol t
Ġun iqu
Ġtri um
å¤ ķ
ĠMat hemat
'a ide
ĠHel p
Ġfor cing
ĠH et
Ġla ce
ĠSt ir
ick er
Ã¼ nd
Ġstrong est
So ftware
chlor ide
Ġtour ists
å ĸ
Ġin it
ĠP S
ten ance
ĠÐ³ ÑĢÐ°ÑĦ
Ġopp ression
Ġprob able
= lambda
Ġpl asma
Ġpres id
Ġìŀ Īëĭ¤
Ġprincipal mente
ĠFire fox
ĠAlp ha
esser act
Narr ator
g ood
k tr
} )
ĠS Ã¬
ĠH ash
Ð» Ð¾Ð¼
ĠO d
ĠÐº Ð°ÑĢÑĤ
Ġmo i
rop ol
ior n
-c ancer
IT Y
ony ms
ĠrÃ³ Å¼
_ ok
Ġf rente
os os
Ġz usammen
-f ocused
Ġview ing
ÑĢÐ° Ñħ
ĠÃº teis
Ġrepe ating
ĠÐ·Ð°Ð¿ Ð¸Ñģ
ĠbÃ¡s ico
ç´ ł
ĠÑĢÐ°Ð·Ð²Ð¸ÑĤ Ð¸Ñı
eterm ined
æ¶Ī çģŃ
Ġdá»¥ ng
= None
i pt
Ġt mb
Ġd av
Ġf ade
Ġb unch
Ġso b
Ġpers ever
ĠUn fortunately
Ø§Ø µ
Ġport rait
Ġhot els
Ġci Ã²
-r ange
åį Ĺ
Ġëĭ¤ ìĸĳ
æ¶ĪçģŃ æ¶ĪçģŃ
_ HEIGHT
ĠS aaS
Ġma ggior
ĠÑģ ÑĥÐ¼
ĠV ALU
ĠÐļ ÑĢÐ¾Ð¼Ðµ
ĠpÃºblic a
Ġenum erate
ou ve
Ġe ternal
Ġl ighter
ec ution
17 9
Ġshirt less
Ġjuris diction
B ERT
ĠS VG
Ġsh amp
ost on
Ġes egu
ĠÑĢ ÑĥÐ±
tt amente
ĠCre ative
Ġcompet ing
Ġcontinu a
Ġamb os
Ġdomin ate
ĠGu ard
Ġarrange ment
Ġsear ches
Ġlever aging
Ġaccompan ied
c anvas
h Ã¶
z ÄĻ
Ġcon he
ĠL TD
av ailable
Ġz d
Ġrec rystallization
Ġpat ches
_s um
)) ;ĊĊ
Ġtun nel
Ġcel estial
Ġble eding
ÐµÐ³Ð¾Ð´ Ð½Ñı
í ļĮ
ĠP ra
Ġle y
ass ert
ip ly
St orage
OR M
ĠÐĲ Ð½
ĠMal ays
ĠÑģÐ¾Ð¾ÑĤÐ²ÐµÑĤÑģÑĤÐ² ÑĥÑİÑī
' ob
< T
_ ST
f i
o qu
s ers
Ġt ack
Ġp ork
an aly
il ly
ĠR ange
ĠU ma
Ġso vere
Ġpers uas
Ġindivid u
Ġsl ides
ĠEst os
Ġdog gy
Ġann ounce
Ġcarbon ate
ĠLara vel
itt i
_l ayer
Ġhom osexual
Ġauthent icate
ĠÐ½ÐµÐ´ Ð¾ÑģÑĤ
Ġcomprens iÃ³n
Ġsla very
Ð» Ð¾Ð²
iel s
ĠÐ· Ð°ÑĤÐµÐ¼
ink y
Ġord in
ĠMedic ine
- ray
ĠW ikipedia
Ġsp icy
mer ge
18 7
opt ional
ĠUnder stood
ĠPlan ning
Ġcorpor ations
Ġprivile ges
ì Ĥ°
ad ies
Ġbe ast
ĠA B
ĠO F
Ġdis asters
ĠÂ £
Ð°Ð± Ð°ÑĤ
-w ritten
0 11
P s
Ġde jo
Ġcomp Ã©tences
ĠE j
Ġph ones
11 5
ĠCom mit
ĠĠĠĠĠĠĠĠĠĠĠĠĠĠĠĠ ĠĠĠĠ
Or gan
ĠÃºtil es
Ġdipl om
Ġclitor is
l age
í ĴĪ
Ġ Ã§a
Ġ` %
ãģ ¿
Ġdifferent iate
Ġsignific ado
Ġdest ructive
Ġgen itals
De vice
Ġcum pl
Ġstro king
ç¨ ĭ
bag ai
( window
a Ã±
s es
Ġp henyl
im ide
Ġqu em
Ġcomm a
Ġdis cret
ms g
Ġmet eor
ik o
Ġchat ting
ĠBay watch
ĠOptim ize
! !
A WS
_ interval
in x
st ico
ĠS ud
ĠP IL
Ġ{ }Ċ
Ð¸ÑģÑĤ ÑĢ
åħ ¶
Ġsout enir
E t
Ġy ap
ĠÐ½ ÐµÐ·
yl on
Ġcelebr ation
uj Äħ
åĬ© æīĭ
% ĊĊ
- en
â Ĥ¬
è ·
Ġw arrant
Ġex ig
Ġse hen
th on
ĠM is
Ġsent ient
ĠÑį Ð¼Ð¾
Ġill umin
Ġutilis Ã©s
Ġeste jam
ĠÃ©t apes
ĠFast Chat
ĠMex ican
' S
Ġdo ctors
Ġes o
10 4
12 1
ĠÐ» Ð¾Ð³
ĠStart ing
Ġalt amente
Ġtout es
Ġsolub ility
Ġinfraest rutura
ĠG est
Ġel astic
Ġsp re
Ġë Ħ
Ġfur ry
Ġsched ules
Ġobiett ivi
M ENT
\ Ċ
Ġc ure
Ġcomm erce
ĠV ersion
ãĤ ı
Ġsens ing
åı ĳ
Ġitalian a
ĠMÃ¶glichkeit en
ĠÐ¾Ð±ÑĢÐ°Ð±Ð¾ÑĤ ÐºÐ¸
Ġbrut al
" ],
{ \
Ġy eah
Ġst y
ĠL if
ĠF akt
Ð°Ðº Ð¾Ð¼
Ġtask ed
Ġland ed
ĠÑıÐ·Ñĭ ÐºÐ°
Ġempower ment
Ġfluct uations
Ġarrog ance
Ġa k
Ġp ian
Ġth rows
Ġby Äĩ
Ġsur render
Ġimpact ed
str ftime
Ġrein for
ĠReturn s
Ġcub ic
Ġazi ende
z el
ç ĸ
ro cess
em bed
Ġinter ns
ÙĬ Ùħ
Ġliv ello
-M od
UT F
æĹ ¶
ĠÐ¸ÑģÐ¿Ð¾Ð»ÑĮÐ·Ð¾Ð²Ð°Ð½ Ð¸ÐµÐ¼
Ġpubblic o
ĠÐ¶Ð¸Ð·Ð½ ÑĮ
! </
- read
Ġh orses
Ġon ions
Ġad oles
ru ptions
ĠÐ½ ÐµÐ²
Ġmain ly
ĠPro per
c ited
Ġse ats
vel te
ÃŃ g
10 3
Ġinst inct
Ġtest es
ron ics
Ġabs urd
Ġsult ry
le ich
ĠS icher
Ġ` \
ÑĮ Ðµ
Ġdire itos
-b uilt
Ġperm its
ON E
Ġdim in
ï¼ģ ä½łå¥½
ĠChristian ity
Ġliber ating
. String
B lock
an iline
Ġl ug
Ġeff et
izz ato
Time out
ÑıÑĤ ÑģÑı
Ã³s ito
Ġtun ing
ĠÐ¿ÑĢÐµÐ´Ð» Ð°Ð³
Ġiod ide
Ġchick ens
3 20
n one
ç Ħ
Ġbal ancing
ĠFe el
hal b
rav ity
ĠÑĤÐµÑħÐ½Ð¾Ð»Ð¾Ð³ Ð¸Ð¹
d irection
m ission
r ise
í ģ¬
Ġe y
om ed
Ġnot amment
ĠD irectory
Ġam igo
Ġmo Å¼
Ð¾ÑĢ Ð¸ÑģÑĤ
à¤ Ĺ
-b ase
Ġcontinu ation
Ġnurs ing
ç ±
Ġg ifts
Ġbe gging
ĠSt adt
Ġsign ing
Ġden ied
ĠEm ploy
empt y
Ġri vers
ĠFe ature
Ġfair ly
Ġproceed s
ãģĭ ãĤī
Ġnegot iation
-al ign
Ġappropri ately
is her
ĠC AN
ÐµÐ½ Ð´Ñĥ
Ġret reat
Ġgl ist
ĠCo ok
Ġtransform ations
ĠSet ting
ĠÐ¾ÑĤÐ²ÐµÑĤ Ð¸ÑĤÑĮ
Ġpag amento
Ġsne ak
ĠSnakeGame App
U B
_ amount
Ġr ou
ĠÑĥ ÑģÑĤ
po ol
Ġcr imin
irm ative
Ġinstal aÃ§Ã£o
Ġconstruct ed
ĠNet flix
Ð´ÑĢÐ°Ð² ÑģÑĤÐ²
" D
Ġv aria
ir y
ĠS ir
Ġqu it
ĠE p
Ġwor ries
here nce
Ġevent i
ĠÑģÐ² Ð¾Ð±Ð¾Ð´
ĠBl ender
ĠØ£ ÙĪ
Ġê³ µ
Ġplain text
Ġbicy cle
å¤ķ é£Ł
x ico
Ġc ables
Ġall ocated
Ġgu ards
ÙĨ ÙĬ
Ġaf irm
ĠEval uation
Ġ^ Ċ
b us
u ros
ĠP osition
Ġch orus
Ġco isa
Ñĸ Ñı
Ġsil ent
ìķ ½
Ġdevast ating
ĠRequest ing
Ġgrammat ical
' er
( R
ķ íķĺ
Ġqu ais
ĠM illion
Ġsuggest ive
Ð¾Ð· Ð¼Ð¾Ð¶
uel ve
åħ ³
Ġsein er
' ad
( Q
( As
um my
Ġserv izio
ĠÑĩ Ð°Ñģ
ateg or
ze ch
ativ i
_d ataset
[...]
