{"<|dummy_0|>":0,"<|endoftext|>":1,"<|fim_prefix|>":2,"<|fim_middle|>":3,"<|fim_suffix|>":4,"<|dummy_1|>":5,"<|dummy_2|>":6,"<|dummy_3|>":7,"<|im_start|>":8,"<|im_end|>":9,"<|im_sep|>":10,"<|dummy_4|>":11,"<|dummy_5|>":12,"<|dummy_6|>":13,"<|dummy_7|>":14,"<|dummy_8|>":15,"<|dummy_9|>":16,"<|dummy_10|>":17,"<|dummy_11|>":18,"<|dummy_12|>":19,"<|endofprompt|>":20,"<|dummy_13|>":21,"<|dummy_14|>":22,"<|dummy_15|>":23,"<|dummy_16|>":24,"<|dummy_17|>":25,"<|dummy_18|>":26,"<|dummy_19|>":27,"<|dummy_20|>":28,"<|dummy_21|>":29,"<|dummy_22|>":30,"<|dummy_23|>":31,"<|dummy_24|>":32,"<|dummy_25|>":33,"<|dummy_26|>":34,"<|dummy_27|>":35,"<|dummy_28|>":36,"<|dummy_29|>":37,"<|dummy_30|>":38,"<|dummy_31|>":39,"<|dummy_32|>":40,"<|dummy_33|>":41,"<|dummy_34|>":42,"<|dummy_35|>":43,"<|dummy_36|>":44,"<|dummy_37|>":45,"<|dummy_38|>":46,"<|dummy_39|>":47,"<|dummy_40|>":48,"<|dummy_41|>":49,"<|dummy_42|>":50,"<|dummy_43|>":51,"<|dummy_44|>":52,"<|dummy_45|>":53,"<|dummy_46|>":54,"<|dummy_47|>":55,"<|dummy_48|>":56,"<|dummy_49|>":57,"<|dummy_50|>":58,"<|dummy_51|>":59,"<|dummy_52|>":60,"<|dummy_53|>":61,"<|dummy_54|>":62,"<|dummy_55|>":63,"<|dummy_56|>":64,"<|dummy_57|>":65,"<|dummy_58|>":66,"<|dummy_59|>":67,"<|dummy_60|>":68,"<|dummy_61|>":69,"<|dummy_62|>":70,"<|dummy_63|>":71,"<|dummy_64|>":72,"<|dummy_65|>":73,"<|dummy_66|>":74,"<|dummy_67|>":75,"<|dummy_68|>":76,"<|dummy_69|>":77,"<|dummy_70|>":78,"<|dummy_71|>":79,"<|dummy_72|>":80,"<|dummy_73|>":81,"<|dummy_74|>":82,"<|dummy_75|>":83,"<|dummy_76|>":84,"<|dummy_77|>":85,"<|dummy_78|>":86,"<|dummy_79|>":87,"<|dummy_80|>":88,"<|dummy_81|>":89,"<|dummy_82|>":90,"<|dummy_83|>":91,"<|dummy_84|>":92,"<|dummy_85|>":93,"<|dummy_86|>":94,"<|dummy_87|>":95,"!":96,"\"":97,"#":98,"$":99,"%":100,"&":101,"'":102,"(":103,")":104,"*":105,"+":106,",":107,"-":108,".":109,"/":110,"0":111,"1":112,"2":113,"3":114,"4":115,"5":116,"6":117,"7":118,"8":119,"9":120,":":121,";":122,"<":123,"=":124,">":125,"?":126,"@":127,"A":128,"B":129,"C":130,"D":131,"E":132,"F":133,"G":134,"H":135,"I":136,"J":137,"K":138,"L":139,"M":140,"N":141,"O":142,"P":143,"Q":144,"R":145,"S":146,"T":147,"U":148,"V":149,"W":150,"X":151,"Y":152,"Z":153,"[":154,"\\":155,"]":156,"^":157,"_":158,"`":159,"a":160,"b":161,"c":162,"d":163,"e":164,"f":165,"g":166,"h":167,"i":168,"j":169,"k":170,"l":171,"m":172,"n":173,"o":174,"p":175,"q":176,"r":177,"s":178,"t":179,"u":180,"v":181,"w":182,"x":183,"y":184,"z":185,"{":186,"|":187,"}":188,"~":189,"¡":190,"¢":191,"£":192,"¤":193,"¥":194,"¦":195,"§":196,"¨":197,"©":198,"ª":199,"«":200,"¬":201,"®":202,"¯":203,"°":204,"±":205,"²":206,"³":207,"´":208,"µ":209,"¶":210,"·":211,"¸":212,"¹":213,"º":214,"»":215,"¼":216,"½":217,"¾":218,"¿":219,"À":220,"Á":221,"Â":222,"Ã":223,"Ä":224,"Å":225,"Æ":226,"Ç":227,"È":228,"É":229,"Ê":230,"Ë":231,"Ì":232,"Í":233,"Î":234,"Ï":235,"Ð":236,"Ñ":237,"Ò":238,"Ó":239,"Ô":240,"Õ":241,"Ö":242,"×":243,"Ø":244,"Ù":245,"Ú":246,"Û":247,"Ü":248,"Ý":249,"Þ":250,"ß":251,"à":252,"á":253,"â":254,"ã":255,"ä":256,"å":257,"æ":258,"ç":259,"è":260,"é":261,"ê":262,"ë":263,"ì":264,"í":265,"î":266,"ï":267,"ð":268,"ñ":269,"ò":270,"ó":271,"ô":272,"õ":273,"ö":274,"÷":275,"ø":276,"ù":277,"ú":278,"û":279,"ü":280,"ý":281,"þ":282,"ÿ":283,"Ā":284,"ā":285,"Ă":286,"ă":287,"Ą":288,"ą":289,"Ć":290,"ć":291,"Ĉ":292,"ĉ":293,"Ċ":294,"ċ":295,"Č":296,"č":297,"Ď":298,"ď":299,"Đ":300,"đ":301,"Ē":302,"ē":303,"Ĕ":304,"ĕ":305,"Ė":306,"ė":307,"Ę":308,"ę":309,"Ě":310,"ě":311,"Ĝ":312,"ĝ":313,"Ğ":314,"ğ":315,"Ġ":316,"ġ":317,"Ģ":318,"ģ":319,"Ĥ":320,"ĥ":321,"Ħ":322,"ħ":323,"Ĩ":324,"ĩ":325,"Ī":326,"ī":327,"Ĭ":328,"ĭ":329,"Į":330,"į":331,"İ":332,"ı":333,"Ĳ":334,"ĳ":335,"Ĵ":336,"ĵ":337,"Ķ":338,"ķ":339,"ĸ":340,"Ĺ":341,"ĺ":342,"Ļ":343,"ļ":344,"Ľ":345,"ľ":346,"Ŀ":347,"ŀ":348,"Ł":349,"ł":350,"Ń":351,"Ġt":352,"Ġa":353,"he":354,"in":355,"re":356,"on":357,"Ġs":358,"er":359,"Ġc":360,"Ġthe":361,"at":362,"en":363,"or":364,"es":365,"nd":366,"ĠĠ":367,"Ġp":368,"Ġd":369,"is":370,"it":371,"ou":372,"an":373,"Ġw":374,"Ġo":375,"Ġm":376,"Ġf":377,"Ġand":378,"al":379,"ing":380,"Ġto":381,"Ġb":382,"Ġin":383,"ar":384,"le":385,"ic":386,"ion":387,"ed":388,"Ġof":389,"ro":390,"as":391,"Ġe":392,"ent":393,"Ġh":394,"Ġl":395,"ct":396,"el":397,"us":398,"om":399,"Ġn":400,"ĊĊ":401,"Ġre":402,"Ġth":403,"Ġy":404,"ĠÐ":405,"Ġis":406,"et":407,"il":408,"ĠI":409,"Ġyou":410,"id":411,"im":412,"ĠĠĠĠ":413,"Ð¾":414,"ve":415,"am":416,"Ġg":417,"AM":418,"Ġde":419,"AME":420,"NAME":421,"ot":422,"ut":423,"st":424,"ĠT":425,"Ġpro":426,"ch":427,"Ġthat":428,"ol":429,"Ðµ":430,"ation":431,"ow":432,"un":433,"qu":434,"Ġfor":435,"Ġhe":436,"ad":437,"Ġbe":438,"ce":439,"Ð°":440,"Ġcon":441,"od":442,"ig":443,".ĊĊ":444,"if":445,"ÑĤ":446,"Ġv":447,"os":448,"ĠNAME":449,"ul":450,"Ġst":451,"Ġas":452,"ra":453,"Ð¸":454,"ith":455,"ur":456,"Ġan":457,"Ġit":458,"Ġcom":459,"ay":460,"ĠA":461,"ate":462,"ir":463,"Ġon":464,"ge":465,"ers":466,"um":467,"est":468,"Ġus":469,"Ġor":470,"Ġwith":471,"Ġcan":472,"Ð¾Ð":473,"ĠS":474,"Ġ\"":475,"ly":476,"ĠĠĠ":477,"Ġal":478,"ant":479,"Ð½":480,"Ñģ":481,"ess":482,"Ġex":483,"ri":484,".Ċ":485,"ÑĢ":486,"ab":487,"ĠThe":488,"ist":489,"em":490,"pe":491,"'s":492,"ort":493,"Ġsu":494,"ver":495,"ke":496,"ĠC":497,"Ġare":498,"Ġha":499,"ment":500,"res":501,"Ġen":502,"Ġqu":503,"ac":504,"Ġse":505,"iv":506,"pp":507,"ere":508,"se":509,"Ġwh":510,"her":511,"ction":512,"ld":513,"out":514,"``":515,"ity":516,"oc":517,"imp":518,"nt":519,"Ġne":520,"iz":521,"ust":522,"ĠP":523,"ore":524,"ĠH":525,"Ġyour":526,"Ġr":527,"Ġle":528,"ure":529,"age":530,"ill":531,"th":532,"Ġnot":533,"Ġun":534,"ter":535,"op":536,"Ġ=":537,"Ġcomp":538,"ical":539,"ide":540,"Ã©":541,"ud":542,"ain":543,"ies":544,"and":545,"igh":546,"orm":547,"Ð»":548,"Ġimp":549,"pt":550,"Ġu":551,"Ġk":552,"Ġ(":553,"ive":554,"ould":555,"Ġhave":556,"ial":557,"ine":558,"Ġch":559,"art":560,"Ġme":561,"du":562,"ĠM":563,"end":564,"pl":565,"ie":566,"ame":567,"form":568,"ĠĠĠĠĠĠĠ":569,"Ġres":570,"Ġab":571,"per":572,"our":573,"Ġher":574,"ect":575,"Ġcont":576,"Ñĥ":577,"rom":578,"ĠD":579,"og":580,"ĠE":581,"cl":582,"ell":583,"ĠB":584,"are":585,"Ġby":586,"Ġma":587,"Ġte":588,"Ð°Ð":589,"Ġwas":590,"Ġ`":591,"ther":592,"Ñĭ":593,"Ġsh":594,"Ġat":595,"ĠL":596,"Ġla":597,"ions":598,"Ġtr":599,"Ñı":600,":Ċ":601,"Ġpl":602,"Ġint":603,"ich":604,"Ġdo":605,"able":606,"ĠW":607,"Ġwe":608,"ult":609,"ight":610,"ib":611,"all":612,"ile":613,"ĠF":614,"act":615,"ang":616,"so":617,"lp":618,"cess":619,"Ġad":620,"ag":621,"Ġfe":622,"elf":623,"ÑĮ":624,"ue":625,"xt":626,"Ġmod":627,"Ġdes":628,"Ġhelp":629,"ome":630,"ous":631,"Ġcl":632,"Ġwor":633,")Ċ":634,"Ġmy":635,"ire":636,"Ġtheir":637,"ass":638,"Ġj":639,"ific":640,"ind":641,"Ġthis":642,"his":643,"ata":644,"ÐµÐ":645,"Ġfrom":646,"Ġprov":647,"ip":648,"Ġprodu":649,"Ġbut":650,"Ġother":651,"Ġar":652,"ĠR":653,"Ġany":654,"The":655,"Ġwill":656,"Ġac":657,"ations":658,":ĊĊ":659,"ound":660,"ia":661,"ĠG":662,"```":663,"Ġche":664,"king":665,"Ġuse":666,"ase":667,"ry":668,"Ġspe":669,"ans":670,"ĠIt":671,"ff":672,"Ġkn":673,"Ġimport":674,"Ġused":675,"Ġall":676,"Ġ-":677,"Ġhas":678,"vel":679,"ence":680,"ice":681,"ance":682,"Ġincl":683,"Ġper":684,"Ġman":685,"ack":686,"ard":687,"Ġque":688,"ual":689,"Ġapp":690,"Ġund":691,"Ġalso":692,"Ġmore":693,"ep":694,"ĠN":695,"int":696,"00":697,"ient":698,"ĠU":699,"ĠÐ¿":700,"ated":701,"Ð¸Ð":702,"Ġam":703,"Ġpre":704,"Ġem":705,"ĠO":706,"ĠÐ¸":707,"Ġser":708,"Ġlo":709,"ari":710,"Ġind":711,"ign":712,"Ġso":713,"ime":714,"Ġsuch":715,"ful":716,"ks":717,"Ġinclud":718,"ĠThis":719,"Ġinform":720,"Ġwhich":721,"Ã³":722,"ach":723,"ace":724,"Ġout":725,"ÑģÑĤ":726,"ces":727,"Ġthey":728,"Ġif":729,"iff":730,"Ġcre":731,"Ñĩ":732,"ens":733,"ĠÐ²":734,"Ġmodel":735,"Ġcomm":736,"Ġsc":737,"Ġli":738,"Ġdis":739,"Ġpar":740,"pon":741,"ru":742,"Ġknow":743,"gh":744,"Ġsy":745,"Ġits":746,"Ġgo":747,"te":748,"ition":749,"Ġimportant":750,"ress":751,"Ġspec":752,"ost":753,"ode":754,"ary":755,"--":756,"lic":757,"Ã¡":758,"ap":759,"gr":760,"ber":761,"Ġmay":762,"Ġabout":763,"Ġhis":764,"hen":765,"ong":766,"Ġshe":767,"ãģ":768,"av":769,"amp":770,"Ġdata":771,"eth":772,"ize":773,";Ċ":774,"'t":775,"Ġpr":776,"ast":777,"Ġfun":778,"Ðº":779,"ĠY":780,"ĠĠĠĠĠĠĠĠ":781,"ĠÑģ":782,"ne":783,"Ã§":784,"ÐµÐ½":785,"Ġro":786,"ough":787,"ener":788,",Ċ":789,"one":790,"Ã£":791,"Ġpos":792,"Ġtra":793,"Ġdiff":794,"Ġcons":795,"Ġneed":796,"put":797,"ite":798,"'m":799,"con":800,"mical":801,"Ã£o":802,"Ð²":803,"Ġup":804,"led":805,"Ġquest":806,"Ġev":807,"Ġvari":808,"Ġest":809,"ely":810,"ory":811,"Ġta":812,"Ġnew":813,"Ġwould":814,"Ġel":815,"ÃŃ":816,"Ġlike":817,"low":818,"Ġself":819,"ĠIn":820,"Ġdi":821,"ount":822,"ility":823,"Ġinformation":824,"ject":825,"ĠÐ½":826,"Ġproduct":827,"Ġfeel":828,"Ġusing":829,"ange":830,"angu":831,"Ġass":832,"Ġ|":833,"Ġprovide":834,"Ġ'":835,"()":836,"Ð¾Ð²":837,"Ġsome":838,"Ġcould":839,"Ġpers":840,"Ġsa":841,"Ġval":842,"Ġsp":843,"Ġes":844,"```Ċ":845,"Ġlangu":846,"Ġrel":847,"In":848,"ub":849,"Ġstr":850,"ample":851,"ĠV":852,"ok":853,"Ġthem":854,"ĠÐº":855,"stem":856,"Ġpe":857,"Ġ{":858,"olog":859,"10":860,".\"":861,"ater":862,"Ġchemical":863,"Ġpart":864,"Ġnum":865,"Ġinter":866,"Ġunder":867,"velop":868,"ased":869,"Ġtime":870,"Ġum":871,"ÐµÑĤ":872,"ĠÐ¾":873,"ft":874,"ors":875,"Ġlanguage":876,"Ġinv":877,"Ġthere":878,"ĠÃ":879,"Ġag":880,"ci":881,"Ġpara":882,"ays":883,"ating":884,"pect":885,"Ġrespon":886,"ord":887,"Ñħ":888,"Ġadd":889,"Ġfunction":890,"erm":891,"Ġprocess":892,"Ġcol":893,"any":894,"ning":895,"Ġmake":896,"ail":897,"aus":898,"ments":899,"Ġno":900,"get":901,"20":902,"Ġgener":903,"ents":904,"ert":905,"Ġwho":906,"ities":907,"Ġgr":908,"Ð´":909,"Ġperson":910,"Ġob":911,"Ġexper":912,"ĠJ":913,"Ġke":914,"etw":915,"Ġover":916,"Ġmo":917,"cur":918,"ll":919,"ys":920,"ĠHow":921,"com":922,"ade":923,"Ġincluding":924,"les":925,"Ġspecific":926,"ose":927,"Ġhow":928,"ild":929,"Ġrequ":930,"Ġdet":931,"Ġdevelop":932,"ally":933,"yth":934,"urn":935,"Ġtext":936,"Ð¼":937,"Ġform":938,"Ġph":939,"ĠÐ¼":940,"ible":941,"Ġexample":942,"ak":943,"self":944,"ics":945,"ĠYou":946,"ck":947,"ĠÐ´":948,"ings":949,"Ġbeen":950,"ĠAs":951,"Ġinto":952,"Ġty":953,"Ġdiffere":954,"Ġhad":955,"Ġi":956,"Ġone":957,"chn":958,"ÑĤÑĮ":959,"Ð°Ð½":960,"Ã³n":961,"Ð¾Ð»":962,"ates":963,"Ġwhat":964,"Ġeff":965,"enc":966,"ĠAI":967,"Ġsystem":968,"Ġatt":969,"Ġì":970,"io":971,"arm":972,"ower":973,"lo":974,"ict":975,"Ð¿":976,"Ġcode":977,"Ġserv":978,"ÑĤÐ¾":979,"az":980,"Ġoff":981,"Ġprovid":982,"hes":983,"Ġra":984,"Ġcompany":985,"Ñİ":986,"own":987,"Ġwant":988,"Ġsol":989,"oy":990,"Ġim":991,"ĠÃ©":992,"ear":993,"ath":994,"\",":995,"Ġret":996,"stand":997,"Ġco":998,"Ġ<":999,"wn":1000,"ark":1001,"ython":1002,"iqu":1003,"\":":1004,"Ġinst":1005,"ĠSt":1006,"cre":1007,"Ġent":1008,"ures":1009,"ety":1010,"pport":1011,"here":1012,"Ġz":1013,"Ġset":1014,"gram":1015,"cri":1016,"oth":1017,"Ġdef":1018,"ĠHe":1019,"ever":1020,"hat":1021,"ices":1022,"Ġeach":1023,"Ġact":1024,"ular":1025,"ustom":1026,"ÐµÑĢ":1027,"ĠĠĠĠĠĠĠĠĠĠĠ":1028,"Ġ{Ċ":1029,"Ġtrans":1030,"de":1031,"li":1032,"ĠShe":1033,"Ġhigh":1034,"ality":1035,"Ġfol":1036,"Ġexpl":1037,"rough":1038,"ph":1039,"ody":1040,"Ġway":1041,"Ġtechn":1042,"Ġhand":1043,"ract":1044,"Ġproducts":1045,"Ġdifferent":1046,"lect":1047,"Ġreg":1048,"iss":1049,"Ġconf":1050,"Ġthen":1051,")ĊĊ":1052,"Ġwork":1053,"ng":1054,"Ġ+":1055,"Ġunderstand":1056,"Ġdel":1057,"Ø§":1058,"âĢ":1059,"Ġbu":1060,"Ġindust":1061,"arch":1062,"rit":1063,"Ġ[":1064,"ative":1065,"ten":1066,"Ġjust":1067,"ood":1068,"Ġdep":1069,"ople":1070,"Ġsm":1071,"Ġexperi":1072,"Ġprogram":1073,"ĠÑ":1074,"ree":1075,"'re":1076,"ues":1077,"Ð½Ñĭ":1078,"ado":1079,"ĠK":1080,"Ġref":1081,"Ġlet":1082,"Ġcreate":1083,"Ġcustom":1084,"ctions":1085,"ise":1086,"gg":1087,"Ġap":1088,"Ġrem":1089,"Ġlear":1090,"lease":1091,"Ð¾Ð¼":1092,"ident":1093,"gan":1094,"Ġstart":1095,"rop":1096,"Ġcor":1097,"Ġav":1098,"Ġrep":1099,"Ġet":1100,"Ġshould":1101,"Ġfin":1102,"Ã§Ã£o":1103,"Ġcomple":1104,"ĠÐ¿ÑĢ":1105,"Ġquestions":1106,"Ġwell":1107,"Ġthrough":1108,"ern":1109,"Ġwere":1110,"Ġfollow":1111,"to":1112,"Ġposs":1113,"anc":1114,"Ġhim":1115,"row":1116,"ĠIf":1117,"Ġmeth":1118,"Ġhum":1119,"ex":1120,"Ġpeople":1121,"Ġplay":1122,"der":1123,"reat":1124,"Ġnumber":1125,"Ġuna":1126,"ock":1127,"Ġdon":1128,"wer":1129,"Ġtrain":1130,"ick":1131,"ential":1132,"ves":1133,"ĠÑĤ":1134,"Ġget":1135,"ĠÑĢ":1136,"eng":1137,"ional":1138,"Ġthese":1139,"Ġrange":1140,"Ġbest":1141,"irst":1142,"Ġsk":1143,"ble":1144,"Ġpol":1145,"Ġwhen":1146,"Ġcur":1147,"lement":1148,"Ġchar":1149,"ause":1150,"Ġlist":1151,"pr":1152,"Ġbl":1153,"Ġdesign":1154,"Ġpot":1155,"Ġfil":1156,"fore":1157,"Ġworld":1158,">Ċ":1159,"ont":1160,"ec":1161,"ĠHowever":1162,"Ġmethod":1163,"Ġfile":1164,"Ġsee":1165,"Ġcal":1166,"ify":1167,"Ġexp":1168,"Ð¾Ð³":1169,"à¸":1170,"ene":1171,"ious":1172,"Ġpo":1173,"</":1174,"Ð·":1175,"ish":1176,"Ġpower":1177,"Ġdec":1178,"ivid":1179,"As":1180,"ied":1181,"Ġsub":1182,"Ð¾Ð´":1183,"hed":1184,"Ġreturn":1185,"ved":1186,"iÃ³n":1187,"een":1188,"Ġfind":1189,"ext":1190,"----":1191,"Ġ/":1192,"ting":1193,"Ġtw":1194,"ural":1195,"ner":1196,"Ġens":1197,"iel":1198,"ption":1199,"Ġop":1200,"icult":1201,"Ġassist":1202,"Ġbased":1203,"its":1204,"Ġver":1205,"ĠHere":1206,"etween":1207,"Ġthan":1208,"Ġapplic":1209,"ãĤ":1210,"Ġlead":1211,"ds":1212,"be":1213,"Ð¸Ñı":1214,"Ġbetween":1215,"Ġcar":1216,"Ġstate":1217,"Ġconsid":1218,"alth":1219,"vers":1220,"Ġrec":1221,"ving":1222,"vent":1223,"ĠThey":1224,"Ġans":1225,"ake":1226,"Ð°Ðº":1227,"ÑĨ":1228,"ring":1229,"als":1230,"Ãª":1231,"Ð±":1232,"Ġmed":1233,"Ġproduction":1234,"Ġinvol":1235,"12":1236,"ung":1237,"Ġback":1238,"Ġer":1239,"Ġresult":1240,"Ġ}":1241,"Ġhere":1242,"Ġsupport":1243,"ĠCh":1244,"ife":1245,"ware":1246,"Ġperform":1247,"\\_":1248,"uring":1249,"ÐµÐ»":1250,"Ġprom":1251,"Ġkey":1252,"ness":1253,"Ġloc":1254,"Ġour":1255,"rent":1256,"Ġtake":1257,"ÑĪ":1258,"ized":1259,"19":1260,"hip":1261,"Ġsoc":1262,"(\"":1263,"Ġsur":1264,"Ð½Ð¾":1265,"but":1266,"Ġsaf":1267,"Ġbo":1268,"ages":1269,"ica":1270,"ument":1271,"\"Ċ":1272,"Ġaut":1273,"Ġbec":1274,"Ġil":1275,".s":1276,"ense":1277,"Ġsign":1278,"ĠÐ±":1279,"Ġbeing":1280,"Ġagain":1281,"Ġown":1282,"Ġmany":1283,"Ġclass":1284,"Ġfirst":1285,"up":1286,"ament":1287,"ork":1288,"resent":1289,"yl":1290,"Ġrespons":1291,"not":1292,"Ġwhile":1293,"Ġcontin":1294,"Ġmost":1295,"erg":1296,"Ġart":1297,"Ġallow":1298,"co":1299,"ER":1300,"iron":1301,"Ã¼":1302,"ines":1303,"Ġenv":1304,"=\"":1305,"..":1306,"Ġbody":1307,"ÙĦ":1308,"dd":1309,"rol":1310,"Ġtas":1311,"Ġ#":1312,"Ġreal":1313,"Ġacc":1314,"ian":1315,"Ġtry":1316,"ique":1317,"ros":1318,"Ġgu":1319,"Ġname":1320,"Ġimpro":1321,"Ã¤":1322,"ature":1323,"Ġut":1324,"Ġdown":1325,"Ġbel":1326,"ale":1327,"eren":1328,"Ġtwo":1329,"Ġfact":1330,"Ð°Ð»":1331,"Ġdepend":1332,"ered":1333,"ued":1334,"It":1335,"',":1336,"Ġlar":1337,"ty":1338,"Ġboth":1339,"Ġequ":1340,"Ġda":1341,"ST":1342,"Ġwhere":1343,"oup":1344,"Ġmain":1345,"Ġmat":1346,"Ġins":1347,"Ġcharact":1348,"ways":1349,"red":1350,");Ċ":1351,"ob":1352,"ĠĊ":1353,"Ġstep":1354,"Ġx":1355,"ew":1356,"Ġë":1357,"ada":1358,"Ġever":1359,"Ġ*":1360,"Ġvarious":1361,"ability":1362,"Ġgood":1363,"å®":1364,"Ġrese":1365,"iew":1366,"ier":1367,"Ġquestion":1368,"Ġlos":1369,"ĠÐ·":1370,"Ġanswer":1371,"Ġindustry":1372,"Ġbre":1373,"Ġeng":1374,"Ġtem":1375,"Ġpass":1376,"ink":1377,"aterial":1378,"Ġgame":1379,"Ġcap":1380,"==":1381,"Ġknown":1382,"Ġdire":1383,"Ġtyp":1384,"Ġhealth":1385,"ically":1386,"Ġinf":1387,"und":1388,"ÐµÐ¼":1389,"Ð¾ÑĢ":1390,"Ġvalue":1391,"ix":1392,"rect":1393,"Ġindivid":1394,"riend":1395,"ĠRe":1396,"Ġpotential":1397,"Ġide":1398,"Ġenviron":1399,"Ġpur":1400,"Ġweb":1401,"ization":1402,"ren":1403,"ited":1404,"uc":1405,"Ġprof":1406,"ĠÐ½Ð°":1407,"AN":1408,"Ġalways":1409,"Ġobject":1410,"Ġable":1411,"itt":1412,".p":1413,"Ġuma":1414,"ruct":1415,"Ġrequire":1416,"ĠPython":1417,"Ġdist":1418,"ocus":1419,"rame":1420,"ìĿ":1421,"):Ċ":1422,"##":1423,"Ġensure":1424,"Ġbus":1425,"Ġanal":1426,"Ð¸ÑĤ":1427,"Ġindividual":1428,"cul":1429,"ura":1430,"ons":1431,"11":1432,"ology":1433,"ione":1434,"iness":1435,"Ġcommun":1436,"oice":1437,"Ġdat":1438,"bo":1439,"Ġtest":1440,"Ð¸Ðµ":1441,"ources":1442,"Ġonly":1443,"Ġsom":1444,"Ð¸Ð¼":1445,"Ġrun":1446,"ivers":1447,"Ġutil":1448,",\"":1449,"old":1450,"Ġmin":1451,"Ġdie":1452,"lu":1453,"ello":1454,"Ġbuild":1455,"aciÃ³n":1456,"This":1457,"Ġeffect":1458,"Ġpersonal":1459,"action":1460,"Ð°ÑĤÑĮ":1461,"ward":1462,"Ġaccess":1463,"ote":1464,"itive":1465,"ĠÑĥ":1466,"Ġfound":1467,"Ġsor":1468,"SS":1469,"Ġinclude":1470,"Ġmust":1471,"val":1472,"ution":1473,"Ġinput":1474,"Ġrespect":1475,"Ġsit":1476,"ily":1477,"Ġhapp":1478,"'ll":1479,"Ġalg":1480,"Ġlife":1481,"ts":1482,"Ð»Ñı":1483,"cept":1484,"Ġhuman":1485,"Ġstud":1486,"Ð³":1487,"Ġmaterial":1488,"ĠDe":1489,"Ġenvironment":1490,"Ġfocus":1491,"Ġproper":1492,"arket":1493,"Ġconst":1494,"Ġdevelopment":1495,"day":1496,"ĠÑĩ":1497,"tern":1498,"ms":1499,"Ġplan":1500,"Ġlong":1501,"Ġident":1502,"uf":1503,"ĠPro":1504,"å®ĥ":1505,"Ġbefore":1506,"Ð¾Ð½":1507,"ax":1508,"Ġcontrol":1509,"Ġyear":1510,"Ġadv":1511,"Ġris":1512,"Ġgra":1513,"ove":1514,"Ġtop":1515,"Ġpossible":1516,"Ġsoft":1517,"import":1518,"Ð¾Ð¶":1519,"Ġmem":1520,"ives":1521,"Ġoper":1522,"ave":1523,"Ġcount":1524,"asure":1525,"Ġdeterm":1526,"uch":1527,"ĠUn":1528,"kes":1529,"Ġread":1530,"Ð¾ÑĤ":1531,"ribut":1532,"Ġsorry":1533,"ÐµÐ´":1534,"Ġcommand":1535,"uss":1536,"ĠĠĠĠĠ":1537,"Ġtype":1538,"ãĥ":1539,"Ġvers":1540,"Ġvis":1541,"à¤":1542,"St":1543,"Ġuser":1544,"Ġsynt":1545,"Ð¾Ð±":1546,"mer":1547,"Ð»Ð¸":1548,"aut":1549,"ling":1550,"Ġorgan":1551,"Ġder":1552,"__":1553,"ton":1554,".\"ĊĊ":1555,"no":1556,"Ġresearch":1557,"Ġ$":1558,"You":1559,"Ġles":1560,"gin":1561,"Ġshow":1562,"ĠWe":1563,"Ġability":1564,"Ġlearning":1565,"ando":1566,"Ġcle":1567,"Ġcomo":1568,"ãĢ":1569,"ĠUS":1570,"Ġcomput":1571,"app":1572,"Ġend":1573,"ĠÃł":1574,"Ġpop":1575,"Ġopt":1576,"ream":1577,"ior":1578,"Ġext":1579,"Ð¾Ð¹":1580,"ta":1581,"To":1582,"Ġsum":1583,"Ġincre":1584,"Ġimprove":1585,"fter":1586,"line":1587,"Ġmon":1588,"ined":1589,"Ġright":1590,"ropri":1591,"Ġwide":1592,"Ġcurrent":1593,"Ð°Ð·":1594,"Ġho":1595,"ĠFor":1596,"iment":1597,"-s":1598,"Ġconsider":1599,"Ð°ÑĤ":1600,"-b":1601,"Ġactiv":1602,"),":1603,"Ġday":1604,"Ġpat":1605,"Ġstrong":1606,"Ġsent":1607,"Ġfollowing":1608,"Ġcontext":1609,"()Ċ":1610,"Ġenerg":1611,"ries":1612,"Ġmess":1613,"Ð°Ð²":1614,"Ġterm":1615,"-t":1616,"ank":1617,"ination":1618,"Ñī":1619,"Ġcomplex":1620,"Ġbeh":1621,"Ġdoes":1622,"Ġcare":1623,"Ġlib":1624,"Ã¶":1625,"che":1626,"Ġredu":1627,"ertain":1628,"ĠCom":1629,"eg":1630,"Ġaddition":1631,"Ġbelie":1632,"Ġexperience":1633,"Ġproble":1634,"Ġcontent":1635,"yes":1636,"Ġteam":1637,"Ġsure":1638,"Ġprint":1639,"bers":1640,"Ġvariety":1641,"ced":1642,"idad":1643,"ield":1644,"Ġconc":1645,"ĠØ":1646,"read":1647,"ences":1648,"Ġcond":1649,"ars":1650,"Ð°Ð¼":1651,"ÑģÐº":1652,"íķ":1653,"Ġappro":1654,"Ġpri":1655,"Ġmade":1656,"Ġstand":1657,"ÑģÑı":1658,"Ùħ":1659,"Ġopen":1660,"Ġhist":1661,"Ġaround":1662,"atures":1663,"Ġapplications":1664,"Ġpartic":1665,"ull":1666,"Ġsmall":1667,"Ġcome":1668,"Ġdescri":1669,"Ġwom":1670,"Ġtool":1671,"Ġgroup":1672,"ropriate":1673,"ilities":1674,"Ġpor":1675,"ĠAdd":1676,"Ġeven":1677,"ator":1678,"other":1679,"Ġmarket":1680,"202":1681,"Ġask":1682,"Ġbet":1683,"Ð¾Ð»ÑĮ":1684,"Ġdisc":1685,"Hello":1686,"erest":1687,"ato":1688,"Ð¸Ð½":1689,"Ġdem":1690,"Ġfriend":1691,"Ġfam":1692,"Ġmus":1693,"ateg":1694,"yr":1695,"istant":1696,"Ġve":1697,"-p":1698,"Ġneeds":1699,"Ġdoc":1700,"ray":1701,"ublic":1702,"date":1703,"?Ċ":1704,"Here":1705,"aÃ§Ã£o":1706,"Ġed":1707,"Ġlove":1708,"yd":1709,"Ġfl":1710,"ather":1711,"Ġothers":1712,"Ġsimp":1713,"Ġprot":1714,"(self":1715,"Ġlarge":1716,"Ãł":1717,"ĠÑį":1718,").":1719,"IST":1720,"ething":1721,"ond":1722,"ric":1723,"ified":1724,"100":1725,"15":1726,"Ġrelations":1727,"Ġsever":1728,"Ġproject":1729,"Ġmet":1730,"ism":1731,"ÑĤÐ¾ÑĢ":1732,"ational":1733,"Ġdifficult":1734,"Ġenc":1735,";ĊĊ":1736,"Ġagainst":1737,"()`":1738,"ash":1739,"iven":1740,"med":1741,"za":1742,"ze":1743,"Ġmight":1744,"Ġdev":1745,"Ġavail":1746,"usion":1747,"Ġcharacter":1748,"ases":1749,"Ġmaking":1750,"Ġsomething":1751,"Ġbusiness":1752,"Ġinterest":1753,"ha":1754,"Ġquality":1755,"ina":1756,"ANT":1757,"Ġgenerate":1758,"ery":1759,"Ġsense":1760,"Ġsignific":1761,"Ġgrow":1762,"att":1763,"\",Ċ":1764,"Ãµ":1765,"ource":1766,"Ġsocial":1767,"ug":1768,"Ġservices":1769,"Ġoften":1770,"Ġcontain":1771,"ror":1772,"ement":1773,"Ð¶":1774,"bre":1775,"Ġnetw":1776,"Ġsex":1777,"ually":1778,".d":1779,"Ġseveral":1780,"ets":1781,"Ãµes":1782,"Ãº":1783,"ÑģÑĤÐ²":1784,"Ġenergy":1785,"atural":1786,"Ġsay":1787,"Ġpoint":1788,"inal":1789,"play":1790,"ÙĬ":1791,"Ġmult":1792,"Ġnote":1793,"Ġrelationship":1794,"ÐµÐº":1795,"Ġiss":1796,"oid":1797,"ser":1798,"ISTANT":1799,"Ġess":1800,"tt":1801,"Ġoutput":1802,"Ġpour":1803,"ention":1804,"Ġleg":1805,"pos":1806,"Ġ|Ċ":1807,"ä»":1808,"ĠQ":1809,"Ġdesigned":1810,"ven":1811,"ins":1812,"Ġou":1813,"ead":1814,"Ġimpact":1815,"abel":1816,"po":1817,"ðŁ":1818,"ns":1819,"Ġlim":1820,"ux":1821,"Ġcommon":1822,"port":1823,"Ġtre":1824,"Ġphys":1825,"Ġlevel":1826,"ants":1827,"Ġevery":1828,"13":1829,"print":1830,"Ġeffic":1831,"Ġzu":1832,"Ġplace":1833,"PT":1834,"nc":1835,"Ġutiliz":1836,"ativ":1837,"ĠWhat":1838,"]Ċ":1839,"name":1840,"ency":1841,"ĠEx":1842,"Ġsitu":1843,"Ġcannot":1844,"tr":1845,"Ġein":1846,"Ġwid":1847,"ĠIs":1848,"thing":1849,"//":1850,"Ġrequest":1851,"Ġtraining":1852,"ëĭ":1853,"tic":1854,"Ġelse":1855,"ples":1856,"Ġnecess":1857,"Ġele":1858,"air":1859,"ĠSe":1860,"âĢ¢":1861,"Ġcent":1862,"Ġcult":1863,"Ã¨":1864,"ĠASS":1865,"Ġexc":1866,"tain":1867,"hor":1868,"Ġfut":1869,"Ġanything":1870,"Ġdirect":1871,"ĠASSISTANT":1872,"Ġwithout":1873,"Ð¹":1874,"oking":1875,"Ġresponse":1876,"Ġcorrect":1877,"ados":1878,"Ġpued":1879,"Ġpract":1880,"Ġinvest":1881,"Ġmach":1882,"python":1883,"ision":1884,"ggest":1885,"Ġperformance":1886,"Ġsens":1887,"ÙĪ":1888,"Ġ``":1889,"Ġlook":1890,"ps":1891,"Ġsuc":1892,"Ġsame":1893,"Ġimage":1894,"Ġsw":1895,"pre":1896,"pec":1897,"atch":1898,"Ġmanage":1899,"Ġwater":1900,"ĠĠĠĠĠĠĠĠĠĠĠĠĠĠĠĠ":1901,"Ġcaus":1902,"Ġmind":1903,"Ġbetter":1904,"Ġmean":1905,"nce":1906,"Ġeas":1907,"Ġsoftware":1908,"Ġinvolves":1909,"Ġavailable":1910,"Ġpres":1911,"Ġ//":1912,"ately":1913,"Ġchall":1914,"Ġsuggest":1915,"Ġstill":1916,"Ġple":1917,"erc":1918,"par":1919,"alk":1920,"ÑģÐ¿":1921,"Ġsteps":1922,"Ġnon":1923,"14":1924,"Ġlearn":1925,"Ġdid":1926,"Ġvalues":1927,"Ġservice":1928,"Ø§ÙĦ":1929,"apt":1930,"Ġeyes":1931,"('":1932,"div":1933,"Ġmas":1934,"Ġchang":1935,"Ġcustomer":1936,"Ġharm":1937,"Over":1938,"Ġcompound":1939,"Ġinc":1940,"ames":1941,"Ġsaid":1942,"itions":1943,"ication":1944,"Ġos":1945,"comm":1946,"Ġimplement":1947,"Ġtoday":1948,"Ġnatural":1949,"ï¼":1950,"ital":1951,"-m":1952,"Ġfew":1953,"Ġtoget":1954,"Ġtogether":1955,"indow":1956,"Ġtasks":1957,"ills":1958,"000":1959,"td":1960,"Ġprofess":1961,"-d":1962,"ience":1963,"Ġplease":1964,"Ġkeep":1965,"ik":1966,"elt":1967,"itionally":1968,"Ġsystems":1969,"bot":1970,"Ġbr":1971,"ĠInt":1972,"ĠÐ¾Ð±":1973,"PI":1974,"Ġdocument":1975,"Ġseg":1976,"><":1977,"ÑĢÑĥ":1978,"ires":1979,"ĠTr":1980,"ann":1981,"ium":1982,"Ġmove":1983,"ĠThere":1984,"Ð¸Ð²":1985,"Ġhead":1986,"ĠÐ½Ðµ":1987,"ĠMy":1988,"lev":1989,"Ġstring":1990,"Ġmeet":1991,"30":1992,"Ġyears":1993,"ah":1994,"ĠUSER":1995,"ĠAl":1996,"200":1997,"Ġhelpful":1998,"curate":1999,"ĠTo":2000,"But":2001,"ember":2002,"lor":2003,"Ġtechnology":2004,"ĠChe":2005,"Ġgreat":2006,"ĠThese":2007,"Ġnever":2008,"Ġunderstanding":2009,"Ġfeeling":2010,"Ġfr":2011,"ÑĦ":2012,"Ġfac":2013,"ming":2014,"ÐµÐ¹":2015,"Ġprovided":2016,"Ġnow":2017,"Ġvoc":2018,"25":2019,"ploy":2020,"Ġtrad":2021,"col":2022,"Ġfeatures":2023,"Ġcost":2024,"Ġlibr":2025,"Ġ\\":2026,"cond":2027,"go":2028,"Ġappropriate":2029,"Ð¸Ð¸":2030,"17":2031,"ä¸":2032,"Ġsim":2033,"amb":2034,"Ġunique":2035,"Ġmodels":2036,"Ġrest":2037,"Ġmuch":2038,"rite":2039,"Ġsynthes":2040,"ien":2041,"joy":2042,"16":2043,"less":2044,"ledge":2045,"ule":2046,"Ñĸ":2047,"Ġlog":2048,"Ġmessage":2049,"Ġbecause":2050,"ron":2051,"Ġarg":2052,"Ġexpress":2053,"cer":2054,"ĠÐ²Ñĭ":2055,"ÐµÐ½Ð¸Ñı":2056,"Ġsumm":2057,"chie":2058,"idence":2059,"ĠAn":2060,"Ã§Ãµes":2061,"Ġcustomers":2062,"Ð¾Ñģ":2063,"Ġsal":2064,"Ð¸ÑĤÑĮ":2065,"ĠÑı":2066,"vert":2067,"Ġamount":2068,"Ġfree":2069,"me":2070,"Ġallows":2071,"Ġrepresent":2072,"word":2073,"Ġ}Ċ":2074,"Ġthough":2075,"Ã©s":2076,"ĠBut":2077,"Ġstre":2078,"ĠCon":2079,"Ġuses":2080,"ĠCre":2081,"--------":2082,"Ġspecial":2083,"Ð¾ÑģÑĤ":2084,"view":2085,"Ġcomb":2086,"Ġwrit":2087,"Ġcouldn":2088,"Ġalgor":2089,"ared":2090,"-f":2091,"aj":2092,"Ġlight":2093,"Ġbas":2094,"Ġmaterials":2095,"Ġproblem":2096,"á»":2097,"Ġnext":2098,"curity":2099,"'ve":2100,"Ġproviding":2101,"Ġmom":2102,"nect":2103,"user":2104,"Ġfore":2105,"Ð¸Ðº":2106,"ÙĨ":2107,"Ġcase":2108,"text":2109,"Ġpublic":2110,"Ġhappy":2111,"iques":2112,"Ġfood":2113,"Ġknew":2114,"Ġbehav":2115,"odel":2116,"Ġdesire":2117,"Ã¡s":2118,"ute":2119,"åı":2120,"Ġconvers":2121,"Ġson":2122,"Ġcr":2123,"Ð¾ÑĤÐ¾ÑĢ":2124,"Ġsize":2125,"rain":2126,"cript":2127,"Ġline":2128,"Ġrole":2129,"ering":2130,"Ġprovides":2131,"Ð¾Ð·":2132,"irt":2133,"18":2134,"cho":2135,"ried":2136,"Ġafter":2137,"mb":2138,"ken":2139,"ĠUse":2140,"ript":2141,"}Ċ":2142,"Ġê":2143,"yle":2144,"Ġhope":2145,"pro":2146,"Ġfield":2147,"Ġsafety":2148,"_d":2149,"atform":2150,"Ġfactors":2151,"Ġgre":2152,"Ġclear":2153,"ido":2154,"Ġear":2155,"aging":2156,"ĠÐ´Ð»Ñı":2157,"Ġvery":2158,"Ġnetwork":2159,"ger":2160,"Ġresponses":2161,"Ġmachine":2162,"Ġsuccess":2163,"ince":2164,"Ġvoice":2165,"abl":2166,"Ġtypically":2167,"sp":2168,"Overall":2169,"Ġsignificant":2170,"\")Ċ":2171,"Ġlas":2172,"ho":2173,"ists":2174,"Ġpopular":2175,"ida":2176,"Ġfuture":2177,".g":2178,"erv":2179,"Ġenjoy":2180,"for":2181,"Ġevent":2182,"Ġhard":2183,"Ġchalleng":2184,"ĠÐ°":2185,"Ġgl":2186,"Ġaff":2187,"201":2188,"net":2189,"Ġreaction":2190,"ĠAdditionally":2191,"ĠÃ¨":2192,"Ġprofessional":2193,"Ġdeep":2194,"Ġmeans":2195,"ysis":2196,"Ð½Ð°":2197,"ude":2198,"ustain":2199,"':":2200,"Ġknowledge":2201,"?ĊĊ":2202,"Ġacid":2203,"duct":2204,"ait":2205,"Ġist":2206,"ogn":2207,"Ġexec":2208,"Ġalgorith":2209,"ĠĊĊ":2210,"ral":2211,"Ġsl":2212,"Ð¾Ð³Ð¾":2213,"Ġcertain":2214,"Ġresources":2215,"ante":2216,"cing":2217,"itor":2218,"Ġpowerful":2219,"ĠAnd":2220,"ĠInd":2221,"ĠvocÃª":2222,"ĠWith":2223,"Ġpode":2224,"Ġscient":2225,"ables":2226,"Ġchemicals":2227,"por":2228,"ĠÐ³":2229,"Ġvide":2230,"Ġclient":2231,"ĠLet":2232,"na":2233,"Ġgiven":2234,"Ġstory":2235,"Ġorder":2236,"Ġelect":2237,"Ġskills":2238,"Ġsafe":2239,"ructure":2240,"Ġexam":2241,"til":2242,"Ġgeneral":2243,"Ġchange":2244,"ards":2245,"ciÃ³n":2246,"fort":2247,"Ø§Ø":2248,"?\"":2249,"Ġ:":2250,"ĠZ":2251,"Ġtrained":2252,"Ġusers":2253,"Ġsi":2254,"Ġindividuals":2255,"Ob":2256,"Ġcalcul":2257,"50":2258,"Ġaw":2259,"ances":2260,"Ġpleasure":2261,"Ð¸Ð¹":2262,"conom":2263,"Ġmen":2264,"nov":2265,"Ġfinal":2266,"Ġachie":2267,"ĠÐ¾ÑĤ":2268,"Ġ==":2269,"Ġcolum":2270,"Ð½ÑĭÑħ":2271,"ico":2272,"ished":2273,"Ġdu":2274,"Ġidea":2275,"ĠĠĠĠĠĠĠĠĠĠĠĠĠĠĠ":2276,"ĠBe":2277,"Ġscript":2278,"Ġsat":2279,"ydro":2280,"Ġdiscuss":2281,"irl":2282,"Ġapolog":2283,"ox":2284,"ĠÐºÐ¾ÑĤÐ¾ÑĢ":2285,"Ð°ÑĢ":2286,"Ġbuilding":2287,"Ġlay":2288,"Ġtoo":2289,"_s":2290,"Ġcalled":2291,"ĠAr":2292,"ross":2293,"Ġneg":2294,"Ġplatform":2295,"ĠLa":2296,"ystem":2297,"Ġsustain":2298,"Ġfur":2299,"Ġwebs":2300,"ĠÐ»":2301,"Ġfelt":2302,"utical":2303,"Ġprotect":2304,"Ġduring":2305,"idade":2306,"Ġcho":2307,"Ġespec":2308,"Ġtreat":2309,"Ġcause":2310,"Ġface":2311,"armace":2312,"rand":2313,"Ġemot":2314,"ush":2315,"armaceutical":2316,"Ġclos":2317,"Ġthink":2318,"Ġport":2319,"Ð°Ñģ":2320,"assistant":2321,"actions":2322,"Ġanim":2323,"Ġthings":2324,"Ġperm":2325,"Ġphysical":2326,"ouse":2327,"Ġways":2328,"ender":2329,"Ġcheck":2330,"ctor":2331,"den":2332,"Ġemb":2333,"Ġwords":2334,"let":2335,"Ġna":2336,"Ġsist":2337,"raw":2338,"Ġchild":2339,"Frame":2340,"cy":2341,"imes":2342,"arget":2343,"Ġbehavior":2344,"Ġaddress":2345,"que":2346,"aring":2347,"Ġconcern":2348,"Ġbeaut":2349,"Ġant":2350,".c":2351,"====":2352,"Ġtakes":2353,"Ð¸Ð·":2354,"ON":2355,"ellig":2356,"ici":2357,"ĠÐµ":2358,"Ġincludes":2359,"ittle":2360,"Ð¾Ðº":2361,"###":2362,"Ġpriv":2363,"ĠØ§ÙĦ":2364,"ification":2365,"Ġexplore":2366,"Ġlooking":2367,"Ġprev":2368,"of":2369,"def":2370,"vern":2371,"ours":2372,"num":2373,"ek":2374,"ĠÎ":2375,"Ġsecond":2376,"Ġpolit":2377,"leg":2378,"ĠCl":2379,"Ġcolor":2380,"Ġdri":2381,"Ġbi":2382,"amed":2383,"Ġversion":2384,"Ġheart":2385,"Ġprompt":2386,"\".":2387,"ĠÐ¼Ð¾Ð¶":2388,"Ġinstall":2389,"Ġcall":2390,"els":2391,"Ġeth":2392,"pose":2393,"ÃŃa":2394,"Ġdepending":2395,"Ġsynthesis":2396,"Ġapologize":2397,"Ġsummary":2398,"Ġbene":2399,"ĠSome":2400,"Ġaccurate":2401,"vol":2402,"Ġtu":2403,"Ġpref":2404,"Ġinte":2405,"atic":2406,"pected":2407,"LE":2408,"Ġfilled":2409,"Ġdom":2410,"Ġbecome":2411,"Ġliv":2412,"ĠX":2413,"Ġguid":2414,"Ġgoing":2415,"Ġrefer":2416,"Ġapproach":2417,"Ġcomputer":2418,"**":2419,"raph":2420,"Ġcu":2421,"Ġbro":2422,"Ġgive":2423,"itle":2424,"ifficult":2425,"amet":2426,"Ġapplication":2427,"ilar":2428,"ĠIm":2429,"oud":2430,"ĠCo":2431,"Ġcontinue":2432,"ulation":2433,"Ġden":2434,"str":2435,"Ġtk":2436,"ifficulty":2437,"Ġappe":2438,"Ġtable":2439,"Ġmoment":2440,"Ġcity":2441,".\"Ċ":2442,"ais":2443,"wards":2444,"arr":2445,"ĠSure":2446,"Ġdas":2447,"ails":2448,"abor":2449,"Ð¸Ñĩ":2450,"Ġhome":2451,"bal":2452,"Ġsimple":2453,"Ġpositive":2454,"Ġwithin":2455,"ĠTh":2456,"anger":2457,"Ġcat":2458,"Ġword":2459,"ws":2460,"Ġpresent":2461,"Ġimportante":2462,"Ġrecomm":2463,"Ġefficient":2464,"Ġsearch":2465,"Ġaud":2466,"cc":2467,"Ð¾Ð»ÑĮÐ·":2468,"Ġanalysis":2469,"ights":2470,"Ġchat":2471,"Ð¸Ñħ":2472,"Ġlittle":2473,"Ġdig":2474,"Ġpod":2475,"ĠAPI":2476,"Ġstore":2477,"oci":2478,"pen":2479,"Ġlibrary":2480,"Ġsituation":2481,"Ã¼r":2482,"Ġpred":2483,"add":2484,"Ġworking":2485,"ca":2486,"ãĢĤ":2487,"Ġpress":2488,"Ġthose":2489,"Ġrece":2490,"Ġlik":2491,"If":2492,"ĠCreate":2493,"Ġpack":2494,"cle":2495,"Ġhelps":2496,"ibility":2497,"Ð¸Ð»":2498,"Ġanother":2499,"ella":2500,"Ġaccount":2501,"ufact":2502,"ĠPl":2503,"Ġvi":2504,"One":2505,"Ġhig":2506,"ai":2507,"Ġter":2508,"quality":2509,"pportun":2510,"face":2511,"aking":2512,"Ġsources":2513,"itial":2514,"Ġtypes":2515,"unt":2516,"Ġexist":2517,"uest":2518,"iple":2519,"medi":2520,"Ġanaly":2521,"Ġrout":2522,"ĠÐ±Ñĭ":2523,"Ð°Ð´":2524,"ili":2525,"ips":2526,"Ġvol":2527,"Ġeconom":2528,"anced":2529,"Ġnecessary":2530,"ancial":2531,"Ġpharmaceutical":2532,"ĠGo":2533,"icate":2534,"we":2535,"ores":2536,"Ġune":2537,"una":2538,"Ġevidence":2539,"imate":2540,"Ġrecommend":2541,"Ġmot":2542,"Ġfre":2543,"`,":2544,"file":2545,"Ġinnov":2546,"Ġstrateg":2547,"ories":2548,"gen":2549,"Ġrelev":2550,"Ġfurther":2551,"aries":2552,"iled":2553,"Ġtrying":2554,"vas":2555,"Ġparticular":2556,"ĠÑģÑĤ":2557,"uit":2558,"ird":2559,"Ġpa":2560,"Ġlocal":2561,"ĠÂ":2562,"orld":2563,"åı¯":2564,"new":2565,"_t":2566,"ĠInst":2567,"Ġcompon":2568,"Ġprevious":2569,"ĠPlease":2570,"IN":2571,"ems":2572,"ĠData":2573,"oks":2574,"py":2575,"au":2576,"ground":2577,"Ð¸Ñģ":2578,"Øª":2579,"Ġreduce":2580,"iction":2581,"Ġtrue":2582,"ilit":2583,"Ġmag":2584,"Ġmanufact":2585,"ivo":2586,"Ð°Ð±":2587,"rie":2588,"Ġconcept":2589,"ength":2590,"aly":2591,"Ġnumbers":2592,"Ġconsidered":2593,"Ġsing":2594,"Ġsecurity":2595,"Ġprogramming":2596,"Ġissues":2597,"my":2598,"Ġopportun":2599,"utions":2600,"Ð¸ÑĢ":2601,"Ġtools":2602,"mat":2603,"ente":2604,"Ġtell":2605,".,":2606,"Ð½Ð¾ÑģÑĤ":2607,"Ġqui":2608,"Ġidentify":2609,"xim":2610,"amente":2611,"Ġmanagement":2612,"orts":2613,"ma":2614,"ĠEng":2615,"Ġactivities":2616,"Ġelement":2617,"Ġformat":2618,"Ġbenef":2619,"Ġleft":2620,"Ġleading":2621,"Ġbase":2622,"Ġfriends":2623,"orth":2624,"Ch":2625,"Ð°ÑĨ":2626,"Ġgovern":2627,"Ġconfig":2628,"Ġturn":2629,"],":2630,"ĠÑĩÑĤÐ¾":2631,"Ġonline":2632,"ties":2633,"Ġhab":2634,"Ġsn":2635,"ruction":2636,"Ġstatement":2637,"Ġful":2638,"Ġcreating":2639,"ino":2640,"Ġoptions":2641,"Ġtask":2642,"isf":2643,"Ġair":2644,"Ġmaintain":2645,"jet":2646,"å®ĥå®ĥ":2647,"Ġlow":2648,"ym":2649,"Ġsomeone":2650,"Ġautom":2651,"Ġrisk":2652,"Ġhistory":2653,"We":2654,"Ġgoals":2655,"ava":2656,"Ġinflu":2657,"Ġoptim":2658,"pped":2659,"Ġchanges":2660,"Ġposition":2661,"orn":2662,"istic":2663,"Ġprec":2664,"js":2665,"Ġorig":2666,"car":2667,"Ġarch":2668,"iverse":2669,"Ã©m":2670,"Ġprim":2671,"oura":2672,"Ġtarget":2673,"Ġprin":2674,"Ġavoid":2675,"iones":2676,"Ġvon":2677,"Ġconnect":2678,"Ġarea":2679,"Ġgirl":2680,"Ġvary":2681,"Ġroom":2682,"ĠSh":2683,"ides":2684,"azione":2685,"Ġsource":2686,"Ð¾Ð¿":2687,"Ġmais":2688,"back":2689,"Ġspace":2690,"Ð½ÑĭÐµ":2691,"do":2692,"ĠCan":2693,"roll":2694,"-quality":2695,"icle":2696,"Ġpain":2697,"Ġexperienc":2698,"omb":2699,"just":2700,"ss":2701,"ĠDes":2702,"ÑģÐ¿Ð¾Ð»ÑĮÐ·":2703,"Ġscientific":2704,"ĠnÃ£o":2705,"Ġprote":2706,"Ġtechniques":2707,"yn":2708,"Ġred":2709,"Ð°ÐµÑĤ":2710,"Ġmethods":2711,"Ø±":2712,"Ġlikely":2713,"Ġvideo":2714,"Ġpas":2715,"Ġadditional":2716,"Ġfinancial":2717,"ission":2718,"ÑĥÑİ":2719,"Ġsound":2720,"ĠÑĦ":2721,"Ġhandle":2722,"iver":2723,"uro":2724,"Sure":2725,"Ġwoman":2726,"Ġjo":2727,"erence":2728,"ĠNo":2729,"Ã±":2730,"oring":2731,"itted":2732,"Ġyourself":2733,"Ġdanger":2734,"Ġallies":2735,"Ġbegin":2736,"ĠSp":2737,"ras":2738,"Ġbelieve":2739,".size":2740,"Ġmi":2741,"icht":2742,"Ġattack":2743,"Ġarray":2744,"Ġrespectful":2745,"df":2746,"hile":2747,"rodu":2748,"\\_\\_":2749,"Ġcrit":2750,"Ġdue":2751,"Ġfamily":2752,"Ġconsist":2753,"Ġmar":2754,"ram":2755,"Ġchallenges":2756,"body":2757,"ÐµÑģ":2758,"Ġintellig":2759,"_m":2760,"ively":2761,"ey":2762,"ÐµÐ½Ð¸Ðµ":2763,"Ġvariable":2764,"Ġsobre":2765,"Ġengine":2766,"Ġdetermine":2767,"bl":2768,"Ġje":2769,"Ġwar":2770,"Ġment":2771,"head":2772,"ĠÐºÐ°Ðº":2773,"land":2774,"Ġsupp":2775,"Ġnight":2776,"Ġpattern":2777,"à¦":2778,"Ġtou":2779,"Ġsem":2780,"'d":2781,"from":2782,"tal":2783,".t":2784,"Ġfo":2785,"ÑĥÑĩ":2786,"Ġrequirements":2787,"aim":2788,"izing":2789,"Ġresults":2790,"era":2791,"...":2792,"Ġprocessing":2793,"Ġhands":2794,"ĠAss":2795,"place":2796,"rend":2797,"Ġrelated":2798,"_l":2799,"Ġbit":2800,"Ġestabl":2801,"alse":2802,"ume":2803,"Ġrelevant":2804,"Ġless":2805,"Ð°Ð¶":2806,"Ġview":2807,"Ġmultiple":2808,"çļ":2809,"Ġcommit":2810,"lex":2811,"af":2812,"Ġmeaning":2813,"Ġseries":2814,"Ġrunning":2815,"avig":2816,"Ġdest":2817,"inter":2818,"Ä±":2819,"Ġshort":2820,"ĠestÃ¡":2821,"Ġkind":2822,"Ð¾Ð²Ð°Ð½":2823,"ee":2824,"Ġdate":2825,"Ġrecogn":2826,"(s":2827,"Ġsexual":2828,"Ġtrust":2829,"ara":2830,"Ġsuper":2831,"çļĦ":2832,"ios":2833,"Ġcharacters":2834,"ĠÐ¸ÑģÐ¿Ð¾Ð»ÑĮÐ·":2835,"Ġshare":2836,"Obj":2837,"Ã¡ri":2838,"Ġconditions":2839,"ä½":2840,"ches":2841,"ĠÑĢÐ°Ð·":2842,"ĠTe":2843,"></":2844,"Ġthree":2845,"ney":2846,"Ġindustries":2847,"There":2848,"mo":2849,"ioni":2850,"Ġstreng":2851,"ĠYes":2852,"Ġwebsite":2853,"Ġplayer":2854,"Ġsatisf":2855,"idine":2856,"Ð°Ð¿":2857,"Ġexamples":2858,"Ġjour":2859,"Ã©c":2860,"Ġrate":2861,"Ġrespond":2862,"Ġcir":2863,"ĠÑĤÐ°Ðº":2864,"gress":2865,"AT":2866,"Ġeduc":2867,"min":2868,"ero":2869,"Ġlocated":2870,"ethyl":2871,"Ġcompan":2872,"inally":2873,"izes":2874,"oms":2875,"une":2876,"Ġcour":2877,"rug":2878,"ĠSo":2879,"use":2880,"Ġcell":2881,"ĠÐŀ":2882,"Ġquick":2883,"Ġpay":2884,"ised":2885,"alu":2886,"Ġold":2887,"-based":2888,"Ġwidely":2889,"Ġjob":2890,"ëĭ¤":2891,"ï¼Į":2892,"ID":2893,"Ġdisplay":2894,"Ġsoci":2895,"Ġskin":2896,"ĠÑģÐ²":2897,"Ġexperiences":2898,"ĠRes":2899,"Ġactions":2900,"ÐµÐ»ÑĮ":2901,"urs":2902,"Ġrand":2903,"Ġerror":2904,"hy":2905,"ĠÐ¸Ð·":2906,"abase":2907,"tre":2908,"Ġemp":2909,"empl":2910,"Ġsua":2911,"Ġqual":2912,"Ġselect":2913,"Ġsubject":2914,"Ġremember":2915,"Ġinside":2916,"Ġstatements":2917,"Ġparamet":2918,"Ġequip":2919,"ãĢģ":2920,"Ġoffer":2921,"Ġtotal":2922,"Ġnamed":2923,"Ð°Ð¹":2924,"uman":2925,"Ġcolumn":2926,"Ġtemper":2927,"Ġlast":2928,"://":2929,"ificial":2930,"Ø¯":2931,"Ġengage":2932,"span":2933,"acy":2934,"Ġconcerns":2935,"Ġevents":2936,"::":2937,"Ġassoci":2938,"Ġentre":2939,"ensive":2940,"ĠÐĴ":2941,"Ġserver":2942,"ĠDo":2943,"Ġpredict":2944,"Ġhighly":2945,"ĠcÃ³":2946,"ëĬ":2947,"asing":2948,"Ġvous":2949,"rypt":2950,"AR":2951,"ending":2952,"Ġgen":2953,"yp":2954,"ĠPr":2955,"Ġrandom":2956,"Ġideas":2957,"Ġelements":2958,"ĠÐºÐ¾ÑĤÐ¾ÑĢÑĭ":2959,"Ġpurpose":2960,"ogle":2961,"Ġconne":2962,"jor":2963,"So":2964,"lt":2965,"ula":2966,"ager":2967,"ĠAd":2968,".get":2969,"Ġlot":2970,"ãģ®":2971,"Î±":2972,"ÑĥÑĤ":2973,"Ġbot":2974,"Ġtri":2975,"Ġeine":2976,"curs":2977,"Ġprevent":2978,".NAME":2979,"Ġharmful":2980,"br":2981,"Ġaway":2982,"amento":2983,"hether":2984,"oss":2985,"ĠÐ¼Ð¾Ð³":2986,"Ġstructure":2987,"ĠOpen":2988,"fect":2989,"ĠLe":2990,"Ġmakes":2991,"aces":2992,"iles":2993,"chool":2994,"LM":2995,"Ġpu":2996,"ĠEst":2997,"And":2998,"Ġsimilar":2999,"load":3000,"iter":3001,"Ġded":3002,"Cl":3003,"Ġhydro":3004,"kt":3005,"ges":3006,"Ġuntil":3007,"Ġmeasure":3008,"Ġproperties":3009,"Ġworks":3010,"Ġmass":3011,"Ġpresence":3012,"ĠEn":3013,"Ġconse":3014,"pping":3015,"Ġoc":3016,"Ġtransform":3017,"Ġtowards":3018,"Ġupd":3019,"24":3020,"ĠÐ¸Ð½":3021,".m":3022,"Th":3023,"ider":3024,"Ġcompet":3025,"iful":3026,"Ġframe":3027,"Ġwarm":3028,"ĠGPT":3029,"Ġchoice":3030,"Ġdangerous":3031,"```ĊĊ":3032,"Ġge":3033,"ane":3034,"cure":3035,"work":3036,"Ġlimit":3037,"sh":3038,"}ĊĊ":3039,"Ġblock":3040,"Ġfiles":3041,"Ġpath":3042,"Ġnavig":3043,"Ġevalu":3044,"Ġachieve":3045,"ĠEm":3046,"ario":3047,"ìĹ":3048,"set":3049,"ĠÐ¼Ð¾Ð¶ÐµÑĤ":3050,"Ġcountry":3051,"Ġ>":3052,"stream":3053,"Ġfeelings":3054,"uments":3055,"Ġmor":3056,"avor":3057,"ules":3058,"Ġloop":3059,"Ġstri":3060,"uck":3061,"Ġstarting":3062,"Ġstrength":3063,"ats":3064,"la":3065,"Ġ&":3066,"Ġready":3067,"endo":3068,"Ġregul":3069,"à¹":3070,"lection":3071,"Ġquant":3072,"ration":3073,"come":3074,"Ġincrease":3075,"cher":3076,"Ġdatas":3077,"Ġdone":3078,"Ġwrite":3079,"Ð°Ð»ÑĮ":3080,".com":3081,"Ġemploy":3082,"Ġland":3083,"ĠLtd":3084,"Ġstudy":3085,"Ex":3086,"]ĊĊ":3087,"ncia":3088,"ffic":3089,"Ġnature":3090,"Ġflow":3091,"Ġing":3092,".f":3093,"Ġdrug":3094,"ĠChemical":3095,"ason":3096,"adas":3097,"ilt":3098,"Ġwon":3099,"ection":3100,"key":3101,"Ġdass":3102,"Ġce":3103,"Ġminim":3104,"Ġdistribut":3105,"{Ċ":3106,"Ġroot":3107,"Ġstarted":3108,"Ġintegr":3109,".l":3110,"Ġbegan":3111,"fs":3112,"erences":3113,"aÃ§Ãµes":3114,"jud":3115,"cover":3116,"ä»¥":3117,"Ġfund":3118,"Ġcontribut":3119,"Ġcommunication":3120,"Ġneeded":3121,"Ġcomfort":3122,"inking":3123,"ÐµÐ½ÑĤ":3124,"ml":3125,"itÃł":3126,"Ġeffective":3127,"Ġfull":3128,"Ġmusic":3129,"ww":3130,"Ùĩ":3131,"ÐµÐ³":3132,"Ġbreak":3133,"lam":3134,"Ġtechnolog":3135,"attle":3136,"outh":3137,"care":3138,"Ð°Ñı":3139,"igo":3140,"Ġprop":3141,"clusion":3142,"ML":3143,"Ġaction":3144,"Ġstay":3145,"ĠSie":3146,"enz":3147,"ĠDef":3148,"Ġtal":3149,"Ġbring":3150,"Ġsolutions":3151,"Ġpen":3152,"):":3153,"Ġattention":3154,"ĠSet":3155,"Ġterms":3156,"Ġtaking":3157,"pare":3158,"32":3159,"Ġyoung":3160,"Ġgrowth":3161,"chen":3162,"itional":3163,"Ġstat":3164,"))":3165,"()ĊĊ":3166,"Ġforest":3167,"Ġsince":3168,"For":3169,"Ġoption":3170,"Ġdos":3171,".game":3172,"Ġdidn":3173,"Ġreach":3174,"Yes":3175,"Ġbreath":3176,"icas":3177,"âĢĻ":3178,"itect":3179,"Ġdecis":3180,"Ġclaim":3181,"Ð½ÑĭÐ¼":3182,"Ġoffers":3183,"Ġvill":3184,"Ġeasy":3185,"Ġlocation":3186,"Ġdefin":3187,"ëĬĶ":3188,"Ġrelationships":3189,"verage":3190,"Ġsolution":3191,"irection":3192,"Ġrequired":3193,"Ġareas":3194,"box":3195,"Ġfem":3196,"Ġstru":3197,"Ġí":3198,"Ġenvironmental":3199,"Ġintelligence":3200,"Ġsistem":3201,"Ġresponsible":3202,"Ġspeed":3203,"Ġ.":3204,"Ġeat":3205,"ĠBy":3206,"htt":3207,"Ġbeautiful":3208,"Ġreturns":3209,"Ġglo":3210,"Ġcoll":3211,"Ġcomplet":3212,"ira":3213,"Ġsun":3214,"Ġgoal":3215,"Ġbook":3216,"Ġside":3217,"lish":3218,"nÃ©":3219,"Ġlat":3220,"QL":3221,"Con":3222,"leep":3223,"Ġhaving":3224,"Game":3225,"Ġhold":3226,"Ġartificial":3227,"Ġpolic":3228,"iod":3229,"aster":3230,"input":3231,"Ġcommitment":3232,"Ġauf":3233,"Ġhistor":3234,"Ġmis":3235,"ĠfÃ¼r":3236,"Ġintermedi":3237,"fully":3238,"Ġprocesses":3239,"Ġdam":3240,"Ġsingle":3241,"ift":3242,"Ġdiv":3243,"Button":3244,"What":3245,"RE":3246,"Ã§a":3247,"Ġcapt":3248,"How":3249,"ugh":3250,"abilities":3251,"Ġmedia":3252,"Ġdecision":3253,"ĠUnited":3254,"Ġpatient":3255,"Ġdeb":3256,"Ġmedical":3257,"ĠOr":3258,"CT":3259,"Ġthought":3260,"Ġproduce":3261,"ster":3262,"ÐµÐ·":3263,"Ġpast":3264,"hr":3265,"ler":3266,"Ġtalk":3267,"orks":3268,"ech":3269,"Ġcreated":3270,"Ġdeveloped":3271,"Ġtopics":3272,"Ġbed":3273,"Ġabove":3274,"atory":3275,"Ġsentence":3276,"ja":3277,"ently":3278,"Ð¾Ñĩ":3279,"oney":3280,"Please":3281,"mate":3282,"Ġpartner":3283,"Ġintern":3284,"ÐºÐ¸":3285,"met":3286,"ites":3287,"Ġstop":3288,"Ġgovernment":3289,"Ġtouch":3290,"ains":3291,"Ġwriting":3292,"Ġorganiz":3293,"icro":3294,"Īëĭ¤":3295,"!\"":3296,"ito":3297,"Ġcommunity":3298,"Ġequipment":3299,"ĠmÃ¡s":3300,"icuna":3301,"Ġcapac":3302,"Ġlegal":3303,"Ġethical":3304,"Ġalgorithm":3305,"ãģĻ":3306,"ĠEs":3307,"Ġregular":3308,"Ġconsult":3309,"Ġvalid":3310,"ening":3311,"Ġinclu":3312,"Ġauthor":3313,"Note":3314,"Ġcontains":3315,"Ġupdate":3316,"Ġcommitted":3317,"Ġrequires":3318,"Ġsecure":3319,"Ġmemory":3320,"iting":3321,"ĠÑįÑĤÐ¾":3322,"data":3323,"Ġmov":3324,"ailed":3325,"199":3326,"sole":3327,"ĠÏ":3328,"GPT":3329,"60":3330,"Ġdatabase":3331,"['":3332,"Ġpi":3333,"Ġrecord":3334,"áº":3335,"Re":3336,"Ġschool":3337,"ding":3338,"Ġmit":3339,"erson":3340,"string":3341,"Ġcompanies":3342,"Ġdevice":3343,"Ġinitial":3344,"_p":3345,"Ġà¤":3346,"iento":3347,"idades":3348,"ĠĠĠĠĊ":3349,"Ġdetails":3350,"value":3351,"Ġnegative":3352,"Ġviol":3353,"Ġconvert":3354,"Ġpractices":3355,"Ġstrugg":3356,"Ø©":3357,"Ġpromote":3358,"Ġremove":3359,"Ġnorm":3360,"Ġmodule":3361,"Ġindic":3362,"by":3363,"40":3364,"ador":3365,"Ġsequ":3366,"Ġhot":3367,"Ġcas":3368,"En":3369,"Ġdella":3370,"Ġpost":3371,"nter":3372,"Ġwait":3373,"Ġissue":3374,"Ġoverall":3375,"Ġpreg":3376,"imento":3377,"íķĺ":3378,"Ġreli":3379,"fer":3380,"aling":3381,"23":3382,"Ġaffect":3383,"ìĿ´":3384,"mente":3385,"Ġclar":3386,"RO":3387,"Ġgas":3388,"_f":3389,"Ð¾Ð²Ð°ÑĤÑĮ":3390,"Ġclose":3391,"ograph":3392,"gre":3393,"unction":3394,");ĊĊ":3395,"ĠHuman":3396,"Ġprior":3397,"Ġconsum":3398,"ask":3399,"ourage":3400,"ched":3401,"Ġvirt":3402,"Ġti":3403,"Ġdoing":3404,"Ġadjust":3405,"ÐµÐ±":3406,"ĠWhen":3407,"Ġwhether":3408,"ê³":3409,"Ġhumans":3410,"ived":3411,"ÐµÑĩ":3412,"-in":3413,"Ġemotions":3414,"Ġjourney":3415,"Ġnod":3416,"Ġay":3417,"åı¯ä»¥":3418,"Ġwalk":3419,"ita":3420,"à¥":3421,"Ð½ÑĭÐ¹":3422,"nen":3423,"Ġgraph":3424,"Ġinvolved":3425,"Ġtopic":3426,"ĠChina":3427,"Ġexpert":3428,"Ġbomb":3429,"epend":3430,"Ġcontinued":3431,"Ġrow":3432,"ĠðŁ":3433,"Ġgot":3434,"Com":3435,"Ġwomen":3436,"Ġclean":3437,"Ġload":3438,"++":3439,"Ġplot":3440,"Ð¿ÑĢ":3441,"ĠGoogle":3442,"Ġconversation":3443,"Ġinteract":3444,"Ġimages":3445,"ĠFr":3446,"Ġfit":3447,"ht":3448,"ĠPh":3449,"Ġadvanced":3450,"Ġcommonly":3451,"Ġincor":3452,"ĠÐŁ":3453,"ĠrÃ©":3454,"ëĭĪëĭ¤":3455,"Name":3456,"Ġoriginal":3457,"Ġinvolve":3458,"utes":3459,"class":3460,"Ġstyle":3461,"ĠCont":3462,"Pro":3463,"ivity":3464,"Ġbal":3465,"Ð°Ñİ":3466,"root":3467,"Ġflo":3468,"Ġreport":3469,"AI":3470,"80":3471,"Ġfeed":3472,"Ġdemand":3473,"Ġbackground":3474,"Ġdr":3475,"lying":3476,"`.":3477,"']":3478,"ining":3479,"Ġave":3480,"Ġassociated":3481,"othing":3482,"ano":3483,"uth":3484,"Ġresol":3485,"ÑĥÐ´":3486,"ones":3487,"zione":3488,"Ġrobot":3489,"Ġcontinu":3490,"¿½":3491,"-re":3492,"Ġste":3493,"Ġarchitect":3494,"ana":3495,"ìĿĦ":3496,"aches":3497,"ĠSystem":3498,"ĠLo":3499,"Ġscience":3500,"EN":3501,"iente":3502,"osition":3503,"ui":3504,"Ġdans":3505,"va":3506,"Ð½Ð¾Ð¹":3507,"Ġpoints":3508,"Ġobjects":3509,"22":3510,"uild":3511,"Ġwhite":3512,"Ġinmate":3513,"Ġaspect":3514,"ĠEl":3515,"Ġsustainability":3516,"Ġwhy":3517,"hetic":3518,"Ġmatch":3519,"Ð¸ÑĩÐµ":3520,"Ġhours":3521,"Ġblack":3522,"Ġcamp":3523,"PU":3524,"ï¿½":3525,"Script":3526,"Ġquickly":3527,"Ġvict":3528,"igure":3529,"ĠWorld":3530,"ÐµÑģÑĤ":3531,"Ġwindow":3532,"osp":3533,"ÐµÐ²":3534,"Ġeffects":3535,"Ġnavigate":3536,"Ġmention":3537,"zy":3538,"Ñį":3539,"Ġcomplete":3540,"Ġtimes":3541,"Ġphr":3542,"ended":3543,"Ġage":3544,"Ġespecial":3545,"Ġcam":3546,"rap":3547,"illing":3548,"plic":3549,"-to":3550,"Ġwanted":3551,"ĠâĢ":3552,"ĠÐ¿ÑĢÐ¾":3553,"Ġchatbot":3554,"ĠCol":3555,"Ġtreatment":3556,"raft":3557,"-(":3558,"Ġbar":3559,"Ġilleg":3560,"ĠApp":3561,"Ġidentity":3562,"ĠAmer":3563,"ÐºÐ°":3564,"ension":3565,"Ġdif":3566,"Ġexplain":3567,"Ġdirectory":3568,"500":3569,"Ġbecom":3570,"Ġhair":3571,"Ġweight":3572,"Ġajud":3573,"ĠMan":3574,"ades":3575,"Ġmother":3576,"Ġgain":3577,"illed":3578,"Ġprice":3579,"uto":3580,"Ġvisual":3581,"Ġbig":3582,"Ġdataset":3583,"Ġproblems":3584,"anto":3585,"irm":3586,"Ġregard":3587,"Ġput":3588,"Ġtransport":3589,"ĠÐ¿Ð¾Ð¼":3590,"Ġcourse":3591,"ĠHer":3592,"Ġquery":3593,"_c":3594,"Ġaccept":3595,"-c":3596,"Ġhigher":3597,"Ġcy":3598,"dom":3599,"Ġ--":3600,"Tr":3601,"Al":3602,"Ġtechnologies":3603,"Ġacross":3604,"Ġworth":3605,"Ġhon":3606,"chlor":3607,"Ġreview":3608,"Ġstudents":3609,"SE":3610,"Ġuseful":3611,"ields":3612,"const":3613,"Ġdecisions":3614,"Ġtransl":3615,"ÐµÐºÑĤ":3616,"Î¹":3617,"ales":3618,"Ġrisks":3619,"Ġdesired":3620,"ìĦ":3621,"bed":3622,"ĠÐ¸Ð»Ð¸":3623,"rem":3624,"Ã¢":3625,"ÅĤ":3626,"illion":3627,"Ġconnection":3628,"ached":3629,"ression":3630,"Ãªncia":3631,"ono":3632,"Ġimm":3633,"æĪ":3634,"sel":3635,"ÑĢÐ°":3636,"Ġsepar":3637,"ĠName":3638,"ĠOne":3639,"Ġperiod":3640,"ulate":3641,"Ġayud":3642,"Ġexperienced":3643,"rial":3644,"ĠAm":3645,"Ġmask":3646,"Ġinstead":3647,"Ġenem":3648,"ĠÑģÐ»":3649,"Ġcenter":3650,"ĠHT":3651,"Ð¾Ð±Ñĭ":3652,"Ġloss":3653,"(x":3654,"Ġdise":3655,"Ġchoose":3656,"Ġbenefits":3657,"Ġwatch":3658,"ĠStates":3659,"Ã©e":3660,"ÛĮ":3661,"Ġassistance":3662,"Ġimportance":3663,"Ð»Ñİ":3664,"akes":3665,"Ġpharmaceuticals":3666,"Ġâ":3667,"Ġball":3668,"Ġpuede":3669,"Ã¥":3670,"Ġexpos":3671,"Ð¸Ñİ":3672,"ĠÐļ":3673,"Ġgetting":3674,"Ġresp":3675,"Ġfunctions":3676,"Ġillegal":3677,"Ġgar":3678,"Ġargument":3679,"Ġmeas":3680,"Ġimag":3681,"Ġconsequ":3682,"Ġbeliefs":3683,"Ġoperations":3684,"cont":3685,"Ġhealthcare":3686,"Ġdeath":3687,"Ġlives":3688,"nother":3689,"33":3690,"respon":3691,"Ġreferring":3692,"iversity":3693,"ĠÐ¿Ð¾":3694,"ese":3695,"icles":3696,"Ġmatter":3697,"ype":3698,"Ġ\\*":3699,"ĠJava":3700,"Ġconstant":3701,"ÄĻ":3702,"ĠdÃ©":3703,"Ġrather":3704,"Ġconflic":3705,"bon":3706,"Ġtemperature":3707,"Ġsqu":3708,"ĠChat":3709,"Ġarticle":3710,"Ġbasic":3711,"No":3712,"Ġfulf":3713,"mbol":3714,"ole":3715,"men":3716,"ault":3717,"ĠVer":3718,"Ġkiss":3719,"Ġìŀ":3720,"Î¿":3721,"Ã²":3722,"Ġur":3723,"expected":3724,"empt":3725,"Ġdark":3726,"Ġessential":3727,"Ġdevices":3728,"ye":3729,"Ġtravel":3730,"ĠWhile":3731,"ises":3732,"Ġdescribe":3733,"Ġprogress":3734,".py":3735,"Ġsha":3736,"anvas":3737,"Ġcultural":3738,"Ġid":3739,"ias":3740,"kn":3741,"Ġsociety":3742,"Ġchildren":3743,"kay":3744,"uel":3745,"odies":3746,"Ġstor":3747,"xic":3748,"uration":3749,"21":3750,"Ð¸ÑģÑĤ":3751,"Ġseen":3752,"Ġsuit":3753,"Ġactivity":3754,"rast":3755,"Ġdifficulty":3756,"Ġmanip":3757,"lear":3758,"ĠEnglish":3759,"ury":3760,"Ġinstal":3761,"Ġtaken":3762,"Ġscene":3763,"ìļ":3764,"Ġdays":3765,"Ġmix":3766,"cion":3767,"da":3768,"round":3769,"Ġnames":3770,",NAME":3771,"Ġinnovation":3772,"ĠIl":3773,"Ġopp":3774,"ple":3775,"-w":3776,"Ġconfusion":3777,"-st":3778,"Ġalgorithms":3779,"Ġmonitor":3780,"ators":3781,"Ġabilities":3782,"Ġbound":3783,"))Ċ":3784,"Ġindex":3785,"Ġprivate":3786,"Ġreactions":3787,"Ġmanufacturing":3788,"();Ċ":3789,"selves":3790,"Ġfour":3791,"åĲ":3792,"Ġunexpected":3793,"ÑħÐ¾Ð´":3794,"ĠDefine":3795,".body":3796,"Ġculture":3797,"Ġenough":3798,"Ð½Ð¾Ð³Ð¾":3799,"Ġlaw":3800,"Ġtraditional":3801,"Ġwear":3802,"ä»¬":3803,"chan":3804,"ĠsÃ£o":3805,"Ġhor":3806,"Ġsus":3807,"Ġopin":3808,"Ġmonth":3809,"Ġpare":3810,"Ġconsistent":3811,"='":3812,"ired":3813,"Ġground":3814,"AL":3815,"Ġpractice":3816,"Ø¹":3817,"Ġvillage":3818,"Ġill":3819,"Ġadapt":3820,"Ġpreferences":3821,"Ġresist":3822,"icated":3823,"rag":3824,"ĠDis":3825,"Ġinternet":3826,"Ġich":3827,"ĠCal":3828,"ĠÐ¡":3829,"pite":3830,"Ġpun":3831,"Ð°Ð±Ð¾ÑĤ":3832,"ging":3833,"Ġcausing":3834,"Ġpromot":3835,"ĠNew":3836,"Ġcountries":3837,"Ġmoney":3838,"ria":3839,"Ġassistant":3840,"itch":3841,"istics":3842,"urt":3843,"hens":3844,"Ġeveryone":3845,"Ġforce":3846,"Ġorganization":3847,"Ġ×":3848,"Ġsho":3849,"Ġconclusion":3850,"Ġcontact":3851,"Ġitself":3852,"ĠOnce":3853,"Ġpassion":3854,"Ġaware":3855,"pret":3856,"emplo":3857,"Ġfavor":3858,"Ġproperty":3859,"oro":3860,"Ġtesting":3861,"izar":3862,"iti":3863,"Ġri":3864,")-":3865,"redient":3866,"side":3867,"La":3868,"Ġpage":3869,"arte":3870,"Îµ":3871,"fic":3872,"Ġvirtual":3873,"Ġperspect":3874,"ÑĢÐ°Ð½":3875,"28":3876,"Ġdigital":3877,"Ġcirc":3878,"ened":3879,".difficulty":3880,"Ġpel":3881,"Ġprob":3882,"Ġspeak":3883,"ĠYour":3884,"ãĤĴ":3885,"erent":3886,"Ġseu":3887,"Ġlower":3888,"ĠTrans":3889,"esso":3890,"Ġforward":3891,"She":3892,"Ġvul":3893,"Ġlatest":3894,"Ġexecut":3895,"Ġaf":3896,"mit":3897,"rig":3898,"Ð°ÑģÑĤ":3899,"order":3900,"light":3901,"Ùĥ":3902,"cip":3903,"ìł":3904,"Ġbutton":3905,"Ġprecis":3906,"Ġcos":3907,"Ġseem":3908,"bs":3909,"Ġextract":3910,"Ġconsequences":3911,"Ġlength":3912,"Ġsett":3913,"rim":3914,"Ġperfect":3915,"Ġscre":3916,"(f":3917,"oint":3918,"atively":3919,"Ġpatterns":3920,"Ġcapable":3921,"utput":3922,"Ġslow":3923,"button":3924,"Ġlevels":3925,"')Ċ":3926,"Ġmechan":3927,"Ġmanner":3928,"Ġreput":3929,"Ġhealthy":3930,"aw":3931,"encia":3932,"Ġsegu":3933,"Ġthinking":3934,"Ġobjet":3935,"Ġlayer":3936,"Ġcorre":3937,"Ùģ":3938,"Ġblo":3939,"ison":3940,"ett":3941,"Ġfight":3942,"board":3943,"========":3944,"Ġdog":3945,"However":3946,"Des":3947,"Ġsono":3948,"Ġeconomic":3949,"Ġminutes":3950,"Label":3951,"ĠBl":3952,"01":3953,"Ġsays":3954,"æľ":3955,"ĠÐºÐ¾Ð½":3956,"ynam":3957,"Ġten":3958,"gest":3959,"Ġcomfortable":3960,"45":3961,"Ġstage":3962,"Ġplanet":3963,"Ġflu":3964,"Ġplus":3965,"Ġmarketing":3966,"Ġdraw":3967,"Ġheat":3968,".js":3969,"Ġpeace":3970,"Ġreally":3971,"Ġherself":3972,"ĠÐ¿ÐµÑĢ":3973,"Ġessere":3974,"Ġtamb":3975,"sit":3976,".pack":3977,"Ġpie":3978,"Å¼":3979,"Ġscen":3980,"Ġcri":3981,"Ġking":3982,"Ġanimals":3983,"CI":3984,"over":3985,"hing":3986,"Ġappear":3987,"je":3988,"ĠÙħ":3989,"ĠVicuna":3990,"ua":3991,"Ġopportunities":3992,"Ã´":3993,"ìĬ":3994,"Ġmodelo":3995,"ĠÑħ":3996,"ouble":3997,"Your":3998,"Ġinterests":3999,"Ġmal":4000,"Ġmodern":4001,"Ġrad":4002,"ÑĢÑĥÐ³":4003,"Ġcataly":4004,"Ã©r":4005,"Ġfire":4006,"ĠÐĿ":4007,"Ġfear":4008,"ungen":4009,"Ġfrequ":4010,"ored":4011,"Ġsistema":4012,"https":4013,"Ġsubst":4014,"ĠPre":4015,"ructions":4016,"My":4017,"ĉĉ":4018,"Ġmel":4019,"Ġutilizz":4020,"Ġliving":4021,"-l":4022,"atter":4023,"å®ĥä»¬":4024,"ĠÙĪ":4025,"core":4026,"FT":4027,"opt":4028,"cret":4029,"Ġbodies":4030,"icial":4031,"Data":4032,"ĠAssistant":4033,"Ġsort":4034,"Ġmiss":4035,"Ġfront":4036,"agem":4037,"ipp":4038,"indows":4039,"Ġglobal":4040,"Ġcombination":4041,"ready":4042,"Ġarchitecture":4043,"icit":4044,"Ġdetermined":4045,"Ð°Ð¼Ð¸":4046,"Ġgames":4047,"Ġemail":4048,"De":4049,"quest":4050,"opy":4051,"digo":4052,"Ġrefers":4053,"Ġstandards":4054,"Ġsche":4055,"ych":4056,"Ġparticip":4057,"Ġdeveloping":4058,"Ġsong":4059,"Ġphot":4060,"Ġconfident":4061,"reci":4062,"Ð¸Ð´":4063,"hold":4064,"Col":4065,"Ġfix":4066,"Ð¾ÑĢÐ¼":4067,"aur":4068,"Ġcompre":4069,"----------------":4070,"ĠDevelop":4071,"He":4072,"Ġpolitical":4073,"Ġetc":4074,"[i":4075,"Ġmist":4076,"mar":4077,"itÃ©":4078,"Ġclothing":4079,"Ġmajor":4080,"inary":4081,"Ġflex":4082,"Ġcondition":4083,"ĠÐ¿ÑĢÐµÐ´":4084,"Ġboy":4085,"ters":4086,"ĠÐ¿Ð¾Ð»":4087,"Ð¸ÑĩÐµÑģÐº":4088,"Ġih":4089,"Ġsupports":4090,"Ġ=>":4091,"ialog":4092,"Ġbusinesses":4093,"Ġuns":4094,"ë¥":4095,"OR":4096,"),Ċ":4097,"Ġexpression":4098,"ë¡":4099,"ĠPol":4100,"Ġresulting":4101,"Ġproced":4102,"type":4103,"Ġbir":4104,"Ġgro":4105,"Se":4106,"imately":4107,"Ã©n":4108,"Ġhesit":4109,"Ġcomes":4110,"ET":4111,"Ġsie":4112,"newable":4113,"Ġpow":4114,"With":4115,"aje":4116,"nake":4117,"ati":4118,"ocol":4119,"vo":4120,"Ġinteg":4121,"lich":4122,"Ġadvent":4123,"Ġdiverse":4124,"Ġsustainable":4125,"ĠÐ¶":4126,"Ġlive":4127,"ording":4128,"ĠÂ¿":4129,"izz":4130,"ĠVis":4131,"Ġinterface":4132,"Ġfemale":4133,"Ġtook":4134,"26":4135,"Ġgroups":4136,"start":4137,"ĠÐ¿Ð¾Ð´":4138,"Ġcarried":4139,"Ġtrack":4140,"Ġsets":4141,"Ð¾Ð·Ð´":4142,"cent":4143,"Ġnp":4144,"Ġtax":4145,"Ġintermediate":4146,"Ġmedic":4147,"book":4148,"åħ":4149,"Ġseek":4150,"Ġguidance":4151,"Ã©t":4152,"Ġestablished":4153,"_name":4154,"ube":4155,"ÐµÑģÑĤÐ²":4156,"Ġorganizations":4157,"Ð¸ÑĤÐµ":4158,"ĠDataFrame":4159,"Ġfall":4160,"Ġutilis":4161,"Ġsleep":4162,"ĠcÃ³digo":4163,"Ġinterested":4164,"pis":4165,"Ġheav":4166,"Ġplayers":4167,"Ġcalculate":4168,"ĠThat":4169,"Ġmental":4170,"Ġinj":4171,"Ĥ¬":4172,"Ġsample":4173,"ees":4174,"ners":4175,"Ġsequence":4176,"ÑĤÐ¾Ð±Ñĭ":4177,"cking":4178,"Ġdecid":4179,"SON":4180,"rong":4181,"phas":4182,"andas":4183,"Ġexploring":4184,"nder":4185,"Ġlimited":4186,"Ġreference":4187,"Ġremain":4188,"Ġoder":4189,"Ġbuilt":4190,"change":4191,"iving":4192,"Ġthing":4193,"Ġhandling":4194,"aves":4195,"Ġdemon":4196,"elines":4197,"Ġfields":4198,"Ġalready":4199,"Ġ}ĊĊ":4200,"Ġabs":4201,"ĠComp":4202,"Ġitems":4203,"uracy":4204,"Ġsym":4205,"Ġadvant":4206,"Ġvalu":4207,"Ġattempt":4208,"ĠÑĨ":4209,"ìĹĲ":4210,"Ġgrand":4211,"Ġoccur":4212,"Ġcomponents":4213,"clude":4214,"Ġcaused":4215,"Ġlanguages":4216,"ìĿĺ":4217,"ibr":4218,"ÃŁ":4219,"ĠìĿ":4220,".canvas":4221,"Ġrelig":4222,"Äħ":4223,"yrim":4224,"Ġmes":4225,"Ġresear":4226,"ids":4227,"ĠÐºÐ¾Ð¼":4228,"!ĊĊ":4229,"Ġtim":4230,"99":4231,"Ġhouse":4232,"ä½ł":4233,"Ġling":4234,"ÑĤÐµ":4235,"plit":4236,"Ġpressure":4237,"Ġsich":4238,"Ġdamage":4239,"jo":4240,"urope":4241,"Ġmeasures":4242,"Ġclim":4243,"Ġsch":4244,"Ġlabel":4245,"Ġamb":4246,"Ġspecified":4247,"ache":4248,"Ø¨":4249,"ĠÑįÑĤ":4250,"Ġcomponent":4251,"Ġmaxim":4252,"being":4253,"Ġclients":4254,"Ġkann":4255,"ìŀ":4256,"Ġtoxic":4257,"ĠEar":4258,"gar":4259,"Ġdedicated":4260,"asts":4261,"plot":4262,"äº":4263,"ĠCheck":4264,"Ġfing":4265,"Ġdetect":4266,"Ġintrodu":4267,"Ġalong":4268,"Ġreact":4269,"like":4270,"ican":4271,"Ġequal":4272,"Ġinapp":4273,"Ġvariables":4274,"aged":4275,"ĠCons":4276,"Ġfeedback":4277,"Ġdiag":4278,"Ð°Ð³":4279,"\"ĊĊ":4280,"azioni":4281,"Ġca":4282,"ÐĴ":4283,"Ġasked":4284,"Ġstream":4285,"itement":4286,"ste":4287,"Ġstates":4288,"Ġsou":4289,"Another":4290,"cape":4291,"Ġsymbol":4292,"Ġsynthetic":4293,"ÑĥÑĢ":4294,"Ġveh":4295,"ensor":4296,"Ġreflect":4297,"Ġengaging":4298,"Ġactual":4299,"Ġresearcher":4300,"Ġheight":4301,"izer":4302,"That":4303,"By":4304,"ured":4305,"Ġdistance":4306,"Le":4307,"hest":4308,"cription":4309,"ĠQu":4310,"rix":4311,"Ġerr":4312,"raz":4313,"ĠĠĊ":4314,".h":4315,"ãģ«":4316,"omet":4317,"Ġpotentially":4318,"ĠÐ¸Ð¼":4319,"Ġparameters":4320,"Ġcatalyst":4321,"Ġasking":4322,"eral":4323,"Ġprimary":4324,"ĠGerm":4325,"Ġeducation":4326,"ê°":4327,"cias":4328,"ĠĠĠĠĠĠĠĠĠ":4329,"Ġrequests":4330,"Ġtruth":4331,"Ġparticularly":4332,"Ġiter":4333,"ĠGr":4334,"Ã¶n":4335,"Ġps":4336,"Ġsolve":4337,"Ġplaying":4338,"ãģ¾":4339,"ÑĭÐ²":4340,"Ġdeliver":4341,"Ġcases":4342,"Ġvulner":4343,"Ġbehind":4344,"Ġcard":4345,"Ġcapabilities":4346,"game":4347,"Ġsave":4348,"xy":4349,"Ġhol":4350,"oph":4351,"?\"ĊĊ":4352,"Ġdefine":4353,"Ġcontract":4354,"astic":4355,"Ġanalyze":4356,"elling":4357,"encies":4358,"Ġattacks":4359,"ĠGet":4360,"ĠJavaScript":4361,"Ġdescription":4362,"ything":4363,"Ġentire":4364,"ĠÐ±ÑĭÑĤÑĮ":4365,"Ġfine":4366,"ĠOn":4367,"Ġdim":4368,"çĶ":4369,"ĠÑģÐ²Ð¾":4370,"ĠFinally":4371,"Ġexpertise":4372,"ession":4373,"apan":4374,"Ġfeature":4375,"Ġlooked":4376,"mon":4377,"():Ċ":4378,"ãģ¯":4379,"Ã¹":4380,"Ġvisit":4381,"Ġconduct":4382,"ivos":4383,"Ġsend":4384,"Ġspecif":4385,"len":4386,"Ġstorage":4387,"Ġregion":4388,"Ġhost":4389,"Ġ</":4390,"Ġcommunicate":4391,"Ġ---":4392,"Ġappreci":4393,"Ġemphas":4394,"man":4395,"å¥":4396,"Ġcred":4397,"apon":4398,"Ġwilling":4399,"Ġhood":4400,"ĠÐ´ÑĢÑĥÐ³":4401,"init":4402,"Ġcup":4403,"igen":4404,"ising":4405,"Ġthird":4406,"essage":4407,"ological":4408,"ĠÃ¡":4409,"ĠSch":4410,"Ġspread":4411,"Ġej":4412,"Ġattract":4413,"Ġsoon":4414,"Ġpackage":4415,"ĠÄ":4416,"Ġsurround":4417,"ondon":4418,"ĠModel":4419,"ÑģÐ»Ð¸":4420,"Ġevol":4421,"Ġforma":4422,"Ġexact":4423,"Ġeffici":4424,"Ġexerc":4425,"ÐµÐµ":4426,"Ġthoughts":4427,"Ġinappropriate":4428,"sv":4429,"rict":4430,"å¤":4431,"Ð°ÑĪ":4432,"\")":4433,"Ġagre":4434,"íķľ":4435,"ĠÃº":4436,"Ġblue":4437,"Step":4438,"Ġserious":4439,"Ġstarts":4440,"pper":4441,"Ġvaluable":4442,"Ġexpect":4443,"Ġwearing":4444,"Ġsetting":4445,"ĠTrue":4446,"Ġexpected":4447,"ĠinformaciÃ³n":4448,"Ġconsole":4449,"acter":4450,"Ġcloser":4451,"Key":4452,"Ġled":4453,"fol":4454,"-time":4455,"Ġupon":4456,"Ġefficiency":4457,"Ġlonger":4458,"Ġgest":4459,"Ġcancer":4460,"Ġinterpret":4461,"ÐµÑĤÑģÑı":4462,"Ġingredient":4463,"ĠMon":4464,"'Ċ":4465,"Ġespecially":4466,"Ġeu":4467,"aving":4468,"Ġswe":4469,"Ġfoot":4470,"rar":4471,"Ġthemselves":4472,"ÐµÐ¶":4473,"var":4474,"qui":4475,"ocks":4476,"Ġupdated":4477,"-being":4478,"-the":4479,"ĠÐ´Ð°Ð½":4480,"Ð¸ÑĨ":4481,"ĠSu":4482,"cks":4483,"Ġinstructions":4484,"27":4485,"ĠMake":4486,"Ġbank":4487,"ĠSi":4488,"Î½":4489,"Ġsmile":4490,"Ġcru":4491,"When":4492,"ĠÐºÐ¾ÑĤÐ¾ÑĢÑĭÐµ":4493,"Ġgoes":4494,"Ġdur":4495,"Ġensuring":4496,"Ð²ÐµÑĤ":4497,"Ġexcited":4498,"ãĤĭ":4499,"aciones":4500,"Ġreliable":4501,"Ġenemy":4502,"Ġexperiment":4503,"Ġfar":4504,"ĠEr":4505,"pa":4506,"iling":4507,"Ġcurrently":4508,"Ġfa":4509,"Ġobser":4510,"Ġpassword":4511,"hemat":4512,"ãģ§":4513,"-h":4514,"Ġhimself":4515,"iva":4516,"Ġshape":4517,"sing":4518,"Ġparent":4519,"Ġwin":4520,"Ġeasily":4521,"Ġcollect":4522,"Ġbattle":4523,"ĠÐ»Ñİ":4524,"ÐµÑĪ":4525,"ĠEarth":4526,"Ġreason":4527,"Ġtip":4528,"Ġdetailed":4529,"Ġremo":4530,"Ġ__":4531,"Ġwhole":4532,"Ġdistribution":4533,"æĺ":4534,"RA":4535,"idden":4536,"Ġir":4537,"ĠespecÃŃ":4538,"ĠLondon":4539,"Ġpub":4540,"Ġtechnical":4541,"Ġot":4542,"Ġproperly":4543,"Ð½Ñı":4544,"cial":4545,"Ġimplementation":4546,"ĠTherefore":4547,"Ġaudience":4548,"ĠÑĩÑĤÐ¾Ð±Ñĭ":4549,"Ġdrugs":4550,"')":4551,"Add":4552,"64":4553,"].":4554,"yridine":4555,"å®ĥå®ĥå®ĥå®ĥ":4556,"Ġrules":4557,"Ġdifference":4558,"uk":4559,"ading":4560,"Ġlarger":4561,"orch":4562,"image":4563,"room":4564,"Ġreve":4565,"cious":4566,"Ġstruct":4567,"Ġstandard":4568,"Ġwritten":4569,"ĠGener":4570,"uly":4571,"ateful":4572,"oken":4573,"irit":4574,"Up":4575,"Ġfulfill":4576,"Ġphrase":4577,"Ġaccuracy":4578,"Ð½Ð¾ÑģÑĤÑĮ":4579,"Ġvot":4580,"idd":4581,"Ġdynam":4582,"ì§":4583,".w":4584,"Ġpoly":4585,"ĠJSON":4586,"Ġeffectively":4587,"fig":4588,"Ġfast":4589,"earch":4590,"Ġcock":4591,"Ġmotiv":4592,"Ġthr":4593,"Ġcum":4594,"Ġamong":4595,"iveness":4596,"Ġdress":4597,"Ġallowing":4598,"etime":4599,"Ġtrend":4600,"Ġhighest":4601,"ë¡ľ":4602,"vi":4603,"Ġdemonstr":4604,"resents":4605,"Es":4606,"urer":4607,"Ġincreasing":4608,"Once":4609,"Ġìł":4610,"amine":4611,"Ġaverage":4612,"Ġneural":4613,"Ġcateg":4614,"Int":4615,"itude":4616,"OS":4617,"Ġexcitement":4618,"right":4619,"Ġrelax":4620,"Ġbra":4621,"ĠinformaÃ§Ãµes":4622,"zz":4623,"ĠJapan":4624,"Ġfra":4625,"Ġstrategy":4626,"Ġlooks":4627,"Ġpul":4628,"ints":4629,"Ġdelle":4630,".S":4631,"\\_\\_\\_\\_":4632,"ij":4633,"Ġbrow":4634,"Ġtransfer":4635,"Ð¶Ðµ":4636,"ĠSc":4637,"Ġattribut":4638,"Ġpaper":4639,"Ġequation":4640,"Ġresearchers":4641,"Cont":4642,"ola":4643,"Ġesc":4644,"Ġ%":4645,"Ġao":4646,"Ġrepresents":4647,"cin":4648,"ying":4649,"Ġbox":4650,"ette":4651,"aria":4652,"Id":4653,"ump":4654,"ĠAnt":4655,"Ġcod":4656,"Ġonce":4657,"Ġcomprehens":4658,"emember":4659,"fr":4660,"Ġaplic":4661,"Ġeverything":4662,"asy":4663,"ots":4664,"atives":4665,"Ġusu":4666,"Ġoil":4667,"Ġbecame":4668,"ĠHTML":4669,"Ġprojects":4670,"ĠEurope":4671,"Ġdei":4672,"abil":4673,"alt":4674,"These":4675,"ĠÑģÐ¾":4676,"cn":4677,"Ġpriorit":4678,"html":4679,"Ġmembers":4680,"-of":4681,"Ġraw":4682,"Ġdiferent":4683,"Ġorg":4684,"ĠPy":4685,"Ġmulti":4686,"Ġrecent":4687,"ged":4688,"Ġefficiently":4689,"Ġtrusted":4690,"Ġclarify":4691,"Ġpesso":4692,"ÙĤ":4693,"cel":4694,"Ġbott":4695,"ĠRed":4696,"Ð½Ð¾ÑģÑĤÐ¸":4697,"Ïģ":4698,"Ð°Ñĩ":4699,"-M":4700,"Ġgrowing":4701,"Ġinvestment":4702,"ti":4703,"zen":4704,"Ġopportunity":4705,"ĠRuss":4706,"Ġbeauty":4707,"ĠWar":4708,"Ġadding":4709,"Ġnormal":4710,"Ø³":4711,"Ġexpand":4712,"Ġcomun":4713,"ĠWindows":4714,"Ð°Ñħ":4715,"Ġsensitive":4716,"Ġsmo":4717,"Ġdados":4718,"Ġbrand":4719,"Ġpodem":4720,"Ġguidelines":4721,"(n":4722,"Ġoffensive":4723,"Ġreceive":4724,"Ġgreater":4725,"Ġdispos":4726,"Ġindustrial":4727,"Ġhear":4728,"Ġsatisfaction":4729,"icious":4730,"Ġfigure":4731,"Ġdesires":4732,"Ġeste":4733,"ë¥¼":4734,"ÑĢÐ¾Ñģ":4735,"vered":4736,"ĠÑģÐ¿":4737,"Ġlegs":4738,"Ġuniverse":4739,"ball":4740,"oi":4741,"aa":4742,"Ġadvice":4743,"Ġplant":4744,"Ġprincip":4745,"cular":4746,"Ġsind":4747,"model":4748,"Ġpal":4749,"Ð°ÑĨÐ¸Ð¸":4750,"ĠPar":4751,"IT":4752,"Ġnut":4753,"ĠÃ©t":4754,"ĠMe":4755,"Ġpolitics":4756,"Ġcollabor":4757,"Ġsod":4758,"-se":4759,"Ġwer":4760,"Ġrights":4761,"Ġrepl":4762,"ceed":4763,"Ġroute":4764,"Ġcry":4765,"Ã¡l":4766,"Ġcontinues":4767,"Ð°Ð½Ð¸Ñı":4768,"Ġdiction":4769,"uer":4770,"Ġformula":4771,"ĠTest":4772,"roid":4773,"Ġconstruct":4774,"Ġcells":4775,"Ġult":4776,"ige":4777,"Ġextra":4778,"Ġsuccessful":4779,"hol":4780,"\"I":4781,"inux":4782,"ither":4783,"Ãºmer":4784,"ĠStud":4785,">ĊĊ":4786,"List":4787,"the":4788,"70":4789,"Ġpy":4790,"Ġmentioned":4791,"ĠØ¨":4792,"Ġblood":4793,"ãģĹ":4794,"Ã¨re":4795,"Ġdream":4796,"Ð¸Ð±":4797,"Ġprograms":4798,"ÏĦ":4799,"Ġneces":4800,"Ġorganic":4801,"DF":4802,"ãģĦ":4803,"Ġstrategies":4804,"unch":4805,"Äĩ":4806,"wers":4807,"Ġinvestig":4808,"year":4809,"arily":4810,"Ġmyself":4811,"Ġmouth":4812,"ĠPer":4813,"bi":4814,"ben":4815,"Ġloved":4816,"ception":4817,"ĠGod":4818,"fo":4819,"Ġobtain":4820,"aff":4821,"ĠStart":4822,"Ġspecify":4823,"Ġalt":4824,"_w":4825,"lier":4826,"Ð¾Ð²Ñĭ":4827,"Ġnear":4828,"Ġpd":4829,"ĠIndia":4830,"aced":4831,"cons":4832,"gy":4833,"Ġang":4834,"ĠLLM":4835,"AA":4836,"Ġaltern":4837,"Ð»ÑİÑĩ":4838,"ilos":4839,"minist":4840,".set":4841,"Ġrele":4842,"Ġframework":4843,"Ġregulations":4844,"ÑĤÐµÑĢ":4845,"ÐºÑĥ":4846,"Ġspeech":4847,"Ð½Ð¸":4848,"Ġparts":4849,"Ġweapon":4850,"29":4851,"irect":4852,"-B":4853,"Ġrev":4854,"Ġgreen":4855,"Ġdirectly":4856,"Ġmilit":4857,"Ġstress":4858,"((":4859,"Ġstrange":4860,"ista":4861,"xture":4862,"Ġmathemat":4863,"-S":4864,"Ġexecution":4865,"uff":4866,"Res":4867,"Ġcou":4868,"_id":4869,"Ġfeels":4870,"Ġthreat":4871,"Ġturned":4872,"tk":4873,"Ġgrateful":4874,"Ġunable":4875,"ĠTechn":4876,"Ð½Ð¸Ðº":4877,"bing":4878,"Ġwrong":4879,"Ġtried":4880,"Ġrich":4881,"pass":4882,"Ġsales":4883,"AC":4884,"Ġprotection":4885,"Ġ**":4886,"hent":4887,"Ġarm":4888,"Ġsympt":4889,"Ġtheory":4890,"anation":4891,"Ġfollows":4892,"Â°":4893,"ĠIntern":4894,"tes":4895,"Ġfocused":4896,"ĠProv":4897,"Text":4898,"path":4899,"soft":4900,"rained":4901,"ÅĽ":4902,"arge":4903,"Ġinac":4904,"indo":4905,"Ġscreen":4906,"Ġassum":4907,"Ġfully":4908,"ĠSQL":4909,"ĠBo":4910,"Ġhonest":4911,"Ġstudent":4912,"Ġleave":4913,"Ġmole":4914,"Ġann":4915,"Ġthroughout":4916,"icos":4917,"Ġposso":4918,"prise":4919,"nces":4920,"Ġmoving":4921,"¸°":4922,"Ġbooks":4923,"Ġsil":4924,"Ġwhis":4925,"ĠAc":4926,"-ter":4927,"Ġcapital":4928,"iddle":4929,"enza":4930,"-P":4931,"Ġlaws":4932,"ora":4933,"Ġleader":4934,"ĠnÃºmer":4935,"Ġdecided":4936,"Ġfalse":4937,"Ġavec":4938,"ï¿½ï¿½":4939,"ĠÐ¯":4940,"Ġsaw":4941,"Ġtecn":4942,"Ġliqu":4943,"Ġscore":4944,"iro":4945,"Ġdeploy":4946,"Ġaim":4947,"ÐŁ":4948,"Ġcross":4949,"ography":4950,"Ġmuit":4951,"Ġaudio":4952,"Ġmember":4953,"Ġreducing":4954,"ĠÐ¼Ð¾Ð³Ñĥ":4955,"ka":4956,"Ã¡rio":4957,"Ġmixture":4958,"Ġmol":4959,"ny":4960,"Ġcool":4961,"arty":4962,"Ġê°":4963,"Ġdepends":4964,"Ġitem":4965,"Ġnom":4966,"Ġpenis":4967,"Ġchanging":4968,"Ġreputation":4969,"Ar":4970,"Ġinfluence":4971,"Ġplatforms":4972,"Ġenter":4973,"Ġagent":4974,"Ġanyone":4975,"ĠFl":4976,"gi":4977,"inks":4978,"itar":4979,"ĠMed":4980,"apter":4981,"ĠNe":4982,"lete":4983,"Ġnumer":4984,"Ġexplicit":4985,"Ġcritical":4986,"Ã¶r":4987,"Ġlibraries":4988,"Ġdetermination":4989,"down":4990,"Ġpropos":4991,"Ġsuitable":4992,"Ġmodify":4993,"Ġdomin":4994,"ÐºÐ¾":4995,"Ġcut":4996,"ĠÐĶ":4997,"Ġrecommended":4998,"iliar":4999,"Ġcarefully":5000,"ĠÐł":5001,"umn":5002,"emp":5003,"Ġemerg":5004,"Ġweak":5005,"ÐµÐ¿":5006,"ĠOver":5007,"App":5008,"Ġec":5009,"Ġvar":5010,"Ġlost":5011,"inese":5012,"arg":5013,"Ġdoesn":5014,"aps":5015,"Ġgenerated":5016,"Ġdirection":5017,"formation":5018,"ql":5019,"Ġrows":5020,"Ġimplemented":5021,"Ġbalance":5022,"Ġcert":5023,"Ġempres":5024,"ieren":5025,"Ġhat":5026,"ÏĢ":5027,"-C":5028,"Ġgender":5029,"Ġshared":5030,"Īĺ":5031,"Ġtod":5032,"Ġyet":5033,"Ġearly":5034,"Ġlic":5035,"Ġhom":5036,"Ġprime":5037,"Ġfilm":5038,"Ġestablish":5039,"Ġincorrect":5040,"Ġregist":5041,"Ġcada":5042,"Ġrestaur":5043,"File":5044,"ìĭ":5045,"Ġeasier":5046,"ÑįÑį":5047,"udo":5048,"Ġcorrespon":5049,"Ġlines":5050,"èĥ":5051,"(d":5052,"Ð»ÑĮ":5053,"IM":5054,"loc":5055,"aten":5056,"ĠID":5057,"idth":5058,"ned":5059,"Ġfeet":5060,"Ġadded":5061,"_data":5062,"Ġmob":5063,"son":5064,"Ġanc":5065,"ĠAmerican":5066,"Ġcand":5067,"90":5068,"Ġpush":5069,"Ġboundaries":5070,"',Ċ":5071,"ãģ¨":5072,"Ġopinions":5073,"Ġdir":5074,"Ġalone":5075,"ĠÐ±ÑĥÐ´":5076,"px":5077,"ĠPrint":5078,"ĠInstead":5079,"rate":5080,"ĠÑģÐ¾Ð·Ð´":5081,"\".Ċ":5082,"ulf":5083,"Ġpuedo":5084,"Ġdiferentes":5085,"æĪĳ":5086,"Ġpolicies":5087,"Ġnetworks":5088,"ØŃ":5089,"åĬ":5090,"Ġsymptoms":5091,"Ġdatos":5092,"arrass":5093,"Ġmut":5094,"IC":5095,"Ġtut":5096,"include":5097,"oad":5098,"Ġcolumns":5099,"Ġlink":5100,"emb":5101,"ĠkÃ¶n":5102,",ĊĊ":5103,"Ġgarant":5104,"Ġshows":5105,"ÃŃs":5106,"Ġcame":5107,"Ġinsp":5108,"Im":5109,"undo":5110,"Ġbes":5111,"ĠTw":5112,"result":5113,"Ġpopulation":5114,"ĠTake":5115,"aro":5116,"35":5117,"engu":5118,"ãģĮ":5119,"www":5120,"sc":5121,"Ġretrie":5122,"Ġglad":5123,"Ġfinally":5124,"ĠÐľ":5125,"Ġsimply":5126,"Ġsurface":5127,"Ġdiet":5128,"Ġci":5129,"ĠÑĤÐ¾":5130,"Ġpurch":5131,"ena":5132,"Ġsav":5133,"Ġsin":5134,"Ġbrain":5135,"ervice":5136,"ptions":5137,"vere":5138,"ä¸į":5139,"ret":5140,"create":5141,"flow":5142,"Ġpair":5143,"abe":5144,"Ġinaccurate":5145,"anz":5146,"Ġstock":5147,"Ġdictionary":5148,"ĠReg":5149,"44":5150,"Ġsmaller":5151,"Ġvac":5152,"enge":5153,"Ã©d":5154,"artment":5155,"Ġdiscover":5156,"Ġai":5157,"Ġshown":5158,"Ġarr":5159,"Ġtoken":5160,"Ġembarrass":5161,"Ġnothing":5162,"ĠÃª":5163,"Ġ<<":5164,"TP":5165,"Ġwent":5166,"Ġactive":5167,"ĠEnt":5168,"Ġoutside":5169,"fe":5170,"Ġwat":5171,"alue":5172,"Ġelectron":5173,"Ġboard":5174,"Ġenh":5175,"åĪ":5176,"ES":5177,"Ġweek":5178,"Ġcompounds":5179,"Ġfont":5180,"rer":5181,"Ġwie":5182,"ils":5183,"ought":5184,"aked":5185,"ĠNone":5186,"reg":5187,"Ġwidth":5188,"ĠÐ¼Ð¾Ð³ÑĥÑĤ":5189,"Ġforms":5190,"ĠAll":5191,"Ġsecret":5192,"Ġfacilities":5193,"âĢĿ":5194,"->":5195,"Ġassess":5196,"Ġpan":5197,"-e":5198,"Ġassign":5199,"Ġdivid":5200,"AD":5201,"Ġdevelopers":5202,"ĠIN":5203,"Ġinnovative":5204,"ĠOh":5205,"icon":5206,"ciples":5207,"ĠThank":5208,"Ã©es":5209,"Ġstatus":5210,"ival":5211,"way":5212,"Ġfactually":5213,"Ġanswers":5214,"Ġals":5215,"Ġaus":5216,"Ġwal":5217,"Ġsuggestions":5218,"Ġtalking":5219,"ams":5220,"force":5221,"Ġprivacy":5222,"Ġusar":5223,"Ġlif":5224,"Ġord":5225,"Ġgenerating":5226,"Ġdifferences":5227,"ĠpiÃ¹":5228,"anÃ§":5229,"Ġtag":5230,"Ġnoting":5231,"Ġnews":5232,"Ġtown":5233,"iche":5234,"Ġindepend":5235,"Ġhar":5236,"Ġelectric":5237,"enn":5238,"nÃ©es":5239,"Ġsuggests":5240,"ĠÐ²Ñģ":5241,"Ġcomprehensive":5242,"Ġconcepts":5243,"amos":5244,"Ġhyp":5245,"Ġoperating":5246,"ificar":5247,"Ġdin":5248,"output":5249,"ama":5250,"known":5251,"Un":5252,"Ð¸Ð¼ÐµÑĢ":5253,"cles":5254,"Ġemotional":5255,"erse":5256,"Ġsuis":5257,"ĠespecÃŃf":5258,"Ġcosts":5259,"Ġchallenging":5260,"Ġokay":5261,"Ġtend":5262,"Ġdefined":5263,"Ġgenerally":5264,"ĠMay":5265,"acher":5266,"\">Ċ":5267,"Ġremote":5268,"ÑģÐ»":5269,"Ġcompletely":5270,"Ġsite":5271,"ĠìŀĪ":5272,"Ġfingers":5273,"Ġerrors":5274,"Ġtight":5275,"Ġfill":5276,"Ð¸Ð½Ð¸Ð½":5277,"Ġtree":5278,"Ġë°":5279,"Ġversat":5280,"Ġaprend":5281,"Em":5282,"_list":5283,"Î·":5284,"Ġmillion":5285,"ĠBuild":5286,"ĠÐŃ":5287,"æĺ¯":5288,"Ġletter":5289,"Ġglow":5290,"othes":5291,"Ġvida":5292,"Ġrecurs":5293,"Ġemployees":5294,".</":5295,"Ġintel":5296,"ĠÐĺ":5297,"Ġsettings":5298,"Ġprepar":5299,"Ġgrad":5300,"ĠChinese":5301,"ĠÑĪ":5302,"eries":5303,"ĠLinux":5304,"nswer":5305,"ĠÐ²Ð°Ð¼":5306,"comfort":5307,"ĠÐ¾Ð¿":5308,"],Ċ":5309,"Ġcentral":5310,"Ġdoor":5311,"Ġprioritize":5312,"Ġprod":5313,"ls":5314,"Ġwild":5315,".con":5316,"Ġparameter":5317,"-like":5318,"bit":5319,"itation":5320,"anks":5321,"ĠĠĠĠĠĠĠĠĠĠĠĠĠĠĠĠĠĠĠ":5322,"Ġdell":5323,"Ġinstalled":5324,"ĠÄĳ":5325,"icrosoft":5326,"ĠCO":5327,"ĠFe":5328,"Ġwel":5329,"Ã¡vel":5330,"fficient":5331,"Ġliquid":5332,"Ġalign":5333,"Ġvo":5334,"ĠtambÃ©m":5335,"Ð¸ÑĤÐµÐ»ÑĮ":5336,"âĸ":5337,"Ð´Ð°":5338,"Ġexcell":5339,"ops":5340,"ĠIndust":5341,"alle":5342,"Ð¾Ðµ":5343,"ensity":5344,"ÐµÐ½ÑĮ":5345,"Ġhelped":5346,"Ġfundament":5347,"Ġdead":5348,"Ġdeg":5349,"Ġlingu":5350,"code":5351,"Ġfant":5352,"Ġliter":5353,"Ġencourage":5354,"Ġgeneration":5355,"][":5356,"oh":5357,"ille":5358,"Ġdrive":5359,"enced":5360,"icks":5361,"yrid":5362,"-D":5363,"Ġrap":5364,"umb":5365,"Ġchann":5366,"Ġpossib":5367,"ĠChatGPT":5368,"idos":5369,"Ġarri":5370,").Ċ":5371,"Ġweather":5372,"Ġcarbon":5373,"Ġtitle":5374,"umber":5375,"Ġcreates":5376,"-chlor":5377,"ĠĠĠĠĠĠĠĠĠĠĠĠĠĠĠĠĠĠĠĠĠĠĠĠĠĠĠĠĠĠĠĠ":5378,"Ġcloud":5379,"Ġbreasts":5380,"nal":5381,"eks":5382,"ername":5383,"index":5384,"process":5385,"Ġchlor":5386,"ony":5387,"Ġsig":5388,"Ġbud":5389,"Qu":5390,"Ġones":5391,"ĠĠĠĠĠĠ":5392,"ĠOrgan":5393,"Ġincreased":5394,"Ġstored":5395,"Ġeye":5396,"State":5397,"Ġmount":5398,"ini":5399,"Ġleaders":5400,"ĠOb":5401,"ĠÐºÐ¾ÑĤÐ¾ÑĢÑĭÐ¹":5402,"Ġcolors":5403,"henyl":5404,"Ġnu":5405,"Ġregardless":5406,"unta":5407,"contr":5408,"ĠIh":5409,"Ġagr":5410,"Ġspend":5411,"Ġprogrammed":5412,"Ġanimal":5413,"ìĸ":5414,"Ġnicht":5415,"Ġimproving":5416,"Ġexisting":5417,"antes":5418,"Ġhy":5419,"yrimidine":5420,"eria":5421,"ãĥ¼":5422,"Ġincred":5423,"eep":5424,"rist":5425,"#include":5426,"Ġcook":5427,"ĠComm":5428,"Ġsuff":5429,"ĠRep":5430,"Ġsmart":5431,"Ġwomb":5432,"Ð½Ð°Ñĩ":5433,"Ġrelease":5434,"ìĬµ":5435,"Ġsounds":5436,"Ġlack":5437,"ded":5438,"ĠAt":5439,"Ġconstantly":5440,"ÑģÑĤÑĢ":5441,"ĠÐ·Ð°":5442,"ordin":5443,"Ġappearance":5444,"Ð½Ð¾Ðµ":5445,"eration":5446,"Ġgi":5447,"èĥ½":5448,"Ġmaximum":5449,"Ġtempo":5450,"Ġmyster":5451,"Ġarguments":5452,"asm":5453,"Finally":5454,"Ġmessages":5455,"Ġband":5456,"Ġsafely":5457,"AS":5458,"(t":5459,"ugg":5460,"Ġreality":5461,"Press":5462,"},Ċ":5463,"å®ĥåı¯ä»¥":5464,").ĊĊ":5465,"Ġprinciples":5466,"Ġlabor":5467,"Ġserve":5468,"lib":5469,"erve":5470,"Ġlater":5471,"Ġbab":5472,"Ġsuas":5473,"Ġconfiguration":5474,"ìĿĢ":5475,"Ġallowed":5476,"Ġcounter":5477,"Ġatm":5478,"ffect":5479,"Ġenable":5480,"Ġfaz":5481,"Ġfinding":5482,"Ġtexto":5483,"Ġayudarte":5484,"elle":5485,"asons":5486,"Ġpropor":5487,"rastructure":5488,"ÐµÑħ":5489,"ius":5490,"Ġmovement":5491,"Ġsquare":5492,"Ġwerden":5493,"Ġrom":5494,"Ġconnected":5495,"Ġpet":5496,".add":5497,"Ġ_":5498,"Ð¼Ð¸":5499,"Ġbur":5500,"LP":5501,"Ġinstance":5502,"ela":5503,"veis":5504,"Ġrally":5505,"pet":5506,"Ġsentiment":5507,"ĠÐ±ÑĭÐ»":5508,"Ġbecoming":5509,"Ġphilos":5510,"Ġwalked":5511,"lications":5512,"Ġapply":5513,"antic":5514,"Ġnuc":5515,"Ġarqu":5516,"herent":5517,"Ġeither":5518,"Ġarous":5519,"Ġreplace":5520,"ously":5521,"Ġinformative":5522,"CO":5523,"ĠdonnÃ©es":5524,"Ġpac":5525,"lick":5526,"rest":5527,"Ġsed":5528,"ĠCould":5529,"ĠGame":5530,"Ġoch":5531,"-term":5532,"Ġchem":5533,"å¥½":5534,"Ġlengu":5535,"Ġwaste":5536,"Ġspirit":5537,"\">":5538,"Ġmovie":5539,"ctive":5540,"Ġsolvent":5541,"ĠÃªtre":5542,"Ġtour":5543,"ĠLear":5544,"Ġreached":5545,"US":5546,"Ġdies":5547,"ona":5548,"ĠAg":5549,"ih":5550,"arios":5551,"color":5552,"tica":5553,"ĠpuÃ²":5554,"ìľ":5555,"Ġprovider":5556,"ryption":5557,"Ġmetal":5558,"Ġsurv":5559,".txt":5560,"Direction":5561,"Ġinternational":5562,"String":5563,"31":5564,"Ġvotre":5565,"inst":5566,"Ġencount":5567,"Ġrace":5568,"Ġfavorite":5569,"envol":5570,"Ġstar":5571,"Ġplayed":5572,"Ġdialog":5573,"Ġpolicy":5574,"Ð³Ð¾":5575,"\")ĊĊ":5576,"ĠAre":5577,"orial":5578,"36":5579,"ifier":5580,"ĠOutput":5581,"ĠAfter":5582,"ãģ¾ãģĻ":5583,"Ġguide":5584,"enta":5585,"Ġleast":5586,"ÑĦÐ¾ÑĢÐ¼":5587,"ltimately":5588,"Ġ},Ċ":5589,"-art":5590,"keit":5591,"Er":5592,"Ġinteractions":5593,"cha":5594,"roche":5595,"Ġminimize":5596,"Ġseems":5597,"ĠExpl":5598,"Ð°ÑİÑĤ":5599,"angle":5600,"odo":5601,"wend":5602,"Ġphone":5603,"ĠImp":5604,"Ġprotocol":5605,"Ġnovel":5606,"Ġsensation":5607,"Ġenjoying":5608,"issions":5609,"used":5610,"ĠÐ¾Ð±ÑĢ":5611,"Ġevaluate":5612,"True":5613,"\");Ċ":5614,"Ġaspects":5615,"à¸²":5616,"Ġaccording":5617,"PE":5618,"cia":5619,"carbox":5620,"Ġpartners":5621,"Ġcontainer":5622,"Ġvalor":5623,"hib":5624,"NN":5625,"Ġinsights":5626,"II":5627,"ĠBit":5628,"Ġtechnique":5629,"how":5630,"Ð¾Ñı":5631,"Ġappreciate":5632,"Ġhaz":5633,"pty":5634,"ROM":5635,"array":5636,"iar":5637,"ĠJack":5638,"Ġaccur":5639,"Ġlearned":5640,"ÑĥÐ½":5641,"icing":5642,"Thank":5643,"Ġparty":5644,".root":5645,"ĠÐ¸ÑģÐ¿Ð¾Ð»ÑĮÐ·Ð¾Ð²Ð°ÑĤÑĮ":5646,"adores":5647,"Ġsea":5648,"Ġcrypt":5649,"Ġprofessionals":5650,"Ðŀ":5651,"ĠGe":5652,"-n":5653,"Ġcover":5654,"Ġfounded":5655,"-lo":5656,"Ġengineering":5657,"Ġconflict":5658,"log":5659,"utt":5660,"etic":5661,"Ġworkers":5662,"Ġdownstream":5663,"Ġegg":5664,"Ð»Ð¸Ñĩ":5665,"Ð½Ð¾Ð²":5666,"ÐµÑĢÐ¶":5667,"Ġfilter":5668,"Ġmil":5669,"ÑĨÐ¸":5670,"Ġdefault":5671,"Ġteach":5672,"fit":5673,"osed":5674,"ÑĥÑģ":5675,"Ġjoin":5676,"Ġfib":5677,"ĠSS":5678,"ĠThen":5679,"unning":5680,"')ĊĊ":5681,"ë¦":5682,"Ġchest":5683,"Ġbright":5684,"verse":5685,"vest":5686,"time":5687,"yond":5688,"Ġtips":5689,"Ġfail":5690,"Ġvictory":5691,"Ġconce":5692,"Ġcharacteristics":5693,"Ġ@":5694,"Ġiniti":5695,"Ġautomat":5696,"Ġestim":5697,"craft":5698,"Ġactually":5699,"Ġwonder":5700,"Ð»ÐµÐ½":5701,"ocket":5702,"Ġsont":5703,"aled":5704,"ê³ł":5705,"____":5706,"Ġresponsibility":5707,".direction":5708,"Ġpueden":5709,"IA":5710,"Ġsodium":5711,"Ġsituations":5712,"odes":5713,"list":5714,"âĶ":5715,"Ġalle":5716,"ĠPor":5717,"Ġalgun":5718,"Ġmoan":5719,"ternal":5720,"Ġusually":5721,"Ġfamiliar":5722,"Ð¡":5723,"Ġtrading":5724,"bor":5725,"Ġprefer":5726,"Ġauch":5727,"Ġstrive":5728,"rat":5729,"×Ļ":5730,"Ġattra":5731,"eras":5732,"Ġmodo":5733,"ĠId":5734,"Ġhidden":5735,"Ġpandas":5736,"Ġrecognize":5737,"Ġmode":5738,"Day":5739,"Ġdiscrim":5740,"amin":5741,"Ġroutes":5742,"Ġfair":5743,"Ġahead":5744,"Ġwebsites":5745,"azon":5746,"Ġfer":5747,"Ġvel":5748,"Ġaccurately":5749,"Ġcontribute":5750,"Ġfon":5751,"ÑĢÐµÐ¼":5752,"eper":5753,"ê°Ģ":5754,"hite":5755,"_size":5756,"ĠÐ¾Ñģ":5757,"label":5758,"ĠØ§ÙĦØ":5759,"Ġjud":5760,"ìĬµëĭĪëĭ¤":5761,"Ġhal":5762,"ÑĥÐ¶":5763,"iation":5764,"Ġpromoting":5765,"Ġlenguaje":5766,"ĠHis":5767,"adem":5768,"ji":5769,"Ġdan":5770,"Ġlaugh":5771,"rench":5772,"fl":5773,"iert":5774,"ĠÃī":5775,"Ġsignal":5776,"Ġamaz":5777,"Ġfamous":5778,"LECT":5779,"arp":5780,"off":5781,"Ġdecl":5782,"ĠArt":5783,"Ġau":5784,"Ġshap":5785,"idas":5786,"Ġarms":5787,"Ġcollection":5788,"friend":5789,"erate":5790,"poses":5791,"black":5792,"ÃŃvel":5793,"Ġhardware":5794,"Ġdisco":5795,"urance":5796,"ĠAut":5797,"rochemical":5798,"Ġseemed":5799,"ĠMicrosoft":5800,"-year":5801,"Ġalc":5802,"LEFT":5803,"Ġeconomy":5804,"Ġtur":5805,"rib":5806,"MA":5807,"Ġfollowed":5808,"Ġinfrastructure":5809,"Ġefforts":5810,"Ġinstit":5811,"Ð¾Ð»ÑĮÑĪ":5812,"resh":5813,"ĠPort":5814,"Ġreceived":5815,"Ġmanaging":5816,"Ġdiagn":5817,"Ġrenewable":5818,"hel":5819,"Ġauthent":5820,"ãģŁ":5821,"function":5822,"ĠWeb":5823,"34":5824,"Ġencontr":5825,"ĠAS":5826,"iced":5827,"title":5828,"ĠEach":5829,"Ã¡rios":5830,"Ġintended":5831,"rupt":5832,"Ġutilizar":5833,"Ġtests":5834,"Ġmagic":5835,"íķ´":5836,"ĠOur":5837,"Ġepis":5838,"Ġsection":5839,"Ġbeyond":5840,"ÑĥÑī":5841,"Ġpurposes":5842,"Ġfaster":5843,"Ġproporcion":5844,"ĠÑĢÐ°Ð±Ð¾ÑĤ":5845,"nes":5846,"Ġmilitary":5847,"ĠÑĤÐ°ÐºÐ¶Ðµ":5848,"Ġdecide":5849,"Ġmejor":5850,"Ġatmosp":5851,"ellow":5852,"=tk":5853,"Ġstro":5854,"bash":5855,"IS":5856,"Ġvector":5857,"Ġrend":5858,"Ġpeut":5859,"nis":5860,"ĠText":5861,"Ġrealize":5862,"Ġmerc":5863,"Ġsubm":5864,"point":5865,"ĠPower":5866,"Ġconcent":5867,"Ġconv":5868,"Ġintense":5869,"Ġtranslation":5870,"ãģª":5871,"Ġmission":5872,"imal":5873,"ga":5874,"Ġinteresting":5875,"bes":5876,"quÃŃ":5877,"ĠBased":5878,"Inst":5879,"gal":5880,"Ġexplor":5881,"Ġvast":5882,"Ġdispon":5883,"Ġlargest":5884,"ÑĥÐ¿":5885,"ĠJe":5886,"Ġhay":5887,"Ġtecnolog":5888,"Ġmaster":5889,"ĠMin":5890,"ayer":5891,"Ġillness":5892,"usive":5893,"ãģ¦":5894,"':Ċ":5895,"-up":5896,"Ïĥ":5897,"icides":5898,"Ġreasons":5899,"Ġtom":5900,"Ð´Ð½":5901,"ĠÃ¼":5902,"Ġtrends":5903,"Ð²Ð»Ñı":5904,"Ġchallenge":5905,"ĠEle":5906,"reb":5907,"ĠlÃŃ":5908,"uy":5909,"append":5910,"Ġmatrix":5911,"Ġcomplexity":5912,"ëĵ":5913,"Ġdeal":5914,"adow":5915,"WS":5916,"Ġstanding":5917,"onna":5918,"ĠCode":5919,"ĠØª":5920,"LL":5921,"Ġremind":5922,"Ġelectr":5923,"ivil":5924,"Ġuncover":5925,"Ġimmedi":5926,"chain":5927,"blic":5928,"Ġmaintaining":5929,"Ġod":5930,"Ġdesenvol":5931,"AB":5932,"ĠIP":5933,"Ġappears":5934,"Ġtraffic":5935,"Ġconstruction":5936,"Ġanti":5937,"alls":5938,"(side":5939,"Ġpret":5940,"Ġstudies":5941,"ĠÐ¼Ð½":5942,"Ġterminal":5943,"Ġpersonality":5944,"Ġwants":5945,"Ġversatile":5946,"Ġvideos":5947,"_file":5948,"ban":5949,"Ġpassed":5950,"Ð½Ð°Ñı":5951,"ĠÐµÐ³Ð¾":5952,"Ġseeking":5953,"ì§Ģ":5954,"Ġingredients":5955,"Ġcolle":5956,"ends":5957,"Ġprepare":5958,"Remember":5959,"Ġbecomes":5960,"Ġstd":5961,"Ð¾Ð²Ð°Ð½Ð¸Ñı":5962,"Ġdisease":5963,"ief":5964,"ismo":5965,"Ġdyes":5966,"Ġtkinter":5967,"Ġveget":5968,"volution":5969,"ellen":5970,"Ġign":5971,"iÃ©n":5972,"Ġmoon":5973,"OT":5974,"Ġnode":5975,"---":5976,"Ġjog":5977,"Ġplaces":5978,"Ġcrucial":5979,"Ġcomputing":5980,"âĢĻs":5981,"ky":5982,"oo":5983,"Ġlived":5984,"à¸²à¸":5985,"Ġpsych":5986,"Ġsegment":5987,"acion":5988,"Ġoperation":5989,"rm":5990,"lig":5991,"Ġdocuments":5992,"zing":5993,"Ġseparate":5994,"vey":5995,"eline":5996,"ĠìĪĺ":5997,"Ġmoral":5998,"-g":5999,"Ġneut":6000,"Ġspecifically":6001,"Ġcorrectly":6002,"Ġadminist":6003,"xi":6004,"going":6005,"het":6006,"ni":6007,"Ġcast":6008,"ipped":6009,"An":6010,"Ġtrash":6011,"riendly":6012,"Ġunc":6013,"Ġsister":6014,"Ġsmooth":6015,"Ð¸Ð»ÑĮ":6016,"Ð¸Ð³":6017,"())Ċ":6018,"Ġplanning":6019,"Ġquantum":6020,"Ġproduced":6021,"300":6022,"iring":6023,"ĠFra":6024,"Ġpredictions":6025,"ĠCar":6026,"acci":6027,"Ġrealized":6028,"`:":6029,"ima":6030,"using":6031,"Ġsell":6032,"Ġdomain":6033,"ĠFalse":6034,"quin":6035,"Ġ+=":6036,"level":6037,"Ġincome":6038,"Ġvir":6039,"Ġsweet":6040,"Ġspecies":6041,"Ġbrother":6042,"api":6043,"words":6044,"Ġcele":6045,"ÃŃn":6046,"conds":6047,"Ġbad":6048,".LEFT":6049,"comp":6050,"Ġajudar":6051,"main":6052,"Ġnerv":6053,"Therefore":6054,"æĸ":6055,"ÑĢÐ°Ð²":6056,"().":6057,"([":6058,"Ġpou":6059,"ĠÐ²Ð°ÑĪ":6060,"osit":6061,"Ġtener":6062,"oline":6063,"75":6064,"Ã®":6065,"Ġbudget":6066,"RL":6067,"ED":6068,"Ġeffort":6069,"Ġtrade":6070,"Ġtail":6071,"Ġclasses":6072,"anch":6073,"bar":6074,"ä¹":6075,"Ġcriar":6076,"ÅŁ":6077,"ĠCS":6078,"Ġwa":6079,"Ð°Ð½Ð¸Ðµ":6080,"ponse":6081,"Ġclearly":6082,"Ġwatching":6083,"Ġwave":6084,"ĠDie":6085,"Ġdownload":6086,"hec":6087,"CH":6088,"Ġtrip":6089,"vis":6090,"rency":6091,"cciÃ³n":6092,"Ġcommands":6093,"Ġrecognition":6094,"lied":6095,"ÐµÐ³Ð¾":6096,"itter":6097,"Ġom":6098,"Ġvoid":6099,"pace":6100,"MS":6101,"Ġempty":6102,"Ġprompts":6103,"aming":6104,"Ġcontro":6105,"Ġteams":6106,"ende":6107,"Ġexperiencing":6108,"ĠÐ²Ð¾Ð·":6109,"Ġrepe":6110,"Ġpig":6111,"romo":6112,"Ġcreative":6113,"Ġog":6114,".snake":6115,"augh":6116,"Ġmobile":6117,"Ġperspective":6118,"Ġê²":6119,"current":6120,"_num":6121,"Ġexposure":6122,"Ġclust":6123,"Ġonto":6124,"Ġfru":6125,"Ġadvantage":6126,"ĠCor":6127,"Ġ[Ċ":6128,"Ġplans":6129,"ìĦľ":6130,"ungs":6131,"ĠSw":6132,"Ð¾Ð»Ð½":6133,"olo":6134,"Ġcamera":6135,"Ġheld":6136,"uen":6137,"198":6138,"Ġslight":6139,"Ġ!":6140,"Ġreag":6141,"Ġpiece":6142,".ex":6143,"ĠCent":6144,"Ġvan":6145,"llo":6146,"Ġhistorical":6147,"Ġschedu":6148,"amiento":6149,"ĠGPU":6150,"item":6151,"pip":6152,"ĠProduct":6153,"Ġexecute":6154,"Ġreading":6155,"ertainly":6156,"ĠÐķ":6157,"-friendly":6158,"Ġexemplo":6159,"Ġcours":6160,"Ġtaste":6161,"Ġcompared":6162,"Ġcareful":6163,".rand":6164,"AP":6165,"Ð¾ÑĩÑĮ":6166,"Ġmale":6167,"Ð¾Ð»ÑĮÐºÐ¾":6168,"Ġgrav":6169,"rid":6170,"util":6171,"Ġforne":6172,"Ġsnake":6173,"ÏĤ":6174,"Ġsupply":6175,"-r":6176,"uate":6177,"Ġcatch":6178,"Ġnarr":6179,"cribe":6180,"Ġclimate":6181,"ulo":6182,"Ġtab":6183,"Ð½ÑĭÐ¼Ð¸":6184,"ativo":6185,"org":6186,"Ġreleased":6187,"ope":6188,".snakeObj":6189,"ÐºÑĢ":6190,"Ġmicro":6191,"fÃ¼":6192,"GB":6193,"ìķ":6194,"Ġproces":6195,"icher":6196,"race":6197,"ĠÐ·Ð°Ð¿":6198,"ln":6199,"Ġwird":6200,"Now":6201,"Ġpip":6202,"38":6203,"ĠÂ¡":6204,"ensions":6205,"ãģĵ":6206,"rapy":6207,"Ġapproxim":6208,"Ġheard":6209,"aks":6210,"ĠnÃºmero":6211,"ĠAb":6212,"Ġalla":6213,"After":6214,"Ġinteger":6215,"Right":6216,"host":6217,"Ġancient":6218,"Ġholding":6219,"oll":6220,"Ġdivers":6221,"ĠAmazon":6222,"Ġdisso":6223,"otic":6224,"Ġmeasurements":6225,"Ġmark":6226,"Ġimproved":6227,"Ġmanufacturer":6228,"Ġunivers":6229,"ums":6230,"cio":6231,"Ġol":6232,"unk":6233,"ott":6234,"otal":6235,"ĠPerson":6236,"where":6237,"Ġfat":6238,"Ð¾Ð¼Ñĥ":6239,"Ġprocedures":6240,"aily":6241,"Ġdese":6242,"ibly":6243,"count":6244,"Ġnit":6245,"ĠDet":6246,"ĠÑıÐ²Ð»Ñı":6247,"ĠIch":6248,"ĠComo":6249,"Ã©cn":6250,"ĠBer":6251,"Ð¸Ð¼Ð¸":6252,"Ġstructures":6253,"Ġtro":6254,"æĢ":6255,"void":6256,"Time":6257,"Ġdocumentation":6258,"_path":6259,"Ġdeeper":6260,"Ġforced":6261,"Ġcommunities":6262,"Ġrac":6263,"Ġmeeting":6264,"Ġlimitations":6265,"ĠHigh":6266,"ÐºÐ»ÑİÑĩ":6267,"Ġcoming":6268,"ĠÐ´Ð¾ÑģÑĤ":6269,"Ġsolid":6270,"Ġofficial":6271,"rics":6272,"Ġdetail":6273,"itos":6274,"è¯":6275,"Ãªn":6276,"isms":6277,"Ġlips":6278,"Ġeager":6279,"ÑĤÐ¸":6280,"Ġclick":6281,"Ġcolon":6282,"Ġcareer":6283,"ĠIdent":6284,".gameFrame":6285,"Ġtransaction":6286,"Ð¾Ð»Ð¶":6287,"Ġbuy":6288,"-source":6289,"Ġadventure":6290,"Ġmir":6291,"ĠGerman":6292,"ÑĬ":6293,"Error":6294,"Ã©g":6295,"Ġscenario":6296,".log":6297,"yal":6298,"agement":6299,"ìĸ´":6300,"Ġpurs":6301,"Ġsolar":6302,"Ã§o":6303,"255":6304,"uz":6305,"sub":6306,"ĠLes":6307,"ĠIts":6308,"Ġcarry":6309,"Ġpregn":6310,"Ġenhance":6311,"ĠFrench":6312,"];Ċ":6313,"lation":6314,"iam":6315,"Ġvision":6316,"Ġhan":6317,"Ġcapture":6318,"Ġstrict":6319,"Ġpositions":6320,"osis":6321,"197":6322,"Ġbatter":6323,"Ġasks":6324,"Ġtruly":6325,"Ð¸Ð¿":6326,"Ġdynamic":6327,"Ġmodeling":6328,"Ġtipo":6329,".qu":6330,"Ġsein":6331,"Ġtall":6332,"Ġfrequency":6333,"Ġmorning":6334,"Ġstories":6335,".st":6336,"Ġkeys":6337,"Ð½ÑĥÑİ":6338,"Ġsegur":6339,"Ðļ":6340,"Ġkingdom":6341,"enda":6342,"ĠkÃ¶nnen":6343,"ov":6344,"ÑĢÐµÐ´":6345,"anÃ§a":6346,"Ġfive":6347,"ĠBattle":6348,"Ġmac":6349,"ĠPe":6350,"Ġbegins":6351,"Ġencryption":6352,"Sh":6353,"Ġalgum":6354,"å¾":6355,"Ġformation":6356,"ancing":6357,"])Ċ":6358,"ares":6359,"Ġprobability":6360,"Ġrelatively":6361,"Date":6362,"ĠNot":6363,"anguage":6364,"ĠÐŃÑĤÐ¾":6365,"enses":6366,"Ġcomment":6367,"-meth":6368,"ĠÐ¿Ð¾Ð¼Ð¾ÑĩÑĮ":6369,"Ġtempl":6370,"imiento":6371,"ĠìĿ´":6372,"mes":6373,"Ġpros":6374,"iding":6375,"onic":6376,"azine":6377,"\".ĊĊ":6378,"yles":6379,"riv":6380,"Ġtransportation":6381,"Ġcore":6382,"Ġera":6383,"Ġagricult":6384,"Ġtold":6385,"onacci":6386,"Ġvolume":6387,"Ġoutros":6388,"Ġinterf":6389,"ĠGu":6390,"Ã¤t":6391,"-F":6392,"Of":6393,"trans":6394,".C":6395,"MP":6396,"Â°C":6397,"Ġskilled":6398,"Ġadm":6399,"Type":6400,"ĠUp":6401,"Ġescape":6402,"folio":6403,"Ġmelhor":6404,"Do":6405,"Ġpict":6406,"ĠÃ©tÃ©":6407,"å¹":6408,"Ġbroad":6409,"Ġmanipulate":6410,"Ġwet":6411,"ĠSub":6412,"Ġconsent":6413,"test":6414,"lated":6415,"Ġteacher":6416,"ativity":6417,"ĠOff":6418,"osta":6419,"ifying":6420,"ĠÐ¢":6421,"Ġquite":6422,"Ġamounts":6423,"ĠtÃ©cn":6424,"Ġwood":6425,"Ġindicate":6426,"Ġreven":6427,"Ġfas":6428,"ĠJust":6429,"Ġmig":6430,"ĠReact":6431,"They":6432,"Ð·Ñĭ":6433,"Ġrule":6434,"Ġleaving":6435,"frame":6436,"Ġspent":6437,"cast":6438,"Difficulty":6439,"icy":6440,"ĠÐ¸ÑģÐ¿Ð¾Ð»ÑĮÐ·Ñĥ":6441,"Ġinstruction":6442,"Ġdeve":6443,"Ġwind":6444,"oxy":6445,"roduction":6446,"ike":6447,"erver":6448,"Il":6449,"onom":6450,"Ã¤h":6451,"Ġexcellent":6452,"Ġfather":6453,"alian":6454,"atur":6455,"oman":6456,"ĠÐ»ÑİÐ±":6457,"Pl":6458,"Ïħ":6459,"Ġdra":6460,"Ġmant":6461,"Ġincorpor":6462,"Ġatmosphere":6463,"Ġesemp":6464,"CP":6465,"Ġrecommendations":6466,"/s":6467,"Ġlate":6468,"Ġcosmet":6469,"ĠÃ¼ber":6470,"Ð¾Ð»ÐµÐµ":6471,".create":6472,"Ġsolo":6473,"Ġmeets":6474,"Ġepisode":6475,"ĠÐ·Ð°Ð´":6476,"ffee":6477,"Ġstruggling":6478,"Ġupdates":6479,"istry":6480,"Ġhurt":6481,"Ġbond":6482,"ifications":6483,"Ġrot":6484,"ĠVisit":6485,"Ø¬":6486,"osa":6487,"lies":6488,"iny":6489,"Ġracing":6490,"åŃ":6491,"Ġconfidence":6492,"Ġdrop":6493,"ĠÐ½Ð¾":6494,"Ġtreated":6495,"HP":6496,"Ġsull":6497,"Ġgiving":6498,"ocked":6499,"Ġfactor":6500,"Ġgold":6501,"Ġresource":6502,"Ġcircum":6503,"ĠMet":6504,"Ġprices":6505,"Ġcandid":6506,"=self":6507,"-methyl":6508,"update":6509,"ÑİÑĤ":6510,"Ġcop":6511,"ĠList":6512,"ĠUniversity":6513,"Ġround":6514,"Ġroles":6515,"Ġcauses":6516,"SQL":6517,"ĠInc":6518,"Despite":6519,"Ġfict":6520,"Ð¸ÐµÐ¼":6521,"Ġfundamental":6522,"Start":6523,"UT":6524,"ĠÐºÐ¾Ð¼Ð¿":6525,"Ġsports":6526,"ethical":6527,"\\n":6528,"Ġgram":6529,"Ġdescribed":6530,"atever":6531,"Ġfocusing":6532,"ĠRet":6533,"ggi":6534,"Ġoperator":6535,"ĠFrance":6536,"Ġoffice":6537,"DE":6538,"Ġdetermin":6539,"ĠNational":6540,"Ġunit":6541,"Ġmassive":6542,"Ġstrings":6543,"Ġtent":6544,"Ġwarmth":6545,"ĠâĢľ":6546,"Ġgent":6547,"Ġworked":6548,"ÑĥÐ¼":6549,"json":6550,"Ġcentury":6551,"Ġinstr":6552,"xide":6553,"__(":6554,"HT":6555,"Ġseus":6556,"Ġmap":6557,"lim":6558,"37":6559,"Ġrock":6560,"quis":6561,"Ġoverw":6562,"ÐµÑģÑģ":6563,"Ġbelong":6564,"Object":6565,"Ġscale":6566,"Ġbul":6567,"left":6568,"Ġunethical":6569,"Ġdry":6570,"ĠSystems":6571,"Ġëĭ":6572,"Ġcelebr":6573,"-A":6574,"è¦":6575,"ĠHello":6576,"Ġlogic":6577,"Ġantic":6578,"Ġbirth":6579,"Ġcontroll":6580,"ÑĭÐµ":6581,"Ġgod":6582,"Ġproud":6583,"ÐºÑĤ":6584,"×ķ":6585,"ÐĿ":6586,"rown":6587,"Ġdouble":6588,"ĠSol":6589,"Ġadvance":6590,"Ġisol":6591,"Ġfier":6592,"Ġcreation":6593,"Ġconscious":6594,".append":6595,"kan":6596,"ighter":6597,"Ġclimax":6598,"Ġcompat":6599,"ÑĮÑİ":6600,"Ġnaked":6601,"Ġmindful":6602,"Ã¬":6603,"ÐºÐµ":6604,"ibt":6605,"ĠÐ´Ð°Ð½Ð½ÑĭÑħ":6606,"ĠÑĢÐµ":6607,"%Ċ":6608,"å½":6609,"Ġbeach":6610,"Ġbaby":6611,"Ġmonitoring":6612,"isp":6613,"Ġusage":6614,"ND":6615,"Ġspecializes":6616,"Ġideal":6617,"Ġthick":6618,"oon":6619,"Ġmundo":6620,"View":6621,"uce":6622,"ÐºÑĨ":6623,"Ġflexible":6624,"Ġmathematical":6625,"SO":6626,"raid":6627,"Ġnull":6628,"Ġmysterious":6629,"On":6630,"Sub":6631,"Ġobst":6632,"Ġfreed":6633,"55":6634,"iÃ§Ã£o":6635,"Ð¾Ð¿ÑĢÐ¾Ñģ":6636,"Ġran":6637,"ê²":6638,"Î»":6639,"Ġnos":6640,"At":6641,"equ":6642,"Ġlisten":6643,"Let":6644,"ĠsÃ©":6645,"script":6646,"Ġimpress":6647,"Ġtare":6648,"Ġcompar":6649,"Ġhacer":6650,"Ġsession":6651,"Ġgirls":6652,"123":6653,"\",\"":6654,"Why":6655,"Ġcanvas":6656,"Answer":6657,"Ġocc":6658,"umin":6659,"Ġswitch":6660,"untas":6661,"Oh":6662,"ĠTV":6663,"ĠSouth":6664,"Ġpero":6665,"Ġclosely":6666,"oub":6667,"Ġrepresentation":6668,"cal":6669,"sm":6670,"Ð¢":6671,"Ġexchange":6672,"System":6673,"erge":6674,"Ġcoordin":6675,"Ġinformed":6676,"Ġmonths":6677,"with":6678,"Ġgather":6679,"Ġsomet":6680,"Ġrapid":6681,"DS":6682,"åľ":6683,"Ġgrown":6684,"Model":6685,"ĠÑĢÐ°Ð·Ð»Ð¸Ñĩ":6686,"-chloro":6687,"Ġpark":6688,"Ġcryst":6689,"ëı":6690,"ĠLim":6691,"ĠÐ¼Ñĭ":6692,"very":6693,".b":6694,"ĮĢ":6695,"Ġstability":6696,"ÑıÐ·":6697,"Ġeiner":6698,"Ġprojet":6699,"Ġexperts":6700,"NA":6701,"Ġunderlying":6702,"Ġpes":6703,"Ġroad":6704,"Ġfunctionality":6705,"Ġtone":6706,"ĠKeep":6707,"amples":6708,"otes":6709,"php":6710,"Ð³ÑĢ":6711,"ĠDep":6712,"å°":6713,"è®":6714,"Ġexplos":6715,"ĠTra":6716,"ĠMar":6717,"Ġdisg":6718,"ä½łå¥½":6719,"ĠquÃ©":6720,"Ġfloat":6721,"Ġchecks":6722,"Ġsharing":6723,"Ġstatic":6724,"Ã¤nd":6725,"Ġexplanation":6726,"ĠEu":6727,"ĠÐ½Ð°Ð¿":6728,"Ġgrat":6729,"\";Ċ":6730,"Position":6731,"UM":6732,"Ġ?Ċ":6733,"Ġslightly":6734,"ĠØ§ÙĦÙħ":6735,"Ġperg":6736,"Ð¾Ñī":6737,"Ġrub":6738,"Ġfriendly":6739,"imo":6740,"open":6741,"ION":6742,"public":6743,"Ġdaily":6744,"iet":6745,"Ġcompare":6746,"Ġhappen":6747,"Ġfoi":6748,"ctors":6749,"ĠTime":6750,"ÑĢÐ°Ð¼":6751,"ï¼Ł":6752,"ÑģÑĤÑĮ":6753,"Ġsyntax":6754,"Ġìķ":6755,"Ġjoy":6756,"Ġdecre":6757,"ERT":6758,"Ġportfolio":6759,"Ġhabil":6760,"ocation":6761,"Ġger":6762,"uts":6763,"Ġthemes":6764,"Ġgonna":6765,"Ġhelping":6766,"ĠÐ¸Ð½ÑĦÐ¾ÑĢÐ¼":6767,"Value":6768,"Ð°ÑģÑģ":6769,"Ġafraid":6770,"ĠDon":6771,"Ġresum":6772,"Ġstrengths":6773,"Ġinternal":6774,"Get":6775,"-a":6776,"ibli":6777,"Ġarticles":6778,"ugin":6779,"ĠLarge":6780,"Äĥ":6781,"Ġinputs":6782,"Is":6783,"Ġintelig":6784,"Ã¤r":6785,"ĠPDF":6786,"Ġlets":6787,"cience":6788,"ĠResearch":6789,"Ġtok":6790,"Ġchance":6791,"Ġvibr":6792,"atura":6793,"Ġagrochemical":6794,"oria":6795,"hal":6796,"ĠCity":6797,"Ġexercise":6798,"lin":6799,"Ġyang":6800,"Ġ?":6801,"Ġaument":6802,"Ġglass":6803,"ĠMus":6804,"ĠìĦ":6805,"Ġutiliza":6806,"Ġadult":6807,"ĠConsider":6808,"42":6809,"Ġeffectiveness":6810,"holders":6811,"Ent":6812,"pero":6813,"Ġtransm":6814,"Ð¼Ð¾Ð¶":6815,"Ġvez":6816,"-pro":6817,"'est":6818,"User":6819,"object":6820,"ynt":6821,".gameObj":6822,"ĠØ£":6823,"ĠQuest":6824,"ĠPres":6825,"Ġsnipp":6826,"Ġoptimize":6827,".x":6828,"Ġcomando":6829,"ĠCSS":6830,"now":6831,"-dim":6832,"ATE":6833,"des":6834,"Ġfazer":6835,"Ġcold":6836,"Ġrat":6837,"ocument":6838,"Ġban":6839,"ĠCho":6840,"Ġtien":6841,"Ġdefe":6842,"Ġeventually":6843,"iers":6844,"Ad":6845,"';Ċ":6846,"ĠfunciÃ³n":6847,"Ġviews":6848,"udes":6849,"Ġenf":6850,"Ġvehicle":6851,"agg":6852,"ÙĬØ©":6853,"plt":6854,"ĠHave":6855,"Ġhour":6856,"icken":6857,"Ġisso":6858,"Ġgru":6859,"vice":6860,"è¿":6861,"fen":6862,"Ġ->":6863,"ĠÐ¸Ñħ":6864,"Ġfirm":6865,"Ġaz":6866,"Ġtables":6867,"ĠÙĦ":6868,"ëł":6869,"isk":6870,"ĠCalcul":6871,"coin":6872,"Ġskill":6873,"Ġnotice":6874,"Ġejemplo":6875,"UR":6876,"Ġconversations":6877,"Ġfinds":6878,"Down":6879,"Ġesp":6880,"Ġpossibility":6881,"ref":6882,"Ġdepth":6883,"Ġclub":6884,"Ġgives":6885,"ĠAcc":6886,"Ġmainten":6887,"Ġmuscles":6888,"vents":6889,"ÑĥÐ»ÑĮ":6890,".Button":6891,"Ġbin":6892,"Ġoppos":6893,"(p":6894,"ĠFin":6895,"Ġexternal":6896,"ĠÐĲ":6897,"Ã¶g":6898,"ĠðŁĺ":6899,"ĠOther":6900,"Ġsubt":6901,"ê¸°":6902,"Ġclothes":6903,"ĠÐ¿ÑĢÐ¾Ð´":6904,"roy":6905,"400":6906,"Ð´Ñĥ":6907,"Element":6908,"idents":6909,"Ġveloc":6910,"stery":6911,"ÑĭÑĤ":6912,"bra":6913,"ĠPart":6914,"DA":6915,"YS":6916,"================":6917,"Ġbrowser":6918,"Ġesempio":6919,"PC":6920,"Ġnou":6921,"pared":6922,"Ġton":6923,"Ġorgasm":6924,"Ġsometimes":6925,"Ġparte":6926,"ylic":6927,"ĠPract":6928,"`.ĊĊ":6929,"âĶĢ":6930,"Ġwicht":6931,"ĠJapanese":6932,"Ġderiv":6933,"Ġexcept":6934,"Ġinfluenced":6935,"ĠÐ²Ð¾Ð¿ÑĢÐ¾Ñģ":6936,"udio":6937,"Ġseed":6938,"enu":6939,"Ð»ÐµÐ¼":6940,"Ġfish":6941,"Ġstra":6942,"lights":6943,"ĠAp":6944,"Ġlimits":6945,"PS":6946,"ĠGes":6947,"entes":6948,"SELECT":6949,"oke":6950,"Ġpersonalized":6951,"los":6952,"riz":6953,"78":6954,"ormal":6955,"Ġdestination":6956,"Ġheavy":6957,"Ġstands":6958,"ylp":6959,"Ġsubs":6960,"Ġpayment":6961,"ĠÐ¸Ð¼Ðµ":6962,"Ġampl":6963,"El":6964,"Ġben":6965,"Ġfictional":6966,"-NAME":6967,"Ġplants":6968,"Ġedge":6969,"ÑıÑĤ":6970,"Ġchain":6971,"rome":6972,"Ġfolder":6973,"Ãºn":6974,"rab":6975,"Ġconceal":6976,"-T":6977,"Ġneigh":6978,"amm":6979,"Ġscal":6980,"icide":6981,"Ġfinance":6982,"Ġachieved":6983,"your":6984,"Ġsold":6985,"ĠÑĤÑĢ":6986,"imm":6987,"[Your":6988,"Ġapproximately":6989,"Be":6990,"Ġyield":6991,"Ġtranspare":6992,"Ġdf":6993,"rive":6994,"coming":6995,"Ġcuenta":6996,"Ġhumor":6997,"Ġru":6998,"mos":6999,"å¸":7000,"From":7001,"\"You":7002,"rad":7003,"raining":7004,"39":7005,"ĠAWS":7006,"ä¸Ģ":7007,"Ġtrees":7008,"Ġnombre":7009,"ãĥ³":7010,"Ġsalt":7011,"rio":7012,"Ġtrabal":7013,"Ġfresh":7014,"ĠIT":7015,"Ġpull":7016,"Ġcreatures":7017,"Ġroar":7018,"anol":7019,"grade":7020,"ĠìĤ¬":7021,"Ġpermite":7022,"Ġincluded":7023,"Ġnuclear":7024,"Ġpound":7025,"Ġdefend":7026,"Ġexposed":7027,"Ġbon":7028,"Ð¿ÑĢÐ°Ð²":7029,"Ġgentle":7030,"Ġpurification":7031,"ÑĢÐ¾Ð²":7032,"Ġstood":7033,"Ġweeks":7034,"Ġstronger":7035,"Ð°Ð¶Ð´":7036,"och":7037,"'un":7038,"Ġknows":7039,"ĠChrist":7040,"mp":7041,"Ġperspectives":7042,"iler":7043,"Ġpermit":7044,"ĠÐĹ":7045,"Ġgli":7046,"ushed":7047,"Ġcopy":7048,"Ã¡c":7049,"Ġparties":7050,"ĠAust":7051,"under":7052,"Ġslowly":7053,"vant":7054,"rays":7055,"KeyPress":7056,"Ġnervous":7057,"omen":7058,"ably":7059,"ÐµÐ½Ð¸Ð¹":7060,"å®ĥä»¬å®ĥä»¬":7061,"VID":7062,"osc":7063,"aint":7064,"ĠKore":7065,"ĠLoad":7066,"Ġcoffee":7067,"Ġrealistic":7068,"ĠFace":7069,"ĠÐ¼ÐµÑĤ":7070,".pause":7071,"Ġmenu":7072,"Ġvent":7073,"Ġcit":7074,"Ġnel":7075,"IG":7076,"ques":7077,"Ġentr":7078,"ÑģÑĮ":7079,"Ġclassification":7080,"raints":7081,"imin":7082,"ercial":7083,"Ġspecialized":7084,"Ġincluindo":7085,"ĠTransform":7086,"Ġmovements":7087,"ĠCSV":7088,"ĠFirst":7089,"ĠOrganization":7090,"Ġoverwhel":7091,"rief":7092,"mm":7093,"....":7094,"Ġequipped":7095,"Ġcaso":7096,"Ġwhatever":7097,"ĠStay":7098,"upp":7099,"§ģ":7100,"Ġguess":7101,"LO":7102,"avas":7103,"ÐµÐ´ÐµÐ»":7104,"Ø§Øª":7105,"ĠAct":7106,"Ġalm":7107,"ÑĥÑĩÑĪ":7108,"HER":7109,"48":7110,"Ġdoctor":7111,"ìľ¼":7112,"stood":7113,"Ġsudd":7114,"Ð»Ð°":7115,"Ġtodos":7116,"ÑĭÑħ":7117,"Ġpessoas":7118,"aign":7119,"Ġfuel":7120,"Ġimmediately":7121,"Ġcivil":7122,"Ġvehicles":7123,"Ġsky":7124,"Ġinse":7125,"Ġadic":7126,"Ġcorresponding":7127,"hou":7128,"Ġsight":7129,"zza":7130,"ename":7131,"Ġanalyt":7132,"))ĊĊ":7133,"Ġempresa":7134,"EO":7135,"Ġtokens":7136,"Ġimprovement":7137,"comes":7138,"Ġsuggested":7139,"rc":7140,"xx":7141,"ĠUtil":7142,"cursor":7143,"Ġviolence":7144,"Ð¾Ð±ÑĢ":7145,"Ġbelieved":7146,"ocial":7147,"Ġcra":7148,"Ġshakes":7149,"Ġpoem":7150,"Ġmeant":7151,"Ġcalls":7152,"Ġnome":7153,"uan":7154,"Output":7155,"Ġgrid":7156,"Ð°ÐµÑĤÑģÑı":7157,"Ð¾Ð»Ð¾Ð³":7158,"Ġheir":7159,"DB":7160,"arian":7161,"Ġtransactions":7162,"Ġboys":7163,"Ġmissing":7164,"eah":7165,"Ġlie":7166,"Ġthank":7167,"has":7168,"Ġconhec":7169,"ister":7170,"Ġcoherent":7171,"ĠNetw":7172,"Ġstake":7173,"ĠÐ¿ÑĢÐ¾Ð³":7174,"Ġbeginning":7175,"atus":7176,"Ð²Ð¾Ð»":7177,"Left":7178,"heit":7179,"Ġongoing":7180,"ĠMod":7181,".read":7182,"ÑĢÐ¸Ð¼ÐµÑĢ":7183,"Ġinformazioni":7184,"æľī":7185,"Ġaiut":7186,"'Ã©":7187,"ali":7188,"Ġjed":7189,"Ġstable":7190,"ala":7191,"Ġhaben":7192,"Ġintent":7193,"avascript":7194,"ĠDate":7195,"ĠÐ¿Ð»":7196,"Ġnella":7197,"(num":7198,"quer":7199,"ĠStar":7200,"Ġihre":7201,"Ġoverview":7202,"');Ċ":7203,"Ġknowing":7204,"more":7205,"ĠUnder":7206,"ĠInter":7207,"Ġcha":7208,"ĠÐ²ÑĢÐµÐ¼":7209,"Ø´":7210,"ĠCur":7211,"ĠÐ¼Ð¾Ð¶Ð½Ð¾":7212,"(m":7213,"Ġpassing":7214,"ĠÐ²ÑĭÐ¿":7215,"Ġhel":7216,"Ġearlier":7217,"å®ĥåı¯ä»¥å®ĥåı¯ä»¥":7218,"DD":7219,".de":7220,"Ġprints":7221,"compl":7222,"gs":7223,"-level":7224,"ãĤĬ":7225,"ĠProvide":7226,"ê³¼":7227,");":7228,"Ġalternative":7229,"Ġpride":7230,"Ð¾Ð´Ð°":7231,"ĠÏĢ":7232,"=True":7233,"ĠChemicals":7234,"cipl":7235,"Ġcontents":7236,"Ġmine":7237,"emper":7238,"arroll":7239,"Ġhole":7240,"Ġrates":7241,"Ġsurge":7242,"abet":7243,"Î®":7244,"Ġletters":7245,"Ġfloor":7246,"çĶ¨":7247,"'in":7248,"Ġcourses":7249,"Ġprepared":7250,"Ġoutras":7251,"uries":7252,"Ġintrig":7253,"Ð°Ð»Ð°":7254,"Ġstim":7255,"Ġstaff":7256,"Ġparents":7257,"ef":7258,"ĠÐ¿Ð¾ÑĤ":7259,"iration":7260,"Ġencontrar":7261,"ĠÐ¾Ð½":7262,"ĠWell":7263,"Ġcourage":7264,"ÐĶ":7265,"Ġproducing":7266,"Ġax":7267,"ĠÐ£":7268,"Ġloyal":7269,"Ġquesto":7270,"Ġlean":7271,"ÑĥÑİÑī":7272,"Ġprem":7273,"ĠØ¹":7274,"Ġvie":7275,"Ġimplementing":7276,"esp":7277,"-trained":7278,"Ġfarm":7279,"Ġpuedes":7280,"ìļĶ":7281,"Ġ['":7282,"ativa":7283,"Ġsubstit":7284,"Ġclosed":7285,"Ġsudden":7286,"Ġpick":7287,"ĠpolÃŃ":7288,"event":7289,"Ġacadem":7290,"Ġhappiness":7291,"Ġpest":7292,"Ġseconds":7293,"Head":7294,"ÐµÐºÑģÑĤ":7295,"Ġcredit":7296,"Ġborn":7297,"Ġgrew":7298,"ÃŃst":7299,"Ġzero":7300,"Ġverb":7301,"rt":7302,"!Ċ":7303,"Ġlang":7304,"Ġ{'":7305,"stances":7306,"agon":7307,"150":7308,"ori":7309,"ÑģÑĤÐ²ÐµÐ½":7310,"Ġretrieve":7311,"rought":7312,"Ġconj":7313,"ĠGit":7314,"Ġproblemas":7315,"Ġnumpy":7316,"_string":7317,"example":7318,"Ġtremb":7319,"ìļ©":7320,"ĠGood":7321,"Ġpurity":7322,"-N":7323,"Ġtick":7324,"Ġcurious":7325,"Ġsand":7326,"hips":7327,"Ġrestaurant":7328,"Ġdisgust":7329,".rect":7330,"Ġremains":7331,"Ġforget":7332,".T":7333,"sten":7334,"ĠMarket":7335,"Ind":7336,"Ġuso":7337,"Ġphilosop":7338,"Ġfab":7339,"ĠChoose":7340,"'h":7341,"Ð´ÐµÐ»":7342,"Ġbibli":7343,"å®ĥå®ĥå®ĥå®ĥå®ĥå®ĥå®ĥå®ĥ":7344,"Ġbath":7345,"Ġoptimization":7346,"Ġanticip":7347,"Ġdaugh":7348,"Ġhit":7349,"Ġindicates":7350,"Ġmistake":7351,"Ð°ÑĤÑĮÑģÑı":7352,"Ġbag":7353,"Ġinsert":7354,"Ð°Ð»Ð¸Ð·":7355,"(data":7356,"Ġovercome":7357,"Ġencod":7358,"æķ":7359,"Ġfu":7360,"_st":7361,"Ġbits":7362,"Ġavailability":7363,"Ġselected":7364,"Ġpeu":7365,"ĠYork":7366,"ĠInformation":7367,"Ġdisposit":7368,"Ġdegree":7369,"Ã±o":7370,"ĠÙģ":7371,"Ġsen":7372,"åį":7373,"Ġconsidering":7374,"Ġ<=":7375,"ĠgameObj":7376,"ischen":7377,"Ġnice":7378,"Ġattribute":7379,"css":7380,"Ġshall":7381,"idity":7382,"×ķ×":7383,"ĠÐ¿ÑĢÐ°Ð²":7384,"Ġsnippet":7385,"Ġphysics":7386,"argin":7387,"ĠIsso":7388,"astics":7389,"Ġembar":7390,"Ġadvantages":7391,"Ð¸ÑģÑĤÐµÐ¼":7392,"uge":7393,"Ġhighlights":7394,"Ġcamb":7395,"êµ":7396,"Ġdisp":7397,"Ġinvent":7398,"ĠgÃ©":7399,"Ġschedule":7400,"Ġhydrogen":7401,"Ġthrust":7402,"Ġinterval":7403,"Ð¿ÑĢÐµÐ´ÐµÐ»":7404,"Ġaux":7405,"ĠBus":7406,"-date":7407,"Ġsempre":7408,"ãģĻãĤĭ":7409,"Ġlinguagem":7410,"Ġagains":7411,"Ġmiddle":7412,"Ġrestrict":7413,"ĠInternational":7414,"can":7415,"Ġexciting":7416,"Ġgoods":7417,"Ġwealth":7418,"ĠÐ²ÐºÐ»ÑİÑĩ":7419,"Ġbinary":7420,"Ġpap":7421,"ĠÐ°Ð½":7422,"Ġstruggles":7423,"Ph":7424,"[]":7425,"column":7426,"Ġchannel":7427,"ÄŁ":7428,"Ġcircumstances":7429,"Ġdistin":7430,"ÐºÐ°Ð·":7431,"Ġshopping":7432,"ĠURL":7433,"Ġmanager":7434,"Ġprofit":7435,"Ġpercent":7436,"Ġupstream":7437,"Ġnodes":7438,"Ġont":7439,"ogen":7440,"Ġhop":7441,"cale":7442,"works":7443,"49":7444,"ĠRussian":7445,"Ġdiss":7446,"xid":7447,"Ð»ÐµÐ½Ð¸Ñı":7448,"Ġconver":7449,"iste":7450,"baj":7451,"Ġhesitate":7452,"Ġdialogue":7453,"Ġmedicine":7454,"Ġvag":7455,"SI":7456,"66":7457,"CC":7458,"anging":7459,"Ġchart":7460,"ÑĢÐ°Ð¼Ð¼":7461,"Ġfig":7462,"tÃ³":7463,"Ġpassionate":7464,"Ġsaying":7465,"fall":7466,"Ġserving":7467,"196":7468,"Ġconnections":7469,"Ġgrande":7470,"hi":7471,"Ġpurchase":7472,"Ġlinear":7473,"ĠAndroid":7474,"à¤¾":7475,"ĠAlg":7476,"Ġlav":7477,"ĠHealth":7478,"ĠDisc":7479,"Ġmill":7480,"weight":7481,"DO":7482,"ĠmodÃ¨":7483,"Ġperce":7484,"ĠImplement":7485,"Ġdar":7486,"ĠLos":7487,"è¦ģ":7488,"Î¼":7489,"Ġcm":7490,"Ġlab":7491,"ĠSan":7492,"Ġwife":7493,"lication":7494,"ĠForm":7495,"ĠÑıÐ·Ñĭ":7496,"char":7497,"Ġprotein":7498,"Ġsulla":7499,"http":7500,"Ġagrochemicals":7501,"(input":7502,"Ġber":7503,"Ġgave":7504,"Ġvia":7505,"Ġchair":7506,"wise":7507,"Ġforces":7508,"Ġsulf":7509,"Ġdance":7510,"Ġcontaining":7511,"Ġeinen":7512,"Ð¾ÑĪ":7513,"Ã¡tic":7514,"ĠPresident":7515,"Additionally":7516,"Ġloro":7517,"ĠÐ¿Ð¾Ð»ÑĥÑĩ":7518,"cesso":7519,"xiety":7520,"Ġdelivery":7521,"grad":7522,"(Ċ":7523,"Ġanche":7524,"ĠConf":7525,"press":7526,"Ġencoura":7527,"ĠSun":7528,"horus":7529,"Ġteng":7530,"ĠIns":7531,"UN":7532,"Ġconcise":7533,"wa":7534,"ĠAlÃ©m":7535,"Ġbg":7536,"lands":7537,"ĠType":7538,"Ã¨s":7539,"ĠUsing":7540,"Æ°":7541,"ethod":7542,"Ð¾Ð²Ð°Ð½Ð¸Ðµ":7543,"ĠWest":7544,"ĠÐ±Ð¾Ð»ÐµÐµ":7545,"ÑĥÐ»ÑĮÑĤ":7546,"Ġgets":7547,"lines":7548,"zie":7549,"ands":7550,"Ð´Ðµ":7551,"iop":7552,"vil":7553,"ĠGreat":7554,"ells":7555,"Ġusando":7556,"Ġantes":7557,"Ð°ÑĤÐµÐ»ÑĮ":7558,"ley":7559,"urch":7560,"Ġentity":7561,"Ġmane":7562,"rec":7563,"Ġrecursos":7564,"Ġdesarroll":7565,"Ġapplied":7566,"Ġhydrochlor":7567,"enti":7568,"BC":7569,"ÑģÑĤÐ°Ð½":7570,"Ġchoices":7571,"ugar":7572,"Ġspark":7573,"idget":7574,"Ġparticles":7575,"enas":7576,"Ġmovies":7577,"ĠÑıÐ²Ð»ÑıÐµÑĤÑģÑı":7578,"Ġreduction":7579,"ustomer":7580,"Ġdefines":7581,"ĠCloud":7582,"Ġgibt":7583,"[\"":7584,"Ġpolice":7585,"ĠÃ©gal":7586,"Ġdatetime":7587,"ran":7588,"ĠÐ¾ÑĤÐ²ÐµÑĤ":7589,"Ġrevealing":7590,"Ã©l":7591,"phone":7592,"Ġdelicious":7593,"Ġgently":7594,"ository":7595,"izado":7596,"Ġbottom":7597,"Ġpatients":7598,"ĠdÃ©c":7599,"ÃŃas":7600,"ĠAtt":7601,"ĠMany":7602,"Ġtam":7603,"Ġpersona":7604,"Ġsides":7605,"olf":7606,"Ġapproaches":7607,"Ġolder":7608,"(b":7609,"Chorus":7610,"ĠPlay":7611,"Ġnoise":7612,"ĠComput":7613,"Ð¾ÑģÑĤÐ°Ð²":7614,"Ġmoved":7615,"Ġsociet":7616,"Ġcollaboration":7617,"Ġrobots":7618,"Ġuncertain":7619,"Ø§ÙĨ":7620,"ĠÐķÑģÐ»Ð¸":7621,"uego":7622,"Ġimplications":7623,".res":7624,"Ġmargin":7625,"arse":7626,"rebbe":7627,"iser":7628,"Ġkom":7629,"Ġdefinit":7630,"Ġinn":7631,"ĠNow":7632,"?\"Ċ":7633,"Ġscientists":7634,"ĠTechnology":7635,"ĠRec":7636,"Ġreligious":7637,"Ġnecessarily":7638,"ĠÑĦÑĥÐ½":7639,"Some":7640,"ĠDesign":7641,"peed":7642,"Ġdetection":7643,"Ġcapacity":7644,"Ġsummar":7645,"æĹ":7646,"Ġbow":7647,"Ġcampaign":7648,"ambda":7649,"Ġassets":7650,"etch":7651,"Ġpubl":7652,"afe":7653,"Ġstyles":7654,"ĠfunÃ§Ã£o":7655,"Ġpodr":7656,"empo":7657,"UI":7658,"Ġroll":7659,"ĠÐ¿Ð¾Ð·":7660,"ĠÐ¿Ð¾Ñģ":7661,"Ġà¦":7662,"Ġsad":7663,"Ġpowers":7664,"Ġwatched":7665,"Ġefic":7666,"Me":7667,"Ġaccompl":7668,"ĠÐºÑĢ":7669,"rip":7670,"First":7671,"rav":7672,"standing":7673,"ĠManagement":7674,"ĠApr":7675,"ĠExper":7676,"ĠÐ¿Ð¾Ð½":7677,"Ġcui":7678,"ĠUser":7679,"Ġtuo":7680,"Ġë§":7681,"HERE":7682,"Ġreaches":7683,"zer":7684,"Ġfierce":7685,"Ġoutcomes":7686,"terior":7687,"_margin":7688,"-renewable":7689,"ĠMax":7690,"Ġmagical":7691,"ĠPlan":7692,".draw":7693,"Ġcultures":7694,"std":7695,"elles":7696,"ĠcÃ³mo":7697,"ĠÃ©galement":7698,"Ġpron":7699,"Ġcompetition":7700,"ĠÙĪØ§ÙĦ":7701,"Ġfixed":7702,"ë¦¬":7703,"Ġ('":7704,"Ġcrear":7705,"Ãºs":7706,"Ġdriver":7707,"ĠÙĬ":7708,"Ġcompetitive":7709,"Ġlabels":7710,"©ëĭĪëĭ¤":7711,"Ġproduces":7712,"Ġmarkets":7713,"Ġfonction":7714,"ĠKing":7715,"ront":7716,"Ġintermediates":7717,"Ġcontrolled":7718,"Ġstroke":7719,"Ġmodified":7720,"Ġlayers":7721,"Ġobstac":7722,"Class":7723,"Ġ[\"":7724,"Ġrevenue":7725,"Ġpure":7726,"Ãªs":7727,"iforn":7728,"ester":7729,"Ġpurified":7730,"env":7731,"Ġanswering":7732,"Ġsentences":7733,"Ġexpectations":7734,"_text":7735,"Ð¼ÐµÐ½":7736,"javascript":7737,"Ġbutt":7738,"-old":7739,"Ġfinished":7740,"Flow":7741,"ØĮ":7742,"Ġeinem":7743,"-making":7744,"×Ļ×":7745,"oute":7746,"_x":7747,"Ġhappening":7748,"Ġdurante":7749,"Ġfilling":7750,"Ġresolve":7751,"ecut":7752,"ÃŃt":7753,"Ġgraphics":7754,"æĢ§":7755,"ĠTry":7756,"++)":7757,"ĠRem":7758,"Ġthor":7759,"Ġbrought":7760,"Ġentertain":7761,"Ġhtt":7762,"Ġregularly":7763,"orking":7764,"Ġconsume":7765,"ĠÐ±ÑĥÐ´ÐµÑĤ":7766,"iner":7767,"Ġprocesso":7768,"Ġtorch":7769,"à¥ĩ":7770,"ĠĠĊĊ":7771,"Ġmodules":7772,"Ġanalyzing":7773,"Ġmoves":7774,"Ass":7775,"redict":7776,"'ex":7777,"Ġtrabaj":7778,"Para":7779,"zt":7780,"urb":7781,"Ġentanto":7782,"Ġfamil":7783,"gment":7784,"run":7785,"asse":7786,"Ġmaintenance":7787,"Ġkindness":7788,"achine":7789,"Ġgard":7790,"ĠIndian":7791,"Ġwichtig":7792,"Ġcette":7793,"ĠExcel":7794,"Next":7795,"acet":7796,"ĠÑįÐº":7797,"Ġcleaning":7798,"Ġaider":7799,"Ġìĭ":7800,"-style":7801,"Ġtong":7802,"Ġvend":7803,"raf":7804,"Ġspecialty":7805,"ĠFrom":7806,"/to":7807,"ĠHouse":7808,"Ġsynthesized":7809,"Ġwalking":7810,"ï¼ģ":7811,"Ġdiscovered":7812,"_b":7813,"Ġsitting":7814,"Enter":7815,"Ġmens":7816,"Ġruns":7817,"Îº":7818,"ĠLearning":7819,"Ġlistening":7820,"netic":7821,"Ġdura":7822,"Ġwaiting":7823,"Ġtit":7824,"ÑĭÐ¹":7825,"Ġshirt":7826,"ancer":7827,"Ġlista":7828,"ĠEngine":7829,"ĠPC":7830,"ĠPara":7831,"Ġmuscle":7832,"Ġfacilit":7833,"ool":7834,"Ġaccessible":7835,"ĠÑĢÐµÑĪ":7836,"ba":7837,"ĠSin":7838,"Ġdesc":7839,"aught":7840,"Ġpadd":7841,"acional":7842,"\":Ċ":7843,"Ġcommercial":7844,"ocker":7845,"Ġdia":7846,"raÃ®":7847,"Ġrein":7848,"Ġexecuted":7849,"ĠGermany":7850,"Ġamazing":7851,":ĊĊĊ":7852,"SA":7853,"Ġpygame":7854,"Quest":7855,"ĠExt":7856,"ĠâĢĵ":7857,"à¸Ļ":7858,"Ġsubjective":7859,"ĠSim":7860,"Ġstret":7861,"ĠAng":7862,"Ġaffected":7863,"Ã³ria":7864,"Ġoffering":7865,"ifornia":7866,"Ġíķ":7867,"Ġath":7868,"ĠQual":7869,"ilter":7870,"ahr":7871,"ë©":7872,"amino":7873,"Ġpractical":7874,"Based":7875,"ĠFinal":7876,"Ġrecognized":7877,"Ġpossono":7878,"Ġsugar":7879,"HE":7880,"Ġpregunta":7881,"table":7882,"group":7883,"Ġmath":7884,"ĠIRA":7885,"Ġluck":7886,"Ġapples":7887,"osing":7888,"Ġhob":7889,"ìĿ¸":7890,"ÑģÑĤÐ²Ð°":7891,"ÑģÑĤÐ²Ð¾":7892,"ĠÐºÐ¾ÑĤÐ¾ÑĢÐ°Ñı":7893,"Ġarousal":7894,"/d":7895,"Ġdign":7896,"ĠÏĦ":7897,"Ġcogn":7898,"ĠÐ¼Ð¾Ð´":7899,"Ø§Ø³":7900,"hood":7901,"Ġvulnerable":7902,"Ġweapons":7903,"Ġbare":7904,"ĠÐ±Ð¾Ð»ÑĮÑĪ":7905,"cean":7906,"è¡":7907,"Ġmort":7908,"igg":7909,"Ġoutcome":7910,"Ġpag":7911,"Ġrise":7912,"izaÃ§Ã£o":7913,"Ġdriving":7914,"nea":7915,"Ġchanged":7916,"Ð¸ÑģÐº":7917,"Ġsurf":7918,"Ġpresident":7919,"ĠMr":7920,"Ġpregnant":7921,"ĠÑģÐ»ÐµÐ´":7922,"Ġstakeholders":7923,"agraph":7924,"ÐµÐ»Ð¸":7925,"ĠHand":7926,"amide":7927,"($":7928,"Ġcomputers":7929,"Ġembarrassed":7930,".food":7931,"creen":7932,"isis":7933,"Ġrespuest":7934,"house":7935,"Ð½Ð¾Ð¼":7936,"izza":7937,"hyde":7938,"Ð¸Ð¾Ð½":7939,"ĠCertainly":7940,"mod":7941,"\\_\\_\\_\\_\\_\\_\\_\\_":7942,"organ":7943,"Ġcompl":7944,"Ġmeaningful":7945,"Ġdrink":7946,"Ġgarantir":7947,"Ġsecondary":7948,"Not":7949,"Ġdrawn":7950,"lements":7951,"duc":7952,"Ġwash":7953,"ulations":7954,"Ġweakness":7955,"Por":7956,"Ġfitness":7957,"ĠRussia":7958,"ĠYouT":7959,"Ġanxiety":7960,"dehyde":7961,"ĠCommun":7962,"ĠDu":7963,"ÐµÑĤÑĮ":7964,"osen":7965,"Ġembed":7966,"ÐµÐ±Ñı":7967,"Ġhus":7968,"Ġsurrounding":7969,"ĠIA":7970,"sql":7971,"Ġmotion":7972,"ĠContin":7973,"unto":7974,"ĠSm":7975,"Ġya":7976,"map":7977,"Ġecho":7978,"ĠDoctor":7979,"uper":7980,"ĠNext":7981,"Ð°ÐµÐ¼":7982,"hello":7983,"ëĲ":7984,"ecause":7985,"Person":7986,"ians":7987,"ydr":7988,"oca":7989,"Ġseason":7990,"Ġextension":7991,"05":7992,"Line":7993,"-com":7994,"ĠmÃ©t":7995,"Ġfrust":7996,"Ġtells":7997,"Ġlit":7998,"Ãĥ":7999,"ishment":8000,"Ġthorough":8001,"Ġobserv":8002,"Ġrecover":8003,"-tun":8004,"local":8005,"Î¯":8006,"aca":8007,"-carbox":8008,"Ð»Ðµ":8009,"Ġphrases":8010,"Ġchicken":8011,"Ġfunctional":8012,"Ġdiseases":8013,"har":8014,"ipher":8015,"haust":8016,"Ġexcl":8017,"idin":8018,"ashion":8019,"Ġblog":8020,"Ġmanera":8021,"Ġsmiled":8022,"oco":8023,"Ġdaughter":8024,"Verse":8025,"ÑĥÐ±":8026,"Ġconsciousness":8027,"Ġlayout":8028,"Ġarquivo":8029,"Ġlands":8030,"Ġconverted":8031,"Ġplugin":8032,"ĠìĹ":8033,"Ġprocedure":8034,"writ":8035,"ĠJune":8036,"-sh":8037,"Ġjustice":8038,"Ġdrag":8039,"Or":8040,"Ġuncle":8041,"ideo":8042,"ĠLanguage":8043,"Ġcosmetics":8044,"ĠEnc":8045,"ancy":8046,"Ġincredibly":8047,"Ġeggs":8048,"iate":8049,"password":8050,"formance":8051,"éĩ":8052,"oto":8053,"éĹ":8054,"Ġindicating":8055,"gu":8056,"zed":8057,"Ġnational":8058,"liche":8059,"eter":8060,"close":8061,"Ġcontributions":8062,"itors":8063,"illa":8064,"Ġmilk":8065,"Ġalive":8066,"adr":8067,"Ġattend":8068,"çī":8069,"Ġbien":8070,"Ġstunning":8071,"Ġelectronic":8072,"Ø®":8073,"oma":8074,"iÃ¨re":8075,"Ġmatches":8076,"Ġenvironments":8077,"Ġcalculated":8078,"Event":8079,"Ġphen":8080,"rot":8081,"ëĤ":8082,"Ġforn":8083,"Ġemployee":8084,"ĠApril":8085,"Ġpieces":8086,"client":8087,"ĠProgram":8088,"ĠCalifornia":8089,".quit":8090,"search":8091,"Ġfaced":8092,"ĠÎµ":8093,"ĠÐµÑģÐ»Ð¸":8094,"Ġdesenvolv":8095,"hape":8096,"Ðĺ":8097,"Ġfreedom":8098,"Ġesta":8099,"Ġembargo":8100,"Ġsix":8101,"Ġcompress":8102,"Ġplastic":8103,"Since":8104,"iors":8105,"ĠUk":8106,"ĠDespite":8107,"CD":8108,"orrow":8109,"Ġmid":8110,"Pr":8111,"ĠÐ¾Ð´":8112,"Ġadds":8113,"Ġoutputs":8114,"ĠmÃ¡":8115,"Ġbelow":8116,"Ġratio":8117,".W":8118,"Ġpelo":8119,"Ġstrike":8120,"Ġchecking":8121,"position":8122,"Ġcaught":8123,"ĠÑģÐ¸ÑģÑĤÐµÐ¼":8124,"Ġast":8125,"Ġbem":8126,"Ġtalent":8127,"Ġspiritual":8128,"Å¾":8129,"Ġthread":8130,"pered":8131,"ĠBoth":8132,"65":8133,"Ġrob":8134,"irectory":8135,"ĠÑĥÑĩ":8136,".user":8137,"Ġcham":8138,"anges":8139,"Ġplastics":8140,"ĠSk":8141,"cohol":8142,"(S":8143,"åĽ":8144,"ching":8145,"Ġkit":8146,"Ġnoticed":8147,"Ġlen":8148,"ciones":8149,"iday":8150,"Ġpleas":8151,"Ú©":8152,"uation":8153,"assion":8154,"Ġrelacion":8155,"anish":8156,"ĠÐ¼Ð¾Ð¶ÐµÑĤÐµ":8157,"ĠSing":8158,"pons":8159,"ĠEuropean":8160,"Ġanger":8161,"oltre":8162,"Ġminimum":8163,"Ġapart":8164,"Ġconfirm":8165,"Ġtemplate":8166,"Ġpom":8167,"Ġregarding":8168,"sk":8169,"Ġtrembling":8170,"nel":8171,"nam":8172,"ĠÐ´Ð¾":8173,"otec":8174,"oper":8175,"Ġcounterp":8176,"Ð¸ÑĤÑĮÑģÑı":8177,"ĠpaÃŃs":8178,"Ġbillion":8179,"à¸Ń":8180,"Ġagreement":8181,"ervices":8182,"Ġcorpor":8183,"etry":8184,"Ġearth":8185,"Ġcomme":8186,"Ġdal":8187,"Ġconsumption":8188,"Ġexplo":8189,"hl":8190,"ĠAM":8191,"ĠCPU":8192,"Ġpee":8193,"height":8194,"ulated":8195,"Ġbrown":8196,"Ġreward":8197,"IP":8198,"emperature":8199,"Ġantib":8200,"Ġultimately":8201,"Ø§Ø±":8202,"ĠÐ»ÑİÐ´":8203,"Ġweights":8204,"ische":8205,"ibonacci":8206,"Ġidentifying":8207,"Ġromantic":8208,"ĠTensor":8209,"ĠWrite":8210,"ĠÐ²Ð¸Ð´":8211,"ĠAz":8212,"-world":8213,"alax":8214,"ĠRel":8215,"lichen":8216,"Ġorient":8217,"Ġmachines":8218,"Ġindependent":8219,"ania":8220,"Ġcrime":8221,"unge":8222,"Ġsolvents":8223,"Ġdent":8224,".re":8225,"_n":8226,"Ġhalf":8227,"Ġestimate":8228,"utter":8229,"Ġpant":8230,"Ġreliability":8231,"Ġsignificantly":8232,"Ġcheese":8233,"Ġfunds":8234,"Ġcart":8235,"Ġcharm":8236,"Ġfuncion":8237,"ĠÐ¸Ð½ÑĤÐµÑĢ":8238,"ĠÐ´Ð¾Ð»Ð¶":8239,"Ġacademic":8240,"Ġclassic":8241,"Ġmentions":8242,"Inter":8243,"Ġescol":8244,"ĠWork":8245,"ãģĤ":8246,"ĠÐ·Ð°Ð²":8247,"Ġsab":8248,"check":8249,"Ġpeuvent":8250,"Form":8251,"Ġinner":8252,"ocÃª":8253,"fin":8254,"white":8255,"Dear":8256,"ĠInvest":8257,"icians":8258,"Ġcompli":8259,"Hey":8260,"Ġcovered":8261,"nic":8262,"ĊĠĠĠĠĊ":8263,"isation":8264,"Ġremaining":8265,"vez":8266,"img":8267,"ĠajudÃ¡":8268,"ibles":8269,"Ð²Ð¾Ð´":8270,"Ġcontrovers":8271,"Ġsoil":8272,"Ġcomments":8273,"ypes":8274,"Ġvit":8275,"Ġjoke":8276,"Ã³w":8277,"Ġestar":8278,"band":8279,"alla":8280,"-yl":8281,"Ġnas":8282,"uls":8283,"Ð¸Ð¶":8284,"Ġplays":8285,"ĠÐ·Ð½Ð°Ñĩ":8286,"Ġsending":8287,"Ġtherapy":8288,"ÑĥÐ²":8289,"-th":8290,"ë³":8291,"ĠestÃ£o":8292,"agers":8293,"ĠOpenAI":8294,"Ġrig":8295,"udd":8296,"ientes":8297,"800":8298,"Ġworry":8299,"ĠPost":8300,"ĠÑĤÐµÑħ":8301,"alysis":8302,"Ġcrow":8303,"iza":8304,"ĠInstruction":8305,".update":8306,"Ã³g":8307,"Ġfascin":8308,"ĠtambiÃ©n":8309,"Ġcreature":8310,"ĠÑĥÐ²":8311,"Ultimately":8312,"Ġhappened":8313,"Ġswim":8314,"Ġselection":8315,"Ġnotes":8316,"Ġgrab":8317,"Ġfacility":8318,"Ġnumerous":8319,"rut":8320,"ĠCalculate":8321,"Ġstars":8322,"Cre":8323,"acing":8324,"à¹Ī":8325,"pes":8326,"active":8327,"'app":8328,"Ġsel":8329,"Ġhotel":8330,"Ð°Ð¹ÑĤÐµ":8331,"Ġsevere":8332,"Ġsignifica":8333,"Ġhighlight":8334,"Ġbenefit":8335,"chaft":8336,"axis":8337,"utos":8338,"âĸĮ":8339,"ĠÐ¿ÑĢÐ¾Ð³ÑĢÐ°Ð¼Ð¼":8340,"Ġproceed":8341,"anda":8342,"SYS":8343,"!\"Ċ":8344,"ilitÃł":8345,"åı¯èĥ½":8346,"ĠPark":8347,"Ġsurprise":8348,"Ġkil":8349,"Ġcalling":8350,"Ġthro":8351,"Ġpackages":8352,"Ġtrav":8353,"Ġexpensive":8354,"Ã±a":8355,"ãĤĮ":8356,"Ġcrop":8357,"ìľ¼ë¡ľ":8358,"Reg":8359,"Ġrect":8360,"Ġdeveloper":8361,"All":8362,"Ġcreativity":8363,"Ġcompleted":8364,"Ġbreathing":8365,"Ġresistance":8366,"ĠPractice":8367,"Ġevaluation":8368,"Ġunits":8369,"Ġsole":8370,"Ġexactly":8371,"Ġllam":8372,"Ġqueries":8373,"Ġadvert":8374,"Ġmedium":8375,"Ãºblic":8376,"_button":8377,"ĠAmerica":8378,"Ġhero":8379,"Ġproblema":8380,"-de":8381,"Ġcustomized":8382,"Ġwir":8383,"Ġreb":8384,"Ġdiscomfort":8385,"ĠMat":8386,"Ġeen":8387,"Ġcovers":8388,"Ġreturned":8389,"Ġalgo":8390,"Ð»ÐµÐºÑĤ":8391,"Ġresolution":8392,"ĠLook":8393,"Ġ:ĊĊ":8394,"Ġquando":8395,"Ø§Ùħ":8396,"Ġobjectives":8397,"ä¸º":8398,"Ġdependencies":8399,"ĠAnaly":8400,"Ġintegration":8401,"ĠYouTube":8402,"uses":8403,"Ġraise":8404,"02":8405,"response":8406,"Ġpants":8407,"Ġrealizar":8408,"Ġdeeply":8409,":\\":8410,"ãģĵãģ¨":8411,"ync":8412,"Ġsimpl":8413,"Ġexploration":8414,"ĠJew":8415,"Ġfate":8416,"Ġinvesting":8417,"Ġconoc":8418,"Ġleadership":8419,"Ġnipp":8420,"CE":8421,"Ġloaded":8422,"aggio":8423,"ederal":8424,"Ġwelcome":8425,"insert":8426,"Ð°Ð»Ð¸":8427,"Ġleads":8428,"ĠÐºÐ¾Ð½ÑĤ":8429,".j":8430,"Ġencounter":8431,"Ġdescribes":8432,"estyle":8433,"Ġnearby":8434,"Ġdro":8435,"rompt":8436,"ĠDescribe":8437,"icted":8438,"Ġrepresented":8439,"ìĬ¤":8440,"ĠÏĥ":8441,"Ġremoved":8442,"Ġattractive":8443,"Ġvert":8444,"Ġtheme":8445,"ĠCompany":8446,"ĠmÃ©d":8447,"Ġadopt":8448,"Ġjest":8449,"Ġharder":8450,"beit":8451,"Ġconvey":8452,"ðŁĺ":8453,"Ġhyper":8454,"gl":8455,"-related":8456,"ĠprÃ³":8457,"ĠImpro":8458,"Ġmotor":8459,"oun":8460,"Ġrecom":8461,"Ġcities":8462,"oir":8463,"Ġtele":8464,"Ġverwend":8465,"à§":8466,"ĠÑģÐµÑĢ":8467,"Read":8468,"eta":8469,"Ġdistrict":8470,"ĠInstall":8471,"Ġpin":8472,"stit":8473,"ÐµÑģÐ¿":8474,"Ġautomatically":8475,":\",":8476,"Ġcritic":8477,"ĠLimited":8478,"Ġcv":8479,"hern":8480,"ĠprÃ©":8481,"Ġsorted":8482,"ĠÃ¤":8483,"Ġimpur":8484,"ĠTwo":8485,"},":8486,"Ġsatisfied":8487,"Ãªncias":8488,"ĠVul":8489,"íķĺëĬĶ":8490,"IV":8491,"Ġspot":8492,"Ġspaces":8493,"Ġcriteria":8494,"Ġinstrument":8495,"ĠÐ¾Ð¿ÑĢÐµÐ´ÐµÐ»":8496,"Ġdiscrimination":8497,"Ġregions":8498,"Ġcharges":8499,"ĠÐ²Ð¾Ð·Ð¼Ð¾Ð¶":8500,"FF":8501,"Ġsis":8502,"ĠII":8503,"Ġprecisa":8504,"vous":8505,"Ġhips":8506,"pack":8507,"Ġseven":8508,"Ġmetrics":8509,"Ġrepresenting":8510,"'aut":8511,"ĠìŀĪìĬµëĭĪëĭ¤":8512,"æī":8513,"ĠProcess":8514,"gt":8515,"luor":8516,"ĠÐ±ÐµÐ·":8517,"ether":8518,"Ġcomprend":8519,"ĠBi":8520,"Ð¾ÑģÑĤÐ¸":8521,"ĠGroup":8522,"ements":8523,"ëıĦ":8524,"Ġshowc":8525,"apital":8526,"Ġdivis":8527,"ÑħÐ¾Ð´Ð¸Ð¼":8528,"isplay":8529,"Ġexistence":8530,"Ð°ÑĨÐ¸Ñı":8531,"Ġdignity":8532,"Ġforever":8533,"Ġconfigura":8534,"ĠEmp":8535,"LMSYS":8536,"Man":8537,"TO":8538,"Ġflavor":8539,"Ġblockchain":8540,"Path":8541,"egr":8542,"Ġpeaceful":8543,"-cons":8544,"43":8545,"ĠÑĥÐ´":8546,"{\"":8547,"Ġobjetivo":8548,"();ĊĊ":8549,"Ġperformed":8550,"Ġagents":8551,"Hi":8552,"vt":8553,"ĠImage":8554,"Ġpoder":8555,"ĠApple":8556,"Ġintegers":8557,"Ġtongue":8558,"ĠÐ¾Ð±Ñī":8559,"Ġchloride":8560,"Ġblow":8561,"Ġrelative":8562,"Input":8563,"Ġutilizando":8564,"ĠMuse":8565,"Ġseguir":8566,"Trans":8567,"Ġintensity":8568,"'ai":8569,"agram":8570,"ĠÑģÐ¼":8571,"Ġcerc":8572,"Ġstraight":8573,"ĠNLP":8574,"Ġtiene":8575,"ĠSocial":8576,"ponent":8577,"cios":8578,"uing":8579,"ĠSte":8580,"ĠMi":8581,"ä¹Ī":8582,"ĠMain":8583,"Ġcreare":8584,"Ġcharge":8585,"ternatively":8586,"ĠÐĳ":8587,"forcement":8588,"Ġeating":8589,"/Ċ":8590,"120":8591,"-bromo":8592,"Ġcontrast":8593,"Ġsites":8594,"Ġrevised":8595,"pload":8596,"Ġvaried":8597,"Ã¶ch":8598,"ĠVisual":8599,"ĠmodÃ¨le":8600,"ĠÐµÑģÑĤÑĮ":8601,"Ġspeaker":8602,"Ġrespectively":8603,"Ġtension":8604,"Ġtoler":8605,"ĠRead":8606,"Ġhydroxide":8607,"plotlib":8608,"query":8609,"Ġdemonstrates":8610,"Ġsplit":8611,"ĠÐ¾Ð±ÑĬ":8612,"Ġtus":8613,"ernel":8614,"Ġsearching":8615,"Ġpages":8616,"ÑĶ":8617,"New":8618,"owered":8619,"Ġroleplay":8620,"Ġholds":8621,"Log":8622,"iano":8623,"\\\"":8624,"Ġparagraph":8625,"ionar":8626,"ĠRE":8627,"ĠFind":8628,"cipe":8629,"icios":8630,"Ġash":8631,"Ġicon":8632,"Ġcounterparty":8633,"istent":8634,"Ġshowing":8635,"comfortable":8636,"Ã¡tica":8637,"Ġfacing":8638,"Ġdiversity":8639,"Ġbehaviors":8640,"ffective":8641,"bin":8642,"Ã§os":8643,"Ùī":8644,"PA":8645,"ĠÐ¿ÑĢÐ¸Ð²":8646,"Ġpropri":8647,"Ġatual":8648,"Ġchrom":8649,"igkeit":8650,"Go":8651,"ĠEnter":8652,"Ġstato":8653,"Ġembrace":8654,"ĠUs":8655,"Ġdurch":8656,"Ġfel":8657,"ensation":8658,"Ġheavily":8659,"ategory":8660,"Ã³s":8661,"ÑĥÐµÑĤ":8662,"ĠScience":8663,"Ġë³":8664,"Ġfocuses":8665,"ĠÑģÑĤÑĢ":8666,"Ð¸Ð½Ð¸Ð½Ð¸Ð½Ð¸Ð½":8667,"ocur":8668,"ĠHTTP":8669,"pring":8670,"TE":8671,"izations":8672,"Ġmedication":8673,"Ġterror":8674,"Ġotros":8675,"Color":8676,"ï¼ļ":8677,"Ġpens":8678,"Ġbis":8679,"Ġses":8680,"ĠBel":8681,"ataform":8682,"-on":8683,"Ġyours":8684,"pus":8685,"pers":8686,"Ġassert":8687,"Ġchatbots":8688,"ĠAustral":8689,"Ġìľ":8690,"Ġsurpr":8691,"Ġprincipal":8692,"Ġanticipation":8693,"Ð¾Ð³Ð´Ð°":8694,"Ġsusp":8695,"47":8696,"ðŁĴ":8697,"Ġsedu":8698,"ĠÐ´Ð²":8699,"\\x":8700,"Ġtodo":8701,"Ġutilizzare":8702,"benz":8703,"olving":8704,"ãĤ¹":8705,"Ġplaced":8706,"Ġpeux":8707,"Ġfal":8708,"Ġlists":8709,"Ġsupported":8710,"ĠShow":8711,"Ġdear":8712,"Ġserved":8713,"ìłģ":8714,"Ġliterature":8715,"ĠPot":8716,"ä¼":8717,"Ġreports":8718,"Ġtrat":8719,"ĠFre":8720,"ĠÃ¡re":8721,"Ġpersonas":8722,"Ġtun":8723,"Ġbacter":8724,"ĠEin":8725,"ĠNon":8726,"ords":8727,"icking":8728,"ìĹĲìĦľ":8729,"Ġmedications":8730,"ĠPHP":8731,"Ġneutral":8732,">>":8733,"Ġmax":8734,"pm":8735,"Ġhumanity":8736,"error":8737,"ĠÐ¾Ð±ÑĢÐ°Ð·":8738,"ĠEnd":8739,"Ġtiempo":8740,"Ġeditor":8741,"_y":8742,"Ġrough":8743,"Ġenjoyed":8744,"Ġrain":8745,"learn":8746,"ĠSpec":8747,"ĠEner":8748,"Ġbei":8749,"Ġunderw":8750,"Hola":8751,"zi":8752,"icar":8753,"Ġuncomfortable":8754,"ĠGree":8755,"Ġhabit":8756,"Ġhazard":8757,"sequ":8758,"Ġwis":8759,"Ġroutine":8760,"(i":8761,"Ġdataframe":8762,"Ġextrem":8763,"ÑĸÐ´":8764,"Ġhi":8765,"ague":8766,"\\*":8767,"gent":8768,"ĠÐ¿ÑĢÐ¸":8769,"Ġrespir":8770,"PO":8771,"194":8772,"ĠÑĤÐ¾Ð³Ð¾":8773,"/NAME":8774,"este":8775,".n":8776,"Ġtempor":8777,"Ġimpurities":8778,"(c":8779,"46":8780,"Ġpuss":8781,"wort":8782,"Ġmer":8783,"Ġbrief":8784,"Ġballs":8785,"Chat":8786,"Ġleaves":8787,"atin":8788,"ĠTheir":8789,"Ġverd":8790,"real":8791,"Ġtherap":8792,"Ġperforming":8793,"Ġkon":8794,"Change":8795,"username":8796,"\").":8797,"Ġrecon":8798,"Ð°ÑĨÐ¸Ñİ":8799,"à¸ģ":8800,"XX":8801,"Ġconven":8802,"Ġkm":8803,"Ġmuito":8804,"ĠTensorFlow":8805,"while":8806,"Ġsurrounded":8807,"unc":8808,"Ġirrit":8809,")`":8810,"ĠÑĦÑĥÐ½ÐºÑĨ":8811,"Ġengineers":8812,"ÑĹ":8813,"Ġcharacterized":8814,"Ġoutline":8815,"Ġprison":8816,"Ġautonom":8817,"Ġ\\Ċ":8818,"uj":8819,"ÑĤÐ°":8820,"ĠAug":8821,"ĠState":8822,"ĠSur":8823,"cules":8824,".org":8825,"culo":8826,"ÐºÐ¾Ð²":8827,"Ġmiles":8828,"Ġdefinitely":8829,"agen":8830,"Ġconten":8831,"Ġship":8832,"Ġhai":8833,"Ġcluster":8834,"iophen":8835,"ÃŃveis":8836,"Ġgenerates":8837,"Ġemphasizes":8838,"Image":8839,"ãģĭ":8840,"Ġcombined":8841,"Ġnar":8842,"okes":8843,"Ġflag":8844,"Client":8845,"ï¿½ï¿½ï¿½ï¿½":8846,"Ġrepository":8847,"Ġì§":8848,"Ġsuccessfully":8849,"à¹ī":8850,"Ġexhaust":8851,"Ġneck":8852,"Ð¾Ð±ÑħÐ¾Ð´Ð¸Ð¼":8853,"Ġinteress":8854,"éĢ":8855,"Ġmistakes":8856,"Ġvolt":8857,"03":8858,"Ġapenas":8859,"Ġelimin":8860,"Î¸":8861,"Ġrent":8862,"ĠOut":8863,"ilo":8864,"ptember":8865,"áº¡":8866,"bru":8867,"Ġtheore":8868,"Ġorigin":8869,"anted":8870,"_to":8871,"ĠBrit":8872,"While":8873,"Ġplataform":8874,"Ġpool":8875,"Ġdecrypt":8876,"ĠStudio":8877,"Ġarrived":8878,"Ð´Ð½Ð°Ðº":8879,"content":8880,"Ġoccurs":8881,"<div":8882,"äºº":8883,"ventional":8884,"-H":8885,"Ġwire":8886,"Ġreduced":8887,"Ġloan":8888,"ĠÐ½Ð°Ñĩ":8889,"mi":8890,"ficos":8891,"False":8892,"Ġyellow":8893,"--------------------------------":8894,"Ġalcohol":8895,"Ġconfigur":8896,"Ġcyber":8897,"Ġtensor":8898,"inc":8899,"ÑıÑĤÑĮ":8900,"ãĢĤĊĊ":8901,"enerate":8902,"ĠMiss":8903,"ĠSecurity":8904,"ĠÐ¸Ð³ÑĢ":8905,"ugging":8906,"Ġtienes":8907,"ris":8908,"Torch":8909,"ĠÑĢÐ°Ñģ":8910,".\",Ċ":8911,"orious":8912,"Ġpreparation":8913,"Ġdominant":8914,":**":8915,"Ġelectrical":8916,"Ġsigns":8917,"Ġclassified":8918,"umm":8919,"lie":8920,"ĠÐĵ":8921,"Ġlemb":8922,"Ñĳ":8923,"Ġpix":8924,"orted":8925,"Ġspeaking":8926,"Ġren":8927,"Ġlaboratory":8928,"Ġhabilidades":8929,"Ġgrin":8930,"åĴ":8931,"Ġvegetables":8932,"ker":8933,"Ġdreams":8934,"Ġreagents":8935,"Ġcooking":8936,"chied":8937,"ĠAqui":8938,"ĠEd":8939,"Ġcombin":8940,"Per":8941,"_date":8942,"ĠMarch":8943,"Ġgran":8944,"zo":8945,"Ġpossess":8946,"Ġlugar":8947,"Ġbibliotec":8948,"Ġposit":8949,"à¹Ģ":8950,"Expl":8951,"Ġinteractive":8952,"Ġdepartment":8953,"chi":8954,"uns":8955,"Ġaccounts":8956,"aws":8957,"íĻ":8958,"ĠÐ¿Ð¾Ð¼Ð¾Ñī":8959,"Ġcapacidad":8960,"'a":8961,"info":8962,"Ġspect":8963,"ĠImport":8964,"ÑįÑįÑįÑį":8965,"ĠBlack":8966,"ĠpÃ¡":8967,"Ġprecursor":8968,"Ġcommunic":8969,"ymers":8970,"cule":8971,"Ġinsurance":8972,"Ġframeworks":8973,"ĠÑħÐ¾ÑĤ":8974,"Ġspending":8975,"Ġprimarily":8976,"Ġmechanics":8977,"emÃ¡s":8978,"ĠÐ¿Ð¾Ðº":8979,"Ġpublished":8980,"itas":8981,"Ġtill":8982,"ĠLeg":8983,"ĠÐºÐ¾Ð»":8984,"Ð¸ÑĢÐ¾Ð²Ð°ÑĤÑĮ":8985,"Ġcual":8986,"ãģį":8987,"Ġjson":8988,"echo":8989,"ĠÐ·Ð°Ð´Ð°Ñĩ":8990,"rior":8991,"ĠIndustry":8992,"fas":8993,"icaÃ§Ã£o":8994,"Ġbattery":8995,"ĠÐµÐµ":8996,"Ġsint":8997,"eles":8998,"ector":8999,"iciÃ³n":9000,"ĠUK":9001,"ãĥ¼ãĥ":9002,"à¤°":9003,"Ġsele":9004,"Ð´Ð½Ð°ÐºÐ¾":9005,"grees":9006,"ayout":9007,"Ġtorn":9008,"85":9009,"Mod":9010,"Ġacids":9011,"Ġfabric":9012,"Ġcomprom":9013,"ĠInitial":9014,"Ä±n":9015,"IF":9016,"kl":9017,"Ġcalm":9018,"ĠâĪ":9019,"hem":9020,"Ġwaves":9021,"Ġconcl":9022,"ĠString":9023,"Ġmoist":9024,"ĠFROM":9025,"Ġchemists":9026,"Bo":9027,"ĠÐ¿ÑĢÐ¾Ð²":9028,"TH":9029,"Ġresponder":9030,"enty":9031,"Ġoffered":9032,"ĠBitcoin":9033,"Ġchosen":9034,"atings":9035,"ÐµÑģÑĮ":9036,"inner":9037,"Ġsyn":9038,"Ġ!=":9039,"Ġglowing":9040,"hab":9041,"rows":9042,"ĠÑĤÐµÐ¼":9043,"Ġopposite":9044,"Ġofere":9045,"Ġletting":9046,"Ġstreet":9047,"ĠBusiness":9048,"Ġplayful":9049,"ĠÐ¿ÑĢÐ¾ÑĨ":9050,"ĠAir":9051,"Ġmood":9052,"enew":9053,"Ġpoll":9054,"âĸĪ":9055,"Ġnie":9056,"estamp":9057,"ampions":9058,"Ġabsol":9059,"Ġabsor":9060,"quinoline":9061,"inity":9062,"Ġine":9063,"ÐµÐ¹ÑģÑĤÐ²":9064,"Ġdinner":9065,"Ġatom":9066,"Option":9067,"ipe":9068,"ya":9069,"ĠrÃ©s":9070,"sudo":9071,"Ġnodded":9072,"Ġ,":9073,"lock":9074,"emon":9075,"ãģĨ":9076,"Ġtransition":9077,"Ġreviews":9078,"ĠFlask":9079,".path":9080,"Ġpussy":9081,"ĠÐ·Ð°Ðº":9082,"Ġlub":9083,"ĠÐ²Ð°Ñģ":9084,"istance":9085,"iais":9086,"Ġrecip":9087,"Ġfornecer":9088,"Ġstack":9089,"Ġasset":9090,"Title":9091,"ULL":9092,"Ġpulled":9093,"ested":9094,"ĠAf":9095,"Ð¸Ð»Ð¸":9096,"shine":9097,"mark":9098,"ĠService":9099,"Ġfan":9100,"life":9101,"Ġtexture":9102,"Ġartist":9103,"Ġpigments":9104,"ifique":9105,"ĠÐ½ÑĥÐ¶":9106,"aker":9107,"Ġdedication":9108,"Ġcategory":9109,"DP":9110,"Ġoh":9111,"Ġiterate":9112,"format":9113,"ĠÐ¿ÑĢÐ¾Ð¸Ð·":9114,"Ġfest":9115,"(df":9116,"cht":9117,"ĠDec":9118,"Ġtor":9119,"Ġju":9120,"Ġphotos":9121,"Ġric":9122,"issance":9123,"values":9124,"Ġ:=":9125,"Ġgravity":9126,"âĶĢâĶĢ":9127,"uras":9128,"ĠNorth":9129,"Ġmast":9130,"ĠÑģÐ²ÑıÐ·":9131,"ĠLog":9132,"ĠëĮĢ":9133,"ÑĦÑĦ":9134,"got":9135,"ĠIntellig":9136,"Ġauthentication":9137,"fast":9138,"hand":9139,"Ġfert":9140,"Ġdati":9141,"Ġconstraints":9142,"ĠJuly":9143,"Ġguard":9144,"ĠpÃºblic":9145,"oin":9146,"oned":9147,"akt":9148,"Ġidentified":9149,"ientos":9150,"loro":9151,"ĠPyTorch":9152,"Ġfoundation":9153,"Ð°ÑĤÐµÐ»":9154,"Ġinstitutions":9155,"etGame":9156,"Ġìĺ":9157,"ĠSpanish":9158,"Ġsecre":9159,"Ġintim":9160,"Ġsul":9161,"ete":9162,"rament":9163,"Øµ":9164,"Item":9165,"Ġwound":9166,"ki":9167,"ĠÐ¼ÐµÑĤÐ¾Ð´":9168,"Ġscan":9169,"ulating":9170,"Ġsubstance":9171,"ĠÐ·Ð½":9172,"Ġacqu":9173,"Ġencrypt":9174,"Ġcompliance":9175,"Ġdisplayed":9176,"Ġwit":9177,"ĠZe":9178,"anged":9179,"ĠObject":9180,"Ġaccel":9181,"Ġattributes":9182,"ÑĢÐ°Ð±Ð¾ÑĤ":9183,"Ġê¸°":9184,"sis":9185,"else":9186,"chat":9187,"Ġstere":9188,"API":9189,"atas":9190,"isi":9191,"600":9192,"hai":9193,"Ġalgumas":9194,"Ġashamed":9195,"poon":9196,"Ġkill":9197,"\"]":9198,"oder":9199,"Action":9200,"Ġdod":9201,"ĠTur":9202,"Ġfare":9203,"Ġhous":9204,"isco":9205,"issive":9206,"know":9207,"ENT":9208,"Ġhumili":9209,"ĠMaterial":9210,"Ã¤n":9211,"Ġrh":9212,"Ġinclusive":9213,"Ġcitiz":9214,"reme":9215,"Ġtransformation":9216,"Ġalta":9217,"ĠUnion":9218,"Ġdemoc":9219,"Ġvor":9220,"oga":9221,"Ġpython":9222,"Ġlifestyle":9223,"Ġfoods":9224,"Î¿Ïħ":9225,"Ġoppon":9226,"Ġcircuit":9227,"?\",":9228,"hrop":9229,"asion":9230,"ĠAND":9231,"Ã¡n":9232,"Ġvibrant":9233,"Ġhosp":9234,"ĠnewDirection":9235,".show":9236,"195":9237,"Ġsistemas":9238,"Ġrecords":9239,"Ġcab":9240,"Ġproporcionar":9241,"ĠÐ¾Ð±Ð»":9242,"Ġecos":9243,"max":9244,"Ġobstacles":9245,"Te":9246,"Ġinstallation":9247,"Ġaggress":9248,"Ð°Ð½ÑĤ":9249,"Ġseeing":9250,"Ġlocations":9251,"OM":9252,"ĠFacebook":9253,"ĠÃºtil":9254,"Ġevil":9255,"ĠÐ´ÐµÐ»":9256,"ĠÐŁÑĢ":9257,"Ġmolecules":9258,"ĠAPIs":9259,"ĠFire":9260,"Ġnutri":9261,"Ġcoup":9262,"click":9263,"Ġmultipl":9264,"fix":9265,"Ġreaching":9266,"67":9267,".e":9268,"Ġconstru":9269,"Ġease":9270,"Ġenvironmentally":9271,"Ġhier":9272,"Ġmeters":9273,"Ġdegrees":9274,"merce":9275,"ĠÙģÙĬ":9276,"rel":9277,"Ġaffection":9278,"arti":9279,"nings":9280,"Ġlux":9281,"Ġthreats":9282,"Ġspecifies":9283,"æĿ":9284,"ĠÐ½ÐµÐ¾Ð±ÑħÐ¾Ð´Ð¸Ð¼":9285,"Ich":9286,"Ġice":9287,"åĴĮ":9288,"ĠMaster":9289,"SP":9290,"Ġmouse":9291,"Ġautor":9292,"Ġmitig":9293,"Ġmeat":9294,"Ġapps":9295,"ĠIncre":9296,"Ġmoons":9297,"rait":9298,"ket":9299,"Ġtua":9300,"eln":9301,"Ġnach":9302,"vised":9303,"aze":9304,"connect":9305,"Ĥ¨":9306,"Ġargue":9307,"inem":9308,"Ġprotective":9309,"untos":9310,"erial":9311,"Ġdatasets":9312,"Â¡":9313,"åľ¨":9314,"ĠPok":9315,"serv":9316,"Ġdomest":9317,"Ġcircle":9318,"ossible":9319,"ìĥ":9320,"Ġobjective":9321,"Ġela":9322,"uber":9323,"oday":9324,"Ġentities":9325,"Ġbranch":9326,"Ġlyr":9327,"Ġsphere":9328,"ĠÑĤÐµÐºÑģÑĤ":9329,"Ġcards":9330,"Ġgift":9331,"iform":9332,"acc":9333,".y":9334,"join":9335,"ĠÐ²ÑĭÐ±":9336,"Ġafford":9337,"Select":9338,"ĠRoman":9339,"Ġneighbor":9340,"Ġzur":9341,"Ġprotocols":9342,"ĠIslam":9343,"Ġske":9344,"CA":9345,"Chapter":9346,"Ġreligion":9347,"aaaa":9348,"raine":9349,"111":9350,"ĠSeptember":9351,"Ġsector":9352,"Ġservers":9353,"Ġwall":9354,"Ġcontinuous":9355,"¬¸":9356,"Ġfiction":9357,"Ġweigh":9358,"ÐµÑĤÐµ":9359,"Ġtwist":9360,"enewable":9361,"mation":9362,"Ġcompatible":9363,"player":9364,"ĠIdentify":9365,"Ġshell":9366,"ĠÐŀÐ½":9367,"Ġpercentage":9368,"Ġrepair":9369,"Ã±os":9370,"ĠÐ²ÑģÐµ":9371,"YY":9372,"Ġdesenvolvimento":9373,"Ġdirections":9374,"urtle":9375,"Ġcontra":9376,"Ġpoor":9377,"Ġjobs":9378,"Ġhash":9379,"Ġowners":9380,"hus":9381,"ĠUpdate":9382,"ĠPat":9383,"Ġdish":9384,"Ġinitiatives":9385,"uciÃ³n":9386,"peech":9387,"_frame":9388,"Ø·":9389,"Ġintimate":9390,"Ġcontrols":9391,"Ġseja":9392,"Ġneur":9393,".csv":9394,"roller":9395,"Ġpra":9396,"imer":9397,"ĠPM":9398,"Ġovers":9399,"Ġring":9400,"ĠÐ¿Ð¾Ð·Ð²Ð¾Ð»":9401,"pg":9402,"random":9403,"ĠOf":9404,"ðŁĶ":9405,"Ġvictorious":9406,"Ġcertific":9407,"ĠRef":9408,"ĠDevelopment":9409,"Ø§ÛĮ":9410,"ependant":9411,"Ġproposed":9412,"Ġ&&":9413,"DataFrame":9414,"Ġbold":9415,"emple":9416,"Ġadministr":9417,"Ġfashion":9418,"ĠÐ¿Ð¾Ð²":9419,"Ġcryptocur":9420,"ë²":9421,"Ġlembrar":9422,"Ġcognitive":9423,"å¼":9424,"ibilities":9425,"Ġsac":9426,"edia":9427,"Ġdescript":9428,"(-":9429,"find":9430,"esse":9431,"Ġmeal":9432,"ĠMo":9433,"vention":9434,"ĠAriz":9435,"ÑĥÐ³":9436,")p":9437,"...Ċ":9438,"Ġmusical":9439,"ĠanÃ¡l":9440,"then":9441,"Ġtracking":9442,"Ġclaims":9443,"âĸĪâĸĪ":9444,"-step":9445,"amentos":9446,"Ġreader":9447,"Ġshot":9448,"Ġsheet":9449,"ĠĠĠĠĠĠĠĠĠĠĠĠĠ":9450,"LA":9451,"product":9452,"Ġintroduced":9453,"Ġfantasy":9454,"Ð¾ÑĤÐ¾Ð²":9455,"ÑģÑĤÐ°Ð½Ð¾Ð²":9456,"Ġsout":9457,"Ġgenerar":9458,"à¥į":9459,"river":9460,"Ġ(Ċ":9461,"lik":9462,"Ġtema":9463,"Ġbusy":9464,".title":9465,"ĠÃ¶":9466,"Ġdistributed":9467,"(a":9468,"Ġemerge":9469,"Ġcream":9470,"Ġelif":9471,"orders":9472,"Ġaccident":9473,"Ġê°Ģ":9474,"ocal":9475,"version":9476,"41":9477,"ocking":9478,"Ġincreasingly":9479,"Ġherb":9480,"Ġprinted":9481,"Ġapproached":9482,"Good":9483,"Î¬":9484,"Ã©ri":9485,"Ġstudied":9486,"Ŀ¼":9487,"LT":9488,"Ġhur":9489,"mber":9490,"ĠChar":9491,"pond":9492,"Ġoperates":9493,"ami":9494,"á»ĥ":9495,"Ġauto":9496,"Ġtrein":9497,"nement":9498,"ĠConnect":9499,"Ġsupplier":9500,"BA":9501,"yect":9502,"Ġgrace":9503,"Ġunf":9504,"hesis":9505,"Ġlose":9506,"'ĊĊ":9507,"ĠISO":9508,"Ġanalytics":9509,"iendo":9510,"atabase":9511,"Ġbreaking":9512,"Ġpela":9513,"entral":9514,"Ġlapt":9515,"iper":9516,"Ġhet":9517,"ĠÐ¿Ð°ÑĢ":9518,"base":9519,"Ġaqui":9520,"Ġforeign":9521,":</":9522,"ĠÑģÐ°Ð¼":9523,"Ġkan":9524,"Ġpaid":9525,"Ġmanaged":9526,"Ġdiscipl":9527,"ĠÐ½Ð°ÑĪ":9528,"ĠBar":9529,"Ġemissions":9530,"ativos":9531,"ĠcrÃ©":9532,"Ġshadow":9533,"ĠRun":9534,"Ġenemies":9535,"Ġadequ":9536,"Ġpromise":9537,"Ġcandidate":9538,"aldehyde":9539,"Ġconsists":9540,"Ġinvolving":9541,"anza":9542,"Ġconsens":9543,"Ġcars":9544,"Ġcomply":9545,"allel":9546,"ÄĽ":9547,"éĹ®":9548,"Ġvalidation":9549,"Ġphoto":9550,"Ġê²ĥ":9551,"ĠÐ¼ÐµÐ½":9552,"Ġcorret":9553,"ĠktÃ³":9554,"Ð¾ÑģÑģ":9555,"ÑĥÐ¹":9556,"Ġmic":9557,"Ġimpacts":9558,"ktop":9559,"ëŀ":9560,"athy":9561,"06":9562,"dir":9563,"Ġbuff":9564,"rog":9565,"Ġusername":9566,"Ġcrim":9567,"antly":9568,"vantages":9569,"oso":9570,"riors":9571,"77":9572,"={":9573,"avia":9574,"iere":9575,"Ġà¤ķ":9576,".Label":9577,"ĠpÃ¡gin":9578,"ĠÑĦÐ¾ÑĢÐ¼":9579,"ĠMuseum":9580,"čĊ":9581,"Ġreferred":9582,"Ġtherefore":9583,"Ġ{\"":9584,"!\"ĊĊ":9585,"Ġreported":9586,"Ġflexibility":9587,"NS":9588,"ande":9589,"you":9590,"ĠWord":9591,"umes":9592,"Ġcipher":9593,"Ġobjeto":9594,"ĠPal":9595,"Ġborder":9596,"Ã¢ncia":9597,"Ġrevolution":9598,"Ġcomport":9599,"Ġlandscape":9600,"Ġni":9601,"eme":9602,"Ġincredible":9603,"Ġferrament":9604,"Well":9605,"ĠTer":9606,"Ġfruit":9607,"ING":9608,"Ġhorm":9609,"Ġservi":9610,"Ġverify":9611,"Ġsizes":9612,"Ġesper":9613,"·¸":9614,"forward":9615,"ĠPvt":9616,"ftware":9617,"Ġcompassion":9618,"Ġhoriz":9619,"Ġconte":9620,"jour":9621,"Ġstarring":9622,"ä»Ģ":9623,"isto":9624,"keys":9625,"Ġentry":9626,"ĠÐ°Ð²":9627,"ç»":9628,"tag":9629,"Ġproductivity":9630,"Ġracist":9631,"ĠBay":9632,"ĠÐ¿Ð¾Ð¿":9633,"Ġbuildings":9634,"ĠVulpis":9635,"ĠElect":9636,"Ġtrouble":9637,"Ġfinish":9638,"ĠÑĢÐ°Ð·Ð²":9639,"Ġcurve":9640,"Ġsigu":9641,"ĠÐ¾Ð½Ð¸":9642,"Ġexpressed":9643,"Ġunt":9644,"Ġfailure":9645,"Ġsido":9646,"Ġcourt":9647,"Ġ\"\"":9648,"Point":9649,"ĠestÃ¡s":9650,"ìĦ±":9651,"Ġstick":9652,"ĠÐļÐ°Ðº":9653,"ĠÙħÙĨ":9654,"Ġayudar":9655,"uary":9656,"Ġeducational":9657,"ë°":9658,"Ġturns":9659,"DSM":9660,"Est":9661,"Ġcertainly":9662,"request":9663,"ĠÐ²Ð½":9664,"ĠlÃŃnea":9665,"ĠProducts":9666,"Ġarchivo":9667,"Ġleur":9668,"Ġstereot":9669,"_time":9670,"Ġpicture":9671,"Ġvagina":9672,"Ġdesde":9673,"Ġmischie":9674,"Ġestimated":9675,"ĠReal":9676,"ronic":9677,"Count":9678,"rateg":9679,"Ġmur":9680,"Å¡":9681,"Ġbelief":9682,"loat":9683,"Ġpassage":9684,"Ġwra":9685,"Ġdecor":9686,"Ðľ":9687,"style":9688,"ÑģÑĤÐ°Ð²":9689,"Ġcultura":9690,"valid":9691,"Ġlighting":9692,"uÃ§Ã£o":9693,"Ġrecipe":9694,">`":9695,"Sc":9696,"Ġblocks":9697,"Ġpolymers":9698,"Ġprofile":9699,"Set":9700,"ĠUltimately":9701,"Ġkids":9702,"ĠWithout":9703,"ĠhÃ¡":9704,"Ġride":9705,"Ġmolecule":9706,"ĠRo":9707,"ĠOkay":9708,"quier":9709,"ĠÑĩÐ°ÑģÑĤ":9710,"ÐµÐ½Ð¸Ð¸":9711,"alaxy":9712,"_NAME":9713,"autions":9714,"nsel":9715,"Ġearned":9716,"ols":9717,"ensional":9718,"ĠÐ¾Ñĩ":9719,"Ġmejorar":9720,"ĠMachine":9721,"Ġexcess":9722,"iot":9723,"Ġdot":9724,"ĠSE":9725,"-end":9726,"Ġcompos":9727,"ĠsÃŃ":9728,"width":9729,"Ġvalores":9730,"Ġprodot":9731,"Ġpaint":9732,"ĠgÃ©nÃ©":9733,"ĻĢ":9734,"ById":9735,"Ġtodas":9736,"Gr":9737,"Ġfusion":9738,"Ġraised":9739,"Ġviene":9740,"Ġstruggle":9741,"Ġcampo":9742,"ìĭľ":9743,"istical":9744,"Ġisland":9745,"otion":9746,"Ġuno":9747,"Ġtemperatures":9748,"(root":9749,"ĠStre":9750,"erenci":9751,"plays":9752,"Ġestud":9753,"Ġowner":9754,"Ġloud":9755,"Ġnue":9756,"ĠÙĩ":9757,"ĠDay":9758,"aix":9759,"Ġagree":9760,"Ġinterview":9761,"Ġmechanism":9762,"Ġnipples":9763,"Ġexists":9764,"ĠIhnen":9765,".foodObj":9766,"ithium":9767,"tra":9768,"Ġcurves":9769,"Ġpois":9770,"aching":9771,"Ġpolymer":9772,"Sp":9773,"fra":9774,"ĠÐºÐ¾Ð´":9775,"Ġped":9776,"Ġbasis":9777,"'util":9778,"ushing":9779,"Ġinteraction":9780,"Ġemoc":9781,"ĠRAM":9782,"ĠÐºÐ»":9783,"rier":9784,"Ġkept":9785,"ĠResponse":9786,"åº":9787,"Ġaber":9788,"à¹Ģà¸":9789,"Ġmuse":9790,"ĠfÃŃs":9791,"ĠAccess":9792,"Ġcycle":9793,"uthor":9794,"Ġdivided":9795,"Ġnet":9796,"Ġnuest":9797,"Ð¸ÑĦ":9798,".\\":9799,"Ġcant":9800,"Ġpouvez":9801,"ÑıÐµÑĤ":9802,"Ġfaire":9803,"ĠBras":9804,"qrt":9805,"ä»Ģä¹Ī":9806,"Ġkeywords":9807,"ĠMag":9808,"Ġaliment":9809,"ĠÐºÐ°Ð¶Ð´":9810,"ironment":9811,"Ġsignals":9812,"(N":9813,"52":9814,"ÐµÐ½Ð¸Ñİ":9815,"ÐµÐ»Ð¾Ð²":9816,"Ġfriendship":9817,"ĠClick":9818,"Ġderived":9819,"unte":9820,"Ġclin":9821,"Ġprocessed":9822,"uple":9823,"Ġep":9824,"post":9825,"heet":9826,"Ġwhe":9827,"Size":9828,"ograf":9829,"Ġdeton":9830,"(NAME":9831,"matory":9832,"Ġexercises":9833,"config":9834,"Ġdiscussing":9835,"Ġpackaging":9836,"Ġassumptions":9837,"ĠCurrent":9838,"Ġunderground":9839,"Ġ\\\"":9840,"ĠtÃ©cnicas":9841,"ĠpÃ¥":9842,"Ġsto":9843,".print":9844,"Ħì":9845,"Ġensures":9846,"aire":9847,"ĠNetwork":9848,"Ġcurs":9849,"Ġstudying":9850,"lammatory":9851,"Ġdirty":9852,"Ġevening":9853,"Service":9854,"Ġkeyword":9855,"ÑĥÑīÐµÑģÑĤÐ²":9856,"Ġtransformer":9857,"iso":9858,"Ġachieving":9859,"\"NAME":9860,"mt":9861,"ĠÑģÐ»ÐµÐ´ÑĥÑİÑī":9862,"range":9863,".find":9864,"Ġbeings":9865,"urg":9866,"ĠMonitor":9867,"Ġfraud":9868,"ibil":9869,"Ġtherm":9870,"Ġvictim":9871,"é¢":9872,"Ġnur":9873,"anti":9874,"biased":9875,"cco":9876,"åĨ":9877,"Ġsucceed":9878,"Ġbottle":9879,"Ġflat":9880,"Pre":9881,"Ġengaged":9882,"ĠAuto":9883,"-Ch":9884,"ĠNode":9885,"Ġattempted":9886,"Ġreporting":9887,"ä¾":9888,"Ã¼h":9889,"Ġaims":9890,"KE":9891,"Ġgirlfriend":9892,"Ġelectricity":9893,"Ġinnoc":9894,"ĠhandleKeyPress":9895,"Ġentender":9896,"Ġimagine":9897,"ologies":9898,"ĠUm":9899,"));Ċ":9900,"ĠÑĨÐµÐ»":9901,"cos":9902,"ĠEste":9903,"igger":9904,"Ġcategories":9905,"ogram":9906,"Ġsharp":9907,"ĠKey":9908,"ĠBDSM":9909,"Ïī":9910,"Ġlin":9911,"Ġmemor":9912,"Par":9913,"Ġsport":9914,"izi":9915,"ĠAzure":9916,"Ã¡veis":9917,"icip":9918,"ician":9919,"agens":9920,"stract":9921,"Ġcel":9922,"umps":9923,"ALU":9924,"Ġfaces":9925,"Ġstreets":9926,"Ġquiet":9927,"Ġsick":9928,"Ġscope":9929,"Ġsupportive":9930,"Ġsan":9931,"Ġrapp":9932,"Ġeleg":9933,"Ġemotion":9934,"Ġwalls":9935,"Ġunbiased":9936,"Ġkeeping":9937,"_test":9938,"razil":9939,"Ġwenn":9940,"asi":9941,"icol":9942,"ĠGre":9943,"ãĤ¤":9944,"Ġconflicts":9945,"Ġweaknesses":9946,"Ġescrit":9947,"pu":9948,"Ġstores":9949,"ĠÐ¼Ð¾":9950,"ĠSince":9951,"Ġserves":9952,"Ġangle":9953,"Ġtomato":9954,"ĠÐ½ÐµÑģÐº":9955,"Ġawareness":9956,"Ð¸ÑĢÑĥ":9957,"ĠÐ¾Ð±ÑĥÑĩ":9958,"return":9959,"Ġvisible":9960,"ĠPolice":9961,"hich":9962,"Ġemergency":9963,"cat":9964,"Ġorders":9965,"ĠÐ¾ÑģÐ½Ð¾Ð²":9966,"Ġbrighter":9967,"Ġimpossible":9968,"aba":9969,"Ġshift":9970,"åĬ©":9971,"_value":9972,"ĠRT":9973,"rum":9974,"ĠWhy":9975,"ĠJan":9976,"ĠseguranÃ§a":9977,"ĠEval":9978,"Ã½":9979,"ĠSal":9980,"ĠWhether":9981,"Ġ`<":9982,"grid":9983,"Ġillust":9984,"Ġsocially":9985,"Coll":9986,"Ġobtained":9987,"Ġproyect":9988,"Ġselling":9989,"Comp":9990,"ibrary":9991,"mas":9992,"ä¿":9993,"Ġrely":9994,"Ġmemories":9995,"Ġtutorial":9996,"ĠRust":9997,"Ġlogin":9998,"uming":9999,"Ġcurios":10000,"Ġoptimal":10001,"Ġends":10002,"ĠÐ¾ÑĢ":10003,"Ġpotrebbe":10004,"Acc":10005,"åĳ":10006,"ĠNumber":10007,"Ġdigit":10008,"Ġconsideration":10009,"ifi":10010,"Ġbatch":10011,"ëĿ¼":10012,"Ġcher":10013,"Ġbreast":10014,"utoff":10015,"aux":10016,"Ġdich":10017,"ĠfÃ¶r":10018,"Ġopening":10019,"Ġdates":10020,"Ġconna":10021,"ĠPa":10022,"ĠDist":10023,"ĠBre":10024,"Ġflight":10025,"ridge":10026,"ĠÑĥÐ»":10027,"ekt":10028,"this":10029,"Ġversions":10030,"Ġëĭ¤":10031,"ometry":10032,"eless":10033,"alid":10034,"Ġopinion":10035,"ĠProdu":10036,"Ġmuscular":10037,"Ġdiscrimin":10038,"Ġfamilies":10039,"]:Ċ":10040,"Ġimprovements":10041,"Ġrobust":10042,"Ġformed":10043,"ä¸Ń":10044,"ÑĸÐ²":10045,"Ð¸ÐºÐ¸":10046,"Ġgeral":10047,"/m":10048,"Ġfluid":10049,"Ġlinked":10050,"Ġcorpus":10051,"Lo":10052,"ests":10053,"Ġchannels":10054,"igos":10055,"ìŀĲ":10056,"ĠInternet":10057,"Ġespa":10058,"256":10059,"ivi":10060,"Ġenabled":10061,"Ġburn":10062,"-inf":10063,"ĠFranc":10064,"Ġregulatory":10065,"Ġassessment":10066,"ÑĦÑĦÐµÐºÑĤ":10067,"Ġhoy":10068,"angers":10069,"'ent":10070,"-E":10071,"-known":10072,"igt":10073,"])":10074,"Ġmultip":10075,"Ġrespected":10076,"Ġdogs":10077,"rivate":10078,"Ġavez":10079,"-[":10080,"Ġtoward":10081,"phr":10082,"Ġmutual":10083,"uous":10084,"chron":10085,"Ġalert":10086,"fil":10087,"Ġgained":10088,"04":10089,"CR":10090,"Ġrestrictions":10091,"Ġlinks":10092,"Ġfis":10093,"though":10094,"Ġpartir":10095,"Ġagreed":10096,"ĠSuper":10097,"ĠVocÃª":10098,"ĠOpt":10099,"ĠMia":10100,"ĠPay":10101,"abul":10102,"Ġobt":10103,".json":10104,"ÐµÐºÐ¾ÑĤÐ¾ÑĢ":10105,"ader":10106,"ÐŁÑĢ":10107,"Ġproductive":10108,"liers":10109,"Ġintelligent":10110,"ĠReturn":10111,"state":10112,"Ġdestroy":10113,"Ġdebate":10114,"ĠRemember":10115,"ramient":10116,"Ġstir":10117,"wick":10118,"Ð°Ð½Ð´":10119,"ĠParis":10120,"Ġsisters":10121,"ifact":10122,"Ġlust":10123,"iments":10124,"ivitÃł":10125,"Ġoperate":10126,"Ġhide":10127,"Ġdishes":10128,"ĠÐ´Ð¾ÑģÑĤÑĥÐ¿":10129,"Ġlyrics":10130,"Ġgenetic":10131,"igital":10132,"Ġpreu":10133,"Ġinformations":10134,"Ġcustomize":10135,"Ġtengo":10136,"hropic":10137,"Ġinches":10138,"åĮ":10139,"ĠBr":10140,"Å¼e":10141,"Ġexplored":10142,"Ġoutdo":10143,"Ġcoding":10144,"frica":10145,"Rec":10146,"ĠLLMs":10147,"cz":10148,"plete":10149,"Ġkernel":10150,"ycl":10151,"ÐµÐ½Ñĭ":10152,"lar":10153,"oting":10154,"Ġformer":10155,"Ġaprender":10156,"Ġreminder":10157,"æĪĲ":10158,"Æ°á»":10159,"Ġfaith":10160,"Ġrid":10161,"Ġcaracter":10162,"Ġenergia":10163,"Ġtower":10164,"Ġwish":10165,"ographic":10166,"Ġambiente":10167,"ãģ§ãģĻ":10168,"âĪ":10169,"Number":10170,"Window":10171,"Ã¨me":10172,")^":10173,"abases":10174,"ĠÑĤÐµÑħÐ½":10175,"iance":10176,"Ġaccepted":10177,"Ġstation":10178,"Ġsongs":10179,"ĠUkraine":10180,"ĠÐ²ÑĭÐ¿Ð¾Ð»Ð½":10181,"Ġpossa":10182,"ĠØ¯":10183,"ansion":10184,"à¸ĩ":10185,"Ġunderstood":10186,"Ġwhispered":10187,"rs":10188,"aph":10189,"rile":10190,"ocate":10191,"Ġwriter":10192,"Ð»ÐµÐ½Ð¸Ðµ":10193,"luoro":10194,"Py":10195,"Ġcutoff":10196,"berse":10197,"PN":10198,"Î³":10199,"Ġconducted":10200,"MI":10201,"Ġvoltage":10202,"eur":10203,"ifies":10204,"Ġintention":10205,"Ġnegot":10206,"Ġdisrupt":10207,"Ð²ÐµÑĢ":10208,"Ġterrit":10209,"Ġalph":10210,"yridazine":10211,"ipping":10212,"ĠusuÃ¡rio":10213,"ĠSelect":10214,"Ã¡f":10215,"ĠGenerate":10216,"rated":10217,"uttavia":10218,"Ġscenarios":10219,"95":10220,"Ġherramient":10221,"192":10222,"ĠBlue":10223,"Ð½Ñĥ":10224,"ÙĪÙħ":10225,"AAAA":10226,"Ġincluy":10227,".M":10228,"/re":10229,"Ġig":10230,"ĠĠĠĠĠĠĠĠĠĠ":10231,"Ġconserv":10232,"Ġengagement":10233,"Ġsoul":10234,"Ġevolving":10235,"ÑģÑĤÑĢÑĥ":10236,"Ġtout":10237,"Ġprove":10238,"ĠpossÃŃvel":10239,"æķ°":10240,"Ġtelev":10241,"Ġplenty":10242,"-powered":10243,".delete":10244,"(file":10245,"Ġintrigue":10246,"ĠvÃŃ":10247,"Ġtransparent":10248,"ĠpolÃŃtic":10249,"Ġdelete":10250,"180":10251,"Ð¾ÑĢÑĤ":10252,"ydroxy":10253,"UP":10254,"ĠOverall":10255,"ĠÐ²Ð°Ð¶":10256,"Ġcriminal":10257,"Ġìĥ":10258,"ãĥĪ":10259,"Ġsecrets":10260,"Ġsauce":10261,"Ġaqu":10262,".D":10263,"Ġsolub":10264,"ÐµÑģÑĤÐ¸":10265,"çĽ":10266,"Ġhung":10267,"Ġcraft":10268,"ĠInput":10269,"ĠNULL":10270,"Ġdoll":10271,"Ġexpenses":10272,"Ġconfigure":10273,"Ġdiagram":10274,"Ġstom":10275,"Ð¾Ð±Ð°Ð²":10276,"-per":10277,"Ġrice":10278,"Ġhazardous":10279,"Ġkeine":10280,"Ġcombat":10281,"ëĤĺ":10282,"ìĤ¬":10283,"Ġfuck":10284,"Ġprecautions":10285,"({":10286,"Este":10287,"izada":10288,"Ġlicense":10289,"-line":10290,"osph":10291,"Widget":10292,"Ġinsect":10293,"Ġcualquier":10294,"Ġkid":10295,"allow":10296,"Ġëª":10297,"Ġreflects":10298,"Ġconsumer":10299,"Ġcutting":10300,"ĠFile":10301,"Ġresponsibilities":10302,"cket":10303,"Ġultimate":10304,".DataFrame":10305,"ii":10306,"ĠÑģÐº":10307,"oici":10308,"Ġbiases":10309,"Ġlaunch":10310,"ĠÐ²ÐµÑĢ":10311,"Ġcuis":10312,"Ġges":10313,"ĠÐ¸ÑģÑĤ":10314,"ĠPeople":10315,"Ġkitchen":10316,"Ġagriculture":10317,"bersecurity":10318,"db":10319,"iest":10320,"Ġsurvive":10321,"vilupp":10322,"wide":10323,"ĠClaro":10324,"Ġassigned":10325,"iences":10326,"Ġstartup":10327,"uta":10328,"ĠDel":10329,"asp":10330,"ashing":10331,"Ð¸ÐºÐ°":10332,"ĠAD":10333,"ÐµÑī":10334,"ĠÑĤÐ¾Ð»ÑĮÐºÐ¾":10335,"ĠÃºn":10336,"Ġwidget":10337,"Ġembarrassment":10338,"emble":10339,"Ġamor":10340,"Ġê³":10341,"crete":10342,"Ġsoftly":10343,"zioni":10344,"Äį":10345,"Ġadvis":10346,"Ġyes":10347,"ĠÐ·Ð°Ð²Ð¸Ñģ":10348,"ĠMal":10349,"Ġuncertainty":10350,"¸ı":10351,"ĠPen":10352,".B":10353,"Ġdimensions":10354,"Ġexit":10355,"åĲĹ":10356,".F":10357,"Ã»":10358,"Ġbutter":10359,"ĠÐ¿ÑĢÐ¸Ð¼ÐµÑĢ":10360,"-dri":10361,"ãģĬ":10362,"ĠÐ²Ð»":10363,"Ãºdo":10364,"Ġradio":10365,"water":10366,"ĠBrazil":10367,"Ġposible":10368,"Ġshapes":10369,"ĠCenter":10370,"Ġheader":10371,"requ":10372,"Ġpuzz":10373,"ĠÐ²Ð¾Ð¿ÑĢÐ¾ÑģÑĭ":10374,"ander":10375,"Ġstrategic":10376,"Ġauthority":10377,"Ġq":10378,"Ġbathroom":10379,"ĠArab":10380,"ĠConvert":10381,"ĠCat":10382,"Ġmisunder":10383,"Ġdram":10384,"á»ĩ":10385,"ĠEmpire":10386,"ãĢĤĊ":10387,"ynthesis":10388,"Ġale":10389,"Ġacet":10390,"Ġprotected":10391,"Ġpowder":10392,"AG":10393,"Ġslave":10394,"Ġparticipate":10395,"lia":10396,"nie":10397,"eger":10398,"Ġremoving":10399,"Ġpacotes":10400,"endar":10401,"Ġmethyl":10402,"-amino":10403,"Ġselecting":10404,"Ġimmune":10405,"Ġmixed":10406,"(int":10407,"Ġclock":10408,"azi":10409,"250":10410,"Ġrestaurants":10411,"ĠInitialize":10412,"Ġprepa":10413,"ĠÑįÑĦÑĦÐµÐºÑĤ":10414,"ĠManager":10415,"LC":10416,"Ð°ÑİÑī":10417,"cd":10418,"izard":10419,"Ġjak":10420,"Ġaccordingly":10421,"Don":10422,"Ġkilling":10423,"Î±Î¹":10424,"Ġcollected":10425,"Ġassumes":10426,"999":10427,"Ġbenz":10428,"oubles":10429,"price":10430,"ÐµÑģÐ¿ÐµÑĩ":10431,"bb":10432,"ĠAquÃŃ":10433,"Ġhusband":10434,"Ġwur":10435,"Ġlithium":10436,"ĠReview":10437,"Ð¸Ð·Ð½":10438,"Ġester":10439,"Ġmagnetic":10440,".length":10441,"Ġbalanced":10442,"atetime":10443,"Ġfindings":10444,"ĠÐ¸Ð¼ÐµÐµÑĤ":10445,"ĠÐ¿ÑĢÐµÐ´Ð¾ÑģÑĤÐ°Ð²":10446,"ï¸ı":10447,"Ġsnow":10448,"Ġessa":10449,"Ġdefinition":10450,"ÐŃ":10451,"ĠVol":10452,"Ġbub":10453,"Ġdisplays":10454,"å½¼":10455,"OO":10456,"assword":10457,"Ġcash":10458,"ĠÑĦÐ°Ð¹":10459,"ĠÐ¿ÑĢÐ¾ÑģÑĤ":10460,"Ġprinting":10461,"ĠPharmaceutical":10462,"Ġadvertising":10463,"acle":10464,"ĠÑģÐ¾Ð±":10465,"ĠProject":10466,"Ġpressing":10467,"Ġentertainment":10468,"æ°":10469,"Ġshaking":10470,"Ġdivide":10471,"ĠRenewable":10472,"Ġmoans":10473,"Ġdefeat":10474,"Ġtie":10475,"Ġsimulation":10476,"Ġdiscussion":10477,"ĠentraÃ®":10478,"],ĊĊ":10479,"Ġ[]Ċ":10480,"ĠÑĩÐµÐ»Ð¾Ð²":10481,"Ġawait":10482,"Ġorganized":10483,".start":10484,"]:":10485,"emory":10486,"Ġequations":10487,"Ġempresas":10488,"Ġnone":10489,"Ġabord":10490,"contain":10491,"ĠServices":10492,"Ġactivation":10493,"ĠInf":10494,"Ġretail":10495,"ĠDiff":10496,"ĠFibonacci":10497,"Ġjug":10498,"ĠÐ¿ÑĢÐ¾Ð±":10499,"oxide":10500,"ĠBritish":10501,"éģ":10502,"uh":10503,"Ins":10504,"Ġëĵ":10505,"rely":10506,"Ġbirds":10507,"vironment":10508,"Ġentered":10509,"Ġmechanisms":10510,"ëĵľ":10511,"ĠOs":10512,"ÑĨÐ¸Ð°Ð»ÑĮ":10513,"ĠÐ¿ÑĢÐ¾ÑĨÐµÑģÑģ":10514,"ĠespecÃŃficas":10515,"Ġecosystem":10516,"****":10517,"Ġrespiratory":10518,"(text":10519,"abs":10520,"Ð¾ÑģÐ¾Ð±":10521,"Ġexpressions":10522,"ìłķ":10523,"Ġmotivated":10524,"ĠÐ²ÑĢÐµÐ¼Ñı":10525,"æł":10526,"omy":10527,"ĠFun":10528,"ĠCount":10529,"ĠHum":10530,"Ġrapidly":10531,"ĠÑĥÑģÐ»":10532,"-day":10533,"Ġbird":10534,"Ġregression":10535,"Ã¶glich":10536,"Ġauth":10537,"ĠFox":10538,"Ġdeployment":10539,"Ġhttps":10540,"Ġvita":10541,"101":10542,"ĠCL":10543,"Ġsurprised":10544,"Ġclay":10545,"Ġintegrated":10546,"ĠÑĢÐµÐ·":10547,"Ġ\"$":10548,"Ã§as":10549,"Us":10550,"Ġaddressing":10551,"Ġfantas":10552,"Ġdevelopments":10553,"Ġgreatly":10554,"Ġwasn":10555,"ìŀħ":10556,"Ġchapter":10557,"ĠnewHead":10558,"ĠMult":10559,".name":10560,"Ġaccounting":10561,"Ġprecision":10562,"Field":10563,"ĠCour":10564,"Ġdatabases":10565,"Ġsealed":10566,"izione":10567,"lower":10568,"ĠBank":10569,"Ġexplicitly":10570,"bol":10571,"respect":10572,"Ġcitizens":10573,"Hub":10574,"ani":10575,"Ġspr":10576,"à¸£":10577,"CRE":10578,"Ġcalculates":10579,"ë§":10580,"ĠlÃł":10581,"ĠAlso":10582,"á»Ļ":10583,"Ġalleg":10584,"Ġtailored":10585,"Create":10586,"ĠDE":10587,"Ġshoes":10588,"Ġadventures":10589,"server":10590,"Ġcomunic":10591,"Ġajust":10592,"letic":10593,"Ġcorner":10594,"Ġmathematics":10595,"ĠExplore":10596,"Ġsubmissive":10597,"anie":10598,"Ġmalicious":10599,"doms":10600,"Ġdescriptive":10601,"ameter":10602,"ĠFood":10603,"encial":10604,"Ķ×":10605,"Ġgolf":10606,"Ġmountains":10607,"jar":10608,"Ġerotic":10609,"ĠÐĴÑĭ":10610,"Ġdemonstrate":10611,"ĠIntroduction":10612,"ĠWho":10613,"ĠItalian":10614,"Ġcoordinates":10615,"Ġnative":10616,"Ġconsulting":10617,"ku":10618,"idor":10619,"Ð¼ÐµÑĢ":10620,"uzione":10621,"Ġpink":10622,"ĠÑģÐ»Ð¾Ð²":10623,"Ġtelling":10624,"Ġterr":10625,"Ġpose":10626,"ÅĽci":10627,"-solving":10628,"Ġbroken":10629,"Ġavoiding":10630,"Code":10631,"Gener":10632,"]p":10633,"Ã¡rias":10634,"itÃ©s":10635,"Ġlocked":10636,"Ġgratitude":10637,"ĠprÃ©c":10638,"Ġplane":10639,"Ð°Ð¿ÑĢÐ¸Ð¼ÐµÑĢ":10640,"Ġsubmit":10641,"ÑıÐ¼":10642,"Ġperpet":10643,"next":10644,"Ġinfe":10645,"Ġinvestors":10646,"ÐµÐ¶Ð´Ñĥ":10647,".randint":10648,"Ġprepares":10649,"urther":10650,"ãģķ":10651,"err":10652,"Ġeinf":10653,"Ġ:Ċ":10654,"Ġreverse":10655,"oly":10656,"Ã³mo":10657,"Open":10658,"Ġvulnerabilities":10659,"ĠLearn":10660,"59":10661,"ruption":10662,"ĠStand":10663,"Ġpressed":10664,"Ġpreguntas":10665,"Score":10666,"Ġstages":10667,"Ġcompact":10668,"ĠInoltre":10669,"Ġoptimized":10670,"Ġhydrochloride":10671,"ĠÐ¿Ð¾Ð»ÑĮÐ·":10672,"ĠIntegr":10673,"Ġcontr":10674,"sharp":10675,"Ġocean":10676,"args":10677,"iene":10678,"Ġemphasis":10679,"Ġinch":10680,"Ġimportantes":10681,"ĠÑĤÐ°ÐºÐ¸Ðµ":10682,"ĠTransformer":10683,"Ġsentir":10684,"áº¿":10685,"anci":10686,"ĠÐ¾Ð½Ð°":10687,"Ġexplores":10688,"ĠÐ¼Ð½Ðµ":10689,"Ġconfront":10690,"Ġloves":10691,"Ġsuperior":10692,"Ð½Ñĸ":10693,"ĠespecÃŃfico":10694,"Ġiron":10695,"Ġfemin":10696,"Best":10697,"iciency":10698,"Ġstreaming":10699,"åĵ":10700,"ĠaquÃŃ":10701,"Ð¾ÑģÑĤÑĮ":10702,"Ġunknown":10703,"Ð¸ÑĢÐ¾Ð²Ð°Ð½":10704,"Ġcasa":10705,"à¤¿":10706,"ĠÐ´ÑĢÑĥÐ³Ð¸Ðµ":10707,"phones":10708,"Ġverific":10709,"Ġgradient":10710,"Ġcomparison":10711,"_de":10712,"ÑĢÐ¾Ð½":10713,"Ġhorse":10714,"Ġcaution":10715,"Array":10716,"isch":10717,"Ġsuck":10718,"Ð°Ð»Ð°Ð»":10719,"ĠArizona":10720,"ĠAlp":10721,"'int":10722,"erto":10723,"lobal":10724,"Ġtradition":10725,"Ġcliente":10726,"Ġreputable":10727,"Ġderivative":10728,"ĠdiffÃ©":10729,"-nit":10730,"Ġbackup":10731,"Ġexhib":10732,"________":10733,"ummary":10734,"actory":10735,"Ġparallel":10736,"-by":10737,"Ġtens":10738,"Ġgaming":10739,"emente":10740,"èĢ":10741,"Ġphysically":10742,"_dict":10743,"ĠÑĤÐ°ÐºÐ¸Ñħ":10744,"eto":10745,"ongo":10746,"Ġpricing":10747,"Ġinjury":10748,"Ġìĸ":10749,"Ġbringing":10750,"Ġconsiderations":10751,"Ġsensual":10752,"unting":10753,"utional":10754,"Ġhabe":10755,"rection":10756,"eder":10757,"iga":10758,"Ġrecording":10759,"Ġmodelos":10760,"Ġsurve":10761,"Ġqualquer":10762,"Ġrelie":10763,"number":10764,"åĢ":10765,"ElementById":10766,"900":10767,"orient":10768,"Ġphilosophy":10769,"aires":10770,"ãģĹãģ¦":10771,"à¥įà¤":10772,"found":10773,"ĠAvoid":10774,"Ġdiscussions":10775,"_number":10776,"Ġtarefas":10777,"å¯":10778,"Ġconcerned":10779,"ĠĠĠĠĠĠĠĠĊ":10780,"emplate":10781,"ĠUnter":10782,"Ġtanto":10783,"atography":10784,"ĠpÃ¡gina":10785,"Ġsuo":10786,"ĠÃłs":10787,"Ġauthorities":10788,"yrimidin":10789,"ĠNa":10790,"Ġconflicting":10791,"IO":10792,"íķ©ëĭĪëĭ¤":10793,"Ġfourth":10794,"ĠmÃºs":10795,"---ĊĊ":10796,"Ã¤ng":10797,"opp":10798,"å¿":10799,"Ġlogs":10800,"ÐĲ":10801,"ÃŃsticas":10802,"Ġteas":10803,"ĠÑĸ":10804,"Ġfuturo":10805,"ĠCreating":10806,"ĠÑģÐ²Ð¾Ð¸":10807,"Ġoxy":10808,"Ġbind":10809,"ĠEns":10810,"Ġautomation":10811,"cor":10812,"Ġtheories":10813,"Ġrender":10814,"Ġqualified":10815,"Ġseductive":10816,"Ġwy":10817,"Ð»Ð¸Ð²":10818,"Ġkilled":10819,"Ġelectronics":10820,"-color":10821,"Are":10822,"uction":10823,"ÙĦÙī":10824,"Ġmanipulation":10825,"Ġphase":10826,"Ġending":10827,"ĠconteÃºdo":10828,"irts":10829,"itable":10830,"zhou":10831,"Ġspell":10832,"Ġsimulate":10833,"Ġstomach":10834,"Ġgreet":10835,"Ġtemas":10836,"Ġpulling":10837,"elcome":10838,"Ġexplodes":10839,"íķł":10840,"bruary":10841,"(l":10842,"csharp":10843,"Ġextensive":10844,"Ġlung":10845,"Ġvisualization":10846,"}{":10847,"chnology":10848,"Ġcenturies":10849,"iace":10850,"Ġrush":10851,"quir":10852,"Ġannual":10853,"rence":10854,"ĠÐ¸Ð·Ð¼ÐµÐ½":10855,"Ġsiento":10856,"arante":10857,"ĠÐ¸ÑģÐº":10858,"Ġmasturb":10859,"_g":10860,"çŃ":10861,"Ġprograma":10862,".random":10863,"Ġacceptable":10864,"ĠWi":10865,"Ġhazards":10866,"Ġstocks":10867,"yo":10868,"à¸±":10869,"-est":10870,"Ġmich":10871,"ollow":10872,"neh":10873,"Espero":10874,"Ġbust":10875,"Ġtextiles":10876,"\":\"":10877,"uture":10878,"ecute":10879,"Ġsehr":10880,"ĠNine":10881,"ĠcomeÃ§":10882,"Ġearn":10883,"Ġdespite":10884,"£¼":10885,"Ġ`/":10886,".resetGame":10887,"USER":10888,"Ġsensors":10889,"68":10890,"ivas":10891,"Ġemo":10892,"Ġelev":10893,"Ġpreviously":10894,"Ġseguint":10895,"ota":10896,"Ġverschied":10897,"Ġfragr":10898,"æŀ":10899,"ĠAfrica":10900,"ĠPO":10901,"quart":10902,"Ġpretty":10903,"Ġdelivering":10904,"07":10905,"Ġcategor":10906,"ĠÐĽ":10907,"orte":10908,"Ġmanual":10909,"Ġempathy":10910,"ĠRob":10911,"Ġrepeated":10912,".k":10913,".to":10914,"ëĵ¤":10915,"Ġworldwide":10916,"Ð¸Ð½Ð°":10917,"ĠBuilding":10918,"Ġdensity":10919,"Ġcounsel":10920,"Ġsvilupp":10921,"ango":10922,"ĠÑĢÐµÐº":10923,"Ġconversion":10924,"Ġpresentation":10925,"ĠBrasil":10926,".A":10927,"Ġsale":10928,"arÃ¡":10929,"ĠÑĤÑĭ":10930,"gn":10931,"iang":10932,"ĠAus":10933,"ĠSave":10934,"ĠÐ½Ð¾Ð²Ñĭ":10935,"(),":10936,"Question":10937,".getElementById":10938,"Ġtiss":10939,"Ġagency":10940,"wo":10941,"Ġprojeto":10942,"ĠÃ¤r":10943,"Ġmuy":10944,"ĠatÃ©":10945,"ĠChair":10946,"ĠëĤ":10947,".write":10948,"Ġcompart":10949,"Ġacts":10950,"Ġdepart":10951,"ĠControl":10952,"Ġsaved":10953,",,":10954,"tml":10955,"Ġguitar":10956,"Ãºde":10957,"ayers":10958,"Ġdressed":10959,"Ġdigits":10960,"Ġsuddenly":10961,"message":10962,"íĸ":10963,"etra":10964,"Ġminor":10965,"points":10966,"items":10967,"ë©´":10968,"Ġtant":10969,"Ġmanufacture":10970,"é«":10971,"Ġprotecting":10972,"Ġincluir":10973,"Ġtenho":10974,"ĠÎº":10975,"ÑĥÑĪ":10976,"Ġvom":10977,"ĠÑģÐµÐ±Ñı":10978,"ĠÑĤÐ¾Ñĩ":10979,"ĠÐŀÐ´Ð½Ð°ÐºÐ¾":10980,"Content":10981,"Ġacknow":10982,"Ġcodice":10983,"Ġfruits":10984,"Ġbere":10985,"Ġbeneficial":10986,"Ġsic":10987,"izers":10988,"Ã¼n":10989,"Ġhate":10990,"adata":10991,"ĠMac":10992,"loop":10993,"Ġcomputational":10994,"Out":10995,"Ġdut":10996,"ĠRepublic":10997,"Can":10998,"iens":10999,"Ġquel":11000,"Ġ`-":11001,"ĠÑģÑĢÐµÐ´":11002,"ĠMark":11003,"Ġdodge":11004,".html":11005,"Ġaroused":11006,"iophene":11007,"[j":11008,"ĠValue":11009,"-scale":11010,"Ġprofession":11011,"ĠChristian":11012,"-effective":11013,"ÑĥÐ»Ñı":11014,"anco":11015,"Ġmomento":11016,"Ġbedroom":11017,"Ġlangage":11018,"Ġplataforma":11019,"Ġteaching":11020,"mic":11021,"uum":11022,".load":11023,"ologia":11024,"Ġpossibilities":11025,"cut":11026,"Ġapl":11027,"oles":11028,"reshold":11029,"vector":11030,"Ġlesson":11031,"Ġìłľ":11032,"Ġmountain":11033,"Collision":11034,"omethyl":11035,"Ġkg":11036,"email":11037,"ëŁ":11038,"ĠCanada":11039,"PM":11040,"Ġlogical":11041,"_train":11042,"Ġpizza":11043,"ĠÑĩÐ¸Ñģ":11044,"ÏĮ":11045,"iral":11046,"Ġcompanions":11047,"Ġdip":11048,"Ġfootprint":11049,"Ġequival":11050,"ĠLight":11051,"Ġtransformed":11052,"jam":11053,"Ġusado":11054,"istas":11055,"Ġturning":11056,".a":11057,"Ġcomposition":11058,"ãĤĵ":11059,"abulary":11060,"Ġkingdoms":11061,"Our":11062,"Ġserie":11063,"Ġestate":11064,"ĠÎ¼":11065,"Ġhypot":11066,"Ġvirus":11067,"Ġreplaced":11068,"ĠIhre":11069,"isa":11070,"Ġapplying":11071,"Ġstatistical":11072,"(new":11073,"Ġfighting":11074,"Ġpreprocess":11075,"Ã¼ck":11076,"Ġincident":11077,"Ġspecifications":11078,"Ġoccurred":11079,"ĠAnthropic":11080,"miling":11081,"atto":11082,"ĠTrain":11083,"Ġtecnologia":11084,"Very":11085,"ĠOR":11086,"Ġë¶":11087,"iÃ³":11088,"ÎŃ":11089,"ko":11090,"omo":11091,"Ġinflam":11092,"lio":11093,"Ø§Ø³Øª":11094,"Ġsched":11095,"Ġinvestments":11096,"Ġsurg":11097,"-dimensional":11098,"uten":11099,"ĠvÃł":11100,"ĠÐ¾Ð±ÐµÑģÐ¿ÐµÑĩ":11101,"Ġcombine":11102,"Ġgerenci":11103,"ĠRace":11104,"ĠresponsÃ¡vel":11105,"Ġefect":11106,"ÐµÐ½ÑĤÐ¾Ð²":11107,"ĠDeterm":11108,"_key":11109,"resse":11110,"Ġreset":11111,"Ġcapability":11112,"ĠUnivers":11113,"Ġphilosoph":11114,"íĬ":11115,"ĠDer":11116,"ÃŁen":11117,"ĠØ§ÙĦØª":11118,"Ġfee":11119,"Ġdynamics":11120,"acks":11121,"uent":11122,"ĠFast":11123,"å¸®":11124,"Ġnous":11125,"ĠHaw":11126,"ĠWater":11127,"Ġrappresent":11128,"Ðł":11129,"ĠBas":11130,"ĠÐ¿Ð¾Ð»ÑĮÐ·Ð¾Ð²":11131,"åī":11132,"'e":11133,"Ġcuisine":11134,"Ġtar":11135,"Ġincon":11136,"ĠnÃ©":11137,"ĠMens":11138,"Ġplanets":11139,"Ġpadding":11140,"true":11141,"Ġkicks":11142,"Ġalmost":11143,"Ġformal":11144,"Ġresponding":11145,"inning":11146,"Ġmagn":11147,"Ġflowers":11148,"Die":11149,"ĠÐ²Ð¾":11150,"Ġwider":11151,"ĠIntel":11152,"Ġanime":11153,"ĠìĤ¬ìļ©":11154,"(X":11155,"Ġgrammar":11156,"Ġsummer":11157,"Ġautomate":11158,"Ġfly":11159,"Ġentren":11160,"Ġdecrease":11161,"iger":11162,"Ġprinc":11163,"GS":11164,"Ġces":11165,"ĠsiÄĻ":11166,"Ġinjured":11167,"88":11168,"size":11169,"Ġaband":11170,"_count":11171,"ĠSD":11172,"Ġdrawing":11173,"iden":11174,"ĠEduc":11175,"ĠMissing":11176,"ĠÃ©ta":11177,"âĢĭ":11178,"Ġtermin":11179,"ĠAccording":11180,"uler":11181,"ĠPandas":11182,"Request":11183,"ĠFriday":11184,"Ġlaptop":11185,"Ġhex":11186,"(key":11187,"Ġhref":11188,"Ġbiological":11189,"INT":11190,"icio":11191,"Ġsess":11192,"ĠAnother":11193,"Ġdisrespect":11194,"Ġagricultural":11195,"áº£":11196,"Ġ===":11197,"anche":11198,"Ð³Ð¾ÑĢ":11199,"Ġstereotypes":11200,"-L":11201,"cir":11202,"Ġrelief":11203,"Ġsle":11204,"ÐµÐ½Ð´":11205,"Ġtries":11206,"Ġpracticing":11207,"sett":11208,"Ġpessoa":11209,"-inflammatory":11210,"Ġfees":11211,"irtual":11212,"Ġsolely":11213,"adder":11214,"opic":11215,"operation":11216,"Ġopened":11217,"rometry":11218,"Ġ`.":11219,".text":11220,"YPE":11221,"Ġpalav":11222,"Ġmercado":11223,"Ġëı":11224,"-al":11225,"iki":11226,"(my":11227,"uni":11228,"Ġrepet":11229,"ĠÐ¿ÑĢÐ¸Ð½":11230,"ship":11231,"ĠFam":11232,"ë¶":11233,"ĠCome":11234,"-tuning":11235,"ped":11236,"Ġabuse":11237,"Ġbread":11238,"Ġbasket":11239,"Ġbowl":11240,"Ġinterpretation":11241,"indi":11242,"console":11243,"oot":11244,"Ġago":11245,"Ġfunctioning":11246,"ĠAugust":11247,"Ġsocket":11248,"ĠMaybe":11249,"Ġcurrency":11250,"commod":11251,"Ġsuffering":11252,"ĠTamb":11253,"Ġfunc":11254,"Ġalien":11255,"Context":11256,"Ġcouple":11257,"olve":11258,"Ð»Ð¾":11259,"Ġcontexts":11260,"Ġtreating":11261,"ĠTele":11262,"à®":11263,"math":11264,"EV":11265,"otive":11266,"Ð¾Ð²Ð¾ÑĢ":11267,"agn":11268,"ĠTu":11269,"Ġonde":11270,"Ġcoe":11271,"ĠAdemÃ¡s":11272,"ĠAustralia":11273,"ĠJour":11274,"ĠEnergy":11275,"Je":11276,"write":11277,"Ġfue":11278,"Ġpairs":11279,"Ġdesigns":11280,"57":11281,"vari":11282,"-mail":11283,"Ġimmig":11284,"ĠFebruary":11285,".change":11286,"ĠÑģÐ¾Ð´":11287,"Ð¸ÑĤÑģÑı":11288,"_window":11289,"'.":11290,"orage":11291,"istory":11292,"ÐµÐ½Ð¸":11293,"carbon":11294,"ĠUI":11295,"ĠDifficulty":11296,"Ġtea":11297,"à¸µ":11298,"ohn":11299,"å·":11300,"Ġfle":11301,"ÃŃc":11302,"Ġaddresses":11303,"Ġengineer":11304,"Ġcontroversial":11305,"Ġthin":11306,"begin":11307,"Ð¾Ð±Ñī":11308,"rican":11309,"ÑĥÐ»ÑĮÑĤÐ°ÑĤ":11310,"eurs":11311,"Ġdistinct":11312,"_model":11313,"ĠCOVID":11314,"Ġpollution":11315,"Ġvelocity":11316,"olean":11317,"Ġoverwhelming":11318,"Ġathletic":11319,"alia":11320,"entials":11321,"Ãªm":11322,"Ð³Ð°Ð½":11323,"Ġpunches":11324,"ĠCrown":11325,"Ġregards":11326,"ablished":11327,"QU":11328,"Ġpresented":11329,"Ġutilisant":11330,"ĠWarriors":11331,"Ġboost":11332,"Claro":11333,"Ġsensor":11334,"lets":11335,"ĠnÃºmeros":11336,"sch":11337,"Ã´n":11338,"ĠÐ½ÑĥÐ¶Ð½Ð¾":11339,"ĠÚ©":11340,"Ġdalla":11341,"itrile":11342,"enger":11343,"Ð°ÑĩÐµÑģÑĤÐ²":11344,"Jack":11345,"page":11346,"Ġfiss":11347,"apes":11348,"ĠClass":11349,"ĠÐ¸ÑģÐ¿Ð¾Ð»ÑĮÐ·Ð¾Ð²Ð°Ð½":11350,"person":11351,"Ġalgorit":11352,"enter":11353,"Ġappoint":11354,"FI":11355,"ĠNatural":11356,"Ġundergo":11357,"Ġvulnerability":11358,"ç§":11359,"aggi":11360,"Box":11361,"izaciÃ³n":11362,"ĠCy":11363,"dit":11364,"Ġitalian":11365,"Ġsmell":11366,"ĠMystery":11367,"ĠspÃ©c":11368,"Ġ});Ċ":11369,"Ġresumen":11370,"ãĥ«":11371,"ðŁĳ":11372,"ĠPhys":11373,"Ġinhib":11374,"ĠÐ¼ÐµÐ¶Ð´Ñĥ":11375,"Ġmesmo":11376,"ìŀ¥":11377,"onal":11378,"Ġbio":11379,"Ġogni":11380,"Ġaxis":11381,"ivot":11382,"ĠOper":11383,"nection":11384,"Ġguarante":11385,"ART":11386,"ĠCost":11387,"193":11388,"Ġextracted":11389,"Ġharness":11390,"Ġexceptional":11391,"agine":11392,"Ġbuffer":11393,"Ġdelay":11394,"appoint":11395,"pat":11396,"Ġnh":11397,"Ġtranslate":11398,"Ġcuriosity":11399,"irk":11400,"Ġjump":11401,"Ġacting":11402,"netes":11403,"ĠPersonal":11404,"-ch":11405,".P":11406,"Ġsam":11407,"ĠÐ½Ð°Ð¹":11408,"ughed":11409,"ught":11410,"Ġshock":11411,"Ġincreases":11412,"*ĊĊ":11413,"istem":11414,"Ġmassage":11415,"ĠÐ¿ÑĢÐ¾Ð±Ð»ÐµÐ¼":11416,"ĠÑĥÐ¼":11417,"abetes":11418,"Ġble":11419,"sum":11420,"Ġmaybe":11421,"zens":11422,"ĠÑĥÐ¿ÑĢÐ°Ð²":11423,"Ġtags":11424,"ĠmÃ©todo":11425,"(arr":11426,"ĠÑĢÐ°":11427,"Ð°ÑĢÑĤ":11428,"Ġpictures":11429,"ìĽ":11430,"pling":11431,"íķĺê³ł":11432,"Ġapple":11433,"Ġfi":11434,"ubernetes":11435,"\\\\":11436,"Ġsia":11437,"ĠÐ´ÑĢÑĥÐ³Ð¸Ñħ":11438,"fess":11439,"Ġpretend":11440,"Ġfort":11441,"Ġlaughed":11442,"Ġplt":11443,"Ġmenc":11444,"Ġperiods":11445,"ĠÑĢÐ°Ð·Ð»Ð¸ÑĩÐ½ÑĭÑħ":11446,"PG":11447,"Ġsexuality":11448,"êµŃ":11449,"hos":11450,"Ġpromotes":11451,"Ġatoms":11452,"Ġourselves":11453,"Ð¸Ð»Ð°":11454,"']Ċ":11455,"arter":11456,"Ġfigures":11457,"Ð´ÐµÑĢÐ¶":11458,"Ġoutfit":11459,"Ġinfections":11460,"OK":11461,"Ġanterior":11462,"Ġtamper":11463,"Yeah":11464,"ĠUSA":11465,"Ġfulfilling":11466,"Ġ\\[":11467,"Ġsalary":11468,"Ġpunishment":11469,"é£":11470,"ŀ×":11471,"Ġsicher":11472,"Ġcres":11473,"ĠHi":11474,"ĠÐ¼Ð¸ÑĢ":11475,"Ġlift":11476,"ancia":11477,"Ġgarden":11478,"Ġexception":11479,"uccess":11480,"ĠÑģÐ¿Ð¾ÑģÐ¾Ð±":11481,"ienza":11482,"Ġoxygen":11483,"Ġrede":11484,"Ġdesaf":11485,"Ġdecimal":11486,"Ġnarration":11487,"Ġrightful":11488,"Ġcats":11489,"Ġsamples":11490,"ÑĢÐ°ÑĤ":11491,"ĠInstagram":11492,"Ġmolto":11493,"Ġpermissions":11494,"Ġlawy":11495,"rÃ©":11496,"ahren":11497,"Index":11498,"please":11499,"Ġsupporting":11500,"Net":11501,"ÐµÑĨ":11502,"Ġclasse":11503,"ĠUSB":11504,"69":11505,"Ġsteel":11506,"ĠKorea":11507,"select":11508,"ÑģÐºÐ¸Ð¹":11509,"ĠÑģÑĤÑĢÐ°Ð½":11510,"Ġhang":11511,"Ġspan":11512,"nh":11513,"Ġdess":11514,"omin":11515,"Ġdebe":11516,"ĠCa":11517,"Ġmystery":11518,"Ġuniversity":11519,"Ġtrapped":11520,"ĠÐ³Ð¾ÑĢ":11521,"untu":11522,"ĠbÃ¡s":11523,"Ġirritation":11524,"é«ĺ":11525,"Ġtomar":11526,"ÑĢÐ¾Ð¼":11527,"Ġparticipants":11528,"ĠOnline":11529,".jpg":11530,"inder":11531,"Ġhistoric":11532,"older":11533,"ÑĭÐ¼":11534,"Ġpushing":11535,"cell":11536,"ĠPo":11537,"arts":11538,"Ġleans":11539,"Ġverificar":11540,"Ġpesticides":11541,"128":11542,"ĠÑģÐ¾Ð´ÐµÑĢÐ¶":11543,"è¨":11544,"Ġsetup":11545,"Ġapresent":11546,"Ġpermet":11547,"Ġsensations":11548,"/A":11549,"Ġpon":11550,"ĠmÃ¶ch":11551,"Ã¼t":11552,"Update":11553,"ĠAutom":11554,"(A":11555,"Ġscream":11556,".\")Ċ":11557,"Ġagencies":11558,"Ġartifact":11559,"Ġevolution":11560,"ĠaplicaciÃ³n":11561,"])ĊĊ":11562,"war":11563,"Ø£":11564,"ãĤī":11565,"uter":11566,"ĠhistÃ³ria":11567,"Ġethnic":11568,"Ġsocied":11569,"ĠServer":11570,"airs":11571,"ÑĢÑĥÐ¶":11572,"Ġhtml":11573,"uda":11574,"ãģı":11575,"Ġseguridad":11576,"Ġtargets":11577,"ĠAsia":11578,"Ġmm":11579,"apore":11580,"Ġfans":11581,"ĠÑģÐ¾Ð²":11582,"ĠÑģÐ¾Ð¾ÑĤ":11583,"Ġsufficient":11584,"Ð°ÐºÑĤ":11585,"ĠBefore":11586,"Ġalgunos":11587,"ĠDaten":11588,"ĠÑģÐ´ÐµÐ»":11589,"**:":11590,"tical":11591,"inth":11592,"Ġsolving":11593,"æŃ":11594,"Ġevaluating":11595,"sl":11596,"Ġcomputation":11597,"à¸§":11598,"å¦":11599,"Ġesto":11600,"Ġexport":11601,"onth":11602,"Ġobtener":11603,"ĠRest":11604,"ãĤĪ":11605,"Ġdisk":11606,"Ġtreatments":11607,"oding":11608,"Ġdozens":11609,"Ġidentificar":11610,".)":11611,"ĠKorean":11612,"FROM":11613,"Message":11614,"ĠÐ±Ð»":11615,"Ġclientes":11616,"Table":11617,"ogether":11618,"Ġhuge":11619,"Ġcontexto":11620,"Ġbiblioteca":11621,"_e":11622,"Ġfilms":11623,"itialPosition":11624,"ÑĥÑĢÑģ":11625,"Ġchromatography":11626,"Ġprend":11627,"Ġimagem":11628,"íĬ¸":11629,"figure":11630,"Ġsurvival":11631,"Ġskept":11632,"Map":11633,"ÐµÐ½Ð°":11634,"ĠÑĤÐ¾Ð¼":11635,"å¥³":11636,"ĠFlor":11637,"09":11638,"Ġproven":11639,"Ġdarkness":11640,"Ġbytes":11641,"Ð¾Ð¿Ð°Ñģ":11642,"Ġfalls":11643,"Ġfond":11644,"ÑĥÑħ":11645,"ÙĬÙĨ":11646,"Ġdivision":11647,"ĠÑĥÐ»ÑĥÑĩÑĪ":11648,"ĠsaÃºde":11649,"Ġhesitant":11650,"ocolate":11651,"acking":11652,"ĠFocus":11653,"erie":11654,"Ġduration":11655,"Ġcaut":11656,"ingu":11657,"Ġsignificance":11658,"Ġrequested":11659,"%)":11660,"Ġpeak":11661,"ncy":11662,"íĦ":11663,"ĠLife":11664,"Ġgreatest":11665,"uct":11666,"-position":11667,"Ġbeat":11668,"Ġrages":11669,"Ð¾ÑĤÑĢ":11670,"Ġchoosing":11671,"Ġ>=":11672,"ĠDi":11673,"Ġperf":11674,"Ġestado":11675,"ĠSoftware":11676,"TT":11677,"Ġstyl":11678,"Ġìłķ":11679,"Ġdiagnosis":11680,"Eu":11681,"quanto":11682,"Ġshame":11683,"Ġcapacidade":11684,"Ġchemistry":11685,"Ġtested":11686,"ÐµÐ½ÑĤÑĭ":11687,"ĠÐ¼ÐµÑģÑĤ":11688,"700":11689,"prene":11690,"Ġfg":11691,"ĠBERT":11692,"EX":11693,"Ġprotagon":11694,"Description":11695,"Ġpropriet":11696,"ĠÐ½ÐµÑģÐºÐ¾Ð»ÑĮÐºÐ¾":11697,"Ġpause":11698,"ĠnÃ¥":11699,"interval":11700,"Ġresultado":11701,"Ġresultados":11702,"ĠPortug":11703,".R":11704,"Ġdriven":11705,"LU":11706,"eros":11707,"Ġintroduce":11708,"Ġcontrib":11709,"Ġsuffers":11710,"Ġbacteria":11711,"ĠBack":11712,"'une":11713,"Ġinclus":11714,"Ġwidesp":11715,"Ġdiscovery":11716,"Ġwidespread":11717,"Ġ(`":11718,"arent":11719,"Ã¡p":11720,"Ġintroduction":11721,"Ġtoy":11722,"Ġnarrow":11723,"ĠGitHub":11724,"Ġgenerator":11725,"Ø²":11726,"Ġtact":11727,"Ġsuicide":11728,"Ġbreaks":11729,"Ġpepper":11730,"Ð°Ð½Ð¸Ð¸":11731,"window":11732,"ä¸ĭ":11733,"Ġenables":11734,"Ġëį":11735,"Ð¾ÑģÑĤÐ¾Ñı":11736,"Ġqualidade":11737,"Ġinstances":11738,"_h":11739,"Ġusada":11740,"Ġupload":11741,"Ġriver":11742,"ĠCorpor":11743,"Ġlights":11744,"\"><":11745,"andom":11746,"itÃ¤t":11747,"eds":11748,"MM":11749,"Ġnitro":11750,"Ġajuda":11751,"oul":11752,"Ġscores":11753,"Ġreads":11754,"_label":11755,"ÑĥÑİÑĤ":11756,"Ġbuscar":11757,"CS":11758,"Ġadjusting":11759,"Ġvacc":11760,"Ã¼ss":11761,"Ġimpressive":11762,"Ġminimal":11763,"ĠÐłÐ¾ÑģÑģ":11764,"ĠÐ¿Ð¾Ð½Ð¸Ð¼":11765,"è§":11766,"ĠTuttavia":11767,"ÑĤÐ¾Ð¼":11768,"Ġrhyth":11769,"Ġinterfaces":11770,"ĠÑĩÐµÐ»Ð¾Ð²ÐµÐº":11771,"dy":11772,"Alternatively":11773,"ìŀħëĭĪëĭ¤":11774,"abeled":11775,"Ġoxid":11776,"Ġnewfound":11777,"ìĹ¬":11778,"Ġredes":11779,"Ġdebt":11780,"Ġmemb":11781,"ĠÎ±":11782,"}}":11783,"itage":11784,"ĠJanuary":11785,"ĠST":11786,"cies":11787,"Ð¸Ð»Ð¾Ð¶":11788,"Ġcasual":11789,"Ġextremely":11790,"andem":11791,"Ġenters":11792,"ĠGreek":11793,"ÑģÑĤÑĢÐ¾Ð¹":11794,"Ġupper":11795,"ĠĠĠĠĠĠĠĠĠĠĠĠĠĠĠĠĠĠĠĠĠĠĠ":11796,"`.Ċ":11797,"Ġcalculations":11798,"Ġvos":11799,"Ġliber":11800,"ego":11801,"field":11802,"watch":11803,"acer":11804,"Ġpainting":11805,"Ġleaned":11806,".is":11807,"ortun":11808,"Ġmoments":11809,"ĠÐŀÐ½Ð°":11810,"Ġschol":11811,"Ġmuitas":11812,"enen":11813,"Ġartists":11814,"Ġelle":11815,"ĠÑĤÐ°":11816,"irector":11817,"ĠÐºÐ¾ÑĢ":11818,"Ġobs":11819,"Ø§Ø¯":11820,"Ġenthus":11821,"Ġbrings":11822,"uling":11823,"Ġpermission":11824,"iale":11825,"ĠÃºlt":11826,"front":11827,"ĠUnity":11828,"Ġtreasure":11829,"Ġbrowse":11830,"LS":11831,"ĠNum":11832,"|Ċ":11833,"uminum":11834,"market":11835,"Ġmeditation":11836,"Ġmate":11837,"odding":11838,"Ġaccommod":11839,"ÃŃcul":11840,"Ġreaders":11841,"ju":11842,"Ġrespuesta":11843,"othe":11844,"stell":11845,"udden":11846,"advantages":11847,"embered":11848,"EM":11849,"Ġgust":11850,"ĠOld":11851,"Ġargs":11852,"ĠÐ¼Ð°ÑĤ":11853,"Ġkeyboard":11854,"Ġunderwear":11855,"ĠHome":11856,"ìĭł":11857,"ĠProm":11858,"ĠTwitter":11859,"Char":11860,"ounced":11861,"ĠHeir":11862,"mean":11863,"Ġnarrative":11864,"Thanks":11865,"Ġattraction":11866,"Ġconect":11867,"Ġparse":11868,"ÙĥÙĨ":11869,"Explanation":11870,"Ġdescriptions":11871,"CÃ³mo":11872,"Ġrecomend":11873,"ĠÐ¾ÑĩÐµÐ½ÑĮ":11874,"ĠÐºÐ°ÑĩÐµÑģÑĤÐ²":11875,"Ġlisted":11876,"Ġdragon":11877,"Ġgall":11878,"apse":11879,"abilidade":11880,"Ġsparkling":11881,"ĠProble":11882,"Ġpacked":11883,"Ġposts":11884,"Ġpsychological":11885,"inen":11886,"abol":11887,"ĠÑĢÐ°Ð·ÑĢÐ°Ð±Ð¾ÑĤ":11888,"Ġboss":11889,"_csv":11890,"-driven":11891,"eps":11892,"ĠHawai":11893,"Ġdol":11894,"ĠÐ¸Ð½ÑĤ":11895,"Ġstead":11896,"apping":11897,"08":11898,"Ġminha":11899,"Ġauthors":11900,"ĠNet":11901,"_type":11902,"Ġdeux":11903,"ĠEsto":11904,"Ġdevast":11905,"ÑĭÐ²Ð°ÑĤÑĮ":11906,"Ġcorretamente":11907,"Ġengines":11908,"Ġelectro":11909,"lass":11910,"¤ĳ":11911,"Ġwaist":11912,"ĠCap":11913,"Ġsans":11914,"Ġnost":11915,"ĠÐ§":11916,"quee":11917,"rons":11918,"Ġpace":11919,"Ġerro":11920,"ĠTailed":11921,"ithub":11922,"Sincerely":11923,"Ġspl":11924,"allization":11925,"Ġinventory":11926,"Ġjournal":11927,"BM":11928,"actor":11929,"ĠBY":11930,"Ġgam":11931,"web":11932,"-ex":11933,"Ã³d":11934,"untar":11935,"ĠSSISTANT":11936,"such":11937,"Ġcoc":11938,"ĠÐ³Ð¾Ð´":11939,"Phone":11940,"ĠGen":11941,"Ġcollege":11942,"ĠÐ²Ð·":11943,"ĠÐ·Ð´":11944,"ĠTre":11945,"Ġminute":11946,"(Smiling":11947,"Ġconsumed":11948,"Ġperguntas":11949,"Ġë°©":11950,"install":11951,"Ġtherapist":11952,"cto":11953,"Ġserial":11954,"ê²Į":11955,"Ġprest":11956,"ĠMySQL":11957,"ĠvÃŃde":11958,"Ġhearing":11959,"Ġwhisper":11960,"Ġmud":11961,"Ġnail":11962,"cu":11963,"ags":11964,"ĠHan":11965,"Ġsyst":11966,"ĠÐ½Ð°Ð´":11967,"Ġêµ":11968,"ĠEvery":11969,"ĠÐ¾Ðº":11970,"Ġdetermining":11971,"Ġshower":11972,"ordo":11973,"Am":11974,"Ġcache":11975,"Ġbear":11976,"ĠOption":11977,"Ġcaress":11978,"ĠDies":11979,"icked":11980,"ĠAnalysis":11981,"Ġsalud":11982,"Ġsensit":11983,"Ġcrisis":11984,"Ġmigli":11985,"Ġrecovery":11986,"anes":11987,"Ġdigest":11988,"ĠÐ¿ÑĢÐ¾Ð¸Ð·Ð²Ð¾Ð´":11989,"las":11990,"Ġtoys":11991,"à¸¡":11992,"ĠâĶ":11993,"Ġporn":11994,"ĠMars":11995,"à¤Ĥ":11996,"Ġef":11997,"Ġcorrected":11998,"Ġvolunte":11999,"Ġthous":12000,"Ġblank":12001,"ĠÑģÐ¾Ð¾ÑĤÐ²ÐµÑĤ":12002,"Ġaggressive":12003,"orse":12004,"iona":12005,"Ġaprendiz":12006,"Ġaiutarti":12007,"çĲ":12008,"ĠdÃ©s":12009,"ÑĢÐ°Ñī":12010,"ĠÑģÐ»ÑĥÑĩ":12011,"Ġtolerance":12012,"ĠAv":12013,"Ġdentro":12014,"bility":12015,"ĠFore":12016,"Ġcontentment":12017,".difficultyLabel":12018,"fa":12019,"Ð¸ÑĪ":12020,"oster":12021,"itan":12022,"imientos":12023,"Click":12024,"Ġteaspoon":12025,"uti":12026,"ispiel":12027,"command":12028,"address":12029,"Ġrepeat":12030,"ham":12031,"edge":12032,"Their":12033,"Ġconcentration":12034,"${":12035,"-axis":12036,"uddenly":12037,"aused":12038,"Ġestable":12039,"Ġuniform":12040,"ĠArch":12041,"ĠSupport":12042,"iÃ§Ãµes":12043,"eling":12044,"ĠMex":12045,"ĠespecÃŃfica":12046,"End":12047,"Ġunw":12048,"hered":12049,"lectual":12050,"à¥Ģ":12051,"Ġdomestic":12052,"Ġproof":12053,"ĠPued":12054,"edy":12055,"Ġexplosives":12056,"RI":12057,"Ġvisiting":12058,"ratic":12059,"ĠPos":12060,"Ġheadquart":12061,"Ø«":12062,"iras":12063,"ucking":12064,"Ġdegli":12065,"urthermore":12066,"Ġreferences":12067,"ĠAnswer":12068,"ĠNote":12069,"apat":12070,"\"\"":12071,"ersion":12072,"Ġdiscussed":12073,"ĠIntelligence":12074,"gging":12075,"ameters":12076,"ydrometry":12077,"Ġpueda":12078,"description":12079,"bies":12080,"Ġecon":12081,"ÐµÑĩÐ½Ð¾":12082,"Ġmirror":12083,"ĠDem":12084,"Ġusuarios":12085,"Ġmillions":12086,"!\")Ċ":12087,"area":12088,"ÃŃtulo":12089,"Ġintegrity":12090,"-carboxylic":12091,"Ġtiny":12092,"Ġmatching":12093,"scss":12094,"elih":12095,"Ġ()":12096,"ĠComputer":12097,"nte":12098,"Ġtransmit":12099,"Ġobjetivos":12100,"uthorized":12101,"Ġforests":12102,"ĠEss":12103,"Ð¾Ð½Ð¾Ð¼":12104,"Ġdil":12105,"embre":12106,"Ġresil":12107,"Ġrare":12108,"Ġyounger":12109,"58":12110,"Ġbrom":12111,"Ġnation":12112,"Ġallerg":12113,"Ġextreme":12114,"Ġprosper":12115,"ĠDuring":12116,"ÑĨÐµÐ½":12117,"Ġcompute":12118,"ĠEnvironment":12119,"Ġyoga":12120,"ĠBest":12121,"Ġclause":12122,"Ġoblig":12123,"Conclusion":12124,"Ġwears":12125,"Ġphilosophical":12126,"Ġmuitos":12127,"ĠTok":12128,"Ġmodello":12129,"Ġthigh":12130,"ĠÐ³Ð»":12131,"Ġfalling":12132,"ĠÑģÑĩ":12133,"Ġcapaz":12134,"Ġconcaten":12135,"elta":12136,"Ġediting":12137,"mica":12138,"Ġconjunto":12139,"abile":12140,"-R":12141,"Ġpuoi":12142,"ĠCollect":12143,"Ġbases":12144,"Ġinteligencia":12145,"ÐĹ":12146,"atz":12147,"ĠÐ¸Ñģ":12148,"ĠContent":12149,"UMB":12150,"Ġwisdom":12151,"ouver":12152,"Ġreasoning":12153,"iÃ£o":12154,"su":12155,"Ġtexts":12156,"TF":12157,"ĠfÃ¡c":12158,"ĠSales":12159,"ĠYear":12160,"Ġhandled":12161,"Ġcalidad":12162,"Ġhanno":12163,".out":12164,"Ġoffic":12165,"orare":12166,"Ġproport":12167,"ÐµÑĢÐ°":12168,"Ġarrays":12169,"ÑĢÑĥÐ¿":12170,"Ġdestruction":12171,"ÐºÑĢÐµÑĤ":12172,"elihood":12173,"Ġsne":12174,"izable":12175,"ĠrelaÃ§Ã£o":12176,"Ġunauthorized":12177,"Stream":12178,"part":12179,"-su":12180,"ĠÐ¿Ð¾Ð¼Ð¾Ð³":12181,"iotics":12182,"-positioned":12183,"Ġ/>Ċ":12184,"Ġê·¸":12185,"Ġalguns":12186,"Ġoccup":12187,"Ġcow":12188,"perty":12189,"Ġattractions":12190,"Ġacess":12191,"Ġjoint":12192,"Ġreplied":12193,"fits":12194,"Ġproget":12195,"Ġteeth":12196,"Ġoportun":12197,"aceted":12198,"'):Ċ":12199,"Ġgear":12200,"ĠLas":12201,"ilet":12202,"ĠMa":12203,"ĠDNA":12204,"110":12205,"56":12206,"Ġconversational":12207,"Ġconvenient":12208,"idge":12209,"Ð¾ÑĢÐ¾ÑĪ":12210,"ĠtravÃ©s":12211,"Ġfissile":12212,"Ġactively":12213,"å®ĥå®ĥå®ĥå®ĥå®ĥå®ĥå®ĥå®ĥå®ĥå®ĥå®ĥå®ĥå®ĥå®ĥå®ĥå®ĥ":12214,"ognition":12215,"Ġsulfur":12216,"late":12217,"leading":12218,"otechnology":12219,"olution":12220,"-size":12221,"Ġshorter":12222,"Test":12223,"akers":12224,"Ġlegend":12225,"Ġvacuum":12226,"Ġecst":12227,"iller":12228,"Ġzum":12229,"........":12230,"Python":12231,"Ġtels":12232,"oral":12233,"Ġstatistics":12234,"ĠÐ¿ÐµÑĢÐµÐ´":12235,"Dis":12236,"Ġshowed":12237,"ĠdiffÃ©rent":12238,"ĠFrauen":12239,"ĠBed":12240,"Ġinfection":12241,"ĠHy":12242,"Interval":12243,"Ġjokes":12244,"Ġexpressing":12245,"Ġwinning":12246,"Ġfilters":12247,"ĠÑĢÐµÐ·ÑĥÐ»ÑĮÑĤÐ°ÑĤ":12248,"Ġconsistently":12249,"Â³":12250,"ads":12251,"erer":12252,"ĠHay":12253,"Ġjogo":12254,"via":12255,"ruit":12256,"uesto":12257,"Ġtransmission":12258,"à¦¾":12259,"Ġflowing":12260,"Ġinherent":12261,"Ġmatplotlib":12262,"æı":12263,"Ġgenerale":12264,"ĠÐ±ÐµÐ·Ð¾Ð¿Ð°Ñģ":12265,"Ġuntuk":12266,"Ġinflammation":12267,"Ġunter":12268,"raction":12269,"Ġfinanci":12270,"ishing":12271,"afety":12272,"Def":12273,"Ġcad":12274,"ÑĨÐ¸Ð¸":12275,"Ġlightweight":12276,"ĠParty":12277,"ĠSpace":12278,"å®ĥåı¯ä»¥å®ĥåı¯ä»¥å®ĥåı¯ä»¥å®ĥåı¯ä»¥":12279,"avors":12280,"Instead":12281,"ĠFlorida":12282,"Ġcryptocurrency":12283,".println":12284,"ĠÑģÐ¾Ð¾ÑĤÐ²ÐµÑĤÑģÑĤÐ²":12285,"Ġoral":12286,"orthern":12287,"Ġrating":12288,"Ġsubstances":12289,"ÃŃnÃŃn":12290,"Ġoverwhelmed":12291,"ĠÃ©l":12292,"}\",":12293,"Ġwine":12294,"ĠBecause":12295,"íĻĶ":12296,"';ĊĊ":12297,"ĠGesch":12298,"Ġrust":12299,"Ġshop":12300,"Ġbasics":12301,"Ġisolation":12302,"Ġendpoint":12303,"Ġtast":12304,"ĠAR":12305,"Ġinterpre":12306,"Ġnucle":12307,"ĠnÃ©cess":12308,"ĠDiscuss":12309,"Ġdisrespectful":12310,"Ġmyth":12311,"inda":12312,"Ġderog":12313,"ĠTeam":12314,"ĠCore":12315,"BS":12316,"Ġdepression":12317,"apple":12318,"cv":12319,"Ġnumero":12320,"Ġinspired":12321,"-res":12322,"Ġtextile":12323,"Ġmont":12324,"Ġshut":12325,"ĠColl":12326,"rific":12327,"Ġsoph":12328,"ĠBig":12329,"ĠÐ¾Ð±Ð»Ð°ÑģÑĤ":12330,"Che":12331,"Ġzw":12332,"Ġtrov":12333,"'an":12334,"ffe":12335,"æĸĩ":12336,"\"></":12337,"Ġtroubles":12338,"\":ĊĊ":12339,"Her":12340,"ĠCall":12341,"ĠÐºÐ¾Ð½ÐºÑĢÐµÑĤ":12342,"BT":12343,"eed":12344,"Ġsymbols":12345,"ÑĤÐ¾Ñĩ":12346,"Ð²ÐµÑģÑĤ":12347,"Ġdesigning":12348,"Ġincluem":12349,"ĠChem":12350,"Ġerection":12351,"Ð¸ÑĢÐ¾Ð²Ð°Ð½Ð¸Ñı":12352,"è§ģ":12353,"rote":12354,"Ġdepicted":12355,"Ġcere":12356,"itting":12357,"Ġgost":12358,"Ġhoping":12359,"-commerce":12360,"Ġemphasize":12361,"oT":12362,"predict":12363,"ometers":12364,"ĠExtract":12365,"Ġmitigate":12366,"ìĻĢ":12367,"stellen":12368,"ĠSil":12369,"Ġservidor":12370,"rolog":12371,"ãģ§ãģį":12372,"Ġaccessed":12373,"ĠÑĤÐµÑħÐ½Ð¾Ð»Ð¾Ð³":12374,"Ð¯":12375,"Ġcute":12376,"ãĤģ":12377,"à¤¨":12378,"Ġpublicly":12379,"entralized":12380,"ĠÑģÐ¾Ð·Ð´Ð°Ð½Ð¸Ñı":12381,"roc":12382,"aml":12383,"Ġunsure":12384,"Hand":12385,"Ġobserved":12386,"Ġabstract":12387,"ĠBC":12388,"Ġgrass":12389,"Ġcontainers":12390,"Ġcoefficient":12391,"Ġscr":12392,"Ġpasta":12393,"ĠÐ·Ð°Ð¿ÑĢÐ¾Ñģ":12394,"ĠÐ¾Ð±ÑĢÐ°Ð·Ð¾Ð¼":12395,"Ġencoding":12396,"Ġdimension":12397,"Ġdelicate":12398,"Ġcalculation":12399,"Ġpreoc":12400,"Ġintegrate":12401,"Ġopponent":12402,"forder":12403,"Ġconventional":12404,"Ġmeine":12405,"æĦ":12406,"ĠWHERE":12407,"ä½¿":12408,"OP":12409,"ktion":12410,"ĠInstit":12411,"Ġbuttons":12412,"Ġderogatory":12413,"ports":12414,"ĠprÃ³p":12415,"draw":12416,"Ġmascul":12417,"eda":12418,"ĠÑĤÑĢÐµÐ±":12419,"Ġpic":12420,"Ġhurtful":12421,"zip":12422,"Ġenjoyable":12423,"Ġaltri":12424,"izzare":12425,"Ġmolte":12426,"ĠÐ±ÑĭÐ»Ð°":12427,"Ġbombs":12428,"-methoxy":12429,"Ġfilt":12430,".array":12431,"Ġfunzione":12432,"Ġlavoro":12433,"Ġprocessor":12434,"-ÑĤÐ¾":12435,"ford":12436,"normal":12437,"inent":12438,"Ġinfer":12439,"show":12440,"ĠCustom":12441,"Ġutiliser":12442,"`Ċ":12443,"Ġdisappoint":12444,"unden":12445,"ĠDeep":12446,"Å¼y":12447,"pi":12448,"Ġcontinuously":12449,"ÑĭÐ²Ð°ÐµÑĤ":12450,"Ġtf":12451,"įà¦":12452,"ĠEast":12453,"ÎµÎ¹":12454,"ĠÑįÑĤÐ¾Ð¼":12455,"ĠKingdom":12456,"Ġabsolute":12457,"é¢ĺ":12458,"Ġhabits":12459,"ĠpodrÃŃa":12460,"Ġtitles":12461,"ativas":12462,"Ġdispositivo":12463,"mal":12464,"×ľ":12465,"Ġshy":12466,"Ġsexist":12467,"Ġacceptance":12468,"ĠÐ¤":12469,"Ġcrew":12470,"Ġsunlight":12471,"Ġedges":12472,"Ġeles":12473,"Ġvocabulary":12474,"ĠCi":12475,"Ġplate":12476,"INE":12477,"-value":12478,".Game":12479,"ainfall":12480,"ĠÑģÐ¾Ð¾Ð±Ñī":12481,"hydr":12482,"uis":12483,"ì²":12484,"ĠHa":12485,"Ġguer":12486,"Ġsmoke":12487,"ĠÑģÐ²ÑıÐ·Ð°Ð½":12488,"entry":12489,"Ġadhes":12490,"Ġtrabalho":12491,"à§įà¦":12492,"Ġprinciple":12493,"orre":12494,"oded":12495,"Ġfunding":12496,"Ġgolden":12497,"...ĊĊ":12498,"Ġcub":12499,"Act":12500,"cm":12501,"Ġtired":12502,"Ġincom":12503,"url":12504,"ividades":12505,"æľīä»Ģä¹Ī":12506,"ĠDocker":12507,"Ġintric":12508,"Ġinterpreted":12509,"Ġusuario":12510,"Ġsolicit":12511,"ĠJewish":12512,"-performance":12513,"iant":12514,"Ġíķľ":12515,"Ġenquanto":12516,"ĠFound":12517,"abla":12518,"Ġsimilarity":12519,"EE":12520,"Ġarom":12521,"Ġdeny":12522,"Ġecstasy":12523,"Ġerect":12524,"Ġotherwise":12525,"ĠÐ²ÑĭÑģ":12526,"Ġaccomplish":12527,"ĠÑįÑĦÑĦÐµÐºÑĤÐ¸Ð²":12528,"unos":12529,"Ġprogramm":12530,"Ġupdating":12531,"Ġcodes":12532,"vos":12533,"lesh":12534,"umbled":12535,"ĠCustomer":12536,"Ġentrada":12537,"Ġhospital":12538,"NLP":12539,"Ðķ":12540,"ĨĮ":12541,"heart":12542,"ĠÐ¿ÑĢÐµÐ´Ð»":12543,"ĠSovi":12544,"-def":12545,"ĠFine":12546,"oked":12547,"Ġoutdoor":12548,".id":12549,"Ġadjustments":12550,"Ġradiation":12551,"Ġoferece":12552,"ĠFrancisco":12553,"Ġnn":12554,"ylate":12555,"holder":12556,"98":12557,"ÐµÐ½Ð¸ÐµÐ¼":12558,"102":12559,"Ġremembered":12560,"Ġreflection":12561,"Ġanderen":12562,"Ġhydroly":12563,".ĊĊĊĊ":12564,"Ġintu":12565,"Ġautomotive":12566,"-I":12567,"AH":12568,"_input":12569,"ĠfÃ¡cil":12570,"ëħ":12571,"Ġawards":12572,"answer":12573,"Ġraz":12574,"Ġgases":12575,"ĠCependant":12576,"Ġrit":12577,"Ġunsett":12578,"bir":12579,"ĠĠĠĠĊĠĠĠĠĊ":12580,"Ġtechnological":12581,"Ġgloves":12582,"Ġidi":12583,"pan":12584,"ĠBitB":12585,"å¾Ī":12586,"Ġapro":12587,"Ġsubtract":12588,"empor":12589,"ikan":12590,"Ġfell":12591,"uma":12592,"Ġnecessidades":12593,"ĠAny":12594,"Ġmischievous":12595,"ĠGraph":12596,"ĠRegular":12597,"Ġverwendet":12598,"[-":12599,"Ġtuple":12600,"abling":12601,"Ġfacts":12602,"_index":12603,"Ġaer":12604,"antum":12605,"ĠRequest":12606,"ieurs":12607,"_P":12608,"ĠBet":12609,"Ġhowever":12610,"Ġdelight":12611,"ĠTemperature":12612,"Ð¸ÑĤÐµÐ»":12613,"iture":12614,"Ġdash":12615,"annel":12616,"ĠAfrican":12617,"Ġmanufacturers":12618,"_se":12619,"Ġpir":12620,"ivate":12621,"hers":12622,"Ġciphertext":12623,"embly":12624,"ĠTitle":12625,"ĠÐ¾ÑĢÐ³Ð°Ð½":12626,"Ġdisorder":12627,"Ġended":12628,"Ġstoring":12629,"Ġmemorable":12630,"Ġgel":12631,"Ġpapers":12632,"Ġtire":12633,"ago":12634,"hex":12635,"rape":12636,"ĠVal":12637,"Ġfinger":12638,"Ġunsettling":12639,"YL":12640,"ĠWenn":12641,"Ã¢n":12642,"Ġfrag":12643,"ĠÑįÑĤÐ¾Ð³Ð¾":12644,"Ġlunch":12645,"ateur":12646,"Ġìĭľ":12647,"ÃŃan":12648,"git":12649,"empre":12650,"Ġayuda":12651,"Ġmelhorar":12652,"ĠÐ¿Ð¾Ð¼Ð¾ÑīÑĮÑİ":12653,"ĠÐ´Ð¾Ð±Ð°Ð²":12654,"Ġì§Ģ":12655,"ĠHier":12656,"ĠMuslim":12657,"Ġmaneira":12658,"Ð»ÐµÐ´":12659,"agues":12660,"à¸ª":12661,"å½¼å¥³":12662,"Cur":12663,"dings":12664,"Ġcrowd":12665,"Ġaircraft":12666,"utral":12667,"conomic":12668,"Ġperceived":12669,"orie":12670,"Ð½Ðµ":12671,"Ġfootball":12672,"Ġmad":12673,"ä¸Ĭ":12674,"Ġbatt":12675,"ĠÑĩÐµÑĢ":12676,"ugu":12677,"ä¸įåı¯":12678,"è´":12679,"ĠCr":12680,"ĠDigital":12681,"Ġrecently":12682,"Ġbuying":12683,"191":12684,"rutura":12685,"Ġrephr":12686,"ĠSearch":12687,"(result":12688,"Build":12689,"ĠNOT":12690,"Ġfunny":12691,"Ġcoast":12692,"GameState":12693,"ĠInformationen":12694,"ĠBitBake":12695,"Ġbusca":12696,"54":12697,"umer":12698,"Ġportray":12699,"Ġcarrying":12700,"Ð¢Ð°Ðº":12701,"ĠTambiÃ©n":12702,"igned":12703,"Ġhypothet":12704,"Ġsrc":12705,"Ġestou":12706,"ĠâĤ¬":12707,"Ġdisorders":12708,"ĠÐ´ÐµÐ¹ÑģÑĤÐ²":12709,"Ġdistrib":12710,"CV":12711,"NG":12712,"Ġnails":12713,"Ġwillingness":12714,"Ġextraction":12715,"Ġcrystal":12716,"Ġtears":12717,"buntu":12718,"pie":12719,"ĠClimate":12720,"ĠÐ¿Ð¾Ð´Ð´ÐµÑĢÐ¶":12721,"\\]":12722,"pend":12723,"Ġexemple":12724,"ĠPur":12725,"Ġaccord":12726,"Ġsiguiente":12727,"onde":12728,"Ġnetworking":12729,"ĠCR":12730,"heng":12731,".ch":12732,"Ġfought":12733,"Ġconfigured":12734,"Ġhypothes":12735,"_length":12736,"Ġcompetitors":12737,"Ġwurde":12738,"íĦ°":12739,"ĠCEO":12740,"ĠØ´":12741,"Ġscared":12742,"Ġreagent":12743,"Ġarise":12744,"ĠXML":12745,"Ġconstructive":12746,"ĠserviÃ§os":12747,"ĠDetermine":12748,"Ġpodemos":12749,"âĢľ":12750,"Ãī":12751,"Ġpesquis":12752,"Ġlubric":12753,"Ġprofound":12754,"Ġspreading":12755,"Ð¾Ð±ÑĢÐ°Ð¶":12756,"Ġcer":12757,"ushes":12758,"Ġinvestigate":12759,"Ġdesktop":12760,"Ġdiabetes":12761,"uelle":12762,"inecraft":12763,"ĠKubernetes":12764,"ãģĤãĤĬ":12765,"Ġthroat":12766,"vable":12767,"...\"":12768,"Ġaffects":12769,"Ġtak":12770,"Ġdiscount":12771,"ĠÐ²ÐºÐ»ÑİÑĩÐ°Ñı":12772,"ĠMount":12773,"\"]Ċ":12774,"æĬ":12775,"456":12776,"Ġjedoch":12777,"Ġcoatings":12778,"egur":12779,"ĠÐ¸Ð½ÑĦÐ¾ÑĢÐ¼Ð°ÑĨÐ¸Ñİ":12780,"ĠMarketing":12781,"ois":12782,"Ġacesso":12783,"Ð¸Ð¼Ð¾ÑģÑĤÐ¸":12784,"Product":12785,"Ġcorrespond":12786,"ĠespaÃ±":12787,"esser":12788,"IL":12789,"ĠEvent":12790,"ĠLong":12791,"Ġgalaxy":12792,"Ġrubber":12793,"apor":12794,"Ġentirely":12795,"Ġmie":12796,"ĠQue":12797,"pecific":12798,"001":12799,"-off":12800,"æĮ":12801,"Web":12802,"çĶŁ":12803,"Ġalgunas":12804,"Ð¾Ð¶Ð°Ð»":12805,"Ġnutr":12806,"Ġcic":12807,"Ġgat":12808,"Ġforecast":12809,"Ġstaying":12810,"arc":12811,"Ġ(-":12812,".score":12813,"Ġphenomen":12814,"=f":12815,"Ġfrequently":12816,"Ġseeds":12817,"Ġtense":12818,"Ġcheeks":12819,"Ġacces":12820,"Ġaluminum":12821,"Ġproviders":12822,"Ġtalents":12823,"Ġ...":12824,"Ġhack":12825,"Ġconsumers":12826,"Ġcruel":12827,"ĠÐºÐ¾Ð»Ð¸ÑĩÐµ":12828,"Ġpushed":12829,"lean":12830,"rooms":12831,"Ġreceiving":12832,"Ġsubjects":12833,"íĺ":12834,"ĠEla":12835,"ìłľ":12836,"Ġsoll":12837,"okenizer":12838,"âķ":12839,"Ġnan":12840,"ÑĥÐº":12841,"anghai":12842,"Ġscent":12843,"Ġze":12844,"ÐµÐºÐ¾ÑĤÐ¾ÑĢÑĭÐµ":12845,"Bl":12846,"Ġlon":12847,"riage":12848,"ĠWill":12849,"ÐµÐ½Ð½ÑĭÑħ":12850,"Ð»Ð¸ÑĨ":12851,"Ġmultif":12852,"ĠÐ¿ÑĢÐ¸Ð»Ð¾Ð¶":12853,"aining":12854,"Where":12855,"Ġmater":12856,"Ġattempts":12857,"Ã¨res":12858,"Ġresolver":12859,"-v":12860,"ĠAC":12861,"Ġpaths":12862,"Ġdiese":12863,"Ġtipos":12864,"resti":12865,"uir":12866,"None":12867,"ãĥ©":12868,"Ġinnocent":12869,"Ġpenal":12870,"ucks":12871,"Ġlu":12872,"Ġva":12873,"Ġlying":12874,"-pyrid":12875,"ĠRemove":12876,"mates":12877,"Ġgaze":12878,"ĠCert":12879,"Ġurban":12880,"à¸²à¸£":12881,"Ġbonds":12882,"Ġaffordable":12883,"Ġmehr":12884,"Ġeinfach":12885,"ãģĵãģ¨ãģĮ":12886,"PP":12887,"Ġscripts":12888,"ride":12889,"erved":12890,"anas":12891,"ataset":12892,"Ġequivalent":12893,"pow":12894,"Ġservicios":12895,"Ġauthentic":12896,"Ġdangers":12897,"aste":12898,"ĠÂ«":12899,"ÐµÐ±Ðµ":12900,"ÑĢÐ°ÑĦ":12901,"\"The":12902,"orig":12903,"å¸®åĬ©":12904,"Ġequil":12905,"Ġthrow":12906,"ĠHar":12907,"Ġtelevision":12908,"Ġqualities":12909,"Ġevitar":12910,"Ġestrat":12911,"ĠTH":12912,"Ġconex":12913,"gged":12914,"Ġpursue":12915,"Ġtransmitted":12916,"localhost":12917,"ãĥ¼ãĤ":12918,"ĠItaly":12919,"Ġapplicable":12920,"53":12921,"Ġgenerative":12922,"Ġsmiles":12923,"Ġrequirement":12924,".model":12925,"ĠÑĢÐ°Ð±Ð¾ÑĤÑĭ":12926,"Ġtechnicians":12927,"ierung":12928,"ĠØ§ÙĦØ¹":12929,"ĠÐ¸Ð½ÑĦÐ¾ÑĢÐ¼Ð°ÑĨÐ¸Ð¸":12930,"Ð½ÐµÑĢ":12931,"ÑģÐºÐ¾Ð¹":12932,"job":12933,"Ġpil":12934,"ĠBen":12935,"Ġtheoretical":12936,"'ac":12937,"BO":12938,"Ġhelfen":12939,"_in":12940,"Ġcondensation":12941,"Ġvectors":12942,"Ġseparated":12943,"ĠSingapore":12944,"outer":12945,"ĠBund":12946,"ĠAsk":12947,"ployment":12948,"transform":12949,"ĠÐºÐ¾Ð³Ð´Ð°":12950,"Ġaccidents":12951,"Ġlosing":12952,"Ġfertil":12953,"Ġzone":12954,"ĠcaracterÃŃsticas":12955,".changeDirection":12956,"Ġunders":12957,"Ġcantidad":12958,"Ġdating":12959,"puter":12960,"location":12961,"Ġimmer":12962,"ãĥª":12963,"Ġambient":12964,"sche":12965,".sh":12966,"Ġaid":12967,"ÑĥÑĥ":12968,"Ġintens":12969,"ĠCond":12970,"ĠÐŀÐ±":12971,"-W":12972,"ĠNÃ£o":12973,"Ġtraditions":12974,"lessly":12975,"Ġaumentar":12976,"Si":12977,"Ġbou":12978,"Ġformato":12979,"DI":12980,"omas":12981,"ulares":12982,"åŃĲ":12983,"ĠOptim":12984,"hydro":12985,"Ġguy":12986,"Ġextens":12987,"Ġachievements":12988,"ĠÐ¿Ð¾Ð·Ð²Ð¾Ð»ÑıÐµÑĤ":12989,"Example":12990,"Ġng":12991,"æĻ":12992,"Ġven":12993,"Ġanimation":12994,"Ġnods":12995,"ÑĢÑĥÐ·":12996,"Ġantibiotics":12997,"ĠÃľ":12998,"Ġthoroughly":12999,"Ġperman":13000,"Ġsweat":13001,"Ġresumo":13002,"ĠFour":13003,"-tune":13004,"Ġchampions":13005,"Ġhistoria":13006,"ĠÐĶÐ»Ñı":13007,"Ġcooperation":13008,"(g":13009,"ë³´":13010,"]-":13011,"ĠSimp":13012,"Ġpandem":13013,"Ġware":13014,"Ġprecise":13015,"Ġplusieurs":13016,"Ġneighborhood":13017,"å¤ļ":13018,"Ġigual":13019,"=False":13020,"Ġ;":13021,"emplos":13022,"Ġwindows":13023,"ĠTai":13024,"Ġactress":13025,"ĠÐ³Ð´Ðµ":13026,"oriented":13027,"Ġvess":13028,"ÐµÐºÑģ":13029,"Ġinconven":13030,"Ġalter":13031,"Ð¸Ð²ÐµÑĤ":13032,"Ġutilizzato":13033,"Ġgut":13034,"ĠSen":13035,"Ġfake":13036,"ifs":13037,"ĠØ§ÙĦØ£":13038,"Ġhobby":13039,"Ġhypothetical":13040,"Ġmisleading":13041,"Ð¸ÑĩÐµÑģÐºÐ¸Ðµ":13042,"¹Ħ":13043,"Ġedit":13044,"PR":13045,"isions":13046,"ĠGB":13047,"ĠProt":13048,"Ġtech":13049,"Max":13050,"Ġrank":13051,"Ġswimming":13052,"Ġproceso":13053,"ÐµÐ½ÑĤÐ°":13054,"\\'":13055,"rir":13056,"ogg":13057,"uffer":13058,"Ġ×Ķ×":13059,"Ġmotivation":13060,"Ġrelaxation":13061,"(difficulty":13062,"ĠanÃ¡lise":13063,"Ġsquee":13064,"ĠÐ½Ð°Ð·":13065,"WHERE":13066,"Ġtort":13067,"Ġandere":13068,"Ġjoining":13069,".after":13070,"51":13071,"Ġcrops":13072,"Att":13073,"Ġsees":13074,"ogo":13075,"Ġvolat":13076,"Ġwarning":13077,"Ġbirthday":13078,"VIDIA":13079,"build":13080,"oved":13081,"Ġcorpo":13082,"Ġ\"Ċ":13083,"Ġclassical":13084,"ĠTrad":13085,"Ġencrypted":13086,"ĠÐ¼ÐµÐ½Ñı":13087,"Ġmeasured":13088,"names":13089,"Ġcomparing":13090,"Ġseine":13091,"gredient":13092,"Ġhint":13093,"Ð»Ð°Ð´":13094,"Ġjur":13095,"à¤¿à¤":13096,"acht":13097,"Ġpopularity":13098,"ÑĨÐ¸Ð¾Ð½":13099,"help":13100,"Ġreform":13101,".png":13102,"anium":13103,"obile":13104,"Ġcybersecurity":13105,"kit":13106,"Ġmoaned":13107,"Ġclinical":13108,"leted":13109,"Entry":13110,"Ġscalable":13111,"ÑĢÐµÐ±":13112,"%,":13113,"Ġvet":13114,"ĠHel":13115,"Ġgameplay":13116,"à¸Ħ":13117,"_numbers":13118,"-methylp":13119,"role":13120,"Ġaltre":13121,"())":13122,"Ġcoverage":13123,"à¸¥":13124,"Ġsoluble":13125,"Ġphenomenon":13126,"ĠPers":13127,"Ġvariar":13128,"Ġspring":13129,"Ġprodutos":13130,"æİ":13131,"Ġdestin":13132,"Ġschema":13133,"å¹´":13134,"Ġdesert":13135,"Ġrecher":13136,"Ġsup":13137,"Ġkh":13138,"Ġtraits":13139,"âĢĻt":13140,"ĠÑħÐ¾ÑĤÐ¸ÑĤÐµ":13141,"Ġgone":13142,"ĠCorporation":13143,"asc":13144,"arsh":13145,"Ġcontrolling":13146,"halten":13147,"Ġfederal":13148,"Ġsends":13149,"Ġviele":13150,"ëª":13151,"Ġfourn":13152,"Ag":13153,"Ġcertificate":13154,"Ġwake":13155,"Ġdesper":13156,"Ġidentific":13157,"Ġentreprene":13158,"Ð¸Ð½Ð³":13159,"razine":13160,"æĤ¨":13161,"necess":13162,"Ġìļ":13163,"ĠwÃ¼r":13164,"ĠSound":13165,"racy":13166,"hop":13167,"Ġbias":13168,"Ġconstructor":13169,"Ġloving":13170,"Ġtemps":13171,"ĠÐºÐ°ÐºÐ¸Ðµ":13172,"itative":13173,"Ġstructured":13174,".keras":13175,"Ġtough":13176,"rael":13177,"Ġfascinating":13178,"ãģ£":13179,"Ġgiant":13180,"xxxx":13181,"Ð¾Ð½ÐµÑĩÐ½Ð¾":13182,"ĠíĻ":13183,"HTML":13184,"ĠApache":13185,"ĠConst":13186,"ĠestratÃ©g":13187,"Ġllev":13188,"ÑĥÑģÑĤ":13189,"Ġattempting":13190,"Ġpipeline":13191,"pol":13192,"Ġcin":13193,"ĠserÃ¡":13194,"ĠExample":13195,"Ġignore":13196,"Ġlock":13197,"Ġgan":13198,"ĠUN":13199,"dis":13200,"Ġul":13201,"Ġhobbies":13202,"Sl":13203,"_str":13204,"Ġcharacteristic":13205,"Ġthanks":13206,"ĠTO":13207,"Ġimagens":13208,"ÑİÑĤÑģÑı":13209,"iros":13210,"Ġshel":13211,"Ġassume":13212,"marks":13213,"Ġinjuries":13214,"Ġaura":13215,"Ġsensitivity":13216,"ĠLink":13217,"ioxid":13218,"Ġworkplace":13219,".data":13220,"ĠdÃ©cou":13221,"Qt":13222,"'il":13223,"ildren":13224,"ĠSl":13225,"Ġjuego":13226,"ĠRiver":13227,"header":13228,"ĠInsert":13229,"azz":13230,"Ġincent":13231,"Ġnorms":13232,"Ġintimacy":13233,"ĠÑĦÐ°Ð¹Ð»":13234,"ĠMenschen":13235,"ĠØ§Ø³Øª":13236,"Ġbill":13237,"Ġworkout":13238,"Ġteasing":13239,"Ġhorror":13240,"Ġviolent":13241,"Ġapt":13242,"Ġrewards":13243,"ifluor":13244,"ĠÐ½ÐµÐ¾Ð±ÑħÐ¾Ð´Ð¸Ð¼Ð¾":13245,"prises":13246,"Ġpayments":13247,"Ġmalware":13248,"Ġneu":13249,"Ġpersone":13250,"Ġstone":13251,"ÑĥÐ°Ð»ÑĮ":13252,"block":13253,"ĠViet":13254,"Ġinsight":13255,"ĠIndustrial":13256,"roduct":13257,"ĠSpring":13258,"ĠÑĢÐ°Ð´":13259,"Ġexplained":13260,"appe":13261,"Ġtaxes":13262,"Just":13263,"Ġasleep":13264,"prime":13265,"Ġcautious":13266,"´Ģ":13267,".main":13268,"itudes":13269,"erta":13270,"Ġrealization":13271,"Ġprediction":13272,"ÑģÐ»ÐµÐ´":13273,"ĠEt":13274,"Ġqueue":13275,"Ġaddressed":13276,"Ġhandsome":13277,"ĠdÃ©vel":13278,"Ġdisposal":13279,"Ġflesh":13280,"ulas":13281,"-G":13282,"iat":13283,"ì¹":13284,"Ġsexually":13285,"Ġcardio":13286,"ä¼ļ":13287,"ĠÃ³":13288,"Ġhund":13289,"Ġlabeled":13290,"Ġorange":13291,"question":13292,"Ġrisp":13293,"Ġcontinuing":13294,"Ð°ÑİÑĤÑģÑı":13295,"Ġlies":13296,"Ġgraphic":13297,"Ġincorporate":13298,"Use":13299,"abled":13300,"Ġintegral":13301,"iu":13302,"bt":13303,"ĠKon":13304,"Ġminer":13305,"-free":13306,"pir":13307,"ĠDr":13308,"Age":13309,"Ð¸Ð½Ñĭ":13310,"yrinth":13311,"Ġseat":13312,"angzhou":13313,"ĠÑĢÐ°ÑģÐ¿":13314,"Result":13315,"ĠProte":13316,"Ġarrange":13317,"ĊĊĊĊ":13318,"Ġnuo":13319,"Ġdraft":13320,"Ġpointer":13321,"Ġconstit":13322,"Ġautomated":13323,"Ð¸ÑĩÐµÑģÐºÐ¸Ñħ":13324,"ĠSoviet":13325,"æ¬":13326,"Ġcela":13327,"Ġpleasuring":13328,"ĠÐ±ÑĭÐ»Ð¸":13329,"Ø¨ÙĬ":13330,"Ĥ¹":13331,"Ġatra":13332,"Ġinfluential":13333,"Ġsaber":13334,"ĠÐ·Ð°Ð±":13335,"Ð¸ÑĤÑĥ":13336,"Ø¯ÙĬ":13337,"ĠusuÃ¡rios":13338,"Ġappreciation":13339,"Welcome":13340,"Ġfrequent":13341,"ĠÐ½Ð¾Ð²":13342,"Ġbehave":13343,"Ġcycl":13344,"Â»":13345,"Ġadvancements":13346,"çī©":13347,"Ġhall":13348,"_dir":13349,"Ġteen":13350,"Ġgrado":13351,"Ġquantity":13352,"gypt":13353,"ĠRub":13354,"Ġestilo":13355,"Ġconsensual":13356,"Ġimpl":13357,"Ġchances":13358,"-party":13359,"Ġhomes":13360,"Ġfrustration":13361,"Ġalb":13362,"Ġdecentralized":13363,"Ġadjusted":13364,"Ġisolated":13365,"ĠSum":13366,"Ġcomposed":13367,"wall":13368,"Ø°":13369,"ĠÑĢÑĥÑģ":13370,"ĠEmily":13371,"'].":13372,"/>Ċ":13373,"Ġsz":13374,"ĠCult":13375,"ÐµÑĤÐ°":13376,"_message":13377,"ç´":13378,"render":13379,"ĠEnjoy":13380,"ĠinteligÃªncia":13381,"Ġcampaigns":13382,"Ġferramentas":13383,"<!":13384,"Ġgun":13385,"Ġscientist":13386,"ĠÐ¿Ð¾Ð»ÑĮÐ·Ð¾Ð²Ð°ÑĤÐµÐ»":13387,"ĠMer":13388,"à¸¢":13389,"ĠÐĴÐ¾ÑĤ":13390,"ĠðŁĴ":13391,"Ġsubmission":13392,"Ġmeu":13393,"ĠprogramaciÃ³n":13394,"ĠShare":13395,"voice":13396,"Ġreveal":13397,"<html":13398,"Ġpotato":13399,"Ġemails":13400,"Ġsoy":13401,"IGHT":13402,"Ġfro":13403,"keley":13404,"google":13405,"pygame":13406,"Ġlessons":13407,"'autres":13408,"éĹ®é¢ĺ":13409,"86":13410,"Ð¸ÐµÐ¹":13411,"ĠAG":13412,"ĠDAN":13413,"Ġworker":13414,"istor":13415,"Ġimplies":13416,"Ġpubblic":13417,"(e":13418,"Ġlid":13419,"Ġchocolate":13420,"Ġshr":13421,"Ġcouch":13422,"Ġarmaz":13423,"Ġodor":13424,"Ġunus":13425,"ĠGeneral":13426,"Ġcyl":13427,"Ġhaven":13428,"Ġconducting":13429,"Ġlaughter":13430,"Ġteachings":13431,"lat":13432,"ĠĠĠĊĠĠĠĠĊ":13433,"Ġdeseja":13434,"Ġbarely":13435,"_re":13436,"ĠUna":13437,"wan":13438,"orph":13439,"Ġconsig":13440,"apped":13441,"Ã¨mes":13442,"Ġaudiences":13443,"å®ĥä»¬åı¯ä»¥":13444,"ĠtrÃ¨s":13445,"Ġwhenever":13446,"Ġalguna":13447,"Ġamazed":13448,"Ġinequality":13449,"Ġgay":13450,"ÑĢÐ¾Ð±":13451,"types":13452,"icu":13453,"Ġhasta":13454,"Ġpounding":13455,"Ġnoter":13456,"190":13457,"ĠClose":13458,"Ġbelonging":13459,"Ġliver":13460,"Ġpyt":13461,"ĠrÃ¡p":13462,"Ġanymore":13463,"Ġgast":13464,"Ġcombines":13465,"Ġtimestamp":13466,"=(":13467,"Ġprivile":13468,"opyridine":13469,"ifest":13470,"Ġconfir":13471,"case":13472,"oard":13473,"ĠÐ´Ð¾Ð¿":13474,"gos":13475,"Ġmarried":13476,"Ġaos":13477,"Ġhousehold":13478,"Ġwalks":13479,"rences":13480,"ĠmÃºsica":13481,"Ġintricate":13482,"').":13483,"Ã©li":13484,"udad":13485,"=\"#":13486,"è®®":13487,"97":13488,"ĠÐ¿ÑĢÐ¾ÐµÐºÑĤ":13489,"Ġcooked":13490,"Ġwand":13491,"uster":13492,"ĠVe":13493,"ĠÑĤÐ¸Ð¿":13494,"Ġtwisted":13495,"hav":13496,"ãĤ¢":13497,"-gener":13498,"Ġpreuve":13499,"reib":13500,"ĠÑĢÐ°Ð·Ð²Ð¸ÑĤ":13501,"-V":13502,"CL":13503,"oche":13504,"ĠÑģÐµÑĤ":13505,"Ġhousing":13506,"Ġconsistency":13507,"Ġdesarrollo":13508,".*":13509,"Ġslic":13510,"ĠTraining":13511,"Ġstorm":13512,"ÑĪÐ¸Ð±":13513,"Ġgrammat":13514,"FA":13515,"Ġchess":13516,"-play":13517,"Ġmayor":13518,"Ġmysteries":13519,"Ġattracted":13520,"onym":13521,"Ġestos":13522,"================================":13523,"Ġkissed":13524,".L":13525,"ulative":13526,"ÃŃd":13527,"ĠÐ±Ð°Ð·":13528,"Ġflour":13529,"Ġdrinks":13530,"Ġshares":13531,"Ġquote":13532,"Ġ^":13533,"Ġfet":13534,"ressed":13535,"Ġscholars":13536,"Ġmining":13537,"Ġresposta":13538,"Ġboyfriend":13539,"Ġgradually":13540,"ĠBerkeley":13541,"Ġleather":13542,"Ġpersonnel":13543,"Ġconnecting":13544,"Ġreps":13545,"Ġpromising":13546,"Ð°ÑģÑĮ":13547,"Ġburst":13548,"Ġluz":13549,"Ġbladder":13550,"ĠØ³":13551,"_image":13552,"Â¿":13553,"Ġtrial":13554,"ĠmÃ©":13555,"lla":13556,"anÃ§ais":13557,"Ġbeneath":13558,"ĠChrome":13559,"Ġgrupo":13560,"ÅĻ":13561,"Ġbat":13562,"Ġtum":13563,"orith":13564,"ĠNVIDIA":13565,"Ġcontroller":13566,"ĠÐ°Ð½Ð°Ð»Ð¸Ð·":13567,"ĠSÃŃ":13568,"ĠMove":13569,"ĠLED":13570,"Ġkilometers":13571,"Ð°ÑĨÐ¸Ð¾Ð½":13572,"333":13573,"Ġregister":13574,"Ġorientation":13575,"isas":13576,"ims":13577,"Ġshake":13578,"books":13579,"DR":13580,"Ġprintf":13581,"Ġnoss":13582,"Ġshoulder":13583,"Ġnutrients":13584,"Ġtutorials":13585,"ishes":13586,"Ġattravers":13587,"ABLE":13588,"Ġformatting":13589,"Certainly":13590,"ë¯":13591,"odos":13592,"ĠÑįÐ»ÐµÐ¼":13593,"Ġstrip":13594,"common":13595,"Ġforte":13596,"Fe":13597,"Ġsoccer":13598,"backs":13599,"ĠTokyo":13600,"Ġhydr":13601,"ĠAdv":13602,"Ġturtle":13603,"imos":13604,"Ġprincipais":13605,"Ġeficiente":13606,"Ġreserv":13607,"ĠEcco":13608,"ÐµÐ¼Ñĥ":13609,"Ġconfused":13610,"Ġencuent":13611,"Ġradius":13612,"option":13613,"heast":13614,"Ġschools":13615,"Ġwhispers":13616,"Ġownership":13617,"ĠVPN":13618,"Ġclarification":13619,"Ġcontracting":13620,"abilidad":13621,"Ġethyl":13622,"CNN":13623,"Ġniv":13624,"ĠRoad":13625,"ĠÐ½ÐµÐ¿":13626,"Ġherbicides":13627,"Ġlibert":13628,".from":13629,"NT":13630,"uded":13631,"ĠDM":13632,"Ġinteracting":13633,".keys":13634,"ecu":13635,"Ġfeat":13636,"-hydroxy":13637,"inyl":13638,"Ð½Ð¸Ðµ":13639,"ĠUbuntu":13640,"Ġtriangle":13641,"jection":13642,"Ġnose":13643,"ĠSent":13644,"orship":13645,"Ġmechanical":13646,"Ġinspiration":13647,"ĠFunction":13648,"ĠÐ¿Ð¾ÑģÑĤ":13649,"Ġexperiments":13650,"Ġsubsequ":13651,"ĠÐ¾Ð±ÑĬÐµÐºÑĤ":13652,"Ġfailed":13653,"Ġgovernance":13654,"Ġkisses":13655,"Controller":13656,"ĠSa":13657,"ĠĠĠĠĠĠĠĠĠĠĠĠĠĠĠĠĠĠ":13658,"greg":13659,"amo":13660,"Ġbench":13661,"Ġfich":13662,"Ġtraveling":13663,"ĠSign":13664,"ĠÐ»ÑĥÑĩÑĪ":13665,"Ġcollapse":13666,"ĠìĿ¸":13667,"uv":13668,"users":13669,"Ġbyte":13670,"imentos":13671,"Ġchopped":13672,"ìĺ":13673,"Ġrewrit":13674,"ìĦ¸":13675,"stÃ¤nd":13676,"Ð°ÑĤÐ¸":13677,"ĠØ±":13678,"Listener":13679,"Ġejecut":13680,".in":13681,"hot":13682,"ientras":13683,"Ġexcellence":13684,"ÑģÑĤÑĢÐ¾":13685,"eding":13686,"Ð»ÑıÐµÑĤ":13687,"Introduction":13688,"chl":13689,"ĠopÃ§Ã£o":13690,".close":13691,"ĠMath":13692,"rico":13693,"Ġtow":13694,"gebra":13695,"Ġtestament":13696,"Ġpositioned":13697,"Ġpuis":13698,"Ġtank":13699,"ĠElle":13700,"Ġfif":13701,"Ġofre":13702,"Ġ(\"":13703,"Ġdisadvantages":13704,"Ġobter":13705,"ĠEncourage":13706,"mun":13707,"íĥ":13708,"Ġepo":13709,"Ġmondo":13710,"background":13711,"utely":13712,"Ġmatters":13713,"Ġlicens":13714,"ĠVoici":13715,"ielen":13716,"quire":13717,"perties":13718,"ĠPlus":13719,"Ġavere":13720,"vid":13721,"åĿ":13722,"itez":13723,"Ġequality":13724,"ĠBeispiel":13725,"Ġswallow":13726,"Ne":13727,"Ġ($":13728,"Ġdevelops":13729,"Ġcope":13730,"Ġutilizzando":13731,"Ġexpanding":13732,"anta":13733,"oren":13734,"rup":13735,"osto":13736,"204":13737,"ĠÑĤÐµÐ»":13738,"ĠMiddle":13739,"CII":13740,"å®ĥä»¬å®ĥä»¬å®ĥä»¬å®ĥä»¬":13741,"};ĊĊ":13742,"ĠSaint":13743,"riger":13744,"Ġshadows":13745,"Ġmultifaceted":13746,"Ġconcrete":13747,"Ġcontributed":13748,"Ġdefeated":13749,"entity":13750,"Ġsuppliers":13751,"green":13752,"Ġdecline":13753,"ĠÐ¸ÑģÐºÑĥÑģ":13754,".assistant":13755,"ĠContinue":13756,"Ġaboard":13757,"Ġformats":13758,"Ġdiscovering":13759,"-suited":13760,"ãĤĤ":13761,"ãĥĹ":13762,"ĠÑģÐ²Ð¾Ð¹":13763,"Also":13764,"Query":13765,"apitalize":13766,"otos":13767,"Ġpolar":13768,"ĠpÃºblico":13769,".split":13770,"ternoon":13771,"ÑĮÑĤÐµ":13772,"Ġiteration":13773,"+Ċ":13774,"ĠAge":13775,"iaz":13776,"Ġsklearn":13777,"æĹł":13778,"Ġsacrific":13779,"ĠDan":13780,"ryst":13781,"Ġtransparency":13782,"Ġsynthesize":13783,".Frame":13784,"_of":13785,"ĠConsole":13786,".gameOver":13787,"ĠBerlin":13788,"Ġdispositivos":13789,"&D":13790,"};Ċ":13791,"Ġappealing":13792,"âĢĻm":13793,"Ġakt":13794,"erves":13795,"ropy":13796,"ìĿ¼":13797,"ĠcapacitÃł":13798,"edding":13799,"ÐµÑĢÐ¸":13800,"Ġhearts":13801,"Ġhistorique":13802,"Ġcredentials":13803,"'],":13804,".)ĊĊ":13805,"inic":13806,"Ġutilizado":13807,"Ġgreenhouse":13808,"Ġwitness":13809,"Ġskeptical":13810,"-int":13811,"TC":13812,"sen":13813,"Ġinfin":13814,"ĠÐ¸ÑģÐ¿Ð¾Ð»ÑĮÐ·ÑĥÐµÑĤÑģÑı":13815,"Ġlikelihood":13816,"Ġadecu":13817,"Ġbeaches":13818,"ĠDark":13819,"Ġbranc":13820,"ĠOffice":13821,"ë¬¸":13822,"ĠJob":13823,"Ġfulfillment":13824,"Ġelection":13825,"ãĥĥ":13826,"Ġorganize":13827,"Ġpartnerships":13828,"Ġloyalty":13829,"information":13830,"ĠCou":13831,"Ġlover":13832,"Ġdesigner":13833,"Ġpixels":13834,"dated":13835,"last":13836,"åĩ":13837,"Ġrum":13838,"Ġperforms":13839,"Ġscratch":13840,"Node":13841,"Ġtous":13842,"Ġtruck":13843,"Ġinspire":13844,"Player":13845,"ĠDraw":13846,"ĠVous":13847,"Ġdivine":13848,"Ġcaptured":13849,"ĠÃ¡reas":13850,"Ġpanel":13851,"Ġshaping":13852,"ĠIslamic":13853,"ÑĢÐ¾":13854,"Ġgenre":13855,"Starting":13856,"-Chloro":13857,"ichen":13858,"ĠTi":13859,"Ġcommunicating":13860,"Ġalleged":13861,"ĠSchool":13862,"mentation":13863,"Ġspoken":13864,"Ġparticle":13865,"Ġcoin":13866,"ãĤ¯":13867,"micos":13868,"Ġunnecess":13869,"Ġapartment":13870,"Ġskirt":13871,"Ġdirectories":13872,"Ġotra":13873,"Ġcolleagues":13874,"Then":13875,"Ġjudge":13876,"Ġrespuestas":13877,"Ġnotable":13878,"Ġdecades":13879,"tras":13880,"-aware":13881,"ĠØ¹ÙĦÙī":13882,"Ġë³´":13883,"uo":13884,"Ġtoilet":13885,"Ġdeals":13886,"Ġaj":13887,"Ġcompression":13888,"ĠEles":13889,"Ġexpansion":13890,"cope":13891,"ĠÐ½ÐµÐ¹":13892,".paused":13893,"Ġbeg":13894,"ĠÐºÐ¾ÑĤÐ¾ÑĢÐ¾Ðµ":13895,"Ġclosing":13896,"ÈĽ":13897,"ĠÐ¸Ð½ÑģÑĤÑĢÑĥ":13898,"-established":13899,"çĲĨ":13900,"-ins":13901,"ÐµÑģÑĤÐ²Ð¾":13902,"ĠHey":13903,"å®ļ":13904,"ĠsÃ³":13905,"Ġcoal":13906,"ĠDas":13907,"Ð¸Ð²Ð°ÑĤÑĮ":13908,"Ġmarked":13909,"Ġscheme":13910,".bind":13911,"Ġcalcular":13912,"EST":13913,"cs":13914,"ĠalcanÃ§":13915,"ĠÐ½Ð°Ð²":13916,"elen":13917,"ÑĤÑĮÑģÑı":13918,"Ġtrabajo":13919,".io":13920,"Ġaug":13921,"Ġcastle":13922,"Keep":13923,"unda":13924,"Ġluxury":13925,"ĠLine":13926,"Ġadults":13927,"NO":13928,"Ġproc":13929,"Dialog":13930,"long":13931,"ĠChange":13932,"Ġdeterg":13933,"Ġmedida":13934,"Ġincluyendo":13935,"rant":13936,"Ġdealing":13937,"Ġcomputador":13938,"Ġrepresentative":13939,"Ġdiferen":13940,"Response":13941,"most":13942,"ĠmaniÃ¨re":13943,"Ġempower":13944,"Ġadicional":13945,"Ġtroublesho":13946,"dough":13947,"Ġwrap":13948,"arding":13949,"Ġpenet":13950,"InitialPosition":13951,".send":13952,"170":13953,"esi":13954,"ĠStep":13955,"Ġsurfact":13956,"Component":13957,"Ġprotagonist":13958,"egu":13959,"-ox":13960,"ocated":13961,"ĠBro":13962,"Manager":13963,"ribute":13964,"ÏĢÎµ":13965,"Ð¸Ð½Ð¸Ð½Ð¸Ð½Ð¸Ð½Ð¸Ð½Ð¸Ð½Ð¸Ð½Ð¸Ð½":13966,"ĠÃ¡rea":13967,"np":13968,"ĠIsrael":13969,"ĠÐŀÐ½Ð¸":13970,"Ġacordo":13971,"Ġboot":13972,"Ġintellectual":13973,"Ġandroid":13974,"ivered":13975,"atori":13976,"nament":13977,"cember":13978,"ĠØ£ÙĨ":13979,"Ġinconvenience":13980,"_pro":13981,"Ġcaract":13982,"Ġcenters":13983,"Ġelementos":13984,"Ġtouched":13985,"Ġproyecto":13986,"what":13987,"alous":13988,"oses":13989,"bert":13990,"Ġhappens":13991,"140":13992,"isticated":13993,"Ġmeasurement":13994,".Ð´":13995,"Exception":13996,"ëĲĺ":13997,"Â¡Hola":13998,"methyl":13999,"ÅĦ":14000,"ÐµÐ½Ð½Ð¾":14001,"Ġdetonate":14002,"ĠÃ©tait":14003,"ĠCollabor":14004,"Ġquiz":14005,"ÑıÐ¼Ð¸":14006,"define":14007,"Ġihr":14008,"ilitÃ©":14009,"ĠJournal":14010,"ento":14011,".âĢĿ":14012,"Ġpier":14013,"Ġobjetos":14014,"ethoxy":14015,"Ġfilename":14016,"Ġinitially":14017,"Ġcamin":14018,"orer":14019,"Ġcoord":14020,"export":14021,"Ð°ÑĤÐµÐ¼":14022,"çļĦåĲĹ":14023,"ĠÐ¿Ð¾ÑĢ":14024,"ĠIndones":14025,"Ġiconic":14026,"Because":14027,"Ġquesta":14028,"(string":14029,"Server":14030,"æĥ":14031,"Ġthreshold":14032,"Ġboat":14033,"72":14034,"OC":14035,"Ġviv":14036,"Ġessence":14037,"Write":14038,"Ġtargeting":14039,"](":14040,"Ġtypical":14041,"ĠØŃ":14042,"á»ĳ":14043,"Ġcursor":14044,"Ġsessions":14045,"ĠPoint":14046,"ÐµÐ½Ð½Ñı":14047,"Ġputting":14048,"Ġhosting":14049,"Ġdurable":14050,"gue":14051,"Ġye":14052,"worth":14053,"rias":14054,"emos":14055,"ĠFollow":14056,"ĠattivitÃł":14057,"Ġconsiderar":14058,"ìĥģ":14059,"_with":14060,"Ã¡tico":14061,"Windows":14062,"ĠStore":14063,"_T":14064,"ãĤĦ":14065,"Ġmetabol":14066,"Ġworried":14067,"Ġgrandes":14068,"Ġadvances":14069,".generate":14070,"elsius":14071,"OUR":14072,"Ġnoch":14073,"Ð¼ÐµÑģÑĤ":14074,"Ġastron":14075,"Ġmild":14076,"ĠSoil":14077,"ĠrÃ©g":14078,"Ġverdade":14079,"ĠÑĤÐ°Ð±":14080,"rations":14081,"elli":14082,"-nitro":14083,"itet":14084,"Ġrapport":14085,"ĠStrateg":14086,"ĠrÃ©pond":14087,"ĠÐ¸Ð½ÑĤÐµÑĢÐµÑģ":14088,"container":14089,"gres":14090,"Ġinstruct":14091,"Ġdependent":14092,"ÙĪÙĨ":14093,"charge":14094,"ontal":14095,"Ġtabel":14096,".display":14097,".move":14098,"ĠEvaluate":14099,"Ġchaque":14100,"ooc":14101,"ĨĴ":14102,"Ġainda":14103,"ĠFuture":14104,"ĠconversaciÃ³n":14105,"Ġlaughing":14106,"zym":14107,"ÐµÐ»Ð»ÐµÐºÑĤ":14108,"ĠComment":14109,"ders":14110,"ĠÑĢÐµÐ³":14111,"×¨":14112,"orry":14113,"Ġgrip":14114,"unci":14115,"ometric":14116,"Ġjuntos":14117,"ĠÐĿÐ°Ð¿ÑĢÐ¸Ð¼ÐµÑĢ":14118,"Ġfornire":14119,"aya":14120,"ĠHol":14121,"archy":14122,"Ġsimult":14123,"Ġdomande":14124,"à¤¾à¤":14125,"tex":14126,"Ġjoined":14127,"ĠOffer":14128,"Ġloose":14129,"ĠÙĨ":14130,"Ġprominent":14131,"Ġ``,":14132,"ployee":14133,"ë²ķ":14134,"Ġattach":14135,"Ġattraverso":14136,"Ġdense":14137,"atted":14138,"Ġdiffusion":14139,"conf":14140,"ĠKnow":14141,"Ġdirected":14142,"ĠStreet":14143,"Ġaccordance":14144,"Thought":14145,"_S":14146,"ĠDeuts":14147,"Î¹Î±":14148,"Each":14149,"driver":14150,"ÙħÙĥÙĨ":14151,"world":14152,"Ġimmers":14153,"Ġodd":14154,"thal":14155,".capitalize":14156,"nehmen":14157,"Ġhyd":14158,"Ġsexy":14159,"Ġgenu":14160,"likely":14161,"Ġappropri":14162,"Ġinflation":14163,"-bit":14164,"ĠíĮ":14165,"Ġunnecessary":14166,"Ġquadr":14167,"ĠSM":14168,"anny":14169,"Ġattacker":14170,"ëł¥":14171,"Ġdried":14172,"Ġinjuring":14173,"Ġpursuing":14174,"chant":14175,"ĠÐ¾ÑĤÐ½Ð¾":14176,"Ġexpanded":14177,"Ġhip":14178,"ĠPlace":14179,"Î¹Îº":14180,"jos":14181,"Ġattached":14182,"[:":14183,"dess":14184,"quare":14185,"ĠÙĦÙĦ":14186,"rd":14187,"Ġfucking":14188,"Ġ`'":14189,"Ġattitude":14190,"'existe":14191,"connected":14192,"ald":14193,"ĠPs":14194,"ĠÐ´Ð°Ð½Ð½ÑĭÐµ":14195,"apa":14196,"Ġessay":14197,"Ġinstalar":14198,"appy":14199,"Ġcens":14200,"ÑıÐ´":14201,"nisse":14202,"Ġreson":14203,"ĠfranÃ§ais":14204,"Ġburning":14205,"Ġexch":14206,"ricks":14207,"Ġsubstitute":14208,"Ġ]":14209,"ÐµÐ½Ð½ÑĭÐµ":14210,"Ġwizard":14211,"Ġforming":14212,"Shell":14213,"Ġconhecimento":14214,"amount":14215,"ĠLeague":14216,"ÑĥÐ¹ÑĤÐµ":14217,"EL":14218,"ĠìľĦ":14219,"-la":14220,".run":14221,"Ġfurn":14222,"ĠCU":14223,"./":14224,"ĠEgypt":14225,"ÐºÐ¾Ð¹":14226,"ĉĉĉ":14227,"Ġconclus":14228,"auses":14229,"Ð¼Ñĥ":14230,"Ġcresc":14231,"Ġprofessor":14232,"ĠMonday":14233,"Ġrelaxed":14234,"Ġdominance":14235,"Ð°Ð½Ð¸Ð¹":14236,"inn":14237,"Ġexceed":14238,"ĠØ¨Ùĩ":14239,"ĠGuide":14240,"ĠPour":14241,"perm":14242,"Ġdipl":14243,"Ġlegit":14244,"Ġextends":14245,"Ġsurroundings":14246,"ĠinvestigaciÃ³n":14247,"Ġpreparing":14248,"Ġpossibile":14249,"Ġhumanos":14250,"Ġhesitated":14251,"eld":14252,"ĠLib":14253,"ĠÑģÐ¿Ðµ":14254,"ĠÐ¿Ð¾ÑĤÑĢÐµÐ±":14255,"Ġcul":14256,"Ø³Øª":14257,"Ġwond":14258,"Ġborrow":14259,"åĪ°":14260,"Ġpump":14261,"ÑĢÐ°Ð·":14262,"Ġshocked":14263,"ĠFederal":14264,"Ġdonde":14265,"bro":14266,"ĠdÃŃa":14267,"Ġquer":14268,"Ð·Ð²":14269,"Ð°ÑĤÐ°":14270,"upt":14271,"Ġneuro":14272,"à¸Ķ":14273,"-dih":14274,"Ġdrivers":14275,"ĠDepartment":14276,"Ġfacilitate":14277,"Ġadvisor":14278,"Ġconform":14279,"iana":14280,"Ġantioxid":14281,"Ġhiking":14282,"Ġwounding":14283,"ĠĠĠĠĠĠĠĠĠĠĠĠ":14284,"ĠÐ·Ð½Ð°":14285,"Ġstrengthen":14286,"control":14287,"Ġlivro":14288,"ĠSEO":14289,"Ġfiber":14290,"Ġgratuit":14291,"Ġsophisticated":14292,"Ġpivot":14293,"Ġplain":14294,"-oriented":14295,"ĠUnderstanding":14296,"Ġsuiv":14297,"Ã¶t":14298,"optim":14299,"Ġinquir":14300,"Ġì¶":14301,"Ġdiscusses":14302,"ĠtÃ©cnica":14303,"Ġspeakers":14304,"Ġì¤ĳ":14305,"Ġfibonacci":14306,"Ð°Ð½Ð½Ñı":14307,"Ġsiempre":14308,"Subject":14309,"lung":14310,"Ġdalle":14311,"Ġinvoice":14312,"ĠÐ¿ÑĢÐ¾ÑĤ":14313,"ĠespecÃŃficos":14314,"Ġshowcase":14315,"ĠAuf":14316,"peat":14317,"Page":14318,"Ġshining":14319,"Ġ[(":14320,".pop":14321,"ÑįÑĤ":14322,"ĠDrive":14323,"Ġdisput":14324,"EVALU":14325,"ÑħÑĢÐ°Ð½":14326,"Ġtargeted":14327,"Hz":14328,"ĠDown":14329,"ĠfÃŃsica":14330,"Ġestas":14331,"Ġplaydough":14332,"ĠÑĥÑģÑĤÐ°Ð½Ð¾Ð²":14333,"ĠExplain":14334,"Ġpanties":14335,"olare":14336,"iao":14337,"Ġstruggled":14338,"ĠWestern":14339,"Ġdivisible":14340,"ĠHot":14341,"Ð±Ð¾Ð»ÑĮÑĪ":14342,"rencies":14343,"Ġawe":14344,"Ġstepped":14345,"Ġcelebrate":14346,"Ġconnaissance":14347,"Ġbanks":14348,"Ġheritage":14349,"ĠView":14350,".r":14351,"220":14352,"ifting":14353,"Ġcreators":14354,"unde":14355,"ĠReplace":14356,"Ġstrictly":14357,"Ġgover":14358,".pauseButton":14359,"Ġstumbled":14360,">\",":14361,"zone":14362,"Ã¶glichkeit":14363,"Rob":14364,"uits":14365,"pert":14366,"-pyridine":14367,"Ã¸":14368,"ĠEth":14369,"ika":14370,"Ġgovernments":14371,".lower":14372,"nde":14373,"Ġpredicted":14374,"UMBAI":14375,"Ġreleases":14376,":.":14377,"Ġperformances":14378,"Ref":14379,
[...]
